<unk>	0
<s>	0
</s>	0
▁s	-0
in	-1
er	-2
▁c	-3
an	-4
▁p	-5
on	-6
re	-7
al	-8
▁t	-9
▁l	-10
en	-11
▁m	-12
▁w	-13
▁g	-14
ar	-15
at	-16
▁b	-17
▁d	-18
ou	-19
it	-20
▁f	-21
st	-22
▁n	-23
▁e	-24
le	-25
▁a	-26
or	-27
ce	-28
▁h	-29
ri	-30
ot	-31
om	-32
ly	-33
▁re	-34
ion	-35
ve	-36
et	-37
se	-38
ing	-39
ent	-40
ay	-41
ic	-42
ke	-43
ll	-44
op	-45
▁u	-46
▁go	-47
ss	-48
▁st	-49
ct	-50
▁in	-51
ol	-52
▁not	-53
▁th	-54
ow	-55
one	-56
ver	-57
ee	-58
ank	-59
▁li	-60
ate	-61
▁'	-62
ra	-63
ch	-64
im	-65
id	-66
ro	-67
ig	-68
ld	-69
ge	-70
od	-71
▁de	-72
is	-73
ation	-74
ea	-75
▁k	-76
▁al	-77
▁com	-78
oun	-79
am	-80
▁get	-81
ry	-82
th	-83
▁sri	-84
ally	-85
▁ex	-86
▁lank	-87
ck	-88
▁we	-89
il	-90
pp	-91
ould	-92
ear	-93
any	-94
ur	-95
ad	-96
▁ch	-97
▁y	-98
end	-99
▁lo	-100
ment	-101
▁v	-102
ake	-103
▁like	-104
and	-105
ity	-106
▁su	-107
▁un	-108
ue	-109
ant	-110
▁con	-111
ff	-112
▁bu	-113
ill	-114
ble	-115
▁r	-116
ul	-117
▁wor	-118
ive	-119
▁pro	-120
ine	-121
ort	-122
▁pe	-123
el	-124
ht	-125
ir	-126
ople	-127
la	-128
▁lanka	-129
▁people	-130
ut	-131
▁good	-132
art	-133
her	-134
▁would	-135
ount	-136
▁1	-137
ci	-138
▁2	-139
▁do	-140
▁sh	-141
now	-142
▁j	-143
ed	-144
▁know	-145
ter	-146
un	-147
as	-148
ok	-149
ind	-150
are	-151
▁ne	-152
ice	-153
▁be	-154
ink	-155
um	-156
▁exp	-157
ime	-158
ect	-159
ome	-160
▁o	-161
00	-162
▁sp	-163
▁po	-164
▁see	-165
▁ev	-166
eed	-167
▁any	-168
ist	-169
▁comp	-170
▁well	-171
age	-172
▁one	-173
em	-174
ase	-175
ard	-176
▁work	-177
▁think	-178
ence	-179
▁ad	-180
▁per	-181
so	-182
ack	-183
ie	-184
▁time	-185
▁use	-186
▁en	-187
▁op	-188
ud	-189
▁count	-190
▁make	-191
ide	-192
▁also	-193
▁pre	-194
ure	-195
▁ve	-196
▁even	-197
ast	-198
▁need	-199
▁ever	-200
▁I	-201
ance	-202
▁country	-203
▁app	-204
▁pl	-205
▁mu	-206
all	-207
▁se	-208
qu	-209
du	-210
▁want	-211
▁ar	-212
▁di	-213
der	-214
▁pri	-215
sp	-216
▁sl	-217
▁fo	-218
▁year	-219
▁say	-220
ree	-221
▁fa	-222
▁ri	-223
▁every	-224
ap	-225
▁pay	-226
▁tra	-227
▁co	-228
ight	-229
▁im	-230
ru	-231
ith	-232
lo	-233
▁ac	-234
▁look	-235
▁col	-236
ong	-237
ound	-238
▁rec	-239
sh	-240
ite	-241
bo	-242
▁inter	-243
able	-244
nt	-245
our	-246
▁ma	-247
fe	-248
ip	-249
▁take	-250
out	-251
ob	-252
ght	-253
▁wh	-254
▁3	-255
▁thing	-256
vel	-257
▁ha	-258
ous	-259
▁pr	-260
▁me	-261
ber	-262
eri	-263
pt	-264
lace	-265
▁pol	-266
▁an	-267
▁day	-268
▁i	-269
▁lea	-270
▁try	-271
ult	-272
hing	-273
▁sin	-274
ab	-275
▁lankan	-276
▁much	-277
▁te	-278
ary	-279
▁gu	-280
ign	-281
▁anyone	-282
▁come	-283
▁mon	-284
▁le	-285
▁hel	-286
ombo	-287
vern	-288
▁give	-289
▁really	-290
gh	-291
if	-292
▁inc	-293
port	-294
▁place	-295
▁act	-296
sk	-297
▁help	-298
▁he	-299
int	-300
▁govern	-301
▁ra	-302
▁part	-303
▁so	-304
▁find	-305
orm	-306
ia	-307
other	-308
▁colombo	-309
▁ta	-310
way	-311
▁back	-312
▁government	-313
▁adv	-314
og	-315
ish	-316
omet	-317
▁stud	-318
▁way	-319
us	-320
oney	-321
ffer	-322
ough	-323
▁somet	-324
son	-325
▁thank	-326
▁man	-327
▁new	-328
iz	-329
igh	-330
▁mar	-331
ep	-332
▁money	-333
▁start	-334
ical	-335
▁buy	-336
▁us	-337
▁ind	-338
▁tr	-339
▁could	-340
▁uni	-341
▁around	-342
ire	-343
▁fee	-344
▁mo	-345
gree	-346
▁tax	-347
est	-348
▁month	-349
erience	-350
▁job	-351
▁experience	-352
dit	-353
con	-354
lect	-355
▁cur	-356
▁can	-357
▁qu	-358
▁will	-359
▁some	-360
▁cont	-361
sid	-362
▁bus	-363
▁guy	-364
▁20	-365
old	-366
▁high	-367
▁sa	-368
▁still	-369
▁happ	-370
ain	-371
▁gr	-372
ually	-373
▁person	-374
▁with	-375
▁sc	-376
▁acc	-377
ange	-378
ise	-379
▁br	-380
▁5	-381
thing	-382
▁plan	-383
li	-384
ily	-385
ian	-386
ick	-387
▁am	-388
▁right	-389
▁eng	-390
▁something	-391
riend	-392
ust	-393
▁vis	-394
▁ro	-395
▁company	-396
▁may	-397
▁ke	-398
vers	-399
cial	-400
▁dis	-401
ub	-402
▁price	-403
▁curre	-404
▁fir	-405
▁many	-406
▁ph	-407
▁dec	-408
▁comm	-409
▁ask	-410
▁lot	-411
▁4	-412
▁ab	-413
▁inf	-414
ple	-415
ote	-416
▁sch	-417
▁feel	-418
ath	-419
▁bo	-420
act	-421
▁loc	-422
▁reg	-423
▁sm	-424
ild	-425
reat	-426
que	-427
▁em	-428
ame	-429
▁gen	-430
▁first	-431
omm	-432
▁friend	-433
ak	-434
▁live	-435
▁car	-436
stion	-437
ful	-438
▁life	-439
▁id	-440
▁post	-441
te	-442
▁rel	-443
lease	-444
ag	-445
▁since	-446
ace	-447
cy	-448
▁iss	-449
▁happen	-450
▁polit	-451
▁issue	-452
ore	-453
▁rem	-454
▁someone	-455
ty	-456
cess	-457
▁current	-458
▁med	-459
▁let	-460
ail	-461
ool	-462
be	-463
▁bank	-464
aw	-465
vest	-466
▁long	-467
▁fin	-468
▁degree	-469
▁intern	-470
▁bad	-471
up	-472
iv	-473
line	-474
ket	-475
▁et	-476
▁under	-477
ommend	-478
▁recommend	-479
▁invest	-480
ose	-481
ory	-482
lic	-483
▁hear	-484
▁mean	-485
▁supp	-486
▁sure	-487
▁at	-488
▁everyone	-489
▁res	-490
▁keep	-491
▁please	-492
▁inst	-493
▁or	-494
ope	-495
▁face	-496
▁sal	-497
▁hi	-498
eci	-499
▁ser	-500
▁sim	-501
ffic	-502
▁ear	-503
ower	-504
use	-505
▁univers	-506
ress	-507
▁school	-508
ead	-509
▁fore	-510
▁tea	-511
▁local	-512
▁cor	-513
iness	-514
▁etc	-515
xt	-516
▁call	-517
▁elect	-518
▁travel	-519
conom	-520
▁fu	-521
▁min	-522
ship	-523
tion	-524
▁university	-525
es	-526
▁rep	-527
▁fam	-528
own	-529
▁real	-530
▁econom	-531
ass	-532
ual	-533
▁might	-534
▁sub	-535
▁change	-536
▁differ	-537
▁market	-538
face	-539
▁student	-540
ang	-541
alk	-542
▁que	-543
ft	-544
ial	-545
ala	-546
ible	-547
▁business	-548
▁che	-549
▁tw	-550
▁cost	-551
▁dep	-552
▁cla	-553
▁seem	-554
atch	-555
▁without	-556
▁cl	-557
▁you	-558
▁dri	-559
ile	-560
read	-561
▁care	-562
ize	-563
▁end	-564
▁tell	-565
▁sy	-566
earn	-567
ically	-568
▁learn	-569
ord	-570
▁never	-571
vice	-572
ert	-573
ious	-574
▁anything	-575
me	-576
▁advice	-577
▁hard	-578
eek	-579
▁tran	-580
▁ent	-581
fer	-582
less	-583
▁on	-584
▁love	-585
ational	-586
ject	-587
▁priv	-588
▁kind	-589
ways	-590
▁cre	-591
▁option	-592
▁fun	-593
stand	-594
▁actually	-595
urn	-596
ciate	-597
▁visit	-598
▁week	-599
ute	-600
▁sug	-601
▁sinh	-602
sit	-603
▁sit	-604
▁ag	-605
come	-606
▁account	-607
icle	-608
arent	-609
de	-610
▁interest	-611
▁ass	-612
▁question	-613
▁family	-614
ense	-615
▁prop	-616
▁move	-617
get	-618
▁gener	-619
▁for	-620
▁power	-621
▁wr	-622
▁point	-623
▁understand	-624
▁check	-625
▁to	-626
blem	-627
ason	-628
▁lit	-629
▁problem	-630
ude	-631
ative	-632
ather	-633
ital	-634
sider	-635
▁6	-636
▁att	-637
ern	-638
▁el	-639
▁last	-640
ently	-641
ility	-642
▁sugge	-643
erm	-644
▁foreign	-645
▁up	-646
ning	-647
▁study	-648
▁always	-649
▁service	-650
duc	-651
eak	-652
reciate	-653
▁reason	-654
▁ment	-655
▁great	-656
▁two	-657
▁salary	-658
▁exam	-659
▁vote	-660
▁big	-661
▁bud	-662
▁old	-663
▁av	-664
arge	-665
▁tou	-666
▁idea	-667
amil	-668
tle	-669
ific	-670
▁cho	-671
▁consider	-672
unity	-673
▁gra	-674
▁ins	-675
▁educ	-676
ember	-677
▁cour	-678
ne	-679
▁imp	-680
▁10	-681
▁another	-682
▁sk	-683
▁leave	-684
▁engine	-685
▁pub	-686
ably	-687
▁hand	-688
▁support	-689
gra	-690
▁cri	-691
▁import	-692
ach	-693
▁tamil	-694
▁stay	-695
▁bit	-696
▁appreciate	-697
▁talk	-698
▁private	-699
▁maybe	-700
▁free	-701
lish	-702
▁bas	-703
▁over	-704
▁out	-705
▁enough	-706
▁hope	-707
duct	-708
stem	-709
with	-710
ssion	-711
▁202	-712
▁build	-713
ever	-714
▁next	-715
▁pass	-716
ium	-717
iew	-718
▁par	-719
▁system	-720
▁eas	-721
▁veh	-722
▁all	-723
ether	-724
▁online	-725
▁politic	-726
rect	-727
▁vehicle	-728
oy	-729
ater	-730
▁show	-731
ale	-732
ract	-733
▁different	-734
atter	-735
▁law	-736
▁shit	-737
uation	-738
▁party	-739
▁tri	-740
▁tru	-741
bt	-742
ya	-743
rea	-744
▁low	-745
sc	-746
▁engineer	-747
▁ca	-748
ens	-749
ouse	-750
ready	-751
▁state	-752
▁pret	-753
▁already	-754
▁war	-755
▁qual	-756
▁def	-757
stly	-758
▁sol	-759
▁ext	-760
▁public	-761
▁stu	-762
▁read	-763
rupt	-764
▁aff	-765
ution	-766
▁base	-767
▁parent	-768
mo	-769
▁open	-770
▁100	-771
ecially	-772
▁cle	-773
▁touri	-774
▁bel	-775
▁sur	-776
▁spend	-777
road	-778
▁far	-779
▁situation	-780
ism	-781
▁card	-782
▁world	-783
▁home	-784
▁put	-785
ere	-786
ieve	-787
ority	-788
▁area	-789
▁share	-790
llow	-791
▁class	-792
▁other	-793
▁sell	-794
▁less	-795
cept	-796
yp	-797
▁rest	-798
▁run	-799
▁prov	-800
▁income	-801
▁small	-802
▁proper	-803
▁add	-804
▁food	-805
▁that	-806
alth	-807
▁who	-808
▁red	-809
ctor	-810
▁pretty	-811
here	-812
ware	-813
ey	-814
▁else	-815
ib	-816
▁become	-817
▁7	-818
▁offer	-819
sw	-820
ither	-821
▁poss	-822
▁leg	-823
▁currently	-824
▁ru	-825
▁social	-826
▁emp	-827
▁though	-828
loy	-829
▁lk	-830
▁yes	-831
▁air	-832
▁stuff	-833
▁ho	-834
▁set	-835
▁teach	-836
▁mind	-837
▁pack	-838
▁ret	-839
▁least	-840
▁house	-841
sident	-842
▁able	-843
▁hey	-844
ular	-845
lank	-846
ict	-847
▁disc	-848
bs	-849
▁speak	-850
▁dat	-851
▁book	-852
▁everything	-853
▁bea	-854
onder	-855
▁stop	-856
▁comple	-857
▁ran	-858
▁advance	-859
▁cult	-860
▁dr	-861
▁case	-862
▁recently	-863
▁wonder	-864
▁15	-865
▁mod	-866
▁num	-867
▁apply	-868
▁maj	-869
▁prob	-870
▁india	-871
velop	-872
dition	-873
▁8	-874
▁resp	-875
▁incre	-876
▁val	-877
▁bring	-878
▁sinhala	-879
▁worth	-880
▁amount	-881
mit	-882
gg	-883
▁jo	-884
▁play	-885
▁due	-886
ac	-887
▁cert	-888
▁nothing	-889
▁earn	-890
▁pur	-891
▁develop	-892
▁tech	-893
joy	-894
▁it	-895
▁how	-896
▁either	-897
▁wa	-898
▁manage	-899
form	-900
▁fre	-901
▁english	-902
▁mi	-903
outh	-904
▁education	-905
▁fut	-906
▁number	-907
ister	-908
▁land	-909
ody	-910
▁sw	-911
▁top	-912
rate	-913
▁esp	-914
illion	-915
ately	-916
ene	-917
ilar	-918
▁rate	-919
▁term	-920
fit	-921
000	-922
▁employ	-923
▁expect	-924
▁corrupt	-925
▁kid	-926
▁abroad	-927
▁level	-928
▁probably	-929
amp	-930
▁ranil	-931
▁future	-932
day	-933
▁prot	-934
▁hot	-935
olog	-936
ral	-937
▁sing	-938
ric	-939
where	-940
▁election	-941
nect	-942
▁however	-943
▁cu	-944
▁cust	-945
▁president	-946
▁lankans	-947
▁recommendation	-948
▁fund	-949
▁mention	-950
▁conf	-951
ought	-952
▁medium	-953
▁especially	-954
▁phone	-955
▁similar	-956
▁clo	-957
ner	-958
▁lkr	-959
▁cons	-960
▁as	-961
▁custom	-962
▁hone	-963
▁trans	-964
▁comment	-965
▁srilank	-966
▁lol	-967
▁product	-968
▁lu	-969
▁course	-970
▁possible	-971
▁9	-972
ving	-973
▁fuck	-974
▁thought	-975
▁hell	-976
▁ap	-977
quire	-978
eap	-979
vious	-980
▁send	-981
pl	-982
▁sec	-983
oup	-984
▁bro	-985
▁easy	-986
▁main	-987
▁fi	-988
▁name	-989
▁na	-990
▁police	-991
▁complete	-992
ash	-993
▁connect	-994
▁loan	-995
ma	-996
▁stre	-997
▁side	-998
of	-999
▁sci	-1000
▁yea	-1001
▁doctor	-1002
row	-1003
▁train	-1004
▁package	-1005
▁increase	-1006
▁is	-1007
irl	-1008
▁cause	-1009
▁drive	-1010
▁mid	-1011
▁whole	-1012
ource	-1013
▁follow	-1014
▁believe	-1015
▁there	-1016
ha	-1017
▁datum	-1018
▁health	-1019
fort	-1020
▁political	-1021
▁south	-1022
▁npp	-1023
inion	-1024
ward	-1025
▁taxis	-1026
▁full	-1027
▁bl	-1028
▁indu	-1029
▁opinion	-1030
▁what	-1031
▁close	-1032
▁watch	-1033
▁personal	-1034
▁tourist	-1035
▁indust	-1036
▁gov	-1037
▁stand	-1038
▁inform	-1039
gram	-1040
▁matter	-1041
▁economy	-1042
ph	-1043
sition	-1044
▁typ	-1045
▁girl	-1046
view	-1047
▁sign	-1048
▁whether	-1049
▁order	-1050
▁charge	-1051
▁agree	-1052
▁opport	-1053
▁wrong	-1054
duce	-1055
▁bi	-1056
▁cheap	-1057
uk	-1058
lude	-1059
▁away	-1060
▁group	-1061
▁ago	-1062
▁vi	-1063
▁instead	-1064
ield	-1065
arch	-1066
▁deal	-1067
ock	-1068
▁remember	-1069
dge	-1070
▁infl	-1071
▁past	-1072
lain	-1073
▁wait	-1074
▁allow	-1075
▁provide	-1076
andy	-1077
▁visa	-1078
os	-1079
wor	-1080
▁lose	-1081
▁require	-1082
▁trip	-1083
▁economic	-1084
▁cap	-1085
ys	-1086
▁int	-1087
▁payment	-1088
▁z	-1089
▁grow	-1090
uw	-1091
alle	-1092
▁regard	-1093
▁budget	-1094
icy	-1095
▁yeah	-1096
ify	-1097
▁shop	-1098
▁list	-1099
▁near	-1100
▁true	-1101
▁quality	-1102
▁usually	-1103
▁hour	-1104
▁off	-1105
▁soft	-1106
▁direct	-1107
▁little	-1108
▁process	-1109
ency	-1110
▁rese	-1111
sm	-1112
▁politician	-1113
▁project	-1114
▁science	-1115
▁industry	-1116
▁night	-1117
▁opportunity	-1118
▁kandy	-1119
ond	-1120
▁bre	-1121
▁meet	-1122
oc	-1123
▁child	-1124
▁offic	-1125
▁compare	-1126
oman	-1127
▁det	-1128
▁cent	-1129
▁culture	-1130
side	-1131
▁avail	-1132
▁sup	-1133
▁program	-1134
▁within	-1135
▁pop	-1136
▁tod	-1137
▁clear	-1138
▁short	-1139
▁mus	-1140
▁fact	-1141
ara	-1142
ision	-1143
▁suggestion	-1144
▁cou	-1145
▁trust	-1146
▁investment	-1147
▁engineering	-1148
▁field	-1149
▁30	-1150
▁raj	-1151
▁result	-1152
▁include	-1153
ade	-1154
ety	-1155
▁norm	-1156
lla	-1157
▁depend	-1158
▁ob	-1159
▁choose	-1160
▁gue	-1161
▁speci	-1162
ruct	-1163
▁today	-1164
most	-1165
ensive	-1166
ron	-1167
▁pick	-1168
▁quite	-1169
▁policy	-1170
▁save	-1171
ration	-1172
▁suggest	-1173
▁woman	-1174
rove	-1175
ting	-1176
▁cra	-1177
▁head	-1178
▁research	-1179
lim	-1180
▁driver	-1181
▁mil	-1182
aster	-1183
▁scam	-1184
▁brand	-1185
▁prefer	-1186
▁million	-1187
▁art	-1188
▁form	-1189
▁12	-1190
▁game	-1191
▁des	-1192
▁vide	-1193
▁specif	-1194
alog	-1195
▁finan	-1196
▁au	-1197
▁mess	-1198
▁almost	-1199
tear	-1200
ament	-1201
▁create	-1202
ition	-1203
▁prom	-1204
▁sect	-1205
▁road	-1206
ota	-1207
rol	-1208
▁national	-1209
▁video	-1210
▁str	-1211
eat	-1212
▁indian	-1213
▁yet	-1214
▁rent	-1215
cond	-1216
▁hotel	-1217
▁201	-1218
▁example	-1219
aste	-1220
▁cut	-1221
▁mom	-1222
▁slt	-1223
▁ok	-1224
▁notice	-1225
oud	-1226
▁general	-1227
▁mob	-1228
▁usd	-1229
▁hist	-1230
▁defin	-1231
▁relate	-1232
▁second	-1233
▁mor	-1234
▁dialog	-1235
▁rece	-1236
dle	-1237
▁must	-1238
▁relig	-1239
▁25	-1240
▁spe	-1241
▁port	-1242
▁ak	-1243
▁value	-1244
ient	-1245
▁available	-1246
▁inv	-1247
swer	-1248
▁couple	-1249
▁fine	-1250
angu	-1251
itely	-1252
▁rather	-1253
▁international	-1254
▁fl	-1255
air	-1256
▁hold	-1257
▁answer	-1258
▁ur	-1259
▁skill	-1260
▁safe	-1261
▁langu	-1262
▁ps	-1263
▁event	-1264
nd	-1265
▁abs	-1266
▁exact	-1267
▁pract	-1268
ology	-1269
▁turn	-1270
ura	-1271
▁stock	-1272
▁language	-1273
man	-1274
▁guess	-1275
bsite	-1276
▁information	-1277
ons	-1278
▁eff	-1279
▁conc	-1280
ari	-1281
urity	-1282
▁city	-1283
▁pu	-1284
ume	-1285
hind	-1286
▁liter	-1287
▁hosp	-1288
▁break	-1289
▁afford	-1290
▁website	-1291
▁decide	-1292
▁srilanka	-1293
▁join	-1294
▁return	-1295
▁career	-1296
▁hospital	-1297
▁soon	-1298
▁x	-1299
aff	-1300
▁chance	-1301
▁unless	-1302
ification	-1303
▁sometime	-1304
▁definitely	-1305
cle	-1306
cus	-1307
land	-1308
▁ref	-1309
▁50	-1310
▁uk	-1311
▁interested	-1312
▁phys	-1313
▁rajap	-1314
iling	-1315
ane	-1316
▁speed	-1317
▁mostly	-1318
cket	-1319
work	-1320
▁mig	-1321
▁imm	-1322
▁type	-1323
▁software	-1324
hand	-1325
uge	-1326
▁dist	-1327
▁receive	-1328
spect	-1329
▁internet	-1330
▁majority	-1331
▁community	-1332
ross	-1333
ural	-1334
duate	-1335
▁bene	-1336
▁planning	-1337
▁expensive	-1338
▁dem	-1339
▁honestly	-1340
▁blo	-1341
▁focus	-1342
▁early	-1343
▁rajapak	-1344
he	-1345
▁beach	-1346
▁news	-1347
▁story	-1348
▁fix	-1349
▁cover	-1350
▁cr	-1351
▁own	-1352
▁credit	-1353
▁west	-1354
▁nice	-1355
▁water	-1356
▁write	-1357
▁hello	-1358
▁transp	-1359
olve	-1360
▁neg	-1361
▁af	-1362
artment	-1363
▁decent	-1364
▁debt	-1365
date	-1366
▁limit	-1367
▁budd	-1368
sa	-1369
▁met	-1370
ulation	-1371
ability	-1372
min	-1373
ledge	-1374
rict	-1375
▁normal	-1376
▁reddit	-1377
uel	-1378
▁har	-1379
▁tem	-1380
▁tot	-1381
▁techn	-1382
ven	-1383
ove	-1384
erious	-1385
▁connection	-1386
▁19	-1387
▁luck	-1388
▁treat	-1389
az	-1390
com	-1391
▁math	-1392
▁sector	-1393
dd	-1394
▁dam	-1395
oid	-1396
aper	-1397
▁akd	-1398
▁certain	-1399
▁basically	-1400
oint	-1401
▁tip	-1402
▁protest	-1403
cu	-1404
red	-1405
ior	-1406
▁net	-1407
▁wan	-1408
▁decision	-1409
liament	-1410
▁middle	-1411
book	-1412
▁const	-1413
▁parliament	-1414
▁cit	-1415
▁sel	-1416
▁aust	-1417
▁report	-1418
na	-1419
▁serious	-1420
itch	-1421
▁age	-1422
▁lead	-1423
▁hum	-1424
tears	-1425
▁profe	-1426
ird	-1427
▁ll	-1428
▁contact	-1429
▁sometimes	-1430
▁equ	-1431
▁path	-1432
▁risk	-1433
▁da	-1434
▁rs	-1435
oung	-1436
iya	-1437
▁special	-1438
ness	-1439
▁curi	-1440
wh	-1441
▁down	-1442
▁item	-1443
▁history	-1444
▁corruption	-1445
ana	-1446
izen	-1447
▁common	-1448
▁ce	-1449
erg	-1450
▁young	-1451
▁single	-1452
ama	-1453
▁force	-1454
▁fair	-1455
▁fuel	-1456
▁position	-1457
▁camp	-1458
gin	-1459
▁purch	-1460
▁benefit	-1461
▁they	-1462
▁subject	-1463
itle	-1464
▁dra	-1465
▁self	-1466
▁sound	-1467
▁vac	-1468
▁choice	-1469
▁citizen	-1470
▁financial	-1471
▁tuk	-1472
▁personally	-1473
▁opp	-1474
▁entire	-1475
▁austral	-1476
▁date	-1477
▁legal	-1478
▁compet	-1479
▁improve	-1480
▁ai	-1481
▁non	-1482
▁accept	-1483
▁rule	-1484
▁galle	-1485
olute	-1486
apt	-1487
fully	-1488
▁teacher	-1489
▁absolute	-1490
▁dou	-1491
▁fail	-1492
por	-1493
tern	-1494
▁link	-1495
sis	-1496
verage	-1497
▁eat	-1498
▁finance	-1499
▁large	-1500
▁200	-1501
ential	-1502
▁edit	-1503
▁avoid	-1504
▁office	-1505
ina	-1506
▁tow	-1507
▁source	-1508
gan	-1509
▁bill	-1510
▁transport	-1511
llar	-1512
▁select	-1513
ogle	-1514
▁customer	-1515
▁cash	-1516
rugg	-1517
▁rup	-1518
▁medic	-1519
▁basic	-1520
▁google	-1521
▁curious	-1522
▁knowledge	-1523
ated	-1524
erve	-1525
▁concern	-1526
▁crisis	-1527
ump	-1528
ited	-1529
ik	-1530
fficult	-1531
▁contin	-1532
▁cal	-1533
▁paper	-1534
▁difficult	-1535
ug	-1536
▁bra	-1537
▁fall	-1538
▁cy	-1539
ger	-1540
idate	-1541
▁toward	-1542
▁word	-1543
▁maint	-1544
▁reduce	-1545
▁huge	-1546
▁mass	-1547
▁strong	-1548
era	-1549
▁dig	-1550
cer	-1551
vert	-1552
▁wel	-1553
▁deli	-1554
▁instit	-1555
▁previous	-1556
▁purchase	-1557
▁important	-1558
▁profession	-1559
▁line	-1560
iri	-1561
▁security	-1562
▁pet	-1563
▁transfer	-1564
over	-1565
▁enjoy	-1566
▁outside	-1567
▁soci	-1568
▁access	-1569
▁expense	-1570
▁drop	-1571
▁super	-1572
▁view	-1573
atever	-1574
▁sort	-1575
▁happy	-1576
▁claim	-1577
▁interview	-1578
▁win	-1579
▁rupee	-1580
pri	-1581
▁airport	-1582
ille	-1583
▁bri	-1584
▁poor	-1585
▁later	-1586
▁whatever	-1587
gr	-1588
▁civ	-1589
▁hal	-1590
alese	-1591
▁site	-1592
▁store	-1593
▁update	-1594
▁fac	-1595
ident	-1596
▁internship	-1597
▁late	-1598
▁detail	-1599
vid	-1600
cc	-1601
▁genu	-1602
▁electric	-1603
▁ann	-1604
▁spot	-1605
▁control	-1606
▁fe	-1607
▁govt	-1608
val	-1609
▁pm	-1610
▁genuine	-1611
ivid	-1612
▁rain	-1613
orry	-1614
▁lack	-1615
▁medical	-1616
▁mal	-1617
▁minim	-1618
▁employee	-1619
▁sinhalese	-1620
▁waste	-1621
ator	-1622
▁dollar	-1623
▁organ	-1624
sent	-1625
▁mult	-1626
▁getting	-1627
▁via	-1628
▁reach	-1629
vie	-1630
▁hit	-1631
ncy	-1632
▁cand	-1633
▁eth	-1634
▁step	-1635
▁leader	-1636
▁exactly	-1637
▁team	-1638
▁individ	-1639
oo	-1640
ode	-1641
▁average	-1642
▁demand	-1643
▁deliver	-1644
reme	-1645
▁sad	-1646
▁graduate	-1647
ott	-1648
iron	-1649
uwa	-1650
▁have	-1651
▁master	-1652
▁stream	-1653
▁fit	-1654
▁test	-1655
▁court	-1656
▁literally	-1657
eep	-1658
▁suc	-1659
▁ol	-1660
▁bar	-1661
▁correct	-1662
io	-1663
ature	-1664
igure	-1665
▁ella	-1666
▁hire	-1667
▁moment	-1668
▁movie	-1669
50	-1670
co	-1671
▁fla	-1672
▁arm	-1673
▁oft	-1674
▁australia	-1675
ho	-1676
ife	-1677
ury	-1678
▁clean	-1679
▁major	-1680
▁mobile	-1681
▁specific	-1682
▁ide	-1683
▁hate	-1684
▁human	-1685
▁sorry	-1686
▁minister	-1687
ruggle	-1688
▁light	-1689
▁individual	-1690
▁la	-1691
▁often	-1692
▁sense	-1693
▁towards	-1694
▁struggle	-1695
▁hop	-1696
▁plus	-1697
▁reli	-1698
▁figure	-1699
▁member	-1700
▁est	-1701
▁china	-1702
20	-1703
ark	-1704
▁bal	-1705
▁nor	-1706
aptop	-1707
▁religion	-1708
▁candidate	-1709
▁pot	-1710
ention	-1711
▁difference	-1712
▁imf	-1713
▁laptop	-1714
▁official	-1715
▁pea	-1716
▁unp	-1717
▁loud	-1718
▁miss	-1719
▁standard	-1720
eal	-1721
▁slow	-1722
▁exist	-1723
▁model	-1724
body	-1725
reen	-1726
▁extra	-1727
▁design	-1728
▁auth	-1729
▁rich	-1730
▁appro	-1731
▁affect	-1732
ym	-1733
ination	-1734
ye	-1735
▁bla	-1736
▁ter	-1737
▁hair	-1738
iod	-1739
imate	-1740
▁period	-1741
▁wish	-1742
fortun	-1743
▁civil	-1744
▁comput	-1745
aur	-1746
▁lab	-1747
ibility	-1748
▁discu	-1749
▁trade	-1750
▁explain	-1751
▁fast	-1752
▁kinda	-1753
▁across	-1754
ada	-1755
▁colle	-1756
▁accord	-1757
ex	-1758
vp	-1759
ann	-1760
erate	-1761
▁desp	-1762
▁obvious	-1763
▁unfortun	-1764
▁solution	-1765
▁18	-1766
▁cry	-1767
▁docu	-1768
▁title	-1769
▁document	-1770
load	-1771
▁activ	-1772
▁music	-1773
aurant	-1774
ogether	-1775
▁aware	-1776
▁management	-1777
▁peace	-1778
▁continue	-1779
tte	-1780
▁buddh	-1781
jith	-1782
▁along	-1783
▁north	-1784
ift	-1785
▁simp	-1786
▁actual	-1787
▁relation	-1788
▁div	-1789
▁alone	-1790
▁action	-1791
ructure	-1792
▁handle	-1793
▁weather	-1794
ps	-1795
▁sen	-1796
▁note	-1797
▁practice	-1798
▁restaurant	-1799
▁lic	-1800
istic	-1801
▁info	-1802
ission	-1803
▁sever	-1804
icket	-1805
▁comfort	-1806
▁partic	-1807
▁mis	-1808
mb	-1809
▁23	-1810
▁marri	-1811
▁network	-1812
▁half	-1813
▁insur	-1814
▁range	-1815
▁ah	-1816
▁medicine	-1817
▁register	-1818
ell	-1819
▁effect	-1820
▁involve	-1821
▁message	-1822
ret	-1823
▁forget	-1824
ront	-1825
▁profit	-1826
ror	-1827
▁gb	-1828
▁mot	-1829
▁gain	-1830
▁stat	-1831
▁explo	-1832
▁professional	-1833
bal	-1834
set	-1835
▁ill	-1836
▁east	-1837
▁extreme	-1838
▁sea	-1839
▁owner	-1840
▁mental	-1841
▁begin	-1842
ization	-1843
▁island	-1844
zy	-1845
▁beaut	-1846
▁completely	-1847
ating	-1848
ially	-1849
▁yout	-1850
▁insight	-1851
▁0	-1852
▁walk	-1853
aya	-1854
▁glo	-1855
▁jvp	-1856
▁anyway	-1857
▁forward	-1858
▁foreigner	-1859
ker	-1860
▁collect	-1861
rant	-1862
time	-1863
ulate	-1864
▁jap	-1865
▁society	-1866
▁currency	-1867
ream	-1868
wise	-1869
▁role	-1870
▁worry	-1871
▁protect	-1872
▁eur	-1873
▁plat	-1874
▁covid	-1875
▁stick	-1876
▁behind	-1877
▁monthly	-1878
▁simply	-1879
ifi	-1880
scri	-1881
▁absolutely	-1882
▁feed	-1883
▁phot	-1884
▁thinking	-1885
▁development	-1886
ditional	-1887
▁migrate	-1888
oot	-1889
▁exc	-1890
▁foot	-1891
▁kill	-1892
▁respons	-1893
▁computer	-1894
▁rid	-1895
▁arri	-1896
▁crit	-1897
▁white	-1898
▁partner	-1899
▁together	-1900
▁fan	-1901
▁okay	-1902
▁mother	-1903
▁nation	-1904
▁cop	-1905
▁gota	-1906
▁uber	-1907
▁daily	-1908
▁park	-1909
▁stup	-1910
▁except	-1911
▁simple	-1912
ube	-1913
▁room	-1914
▁success	-1915
▁commun	-1916
▁likely	-1917
▁sajith	-1918
▁just	-1919
▁sport	-1920
▁relative	-1921
▁reliable	-1922
by	-1923
iit	-1924
sure	-1925
light	-1926
▁influ	-1927
▁respect	-1928
atic	-1929
earch	-1930
▁three	-1931
▁search	-1932
▁stupid	-1933
▁generation	-1934
umb	-1935
0000	-1936
▁tourism	-1937
▁condition	-1938
▁switch	-1939
▁signific	-1940
att	-1941
▁dude	-1942
▁recent	-1943
▁europe	-1944
▁ticket	-1945
igin	-1946
▁env	-1947
▁necess	-1948
▁helpful	-1949
▁unfortunately	-1950
gress	-1951
▁worker	-1952
par	-1953
▁11	-1954
ier	-1955
▁multip	-1956
▁directly	-1957
▁insurance	-1958
ah	-1959
rib	-1960
lling	-1961
▁amaz	-1962
▁perf	-1963
▁hea	-1964
▁tv	-1965
▁western	-1966
▁somewhere	-1967
▁viol	-1968
▁quick	-1969
▁origin	-1970
▁platform	-1971
▁no	-1972
ager	-1973
▁gold	-1974
▁willing	-1975
▁inflation	-1976
back	-1977
▁ful	-1978
▁bike	-1979
pto	-1980
yle	-1981
▁enter	-1982
the	-1983
▁40	-1984
ming	-1985
▁init	-1986
▁cricket	-1987
ero	-1988
pal	-1989
▁saf	-1990
▁assume	-1991
▁minimum	-1992
▁ltte	-1993
▁easily	-1994
▁remove	-1995
▁significant	-1996
ption	-1997
olk	-1998
▁bt	-1999
iate	-2000
more	-2001
▁saving	-2002
iss	-2003
▁jun	-2004
▁bear	-2005
▁blame	-2006
▁digital	-2007
mber	-2008
▁sun	-2009
▁vot	-2010
▁freel	-2011
ironment	-2012
eric	-2013
▁tre	-2014
▁maintain	-2015
▁environment	-2016
▁cuz	-2017
annel	-2018
▁wife	-2019
▁living	-2020
▁relationship	-2021
▁tb	-2022
▁die	-2023
▁highly	-2024
▁youtube	-2025
▁star	-2026
▁wear	-2027
▁24	-2028
action	-2029
▁milit	-2030
eme	-2031
▁review	-2032
▁traffic	-2033
▁pat	-2034
go	-2035
▁attack	-2036
▁hol	-2037
▁ppl	-2038
outer	-2039
▁heav	-2040
▁ant	-2041
▁unit	-2042
▁unlim	-2043
▁popular	-2044
ai	-2045
▁press	-2046
▁letter	-2047
▁folk	-2048
▁canada	-2049
▁muslim	-2050
▁channel	-2051
▁license	-2052
▁qualification	-2053
orce	-2054
▁mat	-2055
▁applic	-2056
▁perform	-2057
▁complain	-2058
lk	-2059
▁ign	-2060
▁passport	-2061
▁grin	-2062
▁balance	-2063
▁unlimited	-2064
200	-2065
▁gl	-2066
▁prem	-2067
▁till	-2068
▁match	-2069
▁reply	-2070
▁total	-2071
▁surpri	-2072
▁multiple	-2073
change	-2074
gal	-2075
▁16	-2076
▁stra	-2077
▁capital	-2078
▁grinning	-2079
▁cam	-2080
▁vacc	-2081
▁smart	-2082
▁honest	-2083
▁anymore	-2084
▁ach	-2085
▁crime	-2086
▁facebook	-2087
▁location	-2088
emic	-2089
▁among	-2090
▁refer	-2091
▁altern	-2092
▁decade	-2093
▁overse	-2094
▁remote	-2095
nch	-2096
iful	-2097
▁router	-2098
▁resource	-2099
▁indep	-2100
▁raise	-2101
▁hor	-2102
▁aut	-2103
▁2025	-2104
▁email	-2105
▁track	-2106
▁boy	-2107
▁beautiful	-2108
ogn	-2109
sha	-2110
und	-2111
▁ele	-2112
▁imag	-2113
▁meth	-2114
▁commer	-2115
▁contract	-2116
loor	-2117
istry	-2118
▁dest	-2119
▁property	-2120
▁commit	-2121
▁physical	-2122
▁rout	-2123
▁oh	-2124
▁idk	-2125
▁otherwise	-2126
apore	-2127
▁finish	-2128
▁military	-2129
▁sex	-2130
▁prep	-2131
▁space	-2132
▁americ	-2133
▁address	-2134
▁certific	-2135
▁brother	-2136
▁singapore	-2137
▁certificate	-2138
oe	-2139
sb	-2140
▁fight	-2141
cry	-2142
▁13	-2143
▁dad	-2144
▁sliit	-2145
fc	-2146
▁btw	-2147
▁char	-2148
▁recogn	-2149
▁suppose	-2150
rist	-2151
▁college	-2152
▁ille	-2153
▁independ	-2154
▁apartment	-2155
▁army	-2156
▁clot	-2157
▁acad	-2158
▁push	-2159
app	-2160
▁mainly	-2161
▁regular	-2162
▁sn	-2163
▁mist	-2164
▁rand	-2165
▁crazy	-2166
ground	-2167
▁realize	-2168
▁exchange	-2169
▁fake	-2170
▁replace	-2171
▁fold	-2172
▁eye	-2173
▁cool	-2174
▁anura	-2175
▁overseas	-2176
bit	-2177
▁don	-2178
▁code	-2179
▁user	-2180
▁central	-2181
▁14	-2182
quest	-2183
▁tend	-2184
▁loudly	-2185
▁properly	-2186
ych	-2187
rage	-2188
▁ban	-2189
▁catch	-2190
▁obviously	-2191
yer	-2192
▁dm	-2193
▁black	-2194
▁staff	-2195
▁progress	-2196
iot	-2197
▁ess	-2198
ively	-2199
▁drink	-2200
ergy	-2201
▁club	-2202
▁ethn	-2203
▁sale	-2204
crying	-2205
▁random	-2206
▁content	-2207
▁file	-2208
▁page	-2209
▁fully	-2210
▁appoint	-2211
▁educate	-2212
hear	-2213
▁imo	-2214
▁wise	-2215
sed	-2216
rest	-2217
ester	-2218
▁request	-2219
▁smiling	-2220
▁extremely	-2221
▁vs	-2222
otion	-2223
▁lect	-2224
▁remain	-2225
▁suffer	-2226
▁vol	-2227
▁block	-2228
▁marry	-2229
plement	-2230
▁imagine	-2231
▁fem	-2232
▁separ	-2233
▁lawyer	-2234
▁method	-2235
▁implement	-2236
ec	-2237
▁aw	-2238
▁ut	-2239
like	-2240
▁goal	-2241
▁several	-2242
▁startup	-2243
▁alternative	-2244
ays	-2245
mer	-2246
ction	-2247
inate	-2248
▁fire	-2249
▁legit	-2250
▁amazing	-2251
orrow	-2252
▁occ	-2253
▁stri	-2254
▁station	-2255
ugh	-2256
▁gym	-2257
▁lie	-2258
▁achieve	-2259
▁promise	-2260
▁srilankan	-2261
ief	-2262
dding	-2263
▁marriage	-2264
racy	-2265
▁arg	-2266
▁gam	-2267
▁folded	-2268
▁record	-2269
▁wedding	-2270
ding	-2271
ince	-2272
osit	-2273
▁front	-2274
▁grade	-2275
▁attend	-2276
▁officer	-2277
vant	-2278
▁cir	-2279
▁deep	-2280
▁jour	-2281
▁ip	-2282
▁cli	-2283
▁immig	-2284
▁listen	-2285
▁finally	-2286
▁reality	-2287
rd	-2288
▁ju	-2289
care	-2290
▁sam	-2291
inese	-2292
▁seat	-2293
▁topic	-2294
▁senior	-2295
▁requirement	-2296
▁doubt	-2297
▁psych	-2298
▁population	-2299
▁interesting	-2300
10	-2301
ili	-2302
ball	-2303
▁usa	-2304
▁ship	-2305
▁carry	-2306
▁global	-2307
▁illegal	-2308
▁particular	-2309
gust	-2310
olar	-2311
▁fav	-2312
▁export	-2313
▁street	-2314
▁activity	-2315
▁anywhere	-2316
▁buddhist	-2317
▁background	-2318
gic	-2319
▁bare	-2320
▁chinese	-2321
▁department	-2322
▁mb	-2323
▁aud	-2324
▁lux	-2325
sitive	-2326
▁slight	-2327
▁morning	-2328
▁apparent	-2329
irm	-2330
▁500	-2331
▁dog	-2332
▁demo	-2333
▁truly	-2334
▁deposit	-2335
ext	-2336
▁inn	-2337
▁jaff	-2338
▁cyber	-2339
▁repair	-2340
▁temple	-2341
ape	-2342
band	-2343
▁anal	-2344
▁brit	-2345
▁chem	-2346
idence	-2347
▁seriously	-2348
▁technology	-2349
ung	-2350
skin	-2351
▁ride	-2352
▁tour	-2353
▁inside	-2354
▁purs	-2355
osition	-2356
▁batter	-2357
▁release	-2358
▁mahind	-2359
istration	-2360
▁communic	-2361
▁electricity	-2362
▁jud	-2363
▁beha	-2364
▁fill	-2365
▁father	-2366
▁consult	-2367
cip	-2368
▁coast	-2369
▁dream	-2370
▁final	-2371
▁ident	-2372
▁context	-2373
ics	-2374
▁tar	-2375
alent	-2376
▁jaffna	-2377
▁intro	-2378
▁fellow	-2379
▁pickme	-2380
unch	-2381
▁key	-2382
▁comb	-2383
▁democ	-2384
▁corpor	-2385
▁ethnic	-2386
▁perfect	-2387
tone	-2388
▁the	-2389
▁scholar	-2390
▁welcome	-2391
▁bur	-2392
▁tho	-2393
▁route	-2394
▁settle	-2395
▁overall	-2396
30	-2397
iner	-2398
▁fru	-2399
▁sat	-2400
smiling	-2401
pose	-2402
▁del	-2403
iriya	-2404
▁body	-2405
▁mark	-2406
▁vers	-2407
▁pursue	-2408
▁battery	-2409
▁straight	-2410
▁everywhere	-2411
▁80	-2412
▁sj	-2413
▁god	-2414
▁ver	-2415
heart	-2416
▁dumb	-2417
▁minute	-2418
ighb	-2419
friend	-2420
▁stress	-2421
▁confuse	-2422
▁express	-2423
irt	-2424
rug	-2425
sing	-2426
▁300	-2427
▁mine	-2428
erv	-2429
onse	-2430
rowd	-2431
▁dev	-2432
▁cook	-2433
▁neighb	-2434
▁explore	-2435
▁hide	-2436
▁seek	-2437
▁surv	-2438
▁vict	-2439
▁idiot	-2440
▁clearly	-2441
▁potential	-2442
pping	-2443
sweat	-2444
▁article	-2445
▁confirm	-2446
▁religious	-2447
hap	-2448
uwara	-2449
▁anybody	-2450
▁despite	-2451
▁apparently	-2452
▁17	-2453
▁sla	-2454
▁chat	-2455
▁growth	-2456
▁impact	-2457
▁building	-2458
ling	-2459
▁found	-2460
▁totally	-2461
▁institution	-2462
▁dut	-2463
▁max	-2464
▁alth	-2465
▁specifically	-2466
cel	-2467
▁60	-2468
▁mr	-2469
▁solid	-2470
▁arrive	-2471
▁wealth	-2472
▁manager	-2473
▁specially	-2474
▁enc	-2475
▁sig	-2476
▁genuinely	-2477
▁comfortable	-2478
ze	-2479
▁hopefully	-2480
lt	-2481
sec	-2482
▁guide	-2483
▁although	-2484
▁nam	-2485
▁effort	-2486
▁generally	-2487
ny	-2488
▁cs	-2489
▁damn	-2490
▁bunch	-2491
anda	-2492
▁fly	-2493
▁tbh	-2494
▁board	-2495
▁photo	-2496
▁throw	-2497
cs	-2498
▁tu	-2499
ogra	-2500
reddit	-2501
▁brain	-2502
▁energy	-2503
▁safety	-2504
dra	-2505
▁fd	-2506
▁emb	-2507
▁sjb	-2508
▁prove	-2509
▁region	-2510
cast	-2511
cist	-2512
▁nob	-2513
▁recover	-2514
▁opposition	-2515
▁application	-2516
mm	-2517
▁jan	-2518
▁joke	-2519
▁original	-2520
▁death	-2521
▁immed	-2522
▁union	-2523
▁nuwara	-2524
▁subreddit	-2525
▁scholarship	-2526
ery	-2527
▁eg	-2528
▁ep	-2529
▁pict	-2530
▁rise	-2531
▁wage	-2532
▁supply	-2533
▁solve	-2534
▁double	-2535
▁picture	-2536
▁marketing	-2537
▁35	-2538
▁grand	-2539
▁download	-2540
med	-2541
▁er	-2542
▁web	-2543
▁heart	-2544
▁crypto	-2545
▁mahinda	-2546
▁q	-2547
▁bir	-2548
▁host	-2549
▁king	-2550
▁cance	-2551
▁client	-2552
room	-2553
▁mix	-2554
erial	-2555
▁2024	-2556
▁compla	-2557
▁billion	-2558
ked	-2559
rast	-2560
▁oil	-2561
▁vibe	-2562
▁broker	-2563
cent	-2564
▁none	-2565
▁factor	-2566
▁contrib	-2567
▁eventually	-2568
omb	-2569
least	-2570
▁text	-2571
▁expert	-2572
▁undergra	-2573
▁regardless	-2574
imal	-2575
▁fil	-2576
▁asia	-2577
▁atleast	-2578
ule	-2579
▁90	-2580
▁bet	-2581
▁pan	-2582
▁dead	-2583
▁hang	-2584
▁luxury	-2585
av	-2586
to	-2587
▁fle	-2588
▁gar	-2589
▁nat	-2590
▁modern	-2591
▁stable	-2592
▁reasonable	-2593
▁nic	-2594
allen	-2595
▁skin	-2596
▁crowd	-2597
▁target	-2598
ney	-2599
enty	-2600
▁drug	-2601
▁exec	-2602
▁miri	-2603
▁birth	-2604
▁nobody	-2605
▁delivery	-2606
ram	-2607
▁pc	-2608
gger	-2609
rible	-2610
▁tele	-2611
▁challen	-2612
▁mistake	-2613
▁facility	-2614
▁complaint	-2615
ies	-2616
itel	-2617
stic	-2618
▁now	-2619
▁affordable	-2620
ceed	-2621
▁she	-2622
vent	-2623
▁sle	-2624
▁wild	-2625
▁asset	-2626
▁trading	-2627
itor	-2628
▁oct	-2629
▁sil	-2630
▁copy	-2631
▁advise	-2632
▁campus	-2633
▁present	-2634
▁namal	-2635
▁arrest	-2636
▁academic	-2637
▁response	-2638
▁foundation	-2639
how	-2640
empt	-2641
▁tia	-2642
▁2022	-2643
▁necessary	-2644
cing	-2645
plom	-2646
▁eli	-2647
▁hyp	-2648
▁inte	-2649
▁suit	-2650
▁trou	-2651
resent	-2652
▁motor	-2653
▁diplom	-2654
▁warrant	-2655
ssa	-2656
what	-2657
▁rag	-2658
phant	-2659
▁entry	-2660
▁female	-2661
▁mindset	-2662
▁prepare	-2663
▁employer	-2664
ience	-2665
▁band	-2666
▁ground	-2667
▁incident	-2668
▁mate	-2669
▁milk	-2670
▁ignore	-2671
▁british	-2672
ronic	-2673
▁july	-2674
▁loss	-2675
▁autom	-2676
spective	-2677
▁greatly	-2678
▁version	-2679
▁positive	-2680
▁ir	-2681
▁pull	-2682
▁zero	-2683
▁trouble	-2684
▁elephant	-2685
nam	-2686
▁45	-2687
iece	-2688
▁bot	-2689
▁going	-2690
▁truth	-2691
▁discuss	-2692
▁promote	-2693
ady	-2694
rid	-2695
▁hur	-2696
arily	-2697
▁fort	-2698
▁cancel	-2699
▁rolling	-2700
▁weekend	-2701
▁restrict	-2702
▁21	-2703
floor	-2704
▁reven	-2705
▁steal	-2706
▁convers	-2707
▁mobitel	-2708
▁passion	-2709
▁survive	-2710
▁american	-2711
▁traditional	-2712
pper	-2713
▁fear	-2714
▁eliya	-2715
▁score	-2716
▁serve	-2717
▁cultural	-2718
▁slightly	-2719
▁ik	-2720
▁mech	-2721
ourage	-2722
▁asian	-2723
▁massive	-2724
▁represent	-2725
▁pun	-2726
ender	-2727
press	-2728
▁print	-2729
▁flight	-2730
▁by	-2731
▁150	-2732
▁iit	-2733
force	-2734
▁wind	-2735
▁remind	-2736
▁friendly	-2737
▁rajapaksa	-2738
acy	-2739
▁22	-2740
▁pa	-2741
▁rw	-2742
▁cse	-2743
▁rap	-2744
▁vill	-2745
fficient	-2746
oth	-2747
▁ig	-2748
anger	-2749
▁coll	-2750
▁rank	-2751
▁suck	-2752
▁consum	-2753
▁reform	-2754
▁physics	-2755
▁purpose	-2756
▁tuition	-2757
▁influence	-2758
mp	-2759
draw	-2760
iday	-2761
▁bab	-2762
atory	-2763
▁town	-2764
inerary	-2765
▁terror	-2766
lan	-2767
unt	-2768
arant	-2769
▁dece	-2770
▁flag	-2771
▁voter	-2772
▁racist	-2773
▁season	-2774
▁pressure	-2775
▁institute	-2776
▁itinerary	-2777
▁conv	-2778
▁touch	-2779
▁weird	-2780
▁yester	-2781
▁warranty	-2782
▁fr	-2783
atuwa	-2784
▁prior	-2785
▁statement	-2786
▁commission	-2787
▁discussion	-2788
ix	-2789
fore	-2790
▁din	-2791
▁hat	-2792
▁ult	-2793
▁cele	-2794
▁cine	-2795
▁broad	-2796
▁ready	-2797
itution	-2798
▁convert	-2799
▁healthcare	-2800
▁fb	-2801
ulty	-2802
▁1000	-2803
▁wifi	-2804
▁center	-2805
▁disapp	-2806
▁nature	-2807
▁threat	-2808
▁holiday	-2809
▁mirissa	-2810
▁withdraw	-2811
▁yesterday	-2812
place	-2813
▁agent	-2814
ruction	-2815
▁plenty	-2816
▁deserve	-2817
mon	-2818
per	-2819
hold	-2820
▁adult	-2821
▁ahead	-2822
▁chill	-2823
▁approach	-2824
wards	-2825
▁green	-2826
▁trend	-2827
▁feedback	-2828
▁minority	-2829
▁negative	-2830
▁transaction	-2831
we	-2832
rop	-2833
▁2019	-2834
▁mach	-2835
▁refuse	-2836
▁banking	-2837
▁mp	-2838
arma	-2839
▁scen	-2840
▁reput	-2841
▁spread	-2842
▁district	-2843
▁separate	-2844
▁sigiriya	-2845
dden	-2846
ibly	-2847
ried	-2848
▁gas	-2849
▁coun	-2850
▁song	-2851
▁heavy	-2852
▁piece	-2853
▁moratuwa	-2854
▁commercial	-2855
▁employment	-2856
edom	-2857
▁proof	-2858
▁usual	-2859
▁faculty	-2860
▁challenge	-2861
br	-2862
▁hy	-2863
▁je	-2864
fact	-2865
▁cab	-2866
achel	-2867
▁calc	-2868
▁percent	-2869
▁authority	-2870
▁km	-2871
▁bat	-2872
▁cey	-2873
▁lay	-2874
▁lin	-2875
▁baby	-2876
▁bull	-2877
ograph	-2878
▁sleep	-2879
▁third	-2880
▁critic	-2881
aign	-2882
▁bag	-2883
▁pain	-2884
▁rare	-2885
▁tough	-2886
ergency	-2887
▁reject	-2888
▁freedom	-2889
▁preferably	-2890
achelor	-2891
etic	-2892
▁bey	-2893
▁tom	-2894
▁behav	-2895
▁fiber	-2896
▁screen	-2897
▁campaign	-2898
▁training	-2899
▁cat	-2900
▁shi	-2901
antage	-2902
▁valid	-2903
▁unlike	-2904
▁justice	-2905
▁revenue	-2906
▁attention	-2907
anch	-2908
▁den	-2909
▁ict	-2910
▁infrast	-2911
▁patient	-2912
▁reserve	-2913
▁corporate	-2914
let	-2915
▁2000	-2916
▁asso	-2917
▁germ	-2918
▁pure	-2919
levant	-2920
▁secure	-2921
▁status	-2922
▁advantage	-2923
▁emergency	-2924
▁firm	-2925
▁glad	-2926
▁prof	-2927
▁bachelor	-2928
urer	-2929
▁pla	-2930
▁burn	-2931
▁ceyl	-2932
▁performance	-2933
▁infrastructure	-2934
▁hr	-2935
antly	-2936
▁shoe	-2937
cially	-2938
▁japan	-2939
▁plant	-2940
▁beyond	-2941
15	-2942
sapp	-2943
▁fra	-2944
▁mem	-2945
▁rev	-2946
▁toy	-2947
▁pred	-2948
▁race	-2949
▁frust	-2950
▁shift	-2951
▁barely	-2952
▁useful	-2953
60	-2954
bu	-2955
pa	-2956
ask	-2957
eyes	-2958
hood	-2959
rael	-2960
▁thr	-2961
▁duty	-2962
ension	-2963
▁working	-2964
cism	-2965
grade	-2966
ufact	-2967
▁lease	-2968
▁retire	-2969
▁discount	-2970
▁son	-2971
style	-2972
▁oper	-2973
▁rice	-2974
▁colon	-2975
▁scene	-2976
▁sudden	-2977
scription	-2978
▁70	-2979
right	-2980
▁guid	-2981
▁hike	-2982
cipline	-2983
▁thread	-2984
▁gre	-2985
▁var	-2986
▁feat	-2987
▁solo	-2988
▁device	-2989
▁introduce	-2990
ike	-2991
rel	-2992
life	-2993
▁meal	-2994
▁ruin	-2995
▁israel	-2996
▁talent	-2997
▁manufact	-2998
hone	-2999
▁dub	-3000
▁hut	-3001
▁investor	-3002
eel	-3003
ault	-3004
shit	-3005
ster	-3006
▁got	-3007
▁ton	-3008
ciation	-3009
▁christ	-3010
▁useless	-3011
iex	-3012
xic	-3013
mbps	-3014
▁cas	-3015
▁pra	-3016
rimin	-3017
▁apart	-3018
▁image	-3019
▁resign	-3020
▁strike	-3021
▁approve	-3022
▁perspective	-3023
▁responsibility	-3024
una	-3025
ized	-3026
▁abuse	-3027
▁aliex	-3028
▁fresh	-3029
▁agency	-3030
▁emotion	-3031
▁somehow	-3032
▁investig	-3033
▁practical	-3034
▁discipline	-3035
do	-3036
▁34	-3037
ober	-3038
itude	-3039
▁analy	-3040
▁judge	-3041
ression	-3042
▁former	-3043
▁insane	-3044
▁presidential	-3045
gy	-3046
nb	-3047
oda	-3048
sel	-3049
ibre	-3050
▁clar	-3051
▁prime	-3052
▁secret	-3053
▁tomorrow	-3054
board	-3055
▁cafe	-3056
▁coff	-3057
▁admin	-3058
▁hence	-3059
▁august	-3060
▁mechan	-3061
▁feature	-3062
▁whatsapp	-3063
ider	-3064
just	-3065
▁arch	-3066
▁slpp	-3067
isation	-3068
▁permit	-3069
▁attempt	-3070
▁material	-3071
ka	-3072
▁ic	-3073
▁tool	-3074
ablish	-3075
iately	-3076
▁creat	-3077
▁limited	-3078
▁negombo	-3079
▁violence	-3080
▁immediately	-3081
ov	-3082
ini	-3083
▁bs	-3084
oice	-3085
▁lak	-3086
istan	-3087
▁2023	-3088
▁airline	-3089
▁vaccine	-3090
▁various	-3091
▁december	-3092
ughe	-3093
laughe	-3094
▁celeb	-3095
urb	-3096
▁ge	-3097
▁bay	-3098
▁nove	-3099
▁surf	-3100
▁clothe	-3101
ced	-3102
▁sept	-3103
▁racism	-3104
▁strate	-3105
▁aliexpress	-3106
▁electronic	-3107
▁bc	-3108
uary	-3109
▁opt	-3110
asing	-3111
▁size	-3112
▁scale	-3113
▁trump	-3114
▁concept	-3115
▁and	-3116
▁bed	-3117
▁fri	-3118
▁russ	-3119
mission	-3120
▁animal	-3121
▁lankas	-3122
▁unique	-3123
oss	-3124
▁my	-3125
itive	-3126
▁ball	-3127
▁fibre	-3128
▁stage	-3129
▁compar	-3130
▁democracy	-3131
▁competition	-3132
itt	-3133
ril	-3134
▁od	-3135
▁fal	-3136
▁bond	-3137
▁apple	-3138
▁produce	-3139
▁addition	-3140
▁november	-3141
▁conversation	-3142
▁registration	-3143
king	-3144
rier	-3145
▁ceylon	-3146
▁responsible	-3147
▁constitution	-3148
term	-3149
▁mer	-3150
▁nar	-3151
▁delay	-3152
▁taste	-3153
▁damage	-3154
▁guarant	-3155
▁prevent	-3156
▁evidence	-3157
▁football	-3158
▁developer	-3159
▁establish	-3160
loc	-3161
▁cv	-3162
ival	-3163
▁alot	-3164
▁cross	-3165
▁table	-3166
▁petrol	-3167
▁freelan	-3168
▁indians	-3169
lete	-3170
▁deb	-3171
▁shy	-3172
medium	-3173
▁style	-3174
▁iphone	-3175
▁ideally	-3176
▁worried	-3177
▁contribute	-3178
hi	-3179
ans	-3180
pay	-3181
lict	-3182
roll	-3183
unte	-3184
▁byd	-3185
▁hon	-3186
▁hus	-3187
asion	-3188
▁mand	-3189
▁shame	-3190
▁transl	-3191
▁conduct	-3192
▁october	-3193
▁financially	-3194
▁communication	-3195
▁pls	-3196
▁unf	-3197
▁jump	-3198
▁immigration	-3199
tuk	-3200
▁mur	-3201
▁phd	-3202
▁tin	-3203
▁load	-3204
▁male	-3205
▁rela	-3206
ossible	-3207
▁branch	-3208
▁punish	-3209
▁shitty	-3210
▁strict	-3211
▁shipping	-3212
▁wt	-3213
hole	-3214
urch	-3215
▁pen	-3216
▁hurt	-3217
▁husband	-3218
▁machine	-3219
▁shortage	-3220
▁rajapaksha	-3221
col	-3222
ood	-3223
rif	-3224
▁sem	-3225
▁prim	-3226
unteer	-3227
▁advert	-3228
▁bottle	-3229
▁volunteer	-3230
▁additional	-3231
▁impossible	-3232
eas	-3233
oon	-3234
anese	-3235
hands	-3236
ounce	-3237
stain	-3238
utive	-3239
▁false	-3240
▁buying	-3241
▁divide	-3242
▁attract	-3243
▁consist	-3244
▁guarantee	-3245
gth	-3246
put	-3247
▁kn	-3248
▁aim	-3249
▁bsc	-3250
▁flu	-3251
▁log	-3252
▁mag	-3253
▁rat	-3254
enance	-3255
▁rural	-3256
▁active	-3257
▁lately	-3258
▁should	-3259
▁spending	-3260
▁freelance	-3261
▁treatment	-3262
har	-3263
key	-3264
llab	-3265
▁pak	-3266
urate	-3267
▁queue	-3268
▁camera	-3269
▁scheme	-3270
▁essential	-3271
za	-3272
utor	-3273
ulous	-3274
scribe	-3275
▁toxic	-3276
▁coffee	-3277
▁conven	-3278
▁tuktuk	-3279
▁operate	-3280
▁accident	-3281
iy	-3282
oke	-3283
pet	-3284
▁lg	-3285
down	-3286
▁wide	-3287
▁annoy	-3288
▁church	-3289
▁lecture	-3290
▁somewhat	-3291
uc	-3292
den	-3293
▁cru	-3294
▁dress	-3295
▁locally	-3296
▁discrimin	-3297
hol	-3298
lus	-3299
ariff	-3300
edule	-3301
▁sadly	-3302
▁youth	-3303
▁engage	-3304
▁rental	-3305
▁syllab	-3306
▁climate	-3307
▁monitor	-3308
▁lifestyle	-3309
▁organization	-3310
play	-3311
year	-3312
▁data	-3313
▁pres	-3314
▁root	-3315
▁trin	-3316
▁fault	-3317
▁ideal	-3318
▁relax	-3319
sidency	-3320
▁regret	-3321
▁tariff	-3322
▁highway	-3323
▁confused	-3324
▁restriction	-3325
▁coz	-3326
▁mad	-3327
▁rad	-3328
▁hind	-3329
▁sick	-3330
▁liber	-3331
▁rough	-3332
▁setup	-3333
▁submit	-3334
▁diploma	-3335
▁sustain	-3336
▁executive	-3337
▁september	-3338
▁nur	-3339
▁obt	-3340
▁lady	-3341
▁crimin	-3342
▁estate	-3343
▁malays	-3344
▁obtain	-3345
▁sister	-3346
entially	-3347
▁ministry	-3348
▁encourage	-3349
▁recognize	-3350
ost	-3351
ocent	-3352
▁bang	-3353
▁june	-3354
▁when	-3355
▁april	-3356
▁assist	-3357
▁player	-3358
▁japanese	-3359
ta	-3360
▁eu	-3361
▁her	-3362
▁map	-3363
inger	-3364
▁left	-3365
▁peak	-3366
▁rely	-3367
coming	-3368
▁twice	-3369
▁pharma	-3370
▁toyota	-3371
▁upgrade	-3372
▁construction	-3373
new	-3374
ague	-3375
anth	-3376
▁bon	-3377
▁cro	-3378
▁sent	-3379
iction	-3380
▁cycle	-3381
▁conflict	-3382
▁relevant	-3383
▁maintenance	-3384
dp	-3385
roy	-3386
▁bru	-3387
▁mac	-3388
▁advis	-3389
▁histor	-3390
▁install	-3391
▁bankrupt	-3392
▁guidance	-3393
▁successful	-3394
nal	-3395
▁27	-3396
▁box	-3397
▁flex	-3398
▁gift	-3399
▁criminal	-3400
▁chemistry	-3401
ugam	-3402
▁400	-3403
▁aspect	-3404
▁legally	-3405
▁neighbor	-3406
▁provider	-3407
▁associate	-3408
▁citizenship	-3409
awa	-3410
▁lma	-3411
▁vat	-3412
▁bomb	-3413
▁door	-3414
▁samp	-3415
▁upper	-3416
▁annual	-3417
▁lesson	-3418
▁paypal	-3419
▁january	-3420
▁consumer	-3421
▁innocent	-3422
▁pakistan	-3423
▁syllabus	-3424
▁whenever	-3425
lass	-3426
link	-3427
sequ	-3428
sung	-3429
▁250	-3430
▁pod	-3431
agram	-3432
▁monk	-3433
▁rock	-3434
▁bother	-3435
▁distance	-3436
▁priority	-3437
25	-3438
ario	-3439
ison	-3440
verse	-3441
▁diss	-3442
▁negot	-3443
▁ridic	-3444
▁shoot	-3445
▁appear	-3446
▁natural	-3447
▁agreement	-3448
▁undergraduate	-3449
19	-3450
▁argu	-3451
▁unre	-3452
▁blood	-3453
▁favor	-3454
▁schedule	-3455
fs	-3456
▁flo	-3457
▁lond	-3458
▁poll	-3459
▁equal	-3460
▁repeat	-3461
▁signal	-3462
▁destroy	-3463
▁feeling	-3464
▁meeting	-3465
▁sampath	-3466
▁bullshit	-3467
but	-3468
imb	-3469
une	-3470
▁squ	-3471
▁fest	-3472
▁murder	-3473
▁quickly	-3474
rs	-3475
rit	-3476
▁adop	-3477
▁vari	-3478
▁dubai	-3479
ologist	-3480
▁anyways	-3481
▁migration	-3482
▁structure	-3483
▁independent	-3484
vey	-3485
▁gem	-3486
ivity	-3487
▁circ	-3488
▁tire	-3489
▁funny	-3490
▁march	-3491
▁dinner	-3492
▁fairly	-3493
▁london	-3494
▁slowly	-3495
▁everyday	-3496
▁peaceful	-3497
▁province	-3498
▁instagram	-3499
▁girlfriend	-3500
▁appointment	-3501
▁28	-3502
▁san	-3503
▁alle	-3504
▁fish	-3505
▁prin	-3506
▁window	-3507
▁healthy	-3508
▁journey	-3509
▁transportation	-3510
mas	-3511
bage	-3512
haps	-3513
conut	-3514
lanka	-3515
▁arag	-3516
▁valu	-3517
▁usage	-3518
▁danger	-3519
▁counter	-3520
▁journal	-3521
▁effective	-3522
▁intention	-3523
illed	-3524
point	-3525
▁lmao	-3526
▁tutor	-3527
▁uncle	-3528
▁cinema	-3529
▁gender	-3530
▁perhaps	-3531
▁direction	-3532
▁competitive	-3533
▁cod	-3534
acity	-3535
encer	-3536
▁four	-3537
▁skip	-3538
▁batch	-3539
▁blind	-3540
▁bonus	-3541
▁voice	-3542
▁delete	-3543
▁perman	-3544
▁seller	-3545
▁coconut	-3546
▁session	-3547
▁scenario	-3548
▁surprised	-3549
▁regulation	-3550
yal	-3551
▁pal	-3552
▁cous	-3553
rating	-3554
▁tempor	-3555
▁ability	-3556
▁complex	-3557
▁pharmacy	-3558
asa	-3559
eech	-3560
sess	-3561
▁arr	-3562
▁blue	-3563
▁busy	-3564
▁hutch	-3565
▁solar	-3566
▁assign	-3567
▁victim	-3568
▁fucking	-3569
▁resident	-3570
▁bio	-3571
▁esc	-3572
▁cousin	-3573
▁deduct	-3574
▁display	-3575
▁heavily	-3576
▁section	-3577
▁function	-3578
▁therefore	-3579
▁26	-3580
ssed	-3581
ssle	-3582
▁2015	-3583
ternal	-3584
▁ensure	-3585
▁independence	-3586
gue	-3587
▁ie	-3588
while	-3589
▁lucky	-3590
▁labour	-3591
▁enforce	-3592
▁justify	-3593
▁realise	-3594
▁reflect	-3595
▁mentality	-3596
▁disappoint	-3597
▁ridiculous	-3598
uck	-3599
▁dom	-3600
▁gdp	-3601
ified	-3602
kedin	-3603
▁dark	-3604
ertain	-3605
▁chick	-3606
▁bugger	-3607
▁hassle	-3608
▁garbage	-3609
▁attitude	-3610
▁buddhism	-3611
▁entirely	-3612
▁starlink	-3613
▁supporter	-3614
▁technical	-3615
urd	-3616
ateg	-3617
▁hnb	-3618
ommod	-3619
▁taxi	-3620
imately	-3621
▁village	-3622
▁generate	-3623
▁terrible	-3624
▁valuable	-3625
▁celebrate	-3626
▁destination	-3627
90	-3628
hal	-3629
ull	-3630
uri	-3631
ught	-3632
▁hom	-3633
▁mea	-3634
▁bail	-3635
▁clue	-3636
▁weak	-3637
▁aside	-3638
▁categ	-3639
▁ikman	-3640
▁refund	-3641
▁skilled	-3642
▁influencer	-3643
▁relatively	-3644
12	-3645
cl	-3646
da	-3647
cil	-3648
fia	-3649
off	-3650
araz	-3651
arden	-3652
▁beat	-3653
▁lock	-3654
▁swim	-3655
▁index	-3656
▁aragal	-3657
▁lecturer	-3658
▁linkedin	-3659
▁strategy	-3660
pe	-3661
vy	-3662
rative	-3663
▁basis	-3664
▁daraz	-3665
▁proud	-3666
▁unable	-3667
security	-3668
▁accommod	-3669
▁european	-3670
▁identify	-3671
▁particip	-3672
▁freelancer	-3673
eth	-3674
ancy	-3675
vote	-3676
▁bul	-3677
▁gun	-3678
▁jew	-3679
▁kick	-3680
▁upon	-3681
▁easter	-3682
▁voting	-3683
▁arrival	-3684
▁initial	-3685
▁samsung	-3686
▁approval	-3687
▁external	-3688
▁percentage	-3689
ler	-3690
raid	-3691
▁but	-3692
▁era	-3693
arket	-3694
▁meme	-3695
▁yala	-3696
▁frequ	-3697
▁expectation	-3698
sy	-3699
ruit	-3700
▁sum	-3701
▁ten	-3702
▁wtf	-3703
igama	-3704
▁equip	-3705
▁forex	-3706
▁mafia	-3707
▁donate	-3708
▁nearby	-3709
▁weight	-3710
▁surprise	-3711
▁ethnicity	-3712
▁preference	-3713
80	-3714
fl	-3715
sd	-3716
rep	-3717
▁gap	-3718
iliar	-3719
▁2020	-3720
▁gate	-3721
▁haha	-3722
▁lgbt	-3723
▁susp	-3724
▁ther	-3725
ousand	-3726
▁trash	-3727
▁author	-3728
▁intell	-3729
▁movement	-3730
ngth	-3731
adays	-3732
enger	-3733
▁anti	-3734
▁mount	-3735
▁renew	-3736
▁afraid	-3737
▁beside	-3738
▁thousand	-3739
▁vacation	-3740
▁presidency	-3741
ae	-3742
amb	-3743
rem	-3744
izer	-3745
▁ceb	-3746
▁ine	-3747
▁mic	-3748
▁bott	-3749
▁hous	-3750
▁mall	-3751
▁rant	-3752
▁sold	-3753
cedure	-3754
▁bribe	-3755
▁click	-3756
▁scare	-3757
▁gaming	-3758
▁nearly	-3759
▁intellig	-3760
▁malaysia	-3761
▁nowadays	-3762
▁strength	-3763
▁aragalaya	-3764
▁procedure	-3765
thy	-3766
ping	-3767
▁ice	-3768
▁tur	-3769
▁van	-3770
▁buff	-3771
▁dict	-3772
▁film	-3773
▁fool	-3774
▁harm	-3775
▁kott	-3776
▁grant	-3777
▁manip	-3778
▁consequ	-3779
▁evening	-3780
▁exploit	-3781
▁meaning	-3782
▁measure	-3783
▁profile	-3784
▁soldier	-3785
▁birthday	-3786
▁occasion	-3787
▁teaching	-3788
▁tradition	-3789
40	-3790
dex	-3791
fol	-3792
▁ay	-3793
▁rn	-3794
▁tim	-3795
▁ital	-3796
▁scamme	-3797
▁sexual	-3798
▁council	-3799
▁housing	-3800
▁beginner	-3801
▁upcoming	-3802
iet	-3803
ima	-3804
brid	-3805
▁bor	-3806
▁epf	-3807
▁tik	-3808
▁nons	-3809
▁task	-3810
▁gradu	-3811
▁gather	-3812
▁arrange	-3813
▁premium	-3814
▁clothing	-3815
▁familiar	-3816
oph	-3817
folio	-3818
▁shar	-3819
enture	-3820
▁cream	-3821
▁round	-3822
▁arugam	-3823
▁famous	-3824
▁propag	-3825
▁longterm	-3826
▁suddenly	-3827
▁significantly	-3828
va	-3829
ata	-3830
▁ofc	-3831
▁tie	-3832
iment	-3833
▁vend	-3834
▁argue	-3835
▁depre	-3836
▁graph	-3837
▁curric	-3838
▁launch	-3839
▁portfolio	-3840
▁stability	-3841
ban	-3842
rew	-3843
▁dh	-3844
▁ang	-3845
▁men	-3846
▁trap	-3847
▁elite	-3848
▁indic	-3849
▁labor	-3850
▁extend	-3851
▁theory	-3852
atically	-3853
▁advertise	-3854
▁rajapakse	-3855
dic	-3856
unk	-3857
▁kdu	-3858
▁nom	-3859
▁nut	-3860
agama	-3861
inary	-3862
▁quit	-3863
▁shut	-3864
▁cloud	-3865
▁trick	-3866
▁bottom	-3867
▁hybrid	-3868
▁sunday	-3869
▁divorce	-3870
▁consultant	-3871
▁production	-3872
bsl	-3873
eet	-3874
ilt	-3875
mil	-3876
▁ba	-3877
pack	-3878
▁cow	-3879
ilege	-3880
under	-3881
▁libr	-3882
▁princi	-3883
▁resort	-3884
▁behavior	-3885
▁suitable	-3886
▁wildlife	-3887
iry	-3888
inge	-3889
▁amb	-3890
▁cin	-3891
▁cup	-3892
entic	-3893
▁edex	-3894
▁upto	-3895
necess	-3896
▁spons	-3897
▁series	-3898
▁library	-3899
▁argument	-3900
▁calculate	-3901
▁consequence	-3902
70	-3903
isf	-3904
ller	-3905
arian	-3906
arter	-3907
iency	-3908
otein	-3909
verty	-3910
▁draw	-3911
▁pool	-3912
▁admit	-3913
▁oppose	-3914
▁survey	-3915
▁default	-3916
▁poverty	-3917
▁respond	-3918
▁sponsor	-3919
▁division	-3920
▁festival	-3921
▁possibly	-3922
▁unnecess	-3923
▁terrorist	-3924
▁certification	-3925
emp	-3926
▁egg	-3927
▁rob	-3928
▁sky	-3929
orate	-3930
▁cbsl	-3931
▁jail	-3932
▁teen	-3933
▁fancy	-3934
▁maxim	-3935
▁burden	-3936
▁equity	-3937
▁speech	-3938
▁through	-3939
▁redditor	-3940
▁neighbour	-3941
▁specialist	-3942
▁particularly	-3943
ani	-3944
emy	-3945
rom	-3946
▁75	-3947
goda	-3948
▁ath	-3949
▁der	-3950
▁dry	-3951
▁eld	-3952
▁nsb	-3953
cohol	-3954
ailand	-3955
locate	-3956
stance	-3957
▁adopt	-3958
▁centre	-3959
▁cinnam	-3960
▁anytime	-3961
▁careful	-3962
▁chicken	-3963
▁donation	-3964
no	-3965
tok	-3966
▁jay	-3967
▁obs	-3968
▁ple	-3969
▁coach	-3970
▁drama	-3971
▁superm	-3972
▁factory	-3973
▁speaker	-3974
▁category	-3975
▁cinnamon	-3976
▁thailand	-3977
▁operation	-3978
▁investigation	-3979
11	-3980
cut	-3981
▁ot	-3982
▁ug	-3983
▁mel	-3984
ously	-3985
▁reve	-3986
employ	-3987
ughter	-3988
▁attach	-3989
▁extent	-3990
▁besides	-3991
▁driving	-3992
▁recruit	-3993
▁typical	-3994
▁convince	-3995
▁reputation	-3996
dy	-3997
▁_	-3998
▁99	-3999
itiya	-4000
▁hund	-4001
▁shot	-4002
▁wash	-4003
▁cheer	-4004
▁debit	-4005
▁incom	-4006
olution	-4007
▁compete	-4008
▁hundred	-4009
▁announce	-4010
▁entertain	-4011
▁equipment	-4012
▁throughout	-4013
sse	-4014
iting	-4015
▁crap	-4016
▁lakh	-4017
▁crash	-4018
▁grate	-4019
▁motiv	-4020
▁shock	-4021
▁debate	-4022
▁edexcel	-4023
▁podcast	-4024
▁protein	-4025
▁capacity	-4026
▁normally	-4027
▁privilege	-4028
ca	-4029
ray	-4030
fare	-4031
▁atm	-4032
▁sou	-4033
▁spl	-4034
iture	-4035
▁irre	-4036
▁liqu	-4037
▁after	-4038
▁logic	-4039
▁tired	-4040
▁married	-4041
awe	-4042
orn	-4043
anay	-4044
itie	-4045
itect	-4046
▁heat	-4047
▁color	-4048
▁ignor	-4049
▁input	-4050
▁laugh	-4051
▁circle	-4052
▁pocket	-4053
▁tiktok	-4054
▁vendor	-4055
▁clarify	-4056
▁compens	-4057
▁trincom	-4058
▁identity	-4059
▁authentic	-4060
▁protection	-4061
fa	-4062
hd	-4063
wa	-4064
apse	-4065
lare	-4066
olit	-4067
ooth	-4068
▁feb	-4069
▁mos	-4070
phone	-4071
▁deny	-4072
▁iron	-4073
▁kore	-4074
▁floor	-4075
▁excuse	-4076
▁combine	-4077
ich	-4078
abil	-4079
alee	-4080
▁ali	-4081
▁piz	-4082
▁wall	-4083
▁buddy	-4084
▁cabin	-4085
▁recon	-4086
▁risky	-4087
▁stuck	-4088
▁buffet	-4089
▁complic	-4090
▁conserv	-4091
▁commerce	-4092
▁curricul	-4093
▁permanent	-4094
▁propaganda	-4095
ef	-4096
pm	-4097
▁mc	-4098
ising	-4099
uring	-4100
▁disp	-4101
▁wher	-4102
▁favour	-4103
▁memory	-4104
▁native	-4105
▁retail	-4106
▁severe	-4107
▁subsid	-4108
▁alcohol	-4109
▁colleague	-4110
▁possibility	-4111
▁unnecessary	-4112
sl	-4113
iat	-4114
▁ben	-4115
▁pic	-4116
emote	-4117
ratic	-4118
▁boat	-4119
ortion	-4120
▁genoc	-4121
▁oppos	-4122
▁quiet	-4123
▁forest	-4124
▁booking	-4125
▁portion	-4126
▁socialist	-4127
comm	-4128
▁msc	-4129
▁sir	-4130
▁wit	-4131
adasa	-4132
usion	-4133
▁farm	-4134
▁sole	-4135
▁drain	-4136
▁belong	-4137
▁rarely	-4138
▁contain	-4139
▁outdate	-4140
▁annoying	-4141
▁mandatory	-4142
▁curriculum	-4143
▁trincomalee	-4144
▁cybersecurity	-4145
hiw	-4146
ser	-4147
▁nu	-4148
assy	-4149
▁rot	-4150
▁gang	-4151
▁nsbm	-4152
▁rail	-4153
▁align	-4154
▁approx	-4155
▁borrow	-4156
▁impose	-4157
▁america	-4158
▁entitle	-4159
▁estimate	-4160
▁grateful	-4161
▁learning	-4162
▁opposite	-4163
▁administration	-4164
24	-4165
vt	-4166
▁yo	-4167
enda	-4168
rance	-4169
round	-4170
▁coin	-4171
▁onto	-4172
worthy	-4173
▁screw	-4174
▁belief	-4175
▁dealer	-4176
▁holder	-4177
▁mathem	-4178
▁surely	-4179
▁charact	-4180
▁disgust	-4181
▁germany	-4182
▁architect	-4183
▁constantly	-4184
ij	-4185
si	-4186
dom	-4187
▁29	-4188
▁eta	-4189
▁hnd	-4190
▁ird	-4191
▁odd	-4192
▁pfc	-4193
▁rip	-4194
▁urg	-4195
esome	-4196
▁bruh	-4197
▁clin	-4198
ashion	-4199
▁initi	-4200
▁anurad	-4201
▁upload	-4202
▁primary	-4203
▁horrible	-4204
▁weligama	-4205
▁passenger	-4206
▁leadership	-4207
▁accommodation	-4208
su	-4209
▁cc	-4210
awat	-4211
▁gro	-4212
▁sac	-4213
agree	-4214
▁asap	-4215
▁cold	-4216
▁hust	-4217
▁dance	-4218
▁quote	-4219
ography	-4220
▁adjust	-4221
▁decline	-4222
▁collapse	-4223
▁critical	-4224
▁powerful	-4225
▁character	-4226
▁promotion	-4227
▁comparison	-4228
▁communicate	-4229
▁supermarket	-4230
aka	-4231
fic	-4232
▁nt	-4233
▁ye	-4234
▁dil	-4235
▁gay	-4236
▁pin	-4237
ality	-4238
▁cred	-4239
▁hero	-4240
▁sake	-4241
▁wake	-4242
▁afric	-4243
▁noise	-4244
▁incred	-4245
▁verify	-4246
▁disagree	-4247
▁genocide	-4248
▁awareness	-4249
▁temporary	-4250
csl	-4251
ino	-4252
uma	-4253
▁jr	-4254
aden	-4255
eral	-4256
ians	-4257
▁fed	-4258
▁ven	-4259
▁piss	-4260
▁dehiw	-4261
▁guard	-4262
▁loose	-4263
▁stack	-4264
▁wheel	-4265
▁casual	-4266
▁harass	-4267
▁united	-4268
ological	-4269
▁awesome	-4270
▁embassy	-4271
▁maximum	-4272
▁suspect	-4273
▁whoever	-4274
▁ideology	-4275
▁nonsense	-4276
▁everybody	-4277
▁previously	-4278
▁understanding	-4279
ali	-4280
gpt	-4281
lam	-4282
lig	-4283
free	-4284
gery	-4285
onym	-4286
▁600	-4287
▁fis	-4288
month	-4289
▁camb	-4290
▁here	-4291
▁lane	-4292
ricult	-4293
▁clown	-4294
▁pizza	-4295
▁absurd	-4296
▁therap	-4297
▁advisor	-4298
▁fashion	-4299
▁scammer	-4300
▁welfare	-4301
▁agricult	-4302
▁threaten	-4303
▁initiative	-4304
▁technically	-4305
agn	-4306
ren	-4307
cise	-4308
iour	-4309
roid	-4310
▁cima	-4311
▁hiri	-4312
▁mile	-4313
▁roll	-4314
▁tang	-4315
colate	-4316
▁lower	-4317
▁whose	-4318
▁satisf	-4319
▁traveler	-4320
▁chocolate	-4321
▁initially	-4322
▁reference	-4323
▁workplace	-4324
▁ya	-4325
soft	-4326
▁gig	-4327
antha	-4328
▁2021	-4329
▁pett	-4330
▁rush	-4331
hapura	-4332
▁tight	-4333
▁tower	-4334
▁agenda	-4335
▁manner	-4336
▁neither	-4337
▁perfume	-4338
▁accurate	-4339
▁programme	-4340
▁selection	-4341
▁discrimination	-4342
mi	-4343
ena	-4344
▁gp	-4345
lade	-4346
rene	-4347
ysis	-4348
▁anx	-4349
▁ram	-4350
▁rom	-4351
▁boot	-4352
▁label	-4353
▁lgbtq	-4354
▁sugar	-4355
▁artist	-4356
▁margin	-4357
▁reveal	-4358
▁unfair	-4359
▁biology	-4360
▁chatgpt	-4361
▁declare	-4362
▁plastic	-4363
▁predict	-4364
▁colonial	-4365
▁entrance	-4366
▁psychiat	-4367
▁unemploy	-4368
▁efficient	-4369
▁negotiate	-4370
▁regularly	-4371
▁medication	-4372
che	-4373
▁mba	-4374
▁dual	-4375
▁leaf	-4376
▁suic	-4377
▁thri	-4378
ladesh	-4379
▁guest	-4380
▁entrep	-4381
▁graphic	-4382
▁publish	-4383
▁civilian	-4384
▁daughter	-4385
▁southern	-4386
▁dangerous	-4387
▁exception	-4388
▁educational	-4389
500	-4390
arm	-4391
▁36	-4392
▁ly	-4393
▁nd	-4394
cery	-4395
list	-4396
mark	-4397
▁abt	-4398
▁jer	-4399
▁wow	-4400
anage	-4401
ingly	-4402
ridge	-4403
▁hill	-4404
▁nuge	-4405
▁siri	-4406
▁chase	-4407
▁earth	-4408
▁error	-4409
▁innov	-4410
▁defend	-4411
▁garden	-4412
▁indeed	-4413
▁dictator	-4414
▁shopping	-4415
▁surround	-4416
▁australian	-4417
▁anuradhapura	-4418
gu	-4419
aik	-4420
ika	-4421
ont	-4422
▁ale	-4423
▁calm	-4424
urally	-4425
▁flood	-4426
▁habit	-4427
▁paint	-4428
▁expose	-4429
▁propose	-4430
▁resolve	-4431
▁concerned	-4432
▁household	-4433
▁collection	-4434
▁progressive	-4435
lkr	-4436
fall	-4437
rent	-4438
▁120	-4439
▁asw	-4440
▁rug	-4441
▁elig	-4442
▁insp	-4443
▁wing	-4444
▁chain	-4445
▁curry	-4446
▁split	-4447
▁treas	-4448
▁anonym	-4449
▁appeal	-4450
▁expand	-4451
▁invite	-4452
▁prison	-4453
▁superi	-4454
▁liberal	-4455
▁witness	-4456
▁organize	-4457
▁highlight	-4458
▁immigrant	-4459
▁undergrad	-4460
▁bangladesh	-4461
▁entreprene	-4462
▁retirement	-4463
▁sustainable	-4464
not	-4465
inal	-4466
olic	-4467
▁isp	-4468
level	-4469
▁grab	-4470
▁tree	-4471
▁climb	-4472
▁flash	-4473
▁frame	-4474
▁kottu	-4475
▁sight	-4476
▁smile	-4477
▁harsha	-4478
▁safari	-4479
▁smooth	-4480
▁remotely	-4481
▁certainly	-4482
ipe	-4483
▁ud	-4484
▁cmb	-4485
▁doc	-4486
bulla	-4487
▁spam	-4488
▁wire	-4489
▁zone	-4490
gation	-4491
▁amend	-4492
▁skull	-4493
▁alevel	-4494
▁finger	-4495
▁outlet	-4496
▁regime	-4497
▁scared	-4498
▁unsure	-4499
▁earning	-4500
▁forever	-4501
▁proceed	-4502
▁premadasa	-4503
▁plantation	-4504
edy	-4505
ley	-4506
owe	-4507
ased	-4508
▁aid	-4509
▁aus	-4510
▁ong	-4511
allet	-4512
eline	-4513
▁bite	-4514
▁dish	-4515
▁five	-4516
▁nope	-4517
▁brown	-4518
▁glass	-4519
▁islam	-4520
adeniya	-4521
▁scient	-4522
▁cabinet	-4523
▁failure	-4524
▁grocery	-4525
▁privacy	-4526
▁surgery	-4527
▁nugegoda	-4528
▁fundament	-4529
▁historical	-4530
▁journalist	-4531
▁recognition	-4532
▁availability	-4533
cell	-4534
orke	-4535
▁yep	-4536
arana	-4537
bally	-4538
▁dome	-4539
▁flow	-4540
▁icbt	-4541
▁loop	-4542
▁mbps	-4543
▁chair	-4544
▁nurse	-4545
▁analyt	-4546
▁object	-4547
▁pettah	-4548
▁android	-4549
▁fitness	-4550
▁typically	-4551
▁automatically	-4552
gn	-4553
pro	-4554
▁ed	-4555
▁ko	-4556
andal	-4557
ooter	-4558
raine	-4559
▁grad	-4560
▁spec	-4561
▁crack	-4562
▁crook	-4563
▁mixed	-4564
▁tooth	-4565
▁german	-4566
▁hustle	-4567
▁junior	-4568
▁patter	-4569
▁eastern	-4570
▁hiriket	-4571
▁analysis	-4572
▁downvote	-4573
▁broadband	-4574
▁mathematic	-4575
▁mechanical	-4576
▁essentially	-4577
city	-4578
▁fat	-4579
▁fds	-4580
▁pix	-4581
▁uae	-4582
▁pand	-4583
▁occur	-4584
▁quant	-4585
▁slave	-4586
▁smell	-4587
▁trcsl	-4588
▁urban	-4589
▁circum	-4590
▁entity	-4591
▁explan	-4592
▁pattern	-4593
▁internal	-4594
▁depreciate	-4595
▁appreciated	-4596
▁frustrating	-4597
▁participate	-4598
▁additionally	-4599
af	-4600
uate	-4601
▁cha	-4602
▁gri	-4603
▁mah	-4604
▁pil	-4605
▁scr	-4606
▁2018	-4607
▁adhd	-4608
▁bent	-4609
▁cake	-4610
▁cart	-4611
▁hack	-4612
▁pray	-4613
▁adapt	-4614
▁repay	-4615
ittance	-4616
▁vision	-4617
▁outcome	-4618
▁incompet	-4619
▁depression	-4620
▁intelligence	-4621
eam	-4622
▁uc	-4623
oing	-4624
otic	-4625
pora	-4626
shop	-4627
▁vit	-4628
awala	-4629
ropri	-4630
▁2026	-4631
▁lone	-4632
▁faith	-4633
▁scope	-4634
facepal	-4635
▁formal	-4636
▁intend	-4637
▁sacrif	-4638
▁overpri	-4639
▁dambulla	-4640
▁peradeniya	-4641
▁replacement	-4642
▁entrepreneur	-4643
▁accountability	-4644
rap	-4645
rain	-4646
▁vet	-4647
cient	-4648
night	-4649
osure	-4650
▁dias	-4651
▁lift	-4652
▁mode	-4653
iation	-4654
liance	-4655
▁lunch	-4656
▁minor	-4657
▁plain	-4658
▁trave	-4659
▁wallet	-4660
▁priorit	-4661
▁related	-4662
▁selfish	-4663
▁interact	-4664
▁unlikely	-4665
▁admission	-4666
▁elsewhere	-4667
▁translate	-4668
▁electrical	-4669
▁passionate	-4670
▁remittance	-4671
▁experienced	-4672
▁entertainment	-4673
▁vp	-4674
ilet	-4675
lock	-4676
▁fry	-4677
▁nan	-4678
▁pad	-4679
▁pow	-4680
▁rum	-4681
▁tag	-4682
▁dent	-4683
▁hall	-4684
▁scar	-4685
▁wave	-4686
▁afaik	-4687
▁overn	-4688
▁rugby	-4689
▁sweet	-4690
ception	-4691
▁privat	-4692
ervation	-4693
▁pathway	-4694
fficiency	-4695
▁sentence	-4696
▁clearance	-4697
▁overnight	-4698
▁qualified	-4699
▁sacrifice	-4700
▁confidence	-4701
▁installment	-4702
for	-4703
ton	-4704
ssor	-4705
▁gpa	-4706
▁hsb	-4707
▁kur	-4708
▁tor	-4709
▁unb	-4710
▁bath	-4711
▁capt	-4712
▁empt	-4713
▁pair	-4714
▁tiny	-4715
▁alive	-4716
▁canad	-4717
▁elder	-4718
▁pixel	-4719
▁colour	-4720
▁derana	-4721
▁toilet	-4722
▁minimal	-4723
▁ongoing	-4724
▁pretend	-4725
▁scooter	-4726
▁wealthy	-4727
▁coverage	-4728
▁criticism	-4729
▁desperate	-4730
▁meanwhile	-4731
▁assignment	-4732
▁trustworthy	-4733
oko	-4734
sas	-4735
▁95	-4736
ache	-4737
know	-4738
osal	-4739
▁unc	-4740
▁core	-4741
▁hsbc	-4742
▁hype	-4743
▁bully	-4744
▁empty	-4745
▁meter	-4746
▁recip	-4747
duction	-4748
itation	-4749
ivalent	-4750
▁affair	-4751
▁charity	-4752
▁utility	-4753
▁victory	-4754
▁actively	-4755
▁audience	-4756
▁allowance	-4757
▁vaccinate	-4758
▁ultimately	-4759
▁manufacture	-4760
▁circumstance	-4761
gl	-4762
hn	-4763
po	-4764
xy	-4765
ied	-4766
▁sab	-4767
▁vir	-4768
igate	-4769
rease	-4770
▁5000	-4771
▁drag	-4772
▁warn	-4773
▁disre	-4774
▁trial	-4775
▁asshole	-4776
▁barrier	-4777
▁nowhere	-4778
▁pricing	-4779
▁designer	-4780
▁disaster	-4781
▁discover	-4782
▁industri	-4783
▁instance	-4784
▁mountain	-4785
▁tangalle	-4786
▁telegram	-4787
▁behaviour	-4788
▁cambridge	-4789
▁convenient	-4790
▁membership	-4791
▁necessarily	-4792
▁psychiatrist	-4793
zz	-4794
eem	-4795
uth	-4796
resh	-4797
▁ntb	-4798
ruary	-4799
▁dear	-4800
▁rude	-4801
▁ucsc	-4802
▁divers	-4803
▁hostel	-4804
▁russia	-4805
▁alright	-4806
▁roughly	-4807
▁allocate	-4808
▁diaspora	-4809
▁equivalent	-4810
▁conservative	-4811
▁organisation	-4812
nar	-4813
ppy	-4814
grat	-4815
head	-4816
▁hob	-4817
▁nah	-4818
ander	-4819
rated	-4820
▁blow	-4821
▁soul	-4822
▁wick	-4823
icious	-4824
▁rainy	-4825
▁smoke	-4826
▁100000	-4827
▁bloody	-4828
▁bridge	-4829
▁powder	-4830
▁congrat	-4831
▁suicide	-4832
▁domestic	-4833
▁exposure	-4834
▁secretary	-4835
▁socialism	-4836
▁difficulty	-4837
▁hiriketiya	-4838
▁combination	-4839
▁fundamental	-4840
kk	-4841
ux	-4842
ira	-4843
ita	-4844
gala	-4845
▁ack	-4846
▁bow	-4847
▁mut	-4848
▁six	-4849
house	-4850
logic	-4851
▁boss	-4852
▁mira	-4853
▁sens	-4854
▁stor	-4855
▁virt	-4856
▁shall	-4857
▁shirt	-4858
▁ultra	-4859
▁acknow	-4860
▁distrib	-4861
▁succeed	-4862
▁describe	-4863
▁starting	-4864
▁criticize	-4865
▁narrative	-4866
▁officially	-4867
▁explanation	-4868
odge	-4869
shot	-4870
▁ast	-4871
▁hir	-4872
▁len	-4873
▁nib	-4874
▁pvt	-4875
▁sar	-4876
aduwa	-4877
itter	-4878
olish	-4879
ublic	-4880
▁boom	-4881
▁evil	-4882
angama	-4883
inform	-4884
▁10000	-4885
▁accom	-4886
▁expat	-4887
▁keell	-4888
▁media	-4889
▁occup	-4890
▁royal	-4891
anayake	-4892
▁behave	-4893
▁lovely	-4894
▁rating	-4895
▁suburb	-4896
▁advanced	-4897
▁analytic	-4898
▁constant	-4899
▁creative	-4900
▁recovery	-4901
▁democratic	-4902
▁improvement	-4903
▁restructure	-4904
dem	-4905
exp	-4906
base	-4907
educ	-4908
wide	-4909
▁kal	-4910
▁laz	-4911
onent	-4912
▁leak	-4913
▁vary	-4914
▁burea	-4915
▁react	-4916
▁shout	-4917
▁spare	-4918
▁burger	-4919
▁enable	-4920
▁expire	-4921
▁ancient	-4922
▁parking	-4923
▁railway	-4924
▁christian	-4925
▁correctly	-4926
▁commitment	-4927
22	-4928
ga	-4929
ja	-4930
net	-4931
oom	-4932
she	-4933
▁hu	-4934
ette	-4935
ging	-4936
iary	-4937
iled	-4938
onda	-4939
▁kum	-4940
▁vpn	-4941
▁koko	-4942
▁lean	-4943
▁slip	-4944
▁thief	-4945
▁accent	-4946
▁excell	-4947
▁capable	-4948
▁commute	-4949
▁inflate	-4950
▁storage	-4951
▁dehiwala	-4952
▁eligible	-4953
▁globally	-4954
▁somebody	-4955
▁textbook	-4956
▁softlogic	-4957
ba	-4958
my	-4959
ken	-4960
nel	-4961
awal	-4962
itha	-4963
▁beg	-4964
▁kar	-4965
▁lif	-4966
▁was	-4967
▁peep	-4968
ounter	-4969
▁boost	-4970
▁buyer	-4971
▁herit	-4972
▁kelan	-4973
eration	-4974
▁addict	-4975
▁friday	-4976
▁viable	-4977
▁century	-4978
▁funding	-4979
▁decrease	-4980
▁february	-4981
▁ignorant	-4982
▁disappear	-4983
▁professor	-4984
▁recognise	-4985
▁accounting	-4986
▁profitable	-4987
▁rajapaksas	-4988
▁surprising	-4989
▁economically	-4990
yi	-4991
adu	-4992
box	-4993
elt	-4994
▁55	-4995
▁65	-4996
agon	-4997
▁mas	-4998
▁ord	-4999
▁yah	-5000
▁john	-5001
▁mald	-5002
▁dedic	-5003
asinghe	-5004
▁battle	-5005
▁cancer	-5006
▁determ	-5007
▁orient	-5008
▁portal	-5009
▁artific	-5010
▁twitter	-5011
▁worship	-5012
▁director	-5013
▁statistic	-5014
▁agriculture	-5015
▁successfully	-5016
bie	-5017
ela	-5018
eye	-5019
gen	-5020
▁56	-5021
ando	-5022
core	-5023
elam	-5024
ilty	-5025
▁inj	-5026
▁lav	-5027
irect	-5028
▁buck	-5029
▁desk	-5030
▁jack	-5031
▁mill	-5032
▁ring	-5033
▁korea	-5034
▁panel	-5035
▁diesel	-5036
▁locate	-5037
▁consume	-5038
▁canadian	-5039
▁encounter	-5040
▁traveller	-5041
▁psychology	-5042
▁accountable	-5043
▁compensation	-5044
14	-5045
hib	-5046
▁dy	-5047
atha	-5048
look	-5049
▁bin	-5050
▁nav	-5051
▁2010	-5052
▁ease	-5053
▁lion	-5054
▁nibm	-5055
▁niss	-5056
▁tear	-5057
charge	-5058
iliate	-5059
lusive	-5060
▁cable	-5061
▁italy	-5062
▁malay	-5063
▁optim	-5064
▁plate	-5065
▁venue	-5066
▁beauty	-5067
▁escape	-5068
▁bombing	-5069
ationally	-5070
▁activate	-5071
▁pandemic	-5072
▁semester	-5073
▁christmas	-5074
▁governance	-5075
▁industrial	-5076
▁meaningful	-5077
▁punishment	-5078
lix	-5079
tin	-5080
door	-5081
icit	-5082
ique	-5083
lead	-5084
▁198	-5085
▁199	-5086
▁mir	-5087
▁soo	-5088
▁1500	-5089
▁fant	-5090
▁indo	-5091
▁lend	-5092
▁mini	-5093
stream	-5094
▁cater	-5095
▁embar	-5096
▁honda	-5097
▁discon	-5098
▁instal	-5099
▁ahangama	-5100
▁flexible	-5101
▁publicly	-5102
▁childhood	-5103
▁confident	-5104
▁manipulate	-5105
▁acknowledge	-5106
▁vaccination	-5107
hy	-5108
ola	-5109
uru	-5110
▁31	-5111
▁ft	-5112
ript	-5113
whel	-5114
▁bee	-5115
▁fyi	-5116
ourse	-5117
▁cath	-5118
▁riot	-5119
▁stem	-5120
▁temu	-5121
▁hesit	-5122
▁unity	-5123
▁define	-5124
▁guilty	-5125
▁stabil	-5126
▁benefic	-5127
▁classic	-5128
▁regulate	-5129
▁treasury	-5130
▁immediate	-5131
▁disgusting	-5132
fp	-5133
yy	-5134
eve	-5135
▁32	-5136
▁tf	-5137
iant	-5138
soon	-5139
ulla	-5140
▁ash	-5141
▁gif	-5142
▁ing	-5143
▁kot	-5144
▁mum	-5145
▁wij	-5146
inder	-5147
ivate	-5148
▁furn	-5149
▁grid	-5150
▁lazy	-5151
▁pill	-5152
▁salt	-5153
▁summ	-5154
lement	-5155
▁badly	-5156
▁eelam	-5157
▁hobby	-5158
▁shape	-5159
▁steam	-5160
▁veget	-5161
▁assess	-5162
▁buddha	-5163
▁french	-5164
▁instru	-5165
▁server	-5166
▁wanted	-5167
▁sharing	-5168
▁heritage	-5169
▁consistent	-5170
law	-5171
rad	-5172
▁fk	-5173
▁ml	-5174
▁py	-5175
cean	-5176
paid	-5177
sday	-5178
▁800	-5179
▁bid	-5180
▁cus	-5181
▁som	-5182
▁uom	-5183
erion	-5184
▁flav	-5185
▁forg	-5186
▁spir	-5187
▁memor	-5188
▁micro	-5189
▁oblig	-5190
▁depart	-5191
▁farmer	-5192
▁assault	-5193
▁reading	-5194
▁trigger	-5195
▁pathetic	-5196
▁criterion	-5197
▁investing	-5198
▁ownership	-5199
▁prioritize	-5200
▁specialize	-5201
▁sufficient	-5202
▁translation	-5203
▁depreciation	-5204
▁internationally	-5205
▁cp	-5206
▁om	-5207
bble	-5208
half	-5209
hott	-5210
iety	-5211
uber	-5212
▁hig	-5213
▁nil	-5214
shirt	-5215
▁batt	-5216
▁feas	-5217
▁neut	-5218
▁rape	-5219
▁tail	-5220
▁viet	-5221
▁honey	-5222
▁inher	-5223
▁niche	-5224
▁ocean	-5225
▁stray	-5226
▁utter	-5227
awatuna	-5228
▁basket	-5229
▁clinic	-5230
▁earner	-5231
▁expend	-5232
▁insult	-5233
▁kindly	-5234
▁uneduc	-5235
iliation	-5236
▁impress	-5237
▁licence	-5238
▁opening	-5239
▁variety	-5240
▁violent	-5241
▁visible	-5242
▁naturally	-5243
▁principle	-5244
▁terrorism	-5245
▁differently	-5246
▁personality	-5247
▁politically	-5248
▁subscription	-5249
75	-5250
ax	-5251
gi	-5252
ula	-5253
▁33	-5254
▁gf	-5255
omen	-5256
some	-5257
word	-5258
▁bun	-5259
▁jav	-5260
▁tol	-5261
astic	-5262
▁bias	-5263
▁mail	-5264
▁tact	-5265
itchen	-5266
▁award	-5267
▁diagn	-5268
▁integ	-5269
▁mouth	-5270
▁satur	-5271
▁surge	-5272
▁uncom	-5273
raction	-5274
▁exceed	-5275
▁league	-5276
▁openly	-5277
▁payone	-5278
▁relief	-5279
▁tshirt	-5280
friendly	-5281
▁bentota	-5282
▁consent	-5283
▁gateway	-5284
▁mislead	-5285
▁opportun	-5286
▁overwhel	-5287
▁presence	-5288
▁proposal	-5289
▁amendment	-5290
▁reputable	-5291
▁convenience	-5292
▁importantly	-5293
▁nationalist	-5294
▁potentially	-5295
fo	-5296
abe	-5297
ida	-5298
▁bm	-5299
aran	-5300
athy	-5301
bery	-5302
flow	-5303
▁alt	-5304
▁cos	-5305
▁soc	-5306
▁tap	-5307
▁airb	-5308
▁brut	-5309
▁dise	-5310
▁goon	-5311
▁isol	-5312
▁mora	-5313
▁thum	-5314
▁vast	-5315
▁angry	-5316
▁chand	-5317
▁freak	-5318
▁hypoc	-5319
▁rapid	-5320
▁amazon	-5321
▁behalf	-5322
▁higher	-5323
▁intake	-5324
▁nissan	-5325
▁kitchen	-5326
▁macbook	-5327
▁setting	-5328
▁payoneer	-5329
▁reminder	-5330
▁republic	-5331
▁perfectly	-5332
▁realistic	-5333
▁afterwards	-5334
▁allegation	-5335
▁frequently	-5336
▁physically	-5337
▁supplement	-5338
▁contribution	-5339
100	-5340
▁bcz	-5341
▁boc	-5342
▁kat	-5343
▁owe	-5344
▁unt	-5345
ailed	-5346
▁hole	-5347
▁lake	-5348
▁gotab	-5349
▁hindu	-5350
▁phase	-5351
▁sheet	-5352
▁yahap	-5353
▁accuse	-5354
▁cringe	-5355
▁liquid	-5356
▁parcel	-5357
▁thumbs	-5358
▁urgent	-5359
ropriate	-5360
▁anxiety	-5361
▁venture	-5362
▁waiting	-5363
▁whereas	-5364
▁kelaniya	-5365
▁mentally	-5366
▁regional	-5367
▁communist	-5368
▁emotional	-5369
▁sentiment	-5370
▁workforce	-5371
▁incredibly	-5372
▁complicated	-5373
▁parliamentary	-5374
▁yr	-5375
aint	-5376
▁ceo	-5377
▁gaz	-5378
gment	-5379
known	-5380
mouth	-5381
▁chip	-5382
▁diet	-5383
▁dump	-5384
▁edge	-5385
▁flat	-5386
▁fulf	-5387
▁symb	-5388
▁radio	-5389
▁mature	-5390
▁pohott	-5391
▁beaming	-5392
▁customs	-5393
▁monsoon	-5394
▁neutral	-5395
▁catholic	-5396
▁favorite	-5397
▁superior	-5398
▁swimming	-5399
▁determine	-5400
▁excellent	-5401
▁unawatuna	-5402
▁wonderful	-5403
▁assistance	-5404
▁discourage	-5405
▁literature	-5406
▁practically	-5407
45	-5408
fh	-5409
hh	-5410
mn	-5411
hus	-5412
reh	-5413
▁cb	-5414
▁ec	-5415
away	-5416
cuit	-5417
emon	-5418
reep	-5419
urve	-5420
▁rub	-5421
▁sav	-5422
▁uoc	-5423
▁gear	-5424
▁keen	-5425
source	-5426
▁cheat	-5427
▁forum	-5428
▁fruit	-5429
▁monet	-5430
▁shady	-5431
uration	-5432
▁backup	-5433
▁border	-5434
▁filter	-5435
▁incent	-5436
▁mirror	-5437
▁resist	-5438
▁abolish	-5439
▁disease	-5440
▁embarra	-5441
▁ethical	-5442
▁strange	-5443
▁ukraine	-5444
istically	-5445
▁detailed	-5446
▁fulltime	-5447
▁saturday	-5448
▁competent	-5449
▁overprice	-5450
▁acceptable	-5451
▁impression	-5452
▁resignation	-5453
▁prescription	-5454
13	-5455
tch	-5456
▁85	-5457
▁kg	-5458
aker	-5459
irty	-5460
▁ego	-5461
▁ndb	-5462
▁voc	-5463
▁wfh	-5464
ampoo	-5465
haust	-5466
itual	-5467
▁3000	-5468
▁tank	-5469
▁thus	-5470
▁audit	-5471
▁incor	-5472
▁moral	-5473
▁patri	-5474
▁swear	-5475
ference	-5476
▁ayurve	-5477
▁detect	-5478
▁hardly	-5479
▁matara	-5480
▁minded	-5481
▁purely	-5482
▁bedroom	-5483
▁contest	-5484
▁defense	-5485
▁exclude	-5486
▁exhaust	-5487
▁quarter	-5488
▁shampoo	-5489
▁abortion	-5490
▁midnight	-5491
▁component	-5492
▁uncomfort	-5493
▁permission	-5494
hat	-5495
see	-5496
zen	-5497
▁ms	-5498
aken	-5499
lier	-5500
▁ble	-5501
▁ham	-5502
▁kit	-5503
▁wed	-5504
etime	-5505
world	-5506
▁atro	-5507
▁hikk	-5508
▁pfca	-5509
▁tort	-5510
▁unus	-5511
▁zoom	-5512
liness	-5513
romise	-5514
shrugg	-5515
▁demon	-5516
▁moron	-5517
▁overt	-5518
▁pride	-5519
▁quota	-5520
▁subst	-5521
▁trail	-5522
rolling	-5523
▁corner	-5524
▁snorke	-5525
▁equally	-5526
▁scratch	-5527
▁selling	-5528
▁supreme	-5529
▁yahapal	-5530
shrugging	-5531
▁ordinary	-5532
▁parttime	-5533
▁randomly	-5534
▁dependent	-5535
▁compromise	-5536
▁efficiency	-5537
▁friendship	-5538
▁unemployed	-5539
▁withdrawal	-5540
▁corporation	-5541
▁architecture	-5542
yo	-5543
uls	-5544
▁og	-5545
case	-5546
gage	-5547
husi	-5548
▁700	-5549
▁dan	-5550
cious	-5551
iracy	-5552
osity	-5553
otism	-5554
▁brow	-5555
▁fare	-5556
▁gent	-5557
▁hung	-5558
▁perk	-5559
▁pump	-5560
▁scan	-5561
▁shed	-5562
▁shel	-5563
opular	-5564
▁andor	-5565
▁brief	-5566
▁plane	-5567
▁pleas	-5568
▁rally	-5569
▁mosque	-5570
▁resume	-5571
▁tactic	-5572
▁temper	-5573
aranaike	-5574
▁analyst	-5575
▁committ	-5576
▁deficit	-5577
▁excited	-5578
▁maldive	-5579
▁vacancy	-5580
▁vietnam	-5581
▁backpack	-5582
▁headache	-5583
▁northern	-5584
▁economist	-5585
▁extension	-5586
▁necessity	-5587
▁primarily	-5588
▁privately	-5589
▁violation	-5590
▁beneficial	-5591
▁uneducated	-5592
▁consumption	-5593
▁uncomfortable	-5594
ti	-5595
han	-5596
mar	-5597
oly	-5598
sto	-5599
ilst	-5600
ised	-5601
ouch	-5602
unic	-5603
▁fas	-5604
▁lad	-5605
▁otp	-5606
▁suv	-5607
eapon	-5608
itate	-5609
▁cell	-5610
▁magn	-5611
▁navy	-5612
▁symp	-5613
▁warm	-5614
▁alert	-5615
▁femin	-5616
▁nomad	-5617
▁penal	-5618
▁hatred	-5619
▁module	-5620
▁reward	-5621
▁continu	-5622
▁enthusi	-5623
▁hotline	-5624
▁kingdom	-5625
▁onwards	-5626
▁russian	-5627
▁stretch	-5628
▁torture	-5629
▁happiness	-5630
▁hikkaduwa	-5631
▁bandaranaike	-5632
▁manufacturer	-5633
ns	-5634
tel	-5635
atta	-5636
flix	-5637
iser	-5638
▁cer	-5639
▁fup	-5640
▁kad	-5641
▁ske	-5642
▁wik	-5643
▁defe	-5644
▁gamp	-5645
▁pear	-5646
▁plot	-5647
▁prol	-5648
erable	-5649
nament	-5650
ounder	-5651
▁aband	-5652
▁anime	-5653
▁creep	-5654
▁drunk	-5655
▁esoft	-5656
▁excess	-5657
▁whilst	-5658
▁handout	-5659
▁subsidy	-5660
▁writing	-5661
▁feasible	-5662
▁hardware	-5663
▁interior	-5664
▁legitimate	-5665
▁achievement	-5666
▁examination	-5667
▁marketplace	-5668
▁programming	-5669
▁verification	-5670
bl	-5671
vi	-5672
dly	-5673
sey	-5674
sia	-5675
sim	-5676
▁cd	-5677
▁hv	-5678
▁mf	-5679
anga	-5680
wash	-5681
▁aka	-5682
aging	-5683
archy	-5684
build	-5685
▁auto	-5686
▁cast	-5687
▁heal	-5688
▁jeal	-5689
▁util	-5690
▁chaos	-5691
▁fraud	-5692
▁stead	-5693
holding	-5694
▁africa	-5695
▁desire	-5696
▁misuse	-5697
▁narrow	-5698
▁aggress	-5699
▁courier	-5700
▁disturb	-5701
▁spotify	-5702
▁therapy	-5703
▁warning	-5704
▁prospect	-5705
▁strongly	-5706
▁taxation	-5707
▁broadcast	-5708
▁applicable	-5709
▁separately	-5710
▁transition	-5711
▁description	-5712
▁expenditure	-5713
aa	-5714
ius	-5715
top	-5716
fast	-5717
used	-5718
vere	-5719
▁350	-5720
front	-5721
iform	-5722
inter	-5723
itten	-5724
opoly	-5725
▁2500	-5726
▁ally	-5727
▁flee	-5728
▁heck	-5729
▁hunt	-5730
▁mism	-5731
▁sand	-5732
▁sooo	-5733
opolit	-5734
relate	-5735
▁advoc	-5736
▁enrol	-5737
▁intel	-5738
▁joint	-5739
▁loyal	-5740
▁maith	-5741
▁nepal	-5742
▁pregn	-5743
▁worst	-5744
▁extrem	-5745
▁weapon	-5746
▁abandon	-5747
▁acquire	-5748
▁bracket	-5749
▁inspire	-5750
▁importer	-5751
▁indirect	-5752
▁loophole	-5753
▁affiliate	-5754
▁unpopular	-5755
▁capitalism	-5756
▁graduation	-5757
▁innovation	-5758
▁revolution	-5759
▁supportive	-5760
▁emotionally	-5761
▁unfortunate	-5762
aha	-5763
rog	-5764
ush	-5765
zel	-5766
▁ib	-5767
mate	-5768
sper	-5769
antic	-5770
check	-5771
erely	-5772
▁fern	-5773
▁slfp	-5774
▁bread	-5775
▁civic	-5776
▁exper	-5777
▁incon	-5778
▁spark	-5779
station	-5780
▁broken	-5781
▁bubble	-5782
▁defeat	-5783
▁easier	-5784
▁fucker	-5785
▁monkey	-5786
▁praise	-5787
▁prepay	-5788
▁script	-5789
▁shower	-5790
▁singer	-5791
▁crowded	-5792
▁jealous	-5793
▁uniform	-5794
▁visitor	-5795
▁downside	-5796
▁literacy	-5797
▁navigate	-5798
▁outdated	-5799
▁assistant	-5800
▁commenter	-5801
▁stressful	-5802
▁attractive	-5803
▁capability	-5804
▁disrespect	-5805
▁tournament	-5806
▁hospitality	-5807
▁investigate	-5808
▁nationalism	-5809
▁representative	-5810
23	-5811
dr	-5812
▁247	-5813
▁nov	-5814
payer	-5815
▁bast	-5816
▁java	-5817
▁rein	-5818
▁thug	-5819
▁urge	-5820
spaper	-5821
▁awful	-5822
▁bound	-5823
emption	-5824
▁fluent	-5825
▁litter	-5826
▁manife	-5827
▁volume	-5828
▁cooking	-5829
▁leasing	-5830
▁offense	-5831
▁reverse	-5832
▁transit	-5833
▁incentive	-5834
▁increment	-5835
▁introvert	-5836
▁newspaper	-5837
▁accessible	-5838
16	-5839
88	-5840
99	-5841
sf	-5842
xx	-5843
cal	-5844
ipt	-5845
usd	-5846
▁37	-5847
▁jk	-5848
▁qa	-5849
aram	-5850
asty	-5851
itar	-5852
ugee	-5853
▁las	-5854
▁pir	-5855
▁ren	-5856
▁ssd	-5857
class	-5858
scape	-5859
vable	-5860
▁2017	-5861
▁2030	-5862
▁adam	-5863
▁dura	-5864
▁exer	-5865
▁fert	-5866
▁foll	-5867
▁hamb	-5868
▁mort	-5869
▁nail	-5870
▁thru	-5871
emotes	-5872
rovers	-5873
▁appre	-5874
▁grind	-5875
▁pilot	-5876
▁postp	-5877
▁scary	-5878
▁snack	-5879
▁spect	-5880
▁deeply	-5881
▁indoor	-5882
▁packet	-5883
▁pickup	-5884
▁poster	-5885
▁reside	-5886
▁capture	-5887
▁largely	-5888
▁learner	-5889
▁netflix	-5890
▁pension	-5891
emotefree	-5892
▁chemical	-5893
▁follower	-5894
▁governor	-5895
▁reaction	-5896
▁taxpayer	-5897
▁misinform	-5898
▁satisfied	-5899
▁streaming	-5900
▁purchasing	-5901
▁screenshot	-5902
ald	-5903
bay	-5904
bre	-5905
bud	-5906
gle	-5907
gre	-5908
ldr	-5909
wan	-5910
laim	-5911
quit	-5912
▁bug	-5913
▁cfa	-5914
▁uns	-5915
▁wil	-5916
chool	-5917
ongue	-5918
▁bout	-5919
▁dism	-5920
▁pant	-5921
▁tatt	-5922
▁thor	-5923
▁wipe	-5924
▁wood	-5925
ateral	-5926
▁apiit	-5927
▁jayaw	-5928
▁lodge	-5929
▁metal	-5930
▁newly	-5931
▁rumor	-5932
▁unpro	-5933
▁vezel	-5934
erately	-5935
▁allege	-5936
▁indone	-5937
▁making	-5938
▁monday	-5939
▁recipe	-5940
▁studio	-5941
▁thrive	-5942
▁worthy	-5943
▁compreh	-5944
▁creator	-5945
▁farming	-5946
▁muslims	-5947
▁deadline	-5948
▁exercise	-5949
▁framework	-5950
▁principal	-5951
▁suspicious	-5952
▁temperature	-5953
▁neighborhood	-5954
26	-5955
you	-5956
▁ax	-5957
▁lt	-5958
▁ui	-5959
enna	-5960
erce	-5961
▁cig	-5962
▁fab	-5963
▁mfs	-5964
▁ste	-5965
alate	-5966
cycle	-5967
▁2016	-5968
▁auss	-5969
▁boil	-5970
▁done	-5971
▁pera	-5972
▁pron	-5973
itable	-5974
▁comes	-5975
▁hyper	-5976
▁rajag	-5977
▁ratio	-5978
▁silva	-5979
▁spice	-5980
▁storm	-5981
▁swift	-5982
apitiya	-5983
▁airtel	-5984
▁collab	-5985
▁legend	-5986
▁overth	-5987
▁postal	-5988
▁prosec	-5989
▁racial	-5990
▁solely	-5991
haragama	-5992
▁bribery	-5993
▁miracle	-5994
▁outdoor	-5995
▁wickrem	-5996
▁duration	-5997
▁fernando	-5998
▁geopolit	-5999
▁indicate	-6000
▁saturate	-6001
▁touristy	-6002
▁curiosity	-6003
▁furniture	-6004
▁landscape	-6005
▁migrating	-6006
▁repayment	-6007
▁contractor	-6008
▁controvers	-6009
▁economical	-6010
▁strengthen	-6011
▁comfortably	-6012
▁frustration	-6013
mc	-6014
ham	-6015
mpt	-6016
▁yt	-6017
bour	-6018
inia	-6019
▁aqu	-6020
▁ela	-6021
▁hun	-6022
▁mit	-6023
▁nep	-6024
▁sms	-6025
▁wet	-6026
agger	-6027
prise	-6028
▁1015	-6029
▁caut	-6030
▁menu	-6031
▁nadu	-6032
▁slap	-6033
ancest	-6034
incial	-6035
▁bitch	-6036
▁bless	-6037
▁champ	-6038
▁dirty	-6039
▁gramm	-6040
▁harsh	-6041
▁merit	-6042
▁panic	-6043
▁promin	-6044
▁inspect	-6045
▁italian	-6046
▁penalty	-6047
▁receipt	-6048
▁alliance	-6049
▁bathroom	-6050
▁inconven	-6051
▁mechanic	-6052
▁construct	-6053
▁embarrass	-6054
▁bankruptcy	-6055
▁enterprise	-6056
▁photography	-6057
18	-6058
pr	-6059
cir	-6060
cra	-6061
has	-6062
het	-6063
ype	-6064
▁42	-6065
edly	-6066
spot	-6067
xual	-6068
▁evs	-6069
▁fur	-6070
▁lag	-6071
▁peg	-6072
▁rul	-6073
▁sus	-6074
▁ugc	-6075
▁und	-6076
▁acca	-6077
▁cave	-6078
▁epis	-6079
▁exit	-6080
▁ielt	-6081
▁phil	-6082
▁span	-6083
▁tall	-6084
▁tier	-6085
circle	-6086
▁abans	-6087
▁consp	-6088
▁overs	-6089
▁regul	-6090
▁times	-6091
oration	-6092
related	-6093
umption	-6094
▁aussie	-6095
▁latter	-6096
▁perera	-6097
▁symbol	-6098
▁tattoo	-6099
▁thanks	-6100
▁turtle	-6101
▁unreal	-6102
▁dislike	-6103
▁mandate	-6104
▁nursing	-6105
▁observe	-6106
▁refugee	-6107
▁socalle	-6108
▁cautious	-6109
▁frequent	-6110
▁lifetime	-6111
▁monopoly	-6112
▁youtuber	-6113
▁protestor	-6114
▁artificial	-6115
▁conference	-6116
▁expression	-6117
▁mainstream	-6118
▁originally	-6119
▁congratulation	-6120
yl	-6121
zi	-6122
sin	-6123
tra	-6124
▁mm	-6125
▁qr	-6126
▁xd	-6127
anna	-6128
keep	-6129
▁bam	-6130
▁vul	-6131
eliya	-6132
▁beer	-6133
▁coal	-6134
▁crop	-6135
▁deed	-6136
▁mbbs	-6137
▁meat	-6138
▁peer	-6139
▁seal	-6140
▁thin	-6141
▁tldr	-6142
rition	-6143
verter	-6144
▁enemy	-6145
▁honor	-6146
▁merch	-6147
▁resid	-6148
▁rider	-6149
▁topup	-6150
▁wagon	-6151
unegala	-6152
vention	-6153
▁ancest	-6154
▁apolog	-6155
▁capita	-6156
▁guitar	-6157
▁obsess	-6158
▁rocket	-6159
▁saying	-6160
▁widely	-6161
ographic	-6162
▁bastard	-6163
▁bureauc	-6164
▁combank	-6165
▁episode	-6166
▁execute	-6167
▁hearing	-6168
▁taxable	-6169
▁advocate	-6170
▁postpone	-6171
▁carefully	-6172
▁depressed	-6173
▁peacefully	-6174
▁popularity	-6175
▁effectively	-6176
▁interaction	-6177
▁documentation	-6178
▁environmental	-6179
▁manufacturing	-6180
bn	-6181
aid	-6182
arn	-6183
aire	-6184
east	-6185
hill	-6186
iest	-6187
moon	-6188
open	-6189
rish	-6190
▁gce	-6191
▁wht	-6192
ggage	-6193
obile	-6194
power	-6195
shore	-6196
▁2009	-6197
▁bind	-6198
▁blah	-6199
▁bulk	-6200
▁came	-6201
▁coop	-6202
▁dine	-6203
▁dose	-6204
▁mask	-6205
▁more	-6206
▁zeal	-6207
iently	-6208
lessly	-6209
▁50000	-6210
▁actor	-6211
▁audio	-6212
▁drone	-6213
▁forth	-6214
▁frank	-6215
▁grass	-6216
▁paste	-6217
▁sweat	-6218
▁upset	-6219
▁academ	-6220
▁better	-6221
▁counse	-6222
▁udawal	-6223
▁certify	-6224
▁crucial	-6225
▁lavinia	-6226
▁luggage	-6227
▁atrocity	-6228
▁committee	-6229
▁departure	-6230
▁integrate	-6231
▁outsource	-6232
▁scientist	-6233
▁experiment	-6234
▁maharagama	-6235
▁provincial	-6236
▁appropriate	-6237
▁association	-6238
▁conditioner	-6239
▁incompetent	-6240
▁establishment	-6241
17	-6242
48	-6243
pi	-6244
yr	-6245
▁48	-6246
▁bb	-6247
▁cz	-6248
▁dj	-6249
▁hd	-6250
▁nz	-6251
iter	-6252
lord	-6253
pher	-6254
site	-6255
▁125	-6256
▁510	-6257
▁ira	-6258
▁kud	-6259
▁ped	-6260
▁por	-6261
▁unw	-6262
index	-6263
isine	-6264
▁desc	-6265
▁kiss	-6266
▁lord	-6267
▁moon	-6268
▁ping	-6269
▁roof	-6270
inking	-6271
▁adida	-6272
▁basil	-6273
▁chart	-6274
▁chath	-6275
▁crush	-6276
▁jewel	-6277
▁sneak	-6278
▁theme	-6279
cession	-6280
quality	-6281
yearold	-6282
▁harini	-6283
▁hungry	-6284
▁insist	-6285
▁scenic	-6286
▁sovere	-6287
▁square	-6288
▁yellow	-6289
ographer	-6290
▁ceremon	-6291
▁cuisine	-6292
▁disrupt	-6293
▁founder	-6294
▁haircut	-6295
▁servant	-6296
▁gotabaya	-6297
▁keyboard	-6298
▁speaking	-6299
▁exemption	-6300
▁expertise	-6301
▁gradually	-6302
▁indicator	-6303
▁manifesto	-6304
▁prescribe	-6305
▁sensitive	-6306
mediumlight	-6307
▁kurunegala	-6308
▁motorcycle	-6309
▁rajagiriya	-6310
▁involvement	-6311
▁realistically	-6312
ms	-6313
cin	-6314
don	-6315
ran	-6316
sal	-6317
uct	-6318
uki	-6319
vis	-6320
▁67	-6321
▁mn	-6322
ader	-6323
bike	-6324
sena	-6325
xist	-6326
▁180	-6327
▁bis	-6328
▁etf	-6329
▁mud	-6330
▁ngl	-6331
▁ngo	-6332
▁oly	-6333
▁sue	-6334
▁wat	-6335
inton	-6336
value	-6337
▁atmo	-6338
▁bird	-6339
▁carn	-6340
▁cham	-6341
▁econ	-6342
▁elim	-6343
▁euro	-6344
▁glor	-6345
▁logo	-6346
▁myth	-6347
arency	-6348
▁chief	-6349
▁popul	-6350
▁stone	-6351
itarian	-6352
▁accomp	-6353
▁evolve	-6354
▁jersey	-6355
▁layoff	-6356
▁lonely	-6357
▁retain	-6358
▁steady	-6359
▁tension	-6360
▁trainer	-6361
▁violate	-6362
▁boundary	-6363
▁diagnose	-6364
▁escalate	-6365
▁logistic	-6366
▁offshore	-6367
▁americans	-6368
▁favourite	-6369
▁miserable	-6370
▁nutrition	-6371
▁pohottuwa	-6372
▁residence	-6373
facepalming	-6374
▁prediction	-6375
▁srilankans	-6376
▁businessman	-6377
▁celebration	-6378
▁gifemotefree	-6379
vo	-6380
hum	-6381
sen	-6382
▁69	-6383
▁lm	-6384
▁tn	-6385
acre	-6386
cott	-6387
sher	-6388
stay	-6389
▁cad	-6390
▁cid	-6391
▁gut	-6392
▁peo	-6393
▁pov	-6394
▁suz	-6395
▁vij	-6396
aking	-6397
hibit	-6398
inghe	-6399
mptom	-6400
ophob	-6401
score	-6402
▁2008	-6403
▁asse	-6404
▁coup	-6405
▁eval	-6406
▁pend	-6407
▁prab	-6408
▁tack	-6409
lusion	-6410
▁anger	-6411
▁divid	-6412
▁judic	-6413
▁olymp	-6414
▁bright	-6415
▁colomb	-6416
▁disclo	-6417
▁domain	-6418
▁kitten	-6419
▁mentor	-6420
pointing	-6421
▁element	-6422
▁grammar	-6423
▁liberty	-6424
▁mosquit	-6425
▁symptom	-6426
▁activist	-6427
▁mistaken	-6428
▁operator	-6429
▁overcome	-6430
▁teenager	-6431
▁alongside	-6432
▁breakfast	-6433
▁pollution	-6434
▁accountant	-6435
▁expressway	-6436
▁occasional	-6437
▁calculation	-6438
▁transparency	-6439
cur	-6440
enn	-6441
rum	-6442
ste	-6443
zer	-6444
▁df	-6445
▁du	-6446
▁nc	-6447
acle	-6448
arat	-6449
edia	-6450
erge	-6451
fire	-6452
mare	-6453
ring	-6454
ston	-6455
thon	-6456
▁197	-6457
▁900	-6458
▁amd	-6459
▁hub	-6460
erous	-6461
ivers	-6462
redit	-6463
umble	-6464
▁2014	-6465
▁alto	-6466
▁begg	-6467
▁bell	-6468
▁chee	-6469
▁dick	-6470
▁flaw	-6471
▁gala	-6472
▁orph	-6473
▁pile	-6474
▁posh	-6475
▁tone	-6476
▁ugly	-6477
▁vitz	-6478
▁watt	-6479
ughing	-6480
▁20000	-6481
▁dutch	-6482
▁fiver	-6483
▁hilar	-6484
▁seems	-6485
▁sharp	-6486
▁truck	-6487
▁villa	-6488
▁dining	-6489
▁freely	-6490
▁golden	-6491
▁japura	-6492
▁ladder	-6493
▁mutual	-6494
▁nanote	-6495
▁palest	-6496
▁reconc	-6497
▁scream	-6498
▁silent	-6499
▁silver	-6500
▁tailor	-6501
▁weekly	-6502
▁fresher	-6503
▁gampaha	-6504
▁gazette	-6505
▁hangout	-6506
▁launder	-6507
▁literal	-6508
▁organic	-6509
▁romantic	-6510
▁talented	-6511
▁hilarious	-6512
▁liability	-6513
▁mismanage	-6514
▁nightmare	-6515
▁secondary	-6516
▁underpaid	-6517
▁universal	-6518
▁assumption	-6519
▁attendance	-6520
▁harassment	-6521
▁instrument	-6522
▁confirmation	-6523
▁disappointed	-6524
▁approximately	-6525
▁consideration	-6526
150	-6527
▁pf	-6528
host	-6529
part	-6530
rite	-6531
safe	-6532
stud	-6533
▁225	-6534
▁cul	-6535
▁dhl	-6536
▁dun	-6537
▁lan	-6538
▁lob	-6539
▁raw	-6540
itute	-6541
▁aunt	-6542
▁beef	-6543
▁bicy	-6544
▁dash	-6545
▁iran	-6546
▁keel	-6547
▁mock	-6548
▁unst	-6549
antota	-6550
soever	-6551
▁armed	-6552
▁devop	-6553
▁float	-6554
▁horse	-6555
▁pitch	-6556
▁salon	-6557
▁skept	-6558
▁unite	-6559
▁dental	-6560
▁diving	-6561
▁mannar	-6562
▁overly	-6563
▁perpet	-6564
▁reluct	-6565
▁stance	-6566
▁suzuki	-6567
00000000	-6568
stically	-6569
▁bicycle	-6570
▁chandri	-6571
▁inherit	-6572
▁looking	-6573
▁magnite	-6574
▁zealand	-6575
▁airlines	-6576
▁maturity	-6577
▁monetary	-6578
▁mosquito	-6579
▁socially	-6580
▁honeymoon	-6581
▁mechanism	-6582
▁prominent	-6583
▁worldwide	-6584
▁capitalist	-6585
▁disconnect	-6586
▁enthusiast	-6587
▁importance	-6588
▁whatsoever	-6589
▁accordingly	-6590
▁desperately	-6591
▁enforcement	-6592
▁observation	-6593
▁reliability	-6594
▁appreciation	-6595
▁consistently	-6596
▁discriminate	-6597
▁opportunitie	-6598
▁photographer	-6599
▁clarification	-6600
▁reconciliation	-6601
ew	-6602
hr	-6603
boo	-6604
vil	-6605
▁03	-6606
▁bh	-6607
▁ct	-6608
aris	-6609
attu	-6610
mail	-6611
oker	-6612
ptoc	-6613
quer	-6614
self	-6615
very	-6616
▁asp	-6617
▁ccc	-6618
▁gal	-6619
▁gpu	-6620
▁joy	-6621
▁rig	-6622
▁sib	-6623
▁spo	-6624
count	-6625
oking	-6626
▁asus	-6627
▁dive	-6628
▁doom	-6629
▁elev	-6630
▁expl	-6631
▁inch	-6632
▁maps	-6633
▁pace	-6634
▁reck	-6635
▁recy	-6636
▁roam	-6637
▁sham	-6638
alanda	-6639
parent	-6640
▁digit	-6641
▁theat	-6642
▁vague	-6643
imation	-6644
iration	-6645
▁airbnb	-6646
▁breath	-6647
▁fortun	-6648
▁gentle	-6649
▁marine	-6650
▁recall	-6651
▁repute	-6652
▁safely	-6653
▁scroll	-6654
▁states	-6655
▁stripe	-6656
▁waving	-6657
▁african	-6658
▁elderly	-6659
▁migrant	-6660
▁painful	-6661
▁prosper	-6662
▁qualify	-6663
▁routine	-6664
▁clapping	-6665
▁landlord	-6666
▁nepotism	-6667
▁password	-6668
▁thorough	-6669
▁backwards	-6670
▁eliminate	-6671
▁protester	-6672
▁therapist	-6673
▁assessment	-6674
▁conspiracy	-6675
▁hambantota	-6676
▁irrelevant	-6677
▁manageable	-6678
▁motivation	-6679
▁respectful	-6680
▁psychologist	-6681
▁misinformation	-6682
car	-6683
ole	-6684
uba	-6685
yas	-6686
▁78	-6687
▁ds	-6688
▁ty	-6689
mble	-6690
plus	-6691
pret	-6692
rase	-6693
sman	-6694
▁gmo	-6695
▁hmm	-6696
▁iam	-6697
▁ish	-6698
▁reh	-6699
▁sht	-6700
▁spa	-6701
arath	-6702
ceive	-6703
craft	-6704
ician	-6705
▁bean	-6706
▁bore	-6707
▁brag	-6708
▁goto	-6709
▁kong	-6710
▁porn	-6711
▁proc	-6712
▁vape	-6713
▁vice	-6714
ection	-6715
minton	-6716
▁caste	-6717
▁lobby	-6718
▁stamp	-6719
esinghe	-6720
reshold	-6721
▁brutal	-6722
▁emerge	-6723
▁fabric	-6724
▁greedy	-6725
standing	-6726
▁apology	-6727
▁boycott	-6728
▁charger	-6729
▁defence	-6730
▁disable	-6731
▁discord	-6732
▁dispose	-6733
▁footage	-6734
▁handful	-6735
▁hotspot	-6736
▁inquire	-6737
▁torrent	-6738
▁workout	-6739
▁backhand	-6740
▁equality	-6741
▁inverter	-6742
▁numerous	-6743
▁pregnant	-6744
▁skincare	-6745
▁stranger	-6746
▁adventure	-6747
▁ayurvedic	-6748
▁chandrika	-6749
▁computing	-6750
▁reduction	-6751
▁threshold	-6752
▁negotiation	-6753
▁considerable	-6754
▁consultation	-6755
ave	-6756
eng	-6757
iny	-6758
mal	-6759
met	-6760
nis	-6761
rip	-6762
squ	-6763
sri	-6764
sth	-6765
▁38	-6766
▁if	-6767
▁pd	-6768
they	-6769
wood	-6770
▁dip	-6771
▁pos	-6772
▁yog	-6773
apter	-6774
bling	-6775
icker	-6776
iotic	-6777
▁arab	-6778
▁clip	-6779
▁emig	-6780
▁esim	-6781
▁inev	-6782
▁lyce	-6783
▁muse	-6784
▁nose	-6785
▁phen	-6786
▁sink	-6787
lation	-6788
▁antib	-6789
▁arrog	-6790
▁ethic	-6791
▁ghost	-6792
redient	-6793
▁calcul	-6794
▁closed	-6795
▁costly	-6796
▁emphas	-6797
▁france	-6798
▁galaxy	-6799
▁height	-6800
▁jewell	-6801
▁liquor	-6802
▁malabe	-6803
▁tackle	-6804
▁tongue	-6805
▁trinco	-6806
▁vulner	-6807
▁zscore	-6808
laughing	-6809
▁coastal	-6810
▁compuls	-6811
▁exagger	-6812
▁finding	-6813
▁raising	-6814
▁sticker	-6815
▁suspend	-6816
▁theatre	-6817
▁upwards	-6818
▁ceremony	-6819
▁creditor	-6820
▁delusion	-6821
▁supplier	-6822
▁badminton	-6823
▁breakdown	-6824
▁stabilize	-6825
▁vegetable	-6826
▁appearance	-6827
▁ingredient	-6828
▁freelancing	-6829
29	-6830
35	-6831
aj	-6832
kw	-6833
oa	-6834
ami	-6835
etf	-6836
igo	-6837
irc	-6838
led	-6839
rise	-6840
sale	-6841
▁130	-6842
▁anc	-6843
▁jet	-6844
▁pta	-6845
▁tel	-6846
ainty	-6847
ducer	-6848
ected	-6849
▁amex	-6850
▁athe	-6851
▁belt	-6852
▁carg	-6853
▁cite	-6854
▁dign	-6855
▁hong	-6856
▁loot	-6857
▁plug	-6858
▁thai	-6859
▁ward	-6860
arette	-6861
▁brill	-6862
▁gover	-6863
▁penny	-6864
▁prize	-6865
▁river	-6866
▁ruler	-6867
fession	-6868
▁before	-6869
▁beggar	-6870
▁enroll	-6871
▁fertil	-6872
▁genius	-6873
▁lyceum	-6874
▁onsite	-6875
▁unsafe	-6876
▁victor	-6877
commerce	-6878
location	-6879
▁amongst	-6880
▁blindly	-6881
▁concent	-6882
▁fishing	-6883
▁melting	-6884
▁nanotek	-6885
▁sibling	-6886
▁staying	-6887
▁creation	-6888
▁dividend	-6889
▁insanely	-6890
▁leverage	-6891
▁substant	-6892
▁ultimate	-6893
▁batalanda	-6894
▁conductor	-6895
▁fantastic	-6896
▁indonesia	-6897
▁instantly	-6898
▁personnel	-6899
▁reluctant	-6900
▁transform	-6901
▁unrelated	-6902
▁compulsory	-6903
▁productive	-6904
▁drastically	-6905
▁intelligent	-6906
▁temporarily	-6907
▁transparent	-6908
▁wickremesinghe	-6909
bb	-6910
300	-6911
etc	-6912
few	-6913
ige	-6914
udi	-6915
uty	-6916
▁07	-6917
▁az	-6918
ador	-6919
mind	-6920
onom	-6921
stop	-6922
west	-6923
▁110	-6924
▁sep	-6925
▁yrs	-6926
ottle	-6927
rator	-6928
▁abey	-6929
▁gall	-6930
▁hort	-6931
inting	-6932
▁coord	-6933
▁excel	-6934
▁fluct	-6935
▁greed	-6936
▁novel	-6937
▁parad	-6938
▁uncon	-6939
▁volat	-6940
conomic	-6941
▁atmosp	-6942
▁boring	-6943
▁browse	-6944
▁county	-6945
▁detain	-6946
▁doable	-6947
▁garage	-6948
▁kidney	-6949
▁museum	-6950
▁occupy	-6951
▁output	-6952
arantine	-6953
lication	-6954
▁carnage	-6955
▁desktop	-6956
▁dumbass	-6957
▁premier	-6958
▁shelter	-6959
▁champion	-6960
▁drinking	-6961
▁humanity	-6962
▁misunder	-6963
▁organise	-6964
▁overtime	-6965
▁tracking	-6966
▁unstable	-6967
▁anonymous	-6968
▁cigarette	-6969
▁countless	-6970
▁ecommerce	-6971
▁everytime	-6972
▁goverment	-6973
▁judgement	-6974
▁orphanage	-6975
▁conversion	-6976
▁respective	-6977
▁demographic	-6978
▁grandparent	-6979
▁unrealistic	-6980
▁dictatorship	-6981
▁inconvenience	-6982
▁mismanagement	-6983
27	-6984
36	-6985
ii	-6986
adh	-6987
ers	-6988
ila	-6989
isa	-6990
osy	-6991
▁fm	-6992
▁iq	-6993
▁mt	-6994
▁os	-6995
▁pg	-6996
▁sr	-6997
eeze	-6998
erry	-6999
lash	-7000
mika	-7001
oral	-7002
▁api	-7003
▁bcs	-7004
▁bmw	-7005
▁dum	-7006
▁jam	-7007
▁ker	-7008
▁omg	-7009
▁plz	-7010
▁saw	-7011
▁sme	-7012
▁yup	-7013
cling	-7014
eness	-7015
ilipp	-7016
ounge	-7017
quiry	-7018
using	-7019
▁4000	-7020
▁bold	-7021
▁dfcc	-7022
▁dust	-7023
▁gmoa	-7024
▁holy	-7025
▁iirc	-7026
▁mart	-7027
▁ramp	-7028
▁them	-7029
▁toll	-7030
igious	-7031
income	-7032
▁dynam	-7033
▁imply	-7034
▁newsw	-7035
▁payer	-7036
▁polon	-7037
▁shake	-7038
atively	-7039
▁earbud	-7040
▁injure	-7041
▁inland	-7042
▁orange	-7043
▁pirate	-7044
▁python	-7045
▁sinhal	-7046
▁sunset	-7047
▁trauma	-7048
▁tution	-7049
▁wisely	-7050
▁bailout	-7051
▁biscuit	-7052
▁cargill	-7053
▁cartoon	-7054
▁charter	-7055
▁conquer	-7056
▁cryptoc	-7057
▁deliber	-7058
▁frankly	-7059
▁outrage	-7060
▁philipp	-7061
▁postgra	-7062
▁specify	-7063
▁sympath	-7064
▁contrast	-7065
▁massacre	-7066
▁overtake	-7067
▁petition	-7068
▁producer	-7069
▁sirisena	-7070
▁throttle	-7071
▁wherever	-7072
▁authorize	-7073
▁diversify	-7074
▁extremist	-7075
▁motorbike	-7076
▁policeman	-7077
▁altogether	-7078
▁antibiotic	-7079
▁quarantine	-7080
▁credibility	-7081
▁recruitment	-7082
▁constitutional	-7083
aly	-7084
asy	-7085
bee	-7086
hen	-7087
van	-7088
▁ww	-7089
fect	-7090
food	-7091
inda	-7092
kara	-7093
omed	-7094
orse	-7095
race	-7096
▁bak	-7097
▁bol	-7098
▁dim	-7099
▁kfc	-7100
▁lap	-7101
▁llb	-7102
▁ogf	-7103
▁utc	-7104
adura	-7105
▁grim	-7106
▁halt	-7107
▁neck	-7108
▁scum	-7109
▁subt	-7110
▁tile	-7111
▁whey	-7112
borate	-7113
donald	-7114
father	-7115
italin	-7116
roller	-7117
unning	-7118
urance	-7119
▁bench	-7120
▁draft	-7121
▁knock	-7122
▁layer	-7123
▁spray	-7124
▁unexp	-7125
usation	-7126
▁breach	-7127
▁bucket	-7128
▁butter	-7129
▁cheese	-7130
▁cruise	-7131
▁epfetf	-7132
▁excite	-7133
▁fiverr	-7134
▁flavor	-7135
▁format	-7136
▁inject	-7137
▁liable	-7138
▁ritual	-7139
▁uncert	-7140
▁academy	-7141
▁bloated	-7142
▁dispute	-7143
▁happily	-7144
▁leftist	-7145
▁logical	-7146
▁playing	-7147
▁rapidly	-7148
▁upfront	-7149
▁utilize	-7150
▁credible	-7151
▁dissolve	-7152
▁initiate	-7153
▁israelis	-7154
▁outright	-7155
▁paycheck	-7156
▁quantity	-7157
balapitiya	-7158
▁applicant	-7159
▁boyfriend	-7160
▁incorrect	-7161
▁objective	-7162
▁similarly	-7163
▁udawalawe	-7164
▁aggressive	-7165
▁atmosphere	-7166
▁conclusion	-7167
▁engagement	-7168
▁frustrated	-7169
▁incredible	-7170
▁obligation	-7171
▁perception	-7172
▁smartphone	-7173
▁uncertainty	-7174
▁accidentally	-7175
▁disappointing	-7176
28	-7177
ox	-7178
awn	-7179
boy	-7180
nes	-7181
rat	-7182
▁ts	-7183
aree	-7184
ease	-7185
oura	-7186
sion	-7187
than	-7188
utes	-7189
well	-7190
▁cct	-7191
▁lat	-7192
▁luc	-7193
▁tok	-7194
araja	-7195
ensus	-7196
guard	-7197
hance	-7198
ketch	-7199
llion	-7200
▁ange	-7201
▁blat	-7202
▁carb	-7203
▁cope	-7204
▁cute	-7205
▁dept	-7206
▁grey	-7207
▁hiru	-7208
▁medi	-7209
▁obst	-7210
▁orth	-7211
▁pers	-7212
▁wrap	-7213
akaran	-7214
▁brush	-7215
▁combo	-7216
▁grasp	-7217
▁gross	-7218
▁insta	-7219
▁intim	-7220
▁legis	-7221
▁magic	-7222
▁meant	-7223
▁perch	-7224
▁plead	-7225
▁shade	-7226
▁stall	-7227
▁straw	-7228
▁thick	-7229
million	-7230
ternoon	-7231
▁assure	-7232
▁aswell	-7233
▁button	-7234
▁empire	-7235
▁exempt	-7236
▁horton	-7237
▁length	-7238
▁planet	-7239
▁poorly	-7240
▁priest	-7241
▁prompt	-7242
▁retard	-7243
▁sketch	-7244
▁binance	-7245
▁dignity	-7246
▁generic	-7247
▁harmful	-7248
▁mission	-7249
▁premise	-7250
▁ranking	-7251
▁weekday	-7252
▁boarding	-7253
▁clueless	-7254
▁gambling	-7255
▁lockdown	-7256
▁mcdonald	-7257
▁perceive	-7258
▁phenomen	-7259
▁relocate	-7260
▁secondly	-7261
▁severely	-7262
▁afternoon	-7263
▁brainwash	-7264
▁cryptocur	-7265
▁dedicated	-7266
▁exclusive	-7267
▁pointless	-7268
▁prosecute	-7269
▁recruiter	-7270
▁accusation	-7271
▁compensate	-7272
▁competitor	-7273
▁definition	-7274
▁distribute	-7275
▁philippine	-7276
▁documentary	-7277
▁orientation	-7278
▁partnership	-7279
▁generational	-7280
▁overwhelming	-7281
▁specialization	-7282
400	-7283
tha	-7284
unu	-7285
▁05	-7286
▁46	-7287
▁bf	-7288
1000	-7289
2025	-7290
coin	-7291
comp	-7292
ethe	-7293
gain	-7294
hour	-7295
igen	-7296
iver	-7297
onic	-7298
▁bpo	-7299
▁fet	-7300
▁ltd	-7301
▁pit	-7302
▁usb	-7303
apura	-7304
inity	-7305
izing	-7306
▁cctv	-7307
▁devs	-7308
▁hook	-7309
▁hygi	-7310
▁nazi	-7311
▁nerv	-7312
▁this	-7313
▁unam	-7314
finger	-7315
laimer	-7316
unicip	-7317
vision	-7318
▁antic	-7319
▁evisa	-7320
▁maker	-7321
▁prost	-7322
▁swing	-7323
▁vouch	-7324
▁yield	-7325
▁hitler	-7326
▁inferi	-7327
▁nandal	-7328
▁pfizer	-7329
▁poison	-7330
▁pricey	-7331
▁backend	-7332
▁demonst	-7333
▁depress	-7334
▁dynamic	-7335
▁federal	-7336
▁fulfill	-7337
▁garment	-7338
▁ikmanlk	-7339
▁immense	-7340
▁inquiry	-7341
▁mileage	-7342
▁polling	-7343
▁relieve	-7344
▁renewal	-7345
▁renting	-7346
▁ritalin	-7347
▁theater	-7348
▁unusual	-7349
▁disclose	-7350
▁distract	-7351
▁dominate	-7352
▁downfall	-7353
▁hesitant	-7354
▁motivate	-7355
▁tolerate	-7356
▁workshop	-7357
▁automatic	-7358
▁criticise	-7359
▁elaborate	-7360
▁lucrative	-7361
▁disclaimer	-7362
▁fertilizer	-7363
▁institutes	-7364
▁privileged	-7365
▁scientific	-7366
▁arrangement	-7367
▁advertisement	-7368
56	-7369
900	-7370
bol	-7371
bro	-7372
can	-7373
oka	-7374
ona	-7375
umn	-7376
▁01	-7377
▁44	-7378
▁mg	-7379
▁ny	-7380
▁ry	-7381
▁sq	-7382
dark	-7383
hera	-7384
inct	-7385
▁bai	-7386
▁dod	-7387
▁dol	-7388
▁kap	-7389
▁lem	-7390
▁row	-7391
▁ruh	-7392
▁smh	-7393
▁soe	-7394
▁uno	-7395
anaya	-7396
clear	-7397
edown	-7398
order	-7399
pattu	-7400
stone	-7401
▁1990	-7402
▁2027	-7403
▁2029	-7404
▁derm	-7405
▁dham	-7406
holder	-7407
urious	-7408
utical	-7409
▁ambul	-7410
▁curse	-7411
▁domin	-7412
▁facil	-7413
▁guilt	-7414
▁horiz	-7415
▁humid	-7416
▁punch	-7417
▁saree	-7418
▁seize	-7419
▁strip	-7420
▁sunny	-7421
▁unreg	-7422
▁viral	-7423
forward	-7424
osexual	-7425
▁asians	-7426
▁assass	-7427
▁bitter	-7428
▁curfew	-7429
▁integr	-7430
▁korean	-7431
▁lounge	-7432
▁lowkey	-7433
▁offend	-7434
▁outage	-7435
▁parade	-7436
▁sample	-7437
▁spouse	-7438
▁string	-7439
▁summer	-7440
▁tennis	-7441
▁upvote	-7442
▁upwork	-7443
▁yearly	-7444
▁carrier	-7445
▁enhance	-7446
▁forgive	-7447
▁glorify	-7448
▁hypocri	-7449
▁nervous	-7450
▁offence	-7451
▁passive	-7452
▁silence	-7453
▁variant	-7454
ructuring	-7455
▁checkout	-7456
▁compound	-7457
▁confront	-7458
▁countrys	-7459
▁flagship	-7460
▁havelock	-7461
▁newswire	-7462
▁powercut	-7463
▁preserve	-7464
▁russians	-7465
▁standing	-7466
▁timeline	-7467
▁unamused	-7468
▁wilpattu	-7469
▁alternate	-7470
▁beginning	-7471
▁diversity	-7472
▁extensive	-7473
▁intellect	-7474
▁nightlife	-7475
▁normalize	-7476
▁pakistani	-7477
▁probation	-7478
▁skeptical	-7479
▁beforehand	-7480
▁collective	-7481
▁comparable	-7482
▁nationality	-7483
▁occasionally	-7484
tt	-7485
bar	-7486
bel	-7487
fin	-7488
fty	-7489
iva	-7490
jan	-7491
▁76	-7492
card	-7493
esth	-7494
gate	-7495
llor	-7496
mony	-7497
oooo	-7498
osis	-7499
oval	-7500
quis	-7501
will	-7502
▁140	-7503
▁boo	-7504
▁ecu	-7505
▁hid	-7506
▁jes	-7507
▁mcq	-7508
▁tue	-7509
▁vid	-7510
angar	-7511
gally	-7512
matic	-7513
orney	-7514
rence	-7515
store	-7516
▁abus	-7517
▁bust	-7518
▁cock	-7519
▁cunt	-7520
▁flip	-7521
▁fuss	-7522
▁imax	-7523
▁koll	-7524
▁scal	-7525
▁semi	-7526
▁sinc	-7527
▁thur	-7528
▁trop	-7529
▁tuks	-7530
▁unav	-7531
advant	-7532
awatte	-7533
orious	-7534
▁blast	-7535
▁chunk	-7536
▁cinec	-7537
▁essay	-7538
▁hindi	-7539
▁lotus	-7540
▁pende	-7541
▁rabie	-7542
▁shell	-7543
▁slide	-7544
▁trace	-7545
▁usaid	-7546
▁wikip	-7547
▁biased	-7548
▁bullet	-7549
▁redact	-7550
▁societ	-7551
▁tender	-7552
▁concert	-7553
▁hopeful	-7554
▁intense	-7555
▁israeli	-7556
▁millenn	-7557
▁nonstop	-7558
▁outlook	-7559
▁portray	-7560
▁radical	-7561
▁removal	-7562
▁smoking	-7563
▁sparkle	-7564
▁surgeon	-7565
advantage	-7566
fessional	-7567
▁chairman	-7568
▁clinical	-7569
▁hardcore	-7570
▁hardship	-7571
▁nandalal	-7572
▁prohibit	-7573
▁accessory	-7574
▁addiction	-7575
▁brilliant	-7576
▁corrupted	-7577
▁deduction	-7578
▁existence	-7579
▁guideline	-7580
▁hypocrisy	-7581
▁ignorance	-7582
▁notorious	-7583
▁anonymized	-7584
▁impressive	-7585
▁indirectly	-7586
▁phenomenon	-7587
▁underworld	-7588
▁worthwhile	-7589
▁bureaucracy	-7590
▁dissanayake	-7591
▁continuously	-7592
▁disadvantage	-7593
▁ridiculously	-7594
▁independently	-7595
▁restructuring	-7596
47	-7597
bps	-7598
equ	-7599
iam	-7600
▁68	-7601
▁bn	-7602
▁nv	-7603
alam	-7604
anut	-7605
gard	-7606
inte	-7607
ophy	-7608
ppet	-7609
rary	-7610
▁450	-7611
▁caf	-7612
▁dow	-7613
▁few	-7614
▁hap	-7615
▁has	-7616
▁ray	-7617
anker	-7618
hough	-7619
ished	-7620
licit	-7621
opard	-7622
otype	-7623
▁bash	-7624
▁bump	-7625
▁deem	-7626
▁fron	-7627
▁junk	-7628
▁meta	-7629
▁pave	-7630
▁repe	-7631
▁smth	-7632
▁stir	-7633
▁trim	-7634
▁unac	-7635
▁usdt	-7636
liment	-7637
naruwa	-7638
▁atrad	-7639
▁bored	-7640
▁craft	-7641
▁daddy	-7642
▁eager	-7643
▁fonse	-7644
▁hoard	-7645
▁incur	-7646
▁mouse	-7647
▁redmi	-7648
▁scrap	-7649
▁sheer	-7650
▁snake	-7651
▁stere	-7652
▁theft	-7653
▁upsid	-7654
▁casino	-7655
▁contem	-7656
▁deputy	-7657
▁dilith	-7658
▁gamble	-7659
▁grandm	-7660
▁injury	-7661
▁invade	-7662
▁kumara	-7663
▁manual	-7664
▁meetup	-7665
▁phrase	-7666
▁profic	-7667
▁starve	-7668
unicipal	-7669
▁anxious	-7670
▁badulla	-7671
▁bitcoin	-7672
▁diverse	-7673
▁editing	-7674
▁empathy	-7675
▁endorse	-7676
▁england	-7677
▁instant	-7678
▁nuclear	-7679
▁running	-7680
▁textile	-7681
▁trainee	-7682
▁tuesday	-7683
▁unknown	-7684
▁virtual	-7685
▁attorney	-7686
▁forecast	-7687
▁merchant	-7688
▁rational	-7689
▁shoulder	-7690
▁sightsee	-7691
▁simplyte	-7692
▁survival	-7693
▁workload	-7694
▁animation	-7695
▁headphone	-7696
▁magically	-7697
▁substance	-7698
▁technique	-7699
▁wikipedia	-7700
▁limitation	-7701
▁occupation	-7702
▁optimistic	-7703
▁upsidedown	-7704
▁vulnerable	-7705
▁inefficient	-7706
▁instruction	-7707
▁permanently	-7708
▁reservation	-7709
▁presentation	-7710
▁surprisingly	-7711
▁comparatively	-7712
▁controversial	-7713
▁knowledgeable	-7714
▁representation	-7715
hs	-7716
cri	-7717
cse	-7718
lay	-7719
omi	-7720
sla	-7721
▁57	-7722
▁89	-7723
▁cm	-7724
▁ek	-7725
▁ti	-7726
atar	-7727
demn	-7728
home	-7729
iger	-7730
ithm	-7731
mine	-7732
rete	-7733
rony	-7734
rust	-7735
star	-7736
that	-7737
▁160	-7738
▁hrs	-7739
▁org	-7740
▁oya	-7741
abase	-7742
iased	-7743
ithub	-7744
ities	-7745
uting	-7746
▁2012	-7747
▁2028	-7748
▁anth	-7749
▁atto	-7750
▁blog	-7751
▁cure	-7752
▁horn	-7753
▁obli	-7754
▁sony	-7755
school	-7756
▁accum	-7757
▁angle	-7758
▁cargo	-7759
▁cough	-7760
▁cowor	-7761
▁damro	-7762
▁fronx	-7763
▁furth	-7764
▁halal	-7765
▁hefty	-7766
▁overc	-7767
▁paran	-7768
▁petty	-7769
▁plaza	-7770
▁reset	-7771
▁saudi	-7772
ievable	-7773
▁boomer	-7774
▁creepy	-7775
▁deploy	-7776
▁exclus	-7777
▁freeze	-7778
▁github	-7779
▁invent	-7780
▁makeup	-7781
▁philos	-7782
▁resale	-7783
▁resell	-7784
▁ruhuna	-7785
▁bargain	-7786
▁closely	-7787
▁compass	-7788
▁condemn	-7789
▁counsel	-7790
▁dancing	-7791
▁dismiss	-7792
▁embrace	-7793
▁flavour	-7794
▁infront	-7795
▁invoice	-7796
▁isolate	-7797
▁jewelry	-7798
▁luckily	-7799
▁pensive	-7800
▁scandal	-7801
▁surface	-7802
▁telecom	-7803
▁wattala	-7804
▁feminism	-7805
▁historic	-7806
▁homophob	-7807
▁judgment	-7808
▁outsider	-7809
▁repeated	-7810
▁showcase	-7811
▁spectrum	-7812
▁tropical	-7813
mediumdark	-7814
▁classroom	-7815
▁illegally	-7816
▁integrity	-7817
▁massively	-7818
▁residency	-7819
▁calculator	-7820
▁controller	-7821
▁eventhough	-7822
▁homosexual	-7823
▁overcharge	-7824
▁processing	-7825
▁settlement	-7826
▁snorkeling	-7827
▁residential	-7828
▁distribution	-7829
▁manipulation	-7830
ml	-7831
ua	-7832
bow	-7833
log	-7834
orb	-7835
sex	-7836
urt	-7837
▁pp	-7838
irya	-7839
mavo	-7840
prit	-7841
root	-7842
tery	-7843
this	-7844
▁diy	-7845
▁kia	-7846
▁kil	-7847
▁lee	-7848
▁rav	-7849
▁ves	-7850
adium	-7851
chain	-7852
plate	-7853
rency	-7854
speak	-7855
wheel	-7856
▁1200	-7857
▁2013	-7858
▁bend	-7859
▁clan	-7860
▁cond	-7861
▁ebay	-7862
▁lact	-7863
▁poya	-7864
▁sane	-7865
▁swap	-7866
▁swed	-7867
▁tiss	-7868
▁yell	-7869
▁yoga	-7870
around	-7871
bourne	-7872
nesday	-7873
ritory	-7874
▁chess	-7875
▁crony	-7876
▁curly	-7877
▁giant	-7878
▁greet	-7879
▁irony	-7880
▁jesus	-7881
▁karma	-7882
▁loser	-7883
▁multi	-7884
▁naive	-7885
▁outta	-7886
▁prabh	-7887
▁prest	-7888
▁rival	-7889
▁whale	-7890
asingly	-7891
colombo	-7892
flation	-7893
rection	-7894
ruption	-7895
▁500000	-7896
▁appare	-7897
▁ballot	-7898
▁barber	-7899
▁compat	-7900
▁endure	-7901
▁helped	-7902
▁jungle	-7903
▁kangar	-7904
▁metrop	-7905
▁motion	-7906
▁prayer	-7907
▁theore	-7908
▁unpaid	-7909
▁fonseka	-7910
▁grandma	-7911
▁idiotic	-7912
▁illness	-7913
▁neglect	-7914
▁stadium	-7915
atologist	-7916
▁arrogant	-7917
▁automate	-7918
▁database	-7919
▁exporter	-7920
▁headline	-7921
▁meantime	-7922
▁ofcourse	-7923
▁sensible	-7924
▁unbiased	-7925
▁volatile	-7926
▁communism	-7927
▁confusing	-7928
▁interpret	-7929
▁liquidity	-7930
▁luxurious	-7931
▁melbourne	-7932
▁rajapaksh	-7933
▁terminate	-7934
▁territory	-7935
▁wednesday	-7936
▁automobile	-7937
▁bookingcom	-7938
▁correction	-7939
▁regulatory	-7940
▁repeatedly	-7941
▁subjective	-7942
▁colonialism	-7943
▁grandfather	-7944
▁implication	-7945
▁polonnaruwa	-7946
▁problematic	-7947
▁substantial	-7948
▁historically	-7949
▁incompetence	-7950
▁increasingly	-7951
▁notification	-7952
▁bambalapitiya	-7953
▁intentionally	-7954
▁straightforward	-7955
800	-7956
▁	-7957
e	-7958
a	-7959
t	-7960
o	-7961
n	-7962
i	-7963
r	-7964
l	-7965
s	-7966
c	-7967
d	-7968
p	-7969
u	-7970
m	-7971
h	-7972
y	-7973
g	-7974
k	-7975
w	-7976
b	-7977
f	-7978
v	-7979
x	-7980
0	-7981
'	-7982
j	-7983
2	-7984
1	-7985
_	-7986
q	-7987
5	-7988
z	-7989
3	-7990
I	-7991
4	-7992
6	-7993
9	-7994
8	-7995
7	-7996
