<unk>	0
<s>	0
</s>	0
▁s	-0
in	-1
er	-2
▁c	-3
an	-4
on	-5
re	-6
▁p	-7
al	-8
en	-9
▁t	-10
▁l	-11
▁m	-12
▁w	-13
at	-14
ar	-15
▁g	-16
▁d	-17
▁b	-18
it	-19
ou	-20
▁f	-21
▁e	-22
st	-23
▁n	-24
or	-25
le	-26
▁a	-27
ic	-28
▁h	-29
ly	-30
om	-31
ot	-32
▁re	-33
ion	-34
ve	-35
ri	-36
et	-37
ent	-38
se	-39
ing	-40
ay	-41
ce	-42
ke	-43
el	-44
op	-45
il	-46
▁st	-47
ss	-48
ol	-49
▁u	-50
ct	-51
▁in	-52
▁go	-53
ver	-54
ow	-55
▁not	-56
one	-57
▁th	-58
ate	-59
ra	-60
im	-61
ig	-62
▁'	-63
ch	-64
id	-65
ank	-66
▁li	-67
ee	-68
ro	-69
ation	-70
ge	-71
is	-72
ea	-73
▁al	-74
▁de	-75
am	-76
▁com	-77
od	-78
oun	-79
▁k	-80
th	-81
ry	-82
ld	-83
ally	-84
▁ex	-85
▁get	-86
▁sri	-87
▁lank	-88
ur	-89
ear	-90
ck	-91
ul	-92
pp	-93
end	-94
ake	-95
ould	-96
ad	-97
ment	-98
▁ch	-99
and	-100
▁lo	-101
ity	-102
▁v	-103
▁y	-104
any	-105
▁like	-106
ell	-107
▁con	-108
ant	-109
▁r	-110
▁su	-111
▁un	-112
ff	-113
ive	-114
ice	-115
ort	-116
ill	-117
ble	-118
ue	-119
la	-120
▁wor	-121
▁pro	-122
ht	-123
▁pe	-124
ir	-125
▁1	-126
ut	-127
ine	-128
▁2	-129
ople	-130
her	-131
art	-132
▁people	-133
ci	-134
▁bu	-135
▁lanka	-136
ed	-137
ount	-138
▁would	-139
▁j	-140
un	-141
are	-142
▁sh	-143
▁o	-144
as	-145
▁do	-146
ter	-147
now	-148
▁ne	-149
ect	-150
▁good	-151
▁know	-152
ind	-153
▁ev	-154
▁be	-155
ime	-156
▁exp	-157
um	-158
00	-159
ist	-160
ome	-161
▁sp	-162
▁see	-163
em	-164
ink	-165
▁po	-166
age	-167
▁ad	-168
▁comp	-169
ok	-170
▁pr	-171
ard	-172
ence	-173
▁work	-174
▁one	-175
▁per	-176
eed	-177
ase	-178
ure	-179
so	-180
ack	-181
▁even	-182
▁time	-183
ud	-184
▁well	-185
▁en	-186
▁any	-187
ide	-188
▁ever	-189
▁ve	-190
▁make	-191
sp	-192
▁count	-193
▁think	-194
▁also	-195
ast	-196
▁op	-197
ight	-198
▁I	-199
▁pre	-200
all	-201
ance	-202
▁di	-203
▁country	-204
▁ar	-205
du	-206
▁want	-207
▁use	-208
qu	-209
▁need	-210
▁say	-211
▁pl	-212
▁every	-213
▁year	-214
der	-215
▁we	-216
▁app	-217
▁tra	-218
▁mu	-219
▁im	-220
ru	-221
ap	-222
lo	-223
ong	-224
ree	-225
fe	-226
▁ac	-227
▁fa	-228
ie	-229
our	-230
sh	-231
ound	-232
nt	-233
ite	-234
▁take	-235
▁col	-236
ain	-237
able	-238
ip	-239
▁sl	-240
▁pay	-241
▁co	-242
▁3	-243
vel	-244
out	-245
▁inter	-246
▁se	-247
▁day	-248
ith	-249
▁ri	-250
▁fo	-251
▁rec	-252
ous	-253
▁lea	-254
▁pol	-255
ob	-256
▁wh	-257
▁thing	-258
▁look	-259
bo	-260
oug	-261
▁me	-262
eri	-263
ult	-264
▁sin	-265
▁an	-266
pt	-267
ber	-268
ign	-269
▁i	-270
▁ha	-271
ary	-272
▁come	-273
▁inc	-274
▁le	-275
hing	-276
▁lankan	-277
vern	-278
▁hel	-279
▁part	-280
orm	-281
▁as	-282
▁give	-283
port	-284
ab	-285
other	-286
▁mon	-287
▁try	-288
▁act	-289
▁help	-290
lace	-291
if	-292
▁so	-293
▁really	-294
▁ra	-295
▁govern	-296
▁much	-297
▁back	-298
ical	-299
▁gu	-300
▁fe	-301
us	-302
▁stud	-303
way	-304
▁adv	-305
ep	-306
▁start	-307
ish	-308
▁government	-309
est	-310
ombo	-311
old	-312
ffer	-313
ia	-314
iz	-315
og	-316
▁man	-317
son	-318
omet	-319
▁way	-320
ough	-321
▁find	-322
con	-323
igh	-324
ick	-325
▁ind	-326
▁could	-327
▁somet	-328
▁cont	-329
▁tr	-330
▁ma	-331
▁place	-332
oney	-333
▁anyone	-334
▁uni	-335
▁colombo	-336
ire	-337
▁20	-338
dit	-339
▁mar	-340
▁money	-341
erience	-342
▁experience	-343
▁us	-344
ily	-345
▁new	-346
▁around	-347
int	-348
▁mo	-349
▁ta	-350
▁job	-351
▁feel	-352
▁qu	-353
▁cur	-354
▁month	-355
ght	-356
▁gr	-357
ise	-358
lect	-359
▁still	-360
▁5	-361
sid	-362
▁sa	-363
▁dis	-364
▁can	-365
▁will	-366
▁high	-367
gree	-368
▁some	-369
riend	-370
▁person	-371
▁bus	-372
▁rel	-373
▁sc	-374
▁with	-375
▁acc	-376
ually	-377
▁ke	-378
thing	-379
ian	-380
▁many	-381
▁ask	-382
▁fir	-383
▁4	-384
ange	-385
vers	-386
▁plan	-387
▁comm	-388
ild	-389
▁br	-390
cial	-391
▁tax	-392
▁dec	-393
▁am	-394
▁happ	-395
ub	-396
ple	-397
▁he	-398
▁life	-399
ust	-400
▁guy	-401
▁vis	-402
▁pri	-403
▁buy	-404
▁thank	-405
▁something	-406
reat	-407
▁ab	-408
▁may	-409
que	-410
▁eng	-411
▁right	-412
▁first	-413
▁sch	-414
▁friend	-415
▁curre	-416
ak	-417
▁lot	-418
▁em	-419
▁company	-420
▁inf	-421
▁loc	-422
▁gen	-423
▁ro	-424
▁bo	-425
ath	-426
▁ph	-427
ful	-428
▁el	-429
▁live	-430
▁since	-431
ame	-432
stion	-433
act	-434
▁reg	-435
cess	-436
te	-437
iv	-438
▁iss	-439
cy	-440
▁issue	-441
ag	-442
▁sm	-443
▁fin	-444
▁med	-445
ory	-446
low	-447
▁polit	-448
▁car	-449
▁under	-450
ore	-451
lic	-452
▁id	-453
▁at	-454
▁long	-455
ool	-456
ose	-457
ote	-458
▁post	-459
▁price	-460
aw	-461
▁let	-462
▁et	-463
▁current	-464
▁res	-465
▁everyone	-466
ead	-467
▁supp	-468
▁inst	-469
▁keep	-470
▁tea	-471
▁bad	-472
ty	-473
▁rem	-474
▁someone	-475
▁fam	-476
use	-477
ress	-478
eci	-479
lease	-480
▁fi	-481
▁happen	-482
▁intern	-483
ffic	-484
omm	-485
line	-486
▁real	-487
up	-488
ail	-489
▁degree	-490
be	-491
ft	-492
conom	-493
▁travel	-494
▁mean	-495
▁sim	-496
▁min	-497
ass	-498
▁ser	-499
▁tell	-500
▁ear	-501
▁call	-502
versity	-503
▁school	-504
▁econom	-505
▁tw	-506
ower	-507
▁local	-508
▁etc	-509
▁sy	-510
▁hear	-511
alk	-512
ual	-513
▁bank	-514
vest	-515
▁university	-516
▁que	-517
▁rep	-518
xt	-519
▁fore	-520
▁student	-521
▁end	-522
ship	-523
ket	-524
▁or	-525
ational	-526
▁dri	-527
ial	-528
ala	-529
iness	-530
▁cor	-531
ize	-532
▁invest	-533
ang	-534
▁sub	-535
▁cl	-536
▁care	-537
tion	-538
ically	-539
▁please	-540
▁cla	-541
▁change	-542
▁without	-543
ope	-544
ible	-545
▁hi	-546
▁sure	-547
▁family	-548
ale	-549
ious	-550
read	-551
▁differ	-552
▁might	-553
arent	-554
▁love	-555
▁never	-556
ert	-557
▁dep	-558
me	-559
ord	-560
ject	-561
atch	-562
▁sit	-563
stand	-564
▁tran	-565
▁ent	-566
ne	-567
▁elect	-568
earn	-569
▁business	-570
▁learn	-571
▁seem	-572
ways	-573
ommend	-574
own	-575
▁advice	-576
▁att	-577
ute	-578
▁you	-579
▁recommend	-580
urn	-581
▁for	-582
ility	-583
▁sinh	-584
▁question	-585
come	-586
▁te	-587
▁cost	-588
ace	-589
▁visit	-590
▁6	-591
▁understand	-592
▁face	-593
▁hard	-594
▁cre	-595
amil	-596
▁che	-597
de	-598
▁priv	-599
▁power	-600
ern	-601
less	-602
▁anything	-603
ense	-604
▁gener	-605
vice	-606
▁fun	-607
eek	-608
▁lit	-609
ative	-610
ude	-611
▁ass	-612
▁prop	-613
▁market	-614
▁move	-615
duc	-616
▁wr	-617
▁point	-618
▁kind	-619
▁tamil	-620
sit	-621
▁on	-622
▁actually	-623
▁two	-624
▁leave	-625
▁always	-626
blem	-627
unity	-628
▁problem	-629
stem	-630
▁study	-631
ason	-632
ciate	-633
▁educ	-634
ital	-635
uck	-636
▁week	-637
▁ag	-638
ently	-639
erm	-640
▁exam	-641
ather	-642
eak	-643
tle	-644
▁system	-645
get	-646
▁foreign	-647
▁pub	-648
▁interest	-649
icle	-650
▁imp	-651
▁account	-652
▁ment	-653
▁sal	-654
fer	-655
ric	-656
▁last	-657
▁support	-658
sider	-659
ssion	-660
▁hand	-661
▁another	-662
▁reason	-663
ever	-664
▁option	-665
ya	-666
▁ins	-667
ach	-668
▁old	-669
▁stay	-670
▁main	-671
▁import	-672
▁gra	-673
▁10	-674
▁parent	-675
ile	-676
▁up	-677
▁build	-678
▁tou	-679
▁big	-680
▁pass	-681
ctor	-682
ific	-683
▁bud	-684
▁over	-685
arge	-686
▁state	-687
▁sug	-688
ouse	-689
li	-690
▁talk	-691
▁202	-692
▁par	-693
▁cho	-694
ember	-695
▁consider	-696
es	-697
▁service	-698
ether	-699
▁bas	-700
uation	-701
▁check	-702
▁party	-703
ning	-704
ism	-705
reciate	-706
lish	-707
▁sk	-708
▁public	-709
▁great	-710
ater	-711
▁out	-712
▁cour	-713
▁ext	-714
▁private	-715
▁fol	-716
▁enough	-717
▁spend	-718
▁av	-719
▁ca	-720
▁show	-721
gra	-722
ost	-723
▁next	-724
▁free	-725
ution	-726
ull	-727
▁bit	-728
▁idea	-729
▁war	-730
▁engine	-731
▁cle	-732
ecially	-733
▁sugge	-734
ract	-735
▁bel	-736
ium	-737
▁home	-738
▁salary	-739
ere	-740
▁tru	-741
▁situation	-742
▁appreciate	-743
▁resp	-744
▁mat	-745
alth	-746
▁tri	-747
iew	-748
▁to	-749
ieve	-750
▁different	-751
rea	-752
▁world	-753
ready	-754
▁cr	-755
ens	-756
▁already	-757
bt	-758
▁food	-759
▁share	-760
sc	-761
cept	-762
▁politic	-763
▁veh	-764
▁prov	-765
▁7	-766
ority	-767
▁read	-768
▁aff	-769
rect	-770
stly	-771
▁vehicle	-772
duct	-773
▁sur	-774
▁maybe	-775
▁eas	-776
▁sol	-777
velop	-778
▁house	-779
▁become	-780
▁comple	-781
▁open	-782
▁small	-783
▁touri	-784
▁hope	-785
▁class	-786
▁vote	-787
▁less	-788
▁engineer	-789
▁def	-790
▁develop	-791
ably	-792
road	-793
▁low	-794
▁area	-795
▁far	-796
▁proper	-797
▁add	-798
▁cult	-799
▁social	-800
face	-801
▁online	-802
▁bea	-803
ither	-804
000	-805
ware	-806
▁who	-807
rupt	-808
▁run	-809
▁law	-810
▁put	-811
▁disc	-812
▁other	-813
▁ru	-814
▁8	-815
dition	-816
▁teach	-817
▁emp	-818
▁how	-819
▁qual	-820
yp	-821
form	-822
▁base	-823
▁offer	-824
▁val	-825
▁education	-826
▁due	-827
▁mind	-828
▁rest	-829
▁set	-830
▁else	-831
▁mi	-832
▁everything	-833
▁pret	-834
ey	-835
▁incre	-836
▁case	-837
▁stop	-838
▁able	-839
▁num	-840
▁poss	-841
▁esp	-842
▁ret	-843
▁speak	-844
▁cri	-845
oc	-846
ular	-847
▁leg	-848
▁however	-849
▁mod	-850
here	-851
loy	-852
▁play	-853
▁tech	-854
uff	-855
ib	-856
▁maj	-857
▁card	-858
▁currently	-859
▁cert	-860
▁air	-861
▁least	-862
▁income	-863
▁kid	-864
▁that	-865
▁fre	-866
ict	-867
▁dr	-868
▁either	-869
▁especially	-870
▁pur	-871
▁lk	-872
▁prot	-873
▁though	-874
▁manage	-875
gg	-876
▁shit	-877
sident	-878
▁advance	-879
▁stuff	-880
▁train	-881
day	-882
▁land	-883
▁recently	-884
▁number	-885
▁follow	-886
rate	-887
▁sell	-888
▁9	-889
olog	-890
▁int	-891
▁india	-892
irl	-893
▁level	-894
▁wa	-895
ner	-896
▁book	-897
▁jo	-898
▁fut	-899
outh	-900
ately	-901
▁conf	-902
▁sinhala	-903
▁complete	-904
▁bring	-905
▁top	-906
▁is	-907
▁term	-908
illion	-909
ward	-910
▁clo	-911
ene	-912
▁15	-913
▁amount	-914
ac	-915
▁girl	-916
▁sw	-917
▁future	-918
▁pretty	-919
nect	-920
ilar	-921
uk	-922
▁hot	-923
▁red	-924
ister	-925
▁ran	-926
▁english	-927
▁nothing	-928
▁expect	-929
oy	-930
▁it	-931
▁abroad	-932
▁sing	-933
▁cons	-934
sw	-935
ient	-936
▁apply	-937
▁health	-938
fit	-939
▁drive	-940
▁doctor	-941
▁loan	-942
ought	-943
▁dat	-944
sk	-945
▁medium	-946
▁believe	-947
▁similar	-948
▁worth	-949
▁sec	-950
▁side	-951
oup	-952
▁employ	-953
andy	-954
▁hone	-955
▁mention	-956
ral	-957
▁corrupt	-958
lude	-959
▁ob	-960
▁hey	-961
▁pack	-962
▁political	-963
▁fund	-964
amp	-965
eld	-966
▁lankans	-967
▁earn	-968
▁dem	-969
▁thought	-970
ug	-971
▁inform	-972
ving	-973
▁cap	-974
▁night	-975
vious	-976
▁child	-977
▁lose	-978
▁cause	-979
▁rate	-980
▁close	-981
▁course	-982
▁economic	-983
▁trip	-984
▁mid	-985
▁increase	-986
▁lkr	-987
▁grow	-988
▁police	-989
▁president	-990
▁100	-991
ha	-992
▁opport	-993
▁connect	-994
▁personal	-995
icy	-996
▁yes	-997
quire	-998
oman	-999
▁stand	-1000
uw	-1001
▁past	-1002
▁ap	-1003
ody	-1004
imit	-1005
▁stre	-1006
▁prob	-1007
▁ranil	-1008
▁sign	-1009
▁hour	-1010
▁kandy	-1011
▁whole	-1012
▁ho	-1013
▁there	-1014
oll	-1015
▁meet	-1016
▁trans	-1017
▁south	-1018
ety	-1019
▁group	-1020
fort	-1021
pl	-1022
▁phone	-1023
where	-1024
dge	-1025
alle	-1026
▁provide	-1027
▁tourist	-1028
onder	-1029
▁name	-1030
▁bl	-1031
▁indu	-1032
▁little	-1033
ource	-1034
▁send	-1035
▁possible	-1036
▁economy	-1037
os	-1038
ph	-1039
▁away	-1040
▁cust	-1041
▁wonder	-1042
ond	-1043
▁matter	-1044
▁clear	-1045
▁short	-1046
▁indust	-1047
sition	-1048
▁whether	-1049
ys	-1050
duce	-1051
▁include	-1052
▁full	-1053
▁woman	-1054
▁instead	-1055
arch	-1056
▁national	-1057
inion	-1058
▁opportunity	-1059
ruct	-1060
ash	-1061
▁custom	-1062
▁bre	-1063
▁wrong	-1064
▁election	-1065
▁comment	-1066
▁product	-1067
▁hell	-1068
▁fact	-1069
wor	-1070
▁sci	-1071
▁opinion	-1072
▁off	-1073
▁project	-1074
gram	-1075
lank	-1076
▁bi	-1077
ency	-1078
▁probably	-1079
▁deal	-1080
▁allow	-1081
▁cent	-1082
▁easy	-1083
▁offic	-1084
▁near	-1085
▁process	-1086
▁vi	-1087
▁policy	-1088
▁field	-1089
▁culture	-1090
▁require	-1091
eap	-1092
ision	-1093
iya	-1094
ara	-1095
most	-1096
▁del	-1097
▁typ	-1098
▁wait	-1099
bs	-1100
▁cu	-1101
with	-1102
▁tod	-1103
ify	-1104
▁12	-1105
▁gov	-1106
lain	-1107
▁finan	-1108
▁create	-1109
ade	-1110
▁recommendation	-1111
▁na	-1112
view	-1113
▁201	-1114
▁prom	-1115
▁rese	-1116
joy	-1117
▁what	-1118
side	-1119
ma	-1120
▁list	-1121
icket	-1122
▁soft	-1123
▁watch	-1124
▁regard	-1125
▁des	-1126
▁mom	-1127
▁datum	-1128
▁within	-1129
ron	-1130
▁npp	-1131
▁today	-1132
▁sup	-1133
▁taxis	-1134
▁form	-1135
▁industry	-1136
▁det	-1137
▁direct	-1138
ration	-1139
▁payment	-1140
▁order	-1141
▁infl	-1142
▁event	-1143
▁almost	-1144
▁charge	-1145
rove	-1146
▁example	-1147
▁str	-1148
▁choose	-1149
▁30	-1150
▁z	-1151
▁agree	-1152
▁quite	-1153
▁hist	-1154
▁19	-1155
▁driver	-1156
▁result	-1157
▁program	-1158
▁road	-1159
▁hold	-1160
▁ago	-1161
▁x	-1162
▁raj	-1163
▁package	-1164
▁research	-1165
ural	-1166
▁usually	-1167
▁break	-1168
▁remember	-1169
▁fuck	-1170
▁conc	-1171
▁sect	-1172
▁mor	-1173
▁cou	-1174
spect	-1175
▁mus	-1176
▁politician	-1177
he	-1178
▁speci	-1179
ting	-1180
▁hotel	-1181
sm	-1182
air	-1183
▁save	-1184
▁compare	-1185
ament	-1186
▁norm	-1187
▁cheap	-1188
▁inv	-1189
▁relig	-1190
▁budget	-1191
cond	-1192
▁pick	-1193
▁yet	-1194
land	-1195
▁pop	-1196
▁quality	-1197
▁turn	-1198
▁second	-1199
▁general	-1200
▁srilank	-1201
rol	-1202
▁international	-1203
▁science	-1204
▁early	-1205
▁value	-1206
▁specif	-1207
▁career	-1208
▁25	-1209
▁ref	-1210
aster	-1211
ition	-1212
aff	-1213
ons	-1214
▁head	-1215
▁trust	-1216
▁indian	-1217
▁imm	-1218
▁ps	-1219
▁mil	-1220
dle	-1221
▁rece	-1222
ock	-1223
▁pract	-1224
▁must	-1225
▁visa	-1226
▁notice	-1227
▁decide	-1228
ensive	-1229
cus	-1230
ology	-1231
▁game	-1232
▁port	-1233
▁scam	-1234
▁million	-1235
▁depend	-1236
▁story	-1237
▁eff	-1238
▁engineering	-1239
aste	-1240
▁cut	-1241
▁shop	-1242
▁beach	-1243
▁treat	-1244
▁suggestion	-1245
angu	-1246
▁lead	-1247
▁const	-1248
▁information	-1249
swer	-1250
▁community	-1251
▁mess	-1252
▁phys	-1253
▁focus	-1254
▁langu	-1255
▁transp	-1256
ari	-1257
▁cra	-1258
row	-1259
▁answer	-1260
ness	-1261
▁language	-1262
min	-1263
▁dist	-1264
ability	-1265
▁avail	-1266
▁skill	-1267
▁return	-1268
▁abs	-1269
elf	-1270
ura	-1271
▁liter	-1272
hind	-1273
▁couple	-1274
nd	-1275
▁af	-1276
▁hosp	-1277
▁investment	-1278
dh	-1279
cle	-1280
ross	-1281
olve	-1282
▁art	-1283
▁rent	-1284
▁blo	-1285
work	-1286
▁hospital	-1287
ior	-1288
▁true	-1289
ota	-1290
▁har	-1291
▁city	-1292
▁hum	-1293
urity	-1294
▁vide	-1295
▁certain	-1296
tern	-1297
oung	-1298
▁neg	-1299
▁receive	-1300
▁ok	-1301
▁fl	-1302
▁suggest	-1303
▁rather	-1304
▁write	-1305
▁gue	-1306
▁ella	-1307
ated	-1308
▁young	-1309
▁mostly	-1310
▁rs	-1311
▁video	-1312
man	-1313
▁safe	-1314
▁prefer	-1315
ven	-1316
ledge	-1317
▁afford	-1318
▁tuk	-1319
erious	-1320
▁sometime	-1321
▁spe	-1322
ument	-1323
▁brand	-1324
▁tem	-1325
apak	-1326
ane	-1327
▁bene	-1328
▁force	-1329
sa	-1330
▁chance	-1331
▁decision	-1332
▁honestly	-1333
▁age	-1334
▁defin	-1335
iri	-1336
uth	-1337
▁cover	-1338
▁software	-1339
▁serious	-1340
duate	-1341
▁limit	-1342
ume	-1343
▁mob	-1344
oid	-1345
▁rajapak	-1346
uge	-1347
▁west	-1348
▁techn	-1349
▁uk	-1350
▁fine	-1351
▁join	-1352
itely	-1353
ature	-1354
▁majority	-1355
▁dra	-1356
▁usd	-1357
gin	-1358
▁lol	-1359
na	-1360
▁basically	-1361
oint	-1362
▁slt	-1363
▁fail	-1364
ulation	-1365
▁contin	-1366
of	-1367
▁debt	-1368
▁profe	-1369
▁history	-1370
ification	-1371
ird	-1372
▁soci	-1373
▁financial	-1374
alese	-1375
▁50	-1376
▁dial	-1377
▁fix	-1378
▁path	-1379
sis	-1380
▁net	-1381
com	-1382
▁protest	-1383
▁mig	-1384
▁fall	-1385
▁water	-1386
ident	-1387
▁middle	-1388
▁ur	-1389
▁sector	-1390
ana	-1391
▁dam	-1392
▁oft	-1393
▁type	-1394
▁available	-1395
oward	-1396
▁important	-1397
red	-1398
▁lack	-1399
▁equ	-1400
▁fu	-1401
▁exact	-1402
▁galle	-1403
▁they	-1404
▁often	-1405
erve	-1406
▁own	-1407
▁large	-1408
▁sinhalese	-1409
▁improve	-1410
▁connection	-1411
itiz	-1412
▁later	-1413
▁rule	-1414
▁subject	-1415
▁corruption	-1416
▁date	-1417
▁single	-1418
▁credit	-1419
▁ak	-1420
▁sometimes	-1421
wh	-1422
▁crisis	-1423
▁da	-1424
▁entire	-1425
▁normal	-1426
▁interested	-1427
▁expensive	-1428
▁wi	-1429
▁report	-1430
▁aust	-1431
▁risk	-1432
▁soon	-1433
▁definitely	-1434
▁dialog	-1435
▁transport	-1436
▁doc	-1437
▁tip	-1438
▁relate	-1439
oud	-1440
▁desp	-1441
▁tot	-1442
rugg	-1443
▁edit	-1444
▁decent	-1445
▁toward	-1446
itizen	-1447
reme	-1448
▁met	-1449
▁leader	-1450
▁fee	-1451
ential	-1452
▁self	-1453
liament	-1454
▁accept	-1455
▁parliament	-1456
▁bro	-1457
▁team	-1458
▁citizen	-1459
▁contact	-1460
ich	-1461
aper	-1462
▁concern	-1463
▁compet	-1464
erg	-1465
ove	-1466
▁yea	-1467
▁benefit	-1468
bsite	-1469
▁explo	-1470
▁position	-1471
▁bat	-1472
por	-1473
▁200	-1474
artment	-1475
az	-1476
▁unless	-1477
▁internet	-1478
sent	-1479
▁avoid	-1480
▁math	-1481
▁teacher	-1482
gan	-1483
mit	-1484
hand	-1485
▁common	-1486
▁ll	-1487
▁stock	-1488
▁website	-1489
▁choice	-1490
▁reddit	-1491
▁civ	-1492
▁nice	-1493
▁profession	-1494
▁opp	-1495
▁basic	-1496
▁office	-1497
▁planning	-1498
▁guess	-1499
▁hello	-1500
▁speed	-1501
ply	-1502
itch	-1503
▁news	-1504
▁camp	-1505
fully	-1506
▁claim	-1507
▁austral	-1508
▁special	-1509
▁est	-1510
▁medical	-1511
ama	-1512
olute	-1513
▁knowledge	-1514
▁enjoy	-1515
▁down	-1516
▁personally	-1517
tte	-1518
▁strong	-1519
▁control	-1520
▁absolute	-1521
▁eat	-1522
▁suc	-1523
ark	-1524
ina	-1525
▁strugg	-1526
verage	-1527
▁luck	-1528
▁reach	-1529
▁struggle	-1530
gr	-1531
▁legal	-1532
▁late	-1533
over	-1534
date	-1535
▁fuel	-1536
▁instit	-1537
ger	-1538
ding	-1539
▁line	-1540
▁select	-1541
▁fair	-1542
▁medic	-1543
▁view	-1544
▁super	-1545
▁dou	-1546
ivid	-1547
uine	-1548
▁govt	-1549
▁huge	-1550
fficult	-1551
▁bra	-1552
▁difficult	-1553
▁poor	-1554
▁word	-1555
▁genuine	-1556
▁appro	-1557
▁happy	-1558
▁mass	-1559
▁eth	-1560
▁mult	-1561
▁pm	-1562
▁non	-1563
▁step	-1564
▁purch	-1565
▁sound	-1566
era	-1567
iver	-1568
▁yeah	-1569
▁relation	-1570
▁sort	-1571
alf	-1572
iron	-1573
▁discu	-1574
▁human	-1575
▁pat	-1576
▁civil	-1577
▁expense	-1578
▁auth	-1579
▁individ	-1580
apt	-1581
▁outside	-1582
▁miss	-1583
▁continue	-1584
▁srilanka	-1585
ator	-1586
▁rup	-1587
▁security	-1588
val	-1589
▁fac	-1590
▁bill	-1591
▁hop	-1592
200	-1593
▁reduce	-1594
▁respect	-1595
cc	-1596
book	-1597
▁cy	-1598
▁cash	-1599
▁ter	-1600
▁note	-1601
▁maint	-1602
▁buddh	-1603
▁waste	-1604
▁paper	-1605
ibility	-1606
ivity	-1607
▁design	-1608
ncy	-1609
vid	-1610
▁organ	-1611
▁mother	-1612
▁wan	-1613
atever	-1614
▁towards	-1615
▁ann	-1616
▁bri	-1617
▁customer	-1618
▁minister	-1619
▁test	-1620
▁major	-1621
▁society	-1622
▁individual	-1623
uwa	-1624
▁pot	-1625
iod	-1626
▁period	-1627
▁whatever	-1628
ogether	-1629
▁cal	-1630
erate	-1631
▁previous	-1632
ially	-1633
▁access	-1634
▁arm	-1635
▁sen	-1636
▁walk	-1637
▁finance	-1638
▁literally	-1639
▁drop	-1640
iling	-1641
▁source	-1642
vp	-1643
▁sever	-1644
▁member	-1645
vert	-1646
▁exc	-1647
▁ce	-1648
▁graduate	-1649
▁completely	-1650
▁nor	-1651
▁vac	-1652
ollar	-1653
▁exist	-1654
ention	-1655
▁document	-1656
eat	-1657
ructure	-1658
▁detail	-1659
ogle	-1660
▁hit	-1661
ury	-1662
▁fig	-1663
istic	-1664
idate	-1665
ille	-1666
▁ltte	-1667
▁moment	-1668
▁update	-1669
▁dig	-1670
▁mot	-1671
▁rupee	-1672
20	-1673
▁google	-1674
▁average	-1675
▁demand	-1676
▁along	-1677
▁transfer	-1678
▁pu	-1679
▁island	-1680
▁partic	-1681
▁religion	-1682
▁bal	-1683
▁dollar	-1684
▁aware	-1685
▁airport	-1686
▁imf	-1687
▁sense	-1688
ination	-1689
▁interview	-1690
▁development	-1691
rious	-1692
▁forward	-1693
▁obvious	-1694
▁specific	-1695
ront	-1696
sure	-1697
▁begin	-1698
▁have	-1699
▁spot	-1700
ik	-1701
▁figure	-1702
▁employee	-1703
▁ol	-1704
▁respons	-1705
atic	-1706
▁unp	-1707
▁fla	-1708
▁across	-1709
▁extreme	-1710
▁purchase	-1711
cer	-1712
▁involve	-1713
ump	-1714
▁akd	-1715
▁alone	-1716
▁action	-1717
ift	-1718
▁fast	-1719
▁china	-1720
▁deliver	-1721
▁official	-1722
▁jvp	-1723
▁beaut	-1724
▁clean	-1725
▁minim	-1726
▁three	-1727
▁getting	-1728
▁mal	-1729
▁mis	-1730
▁standard	-1731
▁extra	-1732
▁protect	-1733
▁affect	-1734
▁master	-1735
▁ide	-1736
▁crit	-1737
▁accord	-1738
eep	-1739
ode	-1740
▁handle	-1741
reen	-1742
▁ill	-1743
▁lab	-1744
▁lic	-1745
▁together	-1746
ada	-1747
▁park	-1748
▁slow	-1749
▁north	-1750
set	-1751
▁hire	-1752
▁internship	-1753
eal	-1754
▁win	-1755
ror	-1756
▁pea	-1757
▁comfort	-1758
▁solution	-1759
▁11	-1760
▁bla	-1761
ission	-1762
▁australia	-1763
▁arri	-1764
▁unit	-1765
▁glo	-1766
▁wel	-1767
ating	-1768
▁link	-1769
▁simply	-1770
▁professional	-1771
ager	-1772
▁nation	-1773
io	-1774
▁light	-1775
▁pet	-1776
▁sun	-1777
ream	-1778
▁all	-1779
▁la	-1780
orry	-1781
▁kill	-1782
▁mental	-1783
bal	-1784
lim	-1785
▁saf	-1786
▁hate	-1787
▁stream	-1788
▁cand	-1789
▁site	-1790
▁23	-1791
ye	-1792
gress	-1793
▁marri	-1794
▁0	-1795
▁18	-1796
▁ai	-1797
▁success	-1798
▁signific	-1799
▁relationship	-1800
ho	-1801
▁item	-1802
rib	-1803
rict	-1804
▁model	-1805
▁practice	-1806
▁fit	-1807
▁stat	-1808
▁insur	-1809
▁peace	-1810
ret	-1811
▁rich	-1812
▁role	-1813
▁difference	-1814
▁via	-1815
▁half	-1816
▁court	-1817
▁correct	-1818
ully	-1819
▁env	-1820
▁sad	-1821
▁behind	-1822
50	-1823
▁management	-1824
ditional	-1825
▁jun	-1826
▁plus	-1827
ym	-1828
ization	-1829
ott	-1830
itle	-1831
0000	-1832
▁init	-1833
▁actual	-1834
▁attack	-1835
▁commun	-1836
▁curious	-1837
▁network	-1838
▁reli	-1839
▁colle	-1840
▁relative	-1841
▁candidate	-1842
aya	-1843
▁bar	-1844
▁forget	-1845
den	-1846
▁currency	-1847
ann	-1848
▁explain	-1849
imate	-1850
▁generation	-1851
ili	-1852
▁sorry	-1853
▁exactly	-1854
▁significant	-1855
▁hea	-1856
▁explore	-1857
time	-1858
aptop	-1859
▁press	-1860
▁stick	-1861
pri	-1862
ulate	-1863
▁gain	-1864
▁blame	-1865
▁laptop	-1866
co	-1867
▁enter	-1868
▁except	-1869
▁mobile	-1870
load	-1871
▁rain	-1872
▁commit	-1873
▁medicine	-1874
ier	-1875
▁plat	-1876
▁insight	-1877
▁feed	-1878
▁div	-1879
▁wife	-1880
▁effect	-1881
▁necess	-1882
ironment	-1883
▁absolutely	-1884
▁environment	-1885
▁sea	-1886
▁despite	-1887
▁condition	-1888
▁wish	-1889
▁store	-1890
▁just	-1891
▁room	-1892
fortun	-1893
▁cop	-1894
▁multip	-1895
▁collect	-1896
▁perform	-1897
▁willing	-1898
epend	-1899
▁east	-1900
oot	-1901
▁daily	-1902
▁dad	-1903
▁stra	-1904
▁ticket	-1905
▁electric	-1906
▁viol	-1907
▁white	-1908
▁directly	-1909
by	-1910
▁boy	-1911
▁likely	-1912
ling	-1913
▁sig	-1914
▁rout	-1915
▁raise	-1916
▁cricket	-1917
▁lu	-1918
▁sex	-1919
ively	-1920
▁bear	-1921
▁music	-1922
▁trade	-1923
▁unfortun	-1924
▁13	-1925
scri	-1926
▁fight	-1927
▁partner	-1928
▁owner	-1929
▁quick	-1930
ex	-1931
iss	-1932
▁finally	-1933
▁western	-1934
mb	-1935
rant	-1936
▁address	-1937
▁eur	-1938
▁heav	-1939
▁recent	-1940
▁ign	-1941
▁capital	-1942
▁foreigner	-1943
▁ele	-1944
▁comput	-1945
▁monthly	-1946
▁rid	-1947
▁sep	-1948
▁influ	-1949
▁profit	-1950
▁gb	-1951
ero	-1952
ifi	-1953
jith	-1954
iriya	-1955
▁milit	-1956
▁easily	-1957
▁license	-1958
aur	-1959
▁wear	-1960
▁covid	-1961
und	-1962
emic	-1963
▁yout	-1964
▁resource	-1965
orce	-1966
▁die	-1967
▁message	-1968
▁jap	-1969
▁beautif	-1970
yle	-1971
▁anyway	-1972
▁simple	-1973
tear	-1974
▁independ	-1975
vie	-1976
iner	-1977
▁temple	-1978
cip	-1979
▁okay	-1980
▁multiple	-1981
▁platform	-1982
ps	-1983
▁applic	-1984
aurant	-1985
▁kinda	-1986
▁europe	-1987
▁16	-1988
▁weather	-1989
▁thinking	-1990
igin	-1991
▁ah	-1992
▁fan	-1993
▁range	-1994
▁assume	-1995
▁balance	-1996
▁insurance	-1997
▁24	-1998
▁ach	-1999
▁worker	-2000
▁fru	-2001
ground	-2002
▁beautiful	-2003
▁dest	-2004
▁migrate	-2005
▁foot	-2006
▁tourism	-2007
▁movie	-2008
▁father	-2009
▁morning	-2010
▁muslim	-2011
back	-2012
▁push	-2013
▁restaurant	-2014
▁living	-2015
▁maintain	-2016
app	-2017
ube	-2018
mber	-2019
wise	-2020
▁arg	-2021
otion	-2022
▁total	-2023
▁suffer	-2024
▁among	-2025
▁realize	-2026
▁ant	-2027
▁hair	-2028
▁switch	-2029
▁brother	-2030
▁tre	-2031
▁origin	-2032
istry	-2033
▁stup	-2034
▁worry	-2035
eric	-2036
▁ess	-2037
ellow	-2038
▁match	-2039
▁wed	-2040
light	-2041
▁cry	-2042
▁perf	-2043
▁honest	-2044
▁helpful	-2045
▁location	-2046
▁no	-2047
action	-2048
▁ident	-2049
▁remove	-2050
▁remain	-2051
▁suppose	-2052
▁amaz	-2053
▁freel	-2054
▁decade	-2055
ming	-2056
▁prep	-2057
▁stupid	-2058
▁promise	-2059
ption	-2060
▁progress	-2061
▁occ	-2062
▁40	-2063
▁tour	-2064
▁several	-2065
rist	-2066
▁pain	-2067
go	-2068
▁ethn	-2069
▁computer	-2070
▁register	-2071
zy	-2072
▁prem	-2073
cel	-2074
▁phot	-2075
▁traffic	-2076
edi	-2077
▁crime	-2078
▁space	-2079
▁canada	-2080
▁inflation	-2081
ah	-2082
▁14	-2083
▁jour	-2084
oo	-2085
▁key	-2086
▁acad	-2087
▁uber	-2088
▁mist	-2089
▁physical	-2090
▁vot	-2091
▁passport	-2092
▁extremely	-2093
rage	-2094
▁staff	-2095
ych	-2096
▁gota	-2097
▁minute	-2098
▁sajith	-2099
▁unfortunately	-2100
▁sport	-2101
▁highly	-2102
▁saving	-2103
▁station	-2104
▁background	-2105
body	-2106
earch	-2107
▁mainly	-2108
▁search	-2109
▁activity	-2110
▁military	-2111
▁reliable	-2112
▁somewhere	-2113
▁front	-2114
ker	-2115
▁fem	-2116
▁bike	-2117
▁block	-2118
▁senior	-2119
▁obviously	-2120
▁marry	-2121
▁stress	-2122
▁complain	-2123
more	-2124
▁youtube	-2125
▁nuw	-2126
▁attend	-2127
▁particular	-2128
▁2025	-2129
▁letter	-2130
▁sigiriya	-2131
30	-2132
ogn	-2133
apore	-2134
▁altern	-2135
umb	-2136
▁till	-2137
▁eye	-2138
like	-2139
annel	-2140
affna	-2141
▁email	-2142
▁smart	-2143
▁americ	-2144
▁buddhist	-2145
▁singapore	-2146
ext	-2147
▁hol	-2148
▁tv	-2149
sing	-2150
▁digital	-2151
▁officer	-2152
▁char	-2153
▁finish	-2154
▁properly	-2155
iit	-2156
▁loud	-2157
▁seat	-2158
▁unl	-2159
ction	-2160
▁reply	-2161
▁property	-2162
bor	-2163
quest	-2164
▁jaffna	-2165
change	-2166
▁route	-2167
▁truly	-2168
▁_	-2169
outer	-2170
▁goal	-2171
▁fully	-2172
▁psych	-2173
▁overse	-2174
▁record	-2175
▁remote	-2176
▁channel	-2177
▁minimum	-2178
▁popular	-2179
ape	-2180
▁intro	-2181
▁arrive	-2182
▁manager	-2183
▁ban	-2184
▁imag	-2185
▁rand	-2186
▁seek	-2187
▁tend	-2188
▁hor	-2189
▁catch	-2190
▁dream	-2191
inerary	-2192
▁recogn	-2193
▁review	-2194
▁straight	-2195
▁itinerary	-2196
▁beha	-2197
▁achieve	-2198
▁clearly	-2199
▁final	-2200
▁context	-2201
▁request	-2202
ief	-2203
▁army	-2204
▁info	-2205
▁ethnic	-2206
▁anymore	-2207
▁aut	-2208
allen	-2209
▁ride	-2210
eme	-2211
▁folk	-2212
▁track	-2213
▁nuwara	-2214
▁surpri	-2215
▁reality	-2216
bit	-2217
band	-2218
▁challen	-2219
▁content	-2220
care	-2221
▁jud	-2222
▁grade	-2223
ai	-2224
▁user	-2225
▁export	-2226
▁global	-2227
▁effort	-2228
nch	-2229
sse	-2230
▁bare	-2231
▁purs	-2232
plement	-2233
▁router	-2234
▁street	-2235
vant	-2236
▁meth	-2237
friend	-2238
▁random	-2239
▁implement	-2240
racy	-2241
▁immedi	-2242
▁qualification	-2243
gal	-2244
▁ip	-2245
ergy	-2246
▁central	-2247
rest	-2248
▁gym	-2249
idence	-2250
▁anura	-2251
▁commer	-2252
▁growth	-2253
▁appoint	-2254
▁certific	-2255
▁technology	-2256
▁sat	-2257
▁cool	-2258
▁carry	-2259
▁title	-2260
▁potential	-2261
▁cir	-2262
▁black	-2263
▁college	-2264
▁certificate	-2265
▁cuz	-2266
▁lie	-2267
▁eliya	-2268
▁topic	-2269
▁communic	-2270
▁educate	-2271
▁replace	-2272
▁marriage	-2273
▁bt	-2274
imited	-2275
ec	-2276
▁dog	-2277
▁dude	-2278
▁lect	-2279
▁listen	-2280
▁present	-2281
▁unlimited	-2282
▁population	-2283
▁sn	-2284
inate	-2285
▁refer	-2286
▁fellow	-2287
▁genuinely	-2288
▁religious	-2289
mer	-2290
yer	-2291
unch	-2292
▁god	-2293
▁democ	-2294
▁cultural	-2295
▁host	-2296
▁immig	-2297
▁seriously	-2298
pose	-2299
▁cam	-2300
▁ppl	-2301
▁pursue	-2302
▁overall	-2303
▁institution	-2304
oe	-2305
ince	-2306
▁enc	-2307
▁overseas	-2308
▁department	-2309
sha	-2310
▁fav	-2311
▁tar	-2312
▁separ	-2313
ule	-2314
ester	-2315
▁facebook	-2316
▁incident	-2317
▁pressure	-2318
▁alternative	-2319
onse	-2320
▁chem	-2321
▁perfect	-2322
▁log	-2323
▁clot	-2324
▁club	-2325
▁gold	-2326
▁stri	-2327
▁inside	-2328
▁billion	-2329
▁dev	-2330
▁code	-2331
▁exchange	-2332
▁eventually	-2333
rast	-2334
▁inn	-2335
▁ut	-2336
▁body	-2337
▁lawyer	-2338
ney	-2339
▁dut	-2340
▁gam	-2341
▁brit	-2342
▁ille	-2343
▁modern	-2344
▁wedding	-2345
▁ju	-2346
cket	-2347
▁deep	-2348
▁miri	-2349
▁imagine	-2350
10	-2351
rd	-2352
▁anal	-2353
▁fill	-2354
▁corpor	-2355
ssa	-2356
▁vs	-2357
▁lux	-2358
▁vol	-2359
sitive	-2360
▁coast	-2361
▁regular	-2362
ics	-2363
▁aud	-2364
▁fly	-2365
▁guide	-2366
▁contrib	-2367
▁emb	-2368
orrow	-2369
▁vict	-2370
▁aw	-2371
alent	-2372
▁cook	-2373
▁sil	-2374
tears	-2375
▁alth	-2376
▁fold	-2377
▁star	-2378
▁drink	-2379
▁challenge	-2380
jb	-2381
▁settle	-2382
▁although	-2383
▁sle	-2384
▁sale	-2385
▁neigh	-2386
▁otherwise	-2387
▁17	-2388
▁nat	-2389
▁sliit	-2390
▁method	-2391
▁wealth	-2392
sb	-2393
▁rap	-2394
▁ver	-2395
▁heart	-2396
▁flight	-2397
▁safety	-2398
▁tb	-2399
▁bur	-2400
▁file	-2401
▁doubt	-2402
▁convers	-2403
▁welcome	-2404
▁application	-2405
▁electricity	-2406
erv	-2407
tery	-2408
▁the	-2409
▁usa	-2410
▁fort	-2411
▁mark	-2412
spective	-2413
ery	-2414
▁king	-2415
▁motor	-2416
▁frust	-2417
▁reform	-2418
▁amazing	-2419
▁interesting	-2420
irm	-2421
▁idk	-2422
▁crazy	-2423
pto	-2424
▁60	-2425
▁gl	-2426
att	-2427
ceed	-2428
▁jan	-2429
▁crow	-2430
istration	-2431
phant	-2432
▁fake	-2433
▁found	-2434
▁region	-2435
▁passion	-2436
▁startup	-2437
▁comfortable	-2438
▁none	-2439
▁page	-2440
▁brain	-2441
ays	-2442
▁btw	-2443
▁sam	-2444
▁fire	-2445
▁building	-2446
ril	-2447
▁eg	-2448
▁mine	-2449
▁ignore	-2450
olar	-2451
▁discuss	-2452
▁elephant	-2453
▁stable	-2454
▁comb	-2455
▁impact	-2456
▁mistake	-2457
▁contract	-2458
▁sjb	-2459
▁repair	-2460
ze	-2461
stic	-2462
▁constant	-2463
ans	-2464
osition	-2465
▁apparent	-2466
omb	-2467
▁grand	-2468
irt	-2469
empt	-2470
▁slight	-2471
ung	-2472
▁35	-2473
vent	-2474
▁mirissa	-2475
▁approach	-2476
▁generally	-2477
fore	-2478
▁she	-2479
▁academic	-2480
oon	-2481
▁80	-2482
▁dm	-2483
▁flo	-2484
force	-2485
inese	-2486
▁vacc	-2487
▁wise	-2488
resent	-2489
▁truth	-2490
▁mahind	-2491
ibly	-2492
erial	-2493
▁fear	-2494
▁board	-2495
▁crowd	-2496
▁folded	-2497
▁nature	-2498
▁necessary	-2499
lt	-2500
▁2022	-2501
▁rajapaksa	-2502
▁requirement	-2503
how	-2504
▁chat	-2505
ablish	-2506
▁throw	-2507
▁apartment	-2508
▁prove	-2509
▁recover	-2510
▁imo	-2511
▁suit	-2512
▁town	-2513
▁solid	-2514
▁ground	-2515
▁chinese	-2516
irth	-2517
▁max	-2518
▁rev	-2519
▁ship	-2520
▁confirm	-2521
▁confuse	-2522
to	-2523
ked	-2524
▁surv	-2525
▁purpose	-2526
sec	-2527
▁hur	-2528
▁hide	-2529
▁disapp	-2530
ies	-2531
▁bey	-2532
▁2024	-2533
▁target	-2534
▁threat	-2535
▁scholar	-2536
unt	-2537
anda	-2538
▁client	-2539
▁energy	-2540
▁response	-2541
▁mix	-2542
▁sud	-2543
▁rise	-2544
▁vill	-2545
▁freed	-2546
▁pickme	-2547
pal	-2548
▁oil	-2549
▁massive	-2550
▁everywhere	-2551
ram	-2552
cent	-2553
osit	-2554
▁sleep	-2555
▁solve	-2556
▁refuse	-2557
▁reserve	-2558
▁er	-2559
▁aug	-2560
▁represent	-2561
▁discussion	-2562
▁mb	-2563
rible	-2564
▁beyond	-2565
▁article	-2566
▁battery	-2567
lk	-2568
▁reven	-2569
iot	-2570
▁third	-2571
▁factor	-2572
▁anywhere	-2573
▁specifically	-2574
▁500	-2575
▁expert	-2576
▁terror	-2577
acy	-2578
enty	-2579
▁fle	-2580
▁female	-2581
▁emotion	-2582
▁mindset	-2583
▁promote	-2584
▁90	-2585
cist	-2586
▁oct	-2587
▁arch	-2588
▁birth	-2589
▁serve	-2590
▁double	-2591
▁luxury	-2592
▁illegal	-2593
▁patient	-2594
▁healthcare	-2595
av	-2596
▁21	-2597
ulla	-2598
▁consult	-2599
▁freedom	-2600
▁trou	-2601
▁prior	-2602
fficient	-2603
▁british	-2604
▁establish	-2605
▁pan	-2606
▁pict	-2607
ourage	-2608
▁ready	-2609
▁ir	-2610
▁dipl	-2611
▁loss	-2612
▁vers	-2613
▁deposit	-2614
▁prepare	-2615
▁apparently	-2616
▁45	-2617
▁diplom	-2618
▁picture	-2619
▁regardless	-2620
term	-2621
▁web	-2622
▁dead	-2623
▁advise	-2624
▁compla	-2625
▁surprise	-2626
ny	-2627
▁facility	-2628
▁institute	-2629
▁traditional	-2630
ression	-2631
▁authority	-2632
▁mr	-2633
what	-2634
▁sla	-2635
anger	-2636
▁death	-2637
ruction	-2638
▁lankas	-2639
▁opposition	-2640
room	-2641
▁scen	-2642
▁mahinda	-2643
▁release	-2644
itor	-2645
▁don	-2646
▁asso	-2647
▁coun	-2648
▁wind	-2649
itution	-2650
▁trouble	-2651
▁influence	-2652
▁cs	-2653
▁now	-2654
▁asia	-2655
▁hike	-2656
▁legit	-2657
▁july	-2658
▁arrest	-2659
ronic	-2660
▁behav	-2661
▁hr	-2662
▁gar	-2663
▁nic	-2664
ancel	-2665
▁union	-2666
▁perspective	-2667
▁responsibility	-2668
rug	-2669
sel	-2670
▁22	-2671
▁fil	-2672
▁delivery	-2673
▁commission	-2674
oth	-2675
▁tu	-2676
▁cey	-2677
▁2019	-2678
▁joke	-2679
▁wage	-2680
▁adult	-2681
▁print	-2682
▁status	-2683
▁foundation	-2684
▁scholarship	-2685
▁oh	-2686
rael	-2687
▁rela	-2688
▁original	-2689
fc	-2690
▁lak	-2691
reddit	-2692
▁heavy	-2693
▁cancel	-2694
▁friendly	-2695
▁complaint	-2696
ogra	-2697
▁300	-2698
▁var	-2699
▁cyber	-2700
▁lad	-2701
arily	-2702
▁infrast	-2703
▁download	-2704
▁marketing	-2705
ov	-2706
▁band	-2707
▁copy	-2708
▁dece	-2709
▁skin	-2710
▁asian	-2711
▁subreddit	-2712
imal	-2713
atory	-2714
▁consum	-2715
▁specially	-2716
ask	-2717
▁fr	-2718
▁km	-2719
▁hyp	-2720
▁dumb	-2721
▁exec	-2722
▁wild	-2723
▁green	-2724
▁greatly	-2725
ew	-2726
mon	-2727
hold	-2728
▁fra	-2729
▁nob	-2730
▁conversation	-2731
▁infrastructure	-2732
▁thr	-2733
ender	-2734
▁ceyl	-2735
ension	-2736
▁bunch	-2737
▁israel	-2738
▁revenue	-2739
▁addition	-2740
ler	-2741
▁plant	-2742
▁relax	-2743
▁secure	-2744
ience	-2745
▁vibe	-2746
▁hopefully	-2747
leb	-2748
▁ep	-2749
▁conv	-2750
▁hang	-2751
▁oper	-2752
▁zero	-2753
▁admin	-2754
▁unlike	-2755
▁physics	-2756
15	-2757
rop	-2758
hood	-2759
▁guid	-2760
▁shift	-2761
▁steal	-2762
▁barely	-2763
▁justice	-2764
tuk	-2765
itude	-2766
wards	-2767
▁critic	-2768
▁attempt	-2769
▁totally	-2770
▁affordable	-2771
nam	-2772
▁din	-2773
▁sudden	-2774
▁various	-2775
▁minority	-2776
cs	-2777
ike	-2778
▁mem	-2779
▁pun	-2780
▁mech	-2781
▁investig	-2782
▁undergra	-2783
▁practical	-2784
iate	-2785
rateg	-2786
▁tele	-2787
▁strateg	-2788
▁immediately	-2789
▁mp	-2790
▁ult	-2791
asing	-2792
▁atle	-2793
▁score	-2794
▁supply	-2795
rel	-2796
pper	-2797
▁agent	-2798
▁campus	-2799
▁atleast	-2800
▁positive	-2801
▁den	-2802
▁pra	-2803
▁meal	-2804
▁trend	-2805
fact	-2806
▁idiot	-2807
▁touch	-2808
▁tuition	-2809
▁employer	-2810
▁q	-2811
▁lay	-2812
cially	-2813
▁going	-2814
▁tough	-2815
mp	-2816
year	-2817
▁pull	-2818
▁rock	-2819
▁negombo	-2820
▁negative	-2821
▁performance	-2822
lus	-2823
xic	-2824
just	-2825
skin	-2826
ulty	-2827
▁burn	-2828
▁sept	-2829
▁asset	-2830
▁nobody	-2831
ka	-2832
rid	-2833
the	-2834
▁hat	-2835
▁abuse	-2836
▁ahead	-2837
▁chill	-2838
▁emerg	-2839
▁spread	-2840
▁tuktuk	-2841
life	-2842
▁bet	-2843
▁grin	-2844
▁ruin	-2845
▁text	-2846
▁stage	-2847
▁warrant	-2848
dic	-2849
per	-2850
eart	-2851
arant	-2852
▁drug	-2853
▁pure	-2854
antage	-2855
▁photo	-2856
cipline	-2857
iece	-2858
▁got	-2859
▁sum	-2860
▁autom	-2861
▁plenty	-2862
▁corporate	-2863
▁hus	-2864
place	-2865
▁reput	-2866
▁weird	-2867
▁somehow	-2868
▁treatment	-2869
ball	-2870
iday	-2871
ciation	-2872
▁feedback	-2873
style	-2874
▁rice	-2875
▁wifi	-2876
▁season	-2877
▁grinning	-2878
▁gas	-2879
achel	-2880
▁rare	-2881
▁valid	-2882
▁yester	-2883
▁attention	-2884
▁discipline	-2885
itive	-2886
▁1000	-2887
▁rank	-2888
▁fresh	-2889
▁racist	-2890
▁smiling	-2891
▁introduce	-2892
lict	-2893
▁pla	-2894
▁unf	-2895
▁race	-2896
▁celeb	-2897
▁colon	-2898
▁voter	-2899
▁august	-2900
▁permit	-2901
▁training	-2902
▁advantage	-2903
▁emergency	-2904
urer	-2905
▁cru	-2906
▁male	-2907
▁judge	-2908
▁usual	-2909
achelor	-2910
▁survive	-2911
iy	-2912
tone	-2913
▁mach	-2914
▁faculty	-2915
▁holiday	-2916
▁yesterday	-2917
▁contribute	-2918
bre	-2919
una	-2920
▁pc	-2921
ault	-2922
cast	-2923
▁mer	-2924
levant	-2925
▁center	-2926
▁reasonable	-2927
gger	-2928
ried	-2929
▁tbh	-2930
right	-2931
▁broad	-2932
▁bachelor	-2933
▁slightly	-2934
▁srilankan	-2935
▁statement	-2936
▁hy	-2937
etic	-2938
▁mag	-2939
▁shy	-2940
▁flag	-2941
▁deserve	-2942
▁weekend	-2943
ix	-2944
dra	-2945
▁manu	-2946
▁campa	-2947
▁christ	-2948
▁damage	-2949
▁player	-2950
▁ක	-2951
▁cab	-2952
▁apart	-2953
▁colla	-2954
▁entry	-2955
med	-2956
▁hence	-2957
▁reject	-2958
▁husband	-2959
▁material	-2960
▁transaction	-2961
rif	-2962
▁rag	-2963
rimin	-2964
▁delay	-2965
▁campaign	-2966
▁violence	-2967
▁employment	-2968
oice	-2969
▁150	-2970
▁percent	-2971
▁prevent	-2972
eas	-2973
▁rw	-2974
▁yala	-2975
smiling	-2976
▁secret	-2977
▁version	-2978
▁responsible	-2979
cism	-2980
▁son	-2981
▁firm	-2982
▁bab	-2983
▁surf	-2984
▁device	-2985
we	-2986
▁bond	-2987
▁milk	-2988
▁prim	-2989
▁limited	-2990
▁december	-2991
▁warranty	-2992
▁constitution	-2993
▁26	-2994
sapp	-2995
▁bot	-2996
asion	-2997
▁rant	-2998
▁ensure	-2999
▁manufact	-3000
pr	-3001
▁gre	-3002
▁2000	-3003
▁2023	-3004
▁damn	-3005
▁unique	-3006
▁separate	-3007
loc	-3008
▁by	-3009
▁nar	-3010
stain	-3011
▁prime	-3012
▁strike	-3013
cry	-3014
anch	-3015
isation	-3016
▁talent	-3017
▁attract	-3018
▁feature	-3019
pping	-3020
▁creat	-3021
▁september	-3022
▁electronic	-3023
▁cat	-3024
▁mur	-3025
grade	-3026
▁hurt	-3027
▁peak	-3028
▁when	-3029
▁loudly	-3030
▁prof	-3031
▁piece	-3032
▁toxic	-3033
▁ceylon	-3034
▁retire	-3035
▁thread	-3036
▁commercial	-3037
▁independent	-3038
gth	-3039
▁lin	-3040
ograph	-3041
▁screen	-3042
▁bay	-3043
▁tom	-3044
▁duty	-3045
▁70	-3046
itel	-3047
rier	-3048
▁aim	-3049
▁iit	-3050
▁opt	-3051
▁june	-3052
▁solo	-3053
▁japan	-3054
▁engage	-3055
▁journey	-3056
aps	-3057
▁bag	-3058
entially	-3059
▁airline	-3060
▁useless	-3061
▁financially	-3062
ality	-3063
▁calc	-3064
▁germ	-3065
▁wide	-3066
▁mechan	-3067
▁sustain	-3068
▁whenever	-3069
lan	-3070
uary	-3071
▁ang	-3072
istan	-3073
▁prin	-3074
▁cross	-3075
▁lease	-3076
mission	-3077
▁consist	-3078
▁essential	-3079
ober	-3080
▁scene	-3081
▁working	-3082
▁accident	-3083
▁investor	-3084
▁fd	-3085
▁analy	-3086
▁table	-3087
▁convert	-3088
▁produce	-3089
▁conflict	-3090
▁spending	-3091
▁communication	-3092
60	-3093
br	-3094
▁april	-3095
▁liber	-3096
▁racism	-3097
▁feeling	-3098
har	-3099
urb	-3100
▁ic	-3101
board	-3102
ivate	-3103
▁baby	-3104
▁morat	-3105
▁proof	-3106
▁rough	-3107
▁scale	-3108
▁express	-3109
oda	-3110
▁cas	-3111
ounce	-3112
▁pres	-3113
▁concept	-3114
▁district	-3115
oss	-3116
▁my	-3117
▁alle	-3118
ertain	-3119
▁strict	-3120
▁presidential	-3121
dy	-3122
put	-3123
▁left	-3124
crying	-3125
scribe	-3126
▁fiber	-3127
▁estate	-3128
▁anybody	-3129
▁somewhat	-3130
▁whatsapp	-3131
do	-3132
draw	-3133
heart	-3134
▁song	-3135
▁trin	-3136
▁rural	-3137
▁banking	-3138
▁therefore	-3139
▁suck	-3140
▁regret	-3141
▁obt	-3142
edule	-3143
▁slpp	-3144
▁repeat	-3145
▁immigration	-3146
▁ik	-3147
ival	-3148
▁bull	-3149
▁obtain	-3150
▁operate	-3151
▁evidence	-3152
▁moratuwa	-3153
▁competition	-3154
pa	-3155
bus	-3156
▁her	-3157
▁nam	-3158
▁here	-3159
▁roll	-3160
▁additional	-3161
uc	-3162
▁rat	-3163
▁tho	-3164
▁toy	-3165
▁agency	-3166
▁appear	-3167
▁former	-3168
▁withdraw	-3169
▁discrimin	-3170
▁successful	-3171
anth	-3172
ously	-3173
▁bang	-3174
▁sister	-3175
▁shi	-3176
sweat	-3177
▁circ	-3178
▁jump	-3179
▁image	-3180
▁aspect	-3181
▁histor	-3182
scription	-3183
▁ministry	-3184
▁rely	-3185
▁youth	-3186
▁crypto	-3187
▁murder	-3188
ood	-3189
yal	-3190
▁27	-3191
▁ge	-3192
roll	-3193
shit	-3194
▁and	-3195
▁punish	-3196
▁meeting	-3197
▁guidance	-3198
▁associate	-3199
imb	-3200
new	-3201
▁deb	-3202
▁tin	-3203
press	-3204
verse	-3205
▁cycle	-3206
ossible	-3207
▁useful	-3208
▁mobitel	-3209
▁encourage	-3210
▁ict	-3211
▁clar	-3212
▁fault	-3213
▁twice	-3214
▁broker	-3215
▁should	-3216
▁trading	-3217
▁american	-3218
▁lifestyle	-3219
▁impossible	-3220
19	-3221
lass	-3222
▁mea	-3223
▁squ	-3224
utive	-3225
▁mand	-3226
▁ideal	-3227
▁approve	-3228
hone	-3229
ider	-3230
▁hon	-3231
▁hut	-3232
▁dress	-3233
▁assist	-3234
▁counter	-3235
▁freelan	-3236
▁guarant	-3237
▁quickly	-3238
▁worried	-3239
let	-3240
▁sem	-3241
▁ton	-3242
▁diploma	-3243
▁longterm	-3244
▁neighbor	-3245
▁developer	-3246
▁structure	-3247
pet	-3248
▁bed	-3249
▁tia	-3250
arden	-3251
odation	-3252
▁crimin	-3253
▁ability	-3254
▁evening	-3255
▁october	-3256
▁tomorrow	-3257
ague	-3258
king	-3259
sequ	-3260
▁diss	-3261
▁door	-3262
▁uncle	-3263
▁nearly	-3264
▁cv	-3265
ugam	-3266
▁voice	-3267
▁insane	-3268
▁scheme	-3269
▁indians	-3270
▁buddhism	-3271
▁relevant	-3272
▁chemistry	-3273
▁34	-3274
bour	-3275
ster	-3276
apura	-3277
▁alot	-3278
▁victim	-3279
▁natural	-3280
▁shortage	-3281
▁democracy	-3282
rep	-3283
▁bomb	-3284
▁four	-3285
▁hind	-3286
▁march	-3287
▁resign	-3288
▁lecture	-3289
▁criminal	-3290
▁fri	-3291
▁nove	-3292
rating	-3293
▁favor	-3294
▁submit	-3295
vernight	-3296
lla	-3297
▁bs	-3298
▁mad	-3299
▁style	-3300
▁animal	-3301
▁conven	-3302
▁machine	-3303
▁function	-3304
▁identity	-3305
▁overnight	-3306
dp	-3307
but	-3308
nal	-3309
range	-3310
▁task	-3311
rative	-3312
▁batch	-3313
▁compar	-3314
▁monitor	-3315
▁section	-3316
▁executive	-3317
▁girlfriend	-3318
▁transportation	-3319
ta	-3320
down	-3321
▁esc	-3322
▁disp	-3323
▁lady	-3324
▁load	-3325
▁annoy	-3326
▁bother	-3327
▁november	-3328
▁priority	-3329
▁schedule	-3330
hol	-3331
▁pal	-3332
▁dark	-3333
▁upon	-3334
▁ideally	-3335
▁distance	-3336
▁guarantee	-3337
▁organization	-3338
▁tool	-3339
▁ridic	-3340
olution	-3341
sidency	-3342
▁clothe	-3343
▁constantly	-3344
roy	-3345
▁28	-3346
▁bc	-3347
▁nur	-3348
▁equip	-3349
▁queue	-3350
▁accomm	-3351
▁freelance	-3352
mo	-3353
iet	-3354
oke	-3355
▁od	-3356
▁size	-3357
▁argue	-3358
▁nearby	-3359
▁realise	-3360
▁attitude	-3361
▁consumer	-3362
▁strategy	-3363
▁ie	-3364
urch	-3365
▁shame	-3366
imately	-3367
▁danger	-3368
▁measure	-3369
▁session	-3370
▁agreement	-3371
▁disappoint	-3372
▁competitive	-3373
▁particularly	-3374
conut	-3375
inger	-3376
▁2015	-3377
▁busy	-3378
▁complex	-3379
▁install	-3380
▁january	-3381
itt	-3382
pay	-3383
▁lg	-3384
▁dub	-3385
▁fal	-3386
▁cine	-3387
▁root	-3388
▁skip	-3389
▁advert	-3390
▁lately	-3391
▁enforce	-3392
▁village	-3393
ini	-3394
▁fb	-3395
▁ine	-3396
uable	-3397
▁sent	-3398
▁shoot	-3399
▁buying	-3400
▁dinner	-3401
▁refund	-3402
▁coconut	-3403
▁construction	-3404
anese	-3405
▁cafe	-3406
enture	-3407
▁church	-3408
▁sexual	-3409
▁slowly	-3410
▁pen	-3411
▁damb	-3412
▁gift	-3413
▁sylla	-3414
▁destroy	-3415
▁identify	-3416
▁appointment	-3417
▁ec	-3418
ized	-3419
mbps	-3420
play	-3421
▁hom	-3422
point	-3423
▁ball	-3424
▁heavily	-3425
off	-3426
▁flu	-3427
▁taxi	-3428
▁negot	-3429
▁active	-3430
▁journal	-3431
▁recognize	-3432
▁preferably	-3433
▁regulation	-3434
ssed	-3435
▁gun	-3436
▁camera	-3437
▁divide	-3438
▁iphone	-3439
▁weight	-3440
▁everyday	-3441
▁kn	-3442
hole	-3443
▁bsc	-3444
▁beat	-3445
▁unre	-3446
▁blind	-3447
▁namal	-3448
▁upper	-3449
▁reflect	-3450
▁independence	-3451
key	-3452
raid	-3453
illed	-3454
▁flex	-3455
▁mate	-3456
▁monk	-3457
▁weak	-3458
▁admit	-3459
▁climate	-3460
▁intention	-3461
▁destination	-3462
dom	-3463
▁cse	-3464
acity	-3465
ocent	-3466
▁2020	-3467
▁adop	-3468
▁cous	-3469
▁shoe	-3470
▁anyways	-3471
▁occasion	-3472
awa	-3473
mar	-3474
▁tie	-3475
ellig	-3476
▁taste	-3477
▁centre	-3478
▁transl	-3479
pse	-3480
ught	-3481
▁pak	-3482
agram	-3483
ratic	-3484
while	-3485
▁coff	-3486
▁lakh	-3487
▁sick	-3488
▁false	-3489
▁branch	-3490
▁cousin	-3491
▁fairly	-3492
▁rental	-3493
▁unable	-3494
▁window	-3495
▁meaning	-3496
▁provider	-3497
▁registration	-3498
cil	-3499
cing	-3500
▁obs	-3501
▁phd	-3502
enance	-3503
▁manip	-3504
▁healthy	-3505
▁discount	-3506
▁intellig	-3507
▁province	-3508
▁direction	-3509
▁supporter	-3510
ban	-3511
anay	-3512
ison	-3513
▁byd	-3514
▁gem	-3515
▁vari	-3516
coming	-3517
▁stuck	-3518
▁afraid	-3519
▁lesson	-3520
▁shitty	-3521
▁ridicul	-3522
▁argument	-3523
▁confused	-3524
▁entirely	-3525
▁syllabus	-3526
12	-3527
▁trap	-3528
▁apple	-3529
riction	-3530
▁easter	-3531
▁behavior	-3532
▁japanese	-3533
▁peaceful	-3534
▁valuable	-3535
▁citizenship	-3536
80	-3537
▁cro	-3538
▁mic	-3539
▁perh	-3540
▁tire	-3541
▁blood	-3542
da	-3543
▁nav	-3544
▁arrange	-3545
▁suddenly	-3546
▁stability	-3547
ario	-3548
ngth	-3549
▁mac	-3550
▁ple	-3551
▁excuse	-3552
▁conduct	-3553
▁locally	-3554
▁perhaps	-3555
▁innocent	-3556
▁particip	-3557
▁terrible	-3558
▁instagram	-3559
rs	-3560
oph	-3561
vey	-3562
unte	-3563
▁gdp	-3564
ondon	-3565
urate	-3566
▁harm	-3567
▁upgrade	-3568
▁ig	-3569
▁coz	-3570
▁dom	-3571
▁kick	-3572
▁ther	-3573
▁depre	-3574
▁grate	-3575
▁legally	-3576
▁strength	-3577
▁technical	-3578
asa	-3579
▁bio	-3580
▁box	-3581
▁rad	-3582
▁gate	-3583
▁london	-3584
▁signal	-3585
▁bullshit	-3586
▁pakistan	-3587
▁migration	-3588
▁terrorist	-3589
ancy	-3590
▁san	-3591
ariff	-3592
ternal	-3593
▁setup	-3594
▁assign	-3595
▁gender	-3596
▁perman	-3597
▁sunday	-3598
▁dambulla	-3599
▁maintenance	-3600
▁tim	-3601
▁gradu	-3602
▁usage	-3603
▁safari	-3604
▁tariff	-3605
▁toyota	-3606
▁council	-3607
▁relatively	-3608
▁expectation	-3609
ced	-3610
▁199	-3611
▁400	-3612
▁gap	-3613
entic	-3614
▁bott	-3615
▁annual	-3616
▁arugam	-3617
▁malays	-3618
▁respond	-3619
▁vaccine	-3620
▁european	-3621
bage	-3622
▁bon	-3623
▁cod	-3624
▁dee	-3625
igama	-3626
▁russ	-3627
unteer	-3628
▁thous	-3629
▁gather	-3630
▁volunteer	-3631
▁significantly	-3632
lam	-3633
dict	-3634
▁bor	-3635
medium	-3636
▁drain	-3637
▁author	-3638
▁extend	-3639
▁labour	-3640
▁remind	-3641
▁consequ	-3642
▁scenario	-3643
▁thousand	-3644
▁equipment	-3645
▁operation	-3646
▁restriction	-3647
ateg	-3648
eyes	-3649
▁ten	-3650
iliar	-3651
iment	-3652
▁data	-3653
▁sold	-3654
▁lucky	-3655
▁quiet	-3656
▁harass	-3657
▁skilled	-3658
▁trincom	-3659
▁tradition	-3660
▁production	-3661
nb	-3662
fol	-3663
alee	-3664
▁amb	-3665
ffici	-3666
▁grant	-3667
▁petrol	-3668
▁series	-3669
▁initially	-3670
▁investigation	-3671
▁jew	-3672
▁disg	-3673
▁fish	-3674
▁categ	-3675
▁fibre	-3676
▁renew	-3677
▁soldier	-3678
▁through	-3679
▁critical	-3680
uma	-3681
ping	-3682
utor	-3683
▁2021	-3684
▁glad	-3685
▁maxim	-3686
▁proud	-3687
▁bottle	-3688
▁burden	-3689
▁garbage	-3690
▁highway	-3691
▁grateful	-3692
▁vacation	-3693
40	-3694
za	-3695
mas	-3696
▁29	-3697
ified	-3698
ilege	-3699
▁elite	-3700
▁approval	-3701
▁leadership	-3702
hi	-3703
rit	-3704
▁250	-3705
▁era	-3706
▁feb	-3707
▁dict	-3708
▁agric	-3709
▁scare	-3710
▁incred	-3711
▁tempor	-3712
▁civilian	-3713
▁generate	-3714
▁resident	-3715
▁authentic	-3716
▁throughout	-3717
25	-3718
iex	-3719
▁eu	-3720
mark	-3721
▁hous	-3722
▁mount	-3723
▁sadly	-3724
▁premium	-3725
▁familiar	-3726
▁possibly	-3727
amb	-3728
col	-3729
▁dh	-3730
▁lgbt	-3731
▁aliex	-3732
▁indic	-3733
▁bottom	-3734
▁united	-3735
▁exploit	-3736
▁portfol	-3737
▁agricult	-3738
▁lecturer	-3739
▁movement	-3740
▁teaching	-3741
▁trincomalee	-3742
fs	-3743
▁pa	-3744
▁ug	-3745
ruit	-3746
▁resort	-3747
▁housing	-3748
▁external	-3749
▁rajapakse	-3750
▁consequence	-3751
unk	-3752
▁jay	-3753
▁wit	-3754
itect	-3755
▁suic	-3756
▁basis	-3757
▁approx	-3758
▁collapse	-3759
va	-3760
▁rob	-3761
▁van	-3762
▁dome	-3763
▁film	-3764
▁lane	-3765
▁funny	-3766
▁bankrupt	-3767
▁portfolio	-3768
▁accommodation	-3769
isf	-3770
▁sac	-3771
▁blue	-3772
▁aside	-3773
▁frequ	-3774
▁recon	-3775
duction	-3776
ological	-3777
▁display	-3778
▁initial	-3779
▁highlight	-3780
▁freelancer	-3781
sy	-3782
ugh	-3783
kedin	-3784
▁arag	-3785
▁guil	-3786
▁swim	-3787
▁excel	-3788
▁floor	-3789
▁labor	-3790
▁arrival	-3791
▁factory	-3792
▁justify	-3793
▁ethnicity	-3794
▁aliexpress	-3795
70	-3796
une	-3797
gery	-3798
▁draw	-3799
▁hass	-3800
▁hill	-3801
▁ital	-3802
▁phar	-3803
▁wake	-3804
▁round	-3805
▁severe	-3806
▁failure	-3807
▁household	-3808
▁rajapaksha	-3809
agn	-3810
awe	-3811
ray	-3812
fall	-3813
▁pin	-3814
arian	-3815
eline	-3816
round	-3817
▁asse	-3818
▁sole	-3819
ughter	-3820
▁oppose	-3821
▁scamme	-3822
▁default	-3823
▁redditor	-3824
▁architect	-3825
▁celebrate	-3826
▁percentage	-3827
ae	-3828
gue	-3829
▁map	-3830
▁pls	-3831
▁teen	-3832
ampath	-3833
▁attach	-3834
▁coffee	-3835
▁married	-3836
▁undergraduate	-3837
▁wt	-3838
eech	-3839
▁bail	-3840
▁fest	-3841
▁alloc	-3842
ologist	-3843
▁theory	-3844
▁unfair	-3845
▁presidency	-3846
▁administration	-3847
11	-3848
fia	-3849
iry	-3850
▁ay	-3851
▁anx	-3852
▁eld	-3853
arana	-3854
▁clue	-3855
▁adopt	-3856
▁advis	-3857
▁curric	-3858
atically	-3859
security	-3860
▁sampath	-3861
▁capacity	-3862
▁shipping	-3863
▁ම	-3864
eel	-3865
eet	-3866
ton	-3867
▁cup	-3868
iting	-3869
▁wher	-3870
necess	-3871
▁bonus	-3872
▁dubai	-3873
▁innov	-3874
▁famous	-3875
▁hassle	-3876
▁suspect	-3877
enger	-3878
ingly	-3879
▁hund	-3880
▁nons	-3881
▁rush	-3882
▁hutch	-3883
▁incom	-3884
▁linkedin	-3885
▁unnecess	-3886
hd	-3887
ata	-3888
rene	-3889
alaya	-3890
inary	-3891
ortion	-3892
dhapura	-3893
▁launch	-3894
▁seller	-3895
▁voting	-3896
▁charact	-3897
▁hundred	-3898
▁learning	-3899
▁effective	-3900
▁mentality	-3901
▁protection	-3902
nar	-3903
base	-3904
eral	-3905
▁nut	-3906
▁tur	-3907
▁vat	-3908
adays	-3909
hands	-3910
▁inte	-3911
▁lock	-3912
stance	-3913
urally	-3914
▁laugh	-3915
▁mafia	-3916
▁tired	-3917
▁garden	-3918
▁primary	-3919
▁wildlife	-3920
▁awareness	-3921
▁privilege	-3922
pe	-3923
log	-3924
▁clin	-3925
▁shock	-3926
reprene	-3927
▁gaming	-3928
▁nowadays	-3929
▁suitable	-3930
▁reputation	-3931
aka	-3932
▁ud	-3933
▁poll	-3934
▁quit	-3935
▁shar	-3936
▁solar	-3937
▁extent	-3938
▁conserv	-3939
▁recruit	-3940
ef	-3941
ife	-3942
▁pod	-3943
▁ven	-3944
▁dish	-3945
▁susp	-3946
▁cabin	-3947
▁adjust	-3948
▁belief	-3949
▁beside	-3950
▁driving	-3951
▁proceed	-3952
▁character	-3953
▁anuradhapura	-3954
uri	-3955
▁75	-3956
▁onto	-3957
▁after	-3958
▁whose	-3959
▁announce	-3960
▁domestic	-3961
▁traveler	-3962
▁frustrating	-3963
▁possibility	-3964
▁ot	-3965
▁dry	-3966
▁men	-3967
▁tik	-3968
▁dire	-3969
▁fool	-3970
▁tree	-3971
▁trick	-3972
▁trump	-3973
▁belong	-3974
▁surgery	-3975
▁category	-3976
▁entertain	-3977
▁entreprene	-3978
▁accountability	-3979
izer	-3980
verty	-3981
▁2018	-3982
▁expose	-3983
▁object	-3984
▁rarely	-3985
▁combine	-3986
▁portion	-3987
▁poverty	-3988
▁football	-3989
▁threaten	-3990
▁preference	-3991
rem	-3992
▁urg	-3993
arter	-3994
ising	-3995
▁anti	-3996
▁five	-3997
▁heat	-3998
gation	-3999
▁paypal	-4000
▁complic	-4001
▁convince	-4002
▁malaysia	-4003
▁aragalaya	-4004
eth	-4005
ony	-4006
▁ceb	-4007
iture	-4008
▁hiri	-4009
▁kore	-4010
▁pool	-4011
▁afric	-4012
▁drama	-4013
▁graph	-4014
▁tutor	-4015
▁compens	-4016
▁witness	-4017
▁workplace	-4018
bu	-4019
emy	-4020
assy	-4021
▁but	-4022
▁kar	-4023
agama	-4024
igate	-4025
usion	-4026
▁chair	-4027
▁frame	-4028
▁oppos	-4029
▁debate	-4030
▁defend	-4031
▁birthday	-4032
▁powerful	-4033
▁upcoming	-4034
dha	-4035
emp	-4036
iat	-4037
tok	-4038
encer	-4039
▁deny	-4040
▁flow	-4041
▁shut	-4042
▁siri	-4043
▁trash	-4044
▁divorce	-4045
▁suicide	-4046
▁exception	-4047
▁understanding	-4048
ela	-4049
lit	-4050
not	-4051
ulf	-4052
awat	-4053
ooth	-4054
phone	-4055
▁wave	-4056
cedure	-4057
▁chick	-4058
▁guest	-4059
▁circle	-4060
▁propag	-4061
▁satisf	-4062
▁survey	-4063
▁maximum	-4064
▁neither	-4065
▁clothing	-4066
▁opposite	-4067
▁procedure	-4068
▁consultant	-4069
cise	-4070
▁rom	-4071
▁rail	-4072
▁curry	-4073
▁equal	-4074
▁sight	-4075
▁memory	-4076
▁actively	-4077
▁colleague	-4078
ima	-4079
urd	-4080
lade	-4081
lanka	-4082
▁mall	-4083
▁input	-4084
▁quote	-4085
▁bridge	-4086
▁therap	-4087
▁fucking	-4088
▁colonial	-4089
▁daughter	-4090
▁neighbour	-4091
▁educational	-4092
▁unnecessary	-4093
isc	-4094
▁lift	-4095
▁mile	-4096
▁sake	-4097
▁warn	-4098
▁chase	-4099
▁cheer	-4100
▁climb	-4101
▁ignor	-4102
▁label	-4103
▁vision	-4104
▁disgust	-4105
▁embassy	-4106
▁division	-4107
▁weligama	-4108
▁efficient	-4109
▁permanent	-4110
▁socialist	-4111
▁ridiculous	-4112
▁ms	-4113
abil	-4114
brid	-4115
sung	-4116
well	-4117
▁lat	-4118
uring	-4119
▁capt	-4120
employ	-4121
▁repay	-4122
▁smile	-4123
▁borrow	-4124
▁plantation	-4125
fic	-4126
ians	-4127
▁ben	-4128
▁irre	-4129
▁vend	-4130
▁zone	-4131
▁amend	-4132
▁initi	-4133
anayake	-4134
▁booking	-4135
▁compete	-4136
▁typical	-4137
▁advertise	-4138
▁previously	-4139
▁discrimination	-4140
ani	-4141
rap	-4142
inge	-4143
▁cha	-4144
level	-4145
▁bribe	-4146
▁logic	-4147
▁junior	-4148
▁germany	-4149
▁pretend	-4150
▁fundament	-4151
▁influencer	-4152
▁communicate	-4153
ll	-4154
▁න	-4155
thy	-4156
iour	-4157
lare	-4158
▁nsb	-4159
▁unc	-4160
adasa	-4161
month	-4162
▁iron	-4163
▁tang	-4164
ailand	-4165
ladesh	-4166
▁risky	-4167
▁native	-4168
▁tiktok	-4169
▁horrible	-4170
▁instance	-4171
▁surround	-4172
▁confidence	-4173
▁democratic	-4174
▁journalist	-4175
▁sustainable	-4176
▁additionally	-4177
▁36	-4178
▁99	-4179
aden	-4180
pora	-4181
▁ath	-4182
▁mah	-4183
▁nom	-4184
under	-4185
▁wall	-4186
▁wash	-4187
▁wick	-4188
▁faith	-4189
▁manner	-4190
▁speech	-4191
▁besides	-4192
▁careful	-4193
▁curricul	-4194
▁entrepreneur	-4195
ika	-4196
awal	-4197
itie	-4198
lete	-4199
soft	-4200
▁atm	-4201
▁obl	-4202
▁tld	-4203
cohol	-4204
itiya	-4205
rance	-4206
▁pand	-4207
▁welf	-4208
▁fancy	-4209
▁lunch	-4210
▁urban	-4211
▁forest	-4212
▁hybrid	-4213
▁hiriket	-4214
▁plastic	-4215
fficiency	-4216
▁festival	-4217
▁thailand	-4218
▁surprised	-4219
▁passionate	-4220
▁intelligence	-4221
gn	-4222
pm	-4223
wa	-4224
ited	-4225
sday	-4226
▁ack	-4227
▁bru	-4228
anage	-4229
▁reve	-4230
▁tldr	-4231
▁align	-4232
▁color	-4233
▁acknow	-4234
▁pocket	-4235
▁server	-4236
▁calculate	-4237
▁passenger	-4238
sl	-4239
su	-4240
ied	-4241
mil	-4242
▁ba	-4243
▁calm	-4244
▁dias	-4245
▁kott	-4246
▁islam	-4247
▁finger	-4248
▁subsid	-4249
▁anytime	-4250
▁decline	-4251
▁liberal	-4252
▁profile	-4253
▁welfare	-4254
▁bangladesh	-4255
▁medication	-4256
▁certification	-4257
ren	-4258
rew	-4259
rom	-4260
▁gro	-4261
▁sky	-4262
icing	-4263
▁boat	-4264
▁scar	-4265
▁shot	-4266
iation	-4267
▁forex	-4268
▁loose	-4269
▁appeal	-4270
▁impose	-4271
▁scared	-4272
▁whoever	-4273
▁estimate	-4274
▁psychiat	-4275
▁shopping	-4276
▁comparison	-4277
▁curriculum	-4278
නන	-4279
dex	-4280
▁ice	-4281
▁sab	-4282
▁six	-4283
▁crap	-4284
▁spir	-4285
▁genoc	-4286
▁tooth	-4287
▁wheel	-4288
▁buddha	-4289
▁favour	-4290
▁reveal	-4291
▁capable	-4292
▁forever	-4293
▁beginner	-4294
▁commerce	-4295
▁internal	-4296
▁organize	-4297
▁initiative	-4298
▁essentially	-4299
gpt	-4300
ser	-4301
osal	-4302
▁der	-4303
▁wtf	-4304
erior	-4305
▁blow	-4306
▁gang	-4307
liance	-4308
▁ikman	-4309
▁occur	-4310
▁deduct	-4311
▁diaspora	-4312
▁dangerous	-4313
ga	-4314
sd	-4315
▁ly	-4316
enda	-4317
pack	-4318
▁gig	-4319
aduwa	-4320
▁jail	-4321
▁nsbm	-4322
▁click	-4323
▁bugger	-4324
▁mathem	-4325
▁america	-4326
▁chicken	-4327
▁nonsense	-4328
▁programme	-4329
evel	-4330
▁scr	-4331
onsor	-4332
▁liqu	-4333
icious	-4334
▁debit	-4335
▁lower	-4336
▁tower	-4337
▁superm	-4338
▁samsung	-4339
▁physically	-4340
▁31	-4341
ique	-4342
know	-4343
list	-4344
olic	-4345
▁odd	-4346
innam	-4347
spire	-4348
▁cold	-4349
▁upto	-4350
rifice	-4351
▁cream	-4352
▁index	-4353
adeniya	-4354
▁chatgpt	-4355
▁contain	-4356
▁dictator	-4357
▁entrance	-4358
▁concerned	-4359
▁typically	-4360
kk	-4361
cery	-4362
olit	-4363
▁egg	-4364
▁ong	-4365
▁rot	-4366
cient	-4367
▁rude	-4368
▁canad	-4369
▁cloud	-4370
▁trail	-4371
innamon	-4372
▁casual	-4373
▁expand	-4374
▁invite	-4375
▁entitle	-4376
▁priorit	-4377
▁propose	-4378
▁sponsor	-4379
▁ideology	-4380
▁normally	-4381
▁confident	-4382
▁promotion	-4383
▁sacrifice	-4384
▁ultimately	-4385
ena	-4386
▁rn	-4387
inal	-4388
▁gay	-4389
▁kdu	-4390
▁ram	-4391
▁sou	-4392
antly	-4393
ropri	-4394
▁lean	-4395
▁rape	-4396
▁trial	-4397
asinghe	-4398
▁alevel	-4399
▁verify	-4400
▁alcohol	-4401
▁annoying	-4402
▁emotional	-4403
▁selection	-4404
▁temporary	-4405
▁australian	-4406
▁propaganda	-4407
owe	-4408
vote	-4409
▁ofc	-4410
▁por	-4411
▁adhd	-4412
▁edex	-4413
▁memor	-4414
▁cinema	-4415
▁deeply	-4416
▁cinnamon	-4417
▁genocide	-4418
▁certainly	-4419
▁mandatory	-4420
▁narrative	-4421
▁improvement	-4422
cut	-4423
link	-4424
▁120	-4425
▁mos	-4426
▁nan	-4427
arket	-4428
rated	-4429
▁libr	-4430
▁chain	-4431
▁disre	-4432
▁discon	-4433
▁scient	-4434
▁smooth	-4435
▁criticism	-4436
▁meanwhile	-4437
▁commitment	-4438
▁hiriketiya	-4439
▁accountable	-4440
▁nu	-4441
fast	-4442
▁eta	-4443
▁core	-4444
▁cred	-4445
▁leak	-4446
▁tiny	-4447
▁flash	-4448
▁guard	-4449
ception	-4450
▁hostel	-4451
▁barrier	-4452
▁speaker	-4453
24	-4454
ola	-4455
rive	-4456
▁bul	-4457
▁cow	-4458
▁fat	-4459
▁grab	-4460
▁piss	-4461
ounter	-4462
▁plain	-4463
▁intend	-4464
▁library	-4465
▁scammer	-4466
▁childhood	-4467
▁disappear	-4468
▁regularly	-4469
▁depression	-4470
bsl	-4471
rial	-4472
ysis	-4473
▁kum	-4474
▁mum	-4475
allet	-4476
antha	-4477
▁hall	-4478
▁dedic	-4479
▁mixed	-4480
▁affair	-4481
▁contra	-4482
▁margin	-4483
▁vendor	-4484
▁outcome	-4485
▁interact	-4486
▁undergrad	-4487
▁incredibly	-4488
▁cybersecurity	-4489
ipe	-4490
ita	-4491
rent	-4492
▁fed	-4493
▁lma	-4494
▁rip	-4495
agree	-4496
bally	-4497
osure	-4498
▁dara	-4499
▁elig	-4500
▁brown	-4501
▁absurd	-4502
▁accuse	-4503
▁edexcel	-4504
▁grocery	-4505
▁unemploy	-4506
▁desperate	-4507
▁governance	-4508
▁historical	-4509
▁fundamental	-4510
han	-4511
pro	-4512
▁cc	-4513
aran	-4514
▁epf	-4515
▁unb	-4516
▁vir	-4517
▁5000	-4518
▁boss	-4519
▁cbsl	-4520
ashion	-4521
▁daraz	-4522
▁agenda	-4523
▁declare	-4524
▁minimal	-4525
▁resolve	-4526
▁disagree	-4527
▁negotiate	-4528
▁mechanical	-4529
▁peradeniya	-4530
elt	-4531
lkr	-4532
orke	-4533
▁pil	-4534
▁sar	-4535
rease	-4536
▁thus	-4537
▁bully	-4538
▁coach	-4539
▁habit	-4540
▁noise	-4541
▁nurse	-4542
▁donate	-4543
▁guilty	-4544
▁pharma	-4545
▁ancient	-4546
▁earning	-4547
▁graphic	-4548
▁designer	-4549
▁incompet	-4550
▁specialist	-4551
▁acknowledge	-4552
500	-4553
che	-4554
iary	-4555
oing	-4556
▁piz	-4557
▁wik	-4558
andal	-4559
ciple	-4560
otein	-4561
▁bath	-4562
▁angry	-4563
▁crack	-4564
▁drone	-4565
▁occup	-4566
▁split	-4567
▁treas	-4568
▁circum	-4569
▁depart	-4570
▁entity	-4571
▁regime	-4572
▁unsure	-4573
▁clarify	-4574
▁nowhere	-4575
▁publish	-4576
▁advanced	-4577
▁describe	-4578
▁discover	-4579
▁premadasa	-4580
▁reference	-4581
22	-4582
▁au	-4583
iety	-4584
look	-4585
▁hnd	-4586
▁hust	-4587
▁meme	-4588
▁spec	-4589
▁tear	-4590
▁dance	-4591
▁herit	-4592
▁minor	-4593
▁panel	-4594
▁sugar	-4595
itation	-4596
ography	-4597
▁harsha	-4598
ervation	-4599
▁cabinet	-4600
▁pattern	-4601
▁mountain	-4602
▁remotely	-4603
▁elsewhere	-4604
▁encounter	-4605
▁everybody	-4606
▁qualified	-4607
▁socialism	-4608
▁revolution	-4609
▁hack	-4610
▁hero	-4611
▁mode	-4612
▁adapt	-4613
▁crash	-4614
▁lgbtq	-4615
▁screw	-4616
▁colour	-4617
▁biology	-4618
▁fashion	-4619
▁wealthy	-4620
▁mentally	-4621
▁starlink	-4622
▁immediate	-4623
▁immigrant	-4624
▁capitalism	-4625
▁psychology	-4626
▁retirement	-4627
▁installment	-4628
▁recognition	-4629
ca	-4630
fa	-4631
vt	-4632
ley	-4633
▁dy	-4634
city	-4635
▁ali	-4636
▁hal	-4637
▁bite	-4638
▁lmao	-4639
▁pett	-4640
▁affili	-4641
▁dealer	-4642
▁enable	-4643
▁equity	-4644
▁ongoing	-4645
▁roughly	-4646
▁proposal	-4647
▁principle	-4648
▁collection	-4649
▁agriculture	-4650
▁participate	-4651
▁progressive	-4652
for	-4653
▁jr	-4654
goda	-4655
▁dil	-4656
▁bent	-4657
▁empt	-4658
▁lake	-4659
▁badly	-4660
▁diagn	-4661
▁error	-4662
▁shall	-4663
▁tight	-4664
▁battle	-4665
▁formal	-4666
▁retail	-4667
▁reward	-4668
▁eastern	-4669
▁excited	-4670
▁utility	-4671
▁director	-4672
▁donation	-4673
▁exposure	-4674
▁admission	-4675
▁behaviour	-4676
▁psychiatrist	-4677
ja	-4678
vere	-4679
whel	-4680
▁inj	-4681
▁camb	-4682
▁alive	-4683
▁sweet	-4684
▁friday	-4685
▁century	-4686
▁funding	-4687
▁podcast	-4688
▁protein	-4689
▁selfish	-4690
▁succeed	-4691
▁difficulty	-4692
▁supermarket	-4693
lock	-4694
otic	-4695
uate	-4696
▁198	-4697
▁hnb	-4698
▁ird	-4699
itual	-4700
night	-4701
▁dear	-4702
▁riot	-4703
iction	-4704
▁boost	-4705
▁gotab	-4706
▁motiv	-4707
▁scoot	-4708
▁stack	-4709
▁presence	-4710
▁southern	-4711
▁personality	-4712
cl	-4713
csl	-4714
ira	-4715
free	-4716
lown	-4717
▁600	-4718
▁aus	-4719
▁mut	-4720
▁sir	-4721
awala	-4722
class	-4723
▁cima	-4724
▁farm	-4725
▁grad	-4726
▁hikk	-4727
▁leaf	-4728
▁earth	-4729
ivalent	-4730
▁upload	-4731
▁wallet	-4732
▁anxiety	-4733
▁continu	-4734
▁analysis	-4735
▁starting	-4736
▁breakfast	-4737
▁importantly	-4738
▁isp	-4739
▁adam	-4740
▁boom	-4741
▁mald	-4742
▁mill	-4743
▁pray	-4744
worthy	-4745
▁accom	-4746
▁empty	-4747
▁shape	-4748
▁shout	-4749
▁accent	-4750
▁instru	-4751
▁recovery	-4752
▁christian	-4753
▁translate	-4754
▁restructure	-4755
▁circumstance	-4756
▁conservative	-4757
▁automatically	-4758
my	-4759
asc	-4760
ppy	-4761
rain	-4762
▁laz	-4763
▁mba	-4764
▁msc	-4765
▁wij	-4766
owder	-4767
▁sens	-4768
▁uncom	-4769
ittance	-4770
▁artist	-4771
▁escape	-4772
▁committ	-4773
▁fitness	-4774
▁predict	-4775
▁canadian	-4776
▁industrial	-4777
▁appreciated	-4778
▁economically	-4779
flo	-4780
▁yo	-4781
▁aid	-4782
▁beg	-4783
▁len	-4784
ander	-4785
esome	-4786
▁asap	-4787
▁fulf	-4788
▁isol	-4789
▁femin	-4790
▁unity	-4791
▁behave	-4792
▁holder	-4793
▁accurate	-4794
▁allocate	-4795
▁creative	-4796
▁decrease	-4797
▁heritage	-4798
▁amendment	-4799
▁hikkaduwa	-4800
▁naturally	-4801
▁realistic	-4802
▁equivalent	-4803
▁mathematic	-4804
▁remittance	-4805
adu	-4806
exp	-4807
ino	-4808
▁ash	-4809
▁beh	-4810
irect	-4811
ridge	-4812
ruary	-4813
▁2026	-4814
▁brut	-4815
▁loop	-4816
lusive	-4817
▁pizza	-4818
▁incent	-4819
▁openly	-4820
▁visible	-4821
▁coverage	-4822
▁assignment	-4823
▁manufacture	-4824
▁potentially	-4825
▁technically	-4826
edy	-4827
sas	-4828
uru	-4829
▁32	-4830
▁56	-4831
▁mc	-4832
wala	-4833
▁owe	-4834
rical	-4835
▁virt	-4836
lation	-4837
▁react	-4838
▁beauty	-4839
▁corner	-4840
▁insult	-4841
▁surely	-4842
▁counsel	-4843
▁privacy	-4844
▁scooter	-4845
▁pandemic	-4846
▁christmas	-4847
▁meaningful	-4848
dem	-4849
has	-4850
▁65	-4851
roid	-4852
▁drag	-4853
▁10000	-4854
▁burea	-4855
▁chand	-4856
▁hesit	-4857
▁inher	-4858
▁meter	-4859
▁micro	-4860
▁optim	-4861
awatuna	-4862
▁purely	-4863
▁awesome	-4864
▁overwhel	-4865
▁clearance	-4866
tic	-4867
wide	-4868
▁800	-4869
▁bid	-4870
▁gri	-4871
▁tol	-4872
floor	-4873
known	-4874
price	-4875
▁bias	-4876
inform	-4877
▁clown	-4878
▁crook	-4879
▁elder	-4880
▁italy	-4881
▁veget	-4882
▁assess	-4883
▁rating	-4884
▁scenic	-4885
▁impress	-4886
▁pricing	-4887
▁reading	-4888
▁violent	-4889
▁whereas	-4890
▁allegation	-4891
▁innovation	-4892
▁officially	-4893
▁combination	-4894
14	-4895
ali	-4896
elam	-4897
▁bow	-4898
▁tok	-4899
▁uae	-4900
▁buff	-4901
▁dual	-4902
▁fant	-4903
▁dutch	-4904
▁moral	-4905
▁paint	-4906
▁recip	-4907
▁africa	-4908
▁excess	-4909
▁hustle	-4910
▁privat	-4911
▁pathway	-4912
▁audience	-4913
▁convenient	-4914
▁experienced	-4915
▁availability	-4916
▁organisation	-4917
fp	-4918
lor	-4919
ula	-4920
ette	-4921
cipal	-4922
▁boot	-4923
▁exha	-4924
▁flood	-4925
▁determ	-4926
▁extrem	-4927
▁lovely	-4928
▁pettah	-4929
▁tangalle	-4930
▁uncomfort	-4931
▁electrical	-4932
▁entertainment	-4933
gu	-4934
icit	-4935
mate	-4936
unic	-4937
▁lif	-4938
▁pad	-4939
▁vet	-4940
olish	-4941
▁desk	-4942
▁hype	-4943
▁icbt	-4944
▁pair	-4945
▁indeed	-4946
▁udawal	-4947
▁viable	-4948
ropriate	-4949
▁asshole	-4950
▁consume	-4951
▁exhaust	-4952
▁railway	-4953
▁february	-4954
▁globally	-4955
▁secretary	-4956
▁prioritize	-4957
yi	-4958
▁55	-4959
resh	-4960
▁cmb	-4961
▁hob	-4962
▁jav	-4963
▁uns	-4964
cious	-4965
house	-4966
▁buck	-4967
▁lion	-4968
▁wing	-4969
charge	-4970
▁glass	-4971
uration	-4972
▁excell	-4973
▁explan	-4974
▁distrib	-4975
▁kingdom	-4976
▁rolling	-4977
▁trigger	-4978
▁flexible	-4979
▁criticize	-4980
▁compensation	-4981
▁successfully	-4982
hn	-4983
pu	-4984
zz	-4985
▁bm	-4986
ache	-4987
atha	-4988
▁pic	-4989
▁rug	-4990
▁rum	-4991
onent	-4992
▁cave	-4993
▁feas	-4994
▁lazy	-4995
▁tort	-4996
▁vast	-4997
lusion	-4998
▁harsh	-4999
▁keell	-5000
▁overt	-5001
▁prison	-5002
▁advisor	-5003
▁victory	-5004
▁pharmacy	-5005
▁allowance	-5006
▁broadband	-5007
▁traveller	-5008
▁unawatuna	-5009
▁supportive	-5010
▁transition	-5011
▁replacement	-5012
16	-5013
ux	-5014
gen	-5015
nel	-5016
bble	-5017
omen	-5018
reep	-5019
ssor	-5020
erous	-5021
▁korea	-5022
▁kottu	-5023
▁maith	-5024
▁mouth	-5025
▁rapid	-5026
ternoon	-5027
yearold	-5028
▁border	-5029
aranaike	-5030
▁consent	-5031
▁setting	-5032
▁disaster	-5033
▁favorite	-5034
▁sentiment	-5035
▁accounting	-5036
▁depreciate	-5037
▁manipulate	-5038
▁rajapaksas	-5039
▁emotionally	-5040
xy	-5041
laug	-5042
shop	-5043
shot	-5044
▁ham	-5045
▁ren	-5046
▁tor	-5047
▁voc	-5048
build	-5049
▁cath	-5050
▁dism	-5051
▁evil	-5052
▁shad	-5053
▁warm	-5054
▁breat	-5055
▁embar	-5056
▁hindu	-5057
▁intel	-5058
▁quant	-5059
▁scope	-5060
▁smell	-5061
▁delete	-5062
▁expend	-5063
▁assault	-5064
▁opening	-5065
▁warning	-5066
▁navigate	-5067
▁unlikely	-5068
▁recognise	-5069
▁statistic	-5070
▁punishment	-5071
▁architecture	-5072
▁uncomfortable	-5073
90	-5074
arm	-5075
▁95	-5076
▁ed	-5077
arat	-5078
ased	-5079
ging	-5080
iled	-5081
antic	-5082
ublic	-5083
▁dehi	-5084
▁wire	-5085
▁award	-5086
▁eelam	-5087
▁media	-5088
▁module	-5089
▁artific	-5090
▁bombing	-5091
▁eligible	-5092
▁afternoon	-5093
▁overprice	-5094
▁nationalist	-5095
▁necessarily	-5096
18	-5097
dr	-5098
vy	-5099
see	-5100
aker	-5101
flow	-5102
word	-5103
▁abt	-5104
▁nep	-5105
▁was	-5106
otism	-5107
ourse	-5108
▁defe	-5109
▁stem	-5110
nament	-5111
▁demon	-5112
▁fruit	-5113
▁royal	-5114
▁spare	-5115
eration	-5116
▁100000	-5117
▁german	-5118
▁outlet	-5119
▁sovere	-5120
▁observe	-5121
▁regional	-5122
▁sentence	-5123
▁workforce	-5124
▁bandaranaike	-5125
45	-5126
hus	-5127
▁ya	-5128
edia	-5129
odge	-5130
▁gpa	-5131
gment	-5132
▁gram	-5133
▁loyal	-5134
▁plate	-5135
▁polon	-5136
▁pride	-5137
▁utter	-5138
▁behalf	-5139
▁stabil	-5140
▁urgent	-5141
▁wanted	-5142
▁parking	-5143
▁venture	-5144
ationally	-5145
▁northern	-5146
▁regulate	-5147
▁semester	-5148
▁principal	-5149
▁afterwards	-5150
▁assistance	-5151
▁consistent	-5152
▁surprising	-5153
mn	-5154
dly	-5155
ken	-5156
▁gh	-5157
iber	-5158
▁197	-5159
▁ast	-5160
▁cer	-5161
▁fyi	-5162
▁jer	-5163
▁mir	-5164
inent	-5165
scape	-5166
▁flat	-5167
▁brief	-5168
▁monet	-5169
▁pleas	-5170
▁farmer	-5171
▁insist	-5172
▁powder	-5173
▁alright	-5174
▁torture	-5175
▁variety	-5176
▁waiting	-5177
▁distract	-5178
▁parttime	-5179
▁disconnect	-5180
▁frustration	-5181
100	-5182
ont	-5183
ahap	-5184
ilet	-5185
soon	-5186
▁ing	-5187
logic	-5188
urday	-5189
▁chip	-5190
▁niss	-5191
▁stor	-5192
▁activ	-5193
▁andor	-5194
▁subst	-5195
▁defeat	-5196
▁locate	-5197
▁suburb	-5198
▁writing	-5199
▁backpack	-5200
▁publicly	-5201
▁telegram	-5202
▁cambridge	-5203
▁dependent	-5204
▁impression	-5205
▁depreciation	-5206
she	-5207
athy	-5208
gala	-5209
ield	-5210
▁kal	-5211
▁mel	-5212
▁rav	-5213
▁sav	-5214
iracy	-5215
▁haha	-5216
▁pill	-5217
▁soul	-5218
singhe	-5219
▁advoc	-5220
▁buyer	-5221
▁cater	-5222
▁creep	-5223
▁ultra	-5224
▁toilet	-5225
▁aggress	-5226
▁defense	-5227
▁ignorant	-5228
▁correctly	-5229
▁landscape	-5230
▁disgusting	-5231
▁efficiency	-5232
▁tournament	-5233
▁differently	-5234
▁practically	-5235
▁contribution	-5236
gi	-5237
oor	-5238
▁cb	-5239
husi	-5240
onda	-5241
▁nib	-5242
▁brow	-5243
▁cake	-5244
▁coin	-5245
▁hole	-5246
ishing	-5247
▁chief	-5248
▁times	-5249
▁trcsl	-5250
▁allege	-5251
▁bloody	-5252
▁emphas	-5253
▁russia	-5254
friendly	-5255
istically	-5256
▁activate	-5257
▁literacy	-5258
▁competent	-5259
▁framework	-5260
▁incentive	-5261
▁softlogic	-5262
▁terrorism	-5263
▁udawalawe	-5264
▁friendship	-5265
▁internationally	-5266
eve	-5267
▁33	-5268
agon	-5269
ando	-5270
itha	-5271
lead	-5272
▁alt	-5273
▁hig	-5274
▁som	-5275
astic	-5276
▁grid	-5277
▁hung	-5278
▁tank	-5279
▁vary	-5280
naruwa	-5281
▁appre	-5282
▁cheat	-5283
▁merit	-5284
▁clinic	-5285
▁resist	-5286
▁snorke	-5287
▁charity	-5288
▁enthusi	-5289
▁tension	-5290
▁downvote	-5291
▁saturday	-5292
▁adventure	-5293
▁discourage	-5294
▁explanation	-5295
mi	-5296
no	-5297
gle	-5298
vis	-5299
case	-5300
door	-5301
▁nil	-5302
▁vit	-5303
▁cart	-5304
▁keen	-5305
▁mbps	-5306
▁integ	-5307
▁oblig	-5308
▁phase	-5309
▁rally	-5310
▁rugby	-5311
▁slave	-5312
▁yahap	-5313
▁desire	-5314
▁palest	-5315
▁hotline	-5316
▁sharing	-5317
▁strange	-5318
▁worship	-5319
▁prospect	-5320
▁restrict	-5321
▁happiness	-5322
▁investigate	-5323
▁subscription	-5324
▁nt	-5325
away	-5326
laim	-5327
ript	-5328
rise	-5329
▁bin	-5330
▁kot	-5331
▁pfc	-5332
world	-5333
▁aunt	-5334
▁heal	-5335
▁jack	-5336
▁john	-5337
▁mere	-5338
▁muse	-5339
▁prab	-5340
▁slfp	-5341
▁slip	-5342
▁buddy	-5343
▁chaos	-5344
▁pregn	-5345
▁stray	-5346
▁addict	-5347
▁define	-5348
▁exceed	-5349
▁instal	-5350
▁orient	-5351
▁embarra	-5352
▁maldive	-5353
▁monsoon	-5354
▁scratch	-5355
▁catholic	-5356
▁feasible	-5357
▁fulltime	-5358
▁textbook	-5359
▁communist	-5360
▁determine	-5361
▁necessity	-5362
▁involvement	-5363
mm	-5364
educ	-5365
irty	-5366
▁sib	-5367
▁tag	-5368
▁uom	-5369
itter	-5370
▁2009	-5371
▁coll	-5372
▁diet	-5373
▁dise	-5374
▁forg	-5375
▁lend	-5376
▁ring	-5377
▁tact	-5378
colate	-5379
▁expat	-5380
▁freak	-5381
▁hobby	-5382
▁niche	-5383
ugegoda	-5384
▁cancer	-5385
▁higher	-5386
▁minded	-5387
▁portal	-5388
▁android	-5389
▁classic	-5390
▁commute	-5391
▁contest	-5392
▁cooking	-5393
▁crucial	-5394
▁mislead	-5395
▁related	-5396
▁transit	-5397
▁hardware	-5398
▁chocolate	-5399
▁committee	-5400
▁depressed	-5401
▁primarily	-5402
▁professor	-5403
▁frequently	-5404
▁politically	-5405
▁polonnaruwa	-5406
▁manufacturer	-5407
23	-5408
si	-5409
▁ත	-5410
aik	-5411
lix	-5412
net	-5413
▁uc	-5414
ised	-5415
▁hir	-5416
▁soc	-5417
eapon	-5418
▁exer	-5419
▁furn	-5420
▁peer	-5421
▁fraud	-5422
▁sheet	-5423
▁venue	-5424
▁bubble	-5425
▁buffet	-5426
▁earner	-5427
▁benefic	-5428
▁deficit	-5429
▁disturb	-5430
▁learner	-5431
▁storage	-5432
▁acceptable	-5433
▁disrespect	-5434
▁association	-5435
▁complicated	-5436
▁effectively	-5437
▁expenditure	-5438
ns	-5439
box	-5440
gage	-5441
▁hsb	-5442
▁raw	-5443
▁rub	-5444
prise	-5445
raine	-5446
urang	-5447
▁came	-5448
▁gear	-5449
▁mira	-5450
▁nibm	-5451
▁rein	-5452
stream	-5453
▁aband	-5454
▁cerem	-5455
▁grind	-5456
▁honda	-5457
▁spark	-5458
▁capita	-5459
▁mirror	-5460
▁museum	-5461
▁solely	-5462
▁bentota	-5463
▁disease	-5464
▁ethical	-5465
▁licence	-5466
▁analytic	-5467
▁indicate	-5468
▁affiliate	-5469
▁enterprise	-5470
▁membership	-5471
▁profitable	-5472
▁trustworthy	-5473
vin	-5474
core	-5475
ones	-5476
uber	-5477
▁fry	-5478
▁oce	-5479
dated	-5480
▁1500	-5481
▁caut	-5482
▁ease	-5483
▁mism	-5484
▁symb	-5485
▁nepal	-5486
▁rainy	-5487
▁stead	-5488
▁intake	-5489
▁monkey	-5490
▁silent	-5491
▁weapon	-5492
▁largely	-5493
▁pension	-5494
▁yahapal	-5495
▁gotabaya	-5496
▁strongly	-5497
▁swimming	-5498
▁treasury	-5499
▁ownership	-5500
▁permission	-5501
▁sufficient	-5502
▁parliamentary	-5503
kw	-5504
rog	-5505
bery	-5506
east	-5507
urve	-5508
▁unt	-5509
etime	-5510
itate	-5511
osity	-5512
tical	-5513
▁2010	-5514
▁flav	-5515
▁hsbc	-5516
romise	-5517
▁divid	-5518
▁escal	-5519
▁malay	-5520
▁smoke	-5521
▁hardly	-5522
▁hatred	-5523
▁mature	-5524
iliation	-5525
▁abandon	-5526
▁inspire	-5527
▁onwards	-5528
▁cautious	-5529
▁exercise	-5530
▁midnight	-5531
▁nugegoda	-5532
▁opportun	-5533
▁republic	-5534
▁component	-5535
▁introvert	-5536
▁privately	-5537
▁vaccinate	-5538
▁compromise	-5539
▁specialize	-5540
bie	-5541
ipt	-5542
▁ft	-5543
▁vp	-5544
asty	-5545
wash	-5546
▁fur	-5547
▁ord	-5548
▁otp	-5549
▁unw	-5550
▁vul	-5551
ailed	-5552
cling	-5553
erion	-5554
▁dent	-5555
▁fert	-5556
▁mort	-5557
▁neut	-5558
laughe	-5559
▁frank	-5560
▁honey	-5561
▁incon	-5562
▁kelan	-5563
▁ocean	-5564
▁regul	-5565
▁token	-5566
ference	-5567
▁amazon	-5568
▁apolog	-5569
▁ayurve	-5570
▁trauma	-5571
▁equally	-5572
▁inflate	-5573
▁sibling	-5574
▁therapy	-5575
▁twitter	-5576
▁outdated	-5577
▁criterion	-5578
▁excellent	-5579
▁perfectly	-5580
▁uncertain	-5581
▁comfortably	-5582
▁corporation	-5583
pi	-5584
▁85	-5585
▁nd	-5586
▁rh	-5587
aram	-5588
iser	-5589
sman	-5590
▁cos	-5591
▁lag	-5592
▁tap	-5593
▁2016	-5594
▁bird	-5595
▁java	-5596
▁unus	-5597
angama	-5598
relate	-5599
▁awful	-5600
▁shirt	-5601
▁spice	-5602
▁derana	-5603
▁expire	-5604
▁french	-5605
▁golden	-5606
▁overth	-5607
▁relief	-5608
▁supreme	-5609
▁collabor	-5610
▁reputable	-5611
▁harassment	-5612
▁consumption	-5613
89	-5614
gl	-5615
▁gf	-5616
cont	-5617
iter	-5618
▁195	-5619
▁gaz	-5620
▁pvt	-5621
ophob	-5622
▁flee	-5623
▁goon	-5624
▁mini	-5625
▁obse	-5626
▁util	-5627
▁50000	-5628
▁alert	-5629
▁audit	-5630
▁bless	-5631
▁esoft	-5632
▁thief	-5633
▁backup	-5634
▁burger	-5635
▁diesel	-5636
▁matara	-5637
▁perera	-5638
▁shower	-5639
▁analyst	-5640
▁gateway	-5641
▁perfume	-5642
▁quarter	-5643
▁receipt	-5644
▁abortion	-5645
▁deadline	-5646
▁detailed	-5647
▁importer	-5648
▁taxation	-5649
▁stressful	-5650
▁wonderful	-5651
▁attractive	-5652
▁strengthen	-5653
▁convenience	-5654
▁resignation	-5655
13	-5656
75	-5657
hib	-5658
uit	-5659
▁py	-5660
erce	-5661
onym	-5662
paid	-5663
▁aka	-5664
▁ego	-5665
▁pix	-5666
archy	-5667
inter	-5668
▁cham	-5669
▁fern	-5670
▁lone	-5671
▁pera	-5672
erable	-5673
itchen	-5674
opular	-5675
▁cable	-5676
▁whale	-5677
▁filter	-5678
▁nissan	-5679
▁abolish	-5680
▁bureauc	-5681
▁customs	-5682
▁inspect	-5683
▁painful	-5684
▁superior	-5685
▁satisfied	-5686
▁waterfall	-5687
▁interaction	-5688
▁nationalism	-5689
▁representative	-5690
sto	-5691
zen	-5692
comm	-5693
head	-5694
▁ble	-5695
▁ceo	-5696
▁ally	-5697
▁atro	-5698
▁flaw	-5699
▁tone	-5700
▁viet	-5701
▁bound	-5702
▁bread	-5703
▁jayaw	-5704
▁wikip	-5705
erately	-5706
▁tactic	-5707
▁kitchen	-5708
▁motorcy	-5709
▁servant	-5710
▁alliance	-5711
▁indirect	-5712
▁randomly	-5713
▁romantic	-5714
▁environmental	-5715
yy	-5716
ham	-5717
▁kg	-5718
sper	-5719
▁bee	-5720
▁cus	-5721
▁kur	-5722
▁las	-5723
▁reb	-5724
▁wil	-5725
ceive	-5726
chool	-5727
front	-5728
▁1015	-5729
▁2017	-5730
▁coop	-5731
▁mail	-5732
▁nadu	-5733
▁scan	-5734
▁stea	-5735
▁thor	-5736
rovers	-5737
▁drunk	-5738
▁incor	-5739
▁joint	-5740
▁newly	-5741
▁ratio	-5742
▁snack	-5743
▁spect	-5744
▁surge	-5745
▁worst	-5746
▁latter	-5747
▁praise	-5748
▁disrupt	-5749
▁exclude	-5750
▁neutral	-5751
▁routine	-5752
▁numerous	-5753
▁prescribe	-5754
▁wikipedia	-5755
▁capability	-5756
▁capitalist	-5757
▁conclusion	-5758
▁appropriate	-5759
▁hospitality	-5760
▁confirmation	-5761
▁consideration	-5762
48	-5763
af	-5764
mpt	-5765
tch	-5766
ush	-5767
▁jk	-5768
▁ml	-5769
ease	-5770
flix	-5771
▁dan	-5772
▁soo	-5773
print	-5774
▁arab	-5775
▁sand	-5776
▁tail	-5777
▁ucsc	-5778
▁urge	-5779
arency	-5780
▁patri	-5781
▁pilot	-5782
facepal	-5783
▁manife	-5784
▁monday	-5785
▁mosque	-5786
▁states	-5787
▁sunset	-5788
▁thrive	-5789
▁socalle	-5790
▁advocate	-5791
▁somebody	-5792
▁departure	-5793
▁investing	-5794
▁separately	-5795
▁unemployed	-5796
▁achievement	-5797
▁enforcement	-5798
▁examination	-5799
▁programming	-5800
▁consistently	-5801
26	-5802
hr	-5803
abe	-5804
oom	-5805
▁hap	-5806
isine	-5807
vable	-5808
▁dump	-5809
▁exit	-5810
▁hamb	-5811
▁myth	-5812
▁afaik	-5813
▁forum	-5814
▁hypoc	-5815
▁swear	-5816
cession	-5817
diction	-5818
▁fortun	-5819
▁narrow	-5820
▁widely	-5821
▁univers	-5822
▁vacancy	-5823
▁visitor	-5824
▁dividend	-5825
▁monetary	-5826
▁touristy	-5827
▁protestor	-5828
▁repayment	-5829
▁transparency	-5830
ox	-5831
ila	-5832
inf	-5833
uct	-5834
uls	-5835
▁wf	-5836
ilst	-5837
used	-5838
xist	-5839
▁kad	-5840
▁tsh	-5841
▁ugc	-5842
agger	-5843
inder	-5844
▁fare	-5845
▁mora	-5846
▁peep	-5847
▁prol	-5848
▁tier	-5849
icycle	-5850
▁anger	-5851
▁armed	-5852
▁landl	-5853
▁penal	-5854
▁pixel	-5855
▁radio	-5856
▁skull	-5857
▁kindly	-5858
▁legend	-5859
▁reside	-5860
▁whilst	-5861
▁cuisine	-5862
▁subsidy	-5863
▁dehiwala	-5864
▁inconven	-5865
▁americans	-5866
▁carefully	-5867
▁extension	-5868
▁unpopular	-5869
▁controvers	-5870
▁graduation	-5871
▁literature	-5872
ms	-5873
ilt	-5874
▁07	-5875
▁om	-5876
enna	-5877
▁2500	-5878
▁cell	-5879
▁jeal	-5880
▁meat	-5881
▁nine	-5882
▁pron	-5883
▁salt	-5884
▁symp	-5885
▁tatt	-5886
▁thug	-5887
itable	-5888
lement	-5889
▁merch	-5890
▁resid	-5891
▁scold	-5892
▁stone	-5893
aration	-5894
quality	-5895
▁colomb	-5896
▁liquid	-5897
▁racial	-5898
▁bracket	-5899
▁capture	-5900
▁selling	-5901
▁trainer	-5902
▁diagnose	-5903
▁governor	-5904
▁economist	-5905
▁accessible	-5906
▁importance	-5907
▁vaccination	-5908
ax	-5909
ba	-5910
gy	-5911
▁fk	-5912
bike	-5913
ella	-5914
xual	-5915
▁lap	-5916
▁mit	-5917
▁nov	-5918
▁suv	-5919
▁airb	-5920
▁edge	-5921
▁gent	-5922
▁pump	-5923
opolit	-5924
▁forth	-5925
▁judic	-5926
▁panic	-5927
▁quota	-5928
▁basket	-5929
▁pickup	-5930
▁reconc	-5931
▁tshirt	-5932
▁uneduc	-5933
▁handout	-5934
▁indones	-5935
▁leasing	-5936
▁mandate	-5937
▁netflix	-5938
▁stretch	-5939
▁fernando	-5940
▁alongside	-5941
▁construct	-5942
▁gradually	-5943
▁misinform	-5944
▁purchasing	-5945
▁translation	-5946
hh	-5947
wan	-5948
▁je	-5949
▁yr	-5950
acle	-5951
rish	-5952
some	-5953
▁bun	-5954
▁kat	-5955
check	-5956
ongue	-5957
umble	-5958
value	-5959
▁eval	-5960
▁iran	-5961
▁magn	-5962
▁swap	-5963
▁enrol	-5964
▁cringe	-5965
▁easier	-5966
▁fluent	-5967
▁offend	-5968
▁provin	-5969
▁repute	-5970
▁apology	-5971
▁farming	-5972
▁footage	-5973
▁jealous	-5974
▁equality	-5975
▁escalate	-5976
▁landlord	-5977
▁logistic	-5978
▁assistant	-5979
▁scientist	-5980
▁sensitive	-5981
▁transform	-5982
▁vegetable	-5983
▁screenshot	-5984
▁neighborhood	-5985
▁approximately	-5986
▁establishment	-5987
▁reconciliation	-5988
ih	-5989
eye	-5990
led	-5991
oly	-5992
reh	-5993
aint	-5994
edly	-5995
▁fds	-5996
▁rul	-5997
▁ske	-5998
▁wfh	-5999
mptom	-6000
payer	-6001
▁cast	-6002
▁euro	-6003
▁mock	-6004
▁porn	-6005
akaran	-6006
lessly	-6007
▁hyper	-6008
▁silva	-6009
▁upset	-6010
vention	-6011
▁litter	-6012
▁misuse	-6013
▁output	-6014
▁prosec	-6015
▁reluct	-6016
▁acquire	-6017
▁bicycle	-6018
▁certify	-6019
▁discord	-6020
▁macbook	-6021
▁maithri	-6022
▁reverse	-6023
▁symptom	-6024
▁vietnam	-6025
▁interior	-6026
▁kelaniya	-6027
▁pathetic	-6028
▁wickreme	-6029
▁embarrass	-6030
▁extremist	-6031
▁beneficial	-6032
▁frustrated	-6033
▁instrument	-6034
▁motorcycle	-6035
▁occasional	-6036
▁description	-6037
▁observation	-6038
▁documentation	-6039
▁realistically	-6040
law	-6041
▁mm	-6042
aken	-6043
grat	-6044
▁asw	-6045
▁hrs	-6046
▁hub	-6047
▁jet	-6048
▁3000	-6049
▁anim	-6050
▁medi	-6051
▁perk	-6052
▁phil	-6053
▁ping	-6054
▁temu	-6055
▁thin	-6056
ancest	-6057
source	-6058
▁crush	-6059
▁moron	-6060
▁popul	-6061
▁vague	-6062
apitiya	-6063
▁anonym	-6064
▁recipe	-6065
▁volume	-6066
▁hearing	-6067
▁ahangama	-6068
▁chemical	-6069
▁overtake	-6070
▁reaction	-6071
▁countless	-6072
▁increment	-6073
▁legitimate	-6074
▁originally	-6075
▁provincial	-6076
▁suspicious	-6077
▁unfortunate	-6078
17	-6079
35	-6080
ti	-6081
vo	-6082
yr	-6083
ave	-6084
cur	-6085
iny	-6086
uty	-6087
▁oya	-6088
redit	-6089
▁2030	-6090
▁coal	-6091
▁elim	-6092
▁slap	-6093
▁span	-6094
▁ward	-6095
verter	-6096
▁dirty	-6097
▁enemy	-6098
▁honor	-6099
▁unpro	-6100
itarian	-6101
▁bright	-6102
▁mentor	-6103
▁steady	-6104
▁compreh	-6105
▁defence	-6106
▁bathroom	-6107
▁nepotism	-6108
▁operator	-6109
▁stranger	-6110
▁taxpayer	-6111
▁boyfriend	-6112
▁bankruptcy	-6113
▁respectful	-6114
▁supplement	-6115
aa	-6116
di	-6117
xx	-6118
omy	-6119
tel	-6120
esth	-6121
inct	-6122
itar	-6123
▁evs	-6124
▁gmo	-6125
iform	-6126
oneer	-6127
▁emig	-6128
▁more	-6129
▁comes	-6130
▁draft	-6131
▁dynam	-6132
▁furth	-6133
▁overs	-6134
▁postp	-6135
▁rider	-6136
emption	-6137
▁empire	-6138
▁fertil	-6139
▁freely	-6140
▁hungry	-6141
▁lonely	-6142
▁parcel	-6143
▁portug	-6144
▁scream	-6145
▁tattoo	-6146
▁vulner	-6147
▁congrat	-6148
▁crowded	-6149
▁disable	-6150
▁dismiss	-6151
▁qualify	-6152
▁silence	-6153
▁countrys	-6154
▁mechanic	-6155
▁payoneer	-6156
▁substant	-6157
▁mismanage	-6158
▁residence	-6159
▁streaming	-6160
▁assessment	-6161
▁incompetent	-6162
▁dictatorship	-6163
▁verification	-6164
▁wickremesinghe	-6165
cu	-6166
sf	-6167
aid	-6168
ami	-6169
car	-6170
sth	-6171
top	-6172
▁tf	-6173
anna	-6174
hera	-6175
ouch	-6176
race	-6177
▁bcz	-6178
▁gce	-6179
▁vpn	-6180
▁bruh	-6181
▁gamp	-6182
▁navy	-6183
▁pace	-6184
ductor	-6185
ounder	-6186
▁champ	-6187
▁exper	-6188
▁grass	-6189
▁legis	-6190
▁steam	-6191
station	-6192
▁ancest	-6193
▁evolve	-6194
▁making	-6195
▁symbol	-6196
▁temper	-6197
▁yellow	-6198
▁bedroom	-6199
▁creator	-6200
▁liberty	-6201
▁uniform	-6202
▁violate	-6203
▁contrast	-6204
▁duration	-6205
▁geopolit	-6206
▁initiate	-6207
▁expertise	-6208
▁instruction	-6209
33	-6210
eem	-6211
gre	-6212
ader	-6213
sion	-6214
stay	-6215
▁boc	-6216
▁cig	-6217
▁gut	-6218
▁und	-6219
araja	-6220
itten	-6221
orate	-6222
▁2014	-6223
▁bout	-6224
▁roof	-6225
ateral	-6226
spaper	-6227
▁ethic	-6228
▁ghost	-6229
▁metal	-6230
▁plane	-6231
▁plead	-6232
▁rumor	-6233
▁shady	-6234
▁shake	-6235
▁assass	-6236
▁assure	-6237
▁brutal	-6238
▁excite	-6239
▁height	-6240
▁integr	-6241
▁league	-6242
▁resume	-6243
▁script	-6244
stically	-6245
▁courier	-6246
▁workout	-6247
▁headache	-6248
▁ordinary	-6249
▁overcome	-6250
▁manifesto	-6251
▁newspaper	-6252
▁secondary	-6253
▁productive	-6254
oko	-6255
sen	-6256
uba	-6257
ype	-6258
▁ko	-6259
erge	-6260
fire	-6261
spot	-6262
▁247	-6263
▁anth	-6264
▁auss	-6265
▁blah	-6266
▁curi	-6267
▁done	-6268
▁gmoa	-6269
▁hunt	-6270
▁pile	-6271
▁reck	-6272
▁shed	-6273
▁arrog	-6274
▁monop	-6275
▁perch	-6276
▁divers	-6277
▁diving	-6278
▁poster	-6279
▁stance	-6280
▁dislike	-6281
▁dynamic	-6282
▁frankly	-6283
▁boundary	-6284
▁ceremony	-6285
▁follower	-6286
▁lifetime	-6287
▁perceive	-6288
▁beginning	-6289
▁indicator	-6290
▁nightlife	-6291
▁therapist	-6292
▁violation	-6293
▁applicable	-6294
▁peacefully	-6295
▁uneducated	-6296
yo	-6297
aha	-6298
rum	-6299
▁gi	-6300
▁ui	-6301
lose	-6302
mare	-6303
▁510	-6304
▁700	-6305
▁cid	-6306
▁lon	-6307
▁mud	-6308
chain	-6309
ician	-6310
orton	-6311
▁bind	-6312
▁dust	-6313
▁lyce	-6314
▁orph	-6315
▁pear	-6316
▁plot	-6317
▁roam	-6318
▁seal	-6319
▁vent	-6320
holder	-6321
parent	-6322
▁paste	-6323
▁scary	-6324
▁swift	-6325
raction	-6326
▁broken	-6327
▁jungle	-6328
▁mutual	-6329
▁saying	-6330
▁worthy	-6331
standing	-6332
▁cycling	-6333
▁diverse	-6334
▁element	-6335
▁inherit	-6336
▁unknown	-6337
▁password	-6338
▁pregnant	-6339
▁applicant	-6340
▁integrity	-6341
▁miserable	-6342
▁nightmare	-6343
▁artificial	-6344
▁economical	-6345
▁enthusiast	-6346
▁manageable	-6347
▁celebration	-6348
▁dissanayake	-6349
▁documentary	-6350
cra	-6351
enn	-6352
sun	-6353
▁hu	-6354
acre	-6355
eeze	-6356
rary	-6357
sena	-6358
site	-6359
spir	-6360
▁dim	-6361
▁hun	-6362
▁kit	-6363
▁ssd	-6364
▁tel	-6365
▁uoc	-6366
▁wet	-6367
rator	-6368
shore	-6369
▁deed	-6370
▁desc	-6371
▁elev	-6372
▁menu	-6373
▁tack	-6374
▁zoom	-6375
▁nomad	-6376
▁sweat	-6377
▁aussie	-6378
▁detect	-6379
▁france	-6380
▁infect	-6381
▁injure	-6382
▁ladder	-6383
▁mannar	-6384
▁ritual	-6385
▁rocket	-6386
▁unreal	-6387
pointing	-6388
▁chandri	-6389
▁deliber	-6390
▁england	-6391
▁nursing	-6392
▁outdate	-6393
▁chairman	-6394
▁clinical	-6395
▁thorough	-6396
▁curiosity	-6397
▁existence	-6398
▁furniture	-6399
▁mainstream	-6400
▁transparent	-6401
▁appreciation	-6402
awn	-6403
ige	-6404
▁37	-6405
▁cd	-6406
▁lt	-6407
▁og	-6408
plus	-6409
ugee	-6410
▁350	-6411
▁aqu	-6412
▁ngo	-6413
▁ped	-6414
▁sms	-6415
aging	-6416
index	-6417
itute	-6418
order	-6419
power	-6420
score	-6421
▁abus	-6422
▁curt	-6423
▁dham	-6424
▁heck	-6425
▁pant	-6426
▁posh	-6427
▁proc	-6428
▁sooo	-6429
▁unst	-6430
▁wipe	-6431
▁20000	-6432
▁antic	-6433
▁lodge	-6434
▁novel	-6435
▁theme	-6436
▁topup	-6437
fession	-6438
ommerce	-6439
▁academ	-6440
▁emerge	-6441
▁retain	-6442
▁turtle	-6443
▁amongst	-6444
▁coastal	-6445
▁concent	-6446
▁isolate	-6447
▁miracle	-6448
▁offense	-6449
▁organic	-6450
▁outdoor	-6451
▁atrocity	-6452
▁downside	-6453
▁inverter	-6454
▁loophole	-6455
▁talented	-6456
▁timeline	-6457
▁tolerate	-6458
▁ayurvedic	-6459
▁backwards	-6460
▁eliminate	-6461
▁limitation	-6462
▁obligation	-6463
▁businessman	-6464
▁calculation	-6465
▁reliability	-6466
▁constitutional	-6467
99	-6468
bl	-6469
hz	-6470
bud	-6471
hel	-6472
hum	-6473
ius	-6474
osy	-6475
▁38	-6476
▁qr	-6477
hour	-6478
mail	-6479
safe	-6480
wood	-6481
▁dun	-6482
▁fab	-6483
▁ker	-6484
▁lem	-6485
▁ntb	-6486
▁rig	-6487
▁wow	-6488
aking	-6489
ggage	-6490
isher	-6491
▁atmo	-6492
▁bell	-6493
▁boil	-6494
▁cite	-6495
▁nope	-6496
▁them	-6497
▁wrap	-6498
▁zeal	-6499
antota	-6500
father	-6501
rition	-6502
soever	-6503
▁caste	-6504
▁coord	-6505
▁depth	-6506
▁posse	-6507
▁reloc	-6508
▁storm	-6509
▁unite	-6510
▁better	-6511
▁enroll	-6512
▁horton	-6513
▁studio	-6514
▁dispute	-6515
▁elderly	-6516
▁luggage	-6517
▁mission	-6518
▁russian	-6519
▁backhand	-6520
▁confront	-6521
▁preserve	-6522
▁socially	-6523
▁broadcast	-6524
▁conductor	-6525
▁guideline	-6526
▁motorbike	-6527
▁reduction	-6528
▁aggressive	-6529
▁appearance	-6530
▁popularity	-6531
▁whatsoever	-6532
▁negotiation	-6533
▁manufacturing	-6534
zi	-6535
asy	-6536
ida	-6537
ole	-6538
ran	-6539
▁es	-6540
heel	-6541
hill	-6542
hott	-6543
lier	-6544
orie	-6545
part	-6546
ring	-6547
stud	-6548
▁bam	-6549
▁ish	-6550
▁pir	-6551
▁wat	-6552
opard	-6553
utale	-6554
▁auto	-6555
▁dive	-6556
▁gala	-6557
▁lord	-6558
▁nail	-6559
▁plug	-6560
▁trop	-6561
▁wood	-6562
ermore	-6563
income	-6564
▁ambul	-6565
▁seems	-6566
▁yield	-6567
▁browse	-6568
▁scroll	-6569
lication	-6570
▁embrace	-6571
▁postgra	-6572
▁creation	-6573
▁frequent	-6574
▁hardship	-6575
▁optional	-6576
▁saturate	-6577
▁teenager	-6578
▁breakdown	-6579
▁migrating	-6580
▁objective	-6581
▁prominent	-6582
▁attendance	-6583
▁collective	-6584
▁conference	-6585
▁motivation	-6586
▁withdrawal	-6587
▁furthermore	-6588
▁considerable	-6589
▁continuously	-6590
▁disappointed	-6591
▁prescription	-6592
▁psychologist	-6593
▁misinformation	-6594
sey	-6595
▁78	-6596
▁ax	-6597
▁cz	-6598
attu	-6599
food	-6600
moon	-6601
rase	-6602
self	-6603
uese	-6604
▁125	-6605
▁180	-6606
▁bug	-6607
▁cul	-6608
▁yog	-6609
apter	-6610
count	-6611
endar	-6612
▁blog	-6613
▁crop	-6614
▁dine	-6615
▁doom	-6616
▁epis	-6617
▁koko	-6618
▁mask	-6619
▁tall	-6620
▁vice	-6621
▁yell	-6622
▁anime	-6623
▁mahar	-6624
▁prabh	-6625
▁theat	-6626
▁wagon	-6627
redient	-6628
▁accomp	-6629
▁airtel	-6630
▁deputy	-6631
▁format	-6632
▁inject	-6633
▁nanote	-6634
▁occupy	-6635
▁poorly	-6636
▁safely	-6637
▁silver	-6638
▁sinhal	-6639
▁square	-6640
▁wisely	-6641
▁exagger	-6642
▁gazette	-6643
▁grammar	-6644
▁playing	-6645
▁rebuild	-6646
▁refugee	-6647
▁zealand	-6648
▁activist	-6649
▁maturity	-6650
▁offshore	-6651
▁organise	-6652
▁outsider	-6653
▁postpone	-6654
▁youtuber	-6655
▁chandrika	-6656
▁ecommerce	-6657
▁liability	-6658
▁normalize	-6659
▁stabilize	-6660
▁technique	-6661
▁worldwide	-6662
▁accountant	-6663
▁ingredient	-6664
▁smartphone	-6665
▁grandparent	-6666
▁overwhelming	-6667
29	-6668
cri	-6669
eaf	-6670
equ	-6671
ers	-6672
ris	-6673
zel	-6674
zer	-6675
▁05	-6676
▁bf	-6677
etal	-6678
▁130	-6679
▁mas	-6680
▁pid	-6681
gally	-6682
matic	-6683
ottle	-6684
▁bulk	-6685
▁glor	-6686
▁hygi	-6687
▁mbbs	-6688
▁neck	-6689
▁obst	-6690
▁recy	-6691
alanda	-6692
unicip	-6693
▁arise	-6694
▁assum	-6695
▁audio	-6696
▁consp	-6697
▁domin	-6698
▁stall	-6699
▁traum	-6700
▁villa	-6701
related	-6702
▁humble	-6703
▁perpet	-6704
eriority	-6705
▁episode	-6706
▁finding	-6707
▁fulfill	-6708
▁italian	-6709
▁ukraine	-6710
▁creditor	-6711
▁haputale	-6712
▁overlook	-6713
▁overtime	-6714
▁secondly	-6715
▁extensive	-6716
▁integrate	-6717
▁mechanism	-6718
▁orphanage	-6719
▁recruiter	-6720
▁attraction	-6721
▁experiment	-6722
▁hambantota	-6723
▁portuguese	-6724
▁accordingly	-6725
▁desperately	-6726
▁drastically	-6727
▁mismanagement	-6728
27	-6729
bb	-6730
mc	-6731
etc	-6732
iff	-6733
ogy	-6734
▁ct	-6735
▁dj	-6736
▁mn	-6737
▁nz	-6738
ende	-6739
fect	-6740
▁adm	-6741
▁oly	-6742
▁soe	-6743
eness	-6744
mouth	-6745
stone	-6746
▁beer	-6747
▁devs	-6748
▁kiss	-6749
▁toll	-6750
utical	-6751
▁aesth	-6752
▁civic	-6753
▁greet	-6754
▁parad	-6755
▁scrap	-6756
▁unexp	-6757
conomic	-6758
▁airbnb	-6759
▁bucket	-6760
▁indoor	-6761
▁length	-6762
▁packet	-6763
▁blindly	-6764
▁bribery	-6765
▁leftist	-6766
ructuring	-6767
▁administ	-6768
▁monopoly	-6769
▁tropical	-6770
▁unstable	-6771
▁classmate	-6772
▁honeymoon	-6773
▁indonesia	-6774
▁contractor	-6775
▁maharagama	-6776
▁respective	-6777
▁marketplace	-6778
▁agricultural	-6779
▁inconvenience	-6780
boo	-6781
mal	-6782
▁48	-6783
▁69	-6784
▁cp	-6785
▁qa	-6786
cott	-6787
home	-6788
pher	-6789
stop	-6790
west	-6791
▁bmw	-6792
▁caf	-6793
▁cct	-6794
▁gal	-6795
▁joy	-6796
▁kil	-6797
▁pov	-6798
▁pta	-6799
amuwa	-6800
craft	-6801
ected	-6802
ities	-6803
using	-6804
wheel	-6805
▁inev	-6806
▁pers	-6807
▁ramp	-6808
▁sham	-6809
▁tent	-6810
unning	-6811
▁essay	-6812
▁hamas	-6813
▁jewel	-6814
▁layer	-6815
▁olymp	-6816
▁reset	-6817
▁creepy	-6818
▁dining	-6819
▁doable	-6820
▁nandal	-6821
▁pohott	-6822
▁tackle	-6823
▁tongue	-6824
ographer	-6825
ographic	-6826
urangala	-6827
▁hotspot	-6828
▁offence	-6829
▁rapidly	-6830
▁staying	-6831
▁surface	-6832
▁theatre	-6833
▁homophob	-6834
▁throttle	-6835
▁dedicated	-6836
▁judgement	-6837
▁outsource	-6838
▁personnel	-6839
▁sovereign	-6840
▁allocation	-6841
▁altogether	-6842
▁blockchain	-6843
▁impressive	-6844
▁instability	-6845
▁middleclass	-6846
▁disappointing	-6847
21	-6848
300	-6849
rat	-6850
sri	-6851
▁88	-6852
▁bh	-6853
aree	-6854
atta	-6855
ethe	-6856
gain	-6857
keep	-6858
mary	-6859
osis	-6860
rify	-6861
they	-6862
▁900	-6863
▁cad	-6864
▁enh	-6865
▁fup	-6866
▁pek	-6867
kward	-6868
obile	-6869
vinia	-6870
▁asus	-6871
▁begg	-6872
▁cctv	-6873
▁dign	-6874
▁dura	-6875
▁gall	-6876
▁clock	-6877
▁river	-6878
▁atmosp	-6879
▁before	-6880
▁closed	-6881
▁greedy	-6882
▁guitar	-6883
▁inland	-6884
▁kitten	-6885
▁lyceum	-6886
▁prepay	-6887
▁recall	-6888
▁sigiry	-6889
▁waving	-6890
▁demonst	-6891
▁empathy	-6892
▁enhance	-6893
▁handful	-6894
▁illness	-6895
▁immense	-6896
▁paralle	-6897
▁squeeze	-6898
▁hesitate	-6899
▁keyboard	-6900
▁leverage	-6901
▁motivate	-6902
▁outright	-6903
▁petition	-6904
▁rational	-6905
▁strategic	-6906
▁conspiracy	-6907
▁fertilizer	-6908
▁resistance	-6909
▁freelancing	-6910
▁intelligent	-6911
▁photography	-6912
▁prabhakaran	-6913
▁substantial	-6914
▁historically	-6915
▁restructuring	-6916
▁understandable	-6917
bee	-6918
aire	-6919
iest	-6920
ingu	-6921
oral	-6922
▁nah	-6923
inton	-6924
▁2008	-6925
▁abey	-6926
▁alto	-6927
▁fisc	-6928
▁maps	-6929
▁moon	-6930
aratne	-6931
ritory	-6932
▁actor	-6933
▁apiit	-6934
▁blast	-6935
▁brush	-6936
▁chunk	-6937
▁imply	-6938
▁paran	-6939
▁pekoe	-6940
▁pitch	-6941
▁stamp	-6942
▁truck	-6943
rection	-6944
usation	-6945
▁bitter	-6946
▁breach	-6947
▁gentle	-6948
▁marine	-6949
▁onsite	-6950
▁overly	-6951
▁weekly	-6952
▁abusive	-6953
▁awkward	-6954
▁cartoon	-6955
▁firstly	-6956
▁lavinia	-6957
▁municip	-6958
▁muslims	-6959
▁penalty	-6960
▁utilize	-6961
▁feminism	-6962
▁humanity	-6963
▁kindness	-6964
▁survival	-6965
▁terminal	-6966
▁exemption	-6967
▁pollution	-6968
▁protester	-6969
▁reluctant	-6970
▁similarly	-6971
▁territory	-6972
▁universal	-6973
▁conversion	-6974
▁perception	-6975
▁snorkeling	-6976
▁bureaucracy	-6977
▁inefficient	-6978
▁pidurangala	-6979
▁accidentally	-6980
▁occasionally	-6981
vi	-6982
aly	-6983
eer	-6984
met	-6985
you	-6986
▁01	-6987
▁ty	-6988
demn	-6989
jaya	-6990
kara	-6991
mine	-6992
omed	-6993
rite	-6994
▁has	-6995
▁hid	-6996
▁sme	-6997
▁yep	-6998
emote	-6999
licit	-7000
orker	-7001
▁acca	-7002
▁bust	-7003
▁dhar	-7004
▁gone	-7005
▁inqu	-7006
▁loot	-7007
▁shel	-7008
▁spam	-7009
▁thru	-7010
▁unac	-7011
laimer	-7012
▁craft	-7013
▁saree	-7014
reshold	-7015
▁button	-7016
▁flavor	-7017
▁kumara	-7018
▁liquor	-7019
▁medioc	-7020
▁prompt	-7021
▁backend	-7022
▁bargain	-7023
▁carrier	-7024
▁closely	-7025
▁compuls	-7026
▁condemn	-7027
▁federal	-7028
▁israeli	-7029
▁literal	-7030
▁logical	-7031
▁nanotek	-7032
▁outrage	-7033
▁premise	-7034
▁dominate	-7035
▁massacre	-7036
▁parallel	-7037
▁shoulder	-7038
▁sightsee	-7039
▁societal	-7040
▁tracking	-7041
▁workload	-7042
▁aesthetic	-7043
▁diversity	-7044
▁fantastic	-7045
▁illegally	-7046
▁nutrition	-7047
▁shortterm	-7048
▁spiritual	-7049
▁threshold	-7050
▁accusation	-7051
▁disclaimer	-7052
▁distribute	-7053
▁incredible	-7054
▁occupation	-7055
▁partnership	-7056
▁clarification	-7057
ii	-7058
po	-7059
bay	-7060
ipp	-7061
mma	-7062
sin	-7063
uki	-7064
▁ib	-7065
▁tn	-7066
mind	-7067
orse	-7068
quit	-7069
sher	-7070
▁few	-7071
▁ndb	-7072
▁ner	-7073
▁saw	-7074
▁spa	-7075
▁syn	-7076
▁tue	-7077
guard	-7078
hibit	-7079
liant	-7080
odate	-7081
▁4000	-7082
▁amid	-7083
▁bury	-7084
▁dash	-7085
▁kong	-7086
▁pfca	-7087
▁phen	-7088
▁tiss	-7089
▁abans	-7090
▁bitch	-7091
▁chart	-7092
▁float	-7093
▁hilar	-7094
▁intim	-7095
▁rajag	-7096
▁stere	-7097
▁vital	-7098
▁women	-7099
lectual	-7100
osexual	-7101
▁exclus	-7102
▁fiscal	-7103
▁foster	-7104
▁grandm	-7105
▁singer	-7106
▁anxious	-7107
▁beaming	-7108
▁captain	-7109
▁depress	-7110
▁grandma	-7111
▁happily	-7112
▁loyalty	-7113
▁prosper	-7114
▁sticker	-7115
▁unusual	-7116
▁upfront	-7117
▁champion	-7118
▁compound	-7119
▁dedicate	-7120
▁mistaken	-7121
▁speaking	-7122
balapitiya	-7123
▁animation	-7124
▁batalanda	-7125
▁favourite	-7126
▁hilarious	-7127
facepalming	-7128
▁credibility	-7129
▁fingerprint	-7130
▁nationality	-7131
▁discriminate	-7132
▁opportunitie	-7133
▁photographer	-7134
cal	-7135
usd	-7136
▁67	-7137
▁89	-7138
▁bn	-7139
▁ds	-7140
gard	-7141
gate	-7142
inda	-7143
mavo	-7144
thon	-7145
unga	-7146
▁110	-7147
▁lob	-7148
▁peg	-7149
▁pit	-7150
▁ruh	-7151
▁sht	-7152
▁sid	-7153
▁spo	-7154
▁wis	-7155
eable	-7156
rence	-7157
state	-7158
▁2012	-7159
▁2013	-7160
▁belt	-7161
▁blat	-7162
▁econ	-7163
▁halt	-7164
▁holy	-7165
▁ielt	-7166
▁thum	-7167
elling	-7168
igious	-7169
inking	-7170
shrugg	-7171
▁angel	-7172
▁chath	-7173
▁crony	-7174
▁digit	-7175
▁insta	-7176
▁ruler	-7177
▁thril	-7178
▁trace	-7179
▁fulfil	-7180
▁galaxy	-7181
▁helped	-7182
▁lastly	-7183
▁obsess	-7184
▁string	-7185
▁unsafe	-7186
▁wisdom	-7187
▁cashier	-7188
▁dignity	-7189
▁fishing	-7190
▁funeral	-7191
▁migrant	-7192
▁passive	-7193
▁spotify	-7194
▁sympath	-7195
shrugging	-7196
▁arrogant	-7197
▁exporter	-7198
▁skincare	-7199
▁wherever	-7200
▁authorize	-7201
▁ignorance	-7202
▁inclusive	-7203
▁instantly	-7204
▁prosecute	-7205
▁signature	-7206
▁sinharaja	-7207
▁assumption	-7208
▁atmosphere	-7209
▁vulnerable	-7210
▁arrangement	-7211
28	-7212
oa	-7213
eng	-7214
jan	-7215
van	-7216
▁gp	-7217
▁nc	-7218
▁nv	-7219
▁pg	-7220
igen	-7221
make	-7222
mble	-7223
rete	-7224
zuki	-7225
▁afg	-7226
▁etf	-7227
▁jam	-7228
▁luc	-7229
▁sue	-7230
▁2005	-7231
▁chee	-7232
▁cope	-7233
▁dept	-7234
▁dick	-7235
▁exor	-7236
▁flip	-7237
▁hook	-7238
▁icon	-7239
▁logo	-7240
▁mood	-7241
▁nanu	-7242
▁ramb	-7243
▁ugly	-7244
arette	-7245
school	-7246
sonate	-7247
sunami	-7248
▁30000	-7249
▁combo	-7250
▁crypt	-7251
▁curse	-7252
▁devop	-7253
▁eager	-7254
▁fonse	-7255
▁giant	-7256
▁indie	-7257
▁login	-7258
▁sharp	-7259
▁skept	-7260
▁thero	-7261
▁twist	-7262
▁uncon	-7263
▁vezel	-7264
justice	-7265
▁boring	-7266
▁costly	-7267
▁garage	-7268
▁harini	-7269
▁injury	-7270
▁japura	-7271
▁layoff	-7272
▁merely	-7273
▁tailor	-7274
▁timing	-7275
▁zscore	-7276
arantine	-7277
▁clarity	-7278
▁execute	-7279
▁founder	-7280
▁gampaha	-7281
▁generic	-7282
▁hopeful	-7283
▁inquire	-7284
▁kandyan	-7285
▁leopard	-7286
▁portray	-7287
▁summary	-7288
▁casually	-7289
▁delusion	-7290
▁judgment	-7291
▁nandalal	-7292
▁reminder	-7293
▁magically	-7294
▁recording	-7295
▁underpaid	-7296
▁beforehand	-7297
▁continuous	-7298
▁temperature	-7299
▁ridiculously	-7300
ml	-7301
400	-7302
arn	-7303
gic	-7304
hrs	-7305
oka	-7306
ora	-7307
▁03	-7308
▁bb	-7309
▁lm	-7310
▁rm	-7311
▁sr	-7312
alam	-7313
irst	-7314
pass	-7315
quer	-7316
very	-7317
▁ccc	-7318
▁dow	-7319
▁mcq	-7320
▁mfs	-7321
arath	-7322
atter	-7323
inity	-7324
ished	-7325
orney	-7326
rella	-7327
▁bash	-7328
▁coup	-7329
▁dell	-7330
▁keel	-7331
▁nerv	-7332
▁nose	-7333
▁spin	-7334
▁tale	-7335
▁tile	-7336
advant	-7337
▁adequ	-7338
▁bench	-7339
▁greed	-7340
▁gross	-7341
▁guilt	-7342
▁shell	-7343
▁stake	-7344
▁volat	-7345
forward	-7346
ievable	-7347
million	-7348
unegala	-7349
▁domain	-7350
▁fabric	-7351
▁jersey	-7352
▁kidney	-7353
▁nether	-7354
▁parade	-7355
▁python	-7356
▁suzuki	-7357
▁thumbs	-7358
▁victor	-7359
▁bailout	-7360
▁boycott	-7361
▁calorie	-7362
▁charter	-7363
▁fresher	-7364
▁hangout	-7365
▁hostage	-7366
▁looking	-7367
▁tsunami	-7368
advantage	-7369
▁attorney	-7370
▁checkout	-7371
▁coworker	-7372
▁insanely	-7373
▁mediocre	-7374
▁misunder	-7375
▁paycheck	-7376
▁sirisena	-7377
▁cigarette	-7378
▁diversify	-7379
▁excessive	-7380
▁exclusive	-7381
▁compensate	-7382
▁compulsory	-7383
▁engagement	-7384
▁expression	-7385
▁netherland	-7386
▁quarantine	-7387
▁regulatory	-7388
▁resolution	-7389
▁scientific	-7390
▁conditioner	-7391
▁grandmother	-7392
▁implication	-7393
▁uncertainty	-7394
▁accomodation	-7395
▁disadvantage	-7396
65	-7397
ju	-7398
yl	-7399
bow	-7400
rot	-7401
udi	-7402
umn	-7403
yas	-7404
▁az	-7405
▁pd	-7406
ador	-7407
aris	-7408
unge	-7409
▁225	-7410
▁sel	-7411
abase	-7412
aware	-7413
ayake	-7414
eland	-7415
ensus	-7416
▁athe	-7417
▁bast	-7418
▁brag	-7419
▁cock	-7420
▁cure	-7421
▁goto	-7422
▁inch	-7423
▁pinn	-7424
▁repe	-7425
▁watt	-7426
minton	-7427
urance	-7428
vision	-7429
▁facil	-7430
▁knock	-7431
▁meant	-7432
▁petty	-7433
▁punch	-7434
▁shamp	-7435
asingly	-7436
atively	-7437
rolling	-7438
▁aswell	-7439
▁honour	-7440
▁korean	-7441
▁liable	-7442
▁philos	-7443
▁prayer	-7444
▁ruhuna	-7445
▁struct	-7446
▁trinco	-7447
00000000	-7448
▁bloated	-7449
▁haircut	-7450
▁harmful	-7451
▁inquiry	-7452
▁millenn	-7453
▁mindful	-7454
▁outlook	-7455
▁sigirya	-7456
▁stereot	-7457
▁sunrise	-7458
fessional	-7459
▁downfall	-7460
▁explicit	-7461
▁historic	-7462
▁mortgage	-7463
▁severely	-7464
▁showcase	-7465
▁strictly	-7466
▁ultimate	-7467
▁workshop	-7468
▁apologize	-7469
▁brainwash	-7470
▁judiciary	-7471
▁pakistani	-7472
▁partially	-7473
▁pointless	-7474
▁convention	-7475
▁definition	-7476
▁optimistic	-7477
▁yahapalana	-7478
▁grandfather	-7479
▁temporarily	-7480
▁unrealistic	-7481
▁increasingly	-7482
▁manipulation	-7483
600	-7484
tra	-7485
▁fm	-7486
▁hv	-7487
▁ku	-7488
▁ww	-7489
2025	-7490
amed	-7491
amin	-7492
onal	-7493
▁byp	-7494
▁dod	-7495
▁ira	-7496
icker	-7497
izing	-7498
lemma	-7499
pattu	-7500
▁bend	-7501
▁bold	-7502
▁bril	-7503
▁clip	-7504
▁crew	-7505
▁hong	-7506
▁sink	-7507
iently	-7508
nesday	-7509
▁groom	-7510
▁lover	-7511
▁penny	-7512
▁pharm	-7513
▁rival	-7514
▁sheer	-7515
▁stagn	-7516
▁strip	-7517
ulative	-7518
▁makeup	-7519
▁malabe	-7520
▁outfit	-7521
▁partly	-7522
▁polite	-7523
▁postal	-7524
▁priest	-7525
▁ravana	-7526
▁summer	-7527
▁tender	-7528
▁twenty	-7529
▁african	-7530
▁badulla	-7531
▁combank	-7532
▁concert	-7533
▁dilemma	-7534
▁endorse	-7535
▁fonseka	-7536
▁intense	-7537
▁killing	-7538
▁mileage	-7539
▁prefect	-7540
▁raising	-7541
▁ranking	-7542
▁renewal	-7543
▁restore	-7544
▁shampoo	-7545
▁shelter	-7546
▁taxable	-7547
stitution	-7548
▁airlines	-7549
▁disclose	-7550
▁merchant	-7551
▁repeated	-7552
▁badminton	-7553
▁criticise	-7554
▁everytime	-7555
▁frustrate	-7556
▁injection	-7557
▁injustice	-7558
▁lucrative	-7559
▁palestine	-7560
▁substance	-7561
mediumlight	-7562
▁indirectly	-7563
▁kurunegala	-7564
▁privileged	-7565
▁rajagiriya	-7566
▁exclusively	-7567
▁implementation	-7568
150	-7569
chi	-7570
fin	-7571
ona	-7572
sal	-7573
▁du	-7574
cere	-7575
iger	-7576
▁amd	-7577
▁bol	-7578
▁dol	-7579
▁ela	-7580
▁gpu	-7581
▁hab	-7582
▁lee	-7583
▁yrs	-7584
ithub	-7585
ounge	-7586
wella	-7587
▁2027	-7588
▁batt	-7589
▁carb	-7590
▁fuss	-7591
▁hect	-7592
▁pave	-7593
▁resc	-7594
▁tuks	-7595
around	-7596
ective	-7597
▁accum	-7598
▁horse	-7599
▁lobby	-7600
▁newsw	-7601
▁seven	-7602
▁spray	-7603
▁straw	-7604
▁wound	-7605
holding	-7606
▁afghan	-7607
▁beggar	-7608
▁contem	-7609
▁detain	-7610
▁hopper	-7611
▁jewell	-7612
▁motion	-7613
▁shield	-7614
▁unpaid	-7615
▁yearly	-7616
▁desktop	-7617
▁garment	-7618
▁hygiene	-7619
▁mosquit	-7620
▁neglect	-7621
▁nervous	-7622
▁nonstop	-7623
▁noticed	-7624
▁radical	-7625
▁renting	-7626
▁upwards	-7627
▁database	-7628
▁drinking	-7629
▁phenomen	-7630
▁resonate	-7631
▁sirimavo	-7632
▁wilpattu	-7633
▁alternate	-7634
▁massively	-7635
▁municipal	-7636
▁viewpoint	-7637
▁irrelevant	-7638
▁prediction	-7639
▁repeatedly	-7640
▁exceptional	-7641
▁outstanding	-7642
▁recruitment	-7643
▁representation	-7644
47	-7645
fty	-7646
udu	-7647
▁df	-7648
▁ga	-7649
▁sq	-7650
▁xd	-7651
anka	-7652
asse	-7653
crow	-7654
etor	-7655
fere	-7656
ignt	-7657
lash	-7658
star	-7659
veli	-7660
▁alg	-7661
▁cfa	-7662
▁uno	-7663
ducer	-7664
ilipp	-7665
▁lets	-7666
▁nude	-7667
▁thur	-7668
▁yoga	-7669
health	-7670
▁accel	-7671
▁arbit	-7672
▁boast	-7673
▁damro	-7674
▁gamer	-7675
▁humid	-7676
▁karun	-7677
▁shade	-7678
▁sunny	-7679
▁uneth	-7680
▁where	-7681
▁worse	-7682
▁buffer	-7683
▁bypass	-7684
▁calcul	-7685
▁endure	-7686
▁github	-7687
▁profic	-7688
▁spirit	-7689
▁spouse	-7690
ilippine	-7691
▁infront	-7692
▁premier	-7693
▁relaxed	-7694
▁suspend	-7695
▁washing	-7696
▁boarding	-7697
▁clueless	-7698
▁credible	-7699
▁hesitant	-7700
▁israelis	-7701
▁moreover	-7702
▁mosquito	-7703
▁palestin	-7704
▁pleasure	-7705
▁addiction	-7706
▁allegedly	-7707
▁emphasize	-7708
▁policeman	-7709
▁residency	-7710
▁wednesday	-7711
▁culturally	-7712
▁philippine	-7713
▁supposedly	-7714
▁problematic	-7715
▁connectivity	-7716
▁knowledgeable	-7717
▁psychological	-7718
▁straightforward	-7719
bar	-7720
bly	-7721
etf	-7722
few	-7723
war	-7724
▁42	-7725
▁44	-7726
▁57	-7727
▁ek	-7728
▁mt	-7729
1000	-7730
anne	-7731
call	-7732
made	-7733
ophy	-7734
oura	-7735
rity	-7736
▁anc	-7737
▁cbk	-7738
▁peo	-7739
▁row	-7740
▁sus	-7741
arity	-7742
bling	-7743
hough	-7744
ivers	-7745
uriya	-7746
▁1990	-7747
▁acne	-7748
▁argu	-7749
▁carg	-7750
▁mega	-7751
▁nazi	-7752
▁orth	-7753
▁subt	-7754
▁vape	-7755
▁weer	-7756
button	-7757
italin	-7758
ressed	-7759
▁grasp	-7760
▁hoard	-7761
▁relic	-7762
▁sneak	-7763
▁swing	-7764
▁theft	-7765
▁tiger	-7766
▁viral	-7767
▁asians	-7768
▁attest	-7769
▁breath	-7770
▁cruise	-7771
▁deploy	-7772
▁hiking	-7773
▁intent	-7774
▁invent	-7775
▁kerala	-7776
▁legacy	-7777
▁miscon	-7778
▁phrase	-7779
▁poison	-7780
▁remark	-7781
▁vanish	-7782
▁worsen	-7783
ceptable	-7784
communic	-7785
▁academy	-7786
▁ashamed	-7787
▁fantasy	-7788
▁launder	-7789
▁magnite	-7790
▁sincere	-7791
aceutical	-7792
specially	-7793
▁balanced	-7794
▁disorder	-7795
▁lockdown	-7796
▁moderate	-7797
▁politely	-7798
▁powercut	-7799
▁reckless	-7800
▁accessory	-7801
▁communism	-7802
▁computing	-7803
▁firsthand	-7804
▁incorrect	-7805
▁microsoft	-7806
▁renewable	-7807
▁unethical	-7808
▁competitor	-7809
▁eventhough	-7810
▁homosexual	-7811
▁processing	-7812
▁structural	-7813
▁consultation	-7814
▁generational	-7815
▁insurrection	-7816
▁unacceptable	-7817
▁comprehensive	-7818
▁controversial	-7819
▁participation	-7820
▁specialization	-7821
hy	-7822
cap	-7823
igo	-7824
isa	-7825
lay	-7826
rie	-7827
sex	-7828
shi	-7829
tha	-7830
▁hd	-7831
▁pf	-7832
▁yt	-7833
born	-7834
dark	-7835
enez	-7836
eria	-7837
rust	-7838
sale	-7839
ston	-7840
▁140	-7841
▁bak	-7842
▁bcs	-7843
▁iam	-7844
▁lan	-7845
▁ltd	-7846
▁ree	-7847
▁wht	-7848
erity	-7849
ignty	-7850
storm	-7851
umber	-7852
worke	-7853
▁1948	-7854
▁acqu	-7855
▁grim	-7856
▁maid	-7857
▁musc	-7858
▁myst	-7859
▁scum	-7860
▁tick	-7861
▁unav	-7862
▁vitz	-7863
redict	-7864
script	-7865
spread	-7866
▁blend	-7867
▁lyric	-7868
▁notic	-7869
▁pende	-7870
▁renov	-7871
▁taboo	-7872
▁weigh	-7873
osystem	-7874
▁biased	-7875
▁biomed	-7876
▁boomer	-7877
▁cheese	-7878
▁genius	-7879
▁hectic	-7880
▁horror	-7881
▁inflow	-7882
▁legisl	-7883
▁planet	-7884
▁preach	-7885
▁unrest	-7886
▁writer	-7887
▁allergy	-7888
▁analyze	-7889
▁charger	-7890
▁compass	-7891
▁conquer	-7892
▁glorify	-7893
▁instant	-7894
▁knowing	-7895
▁secular	-7896
▁sparkle	-7897
▁specify	-7898
▁commonly	-7899
▁fortress	-7900
▁informed	-7901
▁newswire	-7902
▁patience	-7903
▁producer	-7904
▁interfere	-7905
▁motivated	-7906
▁reasoning	-7907
▁unpredict	-7908
▁creativity	-7909
▁expressway	-7910
▁instructor	-7911
▁meditation	-7912
▁proportion	-7913
▁threewheel	-7914
▁widespread	-7915
▁advertising	-7916
▁flexibility	-7917
▁sovereignty	-7918
▁superiority	-7919
communication	-7920
▁incompetence	-7921
▁notification	-7922
▁advertisement	-7923
▁congratulation	-7924
▁pharmaceutical	-7925
36	-7926
hal	-7927
hen	-7928
▁''	-7929
▁77	-7930
▁if	-7931
anga	-7932
anut	-7933
arag	-7934
ithm	-7935
mani	-7936
sole	-7937
usal	-7938
▁160	-7939
▁jkh	-7940
▁kap	-7941
▁roi	-7942
▁tab	-7943
▁vib	-7944
clear	-7945
onial	-7946
plate	-7947
▁atto	-7948
▁beef	-7949
▁bump	-7950
▁fasc	-7951
▁goss	-7952
▁	-7953
e	-7954
a	-7955
t	-7956
o	-7957
i	-7958
n	-7959
r	-7960
l	-7961
s	-7962
c	-7963
d	-7964
p	-7965
u	-7966
m	-7967
h	-7968
y	-7969
g	-7970
k	-7971
w	-7972
f	-7973
b	-7974
v	-7975
x	-7976
0	-7977
'	-7978
j	-7979
2	-7980
1	-7981
q	-7982
5	-7983
3	-7984
z	-7985
_	-7986
I	-7987
4	-7988
6	-7989
9	-7990
8	-7991
7	-7992
න	-7993
ක	-7994
ම	-7995
ත	-7996
