<unk>	0
<s>	0
</s>	0
▁s	-0
er	-1
in	-2
▁c	-3
on	-4
▁p	-5
an	-6
re	-7
al	-8
en	-9
▁l	-10
▁t	-11
▁m	-12
ar	-13
▁g	-14
▁n	-15
at	-16
▁w	-17
st	-18
ou	-19
it	-20
▁b	-21
ot	-22
▁f	-23
▁e	-24
le	-25
▁d	-26
or	-27
▁a	-28
ic	-29
▁h	-30
om	-31
ly	-32
ion	-33
▁re	-34
ri	-35
et	-36
ve	-37
▁not	-38
se	-39
ent	-40
ay	-41
ce	-42
ing	-43
ke	-44
op	-45
▁u	-46
▁st	-47
el	-48
ss	-49
ol	-50
ct	-51
▁in	-52
il	-53
▁go	-54
ow	-55
one	-56
ver	-57
ate	-58
ank	-59
ra	-60
▁li	-61
▁th	-62
ch	-63
id	-64
ig	-65
im	-66
ro	-67
ed	-68
▁k	-69
ation	-70
ea	-71
th	-72
ge	-73
▁de	-74
▁com	-75
is	-76
oun	-77
ld	-78
am	-79
od	-80
▁ne	-81
▁al	-82
ally	-83
▁sri	-84
▁ex	-85
▁get	-86
▁lank	-87
ould	-88
ry	-89
pp	-90
ur	-91
ck	-92
any	-93
end	-94
ul	-95
ad	-96
▁ch	-97
ment	-98
▁lo	-99
▁v	-100
ake	-101
ity	-102
▁se	-103
ant	-104
▁like	-105
and	-106
▁r	-107
▁con	-108
ice	-109
la	-110
▁un	-111
ear	-112
ff	-113
ble	-114
▁y	-115
ue	-116
ive	-117
▁pe	-118
▁su	-119
ort	-120
▁would	-121
▁pro	-122
▁wor	-123
ht	-124
ine	-125
▁bu	-126
ople	-127
▁people	-128
ell	-129
ir	-130
▁lanka	-131
ut	-132
art	-133
her	-134
ci	-135
ount	-136
un	-137
now	-138
▁j	-139
as	-140
em	-141
are	-142
▁sh	-143
ter	-144
▁o	-145
ind	-146
pe	-147
ime	-148
▁good	-149
ome	-150
ink	-151
ill	-152
ok	-153
ist	-154
▁know	-155
est	-156
▁po	-157
▁comp	-158
ven	-159
ure	-160
▁ad	-161
▁pr	-162
▁one	-163
ard	-164
ence	-165
ase	-166
um	-167
▁any	-168
▁exp	-169
▁work	-170
▁per	-171
▁time	-172
so	-173
ack	-174
ud	-175
age	-176
▁also	-177
▁op	-178
▁count	-179
ast	-180
▁ever	-181
ide	-182
ance	-183
▁pre	-184
▁make	-185
all	-186
▁think	-187
▁use	-188
ust	-189
▁di	-190
▁country	-191
▁pl	-192
▁need	-193
▁app	-194
▁ar	-195
qu	-196
▁year	-197
▁en	-198
der	-199
▁want	-200
▁tra	-201
▁every	-202
▁even	-203
ight	-204
ree	-205
lo	-206
▁say	-207
▁col	-208
ite	-209
fe	-210
▁sl	-211
nt	-212
ound	-213
ong	-214
▁ac	-215
our	-216
▁ma	-217
▁well	-218
▁pay	-219
▁sp	-220
ie	-221
sh	-222
▁co	-223
able	-224
▁im	-225
▁rec	-226
▁inter	-227
bo	-228
ght	-229
ip	-230
out	-231
▁ri	-232
▁fa	-233
ob	-234
vel	-235
▁mu	-236
▁look	-237
du	-238
▁tr	-239
pt	-240
▁take	-241
▁day	-242
▁'	-243
▁fo	-244
▁thing	-245
ect	-246
▁see	-247
ous	-248
port	-249
eri	-250
▁pol	-251
▁lea	-252
ber	-253
▁sin	-254
ult	-255
▁ind	-256
▁an	-257
ith	-258
lace	-259
hing	-260
▁le	-261
▁mon	-262
▁me	-263
▁lankan	-264
be	-265
ary	-266
ign	-267
▁as	-268
ap	-269
ab	-270
▁hel	-271
▁fe	-272
▁inc	-273
▁come	-274
ep	-275
▁gu	-276
gh	-277
if	-278
vern	-279
▁part	-280
ombo	-281
▁help	-282
orm	-283
▁try	-284
▁so	-285
▁way	-286
▁much	-287
▁wh	-288
int	-289
og	-290
▁act	-291
▁sa	-292
other	-293
▁anyone	-294
▁adv	-295
iss	-296
▁govern	-297
▁ra	-298
EM	-299
EMO	-300
▁EMO	-301
▁give	-302
▁we	-303
ough	-304
ru	-305
▁place	-306
▁stud	-307
▁back	-308
ish	-309
way	-310
▁colombo	-311
old	-312
ia	-313
▁res	-314
▁ha	-315
ical	-316
▁government	-317
omet	-318
ffer	-319
▁start	-320
iz	-321
us	-322
son	-323
▁ta	-324
▁do	-325
▁really	-326
▁find	-327
ick	-328
oney	-329
▁somet	-330
▁could	-331
igh	-332
▁new	-333
▁be	-334
▁mar	-335
▁month	-336
▁job	-337
▁money	-338
erience	-339
con	-340
ire	-341
▁experience	-342
▁around	-343
dit	-344
▁cont	-345
gree	-346
▁cur	-347
▁uni	-348
▁mo	-349
▁qu	-350
▁thank	-351
▁bus	-352
▁some	-353
ain	-354
lect	-355
ily	-356
ha	-357
▁rel	-358
▁tax	-359
▁still	-360
▁man	-361
▁high	-362
▁buy	-363
▁person	-364
ise	-365
▁guy	-366
▁acc	-367
thing	-368
▁sc	-369
ually	-370
▁with	-371
riend	-372
▁plan	-373
▁eng	-374
▁br	-375
ian	-376
ange	-377
vers	-378
▁right	-379
▁fir	-380
▁comm	-381
▁vis	-382
▁ke	-383
cial	-384
▁company	-385
▁curre	-386
▁happ	-387
▁many	-388
sid	-389
▁may	-390
▁am	-391
ple	-392
▁dec	-393
▁sch	-394
▁dis	-395
▁lot	-396
▁something	-397
▁friend	-398
▁best	-399
▁bo	-400
▁pri	-401
que	-402
▁ph	-403
▁gr	-404
▁loc	-405
ild	-406
▁ask	-407
reat	-408
act	-409
▁em	-410
▁first	-411
▁us	-412
▁inf	-413
▁la	-414
▁gen	-415
▁price	-416
ful	-417
▁ab	-418
stion	-419
▁he	-420
▁reg	-421
li	-422
▁feel	-423
▁spe	-424
▁life	-425
▁ro	-426
ath	-427
▁since	-428
▁car	-429
ame	-430
▁iss	-431
▁et	-432
▁sm	-433
▁med	-434
▁live	-435
ool	-436
▁issue	-437
cess	-438
omm	-439
os	-440
▁current	-441
es	-442
▁fin	-443
ag	-444
▁id	-445
cy	-446
ub	-447
te	-448
iv	-449
▁polit	-450
lease	-451
ore	-452
▁long	-453
▁degree	-454
ote	-455
▁post	-456
▁someone	-457
▁fi	-458
ory	-459
ead	-460
ak	-461
ty	-462
▁rem	-463
pect	-464
ose	-465
▁intern	-466
get	-467
ail	-468
▁at	-469
▁inst	-470
ket	-471
low	-472
line	-473
▁let	-474
▁everyone	-475
vest	-476
▁happen	-477
▁bank	-478
lic	-479
ala	-480
▁etc	-481
▁el	-482
▁travel	-483
▁school	-484
ans	-485
▁sim	-486
▁min	-487
ommend	-488
▁keep	-489
▁bad	-490
▁supp	-491
▁local	-492
▁hi	-493
▁invest	-494
▁ser	-495
ffic	-496
▁fam	-497
▁ear	-498
▁under	-499
▁univers	-500
▁or	-501
▁sal	-502
ress	-503
tion	-504
▁please	-505
iness	-506
ope	-507
▁recommend	-508
ctor	-509
▁fore	-510
▁tea	-511
ne	-512
▁call	-513
▁university	-514
xt	-515
▁econ	-516
ible	-517
ship	-518
▁real	-519
ower	-520
▁dri	-521
ang	-522
▁que	-523
have	-524
ual	-525
ft	-526
▁econom	-527
▁cor	-528
ial	-529
▁might	-530
▁tw	-531
▁elect	-532
▁end	-533
▁cla	-534
alk	-535
▁differ	-536
▁student	-537
▁business	-538
read	-539
▁sy	-540
▁advice	-541
OS	-542
POS	-543
own	-544
▁sub	-545
▁without	-546
▁thanks	-547
ically	-548
▁dep	-549
▁change	-550
me	-551
▁market	-552
ize	-553
ord	-554
▁lear	-555
▁cost	-556
EG	-557
NEG	-558
▁te	-559
ious	-560
▁hear	-561
▁che	-562
ational	-563
▁never	-564
ert	-565
▁family	-566
▁sit	-567
▁mean	-568
arent	-569
ways	-570
▁trans	-571
▁love	-572
▁tell	-573
atch	-574
ject	-575
erm	-576
▁learn	-577
go	-578
come	-579
ass	-580
ute	-581
ek	-582
▁hard	-583
vice	-584
▁cl	-585
▁rep	-586
▁question	-587
ense	-588
▁priv	-589
▁care	-590
▁sinh	-591
▁anything	-592
less	-593
▁seem	-594
fer	-595
ciate	-596
▁ent	-597
uck	-598
stand	-599
▁cre	-600
ility	-601
▁visit	-602
▁fun	-603
▁kind	-604
use	-605
urn	-606
▁ru	-607
▁gener	-608
▁option	-609
▁att	-610
▁old	-611
▁week	-612
▁lit	-613
▁study	-614
▁ve	-615
icle	-616
▁on	-617
▁prop	-618
ative	-619
▁sug	-620
▁ins	-621
▁power	-622
de	-623
cially	-624
ition	-625
▁move	-626
▁actually	-627
ern	-628
▁account	-629
ever	-630
amil	-631
duc	-632
ently	-633
unity	-634
▁point	-635
blem	-636
ather	-637
▁foreign	-638
ason	-639
▁problem	-640
ric	-641
ude	-642
▁two	-643
▁interest	-644
▁wr	-645
ital	-646
sider	-647
▁exam	-648
up	-649
▁cour	-650
▁tamil	-651
▁educ	-652
reciate	-653
▁for	-654
▁last	-655
eak	-656
▁sugge	-657
▁reason	-658
▁gra	-659
tle	-660
know	-661
▁tou	-662
▁service	-663
▁leave	-664
ale	-665
▁stay	-666
▁always	-667
▁big	-668
▁up	-669
▁des	-670
▁engine	-671
▁bud	-672
▁sk	-673
▁salary	-674
▁hand	-675
ific	-676
▁another	-677
▁ment	-678
▁lk	-679
stem	-680
arge	-681
ach	-682
▁idea	-683
lish	-684
▁tri	-685
▁import	-686
▁ass	-687
ium	-688
▁appreciate	-689
ember	-690
▁free	-691
▁check	-692
ya	-693
▁system	-694
uation	-695
▁face	-696
ile	-697
ens	-698
▁build	-699
▁private	-700
ace	-701
▁imp	-702
▁consider	-703
gra	-704
▁pub	-705
▁parent	-706
▁bas	-707
▁great	-708
▁cho	-709
▁support	-710
ouse	-711
ether	-712
▁understand	-713
▁next	-714
ull	-715
▁out	-716
▁party	-717
ably	-718
▁veh	-719
▁ext	-720
ater	-721
iew	-722
▁engineer	-723
▁though	-724
▁vehicle	-725
▁par	-726
▁over	-727
▁bit	-728
▁ev	-729
▁different	-730
▁state	-731
▁es	-732
ract	-733
ost	-734
ready	-735
rea	-736
wor	-737
▁hope	-738
▁war	-739
▁situation	-740
▁base	-741
▁talk	-742
▁maybe	-743
▁sure	-744
▁online	-745
atter	-746
▁home	-747
▁av	-748
▁share	-749
stly	-750
bt	-751
▁law	-752
▁politic	-753
ism	-754
▁show	-755
▁touri	-756
ional	-757
▁class	-758
▁already	-759
▁sol	-760
▁low	-761
▁world	-762
▁qual	-763
▁fol	-764
ware	-765
▁public	-766
▁vote	-767
▁cle	-768
rect	-769
road	-770
▁food	-771
cept	-772
▁small	-773
▁area	-774
▁hone	-775
▁open	-776
ieve	-777
▁income	-778
▁cr	-779
▁enough	-780
▁aff	-781
▁other	-782
▁eas	-783
▁def	-784
alth	-785
▁less	-786
▁proper	-787
▁house	-788
ority	-789
▁poss	-790
outh	-791
▁emp	-792
▁read	-793
▁term	-794
▁sur	-795
ither	-796
▁far	-797
▁spend	-798
ution	-799
▁become	-800
▁pret	-801
arch	-802
duct	-803
▁prov	-804
▁level	-805
rupt	-806
▁card	-807
▁rest	-808
▁bea	-809
▁currently	-810
▁shit	-811
ole	-812
▁cult	-813
▁else	-814
▁bel	-815
▁offer	-816
▁comple	-817
loy	-818
▁put	-819
▁run	-820
▁air	-821
▁social	-822
▁pass	-823
▁val	-824
velop	-825
uff	-826
▁add	-827
here	-828
gg	-829
rate	-830
ata	-831
▁set	-832
▁leg	-833
▁least	-834
▁sinhala	-835
▁sell	-836
▁advance	-837
▁mod	-838
▁develop	-839
ular	-840
▁earn	-841
▁case	-842
▁everything	-843
▁book	-844
ib	-845
▁tech	-846
▁due	-847
▁stuff	-848
▁ret	-849
▁recently	-850
▁education	-851
▁num	-852
form	-853
▁pretty	-854
▁dr	-855
pecially	-856
▁maj	-857
▁incre	-858
▁english	-859
▁able	-860
▁india	-861
▁either	-862
▁teach	-863
▁land	-864
▁especially	-865
the	-866
▁fre	-867
▁hey	-868
▁pur	-869
▁cert	-870
▁stop	-871
mit	-872
bs	-873
▁medium	-874
▁play	-875
ict	-876
▁disc	-877
▁speak	-878
▁pack	-879
ac	-880
▁lkr	-881
ated	-882
sure	-883
▁top	-884
per	-885
▁amount	-886
▁fut	-887
▁cri	-888
▁how	-889
▁cons	-890
▁however	-891
ving	-892
▁kid	-893
▁course	-894
▁number	-895
▁nothing	-896
olog	-897
▁lankans	-898
▁prob	-899
▁employ	-900
ately	-901
ilar	-902
ister	-903
▁future	-904
▁manage	-905
fit	-906
▁ran	-907
▁sw	-908
▁yes	-909
▁hot	-910
onder	-911
▁presid	-912
▁jo	-913
▁abroad	-914
ward	-915
ought	-916
▁wa	-917
▁wonder	-918
illion	-919
▁bring	-920
▁data	-921
oc	-922
▁prot	-923
▁complete	-924
▁conf	-925
▁main	-926
nect	-927
▁similar	-928
▁clo	-929
▁sing	-930
▁train	-931
▁fund	-932
ner	-933
irl	-934
▁mind	-935
▁rate	-936
ral	-937
▁possible	-938
ys	-939
▁drive	-940
▁loan	-941
▁mid	-942
where	-943
▁corrupt	-944
▁int	-945
▁probably	-946
ene	-947
▁girl	-948
led	-949
eld	-950
ody	-951
▁red	-952
▁cust	-953
▁side	-954
amp	-955
▁apply	-956
▁phone	-957
▁cu	-958
oll	-959
day	-960
work	-961
vious	-962
▁product	-963
▁recommendation	-964
to	-965
▁ap	-966
quire	-967
▁follow	-968
face	-969
▁trip	-970
▁others	-971
▁sec	-972
▁custom	-973
▁worth	-974
oup	-975
▁south	-976
uk	-977
ash	-978
▁sci	-979
▁doctor	-980
▁personal	-981
▁expect	-982
▁dem	-983
▁kand	-984
▁police	-985
▁connect	-986
▁health	-987
▁mention	-988
▁ca	-989
▁tourist	-990
▁ranil	-991
sk	-992
▁opport	-993
▁election	-994
▁president	-995
▁is	-996
even	-997
▁stre	-998
▁night	-999
▁inform	-1000
▁ty	-1001
▁name	-1002
▁thought	-1003
▁increase	-1004
▁indust	-1005
▁whether	-1006
fort	-1007
ource	-1008
ph	-1009
inion	-1010
▁hour	-1011
▁kandy	-1012
▁whole	-1013
▁political	-1014
▁opinion	-1015
▁past	-1016
▁hell	-1017
▁bi	-1018
▁instead	-1019
▁comment	-1020
▁it	-1021
gram	-1022
▁gov	-1023
▁full	-1024
uw	-1025
lank	-1026
lude	-1027
▁stand	-1028
duce	-1029
▁economic	-1030
▁economy	-1031
▁group	-1032
icy	-1033
▁opportunity	-1034
pon	-1035
▁sign	-1036
▁send	-1037
▁package	-1038
▁engineering	-1039
▁grow	-1040
view	-1041
▁away	-1042
▁x	-1043
▁mil	-1044
▁lose	-1045
▁field	-1046
▁npp	-1047
ety	-1048
▁little	-1049
ma	-1050
▁soft	-1051
oman	-1052
want	-1053
ning	-1054
▁deal	-1055
ee	-1056
▁pos	-1057
▁child	-1058
▁vi	-1059
▁believe	-1060
▁culture	-1061
▁close	-1062
▁watch	-1063
▁wrong	-1064
▁near	-1065
▁provide	-1066
▁order	-1067
▁short	-1068
▁process	-1069
lain	-1070
▁del	-1071
▁srilank	-1072
side	-1073
ock	-1074
▁project	-1075
▁au	-1076
▁chea	-1077
▁visa	-1078
ency	-1079
aster	-1080
▁charge	-1081
▁industry	-1082
alle	-1083
sc	-1084
▁regard	-1085
ify	-1086
▁rese	-1087
▁payment	-1088
▁quality	-1089
▁ago	-1090
▁fact	-1091
▁z	-1092
▁require	-1093
ara	-1094
▁infl	-1095
iri	-1096
▁wait	-1097
▁clear	-1098
ision	-1099
▁woman	-1100
▁budget	-1101
▁science	-1102
▁program	-1103
▁cent	-1104
▁easy	-1105
▁meet	-1106
most	-1107
▁game	-1108
▁finan	-1109
▁within	-1110
ruct	-1111
▁tod	-1112
ration	-1113
▁fuck	-1114
▁driver	-1115
▁policy	-1116
▁ob	-1117
▁shop	-1118
▁off	-1119
▁national	-1120
▁det	-1121
▁mus	-1122
▁offic	-1123
▁politician	-1124
cif	-1125
▁suggestion	-1126
rove	-1127
dition	-1128
▁include	-1129
▁almost	-1130
▁bl	-1131
▁saw	-1132
▁list	-1133
▁usually	-1134
▁research	-1135
▁cap	-1136
▁cou	-1137
▁compare	-1138
▁form	-1139
▁million	-1140
▁pick	-1141
▁today	-1142
ron	-1143
▁mom	-1144
icket	-1145
▁quite	-1146
▁str	-1147
▁pop	-1148
▁save	-1149
▁hotel	-1150
▁value	-1151
▁result	-1152
▁example	-1153
sw	-1154
ensive	-1155
▁agree	-1156
▁remember	-1157
▁specif	-1158
lim	-1159
▁direct	-1160
▁norm	-1161
▁relig	-1162
▁general	-1163
▁create	-1164
▁head	-1165
▁cheap	-1166
ade	-1167
rol	-1168
▁prom	-1169
aff	-1170
▁hist	-1171
air	-1172
think	-1173
▁road	-1174
▁suggest	-1175
▁investment	-1176
▁raj	-1177
▁event	-1178
▁choose	-1179
▁usd	-1180
▁career	-1181
▁depend	-1182
▁i	-1183
▁gue	-1184
▁respon	-1185
▁rent	-1186
▁bre	-1187
▁mor	-1188
angu	-1189
ology	-1190
▁brand	-1191
cond	-1192
▁matter	-1193
osp	-1194
▁conc	-1195
ient	-1196
▁cra	-1197
▁langu	-1198
▁bro	-1199
▁language	-1200
▁mess	-1201
▁trust	-1202
▁indian	-1203
▁skill	-1204
▁second	-1205
▁allow	-1206
dle	-1207
▁vide	-1208
▁art	-1209
ident	-1210
▁prefer	-1211
ari	-1212
▁beach	-1213
▁soon	-1214
▁scam	-1215
pl	-1216
ament	-1217
sm	-1218
▁must	-1219
▁inv	-1220
▁cut	-1221
▁non	-1222
cle	-1223
▁true	-1224
ural	-1225
uge	-1226
▁couple	-1227
▁international	-1228
▁eff	-1229
▁yea	-1230
ceive	-1231
elf	-1232
ura	-1233
▁hold	-1234
▁pract	-1235
▁ref	-1236
▁turn	-1237
▁phys	-1238
▁liter	-1239
swer	-1240
▁information	-1241
ond	-1242
▁ag	-1243
▁answer	-1244
▁city	-1245
cus	-1246
▁yet	-1247
aste	-1248
▁ce	-1249
▁imm	-1250
▁port	-1251
▁community	-1252
▁defin	-1253
▁ok	-1254
▁abs	-1255
▁tuk	-1256
▁mob	-1257
▁hosp	-1258
ailable	-1259
▁rather	-1260
▁software	-1261
▁return	-1262
land	-1263
ota	-1264
▁uk	-1265
▁decide	-1266
▁sometime	-1267
▁dial	-1268
ature	-1269
▁afford	-1270
▁hospital	-1271
▁chance	-1272
▁story	-1273
ross	-1274
▁honestly	-1275
▁news	-1276
▁slt	-1277
urity	-1278
itely	-1279
▁mostly	-1280
▁neg	-1281
▁fine	-1282
▁write	-1283
na	-1284
▁mig	-1285
▁focus	-1286
▁dist	-1287
ability	-1288
hind	-1289
row	-1290
▁ak	-1291
ex	-1292
▁fee	-1293
▁type	-1294
ification	-1295
duate	-1296
▁bene	-1297
▁break	-1298
▁fu	-1299
▁stock	-1300
olve	-1301
▁join	-1302
▁notice	-1303
fess	-1304
▁budd	-1305
▁west	-1306
▁dialog	-1307
▁own	-1308
oid	-1309
erious	-1310
▁fl	-1311
▁yeah	-1312
ume	-1313
▁const	-1314
man	-1315
▁basically	-1316
oung	-1317
▁safe	-1318
▁guess	-1319
bsite	-1320
▁video	-1321
▁website	-1322
▁decision	-1323
▁definitely	-1324
▁middle	-1325
▁tem	-1326
▁water	-1327
▁young	-1328
▁lead	-1329
▁techn	-1330
red	-1331
like	-1332
▁tip	-1333
▁majority	-1334
ana	-1335
ior	-1336
▁treat	-1337
▁credit	-1338
▁expensive	-1339
▁rajap	-1340
▁certain	-1341
▁net	-1342
▁path	-1343
▁unless	-1344
▁blo	-1345
cu	-1346
▁can	-1347
ulation	-1348
▁debt	-1349
▁risk	-1350
▁limit	-1351
▁serious	-1352
▁age	-1353
▁hum	-1354
▁hello	-1355
▁decent	-1356
ness	-1357
▁met	-1358
▁financial	-1359
▁af	-1360
just	-1361
artment	-1362
▁galle	-1363
ane	-1364
▁rajapak	-1365
▁connection	-1366
ich	-1367
▁speed	-1368
▁sector	-1369
▁da	-1370
▁fix	-1371
▁honest	-1372
ird	-1373
▁contact	-1374
ledge	-1375
▁internet	-1376
▁sometimes	-1377
ove	-1378
▁normal	-1379
▁profess	-1380
ama	-1381
▁aust	-1382
▁har	-1383
gin	-1384
ies	-1385
itiz	-1386
com	-1387
hand	-1388
▁srilanka	-1389
▁equ	-1390
▁history	-1391
▁nice	-1392
▁dra	-1393
▁math	-1394
▁to	-1395
▁protest	-1396
over	-1397
▁report	-1398
▁receive	-1399
min	-1400
oint	-1401
▁dam	-1402
▁available	-1403
▁self	-1404
▁reddit	-1405
▁ella	-1406
▁wi	-1407
▁position	-1408
aper	-1409
▁tot	-1410
▁date	-1411
app	-1412
fully	-1413
oward	-1414
itch	-1415
▁single	-1416
▁benefit	-1417
▁luck	-1418
▁special	-1419
▁citiz	-1420
▁exact	-1421
▁subject	-1422
▁corruption	-1423
▁edit	-1424
erg	-1425
iya	-1426
▁interested	-1427
▁avoid	-1428
▁large	-1429
▁choice	-1430
▁legal	-1431
▁austral	-1432
res	-1433
▁early	-1434
▁teacher	-1435
▁transport	-1436
▁compet	-1437
▁concern	-1438
ug	-1439
ential	-1440
▁important	-1441
▁camp	-1442
▁cris	-1443
▁force	-1444
▁parli	-1445
▁parliament	-1446
▁common	-1447
▁fuel	-1448
▁toward	-1449
por	-1450
▁improve	-1451
▁ai	-1452
▁purch	-1453
olute	-1454
for	-1455
▁expense	-1456
wh	-1457
rugg	-1458
▁lack	-1459
do	-1460
▁finance	-1461
▁down	-1462
▁fail	-1463
tern	-1464
▁akd	-1465
▁crisis	-1466
▁personally	-1467
▁office	-1468
▁dou	-1469
▁rule	-1470
▁absolute	-1471
▁contin	-1472
▁pm	-1473
▁later	-1474
alese	-1475
▁citizen	-1476
▁huge	-1477
▁purchase	-1478
uly	-1479
aw	-1480
ott	-1481
▁basic	-1482
erve	-1483
▁vac	-1484
▁cover	-1485
gan	-1486
▁line	-1487
book	-1488
▁maint	-1489
▁strong	-1490
▁cash	-1491
▁medic	-1492
oth	-1493
rious	-1494
▁late	-1495
▁instit	-1496
az	-1497
▁heard	-1498
▁opp	-1499
ked	-1500
▁entire	-1501
ics	-1502
▁sinhalese	-1503
fficult	-1504
▁sound	-1505
▁control	-1506
▁civ	-1507
▁fac	-1508
▁word	-1509
really	-1510
▁select	-1511
▁difficult	-1512
▁deli	-1513
▁soci	-1514
▁source	-1515
vert	-1516
▁oft	-1517
▁fair	-1518
▁bill	-1519
▁team	-1520
av	-1521
vid	-1522
▁item	-1523
▁extre	-1524
▁customer	-1525
▁cy	-1526
▁cal	-1527
▁often	-1528
▁step	-1529
▁claim	-1530
cer	-1531
uine	-1532
▁govt	-1533
▁accept	-1534
▁detail	-1535
▁view	-1536
▁outside	-1537
▁internship	-1538
alf	-1539
ger	-1540
atever	-1541
▁airport	-1542
▁interview	-1543
den	-1544
▁est	-1545
▁knowledge	-1546
▁mass	-1547
▁medical	-1548
care	-1549
▁genuine	-1550
▁security	-1551
uwa	-1552
▁access	-1553
▁reduce	-1554
▁whatever	-1555
ited	-1556
▁link	-1557
▁super	-1558
gr	-1559
▁poor	-1560
▁eat	-1561
itive	-1562
▁paper	-1563
▁transfer	-1564
sy	-1565
era	-1566
iling	-1567
▁politics	-1568
▁previous	-1569
▁sort	-1570
▁men	-1571
▁leader	-1572
▁bra	-1573
▁eth	-1574
▁ann	-1575
ission	-1576
▁major	-1577
▁goog	-1578
ina	-1579
ivid	-1580
▁drop	-1581
ibility	-1582
▁graduate	-1583
ump	-1584
itle	-1585
▁doll	-1586
▁google	-1587
▁towards	-1588
idate	-1589
▁demand	-1590
▁organ	-1591
▁reach	-1592
▁master	-1593
▁design	-1594
▁literally	-1595
▁rupe	-1596
▁happy	-1597
▁strugg	-1598
ark	-1599
▁lt	-1600
▁dollar	-1601
▁employee	-1602
▁pet	-1603
▁win	-1604
▁explo	-1605
▁minim	-1606
▁struggle	-1607
▁dig	-1608
▁suc	-1609
▁wel	-1610
ator	-1611
▁religion	-1612
igure	-1613
▁spot	-1614
iron	-1615
▁minister	-1616
▁specific	-1617
▁hop	-1618
▁member	-1619
▁curious	-1620
▁individ	-1621
▁buddh	-1622
ier	-1623
▁appro	-1624
ction	-1625
▁mult	-1626
▁court	-1627
▁test	-1628
▁extra	-1629
▁light	-1630
▁moment	-1631
▁hit	-1632
▁civil	-1633
▁sense	-1634
ix	-1635
ury	-1636
▁model	-1637
▁waste	-1638
▁stream	-1639
▁relation	-1640
▁australia	-1641
▁upd	-1642
▁human	-1643
ination	-1644
▁rain	-1645
▁store	-1646
iod	-1647
▁note	-1648
▁period	-1649
▁obvious	-1650
▁auth	-1651
▁plus	-1652
orry	-1653
▁pot	-1654
▁site	-1655
▁bri	-1656
ift	-1657
▁along	-1658
▁sever	-1659
▁bal	-1660
▁figure	-1661
leg	-1662
▁ter	-1663
▁individual	-1664
ivity	-1665
▁marri	-1666
▁deliver	-1667
ood	-1668
▁nor	-1669
▁official	-1670
▁correct	-1671
▁mb	-1672
ssion	-1673
▁cand	-1674
zy	-1675
▁bar	-1676
▁arm	-1677
▁sad	-1678
▁unp	-1679
▁via	-1680
illing	-1681
▁society	-1682
▁reli	-1683
▁slow	-1684
ps	-1685
ik	-1686
val	-1687
▁docu	-1688
ogether	-1689
▁document	-1690
▁difference	-1691
▁pu	-1692
▁across	-1693
ann	-1694
▁fr	-1695
▁cod	-1696
▁fla	-1697
▁action	-1698
▁bla	-1699
ially	-1700
▁hire	-1701
▁accord	-1702
▁standard	-1703
ncy	-1704
▁ide	-1705
▁lic	-1706
▁pres	-1707
▁handle	-1708
elt	-1709
▁miss	-1710
▁mot	-1711
ym	-1712
ada	-1713
▁fit	-1714
▁lab	-1715
▁begin	-1716
▁living	-1717
▁development	-1718
aya	-1719
▁mobile	-1720
sp	-1721
ply	-1722
▁migrate	-1723
▁respect	-1724
▁professional	-1725
ptop	-1726
▁mal	-1727
▁pea	-1728
▁laptop	-1729
▁forward	-1730
▁colle	-1731
▁rupee	-1732
▁sorry	-1733
vie	-1734
reen	-1735
▁east	-1736
▁partic	-1737
▁movie	-1738
▁extreme	-1739
▁beaut	-1740
▁china	-1741
▁clean	-1742
▁solution	-1743
by	-1744
io	-1745
▁hy	-1746
with	-1747
▁hair	-1748
▁exist	-1749
▁management	-1750
imate	-1751
▁north	-1752
▁comfort	-1753
▁insight	-1754
ention	-1755
▁mother	-1756
▁relate	-1757
vp	-1758
ret	-1759
▁imf	-1760
▁hate	-1761
▁completely	-1762
▁ltte	-1763
▁walk	-1764
ront	-1765
▁exc	-1766
▁network	-1767
▁mis	-1768
▁half	-1769
▁actual	-1770
rict	-1771
▁continue	-1772
set	-1773
▁stick	-1774
ructure	-1775
▁electric	-1776
▁rich	-1777
▁candidate	-1778
▁three	-1779
▁stat	-1780
▁involve	-1781
▁weather	-1782
▁mental	-1783
▁update	-1784
▁affect	-1785
▁respons	-1786
▁saf	-1787
▁plat	-1788
ror	-1789
▁role	-1790
▁owner	-1791
▁peace	-1792
▁island	-1793
uter	-1794
▁eur	-1795
▁arri	-1796
▁music	-1797
▁message	-1798
▁insur	-1799
▁practice	-1800
aur	-1801
istic	-1802
▁crit	-1803
fortun	-1804
▁effect	-1805
ditional	-1806
▁wish	-1807
▁commun	-1808
▁jvp	-1809
▁covid	-1810
oud	-1811
▁unfortun	-1812
▁trade	-1813
▁behind	-1814
co	-1815
▁gb	-1816
▁aware	-1817
▁protect	-1818
pri	-1819
▁sea	-1820
▁simply	-1821
▁signific	-1822
▁discu	-1823
aurant	-1824
▁monthly	-1825
▁restaurant	-1826
ulate	-1827
▁profit	-1828
▁together	-1829
▁gain	-1830
▁condition	-1831
▁glo	-1832
▁explain	-1833
▁relative	-1834
outu	-1835
▁jun	-1836
▁sun	-1837
▁div	-1838
▁hea	-1839
load	-1840
spect	-1841
▁youtu	-1842
▁currency	-1843
▁absolutely	-1844
bal	-1845
▁park	-1846
▁range	-1847
▁medicine	-1848
▁lu	-1849
▁bet	-1850
ization	-1851
▁partner	-1852
edu	-1853
ager	-1854
▁sen	-1855
▁fall	-1856
▁white	-1857
▁europe	-1858
▁generation	-1859
▁alone	-1860
▁foreigner	-1861
body	-1862
▁env	-1863
▁daily	-1864
▁ticket	-1865
ding	-1866
ll	-1867
▁except	-1868
▁nation	-1869
rant	-1870
▁nd	-1871
▁computer	-1872
▁significant	-1873
▁relationship	-1874
eal	-1875
rib	-1876
par	-1877
jith	-1878
▁wed	-1879
▁mat	-1880
▁info	-1881
▁room	-1882
▁foot	-1883
▁western	-1884
▁ah	-1885
▁influ	-1886
▁recent	-1887
cc	-1888
nd	-1889
▁rid	-1890
▁quick	-1891
▁success	-1892
▁tourism	-1893
▁planning	-1894
▁jap	-1895
▁worker	-1896
ream	-1897
▁uber	-1898
▁title	-1899
ah	-1900
▁press	-1901
▁fan	-1902
ye	-1903
▁pat	-1904
▁okay	-1905
▁rout	-1906
▁platform	-1907
▁cop	-1908
upid	-1909
iit	-1910
▁fast	-1911
▁switch	-1912
▁init	-1913
ironment	-1914
▁collect	-1915
▁insurance	-1916
ere	-1917
▁environment	-1918
mber	-1919
ully	-1920
▁likely	-1921
▁exactly	-1922
eric	-1923
▁phot	-1924
▁perform	-1925
ption	-1926
▁viol	-1927
change	-1928
▁traffic	-1929
wise	-1930
▁bike	-1931
▁feed	-1932
▁wife	-1933
▁simple	-1934
▁reliable	-1935
▁willing	-1936
▁register	-1937
yle	-1938
▁stupid	-1939
▁license	-1940
▁fell	-1941
▁stra	-1942
▁enter	-1943
▁anyway	-1944
annel	-1945
▁oper	-1946
▁sport	-1947
▁easily	-1948
▁multip	-1949
▁search	-1950
back	-1951
▁directly	-1952
he	-1953
ero	-1954
igin	-1955
▁maintain	-1956
▁somewhere	-1957
fect	-1958
▁just	-1959
▁freel	-1960
▁channel	-1961
epend	-1962
▁heav	-1963
▁raise	-1964
cessary	-1965
▁attack	-1966
▁helpful	-1967
▁tv	-1968
▁tre	-1969
▁muslim	-1970
ker	-1971
▁sex	-1972
▁balance	-1973
ifi	-1974
▁milit	-1975
▁cricket	-1976
▁resource	-1977
▁inflation	-1978
that	-1979
▁unfortunately	-1980
emic	-1981
more	-1982
umb	-1983
hands	-1984
▁sajith	-1985
▁capital	-1986
▁kill	-1987
▁canada	-1988
und	-1989
▁applic	-1990
▁origin	-1991
▁youtube	-1992
iful	-1993
▁assume	-1994
▁acad	-1995
sa	-1996
pal	-1997
▁desp	-1998
▁saving	-1999
▁wear	-2000
▁americ	-2001
▁location	-2002
▁amaz	-2003
of	-2004
▁smart	-2005
▁beautiful	-2006
▁qualification	-2007
▁ant	-2008
▁minimum	-2009
▁total	-2010
▁remove	-2011
▁unit	-2012
▁oppos	-2013
ili	-2014
▁among	-2015
▁email	-2016
▁sig	-2017
ground	-2018
▁letter	-2019
▁mainly	-2020
sed	-2021
▁ele	-2022
action	-2023
▁commer	-2024
▁die	-2025
iriya	-2026
▁highly	-2027
▁review	-2028
▁independ	-2029
rid	-2030
see	-2031
▁ign	-2032
▁gota	-2033
▁remote	-2034
▁passport	-2035
ogn	-2036
under	-2037
▁ship	-2038
idence	-2039
limited	-2040
▁multiple	-2041
▁property	-2042
▁obviously	-2043
let	-2044
iner	-2045
▁hol	-2046
gress	-2047
▁cam	-2048
▁cuz	-2049
▁dad	-2050
apore	-2051
▁digital	-2052
▁prem	-2053
▁crime	-2054
▁altern	-2055
▁explore	-2056
uth	-2057
istry	-2058
▁ethn	-2059
▁staff	-2060
▁dest	-2061
▁meth	-2062
▁commit	-2063
▁hor	-2064
▁blame	-2065
▁space	-2066
▁track	-2067
▁physical	-2068
▁singapore	-2069
▁ach	-2070
▁dude	-2071
▁finish	-2072
▁several	-2073
▁aut	-2074
▁folk	-2075
▁brother	-2076
▁suppose	-2077
▁extremely	-2078
ai	-2079
▁related	-2080
▁station	-2081
▁complain	-2082
ively	-2083
▁boy	-2084
▁ess	-2085
▁deep	-2086
▁felt	-2087
▁prep	-2088
▁till	-2089
▁sliit	-2090
▁temple	-2091
▁unlimited	-2092
outer	-2093
▁popular	-2094
▁address	-2095
▁fem	-2096
▁military	-2097
med	-2098
▁jour	-2099
▁star	-2100
▁gym	-2101
going	-2102
▁gold	-2103
▁sho	-2104
▁remain	-2105
cri	-2106
▁psy	-2107
▁key	-2108
▁push	-2109
▁match	-2110
▁overse	-2111
▁despite	-2112
▁progress	-2113
gust	-2114
▁senior	-2115
▁college	-2116
▁content	-2117
▁marriage	-2118
att	-2119
nch	-2120
▁char	-2121
▁router	-2122
▁sale	-2123
▁anura	-2124
▁refer	-2125
▁decade	-2126
ca	-2127
ext	-2128
atic	-2129
▁minute	-2130
▁facebook	-2131
quest	-2132
▁background	-2133
light	-2134
▁ride	-2135
▁realize	-2136
▁regular	-2137
▁buddhist	-2138
▁ur	-2139
▁mem	-2140
▁seat	-2141
▁user	-2142
▁grade	-2143
▁anymore	-2144
▁activity	-2145
▁tour	-2146
▁fight	-2147
▁recogn	-2148
▁exchange	-2149
▁properly	-2150
yer	-2151
▁dog	-2152
▁psych	-2153
▁route	-2154
rist	-2155
▁arg	-2156
▁mist	-2157
▁cause	-2158
▁father	-2159
▁morning	-2160
▁no	-2161
ergy	-2162
▁occ	-2163
ificate	-2164
▁overseas	-2165
ays	-2166
▁tend	-2167
▁certificate	-2168
▁rand	-2169
▁ident	-2170
▁export	-2171
▁jaff	-2172
▁record	-2173
▁otherwise	-2174
bor	-2175
▁aud	-2176
▁goal	-2177
▁found	-2178
▁reply	-2179
▁lawyer	-2180
▁finally	-2181
▁eye	-2182
▁club	-2183
▁vacc	-2184
▁wise	-2185
▁communic	-2186
▁apartment	-2187
▁code	-2188
▁fold	-2189
▁imag	-2190
▁immig	-2191
▁jaffna	-2192
▁cool	-2193
▁black	-2194
▁worry	-2195
▁educate	-2196
▁il	-2197
▁separ	-2198
▁forget	-2199
▁method	-2200
▁central	-2201
▁manager	-2202
▁request	-2203
racy	-2204
▁ban	-2205
▁seek	-2206
▁topic	-2207
▁truly	-2208
▁ethnic	-2209
▁random	-2210
▁suffer	-2211
▁anal	-2212
▁bear	-2213
▁replace	-2214
oter	-2215
▁cli	-2216
▁front	-2217
sue	-2218
▁the	-2219
▁context	-2220
▁promise	-2221
▁department	-2222
▁cir	-2223
▁army	-2224
▁lect	-2225
plement	-2226
▁attend	-2227
▁alternative	-2228
▁sat	-2229
▁vol	-2230
ester	-2231
▁particular	-2232
ief	-2233
▁ut	-2234
vant	-2235
▁fellow	-2236
▁technology	-2237
▁nuw	-2238
▁file	-2239
▁coast	-2240
▁sn	-2241
▁bur	-2242
▁implement	-2243
ung	-2244
need	-2245
▁lux	-2246
▁chem	-2247
▁crazy	-2248
▁doubt	-2249
▁surpri	-2250
▁friendly	-2251
▁potential	-2252
iate	-2253
pose	-2254
▁bare	-2255
▁hr	-2256
▁sj	-2257
▁fully	-2258
▁pursue	-2259
▁seriously	-2260
pay	-2261
▁page	-2262
▁ls	-2263
▁sup	-2264
▁usa	-2265
inate	-2266
▁final	-2267
▁religious	-2268
yl	-2269
▁gl	-2270
rest	-2271
▁fake	-2272
▁appoint	-2273
▁overall	-2274
▁achieve	-2275
▁straight	-2276
▁population	-2277
mer	-2278
▁aw	-2279
▁ip	-2280
▁block	-2281
▁marry	-2282
▁reality	-2283
▁sigiriya	-2284
▁intro	-2285
▁building	-2286
▁rs	-2287
alent	-2288
ating	-2289
▁arrive	-2290
▁folded	-2291
cket	-2292
▁friends	-2293
▁deb	-2294
▁drink	-2295
▁illeg	-2296
▁corpor	-2297
▁growth	-2298
▁itiner	-2299
▁consult	-2300
▁emb	-2301
▁god	-2302
▁nuwara	-2303
▁repair	-2304
▁confuse	-2305
▁contract	-2306
▁itinerary	-2307
band	-2308
ec	-2309
▁dev	-2310
▁street	-2311
gic	-2312
▁dm	-2313
▁imagine	-2314
▁genuinely	-2315
▁dut	-2316
▁sjb	-2317
▁brit	-2318
▁dream	-2319
▁requirement	-2320
ask	-2321
hap	-2322
olar	-2323
▁comb	-2324
▁democ	-2325
▁sam	-2326
allen	-2327
orrow	-2328
▁apps	-2329
▁effort	-2330
▁pickme	-2331
ince	-2332
▁body	-2333
▁safety	-2334
▁clearly	-2335
▁welcome	-2336
▁tar	-2337
▁global	-2338
▁inside	-2339
▁officer	-2340
▁electricity	-2341
ats	-2342
ery	-2343
▁rd	-2344
▁don	-2345
▁cook	-2346
istration	-2347
▁spending	-2348
iot	-2349
liya	-2350
▁fill	-2351
▁physic	-2352
▁apparent	-2353
erv	-2354
osit	-2355
unch	-2356
▁fav	-2357
▁jan	-2358
▁challen	-2359
irm	-2360
inese	-2361
▁fire	-2362
▁solid	-2363
▁convers	-2364
▁eventually	-2365
▁jud	-2366
▁slight	-2367
▁neigh	-2368
▁settle	-2369
▁chinese	-2370
▁miri	-2371
▁deposit	-2372
▁inn	-2373
▁alth	-2374
▁application	-2375
▁stri	-2376
▁cyber	-2377
▁anywhere	-2378
▁immed	-2379
▁academic	-2380
▁although	-2381
▁carry	-2382
▁stress	-2383
▁everywhere	-2384
▁institution	-2385
ssa	-2386
▁host	-2387
▁client	-2388
▁specifically	-2389
give	-2390
▁guide	-2391
▁scholar	-2392
unt	-2393
▁wealth	-2394
▁startup	-2395
vent	-2396
▁king	-2397
▁eliya	-2398
▁legit	-2399
▁fly	-2400
▁cultural	-2401
▁comfortable	-2402
ney	-2403
▁nat	-2404
▁mark	-2405
▁batter	-2406
irt	-2407
▁max	-2408
▁board	-2409
▁perfect	-2410
▁generally	-2411
ers	-2412
▁vers	-2413
▁energy	-2414
▁flight	-2415
▁incident	-2416
ball	-2417
illa	-2418
▁listen	-2419
▁pressure	-2420
▁challenge	-2421
▁mine	-2422
▁mistake	-2423
▁passion	-2424
▁release	-2425
ny	-2426
cel	-2427
▁flo	-2428
▁mix	-2429
▁impact	-2430
▁present	-2431
rast	-2432
▁ver	-2433
erial	-2434
▁chat	-2435
▁skin	-2436
▁vict	-2437
▁wage	-2438
▁factor	-2439
▁article	-2440
▁specially	-2441
▁er	-2442
anda	-2443
cent	-2444
▁asia	-2445
▁motor	-2446
▁modern	-2447
cs	-2448
▁tu	-2449
ught	-2450
▁catch	-2451
▁apparently	-2452
▁grand	-2453
ze	-2454
▁crow	-2455
▁score	-2456
sec	-2457
ogra	-2458
▁expert	-2459
▁battery	-2460
▁confirm	-2461
▁illegal	-2462
ming	-2463
▁fil	-2464
▁town	-2465
▁billion	-2466
ceed	-2467
empt	-2468
force	-2469
▁dumb	-2470
rug	-2471
▁pan	-2472
▁fort	-2473
▁brain	-2474
▁luxury	-2475
▁mirissa	-2476
▁delivery	-2477
▁institute	-2478
▁sla	-2479
▁pict	-2480
resent	-2481
▁recover	-2482
how	-2483
▁km	-2484
▁oh	-2485
irth	-2486
room	-2487
▁surv	-2488
▁picture	-2489
▁facility	-2490
ram	-2491
▁oct	-2492
▁mbps	-2493
▁lease	-2494
▁union	-2495
cist	-2496
ting	-2497
ression	-2498
▁mahind	-2499
▁mr	-2500
pper	-2501
▁rise	-2502
▁refuse	-2503
▁supply	-2504
▁commission	-2505
what	-2506
▁pas	-2507
phant	-2508
▁campus	-2509
▁elephant	-2510
mb	-2511
▁ir	-2512
▁lie	-2513
▁oil	-2514
▁double	-2515
▁prepare	-2516
▁hopefully	-2517
▁by	-2518
plom	-2519
▁crowd	-2520
▁diplom	-2521
▁female	-2522
▁undergra	-2523
▁foundation	-2524
hold	-2525
▁sil	-2526
▁fear	-2527
▁cance	-2528
▁compla	-2529
▁scholarship	-2530
mean	-2531
▁mech	-2532
reddit	-2533
▁death	-2534
▁ground	-2535
▁nature	-2536
▁stable	-2537
understand	-2538
▁opposition	-2539
sha	-2540
▁sud	-2541
▁birth	-2542
▁solve	-2543
▁contrib	-2544
▁positive	-2545
▁regardless	-2546
time	-2547
▁lay	-2548
▁wild	-2549
▁third	-2550
▁greatly	-2551
▁employer	-2552
▁traditional	-2553
enty	-2554
rible	-2555
▁target	-2556
▁lif	-2557
otion	-2558
▁bunch	-2559
▁mindset	-2560
▁july	-2561
▁trou	-2562
▁buying	-2563
▁approach	-2564
▁dead	-2565
▁suit	-2566
▁frust	-2567
▁subreddit	-2568
▁discussion	-2569
ey	-2570
nam	-2571
itor	-2572
▁sle	-2573
▁purpose	-2574
▁american	-2575
▁response	-2576
rop	-2577
▁pa	-2578
▁var	-2579
venue	-2580
▁loss	-2581
▁idiot	-2582
▁scen	-2583
▁advise	-2584
▁totally	-2585
▁complaint	-2586
▁affordable	-2587
▁q	-2588
ons	-2589
ibly	-2590
▁roll	-2591
fficient	-2592
▁british	-2593
we	-2594
▁lak	-2595
▁copy	-2596
▁text	-2597
▁prior	-2598
▁trouble	-2599
cast	-2600
▁web	-2601
▁band	-2602
▁asian	-2603
▁original	-2604
▁reasonable	-2605
imal	-2606
▁fle	-2607
▁freed	-2608
▁consum	-2609
ized	-2610
▁typ	-2611
▁coun	-2612
▁reform	-2613
▁terror	-2614
acy	-2615
▁fd	-2616
anger	-2617
▁asset	-2618
▁ignore	-2619
▁influence	-2620
cip	-2621
fore	-2622
▁truth	-2623
▁necessary	-2624
br	-2625
lt	-2626
oss	-2627
antly	-2628
▁drug	-2629
▁tele	-2630
▁adult	-2631
▁cloth	-2632
▁print	-2633
hav	-2634
put	-2635
▁mp	-2636
▁pc	-2637
ience	-2638
least	-2639
▁joke	-2640
▁wind	-2641
▁anybody	-2642
▁authority	-2643
▁ep	-2644
▁lad	-2645
▁nob	-2646
wards	-2647
▁hike	-2648
▁vibe	-2649
▁arrest	-2650
▁disapp	-2651
▁season	-2652
take	-2653
tone	-2654
▁thr	-2655
▁milk	-2656
▁zero	-2657
▁throw	-2658
▁threat	-2659
iece	-2660
▁bey	-2661
▁guid	-2662
▁none	-2663
▁villa	-2664
▁atleast	-2665
▁freedom	-2666
▁massive	-2667
▁negative	-2668
skin	-2669
ender	-2670
▁autom	-2671
▁smiling	-2672
▁weekend	-2673
▁healthcare	-2674
mar	-2675
mind	-2676
▁exec	-2677
▁plant	-2678
▁better	-2679
▁cancel	-2680
▁conversation	-2681
friend	-2682
▁tuition	-2683
▁entry	-2684
ossible	-2685
ruction	-2686
▁promote	-2687
▁warrant	-2688
▁download	-2689
▁feedback	-2690
place	-2691
▁dece	-2692
▁photo	-2693
▁mahinda	-2694
▁represent	-2695
▁employment	-2696
stic	-2697
▁pun	-2698
▁beyond	-2699
▁negombo	-2700
oon	-2701
atory	-2702
▁trend	-2703
▁arch	-2704
▁damn	-2705
spective	-2706
new	-2707
▁tia	-2708
▁rank	-2709
▁heavy	-2710
▁august	-2711
▁nobody	-2712
▁patient	-2713
achel	-2714
▁broad	-2715
▁reput	-2716
scri	-2717
ulla	-2718
▁gas	-2719
▁bachel	-2720
▁version	-2721
▁minority	-2722
▁responsibility	-2723
sb	-2724
▁je	-2725
fact	-2726
▁nam	-2727
▁mach	-2728
▁pain	-2729
▁chill	-2730
▁emerg	-2731
▁addition	-2732
▁electron	-2733
▁performance	-2734
▁din	-2735
▁now	-2736
worth	-2737
▁usual	-2738
▁longer	-2739
hood	-2740
▁hur	-2741
▁anti	-2742
▁hang	-2743
▁unlike	-2744
▁bachelor	-2745
▁statement	-2746
lla	-2747
▁cc	-2748
itel	-2749
▁rev	-2750
▁race	-2751
▁tough	-2752
▁barely	-2753
▁reserve	-2754
▁slightly	-2755
▁cat	-2756
▁got	-2757
▁holid	-2758
▁plenty	-2759
▁status	-2760
ors	-2761
gger	-2762
▁iit	-2763
▁repe	-2764
▁spread	-2765
▁bat	-2766
▁gar	-2767
▁agent	-2768
▁green	-2769
smiling	-2770
▁secure	-2771
make	-2772
▁ahead	-2773
▁morat	-2774
▁weird	-2775
▁racist	-2776
▁emergency	-2777
raw	-2778
brid	-2779
▁cele	-2780
▁proof	-2781
▁survive	-2782
look	-2783
ulty	-2784
▁bot	-2785
ablish	-2786
▁sleep	-2787
▁yester	-2788
▁justice	-2789
▁percent	-2790
▁moratuwa	-2791
▁attention	-2792
una	-2793
▁ik	-2794
been	-2795
▁son	-2796
▁ult	-2797
arant	-2798
itude	-2799
▁prof	-2800
▁behav	-2801
▁serve	-2802
▁shift	-2803
▁sudden	-2804
▁holiday	-2805
▁infrast	-2806
▁various	-2807
you	-2808
▁sum	-2809
▁duty	-2810
▁firm	-2811
▁revenue	-2812
▁warranty	-2813
▁freelance	-2814
▁piece	-2815
▁critic	-2816
▁yesterday	-2817
bre	-2818
eme	-2819
▁december	-2820
▁corporate	-2821
▁marketing	-2822
▁perspective	-2823
▁infrastructure	-2824
gy	-2825
▁meal	-2826
▁reject	-2827
▁attempt	-2828
▁investig	-2829
ault	-2830
find	-2831
▁fra	-2832
▁gam	-2833
▁rag	-2834
▁ceyl	-2835
▁flag	-2836
▁pull	-2837
▁sept	-2838
antage	-2839
▁campa	-2840
▁fiber	-2841
▁remind	-2842
▁establish	-2843
▁practical	-2844
ling	-2845
▁ict	-2846
▁calc	-2847
▁rare	-2848
ension	-2849
▁center	-2850
▁mobitel	-2851
▁separate	-2852
su	-2853
omb	-2854
▁hat	-2855
▁pla	-2856
ograph	-2857
ciation	-2858
▁region	-2859
▁campaign	-2860
▁advantage	-2861
pa	-2862
▁ge	-2863
ider	-2864
ruit	-2865
press	-2866
▁asso	-2867
▁male	-2868
▁admin	-2869
▁ready	-2870
too	-2871
uary	-2872
urer	-2873
▁suck	-2874
▁talent	-2875
▁convert	-2876
▁faculty	-2877
ov	-2878
ler	-2879
ried	-2880
▁den	-2881
▁fresh	-2882
▁voter	-2883
▁trading	-2884
lier	-2885
iately	-2886
▁touch	-2887
▁device	-2888
▁mechan	-2889
▁srilankan	-2890
▁transaction	-2891
cism	-2892
rier	-2893
▁bab	-2894
▁lin	-2895
right	-2896
▁manu	-2897
▁sent	-2898
levant	-2899
▁colon	-2900
▁hence	-2901
▁stage	-2902
cipline	-2903
▁material	-2904
▁tom	-2905
▁cine	-2906
▁song	-2907
▁constit	-2908
▁district	-2909
ape	-2910
ril	-2911
say	-2912
▁bag	-2913
▁rice	-2914
▁solo	-2915
▁surf	-2916
▁apart	-2917
▁valid	-2918
▁screen	-2919
▁somehow	-2920
▁communication	-2921
xic	-2922
etic	-2923
▁cab	-2924
▁smo	-2925
▁germ	-2926
▁pure	-2927
▁ruin	-2928
▁style	-2929
ta	-2930
▁delay	-2931
▁japan	-2932
▁namal	-2933
▁scale	-2934
▁express	-2935
▁commercial	-2936
▁discipline	-2937
▁immediately	-2938
ka	-2939
mp	-2940
oy	-2941
ingly	-2942
▁size	-2943
▁airline	-2944
▁manufact	-2945
▁rw	-2946
draw	-2947
▁mer	-2948
allow	-2949
▁image	-2950
▁scene	-2951
▁agency	-2952
▁feature	-2953
▁introduce	-2954
har	-2955
▁ton	-2956
board	-2957
▁broker	-2958
ober	-2959
▁bay	-2960
▁toy	-2961
ivate	-2962
▁rela	-2963
atsapp	-2964
▁analy	-2965
▁useless	-2966
▁bite	-2967
▁june	-2968
▁secret	-2969
▁violence	-2970
anch	-2971
lict	-2972
life	-2973
▁abuse	-2974
▁cross	-2975
▁october	-2976
▁pra	-2977
▁mate	-2978
▁wifi	-2979
▁creat	-2980
▁approve	-2981
▁whatsapp	-2982
▁cv	-2983
shit	-2984
▁hus	-2985
▁cycle	-2986
▁christ	-2987
▁resign	-2988
▁useful	-2989
▁feeling	-2990
▁prevent	-2991
▁preferably	-2992
▁immigration	-2993
pet	-2994
rael	-2995
▁baby	-2996
▁clar	-2997
mission	-2998
fol	-2999
▁nar	-3000
▁shoe	-3001
▁slpp	-3002
▁strate	-3003
▁investor	-3004
▁cru	-3005
▁opt	-3006
▁bull	-3007
▁april	-3008
▁thread	-3009
▁concept	-3010
▁guidance	-3011
▁dub	-3012
▁gre	-3013
▁table	-3014
▁retire	-3015
▁withdraw	-3016
▁presidential	-3017
oda	-3018
▁ic	-3019
eyes	-3020
▁cse	-3021
▁relax	-3022
▁israel	-3023
▁produce	-3024
pr	-3025
▁ig	-3026
▁bor	-3027
▁tool	-3028
▁unre	-3029
▁racism	-3030
ng	-3031
eet	-3032
▁fb	-3033
▁hut	-3034
▁cafe	-3035
▁attract	-3036
▁deserve	-3037
▁thinking	-3038
itt	-3039
▁prime	-3040
isation	-3041
▁former	-3042
▁september	-3043
oph	-3044
▁yo	-3045
oice	-3046
▁there	-3047
▁upper	-3048
▁treatment	-3049
▁financially	-3050
ike	-3051
loc	-3052
▁ill	-3053
erate	-3054
▁diploma	-3055
▁accident	-3056
▁tomorrow	-3057
▁bsc	-3058
▁log	-3059
▁shy	-3060
grade	-3061
entially	-3062
▁discuss	-3063
▁essential	-3064
lan	-3065
sel	-3066
ival	-3067
▁mur	-3068
▁rural	-3069
▁steal	-3070
▁permit	-3071
▁unique	-3072
▁husband	-3073
▁surprise	-3074
▁cas	-3075
▁burn	-3076
▁peak	-3077
▁rock	-3078
▁damage	-3079
▁strike	-3080
▁competition	-3081
▁responsible	-3082
bu	-3083
eas	-3084
hone	-3085
play	-3086
roll	-3087
urch	-3088
▁nove	-3089
▁pred	-3090
rimin	-3091
▁toxic	-3092
▁compar	-3093
▁punish	-3094
▁evidence	-3095
▁od	-3096
istan	-3097
ounce	-3098
stain	-3099
▁rough	-3100
▁tried	-3101
▁ideally	-3102
▁january	-3103
▁conflict	-3104
▁additional	-3105
▁pen	-3106
▁bond	-3107
▁russ	-3108
▁colla	-3109
▁estate	-3110
▁journey	-3111
▁machine	-3112
▁democracy	-3113
iy	-3114
only	-3115
illed	-3116
▁animal	-3117
▁november	-3118
bus	-3119
▁tin	-3120
▁unf	-3121
▁when	-3122
▁celeb	-3123
▁ceylon	-3124
▁independent	-3125
lus	-3126
▁fish	-3127
estyle	-3128
▁conven	-3129
▁engage	-3130
▁somewhat	-3131
▁whenever	-3132
▁developer	-3133
▁rajapaksa	-3134
▁nic	-3135
▁phd	-3136
edule	-3137
▁trin	-3138
coming	-3139
enance	-3140
▁liber	-3141
▁aspect	-3142
▁lately	-3143
▁vaccine	-3144
▁dark	-3145
▁load	-3146
▁judge	-3147
▁insane	-3148
▁clothes	-3149
wa	-3150
eel	-3151
▁twice	-3152
▁church	-3153
▁ensure	-3154
ced	-3155
▁alot	-3156
▁conv	-3157
▁prove	-3158
▁histor	-3159
▁player	-3160
▁operate	-3161
▁discount	-3162
▁neighbor	-3163
▁registration	-3164
▁dress	-3165
▁iphone	-3166
nb	-3167
▁lg	-3168
fall	-3169
▁gift	-3170
▁advert	-3171
▁shitty	-3172
▁banking	-3173
▁shortage	-3174
▁maintenance	-3175
▁transportation	-3176
▁ed	-3177
▁bed	-3178
▁obt	-3179
arily	-3180
ulous	-3181
▁bang	-3182
▁four	-3183
▁yala	-3184
▁amaze	-3185
▁sustain	-3186
▁chemistry	-3187
▁lifestyle	-3188
happ	-3189
wala	-3190
▁arr	-3191
▁byd	-3192
▁fal	-3193
▁mad	-3194
▁harm	-3195
▁wide	-3196
▁assist	-3197
▁obtain	-3198
▁sister	-3199
▁lecture	-3200
▁monitor	-3201
▁contribute	-3202
hel	-3203
iex	-3204
▁atm	-3205
▁coff	-3206
matter	-3207
▁aliex	-3208
▁transl	-3209
urb	-3210
ague	-3211
down	-3212
king	-3213
ugam	-3214
▁nur	-3215
▁door	-3216
▁mand	-3217
▁sylla	-3218
▁petrol	-3219
▁strict	-3220
▁consist	-3221
▁natural	-3222
▁european	-3223
▁everyday	-3224
▁discrimin	-3225
▁organization	-3226
nal	-3227
▁mag	-3228
▁glad	-3229
riction	-3230
▁rental	-3231
▁climate	-3232
hi	-3233
▁monk	-3234
▁taxi	-3235
▁unis	-3236
▁install	-3237
▁ministry	-3238
▁competitive	-3239
▁construction	-3240
arma	-3241
▁sem	-3242
▁hide	-3243
▁jump	-3244
▁youth	-3245
▁camera	-3246
▁ability	-3247
▁anyways	-3248
▁therefore	-3249
ech	-3250
▁nav	-3251
▁rap	-3252
▁tire	-3253
▁shame	-3254
▁distance	-3255
▁schedule	-3256
▁aliexpress	-3257
▁regulation	-3258
rep	-3259
unte	-3260
▁flu	-3261
▁rad	-3262
▁ball	-3263
rative	-3264
▁queue	-3265
▁locally	-3266
▁consumer	-3267
▁resident	-3268
▁structure	-3269
bour	-3270
seem	-3271
utor	-3272
▁scar	-3273
unteer	-3274
▁annoy	-3275
▁fibre	-3276
▁branch	-3277
▁scheme	-3278
▁quickly	-3279
▁attitude	-3280
▁volunteer	-3281
ini	-3282
▁ho	-3283
lete	-3284
▁pls	-3285
agree	-3286
utive	-3287
▁rant	-3288
enough	-3289
odation	-3290
▁crimin	-3291
▁murder	-3292
▁section	-3293
▁buddhism	-3294
▁aim	-3295
▁box	-3296
▁taste	-3297
▁trump	-3298
▁appear	-3299
▁session	-3300
▁provider	-3301
▁successful	-3302
sing	-3303
count	-3304
▁apple	-3305
▁false	-3306
▁negot	-3307
za	-3308
anth	-3309
ster	-3310
▁cro	-3311
▁lady	-3312
▁equip	-3313
▁fault	-3314
▁ridic	-3315
▁divide	-3316
▁syllabus	-3317
▁girlfriend	-3318
uch	-3319
ario	-3320
▁her	-3321
▁rat	-3322
ariff	-3323
▁diss	-3324
▁sick	-3325
▁funny	-3326
▁ideal	-3327
▁march	-3328
▁accomm	-3329
▁annual	-3330
▁bottle	-3331
▁submit	-3332
▁tariff	-3333
▁criminal	-3334
▁relevant	-3335
▁migration	-3336
▁impossible	-3337
▁restriction	-3338
bel	-3339
hol	-3340
▁pak	-3341
uable	-3342
▁bomb	-3343
▁prin	-3344
▁fairly	-3345
▁regret	-3346
▁football	-3347
rom	-3348
roy	-3349
vey	-3350
▁wt	-3351
▁mea	-3352
verse	-3353
▁root	-3354
▁sadly	-3355
▁repeat	-3356
▁journal	-3357
▁citizenship	-3358
bage	-3359
sequ	-3360
agram	-3361
ocent	-3362
▁dedu	-3363
▁vari	-3364
▁active	-3365
▁malays	-3366
▁refund	-3367
▁training	-3368
ison	-3369
ancer	-3370
being	-3371
conut	-3372
▁argu	-3373
▁hind	-3374
▁mount	-3375
▁uncle	-3376
▁priority	-3377
▁executive	-3378
▁technical	-3379
imb	-3380
▁bon	-3381
▁fri	-3382
ertain	-3383
▁dubai	-3384
▁setup	-3385
▁slowly	-3386
▁weight	-3387
▁complex	-3388
▁counter	-3389
▁guarant	-3390
▁meeting	-3391
▁village	-3392
▁effective	-3393
sess	-3394
▁gem	-3395
▁obs	-3396
anese	-3397
igama	-3398
▁equal	-3399
▁desper	-3400
▁generate	-3401
▁peaceful	-3402
ira	-3403
▁eu	-3404
ondon	-3405
pping	-3406
▁fest	-3407
▁hurt	-3408
▁toyota	-3409
▁highway	-3410
▁associate	-3411
ef	-3412
cil	-3413
acity	-3414
▁busy	-3415
▁flex	-3416
iction	-3417
▁voice	-3418
▁london	-3419
▁window	-3420
▁coconut	-3421
▁instagram	-3422
▁coz	-3423
icate	-3424
▁poll	-3425
▁skip	-3426
▁extern	-3427
▁garbage	-3428
▁bullshit	-3429
▁scenario	-3430
▁direction	-3431
▁recognize	-3432
yal	-3433
raid	-3434
▁bio	-3435
urate	-3436
▁rely	-3437
▁shot	-3438
▁solar	-3439
▁enforce	-3440
▁legally	-3441
▁frustrate	-3442
▁destination	-3443
▁undergraduate	-3444
ancy	-3445
mary	-3446
▁hid	-3447
point	-3448
imately	-3449
▁coffee	-3450
▁dinner	-3451
▁gender	-3452
▁heavily	-3453
▁skilled	-3454
▁agreement	-3455
oo	-3456
▁hom	-3457
▁left	-3458
▁upon	-3459
▁favor	-3460
▁danger	-3461
▁unable	-3462
▁earlier	-3463
▁innocent	-3464
▁pakistan	-3465
dp	-3466
▁my	-3467
haps	-3468
▁amb	-3469
▁map	-3470
▁ital	-3471
▁destroy	-3472
▁measure	-3473
▁upgrade	-3474
▁japanese	-3475
▁valuable	-3476
▁disappoint	-3477
flo	-3478
ings	-3479
▁gap	-3480
while	-3481
medium	-3482
▁argue	-3483
ologist	-3484
▁cinema	-3485
▁descri	-3486
▁victim	-3487
▁particip	-3488
▁relatively	-3489
▁adop	-3490
▁beat	-3491
▁film	-3492
▁task	-3493
▁batch	-3494
▁blood	-3495
▁tutor	-3496
▁usage	-3497
▁labour	-3498
▁lesson	-3499
▁nearby	-3500
▁arrange	-3501
▁ethnicity	-3502
ban	-3503
tuk	-3504
▁mac	-3505
ified	-3506
▁circ	-3507
▁lakh	-3508
▁loud	-3509
▁samp	-3510
▁sens	-3511
enture	-3512
▁occas	-3513
▁perman	-3514
▁signal	-3515
▁meaning	-3516
▁perhaps	-3517
▁strategy	-3518
try	-3519
▁ine	-3520
▁cous	-3521
▁advis	-3522
▁paypal	-3523
▁wedding	-3524
▁province	-3525
▁ridiculous	-3526
▁appointment	-3527
iet	-3528
ser	-3529
ughing	-3530
▁proud	-3531
▁easter	-3532
▁nearly	-3533
▁tuktuk	-3534
▁council	-3535
▁external	-3536
key	-3537
▁bott	-3538
▁arugam	-3539
▁assign	-3540
▁cousin	-3541
▁gather	-3542
▁sexual	-3543
▁tempor	-3544
▁identify	-3545
fc	-3546
asa	-3547
much	-3548
▁pod	-3549
▁farm	-3550
▁hass	-3551
▁weak	-3552
expect	-3553
▁aside	-3554
▁frequ	-3555
▁rolling	-3556
▁commerce	-3557
▁identity	-3558
▁production	-3559
▁constitution	-3560
▁independence	-3561
gue	-3562
floor	-3563
inghe	-3564
oting	-3565
▁wash	-3566
▁emotion	-3567
▁equipment	-3568
▁stability	-3569
▁supporter	-3570
▁significantly	-3571
ony	-3572
▁kn	-3573
ateg	-3574
▁gate	-3575
▁wheel	-3576
laughing	-3577
▁sampath	-3578
necessary	-3579
▁vacation	-3580
▁consultant	-3581
▁expectation	-3582
▁dom	-3583
▁kick	-3584
ousing	-3585
▁manip	-3586
▁seller	-3587
▁arrival	-3588
▁bankrupt	-3589
▁intention	-3590
sas	-3591
une	-3592
▁ol	-3593
▁yr	-3594
▁era	-3595
▁lgbt	-3596
▁swim	-3597
▁hutch	-3598
▁renew	-3599
▁afraid	-3600
▁series	-3601
▁realise	-3602
▁economics	-3603
▁mentality	-3604
sung	-3605
▁ven	-3606
every	-3607
iency	-3608
▁categ	-3609
▁lucky	-3610
▁round	-3611
▁hassle	-3612
▁housing	-3613
▁married	-3614
▁portfol	-3615
▁lecturer	-3616
▁terrible	-3617
urd	-3618
feel	-3619
list	-3620
ngth	-3621
▁gdp	-3622
kedin	-3623
▁arag	-3624
▁blind	-3625
▁graph	-3626
▁stuck	-3627
▁thous	-3628
itation	-3629
▁curric	-3630
▁sunday	-3631
▁wildlife	-3632
▁understanding	-3633
da	-3634
ellig	-3635
▁blue	-3636
▁bonus	-3637
▁bottom	-3638
▁princi	-3639
▁conduct	-3640
▁influen	-3641
▁linkedin	-3642
▁thousand	-3643
▁guarantee	-3644
▁tradition	-3645
▁interesting	-3646
wel	-3647
▁ug	-3648
▁ten	-3649
eable	-3650
▁lock	-3651
▁admit	-3652
▁gradu	-3653
▁shock	-3654
▁portfolio	-3655
▁percentage	-3656
▁eg	-3657
▁bru	-3658
▁pal	-3659
▁san	-3660
▁shi	-3661
iment	-3662
inger	-3663
▁trash	-3664
▁approval	-3665
▁strength	-3666
tr	-3667
▁vat	-3668
adays	-3669
▁clue	-3670
▁damb	-3671
▁sold	-3672
▁beside	-3673
▁reflect	-3674
▁intellig	-3675
▁malaysia	-3676
▁suddenly	-3677
▁weligama	-3678
▁constantly	-3679
▁appreciated	-3680
lam	-3681
pro	-3682
pse	-3683
▁ps	-3684
▁dict	-3685
▁grate	-3686
▁hidden	-3687
▁theory	-3688
▁behavior	-3689
▁nowadays	-3690
▁investigation	-3691
▁tie	-3692
▁tik	-3693
▁mall	-3694
▁quit	-3695
▁used	-3696
▁color	-3697
olution	-3698
▁bugger	-3699
▁famous	-3700
▁resort	-3701
security	-3702
▁display	-3703
▁soldier	-3704
▁terrorist	-3705
▁preference	-3706
▁rajapaksas	-3707
reg	-3708
well	-3709
atically	-3710
▁consequ	-3711
▁healthy	-3712
▁initial	-3713
▁argument	-3714
▁movement	-3715
▁possibly	-3716
▁influencer	-3717
my	-3718
col	-3719
ena	-3720
rem	-3721
tear	-3722
▁maf	-3723
▁van	-3724
▁kott	-3725
▁vend	-3726
▁chick	-3727
▁dance	-3728
▁maxim	-3729
▁author	-3730
▁survey	-3731
▁celebrate	-3732
iry	-3733
ode	-3734
rit	-3735
ton	-3736
▁ba	-3737
▁dh	-3738
help	-3739
▁eld	-3740
▁hab	-3741
▁rob	-3742
alaya	-3743
arian	-3744
inter	-3745
ratic	-3746
▁drain	-3747
▁incom	-3748
▁labor	-3749
▁incred	-3750
▁pharma	-3751
▁birthday	-3752
▁possibility	-3753
▁na	-3754
anay	-3755
▁nut	-3756
▁upt	-3757
▁flow	-3758
▁ther	-3759
cedure	-3760
▁lower	-3761
▁extend	-3762
▁safari	-3763
▁speech	-3764
▁profile	-3765
▁operation	-3766
▁procedure	-3767
▁freelancer	-3768
rec	-3769
unk	-3770
anka	-3771
assy	-3772
▁tim	-3773
▁clin	-3774
▁teen	-3775
▁elite	-3776
▁index	-3777
▁centre	-3778
▁delete	-3779
scription	-3780
▁advertise	-3781
▁accommodation	-3782
ses	-3783
very	-3784
▁gun	-3785
agama	-3786
verty	-3787
▁guys	-3788
▁susp	-3789
▁after	-3790
▁anurad	-3791
▁donate	-3792
▁happens	-3793
▁poverty	-3794
▁premium	-3795
▁samsung	-3796
▁capacity	-3797
▁grateful	-3798
▁upcoming	-3799
fy	-3800
alee	-3801
▁but	-3802
▁cin	-3803
▁wtf	-3804
inary	-3805
▁draw	-3806
▁click	-3807
▁grant	-3808
▁ikman	-3809
▁mixed	-3810
▁notic	-3811
▁launch	-3812
▁default	-3813
▁embassy	-3814
▁through	-3815
▁particularly	-3816
ae	-3817
amb	-3818
vote	-3819
▁feb	-3820
dated	-3821
ughter	-3822
▁input	-3823
▁burden	-3824
▁circle	-3825
▁excuse	-3826
▁amazing	-3827
▁conserv	-3828
▁critical	-3829
▁dambulla	-3830
▁presidency	-3831
▁reputation	-3832
▁electronics	-3833
agn	-3834
izer	-3835
link	-3836
▁squ	-3837
▁tur	-3838
▁divor	-3839
▁mafia	-3840
▁quiet	-3841
▁excite	-3842
reciation	-3843
▁protection	-3844
▁throughout	-3845
emy	-3846
▁ot	-3847
araz	-3848
▁cup	-3849
▁epf	-3850
▁soo	-3851
entic	-3852
itect	-3853
▁bail	-3854
▁disp	-3855
▁heat	-3856
▁trap	-3857
▁trick	-3858
▁superm	-3859
▁festival	-3860
▁aragalaya	-3861
▁architect	-3862
▁calculate	-3863
▁consequence	-3864
lig	-3865
▁hnb	-3866
▁lma	-3867
namon	-3868
▁hund	-3869
stance	-3870
▁cheer	-3871
▁daraz	-3872
▁debit	-3873
▁floor	-3874
▁debate	-3875
▁trincom	-3876
▁worried	-3877
▁cinnamon	-3878
▁traveler	-3879
▁colleague	-3880
▁ay	-3881
abil	-3882
▁anx	-3883
▁ceb	-3884
iture	-3885
phone	-3886
▁brid	-3887
▁hiri	-3888
▁guest	-3889
▁extent	-3890
▁oppose	-3891
▁severe	-3892
vernight	-3893
▁hundred	-3894
▁limited	-3895
▁recruit	-3896
▁entertain	-3897
▁trincomalee	-3898
eth	-3899
tok	-3900
▁and	-3901
▁dry	-3902
arter	-3903
ising	-3904
▁lane	-3905
ailand	-3906
▁drama	-3907
▁elder	-3908
▁bother	-3909
▁besides	-3910
▁beginner	-3911
▁thailand	-3912
▁efficient	-3913
▁overnight	-3914
cal	-3915
cut	-3916
dex	-3917
mas	-3918
rew	-3919
▁cs	-3920
▁mic	-3921
▁urg	-3922
▁tang	-3923
▁warn	-3924
happen	-3925
hapura	-3926
▁recon	-3927
▁approx	-3928
▁attach	-3929
▁deduct	-3930
▁hybrid	-3931
▁vendor	-3932
▁divorce	-3933
▁portion	-3934
▁suspect	-3935
▁category	-3936
▁household	-3937
▁rajapaksh	-3938
hd	-3939
ugh	-3940
used	-3941
▁hon	-3942
▁kdu	-3943
▁ple	-3944
▁who	-3945
▁wit	-3946
ously	-3947
▁edex	-3948
▁agric	-3949
▁cloud	-3950
▁typical	-3951
▁initially	-3952
pi	-3953
va	-3954
ima	-3955
onsor	-3956
▁kore	-3957
▁adopt	-3958
▁forex	-3959
▁belief	-3960
▁native	-3961
▁propag	-3962
▁tiktok	-3963
▁sponsor	-3964
▁agricult	-3965
▁unnecessary	-3966
▁anuradhapura	-3967
▁certification	-3968
fs	-3969
gu	-3970
goda	-3971
▁ram	-3972
acter	-3973
▁pool	-3974
▁rail	-3975
▁shut	-3976
▁cream	-3977
▁memory	-3978
▁careful	-3979
▁compete	-3980
▁depends	-3981
▁factory	-3982
▁announce	-3983
▁administration	-3984
dom	-3985
uma	-3986
▁gro	-3987
arden	-3988
enger	-3989
▁crap	-3990
▁guil	-3991
▁lmao	-3992
▁exams	-3993
ological	-3994
▁anytime	-3995
▁privile	-3996
▁speaker	-3997
▁highlight	-3998
▁medication	-3999
▁ath	-4000
▁pin	-4001
▁sou	-4002
▁spl	-4003
adasa	-4004
cohol	-4005
▁liqu	-4006
▁wing	-4007
▁urban	-4008
▁forest	-4009
▁starlink	-4010
▁suitable	-4011
▁authentic	-4012
▁character	-4013
▁educational	-4014
bsl	-4015
eed	-4016
lown	-4017
iliar	-4018
▁cred	-4019
▁inte	-4020
▁nons	-4021
▁welf	-4022
▁fancy	-4023
▁risky	-4024
▁shirt	-4025
▁unfair	-4026
▁alcohol	-4027
▁combine	-4028
▁civilian	-4029
▁estimate	-4030
▁awareness	-4031
ani	-4032
eral	-4033
rene	-4034
▁ice	-4035
▁nom	-4036
▁nsb	-4037
▁cbsl	-4038
▁dire	-4039
▁fool	-4040
▁meme	-4041
▁bribe	-4042
▁sight	-4043
▁entrep	-4044
▁equity	-4045
▁america	-4046
▁chicken	-4047
▁pharmacy	-4048
▁permanent	-4049
▁redditors	-4050
▁leadership	-4051
▁der	-4052
▁eta	-4053
▁gig	-4054
▁mba	-4055
▁piz	-4056
▁libr	-4057
▁upto	-4058
▁wher	-4059
▁alleg	-4060
▁alloc	-4061
▁basis	-4062
▁manner	-4063
▁mathem	-4064
▁rarely	-4065
▁edexcel	-4066
▁welfare	-4067
▁plantation	-4068
▁additionally	-4069
good	-4070
▁bul	-4071
▁fed	-4072
▁sky	-4073
arket	-4074
rance	-4075
uring	-4076
worry	-4077
▁buff	-4078
▁hill	-4079
▁suic	-4080
▁coach	-4081
▁compens	-4082
▁complic	-4083
▁primary	-4084
▁entirely	-4085
▁workplace	-4086
▁supermarket	-4087
gi	-4088
emp	-4089
▁mn	-4090
ulum	-4091
▁gla	-4092
▁rom	-4093
eline	-4094
irect	-4095
itiya	-4096
▁mile	-4097
▁onto	-4098
ortion	-4099
saying	-4100
▁frame	-4101
▁initi	-4102
▁innov	-4103
▁colonial	-4104
▁threaten	-4105
▁neighbour	-4106
▁confidence	-4107
▁entreprene	-4108
▁specialist	-4109
▁communicate	-4110
ali	-4111
fic	-4112
▁ly	-4113
comm	-4114
▁sco	-4115
▁jail	-4116
▁sake	-4117
▁ignor	-4118
▁logic	-4119
▁garden	-4120
▁subsid	-4121
▁justify	-4122
▁collapse	-4123
▁function	-4124
▁horrible	-4125
▁organize	-4126
▁powerful	-4127
▁curriculum	-4128
▁cybersecurity	-4129
iat	-4130
▁ben	-4131
otten	-4132
riate	-4133
▁rush	-4134
▁sole	-4135
▁tree	-4136
▁laugh	-4137
▁decline	-4138
▁disgust	-4139
▁germany	-4140
▁hiriket	-4141
▁library	-4142
▁maximum	-4143
▁neither	-4144
available	-4145
▁familiar	-4146
▁outdated	-4147
cl	-4148
aka	-4149
ray	-4150
▁ml	-4151
awat	-4152
▁pic	-4153
arana	-4154
round	-4155
▁cabin	-4156
▁adjust	-4157
▁harass	-4158
▁junior	-4159
▁whoever	-4160
▁division	-4161
▁donation	-4162
▁nonsense	-4163
▁opposite	-4164
▁comparison	-4165
▁previously	-4166
nar	-4167
oke	-4168
lade	-4169
▁msc	-4170
▁wall	-4171
employ	-4172
urally	-4173
▁pocket	-4174
▁graphic	-4175
▁podcast	-4176
▁proceed	-4177
▁ideology	-4178
▁mathemat	-4179
▁programme	-4180
▁experienced	-4181
▁S	-4182
awa	-4183
ping	-4184
they	-4185
ysis	-4186
▁hnd	-4187
▁ird	-4188
eniya	-4189
itate	-4190
▁gang	-4191
▁hust	-4192
▁zone	-4193
ashion	-4194
▁afric	-4195
▁quote	-4196
▁shoot	-4197
▁contain	-4198
▁convince	-4199
▁daughter	-4200
▁historical	-4201
▁journalist	-4202
▁passionate	-4203
▁accountability	-4204
▁discrimination	-4205
▁nu	-4206
cery	-4207
mark	-4208
▁boat	-4209
▁dehi	-4210
▁genoc	-4211
▁satis	-4212
working	-4213
▁absurd	-4214
▁favour	-4215
▁scient	-4216
▁clarify	-4217
▁fashion	-4218
▁liberal	-4219
▁scammed	-4220
▁surround	-4221
▁developed	-4222
▁regularly	-4223
▁australian	-4224
▁profession	-4225
▁_	-4226
cked	-4227
cont	-4228
gery	-4229
ique	-4230
▁mos	-4231
▁ups	-4232
▁vet	-4233
antha	-4234
ities	-4235
▁iron	-4236
▁avail	-4237
▁curry	-4238
▁islam	-4239
▁label	-4240
▁whose	-4241
▁belong	-4242
▁biology	-4243
▁respond	-4244
fficiency	-4245
▁entrance	-4246
▁internal	-4247
▁christian	-4248
▁socialist	-4249
csl	-4250
orn	-4251
▁mc	-4252
▁ud	-4253
oing	-4254
osal	-4255
veal	-4256
otein	-4257
ladesh	-4258
▁climb	-4259
▁crook	-4260
▁earth	-4261
▁noise	-4262
▁stack	-4263
respect	-4264
▁holder	-4265
▁retail	-4266
▁therap	-4267
▁failure	-4268
▁reference	-4269
▁undergrad	-4270
▁propaganda	-4271
▁psychology	-4272
▁entrepreneur	-4273
gpt	-4274
ulf	-4275
▁odd	-4276
anage	-4277
erior	-4278
▁siri	-4279
worthy	-4280
▁align	-4281
▁chair	-4282
▁guard	-4283
▁meant	-4284
▁artist	-4285
▁bridge	-4286
▁expose	-4287
▁normally	-4288
▁bangladesh	-4289
▁mechanical	-4290
vt	-4291
off	-4292
iour	-4293
▁ada	-4294
▁egg	-4295
▁ong	-4296
▁cold	-4297
▁lean	-4298
▁nsbm	-4299
▁chase	-4300
▁crash	-4301
▁loose	-4302
▁nurse	-4303
ography	-4304
▁borrow	-4305
▁unsure	-4306
▁actively	-4307
▁interact	-4308
▁mandatory	-4309
▁hiriketiya	-4310
▁essentially	-4311
ised	-4312
lare	-4313
▁bias	-4314
▁thri	-4315
▁chain	-4316
▁casual	-4317
▁contra	-4318
▁dealer	-4319
▁chatgpt	-4320
▁grocery	-4321
▁plastic	-4322
▁designer	-4323
▁remotely	-4324
▁southern	-4325
▁unemploy	-4326
▁privilege	-4327
▁temporary	-4328
ga	-4329
exp	-4330
ied	-4331
cing	-4332
▁ali	-4333
▁cow	-4334
▁rot	-4335
▁piss	-4336
▁rude	-4337
▁screw	-4338
adeniya	-4339
▁margin	-4340
▁protein	-4341
▁negotiate	-4342
▁passenger	-4343
▁premadasa	-4344
▁initiative	-4345
sd	-4346
ika	-4347
ino	-4348
cise	-4349
ives	-4350
olit	-4351
rial	-4352
cause	-4353
▁calm	-4354
▁five	-4355
▁grab	-4356
▁habit	-4357
▁scammer	-4358
▁dictator	-4359
▁genocide	-4360
▁fundament	-4361
▁typically	-4362
arm	-4363
inge	-4364
olic	-4365
pora	-4366
▁cha	-4367
▁doc	-4368
▁gay	-4369
aking	-4370
allet	-4371
▁bath	-4372
▁deny	-4373
▁dias	-4374
▁brown	-4375
▁paint	-4376
▁pizza	-4377
▁split	-4378
▁formal	-4379
▁smooth	-4380
▁exploit	-4381
▁fitness	-4382
▁minimal	-4383
▁ongoing	-4384
▁analysis	-4385
▁elsewhere	-4386
▁immigrant	-4387
▁rajapaksha	-4388
▁recognition	-4389
▁vs	-4390
pack	-4391
talk	-4392
▁Sri	-4393
▁ack	-4394
▁nan	-4395
▁pil	-4396
igher	-4397
▁evil	-4398
▁grad	-4399
▁told	-4400
bridge	-4401
▁clown	-4402
▁acknow	-4403
▁finger	-4404
▁resolve	-4405
▁psychiat	-4406
▁certainly	-4407
▁desperate	-4408
▁promotion	-4409
▁depression	-4410
▁electronic	-4411
▁retirement	-4412
gn	-4413
▁ya	-4414
hole	-4415
roid	-4416
about	-4417
adian	-4418
▁adhd	-4419
forget	-4420
othing	-4421
▁faith	-4422
▁flash	-4423
▁repay	-4424
▁tight	-4425
▁surely	-4426
▁forever	-4427
▁surgery	-4428
▁confused	-4429
▁dangerous	-4430
▁peradeniya	-4431
▁technically	-4432
rent	-4433
some	-4434
supp	-4435
▁dil	-4436
▁hyp	-4437
▁rug	-4438
aduwa	-4439
awala	-4440
▁dome	-4441
▁lift	-4442
▁mill	-4443
icious	-4444
liance	-4445
▁flood	-4446
▁lgbtq	-4447
▁minor	-4448
▁occur	-4449
▁sacri	-4450
▁tower	-4451
▁buffet	-4452
▁entity	-4453
▁higher	-4454
▁canadian	-4455
▁diaspora	-4456
▁everybody	-4457
▁intelligence	-4458
ken	-4459
▁pf	-4460
easy	-4461
fice	-4462
▁sir	-4463
bally	-4464
rical	-4465
▁cima	-4466
▁hack	-4467
▁pand	-4468
▁pett	-4469
▁wake	-4470
▁wave	-4471
▁agend	-4472
▁panel	-4473
because	-4474
▁impose	-4475
▁vision	-4476
▁suicide	-4477
▁witness	-4478
▁accurate	-4479
▁confident	-4480
▁meanwhile	-4481
▁selection	-4482
kk	-4483
▁gh	-4484
inal	-4485
▁coin	-4486
▁dive	-4487
▁icbt	-4488
▁mode	-4489
▁amend	-4490
▁boost	-4491
▁buddy	-4492
▁expos	-4493
▁italy	-4494
▁lunch	-4495
▁defend	-4496
▁expand	-4497
▁hustle	-4498
▁object	-4499
▁reveal	-4500
▁upload	-4501
ervation	-4502
▁propose	-4503
▁qualify	-4504
cessarily	-4505
▁incompet	-4506
▁tangalle	-4507
▁sacrifice	-4508
▁nt	-4509
lock	-4510
uate	-4511
▁gri	-4512
rease	-4513
▁hype	-4514
▁nuge	-4515
▁error	-4516
▁smoke	-4517
▁trcsl	-4518
ressive	-4519
▁appeal	-4520
▁harsha	-4521
▁wallet	-4522
▁funding	-4523
▁outcome	-4524
▁publish	-4525
▁clothing	-4526
▁constant	-4527
▁mountain	-4528
▁nugegoda	-4529
▁narrative	-4530
▁manufacture	-4531
dy	-4532
edy	-4533
got	-4534
▁kw	-4535
iary	-4536
soft	-4537
esome	-4538
▁bent	-4539
▁wire	-4540
accept	-4541
▁bound	-4542
ception	-4543
duction	-4544
otional	-4545
▁analyt	-4546
▁colour	-4547
▁patter	-4548
▁russia	-4549
everyone	-4550
▁advisor	-4551
▁barrier	-4552
▁discover	-4553
▁improvement	-4554
▁sustainable	-4555
mo	-4556
▁cmb	-4557
▁etf	-4558
▁len	-4559
igate	-4560
▁core	-4561
▁dual	-4562
▁elig	-4563
▁hero	-4564
▁insp	-4565
▁kottu	-4566
▁german	-4567
▁hostel	-4568
▁verify	-4569
▁awesome	-4570
▁declare	-4571
▁pattern	-4572
▁dehiwala	-4573
▁disagree	-4574
▁instance	-4575
▁occasion	-4576
▁cambridge	-4577
▁electrical	-4578
▁installment	-4579
eat	-4580
mon	-4581
ops	-4582
onym	-4583
▁ang	-4584
▁beh	-4585
▁fat	-4586
▁mum	-4587
▁sab	-4588
▁six	-4589
cient	-4590
▁tuks	-4591
▁crack	-4592
▁treas	-4593
▁circum	-4594
▁capable	-4595
▁exposure	-4596
▁admission	-4597
▁childhood	-4598
▁democratic	-4599
▁accountable	-4600
▁influencers	-4601
▁rajapakshas	-4602
rel	-4603
▁jer	-4604
▁rum	-4605
▁uae	-4606
▁boot	-4607
▁capt	-4608
having	-4609
▁diagn	-4610
▁plain	-4611
▁sugar	-4612
anayake	-4613
ivalent	-4614
▁affair	-4615
▁united	-4616
▁privacy	-4617
▁scooter	-4618
▁utility	-4619
▁broadband	-4620
▁clearance	-4621
▁concerned	-4622
▁collection	-4623
▁convenient	-4624
▁mathematics	-4625
▁progressive	-4626
▁availability	-4627
▁automatically	-4628
gen	-4629
▁tb	-4630
lies	-4631
this	-4632
▁hir	-4633
ruary	-4634
▁tiny	-4635
always	-4636
▁adapt	-4637
▁rugby	-4638
▁scope	-4639
▁spent	-4640
▁toile	-4641
▁divers	-4642
▁eastern	-4643
▁predict	-4644
▁priorit	-4645
▁depreciate	-4646
▁participate	-4647
▁entertainment	-4648
fa	-4649
but	-4650
buy	-4651
▁bc	-4652
▁dy	-4653
▁uc	-4654
rain	-4655
▁pad	-4656
▁rip	-4657
doing	-4658
usion	-4659
▁drag	-4660
▁memor	-4661
▁quant	-4662
believe	-4663
counter	-4664
▁friday	-4665
▁regime	-4666
▁remitt	-4667
▁entitle	-4668
▁nowhere	-4669
▁audience	-4670
▁february	-4671
▁proposal	-4672
▁ultimately	-4673
▁fundamental	-4674
▁conservative	-4675
bit	-4676
ule	-4677
uri	-4678
done	-4679
miss	-4680
reau	-4681
▁scr	-4682
▁unc	-4683
▁vir	-4684
▁dear	-4685
▁mail	-4686
▁perf	-4687
▁spir	-4688
▁trial	-4689
▁accent	-4690
▁bureau	-4691
▁pettah	-4692
▁toilet	-4693
▁continu	-4694
▁driving	-4695
▁russian	-4696
▁selfish	-4697
▁director	-4698
▁domestic	-4699
▁allowance	-4700
▁equivalent	-4701
▁incredibly	-4702
▁remittance	-4703
▁combination	-4704
▁jr	-4705
obby	-4706
oken	-4707
whel	-4708
▁aid	-4709
▁ded	-4710
▁kum	-4711
▁pow	-4712
▁dish	-4713
parent	-4714
▁satur	-4715
▁noticed	-4716
▁roughly	-4717
▁describe	-4718
▁recovery	-4719
▁telegram	-4720
▁socialism	-4721
rap	-4722
cell	-4723
paid	-4724
pass	-4725
▁bore	-4726
▁cart	-4727
▁empt	-4728
▁pair	-4729
iation	-4730
▁glass	-4731
▁herit	-4732
▁meter	-4733
▁sweet	-4734
▁agenda	-4735
▁anonym	-4736
▁beauty	-4737
▁depart	-4738
▁explan	-4739
▁extrem	-4740
▁indeed	-4741
▁outlet	-4742
▁rating	-4743
▁ancient	-4744
▁century	-4745
▁pathway	-4746
▁wealthy	-4747
▁criticism	-4748
necessarily	-4749
▁industrial	-4750
▁replacement	-4751
dis	-4752
real	-4753
▁ish	-4754
▁mut	-4755
olish	-4756
▁gram	-4757
▁leak	-4758
▁mald	-4759
▁slip	-4760
ressed	-4761
▁accom	-4762
▁shape	-4763
▁shout	-4764
▁privat	-4765
▁underst	-4766
▁creative	-4767
▁unlikely	-4768
▁assignment	-4769
▁difficulty	-4770
▁acknowledge	-4771
▁circumstance	-4772
mi	-4773
ush	-4774
city	-4775
iled	-4776
▁tor	-4777
andal	-4778
▁leaf	-4779
▁pray	-4780
▁what	-4781
colate	-4782
▁hobby	-4783
▁rainy	-4784
▁smell	-4785
▁veget	-4786
▁assess	-4787
▁buddha	-4788
▁invite	-4789
▁lovely	-4790
▁orient	-4791
▁softlo	-4792
▁videos	-4793
▁globally	-4794
▁overwhel	-4795
▁chocolate	-4796
▁encounter	-4797
▁punishment	-4798
ja	-4799
▁gp	-4800
seen	-4801
▁inj	-4802
▁nil	-4803
somet	-4804
there	-4805
▁hikk	-4806
▁reci	-4807
▁wick	-4808
▁ahang	-4809
▁buyer	-4810
▁react	-4811
▁battle	-4812
▁broken	-4813
▁prison	-4814
▁cabinet	-4815
▁charity	-4816
▁railway	-4817
something	-4818
▁earnings	-4819
▁presence	-4820
▁behaviour	-4821
▁realistic	-4822
▁secretary	-4823
▁manipulate	-4824
▁agriculture	-4825
▁organisation	-4826
▁psychiatrist	-4827
uru	-4828
oted	-4829
▁hal	-4830
itual	-4831
speak	-4832
▁hall	-4833
▁spec	-4834
ending	-4835
▁slave	-4836
asinghe	-4837
▁enable	-4838
▁guilty	-4839
▁viable	-4840
▁android	-4841
▁applies	-4842
▁assault	-4843
▁perfume	-4844
▁decrease	-4845
▁emotional	-4846
▁hikkaduwa	-4847
▁commitment	-4848
▁complicate	-4849
▁physically	-4850
▁potentially	-4851
sl	-4852
▁bm	-4853
agon	-4854
aken	-4855
ette	-4856
from	-4857
▁fis	-4858
▁gpa	-4859
▁sav	-4860
aware	-4861
ublic	-4862
▁cake	-4863
▁virt	-4864
charge	-4865
▁alive	-4866
▁badly	-4867
▁empty	-4868
▁hindu	-4869
▁ultra	-4870
▁unity	-4871
▁worse	-4872
▁affili	-4873
▁reward	-4874
▁alright	-4875
▁asshole	-4876
▁consume	-4877
▁mentally	-4878
▁regulate	-4879
▁speaking	-4880
▁criticize	-4881
▁statistic	-4882
▁translate	-4883
▁specialize	-4884
▁compensation	-4885
▁ll	-4886
cape	-4887
▁bin	-4888
icing	-4889
▁blow	-4890
▁bruh	-4891
▁hole	-4892
▁indo	-4893
▁rape	-4894
▁soul	-4895
▁ucsc	-4896
▁moral	-4897
▁spare	-4898
▁venue	-4899
awatuna	-4900
looking	-4901
support	-4902
▁behalf	-4903
▁determ	-4904
▁escape	-4905
▁server	-4906
▁tamils	-4907
▁distrib	-4908
recommend	-4909
▁activate	-4910
▁softlogic	-4911
xy	-4912
che	-4913
ley	-4914
flow	-4915
gage	-4916
iety	-4917
▁beg	-4918
cious	-4919
itter	-4920
▁buck	-4921
▁hung	-4922
scribe	-4923
▁drone	-4924
▁honey	-4925
▁mouth	-4926
getting	-4927
▁expend	-4928
▁taught	-4929
▁anxiety	-4930
▁pretend	-4931
▁ahangama	-4932
▁disaster	-4933
▁sentence	-4934
▁correctly	-4935
▁immediate	-4936
▁unawatuna	-4937
▁governance	-4938
hn	-4939
adu	-4940
usi	-4941
keep	-4942
odge	-4943
omed	-4944
onda	-4945
unic	-4946
▁fry	-4947
▁hsb	-4948
▁kal	-4949
▁mir	-4950
▁she	-4951
▁vit	-4952
ander	-4953
▁batt	-4954
▁dent	-4955
▁fulf	-4956
▁grid	-4957
▁nich	-4958
▁pros	-4959
▁thus	-4960
▁occup	-4961
▁optim	-4962
comfort	-4963
▁behave	-4964
▁clinic	-4965
▁closer	-4966
▁derana	-4967
▁intend	-4968
▁learnt	-4969
▁powder	-4970
ropriate	-4971
▁commute	-4972
▁succeed	-4973
▁variety	-4974
▁violent	-4975
▁visible	-4976
▁heritage	-4977
▁shipping	-4978
▁disappear	-4979
▁meaningful	-4980
▁membership	-4981
po	-4982
zz	-4983
had	-4984
▁vp	-4985
ache	-4986
icit	-4987
▁agg	-4988
▁all	-4989
▁ast	-4990
▁cer	-4991
▁ord	-4992
▁wea	-4993
▁hsbc	-4994
▁lake	-4995
▁lion	-4996
▁ring	-4997
▁warm	-4998
▁yell	-4999
inform	-5000
▁cater	-5001
▁embar	-5002
▁kelan	-5003
▁border	-5004
▁easier	-5005
▁proven	-5006
▁pandemic	-5007
▁analytics	-5008
▁nationalist	-5009
▁personality	-5010
▁resignation	-5011
▁trustworthy	-5012
aid	-5013
aik	-5014
nel	-5015
▁fy	-5016
educ	-5017
lead	-5018
▁fds	-5019
▁ing	-5020
▁lav	-5021
▁pvt	-5022
gment	-5023
▁cath	-5024
▁desk	-5025
▁mira	-5026
▁shad	-5027
▁bully	-5028
▁fruit	-5029
▁supre	-5030
▁victory	-5031
▁traveller	-5032
▁depreciation	-5033
▁economically	-5034
fp	-5035
▁ft	-5036
▁ow	-5037
ells	-5038
gala	-5039
stop	-5040
▁bow	-5041
▁sar	-5042
▁voc	-5043
▁boom	-5044
▁coll	-5045
▁hunt	-5046
▁spam	-5047
▁temu	-5048
▁korea	-5049
▁oblig	-5050
▁plate	-5051
▁royal	-5052
▁bloody	-5053
▁faster	-5054
▁locate	-5055
▁wanted	-5056
ationally	-5057
▁flexible	-5058
▁regional	-5059
▁ownership	-5060
▁terrorism	-5061
comfortable	-5062
▁afterwards	-5063
▁efficiency	-5064
ont	-5065
resh	-5066
show	-5067
ssed	-5068
▁wik	-5069
▁yah	-5070
inent	-5071
▁lazy	-5072
▁niss	-5073
▁stem	-5074
▁symb	-5075
▁honda	-5076
▁indic	-5077
▁surge	-5078
▁accuse	-5079
▁diesel	-5080
▁incent	-5081
▁instru	-5082
▁insult	-5083
▁making	-5084
▁voting	-5085
▁licence	-5086
▁twitter	-5087
▁semester	-5088
▁transition	-5089
bble	-5090
shop	-5091
▁alt	-5092
▁ash	-5093
haust	-5094
▁breat	-5095
▁femin	-5096
▁gotab	-5097
▁monet	-5098
▁niche	-5099
▁phase	-5100
▁shall	-5101
utional	-5102
▁cancer	-5103
▁artific	-5104
▁consent	-5105
▁worship	-5106
▁prospect	-5107
▁exception	-5108
▁sentiment	-5109
▁permission	-5110
▁successfully	-5111
gl	-5112
eve	-5113
ola	-5114
▁zo	-5115
anna	-5116
itha	-5117
lose	-5118
▁bid	-5119
▁bos	-5120
▁jav	-5121
▁kar	-5122
house	-5123
▁john	-5124
▁rece	-5125
▁riot	-5126
▁snor	-5127
lusive	-5128
▁afaik	-5129
▁micro	-5130
ivation	-5131
raction	-5132
▁expire	-5133
▁french	-5134
▁overpr	-5135
▁stabil	-5136
▁urgent	-5137
possible	-5138
▁somebody	-5139
▁workforce	-5140
▁sufficient	-5141
▁explanation	-5142
bl	-5143
hy	-5144
ns	-5145
▁mf	-5146
shot	-5147
stit	-5148
▁nib	-5149
▁pix	-5150
▁brut	-5151
▁fant	-5152
▁viet	-5153
itable	-5154
trying	-5155
▁audit	-5156
▁award	-5157
▁manag	-5158
▁skull	-5159
▁stray	-5160
▁basket	-5161
▁burger	-5162
▁define	-5163
▁keells	-5164
▁snorke	-5165
educated	-5166
interest	-5167
▁exhaust	-5168
▁setting	-5169
▁trigger	-5170
▁ignorant	-5171
▁republic	-5172
▁saturday	-5173
▁naturally	-5174
▁principle	-5175
▁allegation	-5176
▁officially	-5177
▁prioritize	-5178
▁importantly	-5179
▁internationally	-5180
eam	-5181
lix	-5182
oko	-5183
ula	-5184
elam	-5185
hear	-5186
otic	-5187
soon	-5188
▁ntb	-5189
▁tag	-5190
▁wij	-5191
night	-5192
scape	-5193
▁adam	-5194
▁furn	-5195
▁mort	-5196
▁tier	-5197
▁demon	-5198
▁maths	-5199
▁trail	-5200
uration	-5201
▁excell	-5202
▁instal	-5203
▁openly	-5204
▁allocate	-5205
▁eligible	-5206
▁restrict	-5207
▁overprice	-5208
▁perfectly	-5209
▁reputable	-5210
▁wonderful	-5211
▁impression	-5212
▁profitable	-5213
▁emotionally	-5214
▁contribution	-5215
ba	-5216
sey	-5217
ased	-5218
ists	-5219
▁ease	-5220
▁enth	-5221
▁gear	-5222
▁hons	-5223
▁isol	-5224
▁slfp	-5225
▁tank	-5226
▁cable	-5227
▁nepal	-5228
▁sheet	-5229
▁addict	-5230
▁portal	-5231
▁weapon	-5232
▁benefic	-5233
▁classic	-5234
▁defense	-5235
▁embarra	-5236
▁reading	-5237
istically	-5238
▁catholic	-5239
▁learning	-5240
▁christmas	-5241
▁rajapakse	-5242
▁assistance	-5243
▁revolution	-5244
▁differently	-5245
ged	-5246
sri	-5247
▁gf	-5248
▁kg	-5249
edly	-5250
ouch	-5251
reep	-5252
▁mah	-5253
▁ren	-5254
▁sib	-5255
erion	-5256
▁diet	-5257
▁dise	-5258
▁mini	-5259
opular	-5260
respon	-5261
▁cheat	-5262
▁utter	-5263
easible	-5264
▁corner	-5265
▁filter	-5266
▁hatred	-5267
▁liquid	-5268
▁module	-5269
▁relief	-5270
▁scenic	-5271
▁bentota	-5272
▁contest	-5273
▁pricing	-5274
▁literacy	-5275
▁shopping	-5276
▁treasury	-5277
▁criterion	-5278
▁privately	-5279
▁recognise	-5280
▁consistent	-5281
▁corporation	-5282
dr	-5283
ilt	-5284
rog	-5285
uls	-5286
athy	-5287
wide	-5288
▁fyi	-5289
▁uns	-5290
exact	-5291
raine	-5292
▁dump	-5293
▁flav	-5294
▁magn	-5295
▁tact	-5296
▁eelam	-5297
▁malay	-5298
▁thief	-5299
▁matara	-5300
▁hotline	-5301
▁monsoon	-5302
▁whereas	-5303
▁backpack	-5304
▁hardware	-5305
▁amendment	-5306
▁surprised	-5307
▁accounting	-5308
▁literature	-5309
▁supportive	-5310
▁understood	-5311
▁expenditure	-5312
▁manufacturer	-5313
dem	-5314
▁bn	-5315
aran	-5316
door	-5317
▁kur	-5318
▁rub	-5319
onent	-5320
▁born	-5321
▁edge	-5322
▁salt	-5323
▁brief	-5324
▁pixel	-5325
▁rally	-5326
▁stead	-5327
▁yahap	-5328
allowed	-5329
▁becomes	-5330
▁enthusi	-5331
▁vacancy	-5332
▁venture	-5333
▁abortion	-5334
▁maldives	-5335
▁bandarana	-5336
▁landscape	-5337
▁professor	-5338
▁capitalism	-5339
▁convenience	-5340
▁vaccination	-5341
▁architecture	-5342
▁subscription	-5343
cuit	-5344
ones	-5345
sell	-5346
▁kat	-5347
▁tol	-5348
▁wow	-5349
front	-5350
ourse	-5351
▁mora	-5352
▁vast	-5353
▁creep	-5354
▁inher	-5355
▁rapid	-5356
exactly	-5357
▁desire	-5358
▁excess	-5359
▁kindly	-5360
▁mirror	-5361
▁nissan	-5362
▁parcel	-5363
▁analyst	-5364
▁disease	-5365
▁sibling	-5366
▁favorite	-5367
▁strongly	-5368
▁textbook	-5369
▁competent	-5370
▁frequently	-5371
▁innovation	-5372
▁unemployed	-5373
▁hospitality	-5374
▁restructure	-5375
▁bandaranaike	-5376
ih	-5377
box	-5378
ham	-5379
vis	-5380
▁py	-5381
aint	-5382
fast	-5383
ilst	-5384
sday	-5385
vere	-5386
▁jay	-5387
▁kot	-5388
▁ols	-5389
▁tap	-5390
▁tat	-5391
paper	-5392
▁airb	-5393
▁brow	-5394
▁jack	-5395
▁koko	-5396
▁nibm	-5397
▁nope	-5398
▁peep	-5399
▁unus	-5400
▁integ	-5401
▁worst	-5402
facepal	-5403
mention	-5404
receive	-5405
▁farmer	-5406
▁harder	-5407
▁intake	-5408
▁necess	-5409
▁payone	-5410
▁deficit	-5411
▁depress	-5412
▁communist	-5413
▁component	-5414
▁determine	-5415
facepalming	-5416
▁translation	-5417
aha	-5418
▁otp	-5419
▁wil	-5420
utral	-5421
▁caut	-5422
▁cave	-5423
▁flat	-5424
▁peer	-5425
▁expat	-5426
▁intel	-5427
▁maith	-5428
▁scare	-5429
▁tooth	-5430
connect	-5431
▁mature	-5432
▁purely	-5433
▁whilst	-5434
▁abolish	-5435
▁equally	-5436
▁exclude	-5437
▁kingdom	-5438
▁observe	-5439
▁vietnam	-5440
▁kelaniya	-5441
▁midnight	-5442
▁pathetic	-5443
▁payoneer	-5444
▁publicly	-5445
▁teaching	-5446
▁consumption	-5447
▁frustration	-5448
hib	-5449
tra	-5450
bery	-5451
▁ble	-5452
▁mit	-5453
▁oce	-5454
▁unb	-5455
▁uom	-5456
▁yep	-5457
andon	-5458
otism	-5459
▁blah	-5460
▁chip	-5461
▁fare	-5462
▁knew	-5463
▁pill	-5464
▁sand	-5465
▁tort	-5466
itchen	-5467
▁congr	-5468
▁harsh	-5469
▁loyal	-5470
▁pleas	-5471
▁steam	-5472
▁deeply	-5473
▁discus	-5474
▁earner	-5475
▁compute	-5476
▁courier	-5477
▁kitchen	-5478
▁macbook	-5479
▁onwards	-5480
▁quarter	-5481
▁yahapal	-5482
▁cautious	-5483
▁principal	-5484
▁vaccinate	-5485
▁capability	-5486
▁comfortably	-5487
▁politically	-5488
▁practically	-5489
fo	-5490
has	-5491
reh	-5492
ren	-5493
sit	-5494
tel	-5495
head	-5496
lied	-5497
plan	-5498
ality	-5499
etime	-5500
▁ayur	-5501
▁eats	-5502
▁irre	-5503
▁keen	-5504
▁lone	-5505
▁tail	-5506
▁pregn	-5507
▁backup	-5508
▁latter	-5509
▁resist	-5510
▁cheaper	-5511
▁comprom	-5512
▁gateway	-5513
▁supreme	-5514
▁trainer	-5515
▁dedicate	-5516
▁involved	-5517
▁dependent	-5518
▁embarrass	-5519
▁incentive	-5520
▁introvert	-5521
▁friendship	-5522
▁examination	-5523
▁disappointed	-5524
▁uncomfortable	-5525
ew	-5526
si	-5527
ux	-5528
vi	-5529
car	-5530
ando	-5531
ield	-5532
mate	-5533
▁boc	-5534
▁gaz	-5535
▁ham	-5536
▁mas	-5537
▁vpn	-5538
lement	-5539
marily	-5540
▁cerem	-5541
▁chand	-5542
▁incor	-5543
▁pride	-5544
▁snack	-5545
▁africa	-5546
▁amazon	-5547
▁ayurve	-5548
▁gamble	-5549
▁tactic	-5550
▁mislead	-5551
▁scratch	-5552
▁selling	-5553
▁navigate	-5554
▁northern	-5555
▁randomly	-5556
▁reminder	-5557
interested	-5558
▁framework	-5559
▁relatives	-5560
▁stressful	-5561
▁compromise	-5562
▁enthusiast	-5563
▁separately	-5564
laim	-5565
otes	-5566
oura	-5567
wash	-5568
word	-5569
▁fas	-5570
▁owe	-5571
▁suv	-5572
▁ugc	-5573
▁vul	-5574
antic	-5575
▁defe	-5576
▁java	-5577
▁mbbs	-5578
▁melt	-5579
▁perk	-5580
▁thug	-5581
nament	-5582
▁chaos	-5583
▁forum	-5584
▁merit	-5585
▁ocean	-5586
▁spark	-5587
irectly	-5588
▁bubble	-5589
▁hardly	-5590
▁narrow	-5591
▁praise	-5592
▁bedroom	-5593
▁neutral	-5594
▁tension	-5595
▁torture	-5596
▁importer	-5597
▁ordinary	-5598
▁superior	-5599
▁necessity	-5600
▁primarily	-5601
▁achievement	-5602
▁parliamentary	-5603
fh	-5604
bad	-5605
cra	-5606
zen	-5607
▁og	-5608
away	-5609
irty	-5610
oked	-5611
osity	-5612
prise	-5613
▁auto	-5614
▁boys	-5615
▁fert	-5616
▁heal	-5617
▁pump	-5618
erable	-5619
verter	-5620
▁awful	-5621
▁hypoc	-5622
▁penal	-5623
▁spect	-5624
▁taxed	-5625
▁cringe	-5626
▁abandon	-5627
▁bureauc	-5628
▁touristy	-5629
▁happiness	-5630
▁disrespect	-5631
▁uneducated	-5632
law	-5633
men	-5634
▁bs	-5635
▁ec	-5636
live	-5637
▁bcz	-5638
▁kad	-5639
▁las	-5640
▁uoc	-5641
▁wfh	-5642
inder	-5643
▁atro	-5644
▁bout	-5645
▁exer	-5646
▁gamp	-5647
▁mism	-5648
▁util	-5649
▁vary	-5650
▁zoom	-5651
ealous	-5652
stream	-5653
▁activ	-5654
▁dutch	-5655
▁fixed	-5656
▁incon	-5657
▁joint	-5658
▁lakhs	-5659
▁mahar	-5660
▁perch	-5661
▁pilot	-5662
▁polon	-5663
▁radio	-5664
▁largely	-5665
▁subsidy	-5666
▁deadline	-5667
▁headache	-5668
▁talented	-5669
▁taxation	-5670
▁adventure	-5671
▁excellent	-5672
▁repayment	-5673
▁unpopular	-5674
▁neighborhood	-5675
des	-5676
ipt	-5677
met	-5678
enna	-5679
flix	-5680
iser	-5681
▁asw	-5682
▁ped	-5683
archy	-5684
check	-5685
itten	-5686
ocate	-5687
▁goon	-5688
▁iran	-5689
▁navy	-5690
▁span	-5691
▁tear	-5692
shrugg	-5693
▁divid	-5694
▁enrol	-5695
▁esoft	-5696
▁multi	-5697
▁patri	-5698
▁quota	-5699
▁unite	-5700
eration	-5701
ference	-5702
▁apolog	-5703
▁shower	-5704
▁suburb	-5705
▁thrive	-5706
▁volume	-5707
▁counsel	-5708
▁crucial	-5709
▁disturb	-5710
▁snorkel	-5711
▁strange	-5712
▁therapy	-5713
▁transit	-5714
▁udawala	-5715
▁visitor	-5716
shrugging	-5717
▁bathroom	-5718
▁exercise	-5719
▁motivate	-5720
▁assistant	-5721
▁construct	-5722
▁extension	-5723
▁graduation	-5724
▁maharagama	-5725
▁tournament	-5726
▁description	-5727
▁interaction	-5728
▁prescription	-5729
af	-5730
ela	-5731
mpt	-5732
▁cb	-5733
▁mm	-5734
▁cig	-5735
▁ego	-5736
▁poh	-5737
iving	-5738
▁hamb	-5739
▁nadu	-5740
rovers	-5741
▁abans	-5742
▁bread	-5743
▁forth	-5744
▁paste	-5745
▁scary	-5746
▁swear	-5747
ternoon	-5748
▁airtel	-5749
▁gotten	-5750
▁league	-5751
▁monkey	-5752
▁symbol	-5753
▁widely	-5754
▁ethical	-5755
▁routine	-5756
▁keyboard	-5757
▁lifetime	-5758
▁stranger	-5759
▁afternoon	-5760
▁broadcast	-5761
▁supplement	-5762
▁investigate	-5763
▁nationalism	-5764
▁documentation	-5765
▁establishment	-5766
vy	-5767
oly	-5768
ppy	-5769
aram	-5770
▁lap	-5771
▁rab	-5772
▁rul	-5773
▁ssd	-5774
agger	-5775
▁cell	-5776
▁fern	-5777
▁gent	-5778
▁heck	-5779
▁lyce	-5780
▁shar	-5781
ounder	-5782
stable	-5783
▁assum	-5784
▁champ	-5785
▁downv	-5786
▁escal	-5787
▁fraud	-5788
▁freak	-5789
▁newly	-5790
▁ratio	-5791
emption	-5792
▁defeat	-5793
▁output	-5794
▁pohott	-5795
▁resume	-5796
▁temper	-5797
iliation	-5798
▁disrupt	-5799
▁inspire	-5800
▁receipt	-5801
▁servant	-5802
▁wickrem	-5803
▁gradually	-5804
▁scientist	-5805
▁violation	-5806
▁controvers	-5807
▁legitimate	-5808
▁screenshot	-5809
▁unfortunate	-5810
▁confirmation	-5811
han	-5812
net	-5813
sur	-5814
tee	-5815
aker	-5816
arat	-5817
asty	-5818
atta	-5819
pare	-5820
▁aka	-5821
▁ceo	-5822
▁kit	-5823
▁ste	-5824
build	-5825
exist	-5826
vable	-5827
▁boil	-5828
▁meat	-5829
▁mere	-5830
▁outs	-5831
▁pace	-5832
iently	-5833
lation	-5834
lusion	-5835
▁bless	-5836
▁ghost	-5837
▁lodge	-5838
▁moron	-5839
▁rumor	-5840
▁detect	-5841
▁fortun	-5842
▁recipe	-5843
▁apology	-5844
▁motorcy	-5845
▁collabor	-5846
▁feasible	-5847
▁frequent	-5848
▁interior	-5849
▁mechanic	-5850
▁economist	-5851
▁increment	-5852
▁misinform	-5853
▁newspaper	-5854
▁acceptable	-5855
▁attractive	-5856
▁beneficial	-5857
▁association	-5858
▁verification	-5859
tch	-5860
uba	-5861
▁cd	-5862
▁dj	-5863
▁ib	-5864
▁tf	-5865
moon	-5866
open	-5867
▁bam	-5868
▁nah	-5869
▁deed	-5870
▁emig	-5871
▁flee	-5872
▁jaya	-5873
▁pera	-5874
▁pron	-5875
▁semi	-5876
▁symp	-5877
▁tone	-5878
▁audio	-5879
▁exper	-5880
▁monop	-5881
▁nomad	-5882
▁plane	-5883
▁swift	-5884
▁upset	-5885
apitiya	-5886
▁exceed	-5887
▁hungry	-5888
▁monday	-5889
▁mosque	-5890
▁sovere	-5891
▁tattoo	-5892
▁taxpay	-5893
▁bracket	-5894
▁learner	-5895
▁netflix	-5896
▁alliance	-5897
▁chemical	-5898
▁duration	-5899
▁inverter	-5900
▁monetary	-5901
▁boyfriend	-5902
▁breakfast	-5903
▁sensitive	-5904
▁accessible	-5905
▁srilankans	-5906
di	-5907
ti	-5908
ave	-5909
nes	-5910
not	-5911
rum	-5912
▁hu	-5913
▁jk	-5914
▁ui	-5915
anga	-5916
inia	-5917
many	-5918
▁bug	-5919
▁fur	-5920
▁ske	-5921
▁aunt	-5922
▁cast	-5923
▁cham	-5924
▁plot	-5925
▁reck	-5926
▁thor	-5927
▁alert	-5928
▁anger	-5929
▁drunk	-5930
▁numer	-5931
▁popul	-5932
▁wagon	-5933
▁prosec	-5934
▁repute	-5935
▁unknow	-5936
▁capture	-5937
▁inspect	-5938
▁jealous	-5939
▁pension	-5940
▁satisfy	-5941
▁stretch	-5942
▁ukraine	-5943
▁diagnose	-5944
▁gotabaya	-5945
▁reaction	-5946
▁taxpayer	-5947
▁carefully	-5948
▁committee	-5949
▁departure	-5950
▁transform	-5951
▁originally	-5952
▁peacefully	-5953
▁incompetent	-5954
▁involvement	-5955
▁marketplace	-5956
▁representative	-5957
oe	-5958
gle	-5959
acle	-5960
core	-5961
dict	-5962
ript	-5963
▁isp	-5964
▁ndb	-5965
▁was	-5966
ongue	-5967
▁ally	-5968
▁eval	-5969
▁pant	-5970
▁pfca	-5971
▁rein	-5972
▁roof	-5973
▁urge	-5974
▁chief	-5975
▁enemy	-5976
▁hyper	-5977
▁regul	-5978
▁shady	-5979
▁storm	-5980
▁unpro	-5981
▁lonely	-5982
▁misuse	-5983
▁palest	-5984
▁pickup	-5985
▁reside	-5986
▁script	-5987
▁steady	-5988
▁founder	-5989
▁handout	-5990
▁indones	-5991
▁inflate	-5992
▁italian	-5993
▁lavinia	-5994
▁offense	-5995
▁ceremony	-5996
▁downside	-5997
▁fernando	-5998
▁jayaward	-5999
▁operator	-6000
▁polonnar	-6001
▁youtuber	-6002
▁expertise	-6003
▁honeymoon	-6004
▁contractor	-6005
▁occasional	-6006
▁suspicious	-6007
▁appropriate	-6008
▁effectively	-6009
ius	-6010
▁pi	-6011
case	-6012
edia	-6013
ging	-6014
idas	-6015
itar	-6016
mare	-6017
safe	-6018
your	-6019
▁cid	-6020
▁raw	-6021
clear	-6022
ifest	-6023
isine	-6024
mptom	-6025
▁acca	-6026
▁bird	-6027
▁flaw	-6028
▁scan	-6029
follow	-6030
lessly	-6031
▁anime	-6032
▁apiit	-6033
▁crush	-6034
▁judic	-6035
▁landl	-6036
▁rider	-6037
▁spice	-6038
▁stone	-6039
▁fluent	-6040
▁litter	-6041
▁perera	-6042
▁silent	-6043
▁worthy	-6044
▁cuisine	-6045
▁dislike	-6046
▁footage	-6047
▁spotify	-6048
▁symptom	-6049
▁restruct	-6050
▁romantic	-6051
▁nightmare	-6052
▁assessment	-6053
▁enterprise	-6054
▁motorcycle	-6055
▁popularity	-6056
▁respectful	-6057
▁strengthen	-6058
▁polonnaruwa	-6059
▁reliability	-6060
▁approximately	-6061
▁consideration	-6062
▁realistically	-6063
ned	-6064
▁qa	-6065
ians	-6066
pher	-6067
quit	-6068
tell	-6069
▁fup	-6070
▁jet	-6071
iform	-6072
ophob	-6073
▁curi	-6074
▁exit	-6075
▁expl	-6076
▁pear	-6077
▁ping	-6078
▁recy	-6079
▁swap	-6080
▁thin	-6081
▁cowor	-6082
▁merch	-6083
▁overs	-6084
cession	-6085
▁emphas	-6086
▁logist	-6087
▁mannar	-6088
▁mentor	-6089
▁mutual	-6090
▁packet	-6091
▁refuge	-6092
▁weekly	-6093
consider	-6094
ographer	-6095
▁acquire	-6096
▁creator	-6097
▁discord	-6098
▁hearing	-6099
▁uniform	-6100
▁advanced	-6101
▁inconven	-6102
▁manifest	-6103
▁alongside	-6104
▁outsource	-6105
▁withdrawal	-6106
▁enforcement	-6107
ess	-6108
call	-6109
erge	-6110
part	-6111
ring	-6112
stay	-6113
▁gut	-6114
▁hub	-6115
▁nov	-6116
▁wet	-6117
great	-6118
stant	-6119
trust	-6120
umble	-6121
▁crop	-6122
▁curt	-6123
▁euro	-6124
▁orph	-6125
▁pile	-6126
▁tack	-6127
ophole	-6128
▁frank	-6129
▁grass	-6130
▁shamp	-6131
▁japura	-6132
▁kitten	-6133
▁poster	-6134
▁rupees	-6135
▁unreal	-6136
▁vulner	-6137
ographic	-6138
▁compreh	-6139
▁deliber	-6140
▁disable	-6141
▁gampaha	-6142
▁miracle	-6143
▁sticker	-6144
▁loophole	-6145
▁numerous	-6146
▁prepared	-6147
▁curiosity	-6148
▁furniture	-6149
▁vegetable	-6150
▁disconnect	-6151
▁harassment	-6152
▁productive	-6153
▁observation	-6154
▁photography	-6155
▁restructuring	-6156
ted	-6157
▁nz	-6158
atha	-6159
elts	-6160
omic	-6161
umbs	-6162
▁org	-6163
heard	-6164
mouth	-6165
▁alle	-6166
▁anim	-6167
▁auss	-6168
▁medi	-6169
▁slap	-6170
▁wood	-6171
opolit	-6172
▁caput	-6173
▁chose	-6174
▁honor	-6175
▁ielts	-6176
▁rajag	-6177
▁adidas	-6178
▁guitar	-6179
▁ladder	-6180
▁nanote	-6181
▁perpet	-6182
▁racial	-6183
▁solely	-6184
▁turtle	-6185
actually	-6186
▁beaming	-6187
▁organic	-6188
▁reverse	-6189
▁distract	-6190
▁dividend	-6191
▁landlord	-6192
▁opportun	-6193
▁indicator	-6194
▁prescribe	-6195
▁bankruptcy	-6196
▁mainstream	-6197
▁environmental	-6198
no	-6199
wr	-6200
cur	-6201
dic	-6202
hal	-6203
uct	-6204
▁ax	-6205
cott	-6206
pone	-6207
▁mel	-6208
▁nep	-6209
▁rig	-6210
iting	-6211
▁bast	-6212
▁dura	-6213
▁elim	-6214
▁mala	-6215
▁muse	-6216
rating	-6217
▁arrog	-6218
▁bitch	-6219
▁coord	-6220
▁jewel	-6221
station	-6222
talking	-6223
▁assass	-6224
▁emerge	-6225
▁insist	-6226
▁lyceum	-6227
▁provin	-6228
remember	-6229
▁grammar	-6230
▁handful	-6231
▁israeli	-6232
ciliation	-6233
▁advocate	-6234
▁equality	-6235
▁follower	-6236
▁governor	-6237
▁indicate	-6238
▁monopoly	-6239
▁podcasts	-6240
▁udawalawe	-6241
▁appearance	-6242
▁artificial	-6243
▁capitalist	-6244
▁importance	-6245
▁instrument	-6246
▁smartphone	-6247
ms	-6248
ila	-6249
wan	-6250
yas	-6251
▁bb	-6252
▁cz	-6253
▁fm	-6254
▁ko	-6255
▁qr	-6256
ader	-6257
ined	-6258
pret	-6259
xual	-6260
▁aqu	-6261
▁dat	-6262
▁jam	-6263
▁jew	-6264
▁naz	-6265
▁pir	-6266
▁sue	-6267
inton	-6268
obile	-6269
plete	-6270
rated	-6271
▁bulk	-6272
▁isps	-6273
▁kiss	-6274
▁menu	-6275
▁phil	-6276
▁prab	-6277
rition	-6278
▁dirty	-6279
▁excel	-6280
▁metal	-6281
▁stamp	-6282
▁sweat	-6283
itarian	-6284
▁aussie	-6285
▁devops	-6286
▁fertil	-6287
▁greedy	-6288
▁studio	-6289
▁mandate	-6290
▁painful	-6291
▁shampoo	-6292
▁escalate	-6293
▁postpone	-6294
▁teenager	-6295
▁exemption	-6296
▁miserable	-6297
▁accountant	-6298
▁attendance	-6299
▁expression	-6300
▁manageable	-6301
▁motivation	-6302
▁obligation	-6303
▁provincial	-6304
▁celebration	-6305
▁consistently	-6306
▁photographer	-6307
oty	-6308
zel	-6309
▁cp	-6310
▁ju	-6311
attu	-6312
bike	-6313
spot	-6314
true	-6315
▁bun	-6316
▁cad	-6317
▁fab	-6318
▁por	-6319
▁pov	-6320
▁reh	-6321
▁unt	-6322
asing	-6323
▁ance	-6324
▁anth	-6325
▁epis	-6326
▁gall	-6327
▁lord	-6328
▁mask	-6329
▁mock	-6330
▁roam	-6331
paying	-6332
soever	-6333
▁bloat	-6334
▁dynam	-6335
▁offsh	-6336
▁panic	-6337
▁silva	-6338
▁truck	-6339
vention	-6340
▁ancest	-6341
▁bucket	-6342
▁caught	-6343
▁freely	-6344
▁jersey	-6345
▁legend	-6346
▁retain	-6347
▁thumbs	-6348
▁trauma	-6349
pointing	-6350
▁bribery	-6351
▁elderly	-6352
▁element	-6353
▁liberty	-6354
▁outdoor	-6355
▁prosper	-6356
▁working	-6357
▁boundary	-6358
▁clinical	-6359
▁overcome	-6360
▁websites	-6361
▁extremist	-6362
▁logistics	-6363
▁nightlife	-6364
▁secondary	-6365
▁wondering	-6366
▁economical	-6367
▁experiment	-6368
▁rajagiriya	-6369
▁whatsoever	-6370
▁calculation	-6371
▁temperature	-6372
▁appreciation	-6373
▁psychologist	-6374
▁reconciliation	-6375
ax	-6376
het	-6377
ife	-6378
ldr	-6379
▁du	-6380
pped	-6381
sena	-6382
▁ela	-6383
▁lon	-6384
happy	-6385
redit	-6386
using	-6387
▁alto	-6388
▁bell	-6389
▁coal	-6390
▁dick	-6391
▁inch	-6392
▁nail	-6393
▁tldr	-6394
▁zeal	-6395
ateral	-6396
▁depth	-6397
▁legis	-6398
▁pitch	-6399
▁reloc	-6400
▁shake	-6401
▁theat	-6402
▁whale	-6403
ctional	-6404
▁accomp	-6405
▁button	-6406
▁evolve	-6407
▁france	-6408
▁golden	-6409
▁layoff	-6410
▁museum	-6411
▁ritual	-6412
▁square	-6413
▁stance	-6414
▁tackle	-6415
▁tongue	-6416
▁bombing	-6417
▁congrat	-6418
▁indians	-6419
▁migrant	-6420
▁penalty	-6421
▁atrocity	-6422
▁geopolit	-6423
▁pregnant	-6424
▁mechanism	-6425
▁mismanage	-6426
▁residence	-6427
▁conclusion	-6428
▁conference	-6429
▁rajapakses	-6430
▁conditioner	-6431
▁instruction	-6432
▁misinformation	-6433
enn	-6434
ese	-6435
ige	-6436
▁bt	-6437
▁pd	-6438
▁sq	-6439
mble	-6440
rase	-6441
▁asp	-6442
▁bis	-6443
▁gif	-6444
▁lat	-6445
▁peg	-6446
▁vij	-6447
▁yog	-6448
asion	-6449
chool	-6450
ggage	-6451
index	-6452
▁coop	-6453
▁myth	-6454
▁ugly	-6455
ductor	-6456
▁actor	-6457
▁safer	-6458
▁vague	-6459
require	-6460
▁academ	-6461
▁inland	-6462
▁reluct	-6463
▁rocket	-6464
▁scream	-6465
▁silver	-6466
▁sooner	-6467
▁defence	-6468
▁inquire	-6469
▁luggage	-6470
▁wheeler	-6471
▁workout	-6472
▁humanity	-6473
▁saturate	-6474
▁substant	-6475
▁applicant	-6476
▁countless	-6477
▁orphanage	-6478
▁prominent	-6479
▁reduction	-6480
▁transpare	-6481
▁altogether	-6482
▁protestors	-6483
▁accordingly	-6484
▁credibility	-6485
▁grandparent	-6486
bay	-6487
equ	-6488
iar	-6489
▁ct	-6490
▁if	-6491
ador	-6492
ella	-6493
hill	-6494
iter	-6495
kers	-6496
rify	-6497
sion	-6498
▁enc	-6499
▁oya	-6500
▁suz	-6501
▁wht	-6502
apply	-6503
▁begg	-6504
▁dine	-6505
▁gala	-6506
▁lend	-6507
▁wipe	-6508
affect	-6509
bother	-6510
▁craft	-6511
▁draft	-6512
▁ethic	-6513
▁theme	-6514
▁vezel	-6515
▁bright	-6516
▁inject	-6517
▁integr	-6518
▁obsess	-6519
▁postal	-6520
▁scroll	-6521
▁trinco	-6522
▁yellow	-6523
stically	-6524
▁compuls	-6525
▁dynamic	-6526
▁gazette	-6527
▁maithri	-6528
▁mosquit	-6529
▁nanotek	-6530
▁nursing	-6531
▁warning	-6532
▁zealand	-6533
▁activist	-6534
▁backhand	-6535
▁contrast	-6536
▁overtake	-6537
▁ayurvedic	-6538
▁backwards	-6539
▁manifesto	-6540
▁nutrition	-6541
▁recruiter	-6542
▁therapist	-6543
▁worldwide	-6544
▁discriminate	-6545
▁transparency	-6546
hum	-6547
omy	-6548
spe	-6549
top	-6550
▁df	-6551
▁fk	-6552
▁pp	-6553
▁ux	-6554
▁yt	-6555
comp	-6556
post	-6557
sman	-6558
wood	-6559
▁cfa	-6560
▁cul	-6561
▁hap	-6562
▁mud	-6563
ainty	-6564
astic	-6565
bring	-6566
▁arab	-6567
▁beer	-6568
▁dash	-6569
▁dhar	-6570
▁hook	-6571
▁hygi	-6572
▁laks	-6573
▁neck	-6574
▁posh	-6575
▁seal	-6576
▁tall	-6577
▁thru	-6578
icycle	-6579
▁chart	-6580
reshold	-6581
session	-6582
▁brutal	-6583
▁detain	-6584
▁enroll	-6585
▁indoor	-6586
▁injure	-6587
▁upside	-6588
▁waving	-6589
▁african	-6590
▁leftist	-6591
▁opening	-6592
▁recycle	-6593
▁theatre	-6594
▁upfront	-6595
▁offering	-6596
▁offshore	-6597
▁perceive	-6598
▁thorough	-6599
▁commenter	-6600
▁threshold	-6601
▁applicable	-6602
▁documentary	-6603
▁consultation	-6604
oa	-6605
ald	-6606
iny	-6607
log	-6608
uki	-6609
▁bf	-6610
▁ie	-6611
fire	-6612
gain	-6613
iver	-6614
lash	-6615
sher	-6616
▁oly	-6617
offic	-6618
start	-6619
▁badm	-6620
▁doom	-6621
▁elev	-6622
▁have	-6623
▁inqu	-6624
▁lots	-6625
▁ramp	-6626
alanda	-6627
giving	-6628
piracy	-6629
unicip	-6630
vision	-6631
▁caste	-6632
▁furth	-6633
▁hesit	-6634
▁insta	-6635
▁shade	-6636
▁sneak	-6637
▁yield	-6638
esinghe	-6639
iration	-6640
redient	-6641
▁marine	-6642
▁offend	-6643
▁singer	-6644
▁sunset	-6645
▁worked	-6646
eriority	-6647
▁bastard	-6648
▁carrier	-6649
▁checked	-6650
▁execute	-6651
▁federal	-6652
▁haircut	-6653
▁hambant	-6654
▁hotspot	-6655
▁municip	-6656
▁silence	-6657
▁champion	-6658
▁mortgage	-6659
▁mosquito	-6660
▁nepotism	-6661
▁skincare	-6662
▁badminton	-6663
▁conductor	-6664
▁favourite	-6665
▁liability	-6666
▁motorbike	-6667
▁stabilize	-6668
▁aggressive	-6669
▁assumption	-6670
▁attraction	-6671
▁conspiracy	-6672
▁ingredient	-6673
▁bureaucracy	-6674
▁considerable	-6675
ami	-6676
bud	-6677
eze	-6678
gth	-6679
osy	-6680
yet	-6681
▁cm	-6682
▁mt	-6683
aree	-6684
east	-6685
enom	-6686
ills	-6687
inct	-6688
quer	-6689
▁amd	-6690
▁aus	-6691
▁dea	-6692
▁gmo	-6693
▁peo	-6694
▁pta	-6695
▁sus	-6696
craft	-6697
orate	-6698
rator	-6699
value	-6700
▁athe	-6701
▁coup	-6702
▁devs	-6703
▁inev	-6704
▁moon	-6705
▁porn	-6706
▁proc	-6707
▁watt	-6708
inated	-6709
▁chath	-6710
▁fiver	-6711
▁grown	-6712
▁olymp	-6713
unegala	-6714
▁airbnb	-6715
▁browse	-6716
▁clothe	-6717
▁gaming	-6718
▁malabe	-6719
▁safely	-6720
▁satisf	-6721
▁spoken	-6722
▁victor	-6723
▁wisely	-6724
lication	-6725
▁anxious	-6726
▁bicycle	-6727
▁biscuit	-6728
▁boycott	-6729
▁charter	-6730
▁exagger	-6731
▁fucking	-6732
▁hangout	-6733
▁literal	-6734
▁radical	-6735
▁refugee	-6736
▁updated	-6737
▁indonesia	-6738
▁personnel	-6739
▁compulsory	-6740
▁conversion	-6741
▁fertilizer	-6742
▁hambantota	-6743
▁incredible	-6744
▁kurunegala	-6745
▁perception	-6746
▁prediction	-6747
▁arrangement	-6748
▁desperately	-6749
▁temporarily	-6750
▁clarification	-6751
inc	-6752
sen	-6753
zer	-6754
▁nc	-6755
aire	-6756
kara	-6757
osis	-6758
race	-6759
rise	-6760
▁bmw	-6761
▁dim	-6762
▁ira	-6763
▁kil	-6764
▁luc	-6765
▁pfc	-6766
apura	-6767
liant	-6768
▁asse	-6769
▁asus	-6770
▁cite	-6771
▁dose	-6772
▁halt	-6773
▁hong	-6774
▁kong	-6775
▁sink	-6776
▁vice	-6777
▁ward	-6778
▁wast	-6779
▁wilp	-6780
▁bench	-6781
▁brush	-6782
▁hilar	-6783
▁novel	-6784
▁river	-6785
▁wikip	-6786
ainable	-6787
rolling	-6788
▁bambal	-6789
▁empire	-6790
▁humble	-6791
▁intent	-6792
▁korean	-6793
▁length	-6794
▁overly	-6795
▁suzuki	-6796
▁booking	-6797
▁cartoon	-6798
▁certify	-6799
▁clarity	-6800
▁coastal	-6801
▁combank	-6802
▁evening	-6803
▁fresher	-6804
▁magnite	-6805
▁premier	-6806
▁checkout	-6807
▁exporter	-6808
▁hesitant	-6809
▁preserve	-6810
▁quantity	-6811
▁secondly	-6812
▁socially	-6813
▁hilarious	-6814
▁instantly	-6815
▁integrate	-6816
▁pollution	-6817
▁protester	-6818
▁similarly	-6819
▁universal	-6820
▁waterfall	-6821
▁engagement	-6822
▁irrelevant	-6823
▁limitation	-6824
▁scientific	-6825
▁drastically	-6826
▁mismanagement	-6827
▁constitutional	-6828
▁wickremesinghe	-6829
ox	-6830
boo	-6831
hes	-6832
les	-6833
nis	-6834
ogy	-6835
ran	-6836
urt	-6837
▁hv	-6838
amed	-6839
ingu	-6840
plus	-6841
rika	-6842
rish	-6843
ston	-6844
▁ker	-6845
▁ruh	-6846
amuwa	-6847
araja	-6848
arath	-6849
ottle	-6850
power	-6851
stone	-6852
▁beef	-6853
▁brag	-6854
▁dham	-6855
▁dust	-6856
▁glor	-6857
▁gmoa	-6858
▁hort	-6859
▁obst	-6860
▁sque	-6861
▁swed	-6862
▁vitz	-6863
▁chunk	-6864
▁civic	-6865
▁clock	-6866
▁greet	-6867
▁layer	-6868
▁saree	-6869
▁stall	-6870
▁assure	-6871
▁bitter	-6872
▁creepy	-6873
▁fabric	-6874
▁format	-6875
▁fucker	-6876
▁gentle	-6877
▁harini	-6878
▁height	-6879
▁liquor	-6880
▁poorly	-6881
▁stripe	-6882
▁uncert	-6883
▁unsafe	-6884
▁academy	-6885
▁amongst	-6886
▁applied	-6887
▁backend	-6888
▁brought	-6889
▁demonst	-6890
▁diverse	-6891
▁episode	-6892
▁mission	-6893
▁raising	-6894
▁upwards	-6895
▁chairman	-6896
▁creation	-6897
▁dominate	-6898
▁maturity	-6899
▁sightsee	-6900
▁timeline	-6901
▁unstable	-6902
▁wherever	-6903
▁wilpattu	-6904
experience	-6905
▁chandrika	-6906
▁integrity	-6907
▁lucrative	-6908
▁policeman	-6909
▁wikipedia	-6910
▁expressway	-6911
▁functional	-6912
▁dissanayake	-6913
▁nationality	-6914
▁negotiation	-6915
▁uncertainty	-6916
▁accidentally	-6917
▁congratulation	-6918
vo	-6919
add	-6920
arn	-6921
don	-6922
ped	-6923
tax	-6924
udu	-6925
▁bh	-6926
▁iq	-6927
▁tl	-6928
▁tn	-6929
▁ts	-6930
acre	-6931
aret	-6932
cend	-6933
iger	-6934
inda	-6935
inee	-6936
mail	-6937
oral	-6938
▁bcs	-6939
▁dhl	-6940
▁dip	-6941
▁swe	-6942
aging	-6943
ailed	-6944
found	-6945
gging	-6946
given	-6947
order	-6948
▁cope	-6949
▁orth	-6950
▁shel	-6951
▁thai	-6952
▁vape	-6953
afford	-6954
▁digit	-6955
▁float	-6956
▁horse	-6957
▁knock	-6958
▁parad	-6959
▁paran	-6960
▁robot	-6961
▁salon	-6962
▁scold	-6963
▁sharp	-6964
▁skept	-6965
▁stats	-6966
▁thero	-6967
▁volat	-6968
fection	-6969
holding	-6970
istered	-6971
oration	-6972
usation	-6973
▁bought	-6974
▁cheese	-6975
▁dental	-6976
▁doable	-6977
▁flavor	-6978
▁galaxy	-6979
▁phenom	-6980
▁preach	-6981
▁tailor	-6982
received	-6983
▁badulla	-6984
▁cigaret	-6985
▁dismiss	-6986
▁dispose	-6987
▁dispute	-6988
▁empathy	-6989
▁england	-6990
▁grandma	-6991
▁hopeful	-6992
▁mileage	-6993
▁violate	-6994
▁creditor	-6995
▁havelock	-6996
▁massacre	-6997
▁outsider	-6998
▁overtime	-6999
▁password	-7000
▁sirisena	-7001
▁workload	-7002
▁breakdown	-7003
▁eliminate	-7004
▁extensive	-7005
▁guideline	-7006
▁intellect	-7007
▁judgement	-7008
▁pohottuwa	-7009
▁reluctant	-7010
▁technique	-7011
▁correction	-7012
▁respective	-7013
▁demographic	-7014
▁unrealistic	-7015
▁continuously	-7016
ho	-7017
ctv	-7018
fin	-7019
hak	-7020
udi	-7021
wer	-7022
▁gi	-7023
▁sr	-7024
▁xd	-7025
hera	-7026
thon	-7027
▁ale	-7028
▁anc	-7029
▁esp	-7030
▁ifs	-7031
▁lob	-7032
▁ltd	-7033
▁rav	-7034
▁spo	-7035
apter	-7036
ensus	-7037
guard	-7038
irely	-7039
ished	-7040
wella	-7041
world	-7042
▁aest	-7043
▁cctv	-7044
▁flip	-7045
▁loot	-7046
▁more	-7047
▁plug	-7048
▁remo	-7049
▁trop	-7050
▁vent	-7051
advant	-7052
mother	-7053
▁basil	-7054
▁fluct	-7055
▁humid	-7056
▁maker	-7057
▁penny	-7058
▁ruler	-7059
▁stole	-7060
▁thier	-7061
▁trace	-7062
▁atmosp	-7063
▁calcul	-7064
▁domain	-7065
▁exempt	-7066
▁outfit	-7067
▁profic	-7068
▁recall	-7069
▁resell	-7070
entirely	-7071
▁embrace	-7072
▁generic	-7073
▁inquiry	-7074
▁launder	-7075
▁passive	-7076
▁postgra	-7077
▁premise	-7078
▁unknown	-7079
▁weekday	-7080
advantage	-7081
▁credible	-7082
▁lockdown	-7083
▁outright	-7084
▁municipal	-7085
▁probation	-7086
▁accusation	-7087
▁partnership	-7088
▁disadvantage	-7089
▁occasionally	-7090
▁manufacturing	-7091
▁understandable	-7092
aj	-7093
bly	-7094
mal	-7095
ona	-7096
run	-7097
▁lm	-7098
▁pg	-7099
fair	-7100
sist	-7101
▁abe	-7102
▁bak	-7103
▁caf	-7104
▁dol	-7105
▁gal	-7106
▁gce	-7107
▁has	-7108
▁ngo	-7109
▁pit	-7110
▁tel	-7111
hetic	-7112
hibit	-7113
iased	-7114
icker	-7115
ivers	-7116
licit	-7117
orney	-7118
ounge	-7119
▁blog	-7120
▁carn	-7121
▁dign	-7122
▁hiru	-7123
▁holy	-7124
▁keel	-7125
▁mart	-7126
▁nerv	-7127
▁sham	-7128
father	-7129
liable	-7130
▁ambul	-7131
▁gover	-7132
▁groom	-7133
▁intim	-7134
▁lobby	-7135
▁older	-7136
▁plead	-7137
▁stake	-7138
▁aswell	-7139
▁costly	-7140
▁driven	-7141
▁horton	-7142
▁makeup	-7143
▁prompt	-7144
▁python	-7145
▁speaks	-7146
▁yearly	-7147
standing	-7148
▁concent	-7149
▁frankly	-7150
▁immense	-7151
▁inherit	-7152
▁administ	-7153
▁attorney	-7154
▁feminism	-7155
▁judgment	-7156
▁throttle	-7157
▁batalanda	-7158
▁brainwash	-7159
▁diversify	-7160
▁everytime	-7161
▁fantastic	-7162
▁overwhelm	-7163
▁pakistani	-7164
▁underpaid	-7165
▁atmosphere	-7166
▁collective	-7167
▁definition	-7168
▁distribute	-7169
▁impressive	-7170
▁indirectly	-7171
▁regulatory	-7172
▁vulnerable	-7173
▁dictatorship	-7174
▁inconvenience	-7175
▁representation	-7176
mv	-7177
asy	-7178
▁az	-7179
▁hd	-7180
▁iv	-7181
ease	-7182
igen	-7183
oker	-7184
onic	-7185
rary	-7186
▁bol	-7187
▁dod	-7188
▁ngl	-7189
▁som	-7190
▁spa	-7191
iotic	-7192
lated	-7193
matic	-7194
▁bean	-7195
▁belt	-7196
▁blat	-7197
▁bold	-7198
▁carg	-7199
▁clip	-7200
▁dept	-7201
▁kept	-7202
▁nine	-7203
▁nose	-7204
▁thur	-7205
▁wrap	-7206
▁yoga	-7207
ermore	-7208
geable	-7209
oulder	-7210
▁swing	-7211
▁tiger	-7212
▁unreg	-7213
▁weigh	-7214
amiliar	-7215
atively	-7216
ievable	-7217
▁alevel	-7218
▁beggar	-7219
▁cruise	-7220
▁fiverr	-7221
▁injury	-7222
▁jewell	-7223
▁liable	-7224
▁ruhuna	-7225
▁sigiry	-7226
▁sincer	-7227
▁string	-7228
▁summer	-7229
▁blindly	-7230
▁concert	-7231
▁garment	-7232
▁illness	-7233
▁melting	-7234
▁millenn	-7235
▁nervous	-7236
▁offence	-7237
▁outlook	-7238
▁quarant	-7239
▁shelter	-7240
▁squeeze	-7241
▁surface	-7242
▁sympath	-7243
▁torrent	-7244
▁unusual	-7245
▁arrogant	-7246
▁hardship	-7247
▁initiate	-7248
▁petition	-7249
▁reckless	-7250
▁scamming	-7251
▁tropical	-7252
▁diversity	-7253
▁goverment	-7254
▁terminate	-7255
▁furthermore	-7256
▁instability	-7257
▁intelligent	-7258
▁residential	-7259
▁transparent	-7260
▁manipulation	-7261
▁ridiculously	-7262
▁ek	-7263
▁ku	-7264
▁mi	-7265
▁ww	-7266
crow	-7267
▁api	-7268
▁awk	-7269
▁bpo	-7270
▁iam	-7271
▁ner	-7272
▁ogf	-7273
▁ray	-7274
▁und	-7275
▁utc	-7276
acked	-7277
lands	-7278
otype	-7279
print	-7280
▁abus	-7281
▁grey	-7282
▁subt	-7283
▁tile	-7284
▁toll	-7285
gotten	-7286
health	-7287
italin	-7288
person	-7289
utical	-7290
▁antib	-7291
▁arise	-7292
▁combo	-7293
▁eager	-7294
▁greed	-7295
▁prize	-7296
▁queer	-7297
▁resid	-7298
▁scrap	-7299
▁seize	-7300
▁spray	-7301
▁stere	-7302
▁theft	-7303
▁viral	-7304
osexual	-7305
willing	-7306
▁exclus	-7307
▁invent	-7308
▁motion	-7309
▁poison	-7310
▁resale	-7311
▁awkward	-7312
▁bargain	-7313
▁conquer	-7314
▁logical	-7315
▁rapidly	-7316
▁ritalin	-7317
▁sparkle	-7318
▁surgeon	-7319
▁suspend	-7320
▁confront	-7321
▁inflated	-7322
▁moderate	-7323
▁phenomen	-7324
▁ultimate	-7325
acceptable	-7326
ustainable	-7327
▁addiction	-7328
▁aesthetic	-7329
▁alternate	-7330
▁cigarette	-7331
▁criticise	-7332
▁existence	-7333
▁incorrect	-7334
▁substance	-7335
▁basketball	-7336
▁competitor	-7337
▁quarantine	-7338
▁grandmother	-7339
▁interactive	-7340
▁bambalapitiya	-7341
▁specialization	-7342
nee	-7343
▁mg	-7344
atis	-7345
ided	-7346
rete	-7347
unge	-7348
▁fon	-7349
▁mcq	-7350
▁ons	-7351
▁row	-7352
▁tue	-7353
anged	-7354
ayake	-7355
ithub	-7356
opard	-7357
ridge	-7358
▁amex	-7359
▁dfcc	-7360
▁grim	-7361
▁logo	-7362
▁seed	-7363
▁spin	-7364
▁stir	-7365
▁tiss	-7366
common	-7367
invest	-7368
laimer	-7369
▁accum	-7370
▁blast	-7371
▁horiz	-7372
▁magic	-7373
▁petty	-7374
▁punch	-7375
▁reset	-7376
▁seper	-7377
▁spell	-7378
▁thick	-7379
▁bypass	-7380
▁fulfil	-7381
▁github	-7382
▁jungle	-7383
▁kumara	-7384
▁parade	-7385
▁philos	-7386
▁rabies	-7387
▁sample	-7388
▁tution	-7389
▁charger	-7390
▁desktop	-7391
▁dignity	-7392
▁excited	-7393
▁firstly	-7394
▁fulfill	-7395
▁happily	-7396
▁hygiene	-7397
▁intense	-7398
▁isolate	-7399
▁nuclear	-7400
▁prefect	-7401
▁prepaid	-7402
▁removal	-7403
▁taxable	-7404
fessional	-7405
▁clueless	-7406
▁compound	-7407
▁downfall	-7408
▁optional	-7409
▁organise	-7410
▁repeated	-7411
▁severely	-7412
▁spectrum	-7413
▁supposed	-7414
▁survival	-7415
▁unbiased	-7416
▁accessory	-7417
▁affiliate	-7418
▁animation	-7419
▁automatic	-7420
▁injection	-7421
▁languages	-7422
▁objective	-7423
▁pointless	-7424
▁spiritual	-7425
▁unrelated	-7426
▁allocation	-7427
▁disclaimer	-7428
▁optimistic	-7429
▁registered	-7430
▁underworld	-7431
▁inefficient	-7432
▁recruitment	-7433
▁substantial	-7434
▁advertisement	-7435
▁controversial	-7436
pm	-7437
awe	-7438
cho	-7439
fty	-7440
hen	-7441
oka	-7442
tha	-7443
uty	-7444
atte	-7445
each	-7446
etal	-7447
ites	-7448
wear	-7449
▁aug	-7450
▁dos	-7451
▁dow	-7452
▁llb	-7453
▁plz	-7454
▁ric	-7455
adura	-7456
ducer	-7457
izing	-7458
odate	-7459
plate	-7460
rence	-7461
▁bend	-7462
▁bril	-7463
▁cock	-7464
▁crew	-7465
▁pave	-7466
▁scal	-7467
holder	-7468
inking	-7469
liness	-7470
redict	-7471
singly	-7472
urance	-7473
▁cafes	-7474
▁calor	-7475
▁cargo	-7476
▁curse	-7477
▁facil	-7478
▁guilt	-7479
▁lover	-7480
▁names	-7481
▁payer	-7482
▁simpl	-7483
▁straw	-7484
▁sunny	-7485
▁tired	-7486
▁upgra	-7487
ethical	-7488
justice	-7489
▁before	-7490
▁breach	-7491
▁county	-7492
▁lounge	-7493
▁nandal	-7494
▁phrase	-7495
▁planet	-7496
▁priest	-7497
▁spouse	-7498
▁unpaid	-7499
▁wellaw	-7500
planning	-7501
▁binance	-7502
▁finding	-7503
▁harmful	-7504
▁jewelry	-7505
▁knowled	-7506
▁loyalty	-7507
▁muslims	-7508
▁portray	-7509
▁variant	-7510
▁battical	-7511
▁citizens	-7512
▁dissolve	-7513
▁existent	-7514
▁historic	-7515
▁insanely	-7516
▁producer	-7517
▁referral	-7518
▁sensible	-7519
▁supplier	-7520
▁classroom	-7521
▁deduction	-7522
▁headphone	-7523
▁palestine	-7524
▁antibiotic	-7525
▁reasonably	-7526
▁colonialism	-7527
▁reservation	-7528
▁accomodation	-7529
▁agricultural	-7530
▁deliberately	-7531
▁presentation	-7532
awn	-7533
bie	-7534
iff	-7535
imp	-7536
irc	-7537
ita	-7538
lem	-7539
rad	-7540
unu	-7541
win	-7542
▁ht	-7543
atar	-7544
gama	-7545
mine	-7546
norm	-7547
ophy	-7548
unga	-7549
ylan	-7550
▁adm	-7551
▁hun	-7552
▁kap	-7553
▁roi	-7554
▁sep	-7555
▁sms	-7556
▁yrs	-7557
abase	-7558
amond	-7559
anaya	-7560
crowd	-7561
ilipp	-7562
inity	-7563
ketch	-7564
lemma	-7565
pract	-7566
swire	-7567
▁acqu	-7568
▁deem	-7569
▁hect	-7570
▁loop	-7571
▁maid	-7572
▁tune	-7573
ations	-7574
ritory	-7575
screen	-7576
urious	-7577
▁brake	-7578
▁cinec	-7579
▁fonse	-7580
▁gross	-7581
▁hatch	-7582
▁hurry	-7583
▁mouse	-7584
▁notch	-7585
▁wound	-7586
realize	-7587
▁attest	-7588
▁biomed	-7589
▁brings	-7590
▁collar	-7591
▁contem	-7592
▁deputy	-7593
▁fiscal	-7594
▁genius	-7595
▁horror	-7596
▁kidney	-7597
▁manual	-7598
▁outage	-7599
▁polite	-7600
▁prepar	-7601
▁retard	-7602
▁scared	-7603
▁tennis	-7604
▁upwork	-7605
communic	-7606
expected	-7607
ilippine	-7608
▁ashamed	-7609
▁closely	-7610
▁degrees	-7611
▁dilemma	-7612
▁impress	-7613
▁infront	-7614
▁instant	-7615
▁prostit	-7616
▁relieve	-7617
▁renewal	-7618
▁sigirya	-7619
▁sincere	-7620
▁summary	-7621
▁casually	-7622
▁commonly	-7623
▁forecast	-7624
▁newswire	-7625
▁rational	-7626
▁relocate	-7627
▁shoulder	-7628
▁ignorance	-7629
▁inclusive	-7630
▁residency	-7631
▁territory	-7632
▁automation	-7633
▁beforehand	-7634
▁meditation	-7635
▁occupation	-7636
▁philippine	-7637
▁resolution	-7638
▁settlement	-7639
▁television	-7640
▁yahapalana	-7641
▁implication	-7642
▁participation	-7643
yo	-7644
aly	-7645
chi	-7646
few	-7647
olf	-7648
sup	-7649
▁ci	-7650
▁ny	-7651
▁ry	-7652
gher	-7653
hire	-7654
ials	-7655
luck	-7656
mika	-7657
oret	-7658
rich	-7659
rive	-7660
wela	-7661
▁aws	-7662
▁dum	-7663
▁hil	-7664
▁lag	-7665
alone	-7666
cript	-7667
venge	-7668
▁aqua	-7669
▁atto	-7670
▁cure	-7671
▁derm	-7672
▁esim	-7673
▁exor	-7674
▁fuss	-7675
▁mood	-7676
▁nanu	-7677
▁pose	-7678
▁tent	-7679
▁unam	-7680
asking	-7681
lywood	-7682
▁angel	-7683
▁damro	-7684
▁pinna	-7685
▁plaza	-7686
▁query	-7687
▁scuba	-7688
▁sheer	-7689
▁silly	-7690
▁somed	-7691
▁vouch	-7692
▁bullet	-7693
▁deploy	-7694
▁forgot	-7695
▁meetup	-7696
▁pirate	-7697
▁wednes	-7698
▁convent	-7699
▁fonseka	-7700
▁lasting	-7701
▁listing	-7702
▁pending	-7703
▁ranking	-7704
▁rehabil	-7705
▁restore	-7706
▁scandal	-7707
▁theater	-7708
▁tuesday	-7709
▁database	-7710
▁homophob	-7711
▁junction	-7712
▁kindness	-7713
▁meantime	-7714
▁moreover	-7715
▁nandalal	-7716
▁powercut	-7717
▁strictly	-7718
▁terminal	-7719
▁tolerate	-7720
▁allegedly	-7721
▁anonymous	-7722
▁communism	-7723
▁illegally	-7724
▁massively	-7725
▁placement	-7726
▁prosecute	-7727
▁renewable	-7728
▁signature	-7729
▁automobile	-7730
▁creativity	-7731
▁homosexual	-7732
▁phenomenon	-7733
▁repeatedly	-7734
▁resistance	-7735
▁exceptional	-7736
▁frustrating	-7737
▁outstanding	-7738
communication	-7739
▁generational	-7740
▁preferential	-7741
cir	-7742
exc	-7743
jud	-7744
shi	-7745
▁nv	-7746
▁rt	-7747
auth	-7748
bish	-7749
erry	-7750
fing	-7751
fuck	-7752
outs	-7753
qual	-7754
xist	-7755
▁aer	-7756
▁alg	-7757
▁cos	-7758
▁diy	-7759
▁few	-7760
▁lan	-7761
▁pip	-7762
▁pul	-7763
▁vib	-7764
▁vid	-7765
▁wis	-7766
chain	-7767
tears	-7768
watch	-7769
▁acre	-7770
▁alum	-7771
▁bury	-7772
▁iirc	-7773
▁imax	-7774
▁mong	-7775
▁nazi	-7776
▁scum	-7777
▁soil	-7778
▁trim	-7779
angala	-7780
answer	-7781
circle	-7782
liment	-7783
making	-7784
ribute	-7785
▁essay	-7786
▁hefty	-7787
▁hoard	-7788
▁karma	-7789
▁login	-7790
▁moder	-7791
▁prest	-7792
▁renov	-7793
asingly	-7794
married	-7795
ulative	-7796
▁honour	-7797
▁inflow	-7798
▁lankas	-7799
▁medioc	-7800
▁merely	-7801
▁metrop	-7802
▁occupy	-7803
▁pfizer	-7804
▁pricey	-7805
▁remark	-7806
▁sketch	-7807
▁tender	-7808
▁winner	-7809
▁calorie	-7810
▁compass	-7811
▁cooking	-7812
▁forgive	-7813
▁gallery	-7814
▁kottawa	-7815
▁luckily	-7816
▁mindful	-7817
▁theoret	-7818
▁trainee	-7819
▁tuktuks	-7820
▁windows	-7821
mentioned	-7822
▁cargills	-7823
▁detailed	-7824
▁evaluate	-7825
▁lasantha	-7826
▁merchant	-7827
▁overlook	-7828
▁societal	-7829
▁thursday	-7830
▁unamused	-7831
▁workshop	-7832
▁authorize	-7833
▁excessive	-7834
▁injustice	-7835
▁partially	-7836
▁pinnawala	-7837
▁preferred	-7838
▁strategic	-7839
▁unpredict	-7840
▁wednesday	-7841
▁acceptance	-7842
▁anonymized	-7843
▁batticaloa	-7844
▁continuous	-7845
▁inevitable	-7846
▁specialise	-7847
▁subjective	-7848
▁worthwhile	-7849
▁grandfather	-7850
▁internships	-7851
▁orientation	-7852
▁permanently	-7853
▁historically	-7854
▁increasingly	-7855
▁intellectual	-7856
▁productivity	-7857
▁surprisingly	-7858
▁comparatively	-7859
▁independently	-7860
▁intentionally	-7861
▁implementation	-7862
bb	-7863
las	-7864
rat	-7865
▁ms	-7866
anut	-7867
arag	-7868
born	-7869
eria	-7870
food	-7871
inue	-7872
orge	-7873
sole	-7874
umat	-7875
▁ecu	-7876
▁enh	-7877
▁jes	-7878
▁kfc	-7879
▁kwh	-7880
▁lee	-7881
▁pid	-7882
▁usb	-7883
▁ves	-7884
anker	-7885
atron	-7886
blame	-7887
legal	-7888
offer	-7889
reach	-7890
▁bone	-7891
▁fasc	-7892
▁goss	-7893
▁hail	-7894
▁horn	-7895
▁mild	-7896
▁obli	-7897
▁sony	-7898
▁spar	-7899
▁tick	-7900
▁whey	-7901
aratne	-7902
borate	-7903
donald	-7904
rocket	-7905
roller	-7906
▁angle	-7907
▁curly	-7908
▁filth	-7909
▁girls	-7910
▁grasp	-7911
▁hindi	-7912
▁linux	-7913
▁lonel	-7914
▁outta	-7915
▁rival	-7916
▁uncon	-7917
forward	-7918
iterate	-7919
respond	-7920
▁beware	-7921
▁condem	-7922
▁foster	-7923
▁fridge	-7924
▁hitler	-7925
▁miscon	-7926
▁nether	-7927
▁polish	-7928
▁redact	-7929
▁rumour	-7930
▁seylan	-7931
▁sirima	-7932
▁winter	-7933
complete	-7934
▁belongs	-7935
▁cashier	-7936
▁distant	-7937
▁enhance	-7938
▁paralle	-7939
▁persist	-7940
▁playing	-7941
▁prabhak	-7942
▁virtual	-7943
▁clapping	-7944
▁counsell	-7945
▁fraction	-7946
▁hardcore	-7947
▁mcdonald	-7948
▁paycheck	-7949
▁apologize	-7950
▁downvoted	-7951
▁liquidity	-7952
▁luxurious	-7953
▁unethical	-7954
▁emigration	-7955
▁loneliness	-7956
▁networking	-7957
▁photograph	-7958
▁supposedly	-7959
▁accommodate	-7960
▁	-7961
e	-7962
a	-7963
t	-7964
o	-7965
n	-7966
i	-7967
r	-7968
l	-7969
s	-7970
c	-7971
d	-7972
p	-7973
u	-7974
m	-7975
h	-7976
y	-7977
g	-7978
k	-7979
b	-7980
f	-7981
w	-7982
v	-7983
_	-7984
x	-7985
j	-7986
q	-7987
z	-7988
O	-7989
E	-7990
'	-7991
M	-7992
S	-7993
P	-7994
N	-7995
G	-7996
