<unk>	0
<s>	0
</s>	0
▁s	-0
in	-1
er	-2
▁c	-3
an	-4
▁p	-5
on	-6
re	-7
al	-8
▁t	-9
en	-10
▁l	-11
▁m	-12
▁w	-13
▁g	-14
ar	-15
at	-16
▁b	-17
▁d	-18
it	-19
ou	-20
▁f	-21
st	-22
▁e	-23
▁n	-24
le	-25
or	-26
▁a	-27
ic	-28
▁h	-29
ot	-30
om	-31
ly	-32
▁re	-33
ion	-34
ve	-35
ri	-36
et	-37
ing	-38
ent	-39
se	-40
ce	-41
ay	-42
ke	-43
ll	-44
op	-45
ss	-46
▁st	-47
▁u	-48
ct	-49
▁go	-50
▁in	-51
ol	-52
▁not	-53
ver	-54
ow	-55
▁th	-56
ee	-57
one	-58
ra	-59
ate	-60
ank	-61
im	-62
▁'	-63
ig	-64
ch	-65
id	-66
ro	-67
▁li	-68
ld	-69
ea	-70
ge	-71
is	-72
ation	-73
▁de	-74
od	-75
am	-76
▁com	-77
▁k	-78
▁al	-79
oun	-80
ry	-81
th	-82
▁get	-83
il	-84
▁ex	-85
ally	-86
▁sri	-87
▁we	-88
ck	-89
▁lank	-90
pp	-91
ear	-92
ur	-93
ad	-94
▁ch	-95
▁y	-96
ake	-97
end	-98
ment	-99
ould	-100
▁v	-101
▁lo	-102
and	-103
any	-104
ity	-105
▁like	-106
▁su	-107
▁r	-108
▁con	-109
ue	-110
ant	-111
▁un	-112
ul	-113
ill	-114
ff	-115
ice	-116
ive	-117
ort	-118
ble	-119
▁wor	-120
▁pro	-121
ht	-122
▁bu	-123
▁pe	-124
ir	-125
el	-126
ine	-127
▁1	-128
ut	-129
ople	-130
▁people	-131
▁2	-132
her	-133
la	-134
art	-135
▁lanka	-136
ount	-137
ci	-138
▁sh	-139
▁do	-140
▁j	-141
ed	-142
▁would	-143
un	-144
▁good	-145
▁o	-146
as	-147
are	-148
now	-149
ter	-150
▁ne	-151
▁be	-152
▁know	-153
ind	-154
ect	-155
ime	-156
um	-157
ink	-158
00	-159
▁ev	-160
▁exp	-161
▁po	-162
ist	-163
ome	-164
▁see	-165
▁sp	-166
em	-167
▁pr	-168
ok	-169
▁comp	-170
▁one	-171
age	-172
eed	-173
ard	-174
▁well	-175
▁work	-176
ase	-177
ence	-178
▁ad	-179
▁per	-180
ack	-181
▁think	-182
ie	-183
▁any	-184
▁time	-185
ure	-186
so	-187
ud	-188
▁even	-189
▁count	-190
▁make	-191
▁en	-192
ide	-193
▁ever	-194
ast	-195
▁pre	-196
▁op	-197
sp	-198
▁also	-199
▁ve	-200
▁use	-201
ight	-202
all	-203
▁country	-204
▁se	-205
▁need	-206
▁ar	-207
ance	-208
▁say	-209
du	-210
ap	-211
▁mu	-212
▁fo	-213
▁fa	-214
▁I	-215
▁pl	-216
▁want	-217
qu	-218
ru	-219
▁di	-220
der	-221
▁every	-222
▁year	-223
▁app	-224
lo	-225
▁im	-226
ith	-227
ree	-228
▁tra	-229
▁co	-230
ong	-231
sh	-232
▁ac	-233
ite	-234
▁sl	-235
fe	-236
▁pay	-237
our	-238
ound	-239
▁take	-240
▁ma	-241
ip	-242
nt	-243
out	-244
▁ri	-245
▁inter	-246
▁col	-247
able	-248
▁3	-249
▁look	-250
bo	-251
▁rec	-252
▁me	-253
▁day	-254
▁wh	-255
ob	-256
▁lea	-257
▁thing	-258
oug	-259
ous	-260
▁pol	-261
vel	-262
▁an	-263
▁ha	-264
pt	-265
ber	-266
▁te	-267
ult	-268
ab	-269
eri	-270
▁sin	-271
hing	-272
ign	-273
▁try	-274
▁i	-275
▁come	-276
ary	-277
▁le	-278
▁lankan	-279
sk	-280
vern	-281
▁give	-282
lace	-283
int	-284
▁inc	-285
▁ra	-286
▁much	-287
other	-288
port	-289
▁act	-290
if	-291
▁mon	-292
orm	-293
▁gu	-294
▁part	-295
▁govern	-296
▁hel	-297
▁really	-298
▁so	-299
▁back	-300
▁help	-301
way	-302
▁man	-303
ia	-304
▁he	-305
ical	-306
▁government	-307
ep	-308
ish	-309
us	-310
ombo	-311
▁fee	-312
iz	-313
og	-314
▁way	-315
ough	-316
▁find	-317
omet	-318
ick	-319
▁tr	-320
▁start	-321
▁ind	-322
▁stud	-323
▁place	-324
ffer	-325
son	-326
oney	-327
▁somet	-328
con	-329
▁ta	-330
igh	-331
vice	-332
▁thank	-333
▁anyone	-334
ote	-335
▁colombo	-336
▁cont	-337
▁could	-338
▁money	-339
▁mar	-340
▁new	-341
▁20	-342
ght	-343
ire	-344
dit	-345
old	-346
▁us	-347
▁mo	-348
lect	-349
▁uni	-350
▁will	-351
▁can	-352
▁job	-353
▁around	-354
▁gr	-355
ain	-356
▁still	-357
▁sa	-358
sid	-359
▁qu	-360
▁month	-361
erience	-362
ily	-363
▁experience	-364
▁some	-365
▁tax	-366
▁sc	-367
▁cur	-368
▁happ	-369
gree	-370
▁5	-371
ise	-372
ian	-373
▁buy	-374
▁high	-375
▁acc	-376
▁bus	-377
▁br	-378
▁feel	-379
li	-380
▁dis	-381
thing	-382
ually	-383
▁guy	-384
ange	-385
▁ro	-386
▁person	-387
▁ask	-388
▁with	-389
▁ke	-390
▁am	-391
▁right	-392
riend	-393
▁fir	-394
▁many	-395
▁comm	-396
ust	-397
▁may	-398
ub	-399
▁4	-400
ak	-401
▁dec	-402
cial	-403
ild	-404
▁something	-405
fa	-406
vers	-407
▁pri	-408
reat	-409
▁plan	-410
ple	-411
▁company	-412
▁ab	-413
▁life	-414
▁vis	-415
▁lot	-416
que	-417
▁inf	-418
ame	-419
▁ph	-420
▁eng	-421
te	-422
▁first	-423
▁bo	-424
▁sch	-425
ath	-426
▁em	-427
est	-428
▁gen	-429
▁post	-430
▁friend	-431
▁loc	-432
▁curre	-433
ag	-434
▁sm	-435
▁rel	-436
ful	-437
▁price	-438
▁live	-439
▁reg	-440
cy	-441
▁polit	-442
stion	-443
▁id	-444
▁since	-445
▁iss	-446
ore	-447
ory	-448
▁car	-449
▁issue	-450
iv	-451
cess	-452
▁let	-453
▁fin	-454
act	-455
▁happen	-456
▁med	-457
aw	-458
▁rem	-459
▁long	-460
▁bad	-461
lic	-462
▁at	-463
ool	-464
ose	-465
ead	-466
ty	-467
▁under	-468
▁someone	-469
▁mean	-470
up	-471
lease	-472
▁supp	-473
be	-474
▁face	-475
▁keep	-476
▁res	-477
▁tea	-478
ope	-479
▁inst	-480
▁current	-481
ower	-482
ail	-483
use	-484
line	-485
▁bank	-486
omm	-487
▁intern	-488
ress	-489
▁et	-490
▁call	-491
▁everyone	-492
▁min	-493
es	-494
▁fam	-495
▁real	-496
▁ser	-497
▁hear	-498
conom	-499
ffic	-500
eci	-501
vest	-502
ket	-503
ass	-504
▁rep	-505
▁ear	-506
▁or	-507
alk	-508
▁tell	-509
▁sim	-510
▁sure	-511
▁school	-512
▁econom	-513
face	-514
xt	-515
▁invest	-516
ft	-517
▁degree	-518
▁fu	-519
▁cor	-520
own	-521
▁fore	-522
▁local	-523
▁sub	-524
▁sy	-525
ang	-526
▁tw	-527
ual	-528
▁please	-529
▁elect	-530
▁que	-531
ial	-532
ship	-533
tion	-534
▁sal	-535
▁che	-536
ala	-537
▁change	-538
versity	-539
ize	-540
▁never	-541
▁end	-542
atch	-543
▁dep	-544
iness	-545
▁etc	-546
read	-547
▁care	-548
▁dri	-549
▁without	-550
▁cla	-551
ational	-552
▁university	-553
▁student	-554
▁differ	-555
▁travel	-556
ible	-557
ord	-558
▁might	-559
ically	-560
ommend	-561
ile	-562
ious	-563
▁recommend	-564
me	-565
▁seem	-566
ways	-567
▁hi	-568
▁you	-569
▁love	-570
▁cl	-571
ert	-572
▁tran	-573
arent	-574
▁ent	-575
▁family	-576
▁business	-577
ject	-578
▁for	-579
earn	-580
urn	-581
less	-582
▁sit	-583
▁learn	-584
come	-585
▁market	-586
stand	-587
ute	-588
▁cre	-589
▁cost	-590
ude	-591
▁hard	-592
▁power	-593
▁anything	-594
▁att	-595
▁question	-596
▁sinh	-597
▁6	-598
de	-599
▁kind	-600
▁ass	-601
▁fun	-602
▁lit	-603
▁wr	-604
▁point	-605
▁adv	-606
▁priv	-607
▁actually	-608
ne	-609
ative	-610
▁prop	-611
▁check	-612
sit	-613
amil	-614
ility	-615
▁advice	-616
ense	-617
▁gener	-618
▁understand	-619
oy	-620
▁always	-621
▁visit	-622
ern	-623
ason	-624
▁ag	-625
blem	-626
▁on	-627
▁problem	-628
▁account	-629
ital	-630
▁move	-631
get	-632
eek	-633
▁interest	-634
duc	-635
▁leave	-636
icle	-637
▁tamil	-638
ict	-639
▁el	-640
fer	-641
▁reason	-642
▁last	-643
▁up	-644
ather	-645
▁educ	-646
erm	-647
stem	-648
▁foreign	-649
▁option	-650
▁two	-651
▁another	-652
eak	-653
▁old	-654
unity	-655
tle	-656
▁week	-657
ning	-658
▁imp	-659
▁pub	-660
▁ment	-661
▁support	-662
ale	-663
▁hand	-664
▁system	-665
▁big	-666
▁talk	-667
▁bud	-668
▁ins	-669
sider	-670
▁10	-671
▁study	-672
ciate	-673
▁202	-674
▁par	-675
▁vote	-676
▁tou	-677
▁import	-678
▁great	-679
▁gra	-680
ach	-681
ssion	-682
ently	-683
ya	-684
▁exam	-685
arge	-686
with	-687
ember	-688
▁stay	-689
▁hope	-690
▁service	-691
▁sug	-692
▁cho	-693
▁sk	-694
▁over	-695
▁pass	-696
▁state	-697
ism	-698
▁build	-699
▁free	-700
ctor	-701
ever	-702
ater	-703
▁bas	-704
ific	-705
▁party	-706
▁out	-707
▁cour	-708
▁av	-709
▁consider	-710
▁tru	-711
ouse	-712
▁next	-713
▁show	-714
▁salary	-715
▁enough	-716
▁parent	-717
▁politic	-718
▁idea	-719
lish	-720
ium	-721
▁private	-722
ably	-723
▁read	-724
▁public	-725
uation	-726
iew	-727
▁cr	-728
▁war	-729
ens	-730
▁bit	-731
mo	-732
ether	-733
▁ca	-734
bt	-735
ution	-736
▁maybe	-737
▁to	-738
▁bel	-739
gra	-740
atter	-741
▁sugge	-742
▁ext	-743
▁cle	-744
ieve	-745
▁world	-746
reciate	-747
▁engine	-748
sc	-749
▁all	-750
ready	-751
▁different	-752
llow	-753
▁spend	-754
▁already	-755
ract	-756
▁shit	-757
▁veh	-758
▁eas	-759
ority	-760
▁7	-761
▁resp	-762
duct	-763
▁vehicle	-764
ere	-765
▁home	-766
ug	-767
rect	-768
▁low	-769
ecially	-770
▁share	-771
▁situation	-772
rea	-773
▁sur	-774
alth	-775
stly	-776
▁aff	-777
rupt	-778
ey	-779
▁law	-780
▁sol	-781
▁far	-782
▁food	-783
▁prov	-784
▁touri	-785
▁ho	-786
▁open	-787
cept	-788
▁become	-789
▁yes	-790
000	-791
▁less	-792
▁pret	-793
▁appreciate	-794
▁put	-795
▁stu	-796
▁add	-797
▁red	-798
▁other	-799
▁who	-800
▁run	-801
▁class	-802
▁that	-803
ib	-804
▁house	-805
▁tri	-806
▁bea	-807
sw	-808
▁proper	-809
▁8	-810
▁online	-811
▁engineer	-812
▁qual	-813
▁small	-814
▁rest	-815
yp	-816
velop	-817
▁def	-818
▁area	-819
▁stop	-820
▁comple	-821
▁mind	-822
ither	-823
road	-824
▁social	-825
▁everything	-826
▁though	-827
sident	-828
▁base	-829
▁teach	-830
▁leg	-831
▁else	-832
▁disc	-833
ware	-834
▁develop	-835
▁emp	-836
▁air	-837
▁val	-838
▁mi	-839
▁ran	-840
joy	-841
▁card	-842
▁dr	-843
▁cult	-844
▁ru	-845
▁wa	-846
▁num	-847
▁case	-848
form	-849
here	-850
▁cri	-851
▁least	-852
▁offer	-853
▁mod	-854
▁play	-855
▁sell	-856
▁incre	-857
▁set	-858
▁education	-859
dition	-860
▁maj	-861
ric	-862
loy	-863
▁poss	-864
▁india	-865
▁ret	-866
▁pretty	-867
ular	-868
▁able	-869
▁due	-870
▁str	-871
▁stuff	-872
▁income	-873
▁speak	-874
▁nothing	-875
▁fre	-876
▁lk	-877
▁tech	-878
▁number	-879
▁prob	-880
ac	-881
▁kid	-882
▁9	-883
▁bring	-884
▁15	-885
▁how	-886
ister	-887
▁jo	-888
▁esp	-889
▁pur	-890
▁either	-891
▁cert	-892
▁conf	-893
bs	-894
▁book	-895
illion	-896
▁top	-897
day	-898
▁ranil	-899
outh	-900
▁fut	-901
▁sw	-902
▁lol	-903
▁currently	-904
ha	-905
▁land	-906
▁sinhala	-907
ately	-908
▁clo	-909
▁amount	-910
gg	-911
▁is	-912
olog	-913
▁president	-914
▁it	-915
ner	-916
ene	-917
▁expect	-918
▁especially	-919
▁sing	-920
▁term	-921
▁hot	-922
▁level	-923
▁future	-924
▁100	-925
▁cons	-926
amp	-927
▁pack	-928
▁corrupt	-929
▁dat	-930
▁train	-931
▁recently	-932
ma	-933
▁english	-934
▁manage	-935
▁however	-936
fit	-937
▁bl	-938
irl	-939
▁apply	-940
▁worth	-941
▁probably	-942
ody	-943
ward	-944
ought	-945
▁complete	-946
nect	-947
ilar	-948
▁comment	-949
▁follow	-950
ral	-951
▁sec	-952
▁believe	-953
▁fuck	-954
▁name	-955
▁medium	-956
▁rate	-957
▁employ	-958
▁hone	-959
▁mention	-960
lla	-961
oup	-962
▁election	-963
▁as	-964
▁police	-965
▁abroad	-966
lank	-967
uk	-968
▁hey	-969
▁main	-970
of	-971
▁girl	-972
▁loan	-973
▁lankans	-974
▁doctor	-975
▁advance	-976
▁earn	-977
▁side	-978
▁drive	-979
▁health	-980
▁thought	-981
onder	-982
▁ap	-983
▁cap	-984
andy	-985
lude	-986
▁fund	-987
▁whole	-988
▁political	-989
▁bro	-990
▁close	-991
▁wonder	-992
▁send	-993
where	-994
vious	-995
pl	-996
▁yea	-997
▁similar	-998
▁increase	-999
oman	-1000
▁trans	-1001
▁cause	-1002
▁stand	-1003
▁wait	-1004
▁cust	-1005
▁mid	-1006
▁phone	-1007
▁course	-1008
ving	-1009
ource	-1010
▁inform	-1011
os	-1012
imit	-1013
▁economy	-1014
▁economic	-1015
▁lose	-1016
▁lkr	-1017
ph	-1018
uw	-1019
▁lu	-1020
▁stre	-1021
igr	-1022
▁full	-1023
icy	-1024
▁connect	-1025
ash	-1026
eap	-1027
▁fi	-1028
▁sign	-1029
▁product	-1030
duce	-1031
fort	-1032
▁custom	-1033
▁cu	-1034
lain	-1035
▁group	-1036
▁child	-1037
▁tourist	-1038
▁hour	-1039
▁kandy	-1040
▁there	-1041
▁possible	-1042
▁wrong	-1043
▁matter	-1044
alle	-1045
▁int	-1046
ield	-1047
▁grow	-1048
quire	-1049
▁agree	-1050
▁watch	-1051
▁na	-1052
▁past	-1053
▁opport	-1054
▁easy	-1055
sition	-1056
▁night	-1057
▁away	-1058
▁south	-1059
▁provide	-1060
▁personal	-1061
▁npp	-1062
▁indu	-1063
▁indust	-1064
▁woman	-1065
▁gov	-1066
inion	-1067
▁meet	-1068
▁vi	-1069
▁little	-1070
▁bre	-1071
▁deal	-1072
ond	-1073
▁taxis	-1074
ara	-1075
▁off	-1076
▁clear	-1077
▁opinion	-1078
▁allow	-1079
▁instead	-1080
ety	-1081
▁cent	-1082
dge	-1083
▁hell	-1084
sm	-1085
ency	-1086
▁include	-1087
▁fact	-1088
arch	-1089
view	-1090
▁yeah	-1091
ruct	-1092
▁offic	-1093
▁typ	-1094
▁what	-1095
ify	-1096
oc	-1097
▁raj	-1098
▁order	-1099
▁infl	-1100
▁trip	-1101
▁short	-1102
wor	-1103
▁srilank	-1104
he	-1105
▁bi	-1106
▁charge	-1107
▁national	-1108
gram	-1109
▁list	-1110
ys	-1111
▁whether	-1112
▁sci	-1113
▁near	-1114
▁opportunity	-1115
▁tod	-1116
ade	-1117
ision	-1118
▁politician	-1119
▁201	-1120
▁project	-1121
▁cheap	-1122
▁remember	-1123
▁det	-1124
▁datum	-1125
▁12	-1126
▁policy	-1127
▁z	-1128
▁ago	-1129
▁process	-1130
▁sup	-1131
most	-1132
▁true	-1133
▁ob	-1134
▁today	-1135
icket	-1136
▁create	-1137
▁scam	-1138
▁des	-1139
▁culture	-1140
▁prom	-1141
▁package	-1142
▁require	-1143
▁form	-1144
▁field	-1145
side	-1146
▁recommendation	-1147
▁hist	-1148
▁rese	-1149
▁industry	-1150
▁soft	-1151
▁trust	-1152
ament	-1153
▁mom	-1154
ron	-1155
▁30	-1156
tear	-1157
▁compare	-1158
ock	-1159
▁payment	-1160
▁x	-1161
▁finan	-1162
▁within	-1163
▁usually	-1164
▁regard	-1165
▁budget	-1166
▁direct	-1167
▁gue	-1168
▁pick	-1169
▁norm	-1170
▁19	-1171
▁road	-1172
▁relig	-1173
▁quality	-1174
▁pop	-1175
▁head	-1176
▁save	-1177
rove	-1178
ensive	-1179
▁almost	-1180
▁depend	-1181
▁mil	-1182
▁yet	-1183
▁must	-1184
▁break	-1185
▁prote	-1186
cond	-1187
▁mess	-1188
▁hold	-1189
▁sect	-1190
▁cra	-1191
▁mor	-1192
▁game	-1193
▁driver	-1194
▁result	-1195
▁second	-1196
▁cou	-1197
ated	-1198
▁indian	-1199
▁quite	-1200
▁mus	-1201
ition	-1202
oud	-1203
▁visa	-1204
▁ok	-1205
▁choose	-1206
▁fl	-1207
ting	-1208
▁program	-1209
rol	-1210
▁speci	-1211
▁hotel	-1212
eat	-1213
▁shop	-1214
▁inv	-1215
▁turn	-1216
▁example	-1217
ient	-1218
▁ref	-1219
aster	-1220
▁research	-1221
ota	-1222
▁event	-1223
▁million	-1224
▁25	-1225
▁liter	-1226
aste	-1227
swer	-1228
▁general	-1229
aff	-1230
ons	-1231
land	-1232
▁conc	-1233
▁specif	-1234
▁value	-1235
▁port	-1236
▁answer	-1237
ural	-1238
▁cut	-1239
▁vide	-1240
▁science	-1241
▁art	-1242
spect	-1243
▁pu	-1244
dle	-1245
▁early	-1246
▁rece	-1247
▁international	-1248
ura	-1249
▁abs	-1250
▁avail	-1251
▁rajap	-1252
ari	-1253
▁story	-1254
▁eff	-1255
▁video	-1256
▁ak	-1257
hind	-1258
▁hosp	-1259
ology	-1260
▁defin	-1261
▁imm	-1262
▁blo	-1263
▁engineering	-1264
row	-1265
▁brand	-1266
▁investment	-1267
▁hospital	-1268
▁exact	-1269
▁notice	-1270
▁rajapak	-1271
▁decide	-1272
sa	-1273
cle	-1274
man	-1275
▁pract	-1276
cus	-1277
▁information	-1278
▁budd	-1279
▁spe	-1280
▁suggest	-1281
▁protest	-1282
▁suggestion	-1283
itely	-1284
▁dist	-1285
angu	-1286
▁dam	-1287
▁career	-1288
min	-1289
▁const	-1290
nd	-1291
▁ur	-1292
▁city	-1293
▁community	-1294
▁beach	-1295
▁guess	-1296
▁lead	-1297
▁treat	-1298
▁hum	-1299
▁rent	-1300
▁ps	-1301
▁fine	-1302
iling	-1303
▁couple	-1304
▁safe	-1305
▁langu	-1306
▁return	-1307
▁skill	-1308
▁phys	-1309
ane	-1310
▁har	-1311
urity	-1312
▁transp	-1313
ross	-1314
▁rather	-1315
▁language	-1316
▁write	-1317
▁focus	-1318
ness	-1319
ability	-1320
▁chance	-1321
▁sometime	-1322
▁dem	-1323
▁slt	-1324
▁prefer	-1325
▁debt	-1326
work	-1327
▁usd	-1328
uge	-1329
▁neg	-1330
▁afford	-1331
▁receive	-1332
alog	-1333
▁mob	-1334
▁tem	-1335
ume	-1336
▁majority	-1337
olve	-1338
oint	-1339
▁honestly	-1340
ior	-1341
ana	-1342
▁join	-1343
ulation	-1344
▁mostly	-1345
na	-1346
▁definitely	-1347
ven	-1348
hand	-1349
erious	-1350
▁dra	-1351
▁bene	-1352
cu	-1353
▁50	-1354
▁uk	-1355
▁rs	-1356
▁history	-1357
▁available	-1358
▁water	-1359
oung	-1360
tears	-1361
oid	-1362
▁reddit	-1363
red	-1364
▁af	-1365
▁fix	-1366
az	-1367
bsite	-1368
▁cover	-1369
▁force	-1370
▁report	-1371
▁certain	-1372
▁dialog	-1373
▁nice	-1374
▁soon	-1375
iri	-1376
▁news	-1377
▁expensive	-1378
▁west	-1379
▁young	-1380
▁website	-1381
▁software	-1382
gin	-1383
liament	-1384
▁decision	-1385
▁serious	-1386
ird	-1387
▁parliament	-1388
▁type	-1389
ification	-1390
▁credit	-1391
▁tuk	-1392
▁limit	-1393
air	-1394
▁techn	-1395
▁age	-1396
gr	-1397
uth	-1398
▁tot	-1399
▁basically	-1400
wh	-1401
duate	-1402
com	-1403
ich	-1404
▁cit	-1405
▁normal	-1406
▁stock	-1407
▁da	-1408
▁profe	-1409
▁fall	-1410
sis	-1411
▁own	-1412
▁unless	-1413
erve	-1414
▁sel	-1415
▁middle	-1416
▁sector	-1417
▁interested	-1418
dd	-1419
▁equ	-1420
▁net	-1421
ledge	-1422
▁corruption	-1423
▁single	-1424
▁fail	-1425
▁relate	-1426
▁financial	-1427
▁200	-1428
ove	-1429
▁path	-1430
▁galle	-1431
▁contact	-1432
▁ella	-1433
▁sometimes	-1434
▁contin	-1435
▁decent	-1436
ident	-1437
▁migr	-1438
▁speed	-1439
▁luck	-1440
ina	-1441
alese	-1442
izen	-1443
▁rule	-1444
▁entire	-1445
artment	-1446
▁connection	-1447
oward	-1448
▁crisis	-1449
▁internet	-1450
uel	-1451
▁met	-1452
▁akd	-1453
▁they	-1454
aper	-1455
▁down	-1456
▁sound	-1457
▁aust	-1458
tern	-1459
▁citizen	-1460
▁srilanka	-1461
▁opp	-1462
▁improve	-1463
erg	-1464
ik	-1465
▁later	-1466
date	-1467
▁date	-1468
▁choice	-1469
▁compet	-1470
▁large	-1471
itch	-1472
▁word	-1473
iya	-1474
▁soci	-1475
▁camp	-1476
▁self	-1477
▁important	-1478
▁sinhalese	-1479
▁leader	-1480
▁ce	-1481
ama	-1482
olute	-1483
▁risk	-1484
▁accept	-1485
rugg	-1486
fully	-1487
▁position	-1488
▁bra	-1489
▁civ	-1490
▁benefit	-1491
▁common	-1492
book	-1493
▁absolute	-1494
▁tip	-1495
▁lack	-1496
▁avoid	-1497
▁transport	-1498
▁eat	-1499
▁team	-1500
▁office	-1501
por	-1502
▁edit	-1503
▁ll	-1504
▁legal	-1505
▁toward	-1506
▁teacher	-1507
sent	-1508
▁subject	-1509
▁happy	-1510
gan	-1511
▁mass	-1512
▁oft	-1513
ential	-1514
▁enjoy	-1515
▁special	-1516
mit	-1517
▁planning	-1518
▁dou	-1519
▁often	-1520
▁concern	-1521
▁desp	-1522
▁poor	-1523
▁fair	-1524
ark	-1525
ger	-1526
▁pm	-1527
▁math	-1528
▁austral	-1529
over	-1530
▁source	-1531
▁fuel	-1532
eep	-1533
▁govt	-1534
verage	-1535
▁profession	-1536
tte	-1537
▁basic	-1538
▁minister	-1539
▁wel	-1540
▁non	-1541
▁view	-1542
ator	-1543
▁line	-1544
▁control	-1545
▁purch	-1546
▁literally	-1547
▁personally	-1548
▁strong	-1549
▁ai	-1550
▁claim	-1551
orry	-1552
▁reach	-1553
era	-1554
▁wan	-1555
▁genu	-1556
▁reduce	-1557
▁huge	-1558
llar	-1559
▁rup	-1560
▁cal	-1561
▁vac	-1562
▁super	-1563
▁miss	-1564
▁deli	-1565
▁human	-1566
apt	-1567
▁late	-1568
▁genuine	-1569
▁bill	-1570
ogle	-1571
▁extre	-1572
▁hello	-1573
ump	-1574
▁fe	-1575
▁ter	-1576
▁link	-1577
▁update	-1578
ife	-1579
▁security	-1580
▁arm	-1581
▁select	-1582
▁est	-1583
▁step	-1584
▁instit	-1585
▁medical	-1586
▁suc	-1587
▁google	-1588
▁cash	-1589
▁drop	-1590
▁eth	-1591
▁medic	-1592
▁hit	-1593
vp	-1594
▁mult	-1595
▁bri	-1596
▁win	-1597
val	-1598
▁ann	-1599
▁auth	-1600
▁explo	-1601
alf	-1602
atever	-1603
ivid	-1604
▁civil	-1605
itle	-1606
▁china	-1607
fficult	-1608
▁nat	-1609
▁finance	-1610
vid	-1611
▁paper	-1612
▁difficult	-1613
▁maint	-1614
▁outside	-1615
uwa	-1616
▁whatever	-1617
▁customer	-1618
▁fla	-1619
▁sort	-1620
▁fac	-1621
▁strugg	-1622
cer	-1623
vert	-1624
▁waste	-1625
▁detail	-1626
ille	-1627
▁previous	-1628
▁struggle	-1629
▁expense	-1630
▁prot	-1631
▁la	-1632
iron	-1633
▁curi	-1634
▁exactly	-1635
▁cy	-1636
▁note	-1637
▁sense	-1638
▁individ	-1639
▁rupee	-1640
▁religion	-1641
ncy	-1642
ury	-1643
▁sad	-1644
▁buddh	-1645
▁sorry	-1646
▁respect	-1647
▁knowledge	-1648
▁nor	-1649
▁airport	-1650
ho	-1651
▁dig	-1652
cc	-1653
▁test	-1654
▁access	-1655
▁continue	-1656
▁relation	-1657
▁imf	-1658
▁organ	-1659
idate	-1660
▁item	-1661
▁loud	-1662
▁mal	-1663
▁major	-1664
ention	-1665
▁discu	-1666
▁exist	-1667
▁member	-1668
▁towards	-1669
▁appro	-1670
▁unp	-1671
20	-1672
ibility	-1673
▁site	-1674
ogether	-1675
▁explain	-1676
iod	-1677
▁hate	-1678
▁period	-1679
▁individual	-1680
▁sen	-1681
▁purchase	-1682
▁deliver	-1683
ror	-1684
▁design	-1685
erate	-1686
▁jvp	-1687
▁ltte	-1688
▁demand	-1689
▁dollar	-1690
▁mother	-1691
200	-1692
▁docu	-1693
▁action	-1694
▁document	-1695
reen	-1696
ye	-1697
▁moment	-1698
▁employee	-1699
▁interview	-1700
ott	-1701
▁fig	-1702
▁pea	-1703
▁walk	-1704
▁average	-1705
ially	-1706
▁minim	-1707
▁fast	-1708
oo	-1709
▁transfer	-1710
▁pet	-1711
▁getting	-1712
eal	-1713
▁ill	-1714
▁have	-1715
▁official	-1716
▁hop	-1717
▁rich	-1718
ination	-1719
ructure	-1720
▁beaut	-1721
▁graduate	-1722
▁completely	-1723
istic	-1724
▁clean	-1725
▁bla	-1726
▁exc	-1727
▁bal	-1728
▁simp	-1729
▁affect	-1730
▁specific	-1731
ift	-1732
▁lab	-1733
▁pot	-1734
ivity	-1735
▁sever	-1736
▁forget	-1737
▁spot	-1738
▁internship	-1739
io	-1740
▁correct	-1741
▁nation	-1742
▁figure	-1743
▁society	-1744
▁accord	-1745
▁standard	-1746
▁18	-1747
▁master	-1748
▁solution	-1749
ode	-1750
▁ol	-1751
▁north	-1752
ront	-1753
▁begin	-1754
▁mat	-1755
▁mis	-1756
▁glo	-1757
ission	-1758
▁island	-1759
co	-1760
▁court	-1761
▁0	-1762
▁protect	-1763
▁slow	-1764
▁alone	-1765
▁extra	-1766
lim	-1767
▁along	-1768
ace	-1769
▁bar	-1770
bal	-1771
▁11	-1772
▁obvious	-1773
▁crit	-1774
▁wish	-1775
ream	-1776
▁hire	-1777
ada	-1778
▁respons	-1779
▁partic	-1780
▁peace	-1781
▁australia	-1782
set	-1783
jith	-1784
▁light	-1785
▁store	-1786
▁kill	-1787
50	-1788
ret	-1789
atic	-1790
▁cand	-1791
▁forward	-1792
aya	-1793
▁extreme	-1794
pri	-1795
▁aware	-1796
▁model	-1797
ym	-1798
sure	-1799
▁unit	-1800
▁curious	-1801
▁mot	-1802
▁together	-1803
▁actual	-1804
▁development	-1805
▁ide	-1806
▁via	-1807
▁across	-1808
▁handle	-1809
▁difference	-1810
▁arri	-1811
▁involve	-1812
▁message	-1813
▁marri	-1814
▁attack	-1815
load	-1816
▁professional	-1817
▁sun	-1818
ating	-1819
ell	-1820
ager	-1821
▁trade	-1822
▁three	-1823
ann	-1824
gress	-1825
ration	-1826
▁management	-1827
▁simply	-1828
fortun	-1829
▁park	-1830
▁23	-1831
▁insur	-1832
▁ah	-1833
▁behind	-1834
▁stick	-1835
▁role	-1836
▁half	-1837
▁mental	-1838
aptop	-1839
▁rain	-1840
▁stream	-1841
▁div	-1842
▁pat	-1843
▁white	-1844
▁laptop	-1845
▁unfortun	-1846
▁just	-1847
▁okay	-1848
▁stat	-1849
▁kinda	-1850
ization	-1851
mb	-1852
▁saf	-1853
ulate	-1854
▁candidate	-1855
▁comfort	-1856
▁fit	-1857
▁mobile	-1858
iss	-1859
ully	-1860
light	-1861
▁plus	-1862
▁absolutely	-1863
▁lic	-1864
imate	-1865
▁cry	-1866
rib	-1867
vie	-1868
▁success	-1869
time	-1870
▁collect	-1871
▁init	-1872
ex	-1873
▁practice	-1874
oot	-1875
▁cop	-1876
▁relationship	-1877
▁currency	-1878
▁electric	-1879
▁thinking	-1880
ier	-1881
▁commun	-1882
▁colle	-1883
▁relative	-1884
▁blame	-1885
▁reli	-1886
▁stup	-1887
▁plat	-1888
▁cricket	-1889
▁viol	-1890
▁anyway	-1891
▁network	-1892
▁dude	-1893
▁room	-1894
▁effect	-1895
scri	-1896
▁hea	-1897
▁movie	-1898
zy	-1899
▁generation	-1900
by	-1901
▁jun	-1902
▁phot	-1903
▁except	-1904
ps	-1905
ili	-1906
▁stupid	-1907
ditional	-1908
▁sajith	-1909
▁medicine	-1910
▁signific	-1911
▁sea	-1912
▁env	-1913
▁jap	-1914
▁profit	-1915
▁foreigner	-1916
▁amaz	-1917
▁gain	-1918
▁stra	-1919
ming	-1920
▁likely	-1921
umb	-1922
▁daily	-1923
▁press	-1924
▁condition	-1925
▁boy	-1926
▁wife	-1927
▁east	-1928
▁milit	-1929
▁worry	-1930
epend	-1931
▁bear	-1932
▁yout	-1933
▁brother	-1934
▁finally	-1935
▁fight	-1936
▁multip	-1937
aur	-1938
ero	-1939
▁die	-1940
▁rid	-1941
▁sex	-1942
▁enter	-1943
▁eur	-1944
igin	-1945
▁fan	-1946
▁simple	-1947
0000	-1948
▁reply	-1949
ah	-1950
eric	-1951
▁ign	-1952
▁feed	-1953
▁owner	-1954
▁necess	-1955
▁music	-1956
body	-1957
▁dad	-1958
▁title	-1959
und	-1960
▁foot	-1961
▁ticket	-1962
▁capital	-1963
▁info	-1964
▁commit	-1965
par	-1966
▁gota	-1967
▁covid	-1968
▁directly	-1969
wise	-1970
▁hair	-1971
▁significant	-1972
▁comput	-1973
▁insight	-1974
▁tourism	-1975
back	-1976
▁ele	-1977
▁influ	-1978
▁remove	-1979
▁vot	-1980
aurant	-1981
▁beautif	-1982
▁monthly	-1983
▁ant	-1984
▁13	-1985
▁gb	-1986
▁oh	-1987
▁perf	-1988
▁easily	-1989
pal	-1990
ube	-1991
▁range	-1992
▁origin	-1993
▁partner	-1994
▁quick	-1995
▁no	-1996
▁16	-1997
▁recent	-1998
ironment	-1999
▁willing	-2000
▁platform	-2001
ively	-2002
▁environment	-2003
▁24	-2004
▁inflation	-2005
earch	-2006
▁europe	-2007
▁search	-2008
▁western	-2009
▁heav	-2010
▁worker	-2011
▁weather	-2012
▁independ	-2013
▁restaurant	-2014
eme	-2015
ifi	-2016
▁raise	-2017
more	-2018
lling	-2019
▁beautiful	-2020
yle	-2021
orce	-2022
▁insurance	-2023
▁unfortunately	-2024
▁uber	-2025
▁address	-2026
▁perform	-2027
the	-2028
emic	-2029
▁tre	-2030
▁rout	-2031
▁assume	-2032
▁muslim	-2033
ker	-2034
▁prem	-2035
▁location	-2036
br	-2037
▁register	-2038
▁ban	-2039
▁deep	-2040
▁despite	-2041
▁migrate	-2042
▁gold	-2043
▁total	-2044
▁dest	-2045
go	-2046
cry	-2047
▁ach	-2048
▁40	-2049
▁suppose	-2050
▁multiple	-2051
app	-2052
▁crime	-2053
▁wear	-2054
▁applic	-2055
▁switch	-2056
▁americ	-2057
▁explore	-2058
ption	-2059
▁living	-2060
▁maintain	-2061
▁sig	-2062
▁sport	-2063
▁balance	-2064
▁gl	-2065
▁review	-2066
att	-2067
▁push	-2068
▁suffer	-2069
▁complain	-2070
▁resource	-2071
loor	-2072
▁arg	-2073
▁military	-2074
iriya	-2075
▁army	-2076
▁loudly	-2077
▁freel	-2078
ateg	-2079
▁surpri	-2080
rest	-2081
▁mist	-2082
mber	-2083
▁father	-2084
▁license	-2085
▁decade	-2086
▁honest	-2087
▁promise	-2088
▁bt	-2089
▁till	-2090
▁among	-2091
▁realize	-2092
▁grin	-2093
▁youtube	-2094
▁passport	-2095
▁temple	-2096
▁anymore	-2097
▁helpful	-2098
▁morning	-2099
▁key	-2100
ional	-2101
▁block	-2102
▁minimum	-2103
▁2025	-2104
crying	-2105
▁jour	-2106
▁match	-2107
ief	-2108
rage	-2109
▁computer	-2110
▁grinning	-2111
▁progress	-2112
istry	-2113
iner	-2114
▁eye	-2115
▁canada	-2116
▁highly	-2117
▁14	-2118
▁ethn	-2119
▁altern	-2120
gal	-2121
hear	-2122
annel	-2123
▁imag	-2124
▁fru	-2125
▁letter	-2126
▁tv	-2127
rist	-2128
▁ess	-2129
▁hor	-2130
apore	-2131
▁star	-2132
ground	-2133
▁saving	-2134
racy	-2135
▁facebook	-2136
▁cuz	-2137
▁unl	-2138
▁singapore	-2139
iit	-2140
sha	-2141
▁demo	-2142
▁dm	-2143
▁ppl	-2144
▁acad	-2145
▁jaff	-2146
▁remain	-2147
▁traffic	-2148
ai	-2149
olk	-2150
▁cool	-2151
▁staff	-2152
▁digital	-2153
▁station	-2154
▁reliable	-2155
▁somewhere	-2156
▁space	-2157
▁smart	-2158
▁channel	-2159
▁aw	-2160
▁bike	-2161
▁record	-2162
▁several	-2163
quest	-2164
▁ident	-2165
▁physical	-2166
▁fem	-2167
change	-2168
▁jaffna	-2169
▁popular	-2170
▁occ	-2171
▁catch	-2172
▁refer	-2173
ych	-2174
ling	-2175
▁char	-2176
edi	-2177
▁idk	-2178
▁extremely	-2179
ogn	-2180
▁tb	-2181
▁email	-2182
▁officer	-2183
▁request	-2184
nch	-2185
like	-2186
outer	-2187
▁anura	-2188
▁senior	-2189
▁buddhist	-2190
30	-2191
action	-2192
▁track	-2193
▁properly	-2194
bit	-2195
▁front	-2196
▁truly	-2197
▁global	-2198
▁smiling	-2199
amb	-2200
▁remote	-2201
▁ille	-2202
▁appoint	-2203
▁crazy	-2204
▁property	-2205
yer	-2206
▁hol	-2207
▁democ	-2208
▁dream	-2209
▁central	-2210
▁reality	-2211
▁ip	-2212
▁btw	-2213
▁fav	-2214
▁god	-2215
▁beha	-2216
▁fire	-2217
plement	-2218
▁overse	-2219
idence	-2220
▁marry	-2221
▁obviously	-2222
▁del	-2223
▁lie	-2224
▁rand	-2225
▁seat	-2226
▁street	-2227
▁implement	-2228
▁sn	-2229
▁aut	-2230
inate	-2231
▁folk	-2232
▁meth	-2233
▁black	-2234
pto	-2235
sed	-2236
▁fake	-2237
▁tour	-2238
imited	-2239
▁mainly	-2240
▁achieve	-2241
▁amazing	-2242
ape	-2243
▁attend	-2244
▁unlimited	-2245
▁recogn	-2246
▁activity	-2247
ext	-2248
mer	-2249
unch	-2250
▁bare	-2251
▁prep	-2252
▁manager	-2253
▁straight	-2254
▁particular	-2255
ergy	-2256
▁export	-2257
▁minute	-2258
▁dog	-2259
▁user	-2260
▁content	-2261
▁stri	-2262
▁fully	-2263
▁router	-2264
▁otherwise	-2265
oe	-2266
▁commer	-2267
▁lawyer	-2268
▁nuw	-2269
▁ride	-2270
▁vacc	-2271
▁clearly	-2272
▁jud	-2273
▁fold	-2274
▁finish	-2275
▁ethnic	-2276
▁population	-2277
▁imagine	-2278
ec	-2279
▁listen	-2280
▁background	-2281
▁alternative	-2282
▁psych	-2283
▁replace	-2284
sb	-2285
▁cir	-2286
▁interesting	-2287
▁qualification	-2288
onse	-2289
vant	-2290
▁lect	-2291
▁final	-2292
▁grade	-2293
▁drink	-2294
▁random	-2295
▁aud	-2296
▁brain	-2297
▁arrive	-2298
heart	-2299
▁carry	-2300
▁educate	-2301
▁tend	-2302
▁certific	-2303
iot	-2304
▁ut	-2305
care	-2306
▁route	-2307
▁separ	-2308
▁topic	-2309
▁context	-2310
ction	-2311
▁goal	-2312
▁college	-2313
▁apparent	-2314
▁exchange	-2315
▁marriage	-2316
▁certificate	-2317
▁intro	-2318
▁stress	-2319
ince	-2320
ester	-2321
sitive	-2322
▁perfect	-2323
▁sigiriya	-2324
cket	-2325
▁effort	-2326
▁seriously	-2327
▁inn	-2328
▁inside	-2329
▁heart	-2330
▁technology	-2331
pose	-2332
▁gym	-2333
▁religious	-2334
▁department	-2335
▁_	-2336
irm	-2337
▁usa	-2338
▁log	-2339
▁brit	-2340
▁file	-2341
▁vs	-2342
▁the	-2343
orrow	-2344
▁regular	-2345
▁welcome	-2346
▁mine	-2347
skin	-2348
inese	-2349
▁king	-2350
▁vict	-2351
▁imo	-2352
▁clot	-2353
hap	-2354
▁dut	-2355
▁overseas	-2356
▁sj	-2357
▁doubt	-2358
▁billion	-2359
fc	-2360
10	-2361
▁sat	-2362
▁code	-2363
▁genuinely	-2364
cip	-2365
▁fly	-2366
▁club	-2367
▁cook	-2368
▁chinese	-2369
rd	-2370
▁lux	-2371
▁ver	-2372
▁body	-2373
▁fill	-2374
▁seek	-2375
▁immigr	-2376
▁mahind	-2377
▁nuwara	-2378
▁slight	-2379
▁sil	-2380
alent	-2381
▁damn	-2382
▁folded	-2383
▁growth	-2384
▁immedi	-2385
▁potential	-2386
band	-2387
▁dev	-2388
▁tar	-2389
▁page	-2390
▁17	-2391
▁sliit	-2392
▁communic	-2393
tone	-2394
▁present	-2395
▁dumb	-2396
▁host	-2397
osition	-2398
▁bur	-2399
▁emb	-2400
lk	-2401
▁eli	-2402
friend	-2403
▁startup	-2404
▁incident	-2405
▁80	-2406
anda	-2407
sing	-2408
allen	-2409
▁wise	-2410
ans	-2411
ney	-2412
ung	-2413
▁chat	-2414
smiling	-2415
▁method	-2416
▁ju	-2417
▁challen	-2418
▁apartment	-2419
▁enc	-2420
inerary	-2421
▁sle	-2422
▁confirm	-2423
▁itinerary	-2424
▁institution	-2425
ays	-2426
▁guide	-2427
▁fellow	-2428
▁contract	-2429
ighb	-2430
▁cli	-2431
▁illegal	-2432
▁electricity	-2433
▁arrest	-2434
▁modern	-2435
▁neighb	-2436
▁apparently	-2437
ked	-2438
▁chem	-2439
▁purs	-2440
▁corpor	-2441
▁wealth	-2442
erv	-2443
rast	-2444
▁sale	-2445
▁eventually	-2446
ze	-2447
▁500	-2448
▁sjb	-2449
▁mark	-2450
▁rajapaksa	-2451
▁anal	-2452
▁miri	-2453
▁safety	-2454
dding	-2455
▁alth	-2456
▁truth	-2457
▁batter	-2458
▁settle	-2459
▁contrib	-2460
▁wedding	-2461
▁60	-2462
osit	-2463
▁eliya	-2464
▁confuse	-2465
▁consult	-2466
▁mistake	-2467
stic	-2468
▁vol	-2469
▁hide	-2470
▁pict	-2471
▁photo	-2472
▁overall	-2473
▁anywhere	-2474
ics	-2475
ram	-2476
▁rap	-2477
irt	-2478
rict	-2479
▁surv	-2480
▁impact	-2481
▁picture	-2482
▁release	-2483
istration	-2484
ssa	-2485
cist	-2486
▁fort	-2487
version	-2488
▁although	-2489
phant	-2490
▁2022	-2491
▁ship	-2492
▁idiot	-2493
▁reform	-2494
▁article	-2495
▁sla	-2496
▁grand	-2497
▁compla	-2498
▁ignore	-2499
▁pickme	-2500
▁building	-2501
ery	-2502
ule	-2503
▁2024	-2504
▁none	-2505
▁legit	-2506
▁prove	-2507
▁everywhere	-2508
lt	-2509
▁don	-2510
▁recover	-2511
▁response	-2512
▁application	-2513
▁elephant	-2514
▁pressure	-2515
str	-2516
▁gam	-2517
▁crow	-2518
▁joke	-2519
▁death	-2520
▁solid	-2521
▁deposit	-2522
mm	-2523
ny	-2524
rug	-2525
reddit	-2526
▁pursue	-2527
ies	-2528
omb	-2529
rant	-2530
sweat	-2531
▁terror	-2532
▁battery	-2533
▁cultural	-2534
▁dead	-2535
resent	-2536
▁er	-2537
▁she	-2538
rible	-2539
▁coast	-2540
▁subreddit	-2541
▁board	-2542
how	-2543
ceed	-2544
▁ground	-2545
spective	-2546
unt	-2547
▁35	-2548
▁max	-2549
▁nob	-2550
▁inte	-2551
▁found	-2552
▁repair	-2553
▁mahinda	-2554
▁fr	-2555
▁tu	-2556
ding	-2557
olar	-2558
▁solve	-2559
▁complaint	-2560
▁comb	-2561
▁energy	-2562
▁requirement	-2563
erial	-2564
▁flight	-2565
▁90	-2566
▁cey	-2567
▁oil	-2568
enty	-2569
▁jan	-2570
▁300	-2571
▁rise	-2572
empt	-2573
▁tho	-2574
▁throw	-2575
▁discuss	-2576
▁opposition	-2577
▁mr	-2578
▁double	-2579
▁threat	-2580
▁comfortable	-2581
cent	-2582
vent	-2583
▁crowd	-2584
ball	-2585
▁hopefully	-2586
▁pa	-2587
▁pan	-2588
▁motor	-2589
cel	-2590
force	-2591
▁sleep	-2592
▁purpose	-2593
▁challenge	-2594
▁represent	-2595
▁eg	-2596
▁hur	-2597
▁sam	-2598
▁union	-2599
▁totally	-2600
▁original	-2601
▁generally	-2602
▁mix	-2603
▁asia	-2604
▁disapp	-2605
bu	-2606
▁fear	-2607
▁massive	-2608
▁freed	-2609
▁serve	-2610
▁academic	-2611
▁necessary	-2612
▁21	-2613
rael	-2614
▁rev	-2615
▁coll	-2616
▁stable	-2617
▁target	-2618
▁mindset	-2619
cs	-2620
to	-2621
▁cs	-2622
sec	-2623
anger	-2624
▁passion	-2625
▁bat	-2626
▁mate	-2627
▁luxury	-2628
oth	-2629
▁fle	-2630
▁suit	-2631
▁mirissa	-2632
▁loss	-2633
imal	-2634
▁gar	-2635
otion	-2636
▁town	-2637
acy	-2638
amal	-2639
ogra	-2640
▁nature	-2641
▁nobody	-2642
▁freedom	-2643
▁scholar	-2644
▁mb	-2645
fore	-2646
▁vill	-2647
▁wind	-2648
▁steal	-2649
▁british	-2650
hold	-2651
▁reserve	-2652
▁delivery	-2653
med	-2654
▁wild	-2655
▁lankas	-2656
▁download	-2657
▁specially	-2658
▁ir	-2659
▁bir	-2660
antly	-2661
▁female	-2662
▁israel	-2663
▁refuse	-2664
▁express	-2665
pping	-2666
▁bunch	-2667
▁reven	-2668
▁authority	-2669
▁45	-2670
▁ep	-2671
▁exec	-2672
▁client	-2673
▁hr	-2674
ibly	-2675
least	-2676
fficient	-2677
▁promote	-2678
▁commission	-2679
▁specifically	-2680
▁now	-2681
▁pain	-2682
▁tele	-2683
ablish	-2684
▁atleast	-2685
▁approach	-2686
▁marketing	-2687
we	-2688
▁third	-2689
▁healthcare	-2690
nam	-2691
▁22	-2692
▁tbh	-2693
▁web	-2694
▁ceyl	-2695
▁expert	-2696
itor	-2697
▁aug	-2698
▁band	-2699
▁regardless	-2700
av	-2701
▁bet	-2702
▁nic	-2703
▁pun	-2704
▁wage	-2705
▁cance	-2706
▁ready	-2707
dden	-2708
room	-2709
▁2019	-2710
▁pull	-2711
▁plant	-2712
itution	-2713
ruction	-2714
▁supply	-2715
▁patient	-2716
gger	-2717
what	-2718
▁fil	-2719
ourage	-2720
▁green	-2721
▁positive	-2722
▁influence	-2723
▁bey	-2724
▁hyp	-2725
▁factor	-2726
▁mp	-2727
▁rw	-2728
▁hat	-2729
▁discussion	-2730
ady	-2731
per	-2732
ronic	-2733
▁dipl	-2734
▁drug	-2735
▁text	-2736
▁trou	-2737
▁oct	-2738
▁flag	-2739
▁skin	-2740
▁asset	-2741
▁birth	-2742
▁cyber	-2743
▁going	-2744
▁diplom	-2745
▁cele	-2746
▁hang	-2747
▁advise	-2748
▁critic	-2749
▁justice	-2750
▁prepare	-2751
▁copy	-2752
▁facility	-2753
ender	-2754
ience	-2755
▁arch	-2756
▁zero	-2757
▁behav	-2758
▁prior	-2759
▁racist	-2760
▁friendly	-2761
fact	-2762
arily	-2763
▁print	-2764
▁slightly	-2765
▁dece	-2766
▁vibe	-2767
▁beyond	-2768
▁deserve	-2769
▁traditional	-2770
floor	-2771
▁coun	-2772
▁scen	-2773
▁voter	-2774
▁convers	-2775
▁rolling	-2776
▁conv	-2777
▁oper	-2778
▁consum	-2779
▁establish	-2780
▁srilankan	-2781
cast	-2782
▁cab	-2783
▁statement	-2784
▁lak	-2785
▁asso	-2786
▁hike	-2787
▁july	-2788
▁trouble	-2789
mp	-2790
▁pc	-2791
laug	-2792
atory	-2793
▁chill	-2794
pr	-2795
mon	-2796
▁touch	-2797
▁minority	-2798
▁scholarship	-2799
▁by	-2800
▁fra	-2801
▁barely	-2802
▁foundation	-2803
▁asian	-2804
▁campus	-2805
ask	-2806
lan	-2807
▁rag	-2808
▁spread	-2809
▁q	-2810
▁din	-2811
▁mem	-2812
▁ruin	-2813
▁warrant	-2814
dra	-2815
pper	-2816
▁cam	-2817
place	-2818
▁heavy	-2819
▁weird	-2820
▁unlike	-2821
▁tuition	-2822
▁negative	-2823
▁responsibility	-2824
▁mech	-2825
▁sudden	-2826
iate	-2827
▁bot	-2828
▁den	-2829
ension	-2830
▁yester	-2831
▁infrast	-2832
▁version	-2833
▁investig	-2834
▁perspective	-2835
▁got	-2836
▁lay	-2837
▁burn	-2838
▁adult	-2839
▁namal	-2840
▁valid	-2841
▁plenty	-2842
ike	-2843
iece	-2844
▁pla	-2845
wards	-2846
▁admin	-2847
▁campa	-2848
ix	-2849
▁thr	-2850
▁employer	-2851
▁1000	-2852
▁survive	-2853
▁yesterday	-2854
▁affordable	-2855
▁conversation	-2856
▁infrastructure	-2857
15	-2858
▁status	-2859
▁revenue	-2860
▁campaign	-2861
▁fd	-2862
ulty	-2863
▁mag	-2864
▁ult	-2865
▁km	-2866
▁bab	-2867
asing	-2868
▁bull	-2869
▁cancel	-2870
arma	-2871
▁mach	-2872
▁emerg	-2873
term	-2874
▁pra	-2875
▁rank	-2876
▁tough	-2877
▁center	-2878
ew	-2879
ka	-2880
▁rac	-2881
right	-2882
▁race	-2883
▁suck	-2884
▁ahead	-2885
▁reasonable	-2886
oon	-2887
hood	-2888
▁meal	-2889
▁rela	-2890
▁abuse	-2891
▁institute	-2892
itude	-2893
▁pure	-2894
▁agent	-2895
▁autom	-2896
xic	-2897
just	-2898
▁score	-2899
▁trend	-2900
▁attention	-2901
iy	-2902
ov	-2903
etic	-2904
▁son	-2905
▁var	-2906
▁rice	-2907
▁somehow	-2908
▁lin	-2909
▁rare	-2910
antage	-2911
▁reput	-2912
▁shift	-2913
▁strike	-2914
rid	-2915
▁secure	-2916
▁undergra	-2917
arant	-2918
▁remind	-2919
▁secret	-2920
▁violence	-2921
▁emergency	-2922
eyes	-2923
▁colon	-2924
▁reject	-2925
▁season	-2926
▁attempt	-2927
▁milk	-2928
▁anybody	-2929
eel	-2930
▁gas	-2931
▁mer	-2932
levant	-2933
▁judge	-2934
▁prime	-2935
▁thread	-2936
▁strateg	-2937
▁ik	-2938
▁relax	-2939
ciation	-2940
▁advantage	-2941
dic	-2942
urer	-2943
▁iit	-2944
▁ceylon	-2945
▁screen	-2946
▁faculty	-2947
▁percent	-2948
▁physics	-2949
▁immediately	-2950
▁performance	-2951
▁70	-2952
itel	-2953
▁airline	-2954
▁rock	-2955
▁crypto	-2956
▁useless	-2957
▁weekend	-2958
▁separate	-2959
▁corporate	-2960
▁commercial	-2961
anch	-2962
▁150	-2963
▁broad	-2964
▁broker	-2965
▁practical	-2966
lus	-2967
▁mur	-2968
grade	-2969
press	-2970
▁2000	-2971
▁entry	-2972
▁negombo	-2973
▁stage	-2974
▁various	-2975
▁warranty	-2976
rif	-2977
tuk	-2978
▁hy	-2979
iday	-2980
▁gre	-2981
▁guid	-2982
▁japan	-2983
▁usual	-2984
cipline	-2985
▁feedback	-2986
oda	-2987
life	-2988
oice	-2989
▁nar	-2990
cially	-2991
▁apart	-2992
▁delay	-2993
▁tom	-2994
▁baby	-2995
▁feat	-2996
▁christ	-2997
▁addition	-2998
do	-2999
sapp	-3000
ograph	-3001
▁trading	-3002
▁introduce	-3003
▁fb	-3004
▁ig	-3005
shit	-3006
▁sept	-3007
▁transaction	-3008
let	-3009
▁cross	-3010
60	-3011
una	-3012
style	-3013
▁piece	-3014
▁august	-3015
▁device	-3016
▁player	-3017
▁greatly	-3018
▁holiday	-3019
▁treatment	-3020
▁employment	-3021
ried	-3022
ature	-3023
rimin	-3024
▁talent	-3025
▁district	-3026
▁material	-3027
▁discipline	-3028
ster	-3029
▁bag	-3030
▁toy	-3031
itive	-3032
▁bond	-3033
▁manu	-3034
▁image	-3035
▁racism	-3036
▁region	-3037
▁responsible	-3038
draw	-3039
▁duty	-3040
▁lease	-3041
▁damage	-3042
▁former	-3043
▁prevent	-3044
▁training	-3045
▁constitution	-3046
year	-3047
▁2023	-3048
▁glad	-3049
▁proof	-3050
▁calc	-3051
▁prof	-3052
▁wifi	-3053
ression	-3054
▁contribute	-3055
rop	-3056
▁germ	-3057
▁male	-3058
▁fresh	-3059
▁tuktuk	-3060
lict	-3061
▁bay	-3062
achel	-3063
board	-3064
▁hence	-3065
▁democracy	-3066
▁presidential	-3067
ril	-3068
▁hus	-3069
atuwa	-3070
istan	-3071
▁firm	-3072
▁peak	-3073
▁unre	-3074
▁banking	-3075
▁working	-3076
▁withdraw	-3077
achelor	-3078
▁creat	-3079
▁retire	-3080
▁feature	-3081
▁mobitel	-3082
▁manufact	-3083
ounce	-3084
▁hurt	-3085
▁slpp	-3086
▁permit	-3087
▁december	-3088
▁investor	-3089
▁electronic	-3090
pet	-3091
▁produce	-3092
▁ක	-3093
stain	-3094
▁useful	-3095
▁convert	-3096
▁limited	-3097
▁evidence	-3098
anth	-3099
▁cat	-3100
▁toxic	-3101
isation	-3102
▁attract	-3103
scription	-3104
▁bachelor	-3105
▁my	-3106
▁opt	-3107
▁rat	-3108
▁american	-3109
▁moratuwa	-3110
▁competition	-3111
▁cine	-3112
▁fiber	-3113
hone	-3114
▁lma	-3115
▁song	-3116
▁unique	-3117
eas	-3118
▁ic	-3119
ival	-3120
mission	-3121
▁resign	-3122
▁husband	-3123
▁whatsapp	-3124
inger	-3125
▁mechan	-3126
▁should	-3127
▁independent	-3128
down	-3129
▁cas	-3130
▁shy	-3131
▁bang	-3132
▁insane	-3133
▁cse	-3134
▁consist	-3135
pa	-3136
roll	-3137
▁liber	-3138
▁cro	-3139
▁shi	-3140
▁murder	-3141
▁accident	-3142
har	-3143
▁map	-3144
▁left	-3145
▁prim	-3146
▁when	-3147
▁scene	-3148
▁frustr	-3149
gth	-3150
rier	-3151
▁prin	-3152
▁rant	-3153
▁analy	-3154
▁indians	-3155
▁spending	-3156
oss	-3157
▁bs	-3158
utive	-3159
▁wide	-3160
▁agency	-3161
▁engage	-3162
sel	-3163
▁hut	-3164
scribe	-3165
▁shoot	-3166
key	-3167
yal	-3168
ized	-3169
▁aim	-3170
▁her	-3171
▁shame	-3172
▁table	-3173
▁youth	-3174
▁punish	-3175
▁journey	-3176
uc	-3177
loc	-3178
ivate	-3179
▁pres	-3180
▁yala	-3181
medium	-3182
▁approve	-3183
▁sustain	-3184
ood	-3185
▁bru	-3186
laughe	-3187
▁rural	-3188
▁taste	-3189
▁regret	-3190
▁september	-3191
▁ton	-3192
▁argu	-3193
▁repeat	-3194
king	-3195
mbps	-3196
uary	-3197
▁mad	-3198
▁size	-3199
▁trin	-3200
▁ensure	-3201
▁histor	-3202
entially	-3203
ini	-3204
urb	-3205
▁34	-3206
ider	-3207
▁and	-3208
verse	-3209
▁jump	-3210
▁apple	-3211
▁fault	-3212
▁scale	-3213
▁compar	-3214
▁tomorrow	-3215
▁whenever	-3216
▁discrimin	-3217
▁essential	-3218
▁financially	-3219
lass	-3220
▁clar	-3221
▁mand	-3222
▁favor	-3223
but	-3224
nal	-3225
put	-3226
▁june	-3227
▁lmao	-3228
▁april	-3229
▁crimin	-3230
▁transl	-3231
▁ministry	-3232
▁tia	-3233
▁estate	-3234
▁section	-3235
▁conflict	-3236
▁communication	-3237
nb	-3238
den	-3239
pay	-3240
▁cv	-3241
▁wt	-3242
▁tin	-3243
▁alle	-3244
▁submit	-3245
▁executive	-3246
▁immigration	-3247
▁ge	-3248
▁surf	-3249
▁feeling	-3250
▁operate	-3251
hole	-3252
▁cru	-3253
▁russ	-3254
▁animal	-3255
ober	-3256
▁solo	-3257
▁style	-3258
▁criminal	-3259
ull	-3260
▁26	-3261
▁alot	-3262
▁ball	-3263
▁rough	-3264
ossible	-3265
▁counter	-3266
▁developer	-3267
oke	-3268
▁bed	-3269
▁fal	-3270
▁pen	-3271
▁uncle	-3272
▁celebr	-3273
new	-3274
▁27	-3275
ality	-3276
▁bomb	-3277
▁cafe	-3278
▁annoy	-3279
▁discount	-3280
▁somewhat	-3281
▁impossible	-3282
▁kn	-3283
▁ict	-3284
ously	-3285
▁load	-3286
sidency	-3287
▁concept	-3288
▁freelan	-3289
▁machine	-3290
dp	-3291
imb	-3292
▁byd	-3293
▁esc	-3294
▁fri	-3295
conut	-3296
▁gift	-3297
▁twice	-3298
▁advert	-3299
▁scheme	-3300
▁guarant	-3301
▁encourage	-3302
▁additional	-3303
▁od	-3304
point	-3305
▁diss	-3306
▁appear	-3307
▁shitty	-3308
19	-3309
ta	-3310
▁lady	-3311
▁tool	-3312
▁cycle	-3313
▁iphone	-3314
▁coconut	-3315
▁vaccine	-3316
hol	-3317
hands	-3318
▁rely	-3319
▁bother	-3320
▁sister	-3321
▁strict	-3322
▁priority	-3323
▁relevant	-3324
urch	-3325
▁mea	-3326
▁obt	-3327
edule	-3328
▁meeting	-3329
▁buddhism	-3330
▁structure	-3331
▁therefore	-3332
▁gun	-3333
▁door	-3334
▁monk	-3335
▁obtain	-3336
▁lecture	-3337
▁successful	-3338
▁hon	-3339
urate	-3340
▁beat	-3341
▁shoe	-3342
▁trump	-3343
▁active	-3344
▁journal	-3345
▁freelance	-3346
roy	-3347
▁pak	-3348
anese	-3349
▁assist	-3350
▁monitor	-3351
▁associate	-3352
▁pal	-3353
▁squ	-3354
▁ideal	-3355
▁victim	-3356
▁rajapaksha	-3357
sequ	-3358
▁deb	-3359
uable	-3360
▁sent	-3361
▁dress	-3362
▁install	-3363
▁consumer	-3364
▁neighbor	-3365
▁lifestyle	-3366
▁sem	-3367
ariff	-3368
▁nove	-3369
▁voice	-3370
▁conven	-3371
▁natural	-3372
▁worried	-3373
▁shortage	-3374
ocent	-3375
▁sick	-3376
▁march	-3377
▁aspect	-3378
▁church	-3379
▁divide	-3380
▁refund	-3381
▁tariff	-3382
▁healthy	-3383
▁dub	-3384
▁hind	-3385
▁branch	-3386
▁guarantee	-3387
za	-3388
▁28	-3389
▁bc	-3390
ibre	-3391
▁false	-3392
▁bullshit	-3393
▁disappoint	-3394
▁organization	-3395
▁2015	-3396
▁fish	-3397
▁here	-3398
▁buying	-3399
▁danger	-3400
▁nearly	-3401
ague	-3402
▁arr	-3403
▁phd	-3404
▁coff	-3405
▁november	-3406
▁peaceful	-3407
▁lg	-3408
▁destroy	-3409
▁realise	-3410
▁agreement	-3411
▁appointment	-3412
▁coz	-3413
arden	-3414
rative	-3415
▁ability	-3416
▁quickly	-3417
▁distance	-3418
▁construction	-3419
awa	-3420
iet	-3421
iex	-3422
acity	-3423
▁ridic	-3424
▁clothe	-3425
▁supporter	-3426
off	-3427
lete	-3428
▁flu	-3429
agram	-3430
▁root	-3431
▁aliex	-3432
▁batch	-3433
riction	-3434
▁lesson	-3435
▁complex	-3436
▁october	-3437
ison	-3438
ught	-3439
▁nur	-3440
▁guidance	-3441
▁japanese	-3442
rs	-3443
llab	-3444
ssed	-3445
▁argue	-3446
▁blood	-3447
▁queue	-3448
▁toyota	-3449
▁measure	-3450
▁everyday	-3451
▁preferably	-3452
▁regulation	-3453
▁independence	-3454
fs	-3455
hi	-3456
play	-3457
▁dark	-3458
▁four	-3459
▁funny	-3460
▁camera	-3461
▁dinner	-3462
▁bankrupt	-3463
▁confused	-3464
▁citizenship	-3465
oph	-3466
haps	-3467
ertain	-3468
▁lately	-3469
▁princi	-3470
▁window	-3471
▁upgrade	-3472
▁attitude	-3473
▁innocent	-3474
▁valuable	-3475
▁transportation	-3476
ost	-3477
▁busy	-3478
enance	-3479
▁negot	-3480
▁syllab	-3481
▁diploma	-3482
▁evening	-3483
▁perhaps	-3484
▁girlfriend	-3485
▁pharma	-3486
▁slowly	-3487
▁enforce	-3488
▁schedule	-3489
▁intention	-3490
col	-3491
itt	-3492
pack	-3493
▁ple	-3494
▁circ	-3495
▁upon	-3496
odation	-3497
▁sexual	-3498
▁anyways	-3499
▁province	-3500
▁strategy	-3501
▁competitive	-3502
▁flo	-3503
▁mac	-3504
▁pls	-3505
▁tire	-3506
▁proud	-3507
▁sadly	-3508
olution	-3509
▁petrol	-3510
▁fucking	-3511
▁heavily	-3512
▁ideally	-3513
▁pakistan	-3514
▁shipping	-3515
▁registration	-3516
rep	-3517
raid	-3518
▁ang	-3519
▁dom	-3520
▁hom	-3521
▁ine	-3522
▁meme	-3523
▁task	-3524
▁blind	-3525
▁fibre	-3526
▁bottle	-3527
▁january	-3528
▁instagram	-3529
▁recognize	-3530
cil	-3531
▁equip	-3532
▁rental	-3533
▁climate	-3534
▁identify	-3535
▁provider	-3536
▁terrible	-3537
▁chemistry	-3538
▁aliexpress	-3539
asa	-3540
ced	-3541
▁dh	-3542
▁2020	-3543
▁flex	-3544
▁centre	-3545
▁reflect	-3546
▁session	-3547
80	-3548
dom	-3549
▁kick	-3550
▁manip	-3551
▁longterm	-3552
▁restriction	-3553
emote	-3554
▁disg	-3555
▁admit	-3556
▁upper	-3557
▁terrorist	-3558
25	-3559
▁gdp	-3560
while	-3561
▁cous	-3562
▁skip	-3563
coming	-3564
▁lucky	-3565
▁gender	-3566
▁village	-3567
uri	-3568
▁box	-3569
kedin	-3570
▁accomm	-3571
▁afraid	-3572
vernight	-3573
▁identity	-3574
anay	-3575
ario	-3576
eech	-3577
sess	-3578
ugam	-3579
▁bsc	-3580
▁vari	-3581
▁categ	-3582
▁cousin	-3583
▁intell	-3584
▁overnight	-3585
11	-3586
rel	-3587
bage	-3588
▁gate	-3589
▁poll	-3590
▁generate	-3591
▁direction	-3592
▁maintenance	-3593
▁eu	-3594
dict	-3595
utor	-3596
▁400	-3597
▁dict	-3598
▁lond	-3599
enture	-3600
▁legally	-3601
▁intellig	-3602
▁syllabus	-3603
▁destination	-3604
unte	-3605
▁ther	-3606
▁weight	-3607
▁highway	-3608
▁suddenly	-3609
ban	-3610
▁ie	-3611
▁rad	-3612
▁san	-3613
▁tie	-3614
▁trap	-3615
▁weak	-3616
▁author	-3617
▁easter	-3618
▁labour	-3619
▁voting	-3620
▁locally	-3621
▁argument	-3622
▁constantly	-3623
▁data	-3624
▁taxi	-3625
▁malays	-3626
▁series	-3627
▁ridicul	-3628
▁behavior	-3629
▁particularly	-3630
fl	-3631
▁199	-3632
▁gem	-3633
▁mic	-3634
▁nav	-3635
▁lakh	-3636
▁laug	-3637
▁london	-3638
▁entirely	-3639
cing	-3640
▁but	-3641
▁wtf	-3642
illed	-3643
▁haha	-3644
▁nearby	-3645
▁arrange	-3646
▁meaning	-3647
▁football	-3648
▁linkedin	-3649
▁surprise	-3650
da	-3651
eet	-3652
▁ug	-3653
ratic	-3654
▁advis	-3655
imately	-3656
▁annual	-3657
▁fairly	-3658
▁garbage	-3659
▁bor	-3660
▁era	-3661
▁vat	-3662
▁bott	-3663
▁depre	-3664
▁perman	-3665
agal	-3666
▁bail	-3667
▁samp	-3668
unteer	-3669
▁setup	-3670
▁excuse	-3671
▁volunteer	-3672
va	-3673
uck	-3674
▁sunday	-3675
▁council	-3676
▁resident	-3677
▁migration	-3678
gue	-3679
ton	-3680
▁gap	-3681
▁obs	-3682
ified	-3683
iting	-3684
▁draw	-3685
▁justify	-3686
▁respond	-3687
▁scenario	-3688
▁rajapakse	-3689
▁stability	-3690
une	-3691
▁ten	-3692
▁blue	-3693
▁lock	-3694
ousand	-3695
ternal	-3696
▁elite	-3697
▁usage	-3698
▁tempor	-3699
▁conduct	-3700
▁operation	-3701
▁relatively	-3702
▁expectation	-3703
vey	-3704
▁sum	-3705
asion	-3706
▁adop	-3707
▁sold	-3708
▁coffee	-3709
▁unable	-3710
▁emotion	-3711
▁sampath	-3712
▁particip	-3713
▁thousand	-3714
free	-3715
rate	-3716
▁2021	-3717
▁assign	-3718
▁launch	-3719
▁signal	-3720
fia	-3721
link	-3722
entic	-3723
▁basis	-3724
▁soldier	-3725
▁lecturer	-3726
▁celebrate	-3727
▁surprised	-3728
▁technical	-3729
40	-3730
ler	-3731
apse	-3732
ruit	-3733
▁harm	-3734
▁gradu	-3735
▁gather	-3736
mas	-3737
ngth	-3738
vote	-3739
▁250	-3740
▁jew	-3741
▁clue	-3742
▁laugh	-3743
▁arrival	-3744
▁european	-3745
▁pod	-3746
iliar	-3747
lanka	-3748
▁grant	-3749
▁premium	-3750
▁ethnicity	-3751
▁presidency	-3752
▁ම	-3753
mark	-3754
▁bio	-3755
▁bon	-3756
▁fest	-3757
▁shar	-3758
▁hutch	-3759
▁mount	-3760
▁scare	-3761
▁bottom	-3762
▁strength	-3763
urd	-3764
▁tim	-3765
▁van	-3766
▁agric	-3767
▁mafia	-3768
▁renew	-3769
▁consequ	-3770
▁approval	-3771
sy	-3772
unk	-3773
▁amb	-3774
▁cod	-3775
eable	-3776
orate	-3777
ughter	-3778
▁aside	-3779
▁extend	-3780
▁civilian	-3781
▁investigation	-3782
awe	-3783
lam	-3784
orn	-3785
▁cup	-3786
▁pin	-3787
▁rob	-3788
iment	-3789
▁drain	-3790
▁quiet	-3791
duction	-3792
▁aragal	-3793
▁theory	-3794
▁agricult	-3795
▁equipment	-3796
ancy	-3797
▁jay	-3798
▁tik	-3799
ffici	-3800
▁lgbt	-3801
▁wake	-3802
▁scamme	-3803
▁seller	-3804
▁display	-3805
▁movement	-3806
▁production	-3807
uma	-3808
igama	-3809
▁susp	-3810
▁round	-3811
▁stuck	-3812
▁harass	-3813
▁incred	-3814
▁paypal	-3815
▁propag	-3816
▁mentality	-3817
fol	-3818
ged	-3819
ateful	-3820
▁skilled	-3821
▁familiar	-3822
ata	-3823
alee	-3824
▁ceb	-3825
▁sac	-3826
▁anti	-3827
▁hass	-3828
▁floor	-3829
▁trincom	-3830
▁external	-3831
▁percentage	-3832
gery	-3833
▁labor	-3834
▁gaming	-3835
▁vacation	-3836
▁initially	-3837
▁ay	-3838
arian	-3839
▁defa	-3840
▁chick	-3841
▁indic	-3842
ologist	-3843
▁bugger	-3844
▁portfol	-3845
▁authentic	-3846
▁effective	-3847
▁significantly	-3848
pe	-3849
ani	-3850
eth	-3851
izer	-3852
sung	-3853
▁feb	-3854
▁fool	-3855
▁nons	-3856
▁suic	-3857
▁tree	-3858
▁click	-3859
▁frequ	-3860
▁maxim	-3861
▁safari	-3862
▁united	-3863
▁tradition	-3864
▁freelancer	-3865
ae	-3866
enger	-3867
▁cabin	-3868
▁dambu	-3869
▁solar	-3870
▁exploit	-3871
log	-3872
ping	-3873
inary	-3874
▁shut	-3875
▁dubai	-3876
▁oppose	-3877
▁collapse	-3878
▁portfolio	-3879
▁leadership	-3880
▁consequence	-3881
▁75	-3882
▁nut	-3883
▁hund	-3884
▁drama	-3885
▁incom	-3886
▁trash	-3887
▁famous	-3888
▁hassle	-3889
▁factory	-3890
▁through	-3891
▁critical	-3892
▁teaching	-3893
▁entertain	-3894
emy	-3895
▁dry	-3896
arket	-3897
ising	-3898
▁recon	-3899
▁burden	-3900
▁resort	-3901
▁default	-3902
▁hundred	-3903
▁initial	-3904
▁starlink	-3905
▁aragalaya	-3906
▁consultant	-3907
▁trincomalee	-3908
▁29	-3909
▁teen	-3910
▁nowad	-3911
▁tired	-3912
▁tutor	-3913
▁cinema	-3914
▁delete	-3915
▁category	-3916
▁undergraduate	-3917
▁ital	-3918
▁expose	-3919
atically	-3920
▁recruit	-3921
▁redditor	-3922
ller	-3923
▁ath	-3924
▁hnb	-3925
▁tur	-3926
▁dome	-3927
▁hous	-3928
▁lane	-3929
▁quit	-3930
▁swim	-3931
▁ikman	-3932
▁shock	-3933
▁announce	-3934
▁nowadays	-3935
▁possibly	-3936
iry	-3937
▁ice	-3938
▁men	-3939
itect	-3940
▁color	-3941
▁graph	-3942
▁curric	-3943
▁speech	-3944
▁married	-3945
▁throughout	-3946
70	-3947
mil	-3948
tok	-3949
araz	-3950
fair	-3951
▁wit	-3952
▁bruh	-3953
▁film	-3954
▁kore	-3955
▁bribe	-3956
▁suspect	-3957
▁typical	-3958
▁dambulla	-3959
12	-3960
emp	-3961
▁ofc	-3962
arter	-3963
encer	-3964
esome	-3965
▁gang	-3966
▁arugam	-3967
▁belief	-3968
▁housing	-3969
▁reputation	-3970
▁administration	-3971
agn	-3972
gpt	-3973
rew	-3974
lade	-3975
under	-3976
verty	-3977
▁guil	-3978
▁daraz	-3979
▁skull	-3980
▁trick	-3981
▁poverty	-3982
▁capacity	-3983
▁function	-3984
▁preference	-3985
fall	-3986
▁der	-3987
agama	-3988
▁oppos	-3989
▁attach	-3990
ological	-3991
▁grateful	-3992
rit	-3993
▁ot	-3994
lare	-3995
▁egg	-3996
▁eld	-3997
▁wow	-3998
▁kott	-3999
▁reve	-4000
▁sole	-4001
▁forex	-4002
▁satis	-4003
▁belong	-4004
▁beside	-4005
▁severe	-4006
▁disgust	-4007
▁failure	-4008
▁threaten	-4009
▁awareness	-4010
▁socialist	-4011
▁protection	-4012
aka	-4013
nar	-4014
▁99	-4015
eral	-4016
▁crap	-4017
▁hill	-4018
▁jail	-4019
▁pool	-4020
▁wher	-4021
cedure	-4022
necess	-4023
▁awesome	-4024
▁privile	-4025
▁procedure	-4026
▁cin	-4027
▁deny	-4028
▁mall	-4029
▁rush	-4030
▁siri	-4031
employ	-4032
▁bonus	-4033
▁approx	-4034
▁defend	-4035
security	-4036
▁conserv	-4037
▁division	-4038
▁opposite	-4039
▁suitable	-4040
▁unnecess	-4041
▁wildlife	-4042
▁advertise	-4043
▁architect	-4044
▁highlight	-4045
▁household	-4046
▁ec	-4047
fare	-4048
inge	-4049
▁2018	-4050
▁disp	-4051
▁smile	-4052
▁anurad	-4053
▁chatgpt	-4054
▁neighbour	-4055
hd	-4056
▁ben	-4057
arana	-4058
ingly	-4059
▁capt	-4060
▁dire	-4061
▁iron	-4062
▁irre	-4063
ladesh	-4064
▁alloc	-4065
▁adjust	-4066
▁america	-4067
▁careful	-4068
▁compens	-4069
▁neither	-4070
▁clothing	-4071
▁accommodation	-4072
ray	-4073
▁anx	-4074
cohol	-4075
namon	-4076
▁after	-4077
▁quote	-4078
▁tiktok	-4079
▁divorce	-4080
▁convince	-4081
▁malaysia	-4082
▁powerful	-4083
su	-4084
phone	-4085
▁clin	-4086
▁wall	-4087
stance	-4088
▁ignor	-4089
▁index	-4090
▁extent	-4091
▁memory	-4092
▁anytime	-4093
▁upcoming	-4094
▁influencer	-4095
lig	-4096
ony	-4097
▁ba	-4098
awat	-4099
ians	-4100
rene	-4101
adasa	-4102
eline	-4103
iture	-4104
▁shot	-4105
▁afric	-4106
▁clown	-4107
▁logic	-4108
▁booking	-4109
▁cinnamon	-4110
ef	-4111
assy	-4112
cise	-4113
round	-4114
▁rail	-4115
▁initi	-4116
▁circle	-4117
▁daughter	-4118
▁horrible	-4119
▁learning	-4120
▁propaganda	-4121
wa	-4122
ima	-4123
▁ud	-4124
base	-4125
gage	-4126
▁unc	-4127
▁dish	-4128
▁adopt	-4129
▁chase	-4130
▁innov	-4131
▁charact	-4132
▁surgery	-4133
▁dictator	-4134
▁bangladesh	-4135
sd	-4136
sl	-4137
abil	-4138
hapura	-4139
ortion	-4140
reprene	-4141
▁borrow	-4142
▁finger	-4143
▁garden	-4144
▁pocket	-4145
▁therap	-4146
▁suicide	-4147
▁plantation	-4148
▁possibility	-4149
▁ms	-4150
ooth	-4151
▁nsb	-4152
▁ven	-4153
onsor	-4154
▁vend	-4155
▁cheer	-4156
▁cream	-4157
▁object	-4158
▁unfair	-4159
▁complic	-4160
▁driving	-4161
▁primary	-4162
▁profile	-4163
rom	-4164
▁rn	-4165
brid	-4166
▁gay	-4167
▁rip	-4168
▁chair	-4169
▁genoc	-4170
▁input	-4171
▁forest	-4172
▁rarely	-4173
▁portion	-4174
▁proceed	-4175
▁domestic	-4176
bsl	-4177
ena	-4178
for	-4179
▁mel	-4180
▁urg	-4181
▁upto	-4182
▁favour	-4183
▁superm	-4184
▁embassy	-4185
▁samsung	-4186
▁sponsor	-4187
▁festival	-4188
▁character	-4189
▁efficient	-4190
▁journalist	-4191
▁ridiculous	-4192
▁nom	-4193
antha	-4194
▁heat	-4195
▁loose	-4196
▁compete	-4197
▁germany	-4198
▁calculate	-4199
▁entreprene	-4200
ga	-4201
rap	-4202
enda	-4203
goda	-4204
iour	-4205
▁gif	-4206
▁gro	-4207
▁rot	-4208
▁sky	-4209
uring	-4210
▁nope	-4211
▁onto	-4212
▁sake	-4213
▁wash	-4214
▁zone	-4215
gation	-4216
▁equal	-4217
▁frame	-4218
▁paint	-4219
▁debate	-4220
▁vision	-4221
▁chicken	-4222
▁decline	-4223
▁speaker	-4224
▁colonial	-4225
▁workplace	-4226
▁anuradhapura	-4227
▁cha	-4228
▁spl	-4229
itiya	-4230
▁libr	-4231
▁wick	-4232
urally	-4233
▁align	-4234
▁cloud	-4235
▁guest	-4236
▁integr	-4237
▁native	-4238
▁initiative	-4239
▁understanding	-4240
▁accountability	-4241
▁discrimination	-4242
ika	-4243
▁cbsl	-4244
▁five	-4245
▁piss	-4246
▁curry	-4247
▁debit	-4248
▁whose	-4249
anayake	-4250
▁pretend	-4251
24	-4252
ij	-4253
pm	-4254
ser	-4255
thy	-4256
list	-4257
soft	-4258
▁atm	-4259
▁dil	-4260
▁epf	-4261
▁boat	-4262
▁calm	-4263
▁tooth	-4264
▁wheel	-4265
▁hybrid	-4266
▁combine	-4267
▁library	-4268
▁maximum	-4269
▁pharmacy	-4270
▁permanent	-4271
▁comparison	-4272
yy	-4273
not	-4274
sse	-4275
cell	-4276
rance	-4277
▁buff	-4278
▁lift	-4279
▁liqu	-4280
▁fancy	-4281
▁genocide	-4282
fic	-4283
iat	-4284
owe	-4285
▁mile	-4286
▁wave	-4287
▁alcohol	-4288
▁besides	-4289
▁plastic	-4290
▁traveler	-4291
▁previously	-4292
▁educational	-4293
ipe	-4294
▁pic	-4295
▁piz	-4296
▁sir	-4297
▁sou	-4298
▁insp	-4299
▁warn	-4300
▁repay	-4301
▁bridge	-4302
▁witness	-4303
▁actively	-4304
▁annoying	-4305
▁curricul	-4306
▁normally	-4307
▁colleague	-4308
▁everybody	-4309
han	-4310
▁yo	-4311
pora	-4312
▁ack	-4313
▁rom	-4314
▁unb	-4315
▁cred	-4316
ailand	-4317
iation	-4318
▁climb	-4319
▁earth	-4320
▁label	-4321
▁sight	-4322
▁urban	-4323
▁acknow	-4324
▁junior	-4325
▁scammer	-4326
▁whoever	-4327
▁birthday	-4328
▁passenger	-4329
ca	-4330
ulf	-4331
aden	-4332
▁cold	-4333
▁dias	-4334
▁brown	-4335
▁donate	-4336
▁survey	-4337
▁forever	-4338
▁nonsense	-4339
▁confidence	-4340
▁communicate	-4341
▁unnecessary	-4342
cut	-4343
▁jr	-4344
▁fis	-4345
icing	-4346
▁hero	-4347
▁pand	-4348
▁roll	-4349
▁subsid	-4350
▁contain	-4351
fficiency	-4352
▁thailand	-4353
▁frustrating	-4354
dex	-4355
▁36	-4356
rent	-4357
▁ali	-4358
▁nsbm	-4359
▁tang	-4360
▁coach	-4361
▁crash	-4362
▁dance	-4363
▁lunch	-4364
▁sugar	-4365
▁invite	-4366
▁reveal	-4367
▁declare	-4368
▁weligama	-4369
▁certainly	-4370
▁curriculum	-4371
▁democratic	-4372
▁sustainable	-4373
නන	-4374
olit	-4375
▁sab	-4376
anage	-4377
month	-4378
▁farm	-4379
▁amend	-4380
▁tower	-4381
▁impose	-4382
▁surely	-4383
▁propose	-4384
▁surround	-4385
che	-4386
▁nu	-4387
awal	-4388
agree	-4389
▁hiri	-4390
▁scar	-4391
▁risky	-4392
▁margin	-4393
▁sacrif	-4394
▁verify	-4395
▁dangerous	-4396
no	-4397
▁cc	-4398
inal	-4399
▁pett	-4400
▁lower	-4401
▁screw	-4402
▁agenda	-4403
▁server	-4404
▁diaspora	-4405
▁disagree	-4406
▁entrance	-4407
▁entrepreneur	-4408
gn	-4409
ren	-4410
▁ly	-4411
osal	-4412
▁cow	-4413
▁gig	-4414
▁mos	-4415
▁spir	-4416
▁faith	-4417
▁guard	-4418
▁scared	-4419
▁upload	-4420
▁cabinet	-4421
▁welfare	-4422
▁beginner	-4423
▁constant	-4424
▁intelligence	-4425
kk	-4426
cery	-4427
▁ram	-4428
asinghe	-4429
▁appeal	-4430
▁buddha	-4431
▁deduct	-4432
▁indeed	-4433
▁internal	-4434
▁mandatory	-4435
▁narrative	-4436
▁sacrifice	-4437
ino	-4438
allet	-4439
▁entitle	-4440
▁podcast	-4441
▁ideology	-4442
▁fundament	-4443
▁supermarket	-4444
▁certification	-4445
▁mc	-4446
▁ya	-4447
▁120	-4448
▁odd	-4449
▁scr	-4450
▁vir	-4451
ropri	-4452
▁stack	-4453
▁absurd	-4454
▁manner	-4455
▁premadasa	-4456
ited	-4457
▁gri	-4458
▁six	-4459
cient	-4460
▁5000	-4461
▁hall	-4462
▁thri	-4463
▁alive	-4464
▁islam	-4465
▁treas	-4466
ception	-4467
▁contra	-4468
▁vendor	-4469
▁clarify	-4470
▁liberal	-4471
▁estimate	-4472
▁instance	-4473
▁unemploy	-4474
▁meanwhile	-4475
▁selection	-4476
▁essentially	-4477
ied	-4478
olic	-4479
▁ale	-4480
▁sar	-4481
aduwa	-4482
rease	-4483
▁edex	-4484
▁buddy	-4485
facepal	-4486
▁priorit	-4487
▁donation	-4488
▁criticism	-4489
ldr	-4490
▁fed	-4491
▁kdu	-4492
▁rug	-4493
igate	-4494
level	-4495
▁blow	-4496
▁core	-4497
ashion	-4498
▁bully	-4499
▁chain	-4500
▁error	-4501
▁flash	-4502
▁flood	-4503
▁occur	-4504
▁plain	-4505
otional	-4506
▁dealer	-4507
▁equity	-4508
▁superi	-4509
▁accurate	-4510
▁temporary	-4511
▁australian	-4512
hh	-4513
▁au	-4514
aran	-4515
▁asw	-4516
▁ong	-4517
▁boss	-4518
liance	-4519
▁disre	-4520
▁pizza	-4521
▁sweet	-4522
▁intend	-4523
▁prison	-4524
▁psychiat	-4525
▁reference	-4526
▁collection	-4527
▁historical	-4528
▁න	-4529
ira	-4530
ita	-4531
ley	-4532
pro	-4533
▁fat	-4534
▁pil	-4535
andal	-4536
▁rape	-4537
▁canad	-4538
▁crook	-4539
ography	-4540
▁alevel	-4541
▁explan	-4542
▁harsha	-4543
▁capable	-4544
▁grocery	-4545
▁protein	-4546
▁organize	-4547
▁programme	-4548
▁medication	-4549
lkr	-4550
itie	-4551
ysis	-4552
▁bul	-4553
▁grab	-4554
▁mathem	-4555
▁shopping	-4556
▁passionate	-4557
dy	-4558
ja	-4559
lock	-4560
▁hust	-4561
▁rude	-4562
▁tldr	-4563
▁noise	-4564
adeniya	-4565
▁affair	-4566
▁smooth	-4567
▁publish	-4568
▁resolve	-4569
▁commerce	-4570
▁describe	-4571
▁downvote	-4572
▁elsewhere	-4573
▁additionally	-4574
▁nt	-4575
▁ye	-4576
rial	-4577
bally	-4578
usion	-4579
▁asap	-4580
▁hack	-4581
▁pray	-4582
▁crack	-4583
▁shall	-4584
▁casual	-4585
▁expand	-4586
▁regime	-4587
▁retail	-4588
▁fashion	-4589
▁graphic	-4590
▁predict	-4591
▁translate	-4592
▁typically	-4593
▁accountable	-4594
ola	-4595
▁31	-4596
▁ird	-4597
▁mah	-4598
▁yep	-4599
▁trail	-4600
▁hostel	-4601
▁edexcel	-4602
▁hiriket	-4603
▁interact	-4604
▁confident	-4605
▁physically	-4606
▁acknowledge	-4607
▁improvement	-4608
▁progressive	-4609
vt	-4610
500	-4611
csl	-4612
ela	-4613
sas	-4614
know	-4615
▁nan	-4616
▁coin	-4617
▁lone	-4618
▁tear	-4619
▁tiny	-4620
▁habit	-4621
▁satisf	-4622
▁earning	-4623
▁eastern	-4624
▁negotiate	-4625
▁installment	-4626
▁600	-4627
▁aid	-4628
▁hnd	-4629
▁adhd	-4630
▁boot	-4631
▁split	-4632
▁tight	-4633
▁discon	-4634
▁enable	-4635
▁holder	-4636
▁incompet	-4637
▁southern	-4638
▁concerned	-4639
▁promotion	-4640
▁specialist	-4641
▁agriculture	-4642
hy	-4643
rem	-4644
fast	-4645
rain	-4646
▁eta	-4647
▁isp	-4648
price	-4649
▁bath	-4650
▁lake	-4651
▁leak	-4652
▁lean	-4653
▁minor	-4654
▁mixed	-4655
▁nurse	-4656
▁buffet	-4657
▁colour	-4658
▁escape	-4659
▁scient	-4660
▁advisor	-4661
▁century	-4662
▁victory	-4663
▁regularly	-4664
my	-4665
ali	-4666
ique	-4667
otic	-4668
wala	-4669
▁kum	-4670
▁bent	-4671
▁flow	-4672
▁loop	-4673
▁kottu	-4674
▁accuse	-4675
▁entity	-4676
▁wallet	-4677
▁ancient	-4678
▁biology	-4679
▁nowhere	-4680
▁outcome	-4681
▁desperate	-4682
▁disappear	-4683
▁immigrant	-4684
▁qualified	-4685
▁depression	-4686
cl	-4687
▁wik	-4688
itter	-4689
▁bite	-4690
▁mald	-4691
▁mode	-4692
iction	-4693
▁angry	-4694
▁dedic	-4695
▁lgbtq	-4696
▁trial	-4697
itation	-4698
▁behave	-4699
▁patter	-4700
▁pettah	-4701
▁director	-4702
▁occasion	-4703
▁commitment	-4704
▁cybersecurity	-4705
onym	-4706
uate	-4707
▁198	-4708
▁doc	-4709
▁laz	-4710
▁boom	-4711
▁leaf	-4712
ounter	-4713
▁glass	-4714
▁excell	-4715
▁pattern	-4716
▁socialism	-4717
▁recognition	-4718
asc	-4719
look	-4720
oing	-4721
ulla	-4722
▁beg	-4723
▁camb	-4724
▁spec	-4725
▁adapt	-4726
▁gotab	-4727
▁occup	-4728
▁panel	-4729
▁react	-4730
ervation	-4731
▁asshole	-4732
▁funding	-4733
▁mechanical	-4734
▁retirement	-4735
▁len	-4736
inform	-4737
▁drone	-4738
▁memor	-4739
ivalent	-4740
▁deeply	-4741
▁barrier	-4742
▁advanced	-4743
▁childhood	-4744
▁capitalism	-4745
▁participate	-4746
▁technically	-4747
mi	-4748
edy	-4749
▁dy	-4750
▁ko	-4751
roid	-4752
▁inj	-4753
▁msc	-4754
awala	-4755
osure	-4756
rical	-4757
▁dehi	-4758
▁mill	-4759
▁sens	-4760
▁herit	-4761
▁rugby	-4762
▁artist	-4763
▁minimal	-4764
▁analysis	-4765
▁decrease	-4766
▁designer	-4767
▁proposal	-4768
▁remotely	-4769
▁behaviour	-4770
▁emotional	-4771
▁incredibly	-4772
▁peradeniya	-4773
gl	-4774
▁32	-4775
city	-4776
▁mum	-4777
▁mut	-4778
▁yah	-4779
▁empt	-4780
colate	-4781
worthy	-4782
▁circum	-4783
▁depart	-4784
▁ongoing	-4785
▁mountain	-4786
▁chocolate	-4787
▁revolution	-4788
▁ultimately	-4789
▁entertainment	-4790
ache	-4791
orke	-4792
resh	-4793
wide	-4794
▁800	-4795
▁aus	-4796
▁pfc	-4797
▁cake	-4798
▁elig	-4799
▁lion	-4800
▁thus	-4801
▁royal	-4802
▁slave	-4803
▁smell	-4804
▁beauty	-4805
▁outlet	-4806
▁impress	-4807
▁coverage	-4808
▁discover	-4809
▁undergrad	-4810
▁equivalent	-4811
▁governance	-4812
▁explanation	-4813
▁automatically	-4814
hn	-4815
ppy	-4816
grat	-4817
iary	-4818
shot	-4819
▁abt	-4820
▁jer	-4821
▁kar	-4822
▁nep	-4823
night	-4824
▁guilty	-4825
▁privat	-4826
▁unsure	-4827
▁selfish	-4828
▁wealthy	-4829
▁christian	-4830
▁encounter	-4831
▁hiriketiya	-4832
▁fundamental	-4833
uru	-4834
ando	-4835
▁ash	-4836
▁lif	-4837
▁uae	-4838
▁cima	-4839
▁dear	-4840
▁nuge	-4841
▁accom	-4842
▁thief	-4843
▁unity	-4844
▁rating	-4845
▁twitter	-4846
▁utility	-4847
▁immediate	-4848
▁industrial	-4849
▁manufacture	-4850
▁conservative	-4851
yi	-4852
eye	-4853
ula	-4854
▁95	-4855
iety	-4856
whel	-4857
▁bid	-4858
▁drag	-4859
▁virt	-4860
▁wing	-4861
icious	-4862
▁10000	-4863
▁chand	-4864
▁diagn	-4865
▁empty	-4866
▁keell	-4867
▁scope	-4868
▁affili	-4869
▁lovely	-4870
▁congrat	-4871
▁privacy	-4872
▁sharing	-4873
▁unlikely	-4874
▁admission	-4875
▁criticize	-4876
▁overprice	-4877
▁electrical	-4878
gle	-4879
▁gp	-4880
▁hal	-4881
▁mba	-4882
owder	-4883
▁dual	-4884
▁grad	-4885
▁icbt	-4886
▁wire	-4887
▁recip	-4888
▁formal	-4889
▁openly	-4890
▁russia	-4891
▁recovery	-4892
▁secretary	-4893
▁psychology	-4894
▁restructure	-4895
adu	-4896
ken	-4897
▁owe	-4898
ander	-4899
ridge	-4900
▁evil	-4901
▁motiv	-4902
▁accent	-4903
▁hustle	-4904
▁alright	-4905
▁pricing	-4906
▁succeed	-4907
▁audience	-4908
▁canadian	-4909
▁exposure	-4910
▁presence	-4911
▁principle	-4912
▁assignment	-4913
▁officially	-4914
▁punishment	-4915
▁rajapaksas	-4916
22	-4917
led	-4918
ette	-4919
▁bow	-4920
▁cmb	-4921
▁nah	-4922
olish	-4923
▁2026	-4924
▁bias	-4925
▁fant	-4926
▁pair	-4927
▁riot	-4928
▁shout	-4929
▁battle	-4930
▁reading	-4931
▁roughly	-4932
▁sentence	-4933
▁realistic	-4934
90	-4935
eem	-4936
▁ed	-4937
vere	-4938
▁beh	-4939
▁tor	-4940
▁hikk	-4941
▁summ	-4942
lusive	-4943
▁burea	-4944
▁embar	-4945
▁derana	-4946
▁friday	-4947
▁fitness	-4948
▁creative	-4949
▁heritage	-4950
▁starting	-4951
▁breakfast	-4952
▁privilege	-4953
▁difficulty	-4954
▁personality	-4955
▁psychiatrist	-4956
fp	-4957
zz	-4958
ased	-4959
iant	-4960
iled	-4961
▁ham	-4962
▁kal	-4963
▁mir	-4964
▁rum	-4965
▁tag	-4966
ublic	-4967
▁isol	-4968
▁badly	-4969
▁meter	-4970
▁scoot	-4971
▁shape	-4972
▁anonym	-4973
▁excited	-4974
▁pathway	-4975
▁allocate	-4976
▁nugegoda	-4977
▁allowance	-4978
▁economically	-4979
dem	-4980
exp	-4981
reep	-4982
▁hsb	-4983
▁cart	-4984
▁lazy	-4985
▁elder	-4986
▁korea	-4987
▁mouth	-4988
▁uncom	-4989
ittance	-4990
▁reward	-4991
▁anxiety	-4992
▁committ	-4993
▁disaster	-4994
▁clearance	-4995
▁correctly	-4996
▁convenient	-4997
▁depreciate	-4998
▁experienced	-4999
▁replacement	-5000
▁circumstance	-5001
xy	-5002
gen	-5003
nel	-5004
ont	-5005
▁65	-5006
▁hob	-5007
▁wij	-5008
house	-5009
logic	-5010
ruary	-5011
▁brut	-5012
▁hype	-5013
▁niss	-5014
▁trave	-5015
▁instru	-5016
▁trigger	-5017
▁pandemic	-5018
▁hikkaduwa	-5019
▁surprising	-5020
▁organisation	-5021
▁55	-5022
▁56	-5023
bble	-5024
educ	-5025
itha	-5026
shop	-5027
ssor	-5028
▁pad	-5029
▁was	-5030
irect	-5031
▁buck	-5032
▁desk	-5033
▁hsbc	-5034
▁femin	-5035
▁oblig	-5036
▁corner	-5037
▁german	-5038
▁distrib	-5039
▁violent	-5040
▁favorite	-5041
▁mentally	-5042
▁amendment	-5043
▁mathematic	-5044
atha	-5045
elam	-5046
ging	-5047
ilet	-5048
odge	-5049
▁fyi	-5050
▁pix	-5051
itual	-5052
▁soul	-5053
▁tort	-5054
▁analyt	-5055
▁insult	-5056
▁purely	-5057
ropriate	-5058
▁artific	-5059
▁perfume	-5060
▁visible	-5061
▁overwhel	-5062
▁tangalle	-5063
▁telegram	-5064
▁remittance	-5065
▁availability	-5066
▁compensation	-5067
mn	-5068
ux	-5069
100	-5070
arm	-5071
ault	-5072
gala	-5073
▁afa	-5074
onent	-5075
▁media	-5076
▁micro	-5077
awatuna	-5078
▁determ	-5079
▁extrem	-5080
▁railway	-5081
▁globally	-5082
▁communist	-5083
▁importantly	-5084
eam	-5085
agon	-5086
arat	-5087
icit	-5088
▁sav	-5089
▁vit	-5090
class	-5091
▁batt	-5092
▁award	-5093
▁boost	-5094
▁dutch	-5095
▁eelam	-5096
▁manag	-5097
▁smoke	-5098
▁trcsl	-5099
▁veget	-5100
▁assess	-5101
▁bloody	-5102
▁incent	-5103
▁toilet	-5104
▁consume	-5105
▁christmas	-5106
▁terrorism	-5107
▁allegation	-5108
▁manipulate	-5109
▁appreciated	-5110
box	-5111
▁nd	-5112
▁tf	-5113
word	-5114
▁tol	-5115
▁fulf	-5116
▁inher	-5117
▁italy	-5118
▁optim	-5119
▁supre	-5120
▁excess	-5121
stration	-5122
▁continu	-5123
▁parking	-5124
▁scooter	-5125
▁regulate	-5126
▁softlogic	-5127
▁accounting	-5128
▁potentially	-5129
▁successfully	-5130
14	-5131
▁hu	-5132
▁om	-5133
▁cer	-5134
▁som	-5135
known	-5136
▁adam	-5137
▁cath	-5138
▁neut	-5139
▁slip	-5140
▁afaik	-5141
▁moral	-5142
▁100000	-5143
▁assault	-5144
▁february	-5145
▁naturally	-5146
▁uncomfort	-5147
▁combination	-5148
▁bm	-5149
▁fry	-5150
▁jav	-5151
▁tok	-5152
iracy	-5153
ourse	-5154
▁mbps	-5155
▁spam	-5156
▁creep	-5157
▁pixel	-5158
▁ultra	-5159
eration	-5160
▁farmer	-5161
▁android	-5162
▁whereas	-5163
▁broadband	-5164
▁consistent	-5165
▁disgusting	-5166
▁meaningful	-5167
▁prioritize	-5168
lix	-5169
she	-5170
build	-5171
raine	-5172
▁exha	-5173
▁hole	-5174
emotes	-5175
▁hesit	-5176
▁plate	-5177
▁quant	-5178
▁border	-5179
▁monkey	-5180
▁wanted	-5181
▁charity	-5182
▁kingdom	-5183
▁opening	-5184
emotefree	-5185
▁nationalist	-5186
▁depreciation	-5187
gu	-5188
▁je	-5189
door	-5190
head	-5191
unic	-5192
▁ing	-5193
▁ntb	-5194
▁rav	-5195
▁soc	-5196
▁uns	-5197
▁uom	-5198
astic	-5199
inent	-5200
▁hung	-5201
▁john	-5202
▁vast	-5203
▁activ	-5204
▁freak	-5205
▁utter	-5206
▁viable	-5207
▁consent	-5208
▁exhaust	-5209
▁maldive	-5210
▁excellent	-5211
▁recognise	-5212
▁sentiment	-5213
▁profitable	-5214
▁necessarily	-5215
si	-5216
vy	-5217
▁cp	-5218
▁kot	-5219
▁vet	-5220
cious	-5221
otism	-5222
▁2010	-5223
▁defe	-5224
▁tank	-5225
charge	-5226
▁buyer	-5227
▁intel	-5228
▁yahap	-5229
uration	-5230
▁africa	-5231
▁expend	-5232
▁locate	-5233
▁powder	-5234
▁stabil	-5235
aranaike	-5236
▁bombing	-5237
▁related	-5238
▁strange	-5239
▁torture	-5240
▁publicly	-5241
▁statistic	-5242
▁unawatuna	-5243
▁subscription	-5244
45	-5245
elt	-5246
has	-5247
vor	-5248
▁vp	-5249
bery	-5250
sper	-5251
▁rub	-5252
▁chip	-5253
▁thug	-5254
nament	-5255
▁fruit	-5256
▁harsh	-5257
▁burger	-5258
▁mirror	-5259
▁waiting	-5260
▁regional	-5261
▁treasury	-5262
▁exception	-5263
▁principal	-5264
▁uncomfortable	-5265
16	-5266
gi	-5267
vin	-5268
aker	-5269
▁ble	-5270
▁ord	-5271
▁1500	-5272
▁feas	-5273
▁flat	-5274
▁symb	-5275
▁vary	-5276
▁advoc	-5277
▁breat	-5278
▁maith	-5279
▁pleas	-5280
▁behalf	-5281
▁cancer	-5282
▁define	-5283
▁beaming	-5284
▁embarra	-5285
▁wickrem	-5286
▁worship	-5287
▁ignorant	-5288
▁innovation	-5289
ax	-5290
cal	-5291
▁cb	-5292
athy	-5293
mate	-5294
sday	-5295
▁voc	-5296
eapon	-5297
etime	-5298
▁2009	-5299
▁ring	-5300
▁stem	-5301
lusion	-5302
▁chaos	-5303
▁overt	-5304
▁pride	-5305
oration	-5306
▁module	-5307
▁classic	-5308
▁contest	-5309
▁defense	-5310
▁pension	-5311
▁setting	-5312
▁cambridge	-5313
▁vaccinate	-5314
▁practically	-5315
18	-5316
▁ft	-5317
omen	-5318
onda	-5319
▁fds	-5320
▁gpa	-5321
▁hir	-5322
▁nil	-5323
osity	-5324
▁cave	-5325
▁forg	-5326
▁jack	-5327
▁pill	-5328
▁stor	-5329
▁tact	-5330
▁rapid	-5331
▁defeat	-5332
▁scenic	-5333
▁suburb	-5334
▁customs	-5335
▁variety	-5336
▁warning	-5337
▁northern	-5338
▁restrict	-5339
▁professor	-5340
▁afterwards	-5341
▁membership	-5342
▁differently	-5343
▁bandaranaike	-5344
▁contribution	-5345
ised	-5346
lead	-5347
ailed	-5348
▁dism	-5349
▁cheat	-5350
▁demon	-5351
▁hindu	-5352
▁loyal	-5353
▁phase	-5354
▁amazon	-5355
▁udawal	-5356
▁urgent	-5357
▁neutral	-5358
▁yahapal	-5359
▁backpack	-5360
▁textbook	-5361
▁happiness	-5362
▁privately	-5363
▁traveller	-5364
▁supportive	-5365
▁investigate	-5366
23	-5367
▁33	-5368
▁uc	-5369
▁bin	-5370
▁oce	-5371
antic	-5372
▁dent	-5373
▁warm	-5374
▁cater	-5375
▁honey	-5376
▁monet	-5377
▁spark	-5378
▁exceed	-5379
▁legend	-5380
▁weapon	-5381
▁aggress	-5382
▁hotline	-5383
▁eligible	-5384
▁flexible	-5385
▁workforce	-5386
▁efficiency	-5387
▁tournament	-5388
▁transition	-5389
▁frustration	-5390
▁politically	-5391
net	-5392
▁alt	-5393
▁hig	-5394
▁kur	-5395
gment	-5396
▁lend	-5397
▁mira	-5398
▁salt	-5399
▁brief	-5400
▁chief	-5401
▁sheet	-5402
▁spare	-5403
▁addict	-5404
▁relief	-5405
▁scratch	-5406
▁distract	-5407
▁republic	-5408
▁somebody	-5409
▁perfectly	-5410
▁impression	-5411
▁trustworthy	-5412
hib	-5413
sto	-5414
▁fk	-5415
▁py	-5416
aram	-5417
edia	-5418
▁197	-5419
▁dan	-5420
▁nib	-5421
urang	-5422
urday	-5423
world	-5424
▁grid	-5425
▁temu	-5426
▁hobby	-5427
▁ocean	-5428
▁polon	-5429
▁rally	-5430
▁shirt	-5431
▁subst	-5432
ternoon	-5433
▁bubble	-5434
▁earner	-5435
▁nissan	-5436
▁resist	-5437
▁bentota	-5438
▁venture	-5439
▁writing	-5440
ationally	-5441
▁catholic	-5442
▁detailed	-5443
▁competent	-5444
▁translation	-5445
▁vaccination	-5446
▁parliamentary	-5447
ns	-5448
see	-5449
▁jk	-5450
core	-5451
▁gaz	-5452
▁pvt	-5453
▁sep	-5454
▁soo	-5455
▁dise	-5456
angama	-5457
▁andor	-5458
▁expat	-5459
▁fraud	-5460
▁kelan	-5461
▁malay	-5462
▁stray	-5463
▁clinic	-5464
▁expire	-5465
▁insist	-5466
▁manife	-5467
▁portal	-5468
▁uneduc	-5469
▁dependent	-5470
▁assistance	-5471
▁disconnect	-5472
▁permission	-5473
af	-5474
dr	-5475
bre	-5476
aint	-5477
laim	-5478
some	-5479
wash	-5480
▁bun	-5481
▁ren	-5482
▁tap	-5483
scape	-5484
▁ease	-5485
▁edge	-5486
▁goon	-5487
▁keen	-5488
▁mini	-5489
▁honda	-5490
▁rainy	-5491
▁instal	-5492
▁palest	-5493
▁sovere	-5494
▁mislead	-5495
▁activate	-5496
▁literacy	-5497
▁navigate	-5498
▁parttime	-5499
▁afternoon	-5500
▁emotionally	-5501
▁architecture	-5502
ti	-5503
eve	-5504
ilt	-5505
oor	-5506
rog	-5507
umbs	-5508
▁unw	-5509
▁diet	-5510
▁dump	-5511
▁furn	-5512
▁gear	-5513
▁heal	-5514
▁peep	-5515
▁rein	-5516
▁cerem	-5517
▁merit	-5518
▁surge	-5519
▁higher	-5520
▁capture	-5521
▁commute	-5522
▁equally	-5523
▁analytic	-5524
▁pathetic	-5525
▁saturday	-5526
▁semester	-5527
▁disrespect	-5528
hus	-5529
vis	-5530
flow	-5531
soon	-5532
uber	-5533
▁bee	-5534
▁ceo	-5535
▁las	-5536
▁brow	-5537
▁flee	-5538
▁slfp	-5539
▁viet	-5540
stream	-5541
▁appre	-5542
▁grind	-5543
▁hypoc	-5544
▁patri	-5545
▁swear	-5546
▁times	-5547
yearold	-5548
▁contro	-5549
▁benefic	-5550
▁inflate	-5551
▁inspire	-5552
▁storage	-5553
▁transit	-5554
▁midnight	-5555
▁framework	-5556
▁sufficient	-5557
▁complicated	-5558
▁resignation	-5559
aa	-5560
oly	-5561
▁gf	-5562
asty	-5563
ript	-5564
archy	-5565
itate	-5566
▁fern	-5567
▁bless	-5568
▁niche	-5569
▁penal	-5570
ference	-5571
▁capita	-5572
▁thumbs	-5573
▁abolish	-5574
▁deficit	-5575
▁disease	-5576
▁therapy	-5577
istically	-5578
▁dehiwala	-5579
▁superior	-5580
▁committee	-5581
▁determine	-5582
▁landscape	-5583
▁reputable	-5584
▁discourage	-5585
▁achievement	-5586
▁internationally	-5587
ba	-5588
▁kg	-5589
case	-5590
▁cos	-5591
▁raw	-5592
mouth	-5593
vable	-5594
▁2016	-5595
▁cham	-5596
▁bread	-5597
▁desire	-5598
▁filter	-5599
▁orient	-5600
▁analyst	-5601
▁exclude	-5602
▁observe	-5603
▁fulltime	-5604
▁gotabaya	-5605
▁ownership	-5606
▁wonderful	-5607
▁expenditure	-5608
▁gifemotefree	-5609
▁representative	-5610
tch	-5611
ush	-5612
irty	-5613
rise	-5614
dated	-5615
erion	-5616
▁3000	-5617
▁ally	-5618
▁cast	-5619
▁fare	-5620
▁mere	-5621
▁sand	-5622
▁esoft	-5623
▁moron	-5624
▁pregn	-5625
▁resid	-5626
▁apolog	-5627
▁cringe	-5628
▁hatred	-5629
▁ethical	-5630
▁adventure	-5631
▁criterion	-5632
▁incentive	-5633
▁necessity	-5634
▁frequently	-5635
▁screenshot	-5636
▁association	-5637
bl	-5638
tel	-5639
husi	-5640
▁ego	-5641
▁kat	-5642
▁airb	-5643
▁exer	-5644
▁mail	-5645
▁mism	-5646
▁nibm	-5647
itchen	-5648
▁aband	-5649
▁incor	-5650
▁venue	-5651
▁french	-5652
▁overth	-5653
▁supreme	-5654
▁hardware	-5655
▁prospect	-5656
▁misinform	-5657
▁acceptable	-5658
▁controvers	-5659
▁convenience	-5660
▁effectively	-5661
▁nationalism	-5662
13	-5663
bie	-5664
law	-5665
mar	-5666
zen	-5667
flix	-5668
iser	-5669
urve	-5670
▁195	-5671
▁cell	-5672
▁fert	-5673
▁mora	-5674
▁mort	-5675
▁ucsc	-5676
naruwa	-5677
▁steam	-5678
▁basket	-5679
▁minded	-5680
▁mosque	-5681
▁enthusi	-5682
▁kitchen	-5683
▁largely	-5684
▁quarter	-5685
▁abortion	-5686
▁importer	-5687
▁outdated	-5688
▁strongly	-5689
▁affiliate	-5690
▁component	-5691
▁depressed	-5692
▁primarily	-5693
▁friendship	-5694
▁literature	-5695
▁unemployed	-5696
▁manufacturer	-5697
17	-5698
abe	-5699
oko	-5700
▁85	-5701
away	-5702
ones	-5703
▁otp	-5704
▁poh	-5705
▁2500	-5706
▁came	-5707
▁hamb	-5708
▁peer	-5709
▁prol	-5710
▁pump	-5711
▁symp	-5712
▁divid	-5713
▁forum	-5714
▁nepal	-5715
▁shady	-5716
▁stead	-5717
▁ayurve	-5718
▁hardly	-5719
▁matara	-5720
▁mature	-5721
▁silent	-5722
▁tactic	-5723
friendly	-5724
▁abandon	-5725
▁comprom	-5726
▁tension	-5727
▁univers	-5728
▁deadline	-5729
▁feasible	-5730
▁specialize	-5731
uls	-5732
cuit	-5733
▁aka	-5734
▁cus	-5735
▁unt	-5736
▁wed	-5737
inder	-5738
prise	-5739
▁arab	-5740
▁bird	-5741
▁flaw	-5742
▁magn	-5743
▁muse	-5744
▁pera	-5745
▁prab	-5746
▁unus	-5747
erable	-5748
shrugg	-5749
▁alert	-5750
▁pilot	-5751
holding	-5752
rolling	-5753
station	-5754
▁broken	-5755
▁emphas	-5756
▁intake	-5757
▁snorke	-5758
▁thanks	-5759
iliation	-5760
▁cooking	-5761
▁disturb	-5762
▁monsoon	-5763
▁onwards	-5764
▁stretch	-5765
shrugging	-5766
▁exercise	-5767
▁opportun	-5768
▁compromise	-5769
▁enterprise	-5770
89	-5771
aken	-5772
paid	-5773
▁lad	-5774
▁und	-5775
check	-5776
inter	-5777
oneer	-5778
opular	-5779
▁audit	-5780
▁escal	-5781
▁monop	-5782
▁plane	-5783
▁quota	-5784
diction	-5785
▁liquid	-5786
▁monday	-5787
▁thrive	-5788
▁gateway	-5789
▁alliance	-5790
▁reminder	-5791
▁swimming	-5792
▁uneducated	-5793
▁involvement	-5794
▁polonnaruwa	-5795
kw	-5796
▁mf	-5797
used	-5798
▁2017	-5799
▁aunt	-5800
▁java	-5801
▁urge	-5802
▁drunk	-5803
▁ratio	-5804
▁spice	-5805
▁backup	-5806
▁collab	-5807
▁golden	-5808
▁league	-5809
▁shower	-5810
▁crucial	-5811
▁learner	-5812
▁licence	-5813
▁reverse	-5814
▁selling	-5815
▁indicate	-5816
▁payoneer	-5817
▁residence	-5818
▁udawalawe	-5819
▁appropriate	-5820
▁hospitality	-5821
ila	-5822
ipt	-5823
oom	-5824
▁ml	-5825
▁yr	-5826
iter	-5827
▁fur	-5828
▁vul	-5829
cling	-5830
ophob	-5831
▁1015	-5832
▁expl	-5833
▁meat	-5834
▁nadu	-5835
▁shel	-5836
liness	-5837
▁awful	-5838
▁incon	-5839
▁regul	-5840
▁solely	-5841
▁vietnam	-5842
▁fernando	-5843
▁taxation	-5844
▁americans	-5845
▁comfortably	-5846
sth	-5847
east	-5848
fire	-5849
▁boc	-5850
▁kad	-5851
▁sib	-5852
▁unf	-5853
▁vpn	-5854
payer	-5855
▁atro	-5856
▁util	-5857
lement	-5858
source	-5859
▁cable	-5860
▁frank	-5861
▁silva	-5862
▁worst	-5863
▁detect	-5864
▁museum	-5865
▁pohott	-5866
▁praise	-5867
▁recipe	-5868
▁symbol	-5869
▁handout	-5870
▁inspect	-5871
▁advocate	-5872
▁randomly	-5873
▁economist	-5874
▁embarrass	-5875
▁introvert	-5876
▁attractive	-5877
▁capability	-5878
▁harassment	-5879
▁consumption	-5880
48	-5881
ius	-5882
▁phil	-5883
▁pron	-5884
▁scan	-5885
▁tone	-5886
ealous	-5887
▁joint	-5888
▁merch	-5889
▁spect	-5890
▁diesel	-5891
▁narrow	-5892
▁parcel	-5893
▁perera	-5894
▁bureauc	-5895
▁liberty	-5896
▁mandate	-5897
▁ahangama	-5898
▁governor	-5899
▁indirect	-5900
▁ordinary	-5901
▁investing	-5902
▁manifesto	-5903
▁repayment	-5904
▁satisfied	-5905
▁capitalist	-5906
▁corporation	-5907
▁consideration	-5908
aid	-5909
mpt	-5910
▁07	-5911
▁mm	-5912
▁ty	-5913
comm	-5914
cont	-5915
ouch	-5916
▁lag	-5917
▁mit	-5918
▁tsh	-5919
front	-5920
isine	-5921
▁2030	-5922
▁caut	-5923
▁heck	-5924
▁koko	-5925
▁mock	-5926
▁navy	-5927
▁pear	-5928
▁slap	-5929
▁50000	-5930
▁anime	-5931
▁enemy	-5932
▁enrol	-5933
▁jayaw	-5934
▁newly	-5935
▁wikip	-5936
▁temper	-5937
▁trauma	-5938
▁disrupt	-5939
▁netflix	-5940
▁painful	-5941
▁servant	-5942
▁socalle	-5943
▁kelaniya	-5944
▁taxpayer	-5945
▁protestor	-5946
▁unpopular	-5947
facepalming	-5948
▁description	-5949
▁confirmation	-5950
▁verification	-5951
▁environmental	-5952
gy	-5953
vo	-5954
ham	-5955
reh	-5956
▁mas	-5957
inghe	-5958
▁coop	-5959
▁elim	-5960
▁exit	-5961
▁myth	-5962
arency	-5963
inking	-5964
▁grass	-5965
▁plead	-5966
▁snack	-5967
▁unpro	-5968
▁hungry	-5969
▁kindly	-5970
▁provin	-5971
▁cuisine	-5972
▁farming	-5973
▁leasing	-5974
▁cautious	-5975
▁romantic	-5976
▁assistant	-5977
▁carefully	-5978
▁construct	-5979
▁departure	-5980
▁wikipedia	-5981
▁separately	-5982
▁suspicious	-5983
▁programming	-5984
26	-5985
fo	-5986
ih	-5987
yo	-5988
bour	-5989
erce	-5990
ilst	-5991
▁700	-5992
chool	-5993
iform	-5994
ongue	-5995
▁dine	-5996
▁tail	-5997
itable	-5998
relate	-5999
▁champ	-6000
▁radio	-6001
▁stone	-6002
quality	-6003
▁misuse	-6004
▁tshirt	-6005
▁jealous	-6006
▁motorcy	-6007
▁receipt	-6008
▁dividend	-6009
▁headache	-6010
▁reaction	-6011
▁curiosity	-6012
▁protester	-6013
▁accessible	-6014
▁graduation	-6015
▁purchasing	-6016
▁strengthen	-6017
▁interaction	-6018
▁marketplace	-6019
▁transparency	-6020
ida	-6021
▁og	-6022
acle	-6023
ease	-6024
edly	-6025
enna	-6026
rish	-6027
▁247	-6028
▁bcz	-6029
▁fup	-6030
▁hub	-6031
▁kit	-6032
▁ske	-6033
agger	-6034
▁euro	-6035
▁foll	-6036
▁gent	-6037
▁hunt	-6038
▁shed	-6039
▁tatt	-6040
▁thin	-6041
▁thor	-6042
icycle	-6043
▁bound	-6044
▁civic	-6045
▁judic	-6046
▁numer	-6047
▁token	-6048
▁unite	-6049
▁racial	-6050
▁scream	-6051
▁whilst	-6052
▁acquire	-6053
▁prosper	-6054
▁sibling	-6055
▁uniform	-6056
▁chemical	-6057
▁lifetime	-6058
▁stressful	-6059
▁conclusion	-6060
▁provincial	-6061
▁supplement	-6062
fh	-6063
zi	-6064
cra	-6065
ugee	-6066
xist	-6067
▁bug	-6068
▁hap	-6069
▁suv	-6070
▁uoc	-6071
ician	-6072
value	-6073
▁coal	-6074
▁nail	-6075
▁perk	-6076
▁panic	-6077
▁whale	-6078
esinghe	-6079
itarian	-6080
▁airtel	-6081
▁latter	-6082
▁lonely	-6083
▁resume	-6084
▁sunset	-6085
▁apology	-6086
▁compreh	-6087
▁courier	-6088
▁subsidy	-6089
▁visitor	-6090
▁follower	-6091
▁beneficial	-6092
▁legitimate	-6093
▁examination	-6094
▁documentation	-6095
▁37	-6096
mare	-6097
▁cig	-6098
▁ela	-6099
▁gut	-6100
▁anth	-6101
▁bout	-6102
▁deed	-6103
▁gamp	-6104
▁lord	-6105
▁porn	-6106
ounder	-6107
spaper	-6108
▁bitch	-6109
▁consp	-6110
▁lodge	-6111
cession	-6112
▁bright	-6113
▁macbook	-6114
▁routine	-6115
▁russian	-6116
▁vacancy	-6117
▁newspaper	-6118
▁nightmare	-6119
▁sensitive	-6120
▁violation	-6121
▁consistently	-6122
▁establishment	-6123
99	-6124
hr	-6125
top	-6126
host	-6127
sena	-6128
▁350	-6129
▁nov	-6130
▁ped	-6131
▁rul	-6132
▁plot	-6133
ateral	-6134
opolit	-6135
▁poster	-6136
▁prosec	-6137
▁rocket	-6138
▁saying	-6139
▁states	-6140
▁widely	-6141
▁worthy	-6142
▁bracket	-6143
▁certify	-6144
▁inconven	-6145
▁monetary	-6146
▁monopoly	-6147
▁extension	-6148
▁gradually	-6149
▁bankruptcy	-6150
▁withdrawal	-6151
▁enforcement	-6152
▁observation	-6153
▁dictatorship	-6154
you	-6155
▁xd	-6156
inct	-6157
▁dun	-6158
▁wfh	-6159
ceive	-6160
▁bind	-6161
▁done	-6162
▁iran	-6163
▁pfca	-6164
▁pile	-6165
▁tier	-6166
▁wipe	-6167
inting	-6168
▁anger	-6169
▁gramm	-6170
▁overs	-6171
▁upset	-6172
▁fortun	-6173
▁making	-6174
▁offend	-6175
▁repute	-6176
▁volume	-6177
▁bicycle	-6178
▁creator	-6179
▁crowded	-6180
▁silence	-6181
▁ukraine	-6182
▁escalate	-6183
▁logistic	-6184
▁loophole	-6185
▁nepotism	-6186
▁stranger	-6187
▁extremist	-6188
▁prescribe	-6189
▁waterfall	-6190
mediumlight	-6191
▁applicable	-6192
▁originally	-6193
▁incompetent	-6194
▁unfortunate	-6195
hz	-6196
aha	-6197
cur	-6198
uct	-6199
uty	-6200
▁cd	-6201
anna	-6202
atta	-6203
moon	-6204
xual	-6205
▁evs	-6206
▁fab	-6207
▁gmo	-6208
▁por	-6209
mptom	-6210
umble	-6211
▁2014	-6212
▁boil	-6213
▁eval	-6214
▁holy	-6215
▁nine	-6216
▁ping	-6217
▁roof	-6218
▁sooo	-6219
akaran	-6220
▁crush	-6221
▁scold	-6222
▁shake	-6223
▁sweat	-6224
▁swift	-6225
▁wagon	-6226
apitiya	-6227
▁counse	-6228
▁litter	-6229
▁reside	-6230
▁defence	-6231
▁footage	-6232
▁indones	-6233
▁offense	-6234
▁outdoor	-6235
▁refugee	-6236
▁symptom	-6237
▁trainer	-6238
▁diagnose	-6239
▁equality	-6240
▁touristy	-6241
▁popularity	-6242
▁neighborhood	-6243
▁prescription	-6244
gre	-6245
het	-6246
iny	-6247
wan	-6248
ype	-6249
▁lm	-6250
▁lt	-6251
▁hrs	-6252
▁lem	-6253
▁ndb	-6254
▁ugc	-6255
▁wat	-6256
redit	-6257
▁auss	-6258
▁bast	-6259
▁blah	-6260
▁glor	-6261
ancest	-6262
▁dirty	-6263
▁forth	-6264
▁hilar	-6265
▁popul	-6266
▁postp	-6267
erately	-6268
vention	-6269
▁easier	-6270
▁mannar	-6271
▁pickup	-6272
▁reconc	-6273
▁tattoo	-6274
▁turtle	-6275
▁bribery	-6276
▁disable	-6277
▁violate	-6278
▁bathroom	-6279
▁numerous	-6280
▁saturate	-6281
▁eliminate	-6282
▁hilarious	-6283
▁streaming	-6284
▁documentary	-6285
▁misinformation	-6286
ox	-6287
pi	-6288
ave	-6289
hel	-6290
hum	-6291
isl	-6292
sen	-6293
▁ui	-6294
iest	-6295
lord	-6296
onal	-6297
stay	-6298
▁125	-6299
▁hun	-6300
▁jet	-6301
▁ssd	-6302
order	-6303
▁atmo	-6304
▁desc	-6305
▁wood	-6306
alanda	-6307
▁chart	-6308
▁comes	-6309
▁hyper	-6310
▁metal	-6311
▁rider	-6312
▁rumor	-6313
imation	-6314
iration	-6315
▁height	-6316
ographic	-6317
▁discord	-6318
▁hearing	-6319
▁downside	-6320
▁initiate	-6321
▁interior	-6322
▁keyboard	-6323
▁mechanic	-6324
▁overcome	-6325
▁alongside	-6326
▁backwards	-6327
▁secondary	-6328
▁importance	-6329
▁productive	-6330
▁respectful	-6331
▁realistically	-6332
▁reconciliation	-6333
di	-6334
▁ax	-6335
bike	-6336
▁kud	-6337
▁lat	-6338
▁lug	-6339
▁mfs	-6340
▁rig	-6341
▁yup	-6342
araja	-6343
irate	-6344
▁doom	-6345
▁medi	-6346
▁seal	-6347
▁audio	-6348
▁paste	-6349
▁vague	-6350
emption	-6351
▁assass	-6352
▁steady	-6353
▁yellow	-6354
pointing	-6355
▁dislike	-6356
▁maithri	-6357
▁operator	-6358
▁broadcast	-6359
▁increment	-6360
▁mismanage	-6361
▁scientist	-6362
▁transform	-6363
▁artificial	-6364
▁frustrated	-6365
▁constitutional	-6366
ms	-6367
hal	-6368
ole	-6369
tha	-6370
ader	-6371
hera	-6372
itar	-6373
plus	-6374
▁mud	-6375
▁oly	-6376
▁sms	-6377
aking	-6378
▁beer	-6379
▁curt	-6380
▁gmoa	-6381
▁kiss	-6382
▁mask	-6383
ductor	-6384
▁armed	-6385
▁arrog	-6386
▁excel	-6387
▁exper	-6388
▁honor	-6389
▁scary	-6390
▁ancest	-6391
▁aussie	-6392
▁fluent	-6393
▁studio	-6394
▁unreal	-6395
▁luggage	-6396
▁penalty	-6397
▁ceremony	-6398
▁duration	-6399
▁breakdown	-6400
▁countless	-6401
▁furniture	-6402
▁pollution	-6403
▁reduction	-6404
▁vegetable	-6405
▁motorcycle	-6406
▁congratulation	-6407
▁wickremesinghe	-6408
35	-6409
squ	-6410
▁dj	-6411
▁yt	-6412
fect	-6413
open	-6414
race	-6415
very	-6416
▁asp	-6417
▁ngl	-6418
▁ste	-6419
shore	-6420
vinia	-6421
▁auto	-6422
▁cite	-6423
▁dick	-6424
▁elev	-6425
▁menu	-6426
▁span	-6427
▁swap	-6428
▁ward	-6429
antota	-6430
▁dynam	-6431
▁ghost	-6432
▁occas	-6433
▁olymp	-6434
▁evolve	-6435
▁fertil	-6436
▁output	-6437
▁reluct	-6438
stically	-6439
▁bedroom	-6440
▁chandri	-6441
▁qualify	-6442
▁countrys	-6443
▁geopolit	-6444
▁overtake	-6445
▁password	-6446
▁boyfriend	-6447
▁therapist	-6448
▁assessment	-6449
▁conference	-6450
▁occasional	-6451
▁instruction	-6452
▁disappointed	-6453
xx	-6454
car	-6455
omy	-6456
ran	-6457
yas	-6458
▁hv	-6459
lier	-6460
lose	-6461
self	-6462
sman	-6463
▁510	-6464
▁aqu	-6465
▁tel	-6466
index	-6467
itten	-6468
itute	-6469
print	-6470
▁lyce	-6471
▁reck	-6472
▁zoom	-6473
lessly	-6474
▁chath	-6475
▁coord	-6476
▁draft	-6477
▁nomad	-6478
▁pitch	-6479
▁empire	-6480
▁freely	-6481
▁mentor	-6482
▁mutual	-6483
▁scroll	-6484
▁silver	-6485
▁vulner	-6486
▁element	-6487
▁england	-6488
▁grammar	-6489
▁spotify	-6490
▁frequent	-6491
▁substant	-6492
▁talented	-6493
▁approximately	-6494
75	-6495
bb	-6496
po	-6497
sf	-6498
bud	-6499
sey	-6500
▁ib	-6501
esth	-6502
ring	-6503
sion	-6504
ston	-6505
▁sus	-6506
▁wil	-6507
ampoo	-6508
score	-6509
▁bulk	-6510
▁crop	-6511
▁dham	-6512
▁more	-6513
▁roam	-6514
▁tall	-6515
verter	-6516
▁assum	-6517
▁celeb	-6518
▁ethic	-6519
▁villa	-6520
fession	-6521
▁accomp	-6522
▁france	-6523
▁injure	-6524
▁legisl	-6525
▁packet	-6526
▁perpet	-6527
▁stance	-6528
laughing	-6529
▁lavinia	-6530
▁organic	-6531
▁unknown	-6532
▁activist	-6533
▁landlord	-6534
▁miserable	-6535
▁conspiracy	-6536
▁contractor	-6537
▁impressive	-6538
▁instrument	-6539
▁calculation	-6540
ami	-6541
enn	-6542
zel	-6543
acre	-6544
aire	-6545
erge	-6546
safe	-6547
▁900	-6548
▁bam	-6549
▁cid	-6550
apter	-6551
count	-6552
ograp	-6553
▁bore	-6554
▁orph	-6555
▁posh	-6556
▁recy	-6557
▁vice	-6558
▁wrap	-6559
unning	-6560
▁20000	-6561
▁emigr	-6562
▁academ	-6563
▁brutal	-6564
▁colomb	-6565
▁fucker	-6566
▁script	-6567
haragama	-6568
▁gazette	-6569
▁literal	-6570
▁miracle	-6571
▁outdate	-6572
▁shampoo	-6573
▁contrast	-6574
▁batalanda	-6575
▁existence	-6576
▁expertise	-6577
▁indicator	-6578
▁mechanism	-6579
▁worldwide	-6580
▁definition	-6581
▁hambantota	-6582
▁mainstream	-6583
▁peacefully	-6584
▁businessman	-6585
▁celebration	-6586
▁appreciation	-6587
ige	-6588
sin	-6589
▁48	-6590
▁ct	-6591
▁es	-6592
▁nz	-6593
kara	-6594
rase	-6595
site	-6596
stud	-6597
they	-6598
▁180	-6599
▁bis	-6600
▁cul	-6601
▁dim	-6602
▁hmm	-6603
▁lap	-6604
▁ngo	-6605
▁pov	-6606
chain	-6607
▁abus	-6608
▁bell	-6609
▁dash	-6610
▁dura	-6611
▁logo	-6612
▁moon	-6613
▁tack	-6614
▁them	-6615
▁thru	-6616
father	-6617
▁antic	-6618
▁storm	-6619
▁domain	-6620
▁portug	-6621
▁singer	-6622
ographer	-6623
standing	-6624
▁dismiss	-6625
▁dynamic	-6626
▁inherit	-6627
▁raising	-6628
▁workout	-6629
▁airlines	-6630
▁atrocity	-6631
▁boundary	-6632
▁offshore	-6633
▁teenager	-6634
▁beginning	-6635
▁chandrika	-6636
▁prominent	-6637
▁manageable	-6638
▁negotiation	-6639
33	-6640
▁69	-6641
▁78	-6642
▁mn	-6643
cott	-6644
▁ish	-6645
▁sht	-6646
▁spo	-6647
▁wet	-6648
craft	-6649
▁begg	-6650
▁dust	-6651
▁epis	-6652
▁gala	-6653
▁hort	-6654
▁pace	-6655
▁plug	-6656
▁ugly	-6657
▁zeal	-6658
rition	-6659
▁digit	-6660
▁newsw	-6661
▁novel	-6662
▁stamp	-6663
▁theme	-6664
redient	-6665
▁assure	-6666
▁better	-6667
▁harini	-6668
▁indoor	-6669
▁marine	-6670
▁sinhal	-6671
▁amongst	-6672
▁nursing	-6673
▁backhand	-6674
▁postpone	-6675
▁youtuber	-6676
▁commenter	-6677
▁conductor	-6678
▁fantastic	-6679
▁aggressive	-6680
▁economical	-6681
▁expression	-6682
▁ingredient	-6683
▁obligation	-6684
▁dissanayake	-6685
▁temperature	-6686
ii	-6687
awn	-6688
cir	-6689
rum	-6690
usd	-6691
zer	-6692
▁38	-6693
▁42	-6694
▁88	-6695
aris	-6696
eeze	-6697
rary	-6698
spot	-6699
wood	-6700
▁gce	-6701
hibit	-6702
opard	-6703
power	-6704
rator	-6705
▁asse	-6706
▁gall	-6707
▁pant	-6708
▁proc	-6709
▁sham	-6710
▁vers	-6711
circle	-6712
▁imply	-6713
▁jewel	-6714
▁stall	-6715
▁topup	-6716
▁yield	-6717
▁bucket	-6718
▁button	-6719
▁diving	-6720
▁greedy	-6721
▁humble	-6722
▁deliber	-6723
▁dispute	-6724
▁episode	-6725
▁isolate	-6726
▁israeli	-6727
▁italian	-6728
▁muslims	-6729
▁playing	-6730
▁clinical	-6731
▁petition	-6732
▁pregnant	-6733
▁thorough	-6734
▁ayurvedic	-6735
▁favourite	-6736
▁integrity	-6737
▁liability	-6738
▁migrating	-6739
▁outsource	-6740
▁personnel	-6741
▁universal	-6742
▁attendance	-6743
▁desperately	-6744
▁manufacturing	-6745
gm	-6746
ipp	-6747
▁bb	-6748
▁du	-6749
▁qr	-6750
keep	-6751
part	-6752
▁ker	-6753
▁oya	-6754
▁pta	-6755
apura	-6756
eness	-6757
llion	-6758
obile	-6759
▁alto	-6760
▁ange	-6761
▁carg	-6762
▁dign	-6763
▁dive	-6764
▁keel	-6765
▁unst	-6766
aratne	-6767
parent	-6768
▁basil	-6769
▁furth	-6770
▁prabh	-6771
▁rajag	-6772
▁seems	-6773
raction	-6774
reshold	-6775
▁deputy	-6776
▁ladder	-6777
▁length	-6778
▁nanote	-6779
▁retain	-6780
▁square	-6781
▁bailout	-6782
▁finding	-6783
▁frankly	-6784
▁mission	-6785
▁confront	-6786
▁preserve	-6787
▁applicant	-6788
▁stabilize	-6789
▁threshold	-6790
▁accountant	-6791
▁incredible	-6792
▁accordingly	-6793
▁intelligent	-6794
▁photography	-6795
yr	-6796
gip	-6797
sri	-6798
▁qa	-6799
ende	-6800
food	-6801
osis	-6802
▁joy	-6803
▁lob	-6804
▁pos	-6805
▁wht	-6806
aging	-6807
inton	-6808
▁abey	-6809
▁cope	-6810
▁vent	-6811
finger	-6812
holder	-6813
soever	-6814
▁ambul	-6815
▁apiit	-6816
▁caste	-6817
▁parad	-6818
ctional	-6819
ommerce	-6820
▁creepy	-6821
▁divers	-6822
▁emerge	-6823
▁format	-6824
▁gifgip	-6825
▁concent	-6826
▁elderly	-6827
▁outrage	-6828
▁relieve	-6829
▁zealand	-6830
▁champion	-6831
▁creditor	-6832
▁hardship	-6833
▁humanity	-6834
▁mistaken	-6835
▁perceive	-6836
▁sirisena	-6837
▁speaking	-6838
▁tolerate	-6839
▁dedicated	-6840
▁honeymoon	-6841
▁enthusiast	-6842
▁maharagama	-6843
▁whatsoever	-6844
▁overwhelming	-6845
mc	-6846
sun	-6847
uba	-6848
▁05	-6849
dark	-6850
hill	-6851
oker	-6852
sher	-6853
▁225	-6854
▁adm	-6855
▁etf	-6856
▁gal	-6857
▁saw	-6858
▁soe	-6859
▁sue	-6860
▁yog	-6861
ected	-6862
icker	-6863
ottle	-6864
▁2008	-6865
▁4000	-6866
▁blog	-6867
▁chee	-6868
▁coup	-6869
▁devs	-6870
▁loot	-6871
borate	-6872
▁domin	-6873
▁paran	-6874
▁river	-6875
▁scrap	-6876
▁excite	-6877
▁flavor	-6878
▁occupy	-6879
▁orange	-6880
▁bastard	-6881
▁cycling	-6882
▁depress	-6883
▁handful	-6884
▁happily	-6885
▁launder	-6886
ructuring	-6887
▁checkout	-6888
▁creation	-6889
▁maturity	-6890
▁socially	-6891
▁nightlife	-6892
▁experiment	-6893
▁smartphone	-6894
▁drastically	-6895
▁reliability	-6896
cri	-6897
gic	-6898
lay	-6899
osy	-6900
uki	-6901
▁67	-6902
▁bf	-6903
aree	-6904
home	-6905
inda	-6906
rite	-6907
▁130	-6908
▁bmw	-6909
▁gpu	-6910
▁has	-6911
▁peg	-6912
▁vij	-6913
ainty	-6914
arath	-6915
gally	-6916
utale	-6917
▁acca	-6918
▁hygi	-6919
▁inqu	-6920
▁maps	-6921
▁obst	-6922
▁ramp	-6923
▁abans	-6924
▁blast	-6925
▁insta	-6926
▁intim	-6927
▁knock	-6928
▁reloc	-6929
unegala	-6930
▁closed	-6931
▁horton	-6932
▁jungle	-6933
▁lyceum	-6934
▁obsess	-6935
▁postal	-6936
▁ritual	-6937
▁safely	-6938
▁coastal	-6939
▁compuls	-6940
▁diverse	-6941
▁embrace	-6942
▁exagger	-6943
▁haircut	-6944
▁rebuild	-6945
▁chairman	-6946
▁newswire	-6947
▁organise	-6948
▁outright	-6949
▁outsider	-6950
▁overtime	-6951
▁survival	-6952
▁guideline	-6953
▁ignorance	-6954
▁integrate	-6955
▁judgement	-6956
▁normalize	-6957
▁objective	-6958
▁orphanage	-6959
▁recruiter	-6960
▁collective	-6961
▁limitation	-6962
▁motivation	-6963
▁freelancing	-6964
▁temporarily	-6965
▁transparent	-6966
300	-6967
boo	-6968
etc	-6969
ste	-6970
▁cz	-6971
▁nc	-6972
attu	-6973
hour	-6974
oral	-6975
quit	-6976
well	-6977
▁110	-6978
▁cad	-6979
▁cfa	-6980
▁lee	-6981
▁carn	-6982
▁pers	-6983
▁scum	-6984
▁sink	-6985
▁yell	-6986
▁perch	-6987
▁punch	-6988
▁theat	-6989
atively	-6990
▁airbnb	-6991
▁atmosp	-6992
▁butter	-6993
▁enroll	-6994
▁inject	-6995
▁prompt	-6996
▁blindly	-6997
▁cargill	-6998
▁combank	-6999
▁dumbass	-7000
▁founder	-7001
▁leftist	-7002
▁sticker	-7003
▁drinking	-7004
▁inverter	-7005
▁tracking	-7006
▁ultimate	-7007
▁authorize	-7008
▁diversity	-7009
▁assumption	-7010
▁conversion	-7011
▁perception	-7012
▁considerable	-7013
▁discriminate	-7014
▁photographer	-7015
▁disappointing	-7016
▁mismanagement	-7017
▁restructuring	-7018
21	-7019
29	-7020
aj	-7021
oa	-7022
yl	-7023
asy	-7024
met	-7025
▁bh	-7026
demn	-7027
mine	-7028
quer	-7029
stop	-7030
▁ira	-7031
▁suz	-7032
endar	-7033
hance	-7034
using	-7035
▁2005	-7036
▁athe	-7037
▁blat	-7038
▁inch	-7039
▁neck	-7040
▁tiss	-7041
▁trop	-7042
laimer	-7043
unicip	-7044
urance	-7045
▁actor	-7046
▁brill	-7047
▁depth	-7048
▁reset	-7049
▁sharp	-7050
▁truck	-7051
▁vezel	-7052
rection	-7053
▁browse	-7054
▁dining	-7055
▁guitar	-7056
▁layoff	-7057
▁overly	-7058
▁poorly	-7059
▁recall	-7060
▁string	-7061
▁tackle	-7062
lication	-7063
▁african	-7064
▁cartoon	-7065
▁condemn	-7066
▁dignity	-7067
▁melting	-7068
▁offence	-7069
▁paralle	-7070
▁premier	-7071
▁haputale	-7072
▁leverage	-7073
▁throttle	-7074
▁timeline	-7075
▁ecommerce	-7076
▁everytime	-7077
▁pohottuwa	-7078
▁appearance	-7079
▁disclaimer	-7080
▁kurunegala	-7081
▁respective	-7082
▁srilankans	-7083
▁prabhakaran	-7084
▁psychologist	-7085
▁inconvenience	-7086
eaf	-7087
nes	-7088
oka	-7089
ris	-7090
udi	-7091
vil	-7092
▁pd	-7093
▁tn	-7094
ador	-7095
lash	-7096
orie	-7097
rify	-7098
uese	-7099
▁cct	-7100
▁omg	-7101
▁pid	-7102
▁wis	-7103
ounge	-7104
▁fasc	-7105
▁inev	-7106
▁kong	-7107
▁nazi	-7108
arette	-7109
roller	-7110
utical	-7111
vision	-7112
▁chunk	-7113
▁essay	-7114
▁float	-7115
▁giant	-7116
▁greed	-7117
▁karma	-7118
▁layer	-7119
▁sneak	-7120
▁straw	-7121
▁twist	-7122
▁boring	-7123
▁costly	-7124
▁fabric	-7125
▁genius	-7126
▁gentle	-7127
▁kumara	-7128
▁liquor	-7129
▁nandal	-7130
▁prepay	-7131
▁societ	-7132
▁unsafe	-7133
▁wisely	-7134
▁biscuit	-7135
▁enhance	-7136
▁execute	-7137
▁fresher	-7138
▁gampaha	-7139
▁hangout	-7140
▁postgra	-7141
squinting	-7142
▁credible	-7143
▁homophob	-7144
▁kindness	-7145
▁massacre	-7146
▁optional	-7147
▁overlook	-7148
▁rational	-7149
▁elaborate	-7150
▁motorbike	-7151
▁credibility	-7152
▁grandparent	-7153
▁instability	-7154
▁agricultural	-7155
aly	-7156
gam	-7157
van	-7158
▁03	-7159
gain	-7160
▁ccc	-7161
▁dip	-7162
▁reb	-7163
▁2012	-7164
▁belt	-7165
▁cctv	-7166
▁clip	-7167
▁ielt	-7168
▁mbbs	-7169
▁nose	-7170
▁watt	-7171
geable	-7172
minton	-7173
▁arise	-7174
▁crypt	-7175
▁ruler	-7176
▁saree	-7177
▁unexp	-7178
▁viral	-7179
conomic	-7180
ievable	-7181
▁breach	-7182
▁detain	-7183
▁doable	-7184
▁galaxy	-7185
▁helped	-7186
▁japura	-7187
▁suzuki	-7188
▁wisdom	-7189
▁zscore	-7190
esthetic	-7191
▁boycott	-7192
▁cashier	-7193
▁charter	-7194
▁closely	-7195
▁fulfill	-7196
▁staying	-7197
▁surface	-7198
▁sympath	-7199
▁theatre	-7200
▁torrent	-7201
▁compound	-7202
▁parallel	-7203
▁unstable	-7204
▁brainwash	-7205
▁cigarette	-7206
▁exemption	-7207
▁indonesia	-7208
▁nutrition	-7209
▁pointless	-7210
▁sovereign	-7211
▁altogether	-7212
▁blockchain	-7213
▁compulsory	-7214
▁fertilizer	-7215
▁portuguese	-7216
▁bureaucracy	-7217
▁partnership	-7218
▁accidentally	-7219
▁continuously	-7220
▁historically	-7221
▁clarification	-7222
27	-7223
irc	-7224
▁mt	-7225
ethe	-7226
igen	-7227
mble	-7228
orse	-7229
star	-7230
thon	-7231
▁amd	-7232
▁dhl	-7233
▁kil	-7234
▁spa	-7235
ished	-7236
kward	-7237
state	-7238
stone	-7239
▁amid	-7240
▁bury	-7241
▁econ	-7242
▁icon	-7243
▁toll	-7244
ermore	-7245
▁bench	-7246
▁brush	-7247
▁crony	-7248
▁greet	-7249
▁gross	-7250
▁lobby	-7251
usation	-7252
▁onsite	-7253
▁uncert	-7254
urangala	-7255
▁backend	-7256
▁immense	-7257
▁inquiry	-7258
▁logical	-7259
▁magnite	-7260
▁premise	-7261
▁shelter	-7262
▁utilize	-7263
▁israelis	-7264
▁lockdown	-7265
▁motivate	-7266
▁paycheck	-7267
▁secondly	-7268
▁shoulder	-7269
▁tropical	-7270
▁wherever	-7271
▁badminton	-7272
▁exclusive	-7273
▁extensive	-7274
▁illegally	-7275
▁prosecute	-7276
▁technique	-7277
▁underpaid	-7278
▁atmosphere	-7279
▁attraction	-7280
▁irrelevant	-7281
▁occupation	-7282
▁rajagiriya	-7283
▁furthermore	-7284
▁recruitment	-7285
▁consultation	-7286
▁controversial	-7287
▁understandable	-7288
vi	-7289
arn	-7290
bow	-7291
boy	-7292
chi	-7293
eng	-7294
equ	-7295
ona	-7296
▁pg	-7297
harm	-7298
ingu	-7299
mavo	-7300
omed	-7301
west	-7302
▁bol	-7303
▁few	-7304
▁hid	-7305
▁lan	-7306
▁ner	-7307
ithub	-7308
odate	-7309
uting	-7310
wheel	-7311
▁asus	-7312
▁bend	-7313
▁bust	-7314
▁cunt	-7315
▁dose	-7316
▁gone	-7317
▁hiru	-7318
▁samb	-7319
▁tent	-7320
▁tuks	-7321
▁vitz	-7322
▁fiver	-7323
▁horse	-7324
▁skept	-7325
▁stere	-7326
▁traum	-7327
▁beggar	-7328
▁garage	-7329
▁infect	-7330
▁jersey	-7331
▁jewell	-7332
▁kitten	-7333
▁korean	-7334
▁malabe	-7335
▁philos	-7336
▁trinco	-7337
▁weekly	-7338
▁awkward	-7339
▁grandma	-7340
▁migrant	-7341
▁municip	-7342
▁nanotek	-7343
▁pensive	-7344
▁rapidly	-7345
▁taxable	-7346
▁dominate	-7347
▁feminism	-7348
▁historic	-7349
▁misunder	-7350
balapitiya	-7351
▁aesthetic	-7352
▁instantly	-7353
▁intellect	-7354
▁pakistani	-7355
▁strategic	-7356
▁accusation	-7357
▁distribute	-7358
▁prediction	-7359
▁inefficient	-7360
▁uncertainty	-7361
bee	-7362
ers	-7363
few	-7364
nis	-7365
rat	-7366
▁iq	-7367
▁ry	-7368
llor	-7369
▁hil	-7370
▁jam	-7371
▁sme	-7372
▁uno	-7373
izing	-7374
orker	-7375
▁bold	-7376
▁brag	-7377
▁grim	-7378
▁iirc	-7379
▁imax	-7380
▁phen	-7381
income	-7382
ritory	-7383
▁adida	-7384
▁loser	-7385
▁prize	-7386
▁trace	-7387
▁uncon	-7388
▁unrel	-7389
osexual	-7390
▁before	-7391
▁bitter	-7392
▁github	-7393
▁injury	-7394
▁medioc	-7395
▁tongue	-7396
▁unpaid	-7397
arantine	-7398
▁academy	-7399
▁bargain	-7400
▁bloated	-7401
▁desktop	-7402
▁federal	-7403
▁glorify	-7404
▁hotspot	-7405
▁infront	-7406
▁inquire	-7407
▁kandyan	-7408
▁leopard	-7409
▁specify	-7410
▁summary	-7411
▁suspend	-7412
▁unusual	-7413
▁clapping	-7414
▁animation	-7415
▁classmate	-7416
▁criticise	-7417
▁reluctant	-7418
▁similarly	-7419
▁territory	-7420
▁compensate	-7421
▁engagement	-7422
▁pidurangala	-7423
▁unrealistic	-7424
▁occasionally	-7425
36	-7426
hrs	-7427
iva	-7428
▁bn	-7429
▁df	-7430
▁ds	-7431
▁nv	-7432
gard	-7433
mind	-7434
pass	-7435
ppet	-7436
rive	-7437
▁caf	-7438
▁dod	-7439
▁dol	-7440
▁yrs	-7441
ayake	-7442
guard	-7443
licit	-7444
rence	-7445
▁bash	-7446
▁cock	-7447
▁dept	-7448
▁flip	-7449
▁halt	-7450
▁hong	-7451
▁pave	-7452
▁subt	-7453
▁devop	-7454
▁fonse	-7455
▁gover	-7456
▁hamas	-7457
▁login	-7458
▁shell	-7459
▁spray	-7460
forward	-7461
▁cheese	-7462
▁grandm	-7463
▁inland	-7464
▁python	-7465
▁sigiry	-7466
▁spirit	-7467
▁waving	-7468
▁captain	-7469
▁carrier	-7470
▁garment	-7471
▁illness	-7472
▁passive	-7473
▁squeeze	-7474
fessional	-7475
▁administ	-7476
▁arrogant	-7477
▁boarding	-7478
▁gifgiphy	-7479
▁havelock	-7480
▁insanely	-7481
▁merchant	-7482
▁palestine	-7483
▁sinharaja	-7484
▁unrelated	-7485
▁functional	-7486
▁privileged	-7487
▁quarantine	-7488
▁arrangement	-7489
▁conditioner	-7490
▁substantial	-7491
▁manipulation	-7492
28	-7493
can	-7494
igo	-7495
mma	-7496
▁az	-7497
▁if	-7498
▁ww	-7499
anut	-7500
cere	-7501
unga	-7502
unge	-7503
▁pek	-7504
▁pit	-7505
▁tue	-7506
ensus	-7507
orney	-7508
▁hook	-7509
▁thur	-7510
▁tile	-7511
▁unac	-7512
▁clock	-7513
▁craft	-7514
▁meant	-7515
▁sheer	-7516
▁strip	-7517
▁vital	-7518
▁women	-7519
justice	-7520
▁aswell	-7521
▁calcul	-7522
▁liable	-7523
▁lounge	-7524
▁parade	-7525
▁planet	-7526
▁poison	-7527
▁prayer	-7528
▁retard	-7529
▁summer	-7530
▁tailor	-7531
▁timing	-7532
▁victor	-7533
▁anxious	-7534
▁conquer	-7535
▁fishing	-7536
▁generic	-7537
▁hopeful	-7538
▁knowled	-7539
▁looking	-7540
▁sparkle	-7541
▁upfront	-7542
▁clueless	-7543
▁disclose	-7544
▁exporter	-7545
▁sightsee	-7546
▁terminal	-7547
▁apologize	-7548
▁diversify	-7549
▁excessive	-7550
▁goverment	-7551
▁policeman	-7552
▁signature	-7553
▁allocation	-7554
▁expressway	-7555
▁resistance	-7556
▁vulnerable	-7557
▁demographic	-7558
▁middleclass	-7559
▁nationality	-7560
bn	-7561
400	-7562
sal	-7563
▁ek	-7564
▁pf	-7565
anga	-7566
gate	-7567
iger	-7568
oooo	-7569
▁api	-7570
▁byp	-7571
▁dow	-7572
▁kap	-7573
▁sid	-7574
▁syn	-7575
ilipp	-7576
inity	-7577
plate	-7578
▁2027	-7579
▁beef	-7580
▁cure	-7581
▁goto	-7582
▁mood	-7583
▁pinn	-7584
▁spin	-7585
▁unbi	-7586
▁curse	-7587
▁facil	-7588
▁grasp	-7589
▁guilt	-7590
▁pekoe	-7591
▁spoil	-7592
million	-7593
▁boomer	-7594
▁exclus	-7595
▁fiscal	-7596
▁hitler	-7597
▁kidney	-7598
▁nether	-7599
▁abusive	-7600
▁counsel	-7601
▁empathy	-7602
▁endorse	-7603
▁funeral	-7604
▁killing	-7605
▁millenn	-7606
▁philipp	-7607
▁radical	-7608
▁restore	-7609
▁stereot	-7610
▁attorney	-7611
▁audacity	-7612
▁downfall	-7613
▁nandalal	-7614
▁societal	-7615
mediumdark	-7616
▁recording	-7617
▁shortterm	-7618
▁spiritual	-7619
▁netherland	-7620
▁yahapalana	-7621
▁opportunitie	-7622
▁representation	-7623
ng	-7624
150	-7625
fin	-7626
hen	-7627
jan	-7628
▁57	-7629
▁89	-7630
▁ku	-7631
▁os	-7632
1000	-7633
amed	-7634
anka	-7635
mika	-7636
ophy	-7637
pret	-7638
▁afg	-7639
▁dum	-7640
▁jes	-7641
▁kfc	-7642
▁ltd	-7643
▁mcd	-7644
▁carb	-7645
▁cond	-7646
▁pipe	-7647
▁resc	-7648
▁weer	-7649
liment	-7650
school	-7651
▁30000	-7652
▁combo	-7653
▁fluct	-7654
▁penny	-7655
▁rival	-7656
lighten	-7657
▁dental	-7658
▁fulfil	-7659
▁inferi	-7660
▁outfit	-7661
▁phrase	-7662
▁pirate	-7663
▁priest	-7664
▁stripe	-7665
▁tender	-7666
▁badulla	-7667
▁forgive	-7668
▁mileage	-7669
▁mosquit	-7670
▁outlook	-7671
▁renewal	-7672
▁sincere	-7673
▁washing	-7674
▁winking	-7675
▁casually	-7676
▁coworker	-7677
▁mortgage	-7678
▁skincare	-7679
▁workload	-7680
▁brilliant	-7681
▁computing	-7682
▁enlighten	-7683
▁inclusive	-7684
▁judiciary	-7685
▁resolution	-7686
▁grandfather	-7687
▁advertisement	-7688
▁specialization	-7689
ml	-7690
bar	-7691
bly	-7692
dly	-7693
rad	-7694
rot	-7695
▁46	-7696
▁sr	-7697
agra	-7698
alam	-7699
enez	-7700
erry	-7701
rete	-7702
sale	-7703
this	-7704
▁luc	-7705
▁peo	-7706
▁ruh	-7707
abase	-7708
anaya	-7709
▁1990	-7710
▁2013	-7711
▁bean	-7712
▁crew	-7713
▁cute	-7714
▁dell	-7715
▁goss	-7716
▁nerv	-7717
▁pred	-7718
▁ramb	-7719
▁remo	-7720
▁repe	-7721
▁tale	-7722
igious	-7723
▁accum	-7724
▁payer	-7725
▁seize	-7726
▁seven	-7727
▁slide	-7728
▁stake	-7729
▁theft	-7730
▁tiger	-7731
▁unbel	-7732
▁freeze	-7733
▁merely	-7734
▁vanish	-7735
▁firstly	-7736
▁fonseka	-7737
▁loyalty	-7738
▁prefect	-7739
▁renting	-7740
▁scandal	-7741
▁weekday	-7742
stitution	-7743
▁dedicate	-7744
▁hesitate	-7745
▁mediocre	-7746
▁patience	-7747
▁pleading	-7748
▁sensible	-7749
▁severely	-7750
▁unbiased	-7751
▁incorrect	-7752
▁injustice	-7753
▁massively	-7754
▁substance	-7755
▁competitor	-7756
▁convention	-7757
▁philippine	-7758
▁scientific	-7759
47	-7760
etf	-7761
hat	-7762
sla	-7763
tra	-7764
unu	-7765
war	-7766
▁fm	-7767
amin	-7768
iran	-7769
irst	-7770
show	-7771
▁140	-7772
▁bcs	-7773
▁vid	-7774
angar	-7775
ducer	-7776
ketch	-7777
oking	-7778
onald	-7779
▁clan	-7780
▁exor	-7781
▁maha	-7782
▁myst	-7783
▁thai	-7784
▁whey	-7785
around	-7786
health	-7787
▁damro	-7788
▁delus	-7789
▁eager	-7790
▁groom	-7791
▁lover	-7792
▁plaza	-7793
▁salon	-7794
▁unreg	-7795
iterate	-7796
versary	-7797
▁bypass	-7798
▁county	-7799
▁curfew	-7800
▁deploy	-7801
▁exempt	-7802
▁flower	-7803
▁outage	-7804
▁ravana	-7805
▁shield	-7806
▁sketch	-7807
▁concert	-7808
▁manipul	-7809
▁ranking	-7810
▁relaxed	-7811
▁removal	-7812
▁satisfy	-7813
▁upwards	-7814
▁judgment	-7815
▁mosquito	-7816
▁prohibit	-7817
▁repeated	-7818
▁saluting	-7819
▁sirimavo	-7820
▁addiction	-7821
▁magically	-7822
▁viewpoint	-7823
▁beforehand	-7824
▁delusional	-7825
▁indirectly	-7826
▁snorkeling	-7827
▁exceptional	-7828
▁grandmother	-7829
▁problematic	-7830
▁insurrection	-7831
▁authoritarian	-7832
▁knowledgeable	-7833
▁straightforward	-7834
adh	-7835
mal	-7836
thi	-7837
umn	-7838
▁77	-7839
call	-7840
fere	-7841
mail	-7842
orge	-7843
▁bak	-7844
▁iam	-7845
▁row	-7846
ities	-7847
rated	-7848
sided	-7849
▁dram	-7850
▁fuss	-7851
▁gamb	-7852
▁lets	-7853
▁mega	-7854
▁rath	-7855
▁swed	-7856
▁unav	-7857
awatte	-7858
button	-7859
nesday	-7860
sunami	-7861
▁arbit	-7862
▁blank	-7863
▁bootl	-7864
▁humid	-7865
▁indie	-7866
▁jesus	-7867
▁lotus	-7868
▁naive	-7869
▁pearl	-7870
▁shade	-7871
▁thero	-7872
▁thick	-7873
▁uneth	-7874
▁volat	-7875
▁wound	-7876
▁biased	-7877
▁foster	-7878
▁gossip	-7879
▁horror	-7880
▁intent	-7881
▁invent	-7882
▁manual	-7883
▁peanut	-7884
▁twenty	-7885
▁unrest	-7886
▁yearly	-7887
▁alleged	-7888
▁calorie	-7889
▁charger	-7890
▁clarity	-7891
▁harmful	-7892
▁hygiene	-7893
▁ikmanlk	-7894
▁luckily	-7895
▁mindful	-7896
▁portray	-7897
▁battaram	-7898
▁dissolve	-7899
▁phenomen	-7900
▁powercut	-7901
▁showcase	-7902
▁standing	-7903
▁workshop	-7904
▁municipal	-7905
▁residency	-7906
▁terminate	-7907
▁continuous	-7908
▁controller	-7909
▁regulatory	-7910
▁repeatedly	-7911
▁advertising	-7912
▁fingerprint	-7913
▁accomodation	-7914
▁ridiculously	-7915
gb	-7916
nn	-7917
fty	-7918
uni	-7919
▁''	-7920
▁eb	-7921
▁ny	-7922
▁rm	-7923
2025	-7924
crow	-7925
mony	-7926
risy	-7927
▁ast	-7928
▁huh	-7929
▁ogf	-7930
▁reh	-7931
adura	-7932
uriya	-7933
wella	-7934
▁atte	-7935
▁best	-7936
▁hint	-7937
▁maid	-7938
▁mart	-7939
▁orth	-7940
▁poya	-7941
▁ratn	-7942
▁stir	-7943
advant	-7944
atable	-7945
ective	-7946
sonate	-7947
▁alien	-7948
▁bored	-7949
▁delic	-7950
▁hatch	-7951
▁petty	-7952
▁swing	-7953
▁	-7954
e	-7955
a	-7956
t	-7957
o	-7958
n	-7959
i	-7960
r	-7961
l	-7962
s	-7963
c	-7964
d	-7965
p	-7966
u	-7967
m	-7968
h	-7969
y	-7970
g	-7971
k	-7972
w	-7973
f	-7974
b	-7975
v	-7976
x	-7977
0	-7978
'	-7979
j	-7980
2	-7981
1	-7982
_	-7983
q	-7984
5	-7985
z	-7986
3	-7987
I	-7988
4	-7989
6	-7990
9	-7991
8	-7992
7	-7993
න	-7994
ක	-7995
ම	-7996
