<unk>	0
<s>	0
</s>	0
▁s	-0
▁c	-1
in	-2
re	-3
▁p	-4
an	-5
on	-6
er	-7
▁l	-8
▁t	-9
en	-10
al	-11
at	-12
▁m	-13
ar	-14
▁d	-15
▁g	-16
▁f	-17
it	-18
or	-19
▁a	-20
▁b	-21
le	-22
▁w	-23
st	-24
ic	-25
▁h	-26
▁e	-27
ion	-28
ri	-29
ly	-30
▁co	-31
▁re	-32
ve	-33
ent	-34
un	-35
ro	-36
▁n	-37
ce	-38
ay	-39
se	-40
oo	-41
▁in	-42
ct	-43
el	-44
op	-45
ke	-46
ss	-47
▁st	-48
ing	-49
ank	-50
il	-51
me	-52
▁li	-53
ra	-54
ate	-55
et	-56
id	-57
▁th	-58
ow	-59
ur	-60
ge	-61
ol	-62
ot	-63
ig	-64
is	-65
▁de	-66
mp	-67
ation	-68
▁k	-69
ch	-70
ed	-71
ea	-72
us	-73
▁sri	-74
om	-75
ry	-76
▁pro	-77
▁lank	-78
ut	-79
▁ex	-80
pp	-81
ment	-82
ver	-83
▁ch	-84
end	-85
ear	-86
ul	-87
▁like	-88
ort	-89
ood	-90
▁v	-91
ity	-92
la	-93
▁go	-94
ice	-95
▁ne	-96
ant	-97
▁con	-98
ad	-99
and	-100
ff	-101
▁su	-102
▁y	-103
ble	-104
▁un	-105
▁pe	-106
ally	-107
ine	-108
▁good	-109
ck	-110
am	-111
▁o	-112
▁lanka	-113
ople	-114
▁people	-115
▁i	-116
▁wor	-117
▁r	-118
ci	-119
ue	-120
▁j	-121
▁kn	-122
unt	-123
▁know	-124
art	-125
▁sh	-126
ell	-127
are	-128
as	-129
ive	-130
▁u	-131
pe	-132
ud	-133
▁ti	-134
ink	-135
ind	-136
▁se	-137
ht	-138
▁mon	-139
▁lo	-140
▁po	-141
▁comp	-142
ist	-143
▁ma	-144
▁work	-145
age	-146
ook	-147
▁think	-148
▁ad	-149
th	-150
▁exp	-151
ir	-152
▁time	-153
uy	-154
ter	-155
nt	-156
ure	-157
▁op	-158
um	-159
▁count	-160
▁pre	-161
▁need	-162
▁ta	-163
▁so	-164
all	-165
▁get	-166
▁di	-167
der	-168
ance	-169
ence	-170
ard	-171
▁country	-172
▁app	-173
▁pl	-174
co	-175
te	-176
du	-177
▁want	-178
fe	-179
▁ha	-180
▁year	-181
ill	-182
▁pay	-183
▁sl	-184
▁fa	-185
▁col	-186
▁per	-187
▁tra	-188
ide	-189
ey	-190
im	-191
bo	-192
▁me	-193
▁look	-194
▁sp	-195
ree	-196
ou	-197
ru	-198
ase	-199
▁en	-200
ite	-201
ob	-202
qu	-203
▁ac	-204
▁pa	-205
▁ri	-206
able	-207
▁com	-208
ie	-209
vel	-210
▁thing	-211
▁fe	-212
ght	-213
▁rec	-214
▁we	-215
▁pol	-216
ult	-217
ber	-218
lace	-219
ong	-220
▁as	-221
▁day	-222
▁try	-223
ore	-224
▁lankan	-225
sh	-226
▁come	-227
ction	-228
eri	-229
ary	-230
ign	-231
ap	-232
▁hel	-233
ombo	-234
lo	-235
rent	-236
one	-237
vern	-238
any	-239
▁help	-240
▁ro	-241
ip	-242
▁place	-243
▁govern	-244
if	-245
▁ra	-246
ous	-247
▁find	-248
▁colombo	-249
ia	-250
▁ve	-251
int	-252
ab	-253
▁not	-254
▁adv	-255
ish	-256
▁government	-257
▁pr	-258
▁stud	-259
▁way	-260
▁le	-261
▁res	-262
igh	-263
▁thank	-264
orm	-265
ath	-266
▁new	-267
▁mar	-268
ical	-269
▁money	-270
▁start	-271
▁buy	-272
iz	-273
▁man	-274
▁act	-275
son	-276
ket	-277
▁say	-278
▁uni	-279
▁sa	-280
▁ho	-281
▁month	-282
▁well	-283
▁tax	-284
pt	-285
gree	-286
▁inter	-287
und	-288
▁tr	-289
▁ind	-290
▁experi	-291
od	-292
▁job	-293
dit	-294
▁imp	-295
▁experience	-296
▁cur	-297
up	-298
con	-299
▁bus	-300
▁high	-301
old	-302
ire	-303
▁guy	-304
ight	-305
▁use	-306
▁lea	-307
▁la	-308
ans	-309
ect	-310
▁happ	-311
ta	-312
▁rel	-313
port	-314
ually	-315
▁plan	-316
ange	-317
▁person	-318
ily	-319
▁te	-320
▁do	-321
▁off	-322
▁vis	-323
▁fri	-324
per	-325
sid	-326
▁right	-327
▁eng	-328
▁company	-329
▁price	-330
ub	-331
▁ph	-332
▁don	-333
ust	-334
▁sc	-335
em	-336
▁ask	-337
vers	-338
▁dis	-339
▁comm	-340
cial	-341
▁pri	-342
▁dec	-343
▁feel	-344
▁lot	-345
ick	-346
▁ab	-347
▁sch	-348
▁inf	-349
▁us	-350
▁friend	-351
▁see	-352
▁part	-353
ise	-354
▁life	-355
ian	-356
que	-357
reat	-358
▁spe	-359
▁al	-360
▁gen	-361
ild	-362
▁loc	-363
ast	-364
▁br	-365
▁car	-366
▁live	-367
ool	-368
ote	-369
ma	-370
stion	-371
ful	-372
▁id	-373
omm	-374
▁inc	-375
▁post	-376
▁diff	-377
▁qu	-378
▁iss	-379
▁issue	-380
▁happen	-381
▁polit	-382
cy	-383
▁ar	-384
▁med	-385
▁ele	-386
ty	-387
▁current	-388
▁let	-389
cess	-390
▁bad	-391
tion	-392
▁fin	-393
▁long	-394
▁bank	-395
▁degree	-396
es	-397
og	-398
vest	-399
▁intern	-400
▁fi	-401
ep	-402
▁mo	-403
iv	-404
ommend	-405
▁recommend	-406
▁invest	-407
▁sm	-408
be	-409
▁under	-410
▁et	-411
ctor	-412
line	-413
▁supp	-414
▁gro	-415
▁at	-416
de	-417
▁hear	-418
▁sure	-419
rea	-420
▁inst	-421
▁or	-422
lic	-423
▁sal	-424
▁hi	-425
▁cont	-426
ang	-427
▁reg	-428
urn	-429
ren	-430
▁travel	-431
▁ser	-432
pect	-433
▁mean	-434
▁etc	-435
ala	-436
▁fore	-437
▁cor	-438
iness	-439
▁school	-440
ory	-441
▁ca	-442
use	-443
▁tea	-444
rest	-445
▁univers	-446
▁econ	-447
▁cl	-448
count	-449
ress	-450
▁local	-451
▁che	-452
▁min	-453
uth	-454
ower	-455
ead	-456
▁fam	-457
▁ear	-458
ric	-459
ute	-460
ship	-461
▁bu	-462
▁econom	-463
▁real	-464
▁change	-465
▁university	-466
▁sub	-467
▁give	-468
ag	-469
oc	-470
▁take	-471
ual	-472
▁hop	-473
alk	-474
▁dep	-475
▁que	-476
▁business	-477
▁student	-478
▁dri	-479
▁end	-480
ible	-481
▁cla	-482
▁market	-483
▁cost	-484
atch	-485
▁diffe	-486
▁an	-487
▁care	-488
ial	-489
mber	-490
▁tell	-491
earn	-492
▁learn	-493
ize	-494
ically	-495
uck	-496
▁sy	-497
ord	-498
ail	-499
▁inte	-500
▁advice	-501
▁sin	-502
▁hard	-503
▁to	-504
vice	-505
ek	-506
▁love	-507
▁ent	-508
▁rep	-509
own	-510
orth	-511
▁trans	-512
▁tou	-513
▁kind	-514
▁im	-515
ational	-516
▁option	-517
come	-518
▁cre	-519
▁priv	-520
▁visit	-521
▁account	-522
stand	-523
▁actually	-524
▁sug	-525
ne	-526
ciate	-527
arent	-528
▁aw	-529
▁week	-530
▁interest	-531
▁family	-532
icle	-533
ject	-534
▁sinh	-535
ense	-536
▁sit	-537
▁bro	-538
▁ter	-539
▁question	-540
▁gener	-541
▁ins	-542
ssion	-543
▁wr	-544
▁check	-545
▁ag	-546
ition	-547
get	-548
▁point	-549
▁understand	-550
▁power	-551
▁lit	-552
ious	-553
▁study	-554
ason	-555
blem	-556
▁for	-557
ude	-558
▁problem	-559
▁sugge	-560
▁old	-561
▁ru	-562
ative	-563
▁foreign	-564
act	-565
ital	-566
ility	-567
▁on	-568
sider	-569
oll	-570
▁service	-571
▁salary	-572
▁vote	-573
▁reason	-574
reciate	-575
unity	-576
▁great	-577
eak	-578
▁ment	-579
cially	-580
duc	-581
▁bud	-582
▁make	-583
arge	-584
▁big	-585
▁idea	-586
▁recent	-587
▁av	-588
▁consider	-589
tle	-590
▁cour	-591
▁jo	-592
ific	-593
▁gra	-594
▁bit	-595
▁hand	-596
▁free	-597
ale	-598
▁educ	-599
▁sk	-600
amil	-601
▁may	-602
▁be	-603
▁engine	-604
▁support	-605
▁leave	-606
▁hope	-607
▁tamil	-608
sp	-609
ably	-610
mple	-611
▁import	-612
▁appreciate	-613
▁pub	-614
▁talk	-615
▁ass	-616
ft	-617
▁stay	-618
▁ev	-619
▁maybe	-620
eal	-621
▁up	-622
▁private	-623
gra	-624
lish	-625
▁bas	-626
▁different	-627
ld	-628
▁lk	-629
▁out	-630
▁build	-631
▁veh	-632
ater	-633
▁law	-634
▁par	-635
stem	-636
ile	-637
▁eas	-638
▁over	-639
▁vehicle	-640
ster	-641
iew	-642
▁shit	-643
▁online	-644
ack	-645
▁politic	-646
▁low	-647
▁is	-648
uation	-649
▁system	-650
fer	-651
▁party	-652
ain	-653
ens	-654
ya	-655
▁base	-656
ouse	-657
▁face	-658
▁qual	-659
ame	-660
▁war	-661
▁pret	-662
▁engineer	-663
▁home	-664
▁state	-665
▁sol	-666
▁parent	-667
os	-668
▁def	-669
▁read	-670
▁aff	-671
▁ext	-672
▁call	-673
▁class	-674
▁open	-675
▁touri	-676
▁share	-677
▁mat	-678
▁income	-679
▁world	-680
▁tru	-681
▁spend	-682
▁public	-683
▁cle	-684
▁situation	-685
▁sur	-686
rupt	-687
▁area	-688
▁card	-689
ution	-690
▁will	-691
▁sell	-692
▁bel	-693
▁es	-694
uff	-695
▁far	-696
na	-697
▁run	-698
ority	-699
▁prov	-700
▁rest	-701
▁sim	-702
▁food	-703
ach	-704
▁small	-705
▁yo	-706
▁acc	-707
▁add	-708
▁proper	-709
ism	-710
▁pretty	-711
ieve	-712
▁bo	-713
mit	-714
▁yes	-715
ium	-716
▁offer	-717
▁poss	-718
ract	-719
▁mind	-720
▁emp	-721
▁air	-722
ph	-723
▁leg	-724
ak	-725
▁stuff	-726
▁earn	-727
▁tri	-728
▁house	-729
▁currently	-730
▁have	-731
▁social	-732
▁term	-733
bt	-734
▁pass	-735
▁teach	-736
loy	-737
▁stop	-738
▁wa	-739
ose	-740
▁able	-741
▁dat	-742
▁set	-743
rate	-744
▁hey	-745
▁book	-746
▁level	-747
▁el	-748
lete	-749
▁ke	-750
▁speak	-751
▁india	-752
▁case	-753
▁clo	-754
▁produ	-755
▁advance	-756
▁won	-757
▁sinhala	-758
ular	-759
▁ran	-760
ith	-761
▁cer	-762
▁prob	-763
▁num	-764
▁cult	-765
cer	-766
▁apply	-767
▁bring	-768
▁val	-769
▁wh	-770
▁des	-771
▁incre	-772
▁wonder	-773
▁recently	-774
▁maj	-775
▁presid	-776
velop	-777
▁worth	-778
▁prote	-779
▁all	-780
▁pack	-781
dition	-782
▁play	-783
▁tech	-784
▁pur	-785
▁cri	-786
▁mi	-787
▁bea	-788
rect	-789
ict	-790
tain	-791
▁sw	-792
▁develop	-793
▁manage	-794
▁english	-795
▁number	-796
gle	-797
▁fut	-798
▁ob	-799
▁land	-800
▁education	-801
▁rate	-802
▁employ	-803
road	-804
▁ranil	-805
ately	-806
ha	-807
cu	-808
▁expect	-809
▁corrupt	-810
▁probably	-811
form	-812
▁rem	-813
ister	-814
▁kid	-815
ilar	-816
▁future	-817
▁fund	-818
▁election	-819
ug	-820
▁hot	-821
fit	-822
▁abroad	-823
▁si	-824
ee	-825
pecially	-826
ient	-827
illion	-828
ene	-829
▁phone	-830
oth	-831
▁cons	-832
less	-833
▁win	-834
▁cust	-835
▁especially	-836
ner	-837
▁easy	-838
▁sing	-839
▁em	-840
▁recommendation	-841
▁red	-842
▁ret	-843
▁mention	-844
▁medium	-845
▁president	-846
▁lol	-847
ash	-848
lank	-849
▁custom	-850
onest	-851
▁conf	-852
▁similar	-853
▁course	-854
ral	-855
▁honest	-856
▁possible	-857
olog	-858
▁foll	-859
▁cu	-860
▁complete	-861
row	-862
▁lkr	-863
▁main	-864
▁send	-865
▁ap	-866
▁heal	-867
quire	-868
▁comment	-869
▁fuck	-870
▁elect	-871
cept	-872
eap	-873
▁loan	-874
▁srilank	-875
ib	-876
▁mid	-877
▁taxis	-878
▁am	-879
▁fre	-880
▁sci	-881
ura	-882
▁sec	-883
▁drive	-884
▁close	-885
vious	-886
▁doctor	-887
▁increase	-888
▁ty	-889
▁police	-890
▁npp	-891
▁cause	-892
▁train	-893
▁ll	-894
▁follow	-895
▁gov	-896
▁hell	-897
▁yea	-898
▁dem	-899
▁web	-900
urce	-901
irl	-902
ara	-903
dge	-904
rol	-905
▁indu	-906
▁package	-907
▁health	-908
▁tourist	-909
ac	-910
▁south	-911
▁watch	-912
▁believe	-913
▁gu	-914
▁bi	-915
▁any	-916
fort	-917
▁att	-918
▁reme	-919
oose	-920
▁political	-921
▁girl	-922
inion	-923
▁personal	-924
▁economy	-925
▁visa	-926
▁indust	-927
▁opinion	-928
▁agree	-929
▁int	-930
ock	-931
▁trip	-932
ather	-933
▁sign	-934
▁charge	-935
▁order	-936
gram	-937
lect	-938
▁stand	-939
▁kand	-940
▁cheap	-941
▁wrong	-942
▁opport	-943
▁matter	-944
▁inform	-945
▁deal	-946
lain	-947
eld	-948
▁eff	-949
uk	-950
▁vi	-951
ream	-952
▁one	-953
▁away	-954
▁cap	-955
▁wait	-956
▁grow	-957
lude	-958
▁lankans	-959
ung	-960
view	-961
▁instead	-962
▁infl	-963
▁group	-964
▁remember	-965
▁allow	-966
▁ago	-967
▁provide	-968
▁quality	-969
icy	-970
▁require	-971
▁economic	-972
ward	-973
▁pos	-974
▁lose	-975
▁opportunity	-976
pl	-977
▁z	-978
▁hour	-979
▁thou	-980
▁kandy	-981
day	-982
▁payment	-983
arch	-984
▁past	-985
▁rese	-986
▁thought	-987
▁soft	-988
▁datum	-989
▁night	-990
▁near	-991
▁product	-992
▁budget	-993
ys	-994
ving	-995
▁shop	-996
▁mus	-997
▁usually	-998
uw	-999
▁true	-1000
▁yeah	-1001
▁little	-1002
▁list	-1003
▁meet	-1004
▁del	-1005
▁child	-1006
▁process	-1007
ify	-1008
man	-1009
ency	-1010
▁science	-1011
▁industry	-1012
▁politician	-1013
▁offic	-1014
▁bla	-1015
▁det	-1016
iya	-1017
ware	-1018
▁culture	-1019
▁bl	-1020
▁compare	-1021
▁project	-1022
▁clear	-1023
▁avail	-1024
▁short	-1025
▁cent	-1026
▁program	-1027
▁suggestion	-1028
ision	-1029
▁investment	-1030
▁pop	-1031
▁tod	-1032
▁speci	-1033
ven	-1034
alle	-1035
▁trust	-1036
▁choose	-1037
▁raj	-1038
▁save	-1039
▁field	-1040
▁relate	-1041
▁include	-1042
▁pick	-1043
ety	-1044
▁result	-1045
▁depend	-1046
▁norm	-1047
way	-1048
▁gue	-1049
▁art	-1050
▁exam	-1051
▁move	-1052
▁suggest	-1053
▁fl	-1054
▁policy	-1055
▁driver	-1056
▁engineering	-1057
▁mil	-1058
▁vide	-1059
▁research	-1060
▁today	-1061
▁cra	-1062
▁specif	-1063
rove	-1064
rence	-1065
▁brand	-1066
▁head	-1067
▁mess	-1068
▁scam	-1069
ration	-1070
▁million	-1071
ork	-1072
pon	-1073
reak	-1074
▁video	-1075
▁dial	-1076
ensive	-1077
cture	-1078
▁coup	-1079
oman	-1080
uter	-1081
▁finan	-1082
▁general	-1083
ota	-1084
▁game	-1085
▁show	-1086
▁rent	-1087
▁mod	-1088
▁road	-1089
▁respon	-1090
dy	-1091
▁exa	-1092
▁create	-1093
▁national	-1094
sc	-1095
rop	-1096
▁str	-1097
▁hotel	-1098
oice	-1099
▁mor	-1100
▁woman	-1101
▁cut	-1102
ger	-1103
▁mom	-1104
▁relig	-1105
▁example	-1106
▁defin	-1107
▁back	-1108
li	-1109
▁dialog	-1110
oot	-1111
▁slt	-1112
wer	-1113
cond	-1114
▁hist	-1115
▁second	-1116
▁mob	-1117
▁port	-1118
▁ak	-1119
▁notice	-1120
▁value	-1121
▁rece	-1122
▁ans	-1123
▁usd	-1124
▁ok	-1125
▁non	-1126
▁couple	-1127
▁answer	-1128
rug	-1129
oy	-1130
site	-1131
itely	-1132
▁prom	-1133
uge	-1134
duce	-1135
▁available	-1136
red	-1137
▁abs	-1138
▁fine	-1139
▁hold	-1140
elf	-1141
side	-1142
▁stock	-1143
lim	-1144
▁skill	-1145
▁safe	-1146
▁international	-1147
▁ur	-1148
▁information	-1149
▁turn	-1150
▁event	-1151
▁inv	-1152
▁city	-1153
▁exact	-1154
▁pract	-1155
ume	-1156
▁hosp	-1157
dle	-1158
▁guess	-1159
▁fun	-1160
▁afford	-1161
▁website	-1162
io	-1163
▁lang	-1164
▁career	-1165
▁uk	-1166
ology	-1167
▁liter	-1168
▁join	-1169
ok	-1170
▁hospital	-1171
uage	-1172
▁chance	-1173
▁language	-1174
▁ref	-1175
urity	-1176
▁soon	-1177
ning	-1178
▁return	-1179
▁news	-1180
▁srilanka	-1181
▁definitely	-1182
▁phys	-1183
▁decide	-1184
▁rajap	-1185
▁type	-1186
sk	-1187
ident	-1188
▁fu	-1189
▁speed	-1190
▁mig	-1191
▁software	-1192
▁fact	-1193
ification	-1194
▁break	-1195
work	-1196
▁expensive	-1197
▁dist	-1198
▁foc	-1199
▁early	-1200
▁credit	-1201
▁interested	-1202
very	-1203
▁beach	-1204
ade	-1205
land	-1206
▁receive	-1207
cle	-1208
▁honestly	-1209
▁community	-1210
aff	-1211
duate	-1212
▁majority	-1213
▁cover	-1214
▁rajapak	-1215
▁internet	-1216
▁fix	-1217
▁bene	-1218
▁water	-1219
ane	-1220
▁decent	-1221
min	-1222
ron	-1223
▁own	-1224
ural	-1225
▁write	-1226
▁debt	-1227
▁story	-1228
▁dr	-1229
▁nice	-1230
ated	-1231
▁net	-1232
▁super	-1233
▁reddit	-1234
ull	-1235
▁tuk	-1236
anna	-1237
▁fee	-1238
ana	-1239
olve	-1240
nection	-1241
air	-1242
▁hello	-1243
ding	-1244
ulation	-1245
▁connection	-1246
▁neg	-1247
ich	-1248
▁met	-1249
artment	-1250
▁prefer	-1251
▁direct	-1252
▁limit	-1253
▁middle	-1254
▁can	-1255
▁tot	-1256
▁luck	-1257
▁normal	-1258
ledge	-1259
▁const	-1260
▁focus	-1261
▁akd	-1262
▁tip	-1263
▁does	-1264
▁basically	-1265
sa	-1266
ove	-1267
▁doesn	-1268
oid	-1269
itch	-1270
▁techn	-1271
▁da	-1272
tact	-1273
tern	-1274
▁hum	-1275
set	-1276
▁age	-1277
▁dam	-1278
▁math	-1279
▁certain	-1280
gin	-1281
▁treat	-1282
other	-1283
▁reco	-1284
▁decision	-1285
▁ai	-1286
▁cit	-1287
▁fuel	-1288
ior	-1289
▁report	-1290
▁risk	-1291
▁self	-1292
▁corruption	-1293
lia	-1294
▁contact	-1295
▁keep	-1296
▁lead	-1297
▁profe	-1298
▁sector	-1299
ness	-1300
▁aust	-1301
liament	-1302
▁parliament	-1303
▁sound	-1304
▁dra	-1305
▁equ	-1306
▁ite	-1307
▁form	-1308
aya	-1309
ush	-1310
▁cr	-1311
izen	-1312
ature	-1313
▁item	-1314
▁path	-1315
▁history	-1316
▁citizen	-1317
▁special	-1318
▁young	-1319
▁common	-1320
▁indian	-1321
▁camp	-1322
▁down	-1323
▁curi	-1324
▁position	-1325
itle	-1326
aste	-1327
▁force	-1328
▁purch	-1329
▁single	-1330
erg	-1331
▁choice	-1332
▁benefit	-1333
book	-1334
▁financial	-1335
▁ce	-1336
▁subject	-1337
dh	-1338
ability	-1339
xt	-1340
▁improve	-1341
▁protest	-1342
ama	-1343
▁east	-1344
▁galle	-1345
▁wanna	-1346
▁concer	-1347
▁wi	-1348
▁fair	-1349
▁accept	-1350
▁date	-1351
olute	-1352
▁legal	-1353
▁finance	-1354
▁vac	-1355
▁rule	-1356
▁gr	-1357
▁fail	-1358
▁entire	-1359
apt	-1360
▁bat	-1361
▁absolute	-1362
▁austral	-1363
▁af	-1364
ina	-1365
▁eat	-1366
▁personally	-1367
▁compet	-1368
▁teacher	-1369
fully	-1370
▁colle	-1371
sis	-1372
▁did	-1373
▁dou	-1374
▁source	-1375
▁goo	-1376
▁link	-1377
▁office	-1378
▁opp	-1379
▁edit	-1380
verage	-1381
▁didn	-1382
▁purchase	-1383
ime	-1384
▁cash	-1385
▁large	-1386
▁rs	-1387
▁avoid	-1388
▁crisis	-1389
▁transport	-1390
date	-1391
▁cal	-1392
▁ps	-1393
▁bill	-1394
▁org	-1395
▁paper	-1396
▁eu	-1397
▁har	-1398
▁control	-1399
▁site	-1400
▁medic	-1401
ited	-1402
▁basic	-1403
▁maint	-1404
▁concern	-1405
ffic	-1406
unch	-1407
▁google	-1408
▁customer	-1409
read	-1410
icult	-1411
▁knowledge	-1412
▁cy	-1413
▁line	-1414
▁later	-1415
▁curious	-1416
▁drop	-1417
▁huge	-1418
▁cert	-1419
▁fall	-1420
reme	-1421
▁bra	-1422
▁happy	-1423
▁contin	-1424
erve	-1425
▁pet	-1426
▁deli	-1427
▁instit	-1428
joy	-1429
vert	-1430
▁waste	-1431
▁difficult	-1432
▁profession	-1433
ari	-1434
idate	-1435
▁previous	-1436
▁reduce	-1437
▁word	-1438
▁expense	-1439
▁view	-1440
▁internship	-1441
▁fac	-1442
▁airport	-1443
▁sort	-1444
▁security	-1445
▁important	-1446
vid	-1447
▁gl	-1448
▁enjoy	-1449
▁store	-1450
▁strong	-1451
▁civ	-1452
▁transfer	-1453
▁pm	-1454
▁mass	-1455
▁claim	-1456
▁access	-1457
▁medical	-1458
ury	-1459
uwa	-1460
▁govt	-1461
▁outside	-1462
oint	-1463
▁dig	-1464
▁ann	-1465
▁poor	-1466
▁spot	-1467
▁interview	-1468
alese	-1469
▁doll	-1470
▁update	-1471
▁rain	-1472
▁detail	-1473
ille	-1474
▁hal	-1475
▁genu	-1476
pee	-1477
▁lack	-1478
▁demand	-1479
▁stream	-1480
▁fit	-1481
▁late	-1482
▁rupee	-1483
era	-1484
▁dollar	-1485
▁sinhalese	-1486
ond	-1487
▁minim	-1488
▁genuine	-1489
orry	-1490
▁fla	-1491
▁hit	-1492
▁ella	-1493
ator	-1494
▁enter	-1495
ivid	-1496
sent	-1497
ential	-1498
▁organ	-1499
▁cand	-1500
▁reach	-1501
▁employee	-1502
▁bri	-1503
▁step	-1504
▁average	-1505
▁graduate	-1506
▁mult	-1507
▁exactly	-1508
ace	-1509
▁bar	-1510
▁wel	-1511
irm	-1512
▁unp	-1513
gn	-1514
▁eth	-1515
▁exist	-1516
▁individ	-1517
val	-1518
vie	-1519
▁sep	-1520
▁china	-1521
▁master	-1522
▁specific	-1523
▁literally	-1524
▁mal	-1525
▁team	-1526
itive	-1527
▁court	-1528
▁ls	-1529
▁suc	-1530
▁sad	-1531
▁moment	-1532
out	-1533
igure	-1534
zy	-1535
▁human	-1536
▁movie	-1537
▁est	-1538
▁soci	-1539
▁light	-1540
▁leader	-1541
ada	-1542
ker	-1543
▁imf	-1544
▁test	-1545
▁atta	-1546
▁sorry	-1547
▁rele	-1548
▁major	-1549
▁minister	-1550
▁hire	-1551
▁plus	-1552
▁hate	-1553
▁individual	-1554
▁figure	-1555
ret	-1556
▁lapt	-1557
▁australia	-1558
▁sense	-1559
▁laptop	-1560
▁mobile	-1561
▁religion	-1562
▁slow	-1563
▁member	-1564
▁extra	-1565
▁official	-1566
body	-1567
▁wish	-1568
ump	-1569
▁bal	-1570
▁model	-1571
▁difference	-1572
▁lt	-1573
▁hair	-1574
▁pat	-1575
▁pea	-1576
▁miss	-1577
▁rich	-1578
▁candidate	-1579
ann	-1580
cri	-1581
▁ide	-1582
▁pot	-1583
▁correct	-1584
▁docu	-1585
ruggle	-1586
▁marri	-1587
▁document	-1588
▁struggle	-1589
▁auth	-1590
▁explain	-1591
iod	-1592
▁simp	-1593
ention	-1594
▁civil	-1595
ibility	-1596
▁period	-1597
dn	-1598
▁fast	-1599
ously	-1600
▁stick	-1601
mi	-1602
▁na	-1603
▁appro	-1604
▁title	-1605
▁obvious	-1606
▁hy	-1607
▁trade	-1608
▁design	-1609
▁standard	-1610
rict	-1611
▁mah	-1612
▁clean	-1613
▁discu	-1614
▁north	-1615
▁accord	-1616
▁affect	-1617
vp	-1618
ye	-1619
▁note	-1620
▁action	-1621
sm	-1622
rency	-1623
▁lic	-1624
▁aware	-1625
▁select	-1626
▁relation	-1627
ivity	-1628
▁kinda	-1629
ai	-1630
med	-1631
imate	-1632
fortun	-1633
▁cry	-1634
▁buddh	-1635
▁unfortun	-1636
ll	-1637
▁isn	-1638
▁electric	-1639
▁arm	-1640
▁forget	-1641
▁message	-1642
aur	-1643
iable	-1644
▁euro	-1645
▁info	-1646
▁peace	-1647
▁handle	-1648
com	-1649
reen	-1650
urance	-1651
▁weather	-1652
uldn	-1653
ination	-1654
▁actual	-1655
▁solution	-1656
▁fo	-1657
ert	-1658
▁music	-1659
▁management	-1660
ift	-1661
load	-1662
jith	-1663
▁range	-1664
▁comfort	-1665
▁practice	-1666
ym	-1667
pri	-1668
▁ah	-1669
▁jvp	-1670
aurant	-1671
▁effect	-1672
▁profit	-1673
▁restaurant	-1674
icket	-1675
▁plat	-1676
▁begin	-1677
▁covid	-1678
ror	-1679
▁div	-1680
▁walk	-1681
▁extreme	-1682
▁gb	-1683
▁sea	-1684
▁medicine	-1685
▁mot	-1686
▁partic	-1687
▁continue	-1688
▁foreigner	-1689
cc	-1690
▁blo	-1691
▁gain	-1692
▁mental	-1693
▁professional	-1694
▁half	-1695
▁owner	-1696
▁network	-1697
▁yout	-1698
▁beaut	-1699
nect	-1700
▁imm	-1701
▁jap	-1702
istic	-1703
▁feed	-1704
▁involve	-1705
round	-1706
▁phot	-1707
▁monthly	-1708
▁currency	-1709
▁register	-1710
he	-1711
▁mis	-1712
▁absolutely	-1713
▁completely	-1714
▁society	-1715
iri	-1716
▁foot	-1717
▁migrate	-1718
▁x	-1719
ially	-1720
▁forward	-1721
▁insight	-1722
▁stat	-1723
▁island	-1724
▁the	-1725
▁respons	-1726
dd	-1727
▁kill	-1728
ake	-1729
▁arri	-1730
▁relative	-1731
rant	-1732
ulate	-1733
ructure	-1734
▁simply	-1735
ully	-1736
▁exc	-1737
▁sport	-1738
ba	-1739
iit	-1740
▁ltte	-1741
▁development	-1742
▁role	-1743
▁computer	-1744
ero	-1745
▁room	-1746
ization	-1747
▁commun	-1748
ource	-1749
▁cric	-1750
▁ticket	-1751
▁insurance	-1752
▁ama	-1753
▁fan	-1754
▁likely	-1755
▁gota	-1756
earch	-1757
▁sajith	-1758
▁search	-1759
▁respect	-1760
▁condition	-1761
▁okay	-1762
▁nation	-1763
▁partner	-1764
more	-1765
▁ant	-1766
▁cop	-1767
▁crit	-1768
▁white	-1769
▁tourism	-1770
▁park	-1771
▁inflation	-1772
▁hea	-1773
▁willing	-1774
▁reliable	-1775
▁generation	-1776
por	-1777
▁tv	-1778
▁expl	-1779
▁uber	-1780
▁switch	-1781
▁mother	-1782
ditional	-1783
▁signific	-1784
ube	-1785
sure	-1786
▁dude	-1787
▁stup	-1788
▁he	-1789
▁worker	-1790
▁bear	-1791
▁bike	-1792
▁daily	-1793
▁simple	-1794
▁stupid	-1795
igin	-1796
▁amaz	-1797
▁influ	-1798
▁env	-1799
▁just	-1800
▁success	-1801
▁gold	-1802
▁necess	-1803
▁helpful	-1804
▁unfortunately	-1805
▁conte	-1806
▁europe	-1807
gress	-1808
▁assume	-1809
▁saving	-1810
▁origin	-1811
ern	-1812
▁viol	-1813
▁remove	-1814
▁rid	-1815
▁wester	-1816
pto	-1817
rat	-1818
▁die	-1819
▁quick	-1820
▁multip	-1821
▁platform	-1822
▁sen	-1823
rib	-1824
lement	-1825
▁press	-1826
▁glob	-1827
▁freel	-1828
▁directly	-1829
▁ima	-1830
▁relationship	-1831
▁bt	-1832
mail	-1833
▁jun	-1834
▁significant	-1835
by	-1836
▁star	-1837
▁blame	-1838
▁minimum	-1839
gh	-1840
yle	-1841
▁cuz	-1842
▁saf	-1843
▁top	-1844
▁wed	-1845
▁easily	-1846
▁regard	-1847
▁maintain	-1848
▁init	-1849
▁cricket	-1850
annel	-1851
▁highly	-1852
iate	-1853
▁heav	-1854
▁youtube	-1855
aw	-1856
iron	-1857
ther	-1858
▁commer	-1859
▁oppos	-1860
▁license	-1861
ager	-1862
pose	-1863
▁traffic	-1864
mer	-1865
▁wear	-1866
▁factor	-1867
ux	-1868
ifi	-1869
olk	-1870
▁channel	-1871
▁digital	-1872
▁connect	-1873
▁western	-1874
▁passport	-1875
▁hol	-1876
ironment	-1877
▁tb	-1878
cket	-1879
▁ppl	-1880
▁environment	-1881
▁ir	-1882
▁oper	-1883
▁wife	-1884
▁unlim	-1885
▁canada	-1886
ark	-1887
▁attack	-1888
▁perform	-1889
▁sho	-1890
▁reply	-1891
▁boy	-1892
▁review	-1893
▁tw	-1894
▁unit	-1895
▁vacc	-1896
▁crime	-1897
▁complain	-1898
fect	-1899
▁ign	-1900
▁prep	-1901
▁muslim	-1902
eric	-1903
▁letter	-1904
▁milit	-1905
▁remote	-1906
▁balance	-1907
▁location	-1908
▁unlimited	-1909
▁resource	-1910
▁capital	-1911
▁eye	-1912
▁till	-1913
▁total	-1914
cip	-1915
umb	-1916
▁folk	-1917
▁multiple	-1918
▁stra	-1919
▁applic	-1920
▁facebook	-1921
▁cam	-1922
▁sex	-1923
▁anymore	-1924
orce	-1925
▁sliit	-1926
▁qualification	-1927
spect	-1928
▁raise	-1929
▁smart	-1930
▁decade	-1931
▁overse	-1932
core	-1933
▁match	-1934
▁popular	-1935
▁ach	-1936
▁finish	-1937
▁surpri	-1938
▁beautif	-1939
mpt	-1940
ffer	-1941
reet	-1942
▁router	-1943
▁exe	-1944
▁idk	-1945
▁worry	-1946
▁altern	-1947
action	-1948
change	-1949
▁property	-1950
▁hor	-1951
istry	-1952
▁email	-1953
▁physical	-1954
▁beautiful	-1955
▁dad	-1956
▁dest	-1957
▁aut	-1958
▁college	-1959
our	-1960
▁oh	-1961
▁acad	-1962
▁fight	-1963
▁track	-1964
▁americ	-1965
▁btw	-1966
▁army	-1967
▁meth	-1968
▁sale	-1969
▁indep	-1970
▁mainly	-1971
▁apartment	-1972
ellow	-1973
ificate	-1974
▁academ	-1975
▁address	-1976
▁certificate	-1977
▁wise	-1978
▁space	-1979
▁brother	-1980
▁realize	-1981
▁suppose	-1982
▁gla	-1983
▁anura	-1984
▁recogn	-1985
▁regular	-1986
▁independ	-1987
ugh	-1988
▁log	-1989
idence	-1990
▁crazy	-1991
▁commit	-1992
▁eg	-1993
▁military	-1994
quest	-1995
apore	-1996
▁cloth	-1997
ych	-1998
▁fake	-1999
▁ille	-2000
▁user	-2001
▁exchange	-2002
▁char	-2003
▁singapore	-2004
▁cool	-2005
▁illeg	-2006
▁replace	-2007
▁obviously	-2008
▁overseas	-2009
back	-2010
▁mist	-2011
▁page	-2012
▁rand	-2013
▁request	-2014
ergy	-2015
▁ban	-2016
▁code	-2017
▁staff	-2018
tery	-2019
▁ess	-2020
▁imo	-2021
▁vot	-2022
▁club	-2023
▁moder	-2024
▁extremely	-2025
▁dm	-2026
▁it	-2027
▁file	-2028
▁push	-2029
sl	-2030
ming	-2031
▁catch	-2032
▁drink	-2033
▁gym	-2034
▁ethn	-2035
▁rema	-2036
▁fully	-2037
▁wedding	-2038
rist	-2039
yer	-2040
▁tend	-2041
▁black	-2042
▁marriage	-2043
iot	-2044
▁central	-2045
▁content	-2046
▁progress	-2047
▁cro	-2048
ground	-2049
ka	-2050
▁lawyer	-2051
▁random	-2052
▁properly	-2053
gine	-2054
▁appoint	-2055
▁no	-2056
▁cir	-2057
▁block	-2058
▁suffer	-2059
sha	-2060
▁vs	-2061
inate	-2062
▁seat	-2063
▁some	-2064
mar	-2065
▁gam	-2066
▁ride	-2067
▁psych	-2068
▁export	-2069
▁amazing	-2070
cent	-2071
▁lab	-2072
▁sat	-2073
▁vol	-2074
▁seri	-2075
▁every	-2076
ief	-2077
▁legit	-2078
▁collect	-2079
▁imagine	-2080
of	-2081
bit	-2082
lex	-2083
otion	-2084
▁desp	-2085
▁fire	-2086
▁attend	-2087
▁interesting	-2088
▁immig	-2089
▁method	-2090
▁educate	-2091
▁lecture	-2092
▁alternative	-2093
▁grade	-2094
▁station	-2095
▁lux	-2096
▁separ	-2097
sed	-2098
▁sn	-2099
▁ut	-2100
▁arg	-2101
▁remain	-2102
ody	-2103
ians	-2104
osit	-2105
▁anal	-2106
▁deep	-2107
▁marry	-2108
▁record	-2109
▁achieve	-2110
▁officer	-2111
▁occ	-2112
▁bare	-2113
▁chem	-2114
▁goal	-2115
▁journ	-2116
▁senior	-2117
▁promise	-2118
inda	-2119
ively	-2120
orrow	-2121
▁buddhist	-2122
▁usa	-2123
▁stri	-2124
▁implement	-2125
fc	-2126
ze	-2127
▁bir	-2128
▁ship	-2129
▁street	-2130
▁morning	-2131
▁startup	-2132
▁activity	-2133
▁requirement	-2134
sing	-2135
▁key	-2136
▁deposit	-2137
▁finally	-2138
▁reality	-2139
▁dog	-2140
▁disa	-2141
▁doubt	-2142
▁release	-2143
▁apparent	-2144
▁particular	-2145
▁aud	-2146
inese	-2147
▁jaff	-2148
▁topic	-2149
▁chinese	-2150
ili	-2151
racy	-2152
▁carry	-2153
▁cyber	-2154
▁sj	-2155
▁dream	-2156
ference	-2157
▁jaffna	-2158
▁listen	-2159
▁illegal	-2160
▁friendly	-2161
ays	-2162
iss	-2163
ole	-2164
▁inside	-2165
vant	-2166
▁fill	-2167
▁route	-2168
oon	-2169
olar	-2170
▁coast	-2171
▁repair	-2172
▁population	-2173
sue	-2174
▁ju	-2175
▁prem	-2176
▁truly	-2177
▁father	-2178
▁contract	-2179
▁religious	-2180
▁seriously	-2181
bor	-2182
ball	-2183
▁beha	-2184
▁technology	-2185
▁inn	-2186
alent	-2187
▁consult	-2188
▁communic	-2189
▁tar	-2190
iriya	-2191
▁brit	-2192
▁temple	-2193
▁explore	-2194
▁tho	-2195
▁global	-2196
▁background	-2197
ince	-2198
▁fav	-2199
▁jud	-2200
▁ethnic	-2201
▁fellow	-2202
▁pursue	-2203
▁protect	-2204
▁department	-2205
▁electricity	-2206
▁sus	-2207
▁minute	-2208
istration	-2209
raph	-2210
▁god	-2211
▁lie	-2212
▁put	-2213
▁final	-2214
▁battery	-2215
▁perfect	-2216
wh	-2217
band	-2218
ronic	-2219
▁cook	-2220
▁seek	-2221
▁pickme	-2222
▁scholar	-2223
▁welcome	-2224
▁straight	-2225
ler	-2226
▁sla	-2227
phone	-2228
▁intro	-2229
▁context	-2230
▁bur	-2231
anger	-2232
▁body	-2233
▁comb	-2234
▁corpor	-2235
▁living	-2236
bour	-2237
▁mark	-2238
▁clearly	-2239
▁sig	-2240
▁sjb	-2241
▁chat	-2242
▁ident	-2243
▁neigh	-2244
▁overall	-2245
cut	-2246
▁dev	-2247
▁fru	-2248
▁with	-2249
▁settle	-2250
▁stress	-2251
▁specially	-2252
iner	-2253
care	-2254
stic	-2255
▁max	-2256
▁apparently	-2257
irt	-2258
▁tro	-2259
▁crow	-2260
▁score	-2261
▁manager	-2262
▁vers	-2263
▁west	-2264
▁solid	-2265
▁arrive	-2266
▁anybody	-2267
▁article	-2268
erv	-2269
duct	-2270
▁nuw	-2271
▁idiot	-2272
▁effort	-2273
▁energy	-2274
▁totally	-2275
▁specifically	-2276
▁surv	-2277
▁what	-2278
▁democ	-2279
▁guide	-2280
▁growth	-2281
▁impact	-2282
ssa	-2283
atic	-2284
▁jan	-2285
ently	-2286
▁despite	-2287
▁institution	-2288
ah	-2289
▁dut	-2290
▁ver	-2291
▁wage	-2292
▁confirm	-2293
▁potential	-2294
▁ye	-2295
alth	-2296
▁wealth	-2297
▁hopefully	-2298
▁fd	-2299
like	-2300
▁physic	-2301
▁comfortable	-2302
▁mr	-2303
▁tbh	-2304
▁board	-2305
▁fil	-2306
▁host	-2307
▁photo	-2308
▁genuinely	-2309
ny	-2310
▁fly	-2311
▁hide	-2312
▁found	-2313
▁throw	-2314
▁sam	-2315
▁solve	-2316
▁client	-2317
▁crypto	-2318
▁safety	-2319
▁srilankan	-2320
time	-2321
▁supply	-2322
anda	-2323
▁you	-2324
ograph	-2325
▁bunch	-2326
▁opposition	-2327
▁nam	-2328
▁damn	-2329
▁data	-2330
▁original	-2331
▁scholarship	-2332
male	-2333
▁rat	-2334
▁drug	-2335
▁brain	-2336
▁immed	-2337
▁union	-2338
▁subred	-2339
▁express	-2340
▁mahinda	-2341
▁generally	-2342
▁marketing	-2343
▁hang	-2344
▁death	-2345
▁grand	-2346
▁rise	-2347
▁luxury	-2348
▁subreddit	-2349
▁sil	-2350
▁temp	-2351
▁prove	-2352
▁application	-2353
ex	-2354
amp	-2355
▁oil	-2356
▁compla	-2357
▁nuwara	-2358
▁billion	-2359
▁confuse	-2360
▁mistake	-2361
▁rajapaksa	-2362
sb	-2363
▁cs	-2364
▁er	-2365
▁rag	-2366
▁miri	-2367
▁cance	-2368
▁broker	-2369
dra	-2370
ery	-2371
▁by	-2372
ling	-2373
▁asia	-2374
▁joke	-2375
▁pict	-2376
▁region	-2377
▁download	-2378
mb	-2379
▁dead	-2380
▁dire	-2381
▁name	-2382
▁vibe	-2383
▁arrest	-2384
▁campus	-2385
▁picture	-2386
▁eventually	-2387
ape	-2388
illa	-2389
ried	-2390
▁mix	-2391
▁regardless	-2392
sec	-2393
▁ep	-2394
▁wo	-2395
▁hon	-2396
▁pan	-2397
▁dumb	-2398
▁tele	-2399
▁haven	-2400
▁target	-2401
▁present	-2402
cist	-2403
▁nat	-2404
rible	-2405
▁band	-2406
▁text	-2407
ission	-2408
▁academic	-2409
▁institute	-2410
▁gar	-2411
▁oct	-2412
▁king	-2413
▁stable	-2414
▁facility	-2415
▁reasonable	-2416
cast	-2417
▁copy	-2418
▁deliver	-2419
▁positive	-2420
▁undergra	-2421
▁complaint	-2422
itel	-2423
rast	-2424
urage	-2425
▁atle	-2426
▁prop	-2427
▁double	-2428
▁delivery	-2429
▁hn	-2430
pper	-2431
▁hat	-2432
▁skin	-2433
▁female	-2434
▁affordable	-2435
ott	-2436
▁sun	-2437
erial	-2438
▁birth	-2439
▁expert	-2440
▁atleast	-2441
▁contrib	-2442
▁employer	-2443
ird	-2444
ceed	-2445
▁crowd	-2446
cel	-2447
eer	-2448
ram	-2449
▁tu	-2450
enty	-2451
rend	-2452
pa	-2453
▁pc	-2454
allen	-2455
▁mate	-2456
▁blood	-2457
▁steal	-2458
pal	-2459
arma	-2460
imal	-2461
▁challen	-2462
▁response	-2463
ome	-2464
▁lay	-2465
▁wind	-2466
▁reput	-2467
▁advise	-2468
▁season	-2469
edu	-2470
▁tia	-2471
▁vict	-2472
▁wild	-2473
▁motor	-2474
▁necessary	-2475
▁less	-2476
▁namal	-2477
▁ground	-2478
▁terror	-2479
▁mobitel	-2480
▁trading	-2481
▁ik	-2482
▁mp	-2483
itor	-2484
scri	-2485
▁sle	-2486
▁aren	-2487
▁suit	-2488
▁prepare	-2489
▁warrant	-2490
▁foundation	-2491
▁asset	-2492
▁ignore	-2493
erm	-2494
ier	-2495
▁je	-2496
▁july	-2497
▁entry	-2498
▁reven	-2499
▁worried	-2500
uble	-2501
▁shi	-2502
▁mech	-2503
▁zero	-2504
▁convers	-2505
▁greatly	-2506
▁physics	-2507
av	-2508
nam	-2509
▁iit	-2510
ience	-2511
▁loss	-2512
▁autom	-2513
▁cancel	-2514
▁passion	-2515
▁fra	-2516
▁fear	-2517
▁eliya	-2518
▁discuss	-2519
▁mirissa	-2520
plom	-2521
resent	-2522
▁diplom	-2523
▁british	-2524
▁survive	-2525
▁trouble	-2526
rid	-2527
▁bet	-2528
▁tour	-2529
▁fresh	-2530
▁incident	-2531
▁pull	-2532
▁serve	-2533
▁modern	-2534
spective	-2535
▁mindset	-2536
▁version	-2537
ady	-2538
ooth	-2539
▁bot	-2540
pping	-2541
▁anti	-2542
▁weekend	-2543
▁cultural	-2544
din	-2545
▁rw	-2546
iece	-2547
▁fort	-2548
▁rank	-2549
▁print	-2550
▁truth	-2551
▁represent	-2552
▁conv	-2553
▁town	-2554
▁touch	-2555
courage	-2556
▁flight	-2557
▁convert	-2558
gger	-2559
▁hur	-2560
▁typ	-2561
▁milk	-2562
▁heavy	-2563
▁sigiriya	-2564
▁hr	-2565
iday	-2566
ender	-2567
phant	-2568
▁dece	-2569
▁itiner	-2570
▁holiday	-2571
▁promote	-2572
▁elephant	-2573
▁weird	-2574
▁purpose	-2575
▁tuition	-2576
▁itinerary	-2577
draw	-2578
▁gas	-2579
▁constru	-2580
▁traditional	-2581
ulty	-2582
▁heart	-2583
▁lease	-2584
▁center	-2585
▁pressure	-2586
▁cey	-2587
▁cse	-2588
▁pun	-2589
▁suck	-2590
▁surf	-2591
▁prior	-2592
▁plenty	-2593
▁racist	-2594
▁yester	-2595
▁warranty	-2596
▁withdraw	-2597
ope	-2598
▁ge	-2599
force	-2600
▁flag	-2601
▁chill	-2602
▁voter	-2603
▁reform	-2604
▁negative	-2605
▁ig	-2606
arant	-2607
▁ready	-2608
▁remind	-2609
▁statement	-2610
▁q	-2611
acy	-2612
▁aug	-2613
▁bab	-2614
▁din	-2615
▁cele	-2616
▁cine	-2617
▁agent	-2618
▁broad	-2619
▁morat	-2620
▁massive	-2621
▁influence	-2622
▁yesterday	-2623
▁commission	-2624
we	-2625
room	-2626
▁ult	-2627
press	-2628
▁fish	-2629
▁threat	-2630
▁employment	-2631
▁prev	-2632
▁proof	-2633
▁refer	-2634
▁deserve	-2635
▁discussion	-2636
gy	-2637
wa	-2638
▁atte	-2639
▁coun	-2640
▁ahead	-2641
▁emerg	-2642
▁refuse	-2643
▁minority	-2644
▁moratuwa	-2645
▁burn	-2646
▁mach	-2647
itution	-2648
▁nature	-2649
▁faculty	-2650
▁fucking	-2651
▁patient	-2652
▁training	-2653
▁preferably	-2654
ste	-2655
▁ict	-2656
▁repe	-2657
▁adult	-2658
▁freed	-2659
▁villa	-2660
▁approach	-2661
▁emergency	-2662
▁cab	-2663
▁calc	-2664
▁scen	-2665
▁shoe	-2666
▁sudd	-2667
▁percent	-2668
▁separate	-2669
▁healthcare	-2670
▁performance	-2671
▁bc	-2672
▁lin	-2673
atory	-2674
▁spread	-2675
▁revenue	-2676
▁commercial	-2677
▁mb	-2678
▁rev	-2679
achel	-2680
▁behav	-2681
lla	-2682
ibly	-2683
mpath	-2684
▁celeb	-2685
▁piece	-2686
▁tough	-2687
▁valid	-2688
▁bachel	-2689
▁screen	-2690
▁freedom	-2691
▁fb	-2692
▁den	-2693
▁pla	-2694
▁sum	-2695
place	-2696
▁duty	-2697
▁campa	-2698
▁plant	-2699
▁district	-2700
▁feedback	-2701
▁tom	-2702
▁pain	-2703
▁prof	-2704
▁rare	-2705
▁banking	-2706
oom	-2707
▁sleep	-2708
▁barely	-2709
▁bachelor	-2710
▁campaign	-2711
▁authority	-2712
▁km	-2713
hood	-2714
▁bag	-2715
▁son	-2716
ption	-2717
▁transaction	-2718
▁firm	-2719
▁hike	-2720
▁usual	-2721
▁critic	-2722
▁unlike	-2723
▁reserve	-2724
▁corporate	-2725
uf	-2726
una	-2727
▁fr	-2728
anch	-2729
▁baby	-2730
▁song	-2731
antage	-2732
▁apart	-2733
▁approve	-2734
▁attention	-2735
▁electronic	-2736
ps	-2737
▁cat	-2738
▁toy	-2739
▁isra	-2740
▁wifi	-2741
▁fiber	-2742
▁japan	-2743
▁status	-2744
ask	-2745
asn	-2746
antly	-2747
▁asso	-2748
▁race	-2749
▁frust	-2750
▁secure	-2751
▁useful	-2752
▁advantage	-2753
fri	-2754
light	-2755
▁glad	-2756
▁green	-2757
▁israel	-2758
▁arch	-2759
▁ceyl	-2760
▁disc	-2761
▁pure	-2762
friend	-2763
▁device	-2764
▁retire	-2765
▁slight	-2766
▁thread	-2767
▁feeling	-2768
grade	-2769
▁pred	-2770
▁justice	-2771
uri	-2772
▁solo	-2773
▁christ	-2774
▁sudden	-2775
▁talent	-2776
▁infrast	-2777
▁negombo	-2778
▁responsibility	-2779
▁cas	-2780
▁dub	-2781
▁cafe	-2782
ension	-2783
▁image	-2784
▁scene	-2785
▁discount	-2786
▁challenge	-2787
att	-2788
▁ic	-2789
sapp	-2790
▁hut	-2791
▁bull	-2792
▁manuf	-2793
▁disapp	-2794
bre	-2795
ault	-2796
▁ton	-2797
▁colon	-2798
▁manufact	-2799
▁infrastructure	-2800
hi	-2801
let	-2802
▁shift	-2803
▁resign	-2804
▁introduce	-2805
▁asian	-2806
▁august	-2807
▁building	-2808
▁whatsapp	-2809
▁guid	-2810
▁meal	-2811
cipline	-2812
▁strike	-2813
▁coff	-2814
▁rice	-2815
▁ruin	-2816
▁slpp	-2817
▁abuse	-2818
▁effic	-2819
▁scale	-2820
▁trend	-2821
ciation	-2822
▁useless	-2823
ulla	-2824
itude	-2825
▁judge	-2826
▁style	-2827
▁agency	-2828
▁investor	-2829
den	-2830
iex	-2831
ini	-2832
▁aliex	-2833
▁insane	-2834
▁practical	-2835
xic	-2836
uary	-2837
▁bio	-2838
▁size	-2839
▁mechan	-2840
▁reject	-2841
▁secret	-2842
▁discipline	-2843
cism	-2844
etic	-2845
▁unre	-2846
▁analy	-2847
▁prime	-2848
▁permit	-2849
▁december	-2850
▁material	-2851
▁ol	-2852
ider	-2853
▁clar	-2854
iately	-2855
▁trump	-2856
ression	-2857
▁emotion	-2858
▁feature	-2859
▁investig	-2860
▁immediately	-2861
▁perspective	-2862
eet	-2863
ober	-2864
▁opt	-2865
▁pra	-2866
isation	-2867
▁petrol	-2868
▁vaccine	-2869
▁american	-2870
▁tomorrow	-2871
omb	-2872
shit	-2873
▁mem	-2874
▁shy	-2875
▁russ	-2876
▁apple	-2877
▁freelan	-2878
▁presidential	-2879
▁understanding	-2880
ized	-2881
▁mer	-2882
▁pls	-2883
▁impo	-2884
▁admin	-2885
▁aliexpress	-2886
za	-2887
▁flo	-2888
▁tool	-2889
ception	-2890
▁pharma	-2891
▁airline	-2892
▁attempt	-2893
▁football	-2894
▁conversation	-2895
board	-2896
ablish	-2897
▁october	-2898
▁violence	-2899
mon	-2900
urb	-2901
▁pen	-2902
▁male	-2903
▁fibre	-2904
▁strate	-2905
▁produce	-2906
oda	-2907
▁wide	-2908
▁clothe	-2909
▁unique	-2910
▁wouldn	-2911
▁concept	-2912
▁indians	-2913
▁establish	-2914
▁responsible	-2915
ril	-2916
▁cb	-2917
▁bay	-2918
istan	-2919
▁nove	-2920
▁creat	-2921
▁stage	-2922
▁recover	-2923
go	-2924
gic	-2925
bass	-2926
▁left	-2927
ov	-2928
▁bed	-2929
▁unf	-2930
style	-2931
▁delay	-2932
mission	-2933
▁compar	-2934
▁shitty	-2935
▁addition	-2936
▁shipping	-2937
▁immigration	-2938
▁cv	-2939
urse	-2940
▁hus	-2941
minal	-2942
▁alot	-2943
▁load	-2944
▁taste	-2945
▁animal	-2946
▁ideally	-2947
▁deb	-2948
▁tin	-2949
▁volunt	-2950
▁prevent	-2951
▁november	-2952
▁registration	-2953
▁communication	-2954
▁wt	-2955
▁fal	-2956
▁ill	-2957
▁machine	-2958
▁constitution	-2959
ike	-2960
lict	-2961
unce	-2962
ivate	-2963
stain	-2964
▁punish	-2965
▁guarant	-2966
▁operate	-2967
put	-2968
urch	-2969
wala	-2970
▁byd	-2971
▁mur	-2972
▁colla	-2973
▁shame	-2974
▁ceylon	-2975
▁damage	-2976
▁racism	-2977
▁diploma	-2978
▁thinking	-2979
▁democracy	-2980
▁competition	-2981
▁lak	-2982
▁phd	-2983
▁bond	-2984
▁table	-2985
▁iphone	-2986
▁contribute	-2987
▁financially	-2988
▁lg	-2989
ival	-2990
▁bon	-2991
▁nar	-2992
arily	-2993
asion	-2994
▁jump	-2995
▁peak	-2996
▁cross	-2997
▁advert	-2998
▁evidence	-2999
life	-3000
ways	-3001
▁bsc	-3002
under	-3003
▁ball	-3004
▁mand	-3005
▁rela	-3006
▁liber	-3007
riction	-3008
▁bottle	-3009
▁camera	-3010
▁church	-3011
▁strict	-3012
▁transl	-3013
▁shortage	-3014
▁developer	-3015
▁essential	-3016
her	-3017
▁pi	-3018
▁pak	-3019
ssible	-3020
▁toxic	-3021
▁upper	-3022
▁branch	-3023
▁coffee	-3024
▁accident	-3025
▁construction	-3026
amb	-3027
gth	-3028
oke	-3029
▁bs	-3030
hold	-3031
▁nic	-3032
▁sup	-3033
anese	-3034
▁june	-3035
cutive	-3036
▁annoy	-3037
▁queue	-3038
▁lately	-3039
▁husband	-3040
eme	-3041
▁april	-3042
▁active	-3043
▁additional	-3044
▁monk	-3045
crimin	-3046
enance	-3047
▁rural	-3048
▁conven	-3049
▁freelance	-3050
▁impossible	-3051
edule	-3052
▁hurt	-3053
▁false	-3054
▁scheme	-3055
▁consist	-3056
▁guarantee	-3057
▁restriction	-3058
utor	-3059
what	-3060
▁lma	-3061
▁sick	-3062
▁side	-3063
▁trin	-3064
▁rental	-3065
▁january	-3066
▁monitor	-3067
▁sustain	-3068
▁upgrade	-3069
▁volunteer	-3070
mo	-3071
yal	-3072
▁dh	-3073
llab	-3074
▁circ	-3075
▁fault	-3076
▁septe	-3077
▁toyota	-3078
entially	-3079
▁distance	-3080
▁somewhat	-3081
▁dress	-3082
▁youth	-3083
▁divide	-3084
▁estate	-3085
▁obtain	-3086
▁regret	-3087
▁highway	-3088
▁chemistry	-3089
▁executive	-3090
▁lifestyle	-3091
▁treatment	-3092
▁organization	-3093
comp	-3094
umer	-3095
vere	-3096
ocent	-3097
urate	-3098
▁bang	-3099
▁rough	-3100
▁sadly	-3101
▁syllab	-3102
▁criminal	-3103
▁japanese	-3104
▁recognize	-3105
ening	-3106
▁door	-3107
▁twice	-3108
▁paypal	-3109
▁limited	-3110
▁september	-3111
▁rajapaksha	-3112
▁maintenance	-3113
ting	-3114
▁emb	-3115
▁mad	-3116
▁rad	-3117
▁lady	-3118
▁relax	-3119
▁engage	-3120
▁anyways	-3121
▁climate	-3122
▁install	-3123
▁conflict	-3124
▁confused	-3125
▁surprised	-3126
fs	-3127
ced	-3128
ront	-3129
▁ideal	-3130
▁assist	-3131
▁submit	-3132
▁discrimin	-3133
▁encourage	-3134
ague	-3135
play	-3136
▁boo	-3137
▁box	-3138
▁mac	-3139
▁root	-3140
▁tari	-3141
iction	-3142
▁advis	-3143
▁explo	-3144
▁gaming	-3145
▁histor	-3146
▁sister	-3147
dp	-3148
▁tariff	-3149
lus	-3150
▁vat	-3151
▁cycle	-3152
▁dubai	-3153
▁annual	-3154
▁locally	-3155
▁ministry	-3156
▁neighbor	-3157
▁pakistan	-3158
▁priority	-3159
▁relevant	-3160
br	-3161
ament	-3162
verse	-3163
▁gift	-3164
▁lond	-3165
▁rock	-3166
▁wash	-3167
▁malays	-3168
▁player	-3169
▁guidance	-3170
▁innocent	-3171
▁provider	-3172
▁schedule	-3173
roy	-3174
▁ang	-3175
▁pres	-3176
▁rely	-3177
▁taxi	-3178
▁negot	-3179
▁appear	-3180
▁aspect	-3181
▁couldn	-3182
▁natural	-3183
est	-3184
hol	-3185
sel	-3186
▁coz	-3187
agram	-3188
▁bomb	-3189
▁lmao	-3190
▁loud	-3191
▁sent	-3192
▁cinema	-3193
▁london	-3194
▁syllabus	-3195
kt	-3196
▁mea	-3197
▁brow	-3198
▁lesson	-3199
▁repeat	-3200
▁slowly	-3201
▁bankrupt	-3202
▁citizenship	-3203
▁transportation	-3204
right	-3205
▁hind	-3206
▁setup	-3207
▁signal	-3208
▁legally	-3209
▁everyday	-3210
▁successful	-3211
imb	-3212
▁ba	-3213
ison	-3214
sequ	-3215
▁fest	-3216
▁uncle	-3217
▁counter	-3218
▁generate	-3219
▁resident	-3220
▁associate	-3221
da	-3222
ef	-3223
▁her	-3224
▁busy	-3225
▁ridic	-3226
▁healthy	-3227
▁sampath	-3228
▁consumer	-3229
▁undergraduate	-3230
link	-3231
▁flu	-3232
▁gre	-3233
▁rene	-3234
coming	-3235
▁shoot	-3236
▁bother	-3237
▁destroy	-3238
▁instagram	-3239
▁migration	-3240
▁appointment	-3241
vey	-3242
ario	-3243
illed	-3244
▁refund	-3245
▁tempor	-3246
▁meaning	-3247
▁quickly	-3248
▁agreement	-3249
▁regulation	-3250
▁independent	-3251
rit	-3252
king	-3253
▁diss	-3254
▁funny	-3255
▁march	-3256
▁solar	-3257
▁gender	-3258
▁window	-3259
▁journey	-3260
▁bullshit	-3261
▁girlfriend	-3262
ech	-3263
uable	-3264
▁adop	-3265
▁favor	-3266
▁seller	-3267
▁journal	-3268
▁section	-3269
▁peaceful	-3270
▁province	-3271
▁effective	-3272
ies	-3273
oor	-3274
take	-3275
ught	-3276
ounce	-3277
▁cous	-3278
▁tutor	-3279
▁danger	-3280
▁dinner	-3281
▁fairly	-3282
▁justify	-3283
▁competitive	-3284
eel	-3285
▁my	-3286
▁rap	-3287
▁arag	-3288
▁argu	-3289
▁poll	-3290
▁prin	-3291
▁bonus	-3292
▁equal	-3293
▁scare	-3294
▁extern	-3295
▁ability	-3296
pay	-3297
bage	-3298
cing	-3299
▁esc	-3300
▁gdp	-3301
▁gem	-3302
acity	-3303
▁meme	-3304
▁blind	-3305
▁hutch	-3306
▁usage	-3307
▁cousin	-3308
▁perman	-3309
▁intention	-3310
asa	-3311
ton	-3312
▁tre	-3313
ified	-3314
wards	-3315
▁beat	-3316
▁vari	-3317
▁batch	-3318
▁mount	-3319
▁delete	-3320
▁realise	-3321
▁scenario	-3322
▁structure	-3323
▁supporter	-3324
▁aim	-3325
conut	-3326
▁bail	-3327
▁cate	-3328
▁lock	-3329
▁influen	-3330
▁function	-3331
▁independence	-3332
ons	-3333
ancy	-3334
just	-3335
sung	-3336
▁cru	-3337
▁alle	-3338
▁assign	-3339
▁attract	-3340
▁coconut	-3341
▁direction	-3342
▁mentality	-3343
▁technical	-3344
▁manufacture	-3345
ommod	-3346
▁ikman	-3347
▁voice	-3348
▁ensure	-3349
▁victim	-3350
▁complex	-3351
▁display	-3352
▁heavily	-3353
▁session	-3354
▁attitude	-3355
▁pharmacy	-3356
▁freelancer	-3357
▁appreciated	-3358
sy	-3359
▁hnb	-3360
▁wtf	-3361
▁skip	-3362
▁lucky	-3363
imately	-3364
▁garbage	-3365
▁terrible	-3366
▁celebrate	-3367
mary	-3368
▁pod	-3369
kedin	-3370
rance	-3371
▁flex	-3372
▁hass	-3373
▁swim	-3374
rating	-3375
▁aside	-3376
▁chick	-3377
▁enforce	-3378
▁accommod	-3379
▁commerce	-3380
▁linkedin	-3381
▁valuable	-3382
▁relatively	-3383
cil	-3384
une	-3385
raid	-3386
▁dom	-3387
▁blue	-3388
▁categ	-3389
▁proud	-3390
▁desper	-3391
▁weight	-3392
▁ridicul	-3393
▁samsung	-3394
▁skilled	-3395
▁entirely	-3396
▁external	-3397
▁lecturer	-3398
▁strategy	-3399
▁ethnicity	-3400
vote	-3401
▁hom	-3402
apura	-3403
asing	-3404
▁yala	-3405
▁forex	-3406
▁descri	-3407
▁donate	-3408
▁easter	-3409
▁meeting	-3410
▁village	-3411
▁slightly	-3412
▁spending	-3413
▁influencer	-3414
▁destination	-3415
fia	-3416
oph	-3417
down	-3418
▁but	-3419
▁ceb	-3420
▁now	-3421
aster	-3422
igama	-3423
ocate	-3424
▁film	-3425
▁lgbt	-3426
▁hassle	-3427
▁buddhism	-3428
▁starlink	-3429
key	-3430
rew	-3431
tuk	-3432
araz	-3433
▁gate	-3434
▁sens	-3435
▁daraz	-3436
▁equip	-3437
▁aragal	-3438
▁bugger	-3439
▁tuktuk	-3440
▁arrival	-3441
▁european	-3442
▁percentage	-3443
sess	-3444
▁era	-3445
▁arug	-3446
▁clue	-3447
▁kick	-3448
▁wasn	-3449
▁weak	-3450
▁basis	-3451
▁afraid	-3452
▁labour	-3453
▁teaching	-3454
▁jew	-3455
▁soo	-3456
▁frequ	-3457
▁mafia	-3458
▁renew	-3459
▁author	-3460
▁nearby	-3461
▁nearly	-3462
▁profile	-3463
scription	-3464
▁vacation	-3465
▁rn	-3466
roll	-3467
ruit	-3468
tail	-3469
▁arr	-3470
▁gap	-3471
enger	-3472
▁disp	-3473
▁haha	-3474
▁sund	-3475
▁thous	-3476
▁unable	-3477
gue	-3478
urd	-3479
▁bor	-3480
▁van	-3481
adays	-3482
olate	-3483
▁dark	-3484
▁harm	-3485
▁susp	-3486
▁argue	-3487
▁click	-3488
▁index	-3489
▁sexual	-3490
▁approval	-3491
▁identify	-3492
▁nowadays	-3493
▁thousand	-3494
▁efficient	-3495
po	-3496
dic	-3497
▁map	-3498
▁nav	-3499
ellig	-3500
iliar	-3501
▁task	-3502
cedure	-3503
ousing	-3504
rength	-3505
▁graph	-3506
▁manip	-3507
▁trash	-3508
ologist	-3509
▁conduct	-3510
▁initial	-3511
▁married	-3512
▁measure	-3513
▁procedure	-3514
▁preference	-3515
▁expectation	-3516
▁ine	-3517
▁disg	-3518
rative	-3519
▁cloud	-3520
security	-3521
▁evening	-3522
▁movement	-3523
▁strength	-3524
▁aragalaya	-3525
isf	-3526
▁ay	-3527
▁last	-3528
lection	-3529
▁gather	-3530
▁council	-3531
▁driving	-3532
▁housing	-3533
▁beginner	-3534
▁intellig	-3535
▁occasion	-3536
▁particip	-3537
▁advertise	-3538
unk	-3539
goda	-3540
izer	-3541
▁beg	-3542
▁got	-3543
▁hyb	-3544
▁tie	-3545
verty	-3546
▁rant	-3547
enture	-3548
▁depre	-3549
▁famous	-3550
▁theory	-3551
▁poverty	-3552
▁birthday	-3553
▁clothing	-3554
▁photograph	-3555
ae	-3556
ani	-3557
fol	-3558
iet	-3559
▁buff	-3560
▁fool	-3561
▁drama	-3562
▁elite	-3563
▁curric	-3564
▁hybrid	-3565
▁propag	-3566
▁resort	-3567
▁series	-3568
▁arrange	-3569
▁default	-3570
▁exploit	-3571
▁familiar	-3572
▁planning	-3573
▁suddenly	-3574
▁wildlife	-3575
▁consultant	-3576
▁presidency	-3577
uc	-3578
folio	-3579
▁ital	-3580
▁mall	-3581
▁shot	-3582
▁sold	-3583
▁trap	-3584
▁bribe	-3585
▁murder	-3586
▁consequ	-3587
▁terrorist	-3588
▁tradition	-3589
ima	-3590
▁nut	-3591
▁dict	-3592
market	-3593
▁trick	-3594
▁scamme	-3595
▁divorce	-3596
▁soldier	-3597
▁behavior	-3598
▁malaysia	-3599
▁portfolio	-3600
va	-3601
dex	-3602
rep	-3603
▁gun	-3604
▁obs	-3605
▁sky	-3606
▁trc	-3607
ilege	-3608
▁jail	-3609
▁outd	-3610
▁shut	-3611
▁teen	-3612
▁cream	-3613
▁maxim	-3614
▁upcoming	-3615
▁concerned	-3616
▁significantly	-3617
iy	-3618
▁ali	-3619
▁bru	-3620
▁epf	-3621
▁kdu	-3622
agama	-3623
uring	-3624
▁grant	-3625
▁extend	-3626
▁launch	-3627
▁sunday	-3628
▁careful	-3629
▁production	-3630
mm	-3631
▁cin	-3632
▁mic	-3633
▁nom	-3634
brary	-3635
inger	-3636
▁heat	-3637
▁vend	-3638
▁admit	-3639
▁debit	-3640
▁survey	-3641
▁library	-3642
▁stability	-3643
ban	-3644
iry	-3645
▁ot	-3646
ount	-3647
ping	-3648
ssed	-3649
▁rot	-3650
▁san	-3651
▁edex	-3652
▁cheer	-3653
▁shirt	-3654
▁anytime	-3655
▁premium	-3656
▁princip	-3657
▁suitable	-3658
ena	-3659
pse	-3660
▁ug	-3661
▁dry	-3662
▁tur	-3663
▁draw	-3664
▁quit	-3665
▁unne	-3666
▁laugh	-3667
▁division	-3668
▁unnecess	-3669
▁equipment	-3670
▁particularly	-3671
▁certification	-3672
ik	-3673
tic	-3674
ruct	-3675
▁atm	-3676
▁egg	-3677
▁nsb	-3678
cohol	-3679
▁upto	-3680
stance	-3681
▁coach	-3682
▁wheel	-3683
▁burden	-3684
▁centre	-3685
▁oppose	-3686
▁speech	-3687
▁chicken	-3688
▁recruit	-3689
▁speaker	-3690
▁festival	-3691
▁neighbour	-3692
▁disappoint	-3693
ass	-3694
rier	-3695
▁cup	-3696
▁loo	-3697
▁rob	-3698
arian	-3699
namon	-3700
onsor	-3701
▁cbsl	-3702
▁pool	-3703
▁indic	-3704
▁labor	-3705
olution	-3706
▁factory	-3707
▁respond	-3708
▁sponsor	-3709
▁typical	-3710
▁argument	-3711
▁category	-3712
▁cinnamon	-3713
▁possibly	-3714
▁entertain	-3715
▁consequence	-3716
▁cc	-3717
arth	-3718
▁cod	-3719
anaya	-3720
entic	-3721
▁kore	-3722
▁equity	-3723
fficient	-3724
▁reflect	-3725
▁donation	-3726
▁redditor	-3727
▁rajapakse	-3728
▁specialist	-3729
inge	-3730
▁and	-3731
▁irre	-3732
ughter	-3733
▁fancy	-3734
▁logic	-3735
▁round	-3736
rateful	-3737
▁circle	-3738
▁debate	-3739
▁capacity	-3740
desh	-3741
▁spl	-3742
▁adopt	-3743
▁floor	-3744
▁amount	-3745
▁excuse	-3746
▁alcohol	-3747
▁conserv	-3748
▁podcast	-3749
▁protein	-3750
▁announce	-3751
▁protection	-3752
ga	-3753
fic	-3754
ino	-3755
mas	-3756
ottu	-3757
▁ice	-3758
▁pic	-3759
iency	-3760
▁crap	-3761
▁crash	-3762
▁attach	-3763
▁scared	-3764
atically	-3765
▁compete	-3766
▁edexcel	-3767
▁calculate	-3768
▁reputation	-3769
alee	-3770
hole	-3771
▁der	-3772
▁kit	-3773
▁piz	-3774
▁input	-3775
▁pocket	-3776
▁archite	-3777
▁annoying	-3778
▁operation	-3779
fa	-3780
ela	-3781
iat	-3782
▁bul	-3783
▁feb	-3784
▁squ	-3785
itiya	-3786
iture	-3787
▁buddy	-3788
▁color	-3789
▁dance	-3790
▁extent	-3791
▁identity	-3792
▁normally	-3793
▁authentic	-3794
▁colleague	-3795
▁privilege	-3796
▁possibility	-3797
▁investigation	-3798
to	-3799
orn	-3800
abil	-3801
ating	-3802
bassy	-3803
▁germ	-3804
▁lakh	-3805
▁liqu	-3806
▁rail	-3807
▁tikt	-3808
ailand	-3809
▁ignor	-3810
▁trincom	-3811
▁convince	-3812
▁thailand	-3813
▁propaganda	-3814
▁ath	-3815
▁ple	-3816
▁deny	-3817
▁nons	-3818
▁align	-3819
▁gradu	-3820
▁remit	-3821
▁shock	-3822
▁forest	-3823
▁retail	-3824
▁satisf	-3825
▁tiktok	-3826
▁compens	-3827
▁complic	-3828
▁collapse	-3829
▁weligama	-3830
▁socialist	-3831
▁trincomalee	-3832
▁cybersecurity	-3833
hd	-3834
gery	-3835
▁eta	-3836
▁kot	-3837
▁wit	-3838
erman	-3839
▁dehi	-3840
▁gang	-3841
▁quiet	-3842
▁tired	-3843
umption	-3844
▁arugam	-3845
▁vendor	-3846
▁clarify	-3847
▁contain	-3848
▁embassy	-3849
▁publish	-3850
▁surprise	-3851
▁permanent	-3852
▁unnecessary	-3853
oft	-3854
lare	-3855
adasa	-3856
erate	-3857
worth	-3858
▁boat	-3859
▁bruh	-3860
▁farm	-3861
▁guil	-3862
▁wall	-3863
▁cabin	-3864
▁recon	-3865
▁memory	-3866
▁severe	-3867
▁horrible	-3868
▁promotion	-3869
▁constantly	-3870
hal	-3871
▁mc	-3872
gage	-3873
rene	-3874
▁ben	-3875
▁mos	-3876
▁sir	-3877
antha	-3878
arass	-3879
arter	-3880
usion	-3881
▁clin	-3882
▁damb	-3883
▁roll	-3884
▁ther	-3885
▁risky	-3886
▁belief	-3887
▁buffet	-3888
▁dealer	-3889
▁impose	-3890
▁decline	-3891
▁accommodation	-3892
agn	-3893
uma	-3894
▁nt	-3895
▁uc	-3896
▁nsbm	-3897
▁stack	-3898
▁approx	-3899
▁contra	-3900
▁holder	-3901
▁subsid	-3902
▁advisor	-3903
▁maximum	-3904
▁portion	-3905
▁curricul	-3906
▁estimate	-3907
list	-3908
▁msc	-3909
▁afric	-3910
▁initi	-3911
▁screw	-3912
▁borrow	-3913
▁deduct	-3914
▁charact	-3915
▁grateful	-3916
▁beginning	-3917
▁mandatory	-3918
▁supermarket	-3919
▁administration	-3920
▁amb	-3921
▁gay	-3922
▁gif	-3923
▁ird	-3924
▁une	-3925
▁urg	-3926
▁wake	-3927
▁earth	-3928
▁loose	-3929
▁adjust	-3930
▁incred	-3931
▁native	-3932
▁rarely	-3933
▁verify	-3934
▁biology	-3935
▁opposite	-3936
▁threaten	-3937
▁passenger	-3938
▁communicate	-3939
je	-3940
ali	-3941
ata	-3942
ray	-3943
▁nu	-3944
▁bre	-3945
▁pfc	-3946
▁asap	-3947
▁choc	-3948
▁hust	-3949
▁perf	-3950
▁reve	-3951
▁sake	-3952
▁drain	-3953
▁quote	-3954
▁absurd	-3955
▁belong	-3956
▁favour	-3957
▁primary	-3958
▁nonsense	-3959
▁awareness	-3960
▁character	-3961
▁curriculum	-3962
▁ridiculous	-3963
▁doc	-3964
▁mba	-3965
ratic	-3966
▁cold	-3967
▁nuge	-3968
▁overp	-3969
▁pizza	-3970
▁surely	-3971
▁upload	-3972
▁america	-3973
▁disgust	-3974
▁entitle	-3975
▁germany	-3976
▁graphic	-3977
▁suspect	-3978
▁nugegoda	-3979
▁temporary	-3980
vt	-3981
enda	-3982
▁gig	-3983
▁odd	-3984
▁fash	-3985
▁hiri	-3986
▁guard	-3987
▁noise	-3988
▁harass	-3989
ological	-3990
▁declare	-3991
▁civilian	-3992
▁critical	-3993
▁learning	-3994
▁chocolate	-3995
▁negotiate	-3996
▁programme	-3997
▁comparison	-3998
▁previously	-3999
sd	-4000
ging	-4001
▁dil	-4002
▁hnd	-4003
▁wow	-4004
esome	-4005
▁coin	-4006
▁leaf	-4007
▁mile	-4008
▁scoo	-4009
▁sole	-4010
worthy	-4011
▁margin	-4012
▁awesome	-4013
▁fashion	-4014
▁plastic	-4015
▁shouldn	-4016
▁daughter	-4017
▁everybody	-4018
▁selection	-4019
che	-4020
erior	-4021
▁cred	-4022
▁lane	-4023
▁welf	-4024
▁wing	-4025
▁label	-4026
▁paint	-4027
duction	-4028
▁casual	-4029
▁reveal	-4030
▁perfume	-4031
▁predict	-4032
▁welfare	-4033
▁powerful	-4034
▁workplace	-4035
▁initiative	-4036
▁technically	-4037
fl	-4038
oe	-4039
dom	-4040
ife	-4041
ysis	-4042
▁anx	-4043
▁rip	-4044
▁gard	-4045
▁rush	-4046
▁tang	-4047
icious	-4048
▁frame	-4049
▁genoc	-4050
▁lgbtq	-4051
▁entrep	-4052
▁voting	-4053
▁scammer	-4054
▁accurate	-4055
▁dambulla	-4056
▁traveler	-4057
▁household	-4058
▁convenient	-4059
ode	-4060
▁nd	-4061
▁yr	-4062
onym	-4063
▁hyp	-4064
▁isp	-4065
icing	-4066
▁cima	-4067
▁piss	-4068
▁agric	-4069
▁sight	-4070
▁sugar	-4071
dhapura	-4072
▁bangla	-4073
▁therap	-4074
▁fitness	-4075
▁liberal	-4076
▁psychiat	-4077
▁reference	-4078
▁leadership	-4079
▁medication	-4080
▁educational	-4081
aik	-4082
now	-4083
▁ed	-4084
▁ml	-4085
roid	-4086
▁ram	-4087
▁ven	-4088
arana	-4089
igate	-4090
▁cong	-4091
▁hero	-4092
▁hill	-4093
▁integ	-4094
▁skull	-4095
▁split	-4096
▁tight	-4097
▁agenda	-4098
▁instru	-4099
▁unfair	-4100
▁resolve	-4101
▁agricult	-4102
▁disagree	-4103
▁entrance	-4104
▁regularly	-4105
▁australian	-4106
▁retirement	-4107
▁anuradhapura	-4108
zz	-4109
bri	-4110
gpt	-4111
ley	-4112
aden	-4113
cery	-4114
cise	-4115
▁abt	-4116
▁rom	-4117
▁elig	-4118
▁chase	-4119
▁flood	-4120
▁guest	-4121
▁slave	-4122
▁trcsl	-4123
▁mathem	-4124
▁prison	-4125
▁earning	-4126
▁colonial	-4127
▁dictator	-4128
▁downvote	-4129
▁certainly	-4130
▁confident	-4131
▁dangerous	-4132
▁exception	-4133
▁immigrant	-4134
▁entreprene	-4135
▁plantation	-4136
aka	-4137
lam	-4138
▁ga	-4139
cell	-4140
fall	-4141
iour	-4142
over	-4143
▁ofc	-4144
▁ten	-4145
anage	-4146
iting	-4147
rical	-4148
▁boot	-4149
▁calm	-4150
▁grab	-4151
▁suic	-4152
▁disco	-4153
▁error	-4154
▁innov	-4155
▁petta	-4156
▁artist	-4157
▁expose	-4158
▁harsha	-4159
▁initially	-4160
▁premadasa	-4161
▁progressive	-4162
▁au	-4163
▁cmb	-4164
mploy	-4165
▁dual	-4166
▁ukra	-4167
▁defend	-4168
▁safari	-4169
▁scient	-4170
▁smooth	-4171
▁chatgpt	-4172
▁proceed	-4173
▁witness	-4174
▁genocide	-4175
▁ideology	-4176
▁surround	-4177
▁unemploy	-4178
▁highlight	-4179
▁bangladesh	-4180
▁discrimination	-4181
here	-4182
inal	-4183
▁aus	-4184
▁pin	-4185
▁zone	-4186
▁brown	-4187
▁curry	-4188
▁flash	-4189
▁habit	-4190
▁kottu	-4191
▁tower	-4192
▁dehiwala	-4193
▁remotely	-4194
▁undergrad	-4195
▁electrical	-4196
▁pu	-4197
olic	-4198
▁men	-4199
▁obl	-4200
▁uae	-4201
▁adhd	-4202
▁siri	-4203
▁tree	-4204
▁wire	-4205
▁adapt	-4206
▁treas	-4207
▁anonym	-4208
▁incomp	-4209
▁propose	-4210
▁surgery	-4211
▁collection	-4212
▁confidence	-4213
▁historical	-4214
▁journalist	-4215
▁availability	-4216
▁asw	-4217
▁cha	-4218
▁mag	-4219
▁rug	-4220
▁yep	-4221
allet	-4222
itate	-4223
▁bent	-4224
▁dome	-4225
▁thri	-4226
urally	-4227
▁chain	-4228
▁chair	-4229
▁climb	-4230
▁mixed	-4231
▁nurse	-4232
▁entity	-4233
▁expand	-4234
▁finger	-4235
▁formal	-4236
▁hustle	-4237
▁pettah	-4238
▁funding	-4239
▁grocery	-4240
▁essentially	-4241
▁experienced	-4242
▁sustainable	-4243
off	-4244
owe	-4245
▁jr	-4246
▁ly	-4247
awat	-4248
eral	-4249
▁kel	-4250
tance	-4251
▁bath	-4252
▁core	-4253
▁pand	-4254
bridge	-4255
▁glass	-4256
itation	-4257
▁minded	-4258
▁unsure	-4259
▁cabinet	-4260
▁hiriket	-4261
▁analysis	-4262
▁fundament	-4263
▁depreciate	-4264
▁recognition	-4265
▁automatically	-4266
mu	-4267
ten	-4268
otic	-4269
▁pil	-4270
eline	-4271
▁flow	-4272
▁icbt	-4273
▁spam	-4274
gation	-4275
▁crook	-4276
▁quant	-4277
▁urban	-4278
adeniya	-4279
▁circum	-4280
▁explan	-4281
▁manner	-4282
▁failure	-4283
▁shopping	-4284
▁southern	-4285
▁broadband	-4286
▁depression	-4287
▁mechanical	-4288
▁frustrating	-4289
▁additionally	-4290
ho	-4291
sbc	-4292
oing	-4293
▁fat	-4294
▁fds	-4295
▁nan	-4296
ingly	-4297
▁cake	-4298
▁hack	-4299
▁hsbc	-4300
▁mbps	-4301
▁scope	-4302
▁smell	-4303
▁smoke	-4304
▁sweet	-4305
▁tooth	-4306
▁garden	-4307
▁invite	-4308
▁junior	-4309
▁regime	-4310
▁forever	-4311
▁internal	-4312
▁qualified	-4313
▁entrepreneur	-4314
▁accountability	-4315
▁cos	-4316
▁ntb	-4317
▁swe	-4318
▁cart	-4319
▁conc	-4320
▁dish	-4321
▁nope	-4322
▁pair	-4323
▁pray	-4324
▁spec	-4325
▁crack	-4326
▁faith	-4327
▁islam	-4328
▁sacri	-4329
▁german	-4330
▁android	-4331
▁eastern	-4332
▁outcome	-4333
▁privacy	-4334
▁related	-4335
▁advanced	-4336
▁christian	-4337
▁passionate	-4338
▁remittance	-4339
▁installment	-4340
bs	-4341
ulf	-4342
iche	-4343
olit	-4344
▁fle	-4345
▁ong	-4346
▁insp	-4347
▁lift	-4348
▁mode	-4349
▁tiny	-4350
▁afaik	-4351
▁amend	-4352
▁expos	-4353
▁hostel	-4354
▁intend	-4355
▁russia	-4356
▁vision	-4357
▁combine	-4358
▁pathway	-4359
▁typically	-4360
▁peradeniya	-4361
▁replacement	-4362
▁intelligence	-4363
hh	-4364
▁od	-4365
ella	-4366
▁aid	-4367
▁vit	-4368
ropri	-4369
▁lunch	-4370
▁smile	-4371
▁wallet	-4372
▁incompet	-4373
▁organize	-4374
▁vp	-4375
ased	-4376
fice	-4377
ture	-4378
▁len	-4379
▁pix	-4380
▁rum	-4381
▁scr	-4382
▁dent	-4383
▁lean	-4384
▁rainy	-4385
▁repay	-4386
▁ultra	-4387
ivalent	-4388
▁orient	-4389
▁transp	-4390
▁minimal	-4391
▁priorit	-4392
▁scooter	-4393
▁selfish	-4394
▁cambridge	-4395
▁sacrifice	-4396
▁entertainment	-4397
kk	-4398
▁fy	-4399
▁ms	-4400
▁ud	-4401
▁etf	-4402
▁fed	-4403
▁pow	-4404
▁grad	-4405
▁wave	-4406
▁clown	-4407
▁media	-4408
▁minor	-4409
▁occur	-4410
▁overn	-4411
▁plain	-4412
▁affair	-4413
▁derana	-4414
▁united	-4415
▁capable	-4416
▁congrat	-4417
▁actively	-4418
▁coverage	-4419
▁exposure	-4420
▁instance	-4421
▁sentence	-4422
▁unlikely	-4423
▁clearance	-4424
▁overnight	-4425
▁participate	-4426
▁circumstance	-4427
▁conservative	-4428
yl	-4429
elt	-4430
ilet	-4431
osal	-4432
pora	-4433
ssor	-4434
▁gpa	-4435
▁kur	-4436
▁pad	-4437
▁tor	-4438
▁dias	-4439
▁drag	-4440
▁hall	-4441
▁iron	-4442
▁mail	-4443
▁meter	-4444
▁appeal	-4445
▁excell	-4446
▁outlet	-4447
▁softlo	-4448
▁toilet	-4449
▁ongoing	-4450
▁pattern	-4451
▁director	-4452
▁tangalle	-4453
▁telegram	-4454
▁allowance	-4455
▁equivalent	-4456
▁hiriketiya	-4457
▁ultimately	-4458
no	-4459
dha	-4460
nar	-4461
uate	-4462
▁hob	-4463
▁sab	-4464
andal	-4465
▁blow	-4466
▁leak	-4467
▁twit	-4468
▁canad	-4469
▁disre	-4470
▁greed	-4471
▁rugby	-4472
▁divers	-4473
ervation	-4474
▁asshole	-4475
▁charity	-4476
▁pretend	-4477
▁working	-4478
▁industri	-4479
▁mountain	-4480
▁admission	-4481
▁softlogic	-4482
▁translate	-4483
▁membership	-4484
▁psychology	-4485
▁sufficient	-4486
▁organisation	-4487
▁psychiatrist	-4488
rom	-4489
city	-4490
▁reb	-4491
▁unb	-4492
▁evil	-4493
▁ring	-4494
▁rude	-4495
▁slip	-4496
▁soul	-4497
▁ucsc	-4498
▁vary	-4499
▁ahang	-4500
▁elder	-4501
▁keell	-4502
▁react	-4503
▁spare	-4504
▁bridge	-4505
▁lovely	-4506
▁privat	-4507
▁rating	-4508
▁suburb	-4509
▁alright	-4510
▁booking	-4511
▁excited	-4512
▁pricing	-4513
▁twitter	-4514
▁wealthy	-4515
▁audience	-4516
▁disaster	-4517
▁domestic	-4518
▁interact	-4519
▁behaviour	-4520
▁vaccinate	-4521
▁assignment	-4522
▁trustworthy	-4523
hn	-4524
hy	-4525
ja	-4526
rap	-4527
emic	-4528
ound	-4529
▁tag	-4530
▁boss	-4531
▁exec	-4532
▁mira	-4533
▁reci	-4534
iation	-4535
scribe	-4536
▁pixel	-4537
▁royal	-4538
▁bloody	-4539
▁diesel	-4540
▁railway	-4541
▁suicide	-4542
▁utility	-4543
▁allocate	-4544
▁designer	-4545
▁diaspora	-4546
▁recovery	-4547
▁criticism	-4548
▁criticize	-4549
▁desperate	-4550
▁secretary	-4551
▁complicated	-4552
▁necessarily	-4553
arm	-4554
oko	-4555
gala	-4556
▁ack	-4557
▁ast	-4558
▁mut	-4559
▁vet	-4560
▁vir	-4561
▁hype	-4562
▁alive	-4563
▁bully	-4564
▁incon	-4565
▁lower	-4566
▁micro	-4567
▁panel	-4568
▁shall	-4569
▁acknow	-4570
▁enable	-4571
▁barrier	-4572
▁analytic	-4573
▁describe	-4574
▁childhood	-4575
▁mathematic	-4576
▁fundamental	-4577
▁improvement	-4578
resh	-4579
cient	-4580
▁dear	-4581
▁mald	-4582
▁virt	-4583
▁thief	-4584
anayake	-4585
▁expire	-4586
▁ahangama	-4587
▁eligible	-4588
ca	-4589
xy	-4590
ita	-4591
rem	-4592
ough	-4593
urea	-4594
▁bow	-4595
▁hir	-4596
▁sar	-4597
aduwa	-4598
rated	-4599
▁shar	-4600
▁diagn	-4601
▁hobby	-4602
▁trial	-4603
▁colour	-4604
▁object	-4605
▁powder	-4606
▁distrib	-4607
▁roughly	-4608
▁socialism	-4609
▁accounting	-4610
▁officially	-4611
▁explanation	-4612
ied	-4613
ppy	-4614
aper	-4615
▁dum	-4616
▁fry	-4617
▁kal	-4618
rease	-4619
ruary	-4620
▁cath	-4621
▁fant	-4622
▁stor	-4623
▁temu	-4624
▁wick	-4625
▁occup	-4626
▁behave	-4627
▁burger	-4628
▁succeed	-4629
▁canadian	-4630
▁constant	-4631
▁decrease	-4632
▁february	-4633
▁correctly	-4634
▁narrative	-4635
▁professor	-4636
▁rajapaksh	-4637
▁commitment	-4638
▁difficulty	-4639
▁gp	-4640
▁ya	-4641
▁bid	-4642
▁bin	-4643
▁nah	-4644
▁pvt	-4645
▁ren	-4646
▁vpn	-4647
▁yah	-4648
▁buck	-4649
▁hond	-4650
▁koko	-4651
▁boost	-4652
▁expat	-4653
▁shout	-4654
▁accent	-4655
▁friday	-4656
▁commute	-4657
▁crowded	-4658
▁storage	-4659
▁ignorant	-4660
▁somebody	-4661
▁textbook	-4662
▁manipulate	-4663
▁specialize	-4664
emy	-4665
pet	-4666
▁fyi	-4667
ander	-4668
iance	-4669
rench	-4670
▁coll	-4671
▁grid	-4672
▁hung	-4673
▁hunt	-4674
▁buyer	-4675
▁motiv	-4676
▁ordin	-4677
counter	-4678
▁cancer	-4679
▁stabil	-4680
▁viable	-4681
▁consume	-4682
▁worship	-4683
▁globally	-4684
▁regulate	-4685
▁profitable	-4686
eam	-4687
sey	-4688
wat	-4689
iary	-4690
irst	-4691
mony	-4692
shop	-4693
awala	-4694
▁bite	-4695
▁mill	-4696
▁warn	-4697
bility	-4698
▁burea	-4699
▁dedic	-4700
jection	-4701
▁addict	-4702
▁beauty	-4703
▁creative	-4704
▁pandemic	-4705
▁traveller	-4706
▁democratic	-4707
▁industrial	-4708
▁surprising	-4709
▁acknowledge	-4710
▁successfully	-4711
nel	-4712
ont	-4713
▁ip	-4714
ache	-4715
agon	-4716
atha	-4717
▁kum	-4718
bling	-4719
house	-4720
▁john	-4721
▁lazy	-4722
▁lion	-4723
▁mora	-4724
▁peep	-4725
▁scar	-4726
charge	-4727
▁herit	-4728
▁hindu	-4729
▁korea	-4730
▁satur	-4731
▁shape	-4732
▁veget	-4733
aragama	-4734
▁guilty	-4735
▁locate	-4736
▁ancient	-4737
▁artific	-4738
▁opening	-4739
▁parking	-4740
▁activate	-4741
▁encounter	-4742
▁terrorism	-4743
▁accountable	-4744
▁combination	-4745
adu	-4746
ken	-4747
▁lav	-4748
▁aunt	-4749
▁hole	-4750
▁emote	-4751
▁plate	-4752
▁battle	-4753
▁depart	-4754
▁instal	-4755
▁defense	-4756
▁recognise	-4757
▁punishment	-4758
▁agriculture	-4759
▁nationalist	-4760
▁vaccination	-4761
▁compensation	-4762
hib	-4763
aran	-4764
▁cus	-4765
▁inj	-4766
▁mum	-4767
▁ste	-4768
olish	-4769
point	-4770
▁airb	-4771
▁furn	-4772
▁lend	-4773
▁mini	-4774
▁niss	-4775
▁riot	-4776
▁cable	-4777
▁honda	-4778
▁define	-4779
▁discon	-4780
▁escape	-4781
▁exclus	-4782
▁bentota	-4783
▁classic	-4784
▁treasury	-4785
▁christmas	-4786
▁communist	-4787
▁disappear	-4788
▁disgusting	-4789
▁meaningful	-4790
uru	-4791
iled	-4792
▁fea	-4793
▁jav	-4794
▁mir	-4795
aniya	-4796
erion	-4797
inder	-4798
irect	-4799
▁gram	-4800
▁salt	-4801
▁spir	-4802
ortion	-4803
▁stray	-4804
▁stuck	-4805
▁surge	-4806
▁venue	-4807
▁accuse	-4808
▁portal	-4809
▁server	-4810
ationally	-4811
▁catholic	-4812
▁discover	-4813
▁criterion	-4814
▁differently	-4815
▁economically	-4816
▁py	-4817
bery	-4818
educ	-4819
ette	-4820
shot	-4821
unge	-4822
▁hes	-4823
▁jer	-4824
▁kar	-4825
▁nur	-4826
▁poh	-4827
iment	-4828
▁tear	-4829
▁honey	-4830
▁italy	-4831
▁memor	-4832
▁optim	-4833
▁unity	-4834
▁assess	-4835
▁clinic	-4836
▁violent	-4837
▁visible	-4838
▁flexible	-4839
▁kelaniya	-4840
▁publicly	-4841
▁excellent	-4842
▁immediate	-4843
▁reputable	-4844
▁consistent	-4845
▁depreciation	-4846
eth	-4847
ius	-4848
ula	-4849
▁bm	-4850
▁gf	-4851
▁tf	-4852
elam	-4853
icit	-4854
ised	-4855
whel	-4856
▁ash	-4857
▁mas	-4858
▁nil	-4859
▁sav	-4860
▁uns	-4861
▁dump	-4862
▁edge	-4863
▁rape	-4864
▁stem	-4865
▁viet	-4866
▁badly	-4867
▁freak	-4868
▁mouth	-4869
▁niche	-4870
comfort	-4871
▁buddha	-4872
▁exceed	-4873
▁openly	-4874
▁bombing	-4875
▁century	-4876
▁licence	-4877
▁outdated	-4878
▁proposal	-4879
▁statistic	-4880
▁potentially	-4881
gi	-4882
▁dy	-4883
▁om	-4884
cean	-4885
soon	-4886
▁uom	-4887
▁ease	-4888
▁keen	-4889
▁seme	-4890
▁tact	-4891
▁tail	-4892
▁tank	-4893
▁tatt	-4894
▁thug	-4895
▁activ	-4896
▁gotab	-4897
▁moral	-4898
▁ocean	-4899
▁trail	-4900
▁utter	-4901
▁earner	-4902
▁french	-4903
▁relief	-4904
▁uneduc	-4905
▁consent	-4906
▁ukraine	-4907
▁variety	-4908
▁heritage	-4909
▁pathetic	-4910
▁ownership	-4911
▁perfectly	-4912
▁prioritize	-4913
▁personality	-4914
▁translation	-4915
▁subscription	-4916
gl	-4917
ked	-4918
itha	-4919
▁bub	-4920
▁bug	-4921
▁gri	-4922
oneer	-4923
▁embar	-4924
▁forum	-4925
▁fruit	-4926
▁steam	-4927
asinghe	-4928
rection	-4929
▁expend	-4930
▁kindly	-4931
▁nissan	-4932
iliation	-4933
▁assault	-4934
▁continu	-4935
▁gateway	-4936
▁trigger	-4937
▁payoneer	-4938
▁presence	-4939
▁regional	-4940
▁semester	-4941
▁realistic	-4942
▁convenience	-4943
yy	-4944
aid	-4945
bal	-4946
bie	-4947
ser	-4948
tin	-4949
▁kg	-4950
half	-4951
iety	-4952
ique	-4953
sday	-4954
▁lif	-4955
▁rub	-4956
▁slf	-4957
▁und	-4958
▁bias	-4959
▁bore	-4960
▁diet	-4961
▁dise	-4962
▁flav	-4963
▁goon	-4964
▁hasn	-4965
▁lake	-4966
▁vast	-4967
itchen	-4968
▁chand	-4969
▁cheat	-4970
▁eelam	-4971
▁snork	-4972
▁yahap	-4973
awatuna	-4974
▁amazon	-4975
▁behalf	-4976
▁league	-4977
▁anxiety	-4978
▁benefic	-4979
▁kitchen	-4980
▁monsoon	-4981
▁setting	-4982
▁vacancy	-4983
▁restrict	-4984
▁competent	-4985
▁allegation	-4986
▁discourage	-4987
▁governance	-4988
▁incredibly	-4989
▁physically	-4990
▁supplement	-4991
▁importantly	-4992
▁politically	-4993
▁internationally	-4994
pi	-4995
reh	-4996
▁wf	-4997
lead	-4998
▁bcz	-4999
▁ceo	-5000
▁ego	-5001
▁owe	-5002
▁sms	-5003
ailed	-5004
ublic	-5005
▁ayur	-5006
▁brut	-5007
▁chip	-5008
▁cond	-5009
▁feas	-5010
▁flat	-5011
▁fulf	-5012
▁jaya	-5013
▁magn	-5014
▁pear	-5015
▁thro	-5016
▁hypoc	-5017
▁phase	-5018
▁shady	-5019
▁sheet	-5020
▁border	-5021
▁incent	-5022
▁insult	-5023
▁intake	-5024
▁parcel	-5025
▁urgent	-5026
▁macbook	-5027
▁overwhel	-5028
▁emotional	-5029
▁naturally	-5030
▁principle	-5031
▁unawatuna	-5032
▁frequently	-5033
▁friendship	-5034
box	-5035
ola	-5036
wor	-5037
▁ft	-5038
▁hu	-5039
flow	-5040
rice	-5041
▁ndb	-5042
▁nib	-5043
▁uoc	-5044
night	-5045
▁forg	-5046
▁gear	-5047
▁symb	-5048
▁zoom	-5049
iliate	-5050
▁award	-5051
▁backp	-5052
▁demon	-5053
▁radio	-5054
station	-5055
▁ayurve	-5056
▁basket	-5057
▁cringe	-5058
▁matara	-5059
▁tattoo	-5060
ropriate	-5061
▁contest	-5062
▁disease	-5063
▁embarra	-5064
▁maldive	-5065
▁detailed	-5066
▁mentally	-5067
▁ordinary	-5068
▁republic	-5069
▁assistance	-5070
▁permission	-5071
▁uneducated	-5072
▁practically	-5073
▁resignation	-5074
▁prescription	-5075
▁parliamentary	-5076
cs	-5077
abe	-5078
app	-5079
for	-5080
han	-5081
net	-5082
reep	-5083
▁kat	-5084
▁tap	-5085
▁tol	-5086
gment	-5087
haust	-5088
▁batt	-5089
▁defe	-5090
▁pill	-5091
▁pump	-5092
▁slfp	-5093
▁angry	-5094
▁audit	-5095
▁incor	-5096
▁monet	-5097
▁swear	-5098
▁backup	-5099
▁farmer	-5100
▁hardly	-5101
▁resist	-5102
▁bedroom	-5103
▁exhaust	-5104
▁impress	-5105
▁quarter	-5106
▁venture	-5107
▁warning	-5108
istically	-5109
▁abortion	-5110
▁reminder	-5111
▁sentiment	-5112
▁workforce	-5113
▁withdrawal	-5114
▁programming	-5115
▁restructure	-5116
▁contribution	-5117
eve	-5118
ando	-5119
cuit	-5120
irty	-5121
▁suv	-5122
andon	-5123
itual	-5124
▁gamp	-5125
▁hikk	-5126
▁lone	-5127
marily	-5128
romise	-5129
▁cater	-5130
▁penal	-5131
▁rapid	-5132
▁filter	-5133
▁liquid	-5134
▁mature	-5135
▁purely	-5136
▁abandon	-5137
▁abolish	-5138
▁exclude	-5139
▁mislead	-5140
▁yahapal	-5141
▁saturday	-5142
▁superior	-5143
▁swimming	-5144
▁amendment	-5145
▁primarily	-5146
▁compromise	-5147
▁literature	-5148
▁architecture	-5149
ged	-5150
gen	-5151
▁og	-5152
paid	-5153
ring	-5154
▁boc	-5155
▁pal	-5156
▁wfh	-5157
astic	-5158
cious	-5159
eapon	-5160
onent	-5161
osity	-5162
otism	-5163
▁auto	-5164
▁brief	-5165
▁creep	-5166
▁quota	-5167
▁extrem	-5168
▁mirror	-5169
▁resume	-5170
▁tactic	-5171
▁vietnam	-5172
▁writing	-5173
▁backpack	-5174
▁headache	-5175
▁bandarana	-5176
▁broadcast	-5177
▁component	-5178
▁dependent	-5179
▁hikkaduwa	-5180
▁necessity	-5181
▁violation	-5182
▁wonderful	-5183
vy	-5184
fli	-5185
ined	-5186
look	-5187
wide	-5188
word	-5189
▁ble	-5190
▁fas	-5191
▁voc	-5192
antic	-5193
ising	-5194
prise	-5195
▁enth	-5196
▁pfca	-5197
▁scan	-5198
▁tort	-5199
▁unus	-5200
borate	-5201
▁enrol	-5202
▁moron	-5203
▁pleas	-5204
▁pride	-5205
▁rally	-5206
▁bubble	-5207
▁corner	-5208
▁temper	-5209
▁weapon	-5210
▁equally	-5211
▁ethical	-5212
▁scratch	-5213
▁favorite	-5214
▁randomly	-5215
▁economist	-5216
▁uncomfort	-5217
▁revolution	-5218
▁unemployed	-5219
▁corporation	-5220
▁bandaranaike	-5221
aha	-5222
tel	-5223
uls	-5224
▁mm	-5225
flix	-5226
unic	-5227
▁alt	-5228
▁ish	-5229
▁otp	-5230
ampoo	-5231
retch	-5232
▁boil	-5233
▁fare	-5234
▁sand	-5235
▁wood	-5236
▁drunk	-5237
▁intel	-5238
▁misin	-5239
▁plane	-5240
▁subst	-5241
uration	-5242
▁africa	-5243
▁mosque	-5244
▁reward	-5245
▁shampoo	-5246
▁spotify	-5247
▁midnight	-5248
▁northern	-5249
▁extension	-5250
▁acceptable	-5251
▁impression	-5252
▁consumption	-5253
▁manufacturer	-5254
af	-5255
gu	-5256
gar	-5257
har	-5258
rel	-5259
▁hv	-5260
lier	-5261
▁ped	-5262
▁wik	-5263
archy	-5264
phole	-5265
▁atro	-5266
▁cell	-5267
▁gent	-5268
▁java	-5269
▁navy	-5270
▁nibm	-5271
▁pale	-5272
▁pant	-5273
▁perk	-5274
erable	-5275
ermine	-5276
opular	-5277
▁anime	-5278
▁couri	-5279
▁first	-5280
▁malay	-5281
▁nomad	-5282
▁patri	-5283
▁hatred	-5284
▁onwards	-5285
▁strange	-5286
▁subsidy	-5287
▁sympath	-5288
▁hardware	-5289
▁interior	-5290
▁loophole	-5291
▁corrupted	-5292
▁unpopular	-5293
▁efficiency	-5294
▁examination	-5295
▁marketplace	-5296
▁nationalism	-5297
▁uncomfortable	-5298
zi	-5299
ida	-5300
oly	-5301
rog	-5302
sia	-5303
zel	-5304
▁cd	-5305
case	-5306
cate	-5307
comm	-5308
uber	-5309
wash	-5310
▁mit	-5311
▁peg	-5312
▁ske	-5313
▁ssd	-5314
aging	-5315
opoly	-5316
▁hund	-5317
▁jack	-5318
▁util	-5319
singhe	-5320
stream	-5321
▁civic	-5322
▁joint	-5323
▁loyal	-5324
▁tourn	-5325
▁wella	-5326
▁detect	-5327
▁enthus	-5328
▁misuse	-5329
▁singer	-5330
▁volume	-5331
▁acquire	-5332
▁analyst	-5333
▁deficit	-5334
▁disturb	-5335
▁handout	-5336
▁hundred	-5337
▁reverse	-5338
▁stretch	-5339
▁torture	-5340
formation	-5341
▁happiness	-5342
▁privately	-5343
▁applicable	-5344
▁capitalism	-5345
▁legitimate	-5346
▁separately	-5347
ns	-5348
su	-5349
wan	-5350
dule	-5351
enna	-5352
ilst	-5353
mate	-5354
rely	-5355
▁cig	-5356
▁dod	-5357
▁ela	-5358
▁lad	-5359
▁nov	-5360
▁unt	-5361
▁wil	-5362
umble	-5363
▁acca	-5364
▁flee	-5365
▁jeal	-5366
▁unif	-5367
▁abans	-5368
▁bread	-5369
▁chaos	-5370
▁escal	-5371
▁fraud	-5372
▁pilot	-5373
▁stead	-5374
▁storm	-5375
▁defeat	-5376
▁excess	-5377
▁manife	-5378
▁module	-5379
▁narrow	-5380
▁shower	-5381
▁aggress	-5382
▁bracket	-5383
▁capture	-5384
▁courier	-5385
▁hotline	-5386
▁inflate	-5387
▁russian	-5388
▁snorkel	-5389
▁feasible	-5390
▁importer	-5391
▁prospect	-5392
▁strongly	-5393
▁taxation	-5394
▁satisfied	-5395
▁supportive	-5396
▁expenditure	-5397
▁investigate	-5398
▁verification	-5399
log	-5400
▁ja	-5401
▁jk	-5402
▁mf	-5403
anga	-5404
aren	-5405
away	-5406
inia	-5407
ouch	-5408
used	-5409
▁fup	-5410
▁joy	-5411
▁las	-5412
▁tab	-5413
▁ally	-5414
▁cere	-5415
▁fern	-5416
▁heck	-5417
▁shed	-5418
▁tier	-5419
▁urge	-5420
▁alert	-5421
▁multi	-5422
▁ratio	-5423
▁uncer	-5424
▁deeply	-5425
▁desire	-5426
▁monkey	-5427
▁refuge	-5428
▁studio	-5429
▁whilst	-5430
▁worthy	-5431
▁supreme	-5432
▁therapy	-5433
▁transit	-5434
▁uniform	-5435
▁chemical	-5436
▁downside	-5437
▁indirect	-5438
▁literacy	-5439
▁manifest	-5440
▁navigate	-5441
▁incentive	-5442
▁stressful	-5443
▁beneficial	-5444
▁contractor	-5445
▁innovation	-5446
▁tournament	-5447
▁transition	-5448
▁achievement	-5449
▁representative	-5450
lly	-5451
zen	-5452
▁ds	-5453
▁ib	-5454
head	-5455
ield	-5456
ript	-5457
▁aka	-5458
▁ing	-5459
▁wet	-5460
front	-5461
▁hamb	-5462
▁mism	-5463
▁mort	-5464
▁outs	-5465
mption	-5466
rovers	-5467
▁apiit	-5468
▁awful	-5469
▁femin	-5470
▁grind	-5471
▁maith	-5472
▁snack	-5473
▁vezel	-5474
aration	-5475
▁airtel	-5476
▁litter	-5477
▁monday	-5478
▁rocket	-5479
▁script	-5480
▁jealous	-5481
▁netflix	-5482
▁offense	-5483
▁pension	-5484
▁visitor	-5485
▁touristy	-5486
▁affiliate	-5487
▁commenter	-5488
▁capability	-5489
▁disrespect	-5490
fy	-5491
my	-5492
▁qa	-5493
▁yt	-5494
▁jay	-5495
▁ker	-5496
ality	-5497
▁adam	-5498
▁bamb	-5499
▁cast	-5500
▁caut	-5501
▁dura	-5502
▁mask	-5503
▁thor	-5504
▁warm	-5505
▁chart	-5506
▁divid	-5507
▁esoft	-5508
▁silva	-5509
▁swift	-5510
apitiya	-5511
▁fluent	-5512
▁kitten	-5513
▁praise	-5514
▁bribery	-5515
▁learner	-5516
▁penalty	-5517
▁alliance	-5518
▁bathroom	-5519
▁enthusia	-5520
▁inconven	-5521
▁assistant	-5522
▁increment	-5523
▁introvert	-5524
▁investing	-5525
▁principal	-5526
▁attractive	-5527
▁controvers	-5528
▁screenshot	-5529
▁hospitality	-5530
▁photography	-5531
▁unfortunate	-5532
cl	-5533
tee	-5534
▁ax	-5535
▁ui	-5536
aram	-5537
fast	-5538
iser	-5539
▁cfa	-5540
▁ugc	-5541
▁auss	-5542
▁bast	-5543
▁bout	-5544
▁exer	-5545
▁peer	-5546
▁rout	-5547
spaper	-5548
▁appre	-5549
▁bound	-5550
▁harsh	-5551
▁lodge	-5552
▁merit	-5553
▁metal	-5554
▁popul	-5555
▁rumor	-5556
▁scary	-5557
▁spect	-5558
▁unite	-5559
▁breath	-5560
▁poster	-5561
▁recipe	-5562
ographic	-5563
▁creator	-5564
▁founder	-5565
▁italian	-5566
▁largely	-5567
▁outdoor	-5568
▁cautious	-5569
▁follower	-5570
▁curiosity	-5571
▁determine	-5572
▁framework	-5573
▁furniture	-5574
▁newspaper	-5575
▁accessible	-5576
▁maharagama	-5577
▁suspicious	-5578
▁comfortably	-5579
▁description	-5580
▁emotionally	-5581
▁neighborhood	-5582
▁manufacturing	-5583
ih	-5584
ti	-5585
cra	-5586
ipt	-5587
▁du	-5588
itar	-5589
sper	-5590
wise	-5591
▁aqu	-5592
▁dan	-5593
▁wht	-5594
scape	-5595
▁fert	-5596
▁plot	-5597
▁wipe	-5598
ateral	-5599
itable	-5600
rition	-5601
▁bitch	-5602
▁dirty	-5603
▁drone	-5604
▁postp	-5605
▁spark	-5606
▁unpro	-5607
▁wagon	-5608
raction	-5609
▁apolog	-5610
▁capita	-5611
▁fucker	-5612
▁harini	-5613
▁indone	-5614
▁indoor	-5615
▁reside	-5616
▁thrive	-5617
▁dislike	-5618
▁lavinia	-5619
▁leasing	-5620
▁miracle	-5621
▁motorcy	-5622
ructuring	-5623
▁deadline	-5624
▁exercise	-5625
▁fernando	-5626
▁mechanic	-5627
▁talented	-5628
▁construct	-5629
▁embarrass	-5630
▁overprice	-5631
▁originally	-5632
▁temperature	-5633
▁congratulation	-5634
ami	-5635
awa	-5636
▁ain	-5637
▁lon	-5638
▁nep	-5639
▁rav	-5640
etime	-5641
reach	-5642
▁exit	-5643
▁nadu	-5644
incial	-5645
▁enemy	-5646
▁hyper	-5647
▁newly	-5648
▁panic	-5649
▁pregn	-5650
▁relia	-5651
▁aussie	-5652
▁lonely	-5653
▁pickup	-5654
▁prosec	-5655
▁symbol	-5656
▁hambant	-5657
▁inspire	-5658
▁kingdom	-5659
▁taxable	-5660
▁escalate	-5661
▁gotabaya	-5662
▁lifetime	-5663
▁monopoly	-5664
▁postpone	-5665
▁reaction	-5666
▁youtuber	-5667
▁departure	-5668
▁streaming	-5669
▁graduation	-5670
▁mainstream	-5671
▁provincial	-5672
▁documentation	-5673
▁restructuring	-5674
ney	-5675
sas	-5676
▁dj	-5677
▁fm	-5678
▁hd	-5679
▁nz	-5680
▁ham	-5681
▁mel	-5682
▁mfs	-5683
▁pir	-5684
▁yog	-5685
agger	-5686
▁deed	-5687
▁kiss	-5688
▁nail	-5689
▁phil	-5690
▁pron	-5691
▁rein	-5692
▁tall	-5693
opolit	-5694
▁nepal	-5695
▁overs	-5696
▁paste	-5697
▁rajag	-5698
▁regul	-5699
▁spice	-5700
▁empath	-5701
▁guitar	-5702
▁jersey	-5703
▁packet	-5704
▁promin	-5705
▁racial	-5706
▁solely	-5707
▁compreh	-5708
▁farming	-5709
▁gampaha	-5710
▁nursing	-5711
▁observe	-5712
▁frequent	-5713
▁romantic	-5714
▁stranger	-5715
▁architect	-5716
▁depressed	-5717
▁landscape	-5718
▁artificial	-5719
▁association	-5720
▁businessman	-5721
fo	-5722
wn	-5723
iant	-5724
laim	-5725
rage	-5726
rera	-5727
▁evs	-5728
▁fab	-5729
▁gpu	-5730
▁kud	-5731
▁ngo	-5732
herit	-5733
iling	-5734
payer	-5735
vable	-5736
▁beer	-5737
▁cave	-5738
▁coal	-5739
▁ielt	-5740
▁inch	-5741
▁meat	-5742
▁semi	-5743
▁slap	-5744
▁span	-5745
▁airbn	-5746
▁bless	-5747
▁consp	-5748
▁rider	-5749
ography	-5750
▁counse	-5751
▁hungry	-5752
▁legend	-5753
▁postal	-5754
▁silver	-5755
▁widely	-5756
▁liberty	-5757
▁receipt	-5758
▁victory	-5759
▁duration	-5760
▁governor	-5761
▁jayaward	-5762
▁taxpayer	-5763
▁following	-5764
▁manifesto	-5765
▁nutrition	-5766
▁protestor	-5767
▁repayment	-5768
▁accountant	-5769
▁enterprise	-5770
▁peacefully	-5771
▁popularity	-5772
▁rajapaksas	-5773
▁conditioner	-5774
▁effectively	-5775
▁frustration	-5776
▁interaction	-5777
▁establishment	-5778
▁bb	-5779
▁df	-5780
▁mn	-5781
▁xd	-5782
edly	-5783
ered	-5784
hand	-5785
lock	-5786
mark	-5787
mint	-5788
quit	-5789
some	-5790
▁cid	-5791
▁lag	-5792
▁lap	-5793
▁lug	-5794
▁unk	-5795
eliya	-5796
isode	-5797
mptom	-5798
▁lord	-5799
▁menu	-5800
▁recy	-5801
▁seal	-5802
▁thin	-5803
▁zeal	-5804
verter	-5805
▁jewel	-5806
▁merch	-5807
▁offsh	-5808
▁theme	-5809
▁buying	-5810
▁japura	-5811
▁palest	-5812
▁scream	-5813
▁combank	-5814
▁episode	-5815
▁execute	-5816
▁haircut	-5817
▁luggage	-5818
▁reputed	-5819
▁advocate	-5820
▁indicate	-5821
▁keyboard	-5822
▁overcome	-5823
▁expertise	-5824
▁scientist	-5825
▁bankruptcy	-5826
▁conference	-5827
▁economical	-5828
▁rajagiriya	-5829
▁environmental	-5830
▁realistically	-5831
aa	-5832
ald	-5833
rum	-5834
aire	-5835
rity	-5836
▁esp	-5837
▁fur	-5838
▁gaz	-5839
▁una	-5840
▁vul	-5841
▁ance	-5842
▁bind	-5843
▁bulk	-5844
▁elim	-5845
▁eval	-5846
▁iran	-5847
▁roof	-5848
ductor	-5849
ottuwa	-5850
▁actor	-5851
▁audio	-5852
▁crush	-5853
▁frank	-5854
▁grass	-5855
▁upset	-5856
igation	-5857
itarian	-5858
unegala	-5859
▁accomp	-5860
▁ancest	-5861
▁boring	-5862
▁calcul	-5863
▁insist	-5864
▁perera	-5865
▁silent	-5866
▁square	-5867
▁stripe	-5868
▁turtle	-5869
▁bureauc	-5870
▁crucial	-5871
▁disrupt	-5872
▁mandate	-5873
▁refugee	-5874
▁symptom	-5875
▁tension	-5876
▁trainer	-5877
▁violate	-5878
▁americans	-5879
▁pohottuwa	-5880
▁protester	-5881
▁residence	-5882
▁kurunegala	-5883
▁motorcycle	-5884
▁prediction	-5885
▁strengthen	-5886
▁incompetent	-5887
ika	-5888
oop	-5889
rer	-5890
tte	-5891
uki	-5892
▁ct	-5893
ader	-5894
sist	-5895
▁bis	-5896
▁dhl	-5897
▁hub	-5898
▁ngl	-5899
▁oly	-5900
▁wij	-5901
ophob	-5902
using	-5903
▁alto	-5904
▁bird	-5905
▁blah	-5906
▁brag	-5907
▁carn	-5908
▁dash	-5909
▁dive	-5910
▁dose	-5911
▁flaw	-5912
▁gala	-5913
▁mock	-5914
▁myth	-5915
▁orph	-5916
▁reck	-5917
▁relo	-5918
▁tone	-5919
alanda	-5920
lessly	-5921
▁after	-5922
▁champ	-5923
▁chath	-5924
▁chief	-5925
▁devop	-5926
▁sharp	-5927
▁sneak	-5928
cession	-5929
▁domain	-5930
▁evolve	-5931
▁interv	-5932
▁mannar	-5933
▁overth	-5934
▁retain	-5935
▁scenic	-5936
▁unreal	-5937
▁weekly	-5938
▁bastard	-5939
▁certify	-5940
▁cooking	-5941
▁focused	-5942
▁sticker	-5943
▁atrocity	-5944
▁diagnose	-5945
▁overtake	-5946
▁saturate	-5947
▁teenager	-5948
▁carefully	-5949
▁exemption	-5950
▁gradually	-5951
▁indicator	-5952
▁prescribe	-5953
▁sensitive	-5954
▁appropriate	-5955
▁calculation	-5956
▁involvement	-5957
▁consideration	-5958
cal	-5959
has	-5960
sen	-5961
zer	-5962
▁cp	-5963
▁lm	-5964
▁pd	-5965
▁pf	-5966
▁qr	-5967
cott	-5968
face	-5969
rish	-5970
sena	-5971
spot	-5972
xual	-5973
▁bol	-5974
▁gho	-5975
▁mud	-5976
▁pov	-5977
▁rul	-5978
▁suz	-5979
▁vij	-5980
utral	-5981
▁asse	-5982
▁cham	-5983
▁crop	-5984
▁dick	-5985
▁logo	-5986
▁ping	-5987
▁ugly	-5988
▁basil	-5989
▁olymp	-5990
▁stone	-5991
▁truck	-5992
▁bright	-5993
▁compli	-5994
▁conspi	-5995
▁disclo	-5996
▁making	-5997
▁mutual	-5998
▁african	-5999
▁hangout	-6000
▁inherit	-6001
▁ranking	-6002
▁servant	-6003
▁workout	-6004
▁geopolit	-6005
▁offshore	-6006
▁fantastic	-6007
▁favourite	-6008
▁integrate	-6009
▁migrating	-6010
▁experiment	-6011
▁expressway	-6012
▁celebration	-6013
cd	-6014
vo	-6015
ave	-6016
uba	-6017
▁cz	-6018
▁mu	-6019
code	-6020
hill	-6021
lord	-6022
mare	-6023
moon	-6024
rika	-6025
▁cad	-6026
▁peo	-6027
▁sue	-6028
▁yrs	-6029
isine	-6030
▁beef	-6031
▁carg	-6032
▁keel	-6033
▁pend	-6034
▁plug	-6035
▁posh	-6036
▁tack	-6037
▁vitz	-6038
arency	-6039
course	-6040
icycle	-6041
▁anger	-6042
▁fiver	-6043
▁forth	-6044
▁hilar	-6045
▁whole	-6046
▁irrele	-6047
▁layoff	-6048
▁malabe	-6049
▁mentor	-6050
▁sovere	-6051
▁steady	-6052
▁suzuki	-6053
▁cuisine	-6054
▁grammar	-6055
▁neutral	-6056
▁udawala	-6057
▁operator	-6058
▁starting	-6059
▁breakfast	-6060
▁committee	-6061
▁hilarious	-6062
▁honeymoon	-6063
▁miserable	-6064
▁nightmare	-6065
▁pollution	-6066
▁secondary	-6067
▁underpaid	-6068
▁universal	-6069
▁assumption	-6070
▁attendance	-6071
▁conspiracy	-6072
▁harassment	-6073
▁occasional	-6074
▁freelancing	-6075
▁reliability	-6076
▁temporarily	-6077
▁confirmation	-6078
▁discriminate	-6079
▁psychologist	-6080
▁transparency	-6081
▁approximately	-6082
bly	-6083
soe	-6084
uct	-6085
▁nc	-6086
edia	-6087
pass	-6088
ston	-6089
▁ame	-6090
▁cul	-6091
▁gut	-6092
▁sme	-6093
▁unw	-6094
erous	-6095
hibit	-6096
▁dine	-6097
▁glor	-6098
▁hook	-6099
▁moon	-6100
▁vice	-6101
▁along	-6102
▁deval	-6103
▁digit	-6104
▁ghost	-6105
▁sweat	-6106
imation	-6107
▁freely	-6108
▁ladder	-6109
▁perpet	-6110
▁reconc	-6111
▁resell	-6112
▁tailor	-6113
▁upside	-6114
stically	-6115
▁gazette	-6116
▁literal	-6117
▁magnite	-6118
▁sibling	-6119
▁zealand	-6120
▁activist	-6121
▁creditor	-6122
▁delusion	-6123
▁leverage	-6124
▁logistic	-6125
▁nepotism	-6126
▁prepared	-6127
▁thorough	-6128
▁tracking	-6129
▁adventure	-6130
▁alongside	-6131
▁chandrika	-6132
▁liability	-6133
▁mechanism	-6134
▁mismanage	-6135
▁hambantota	-6136
▁respectful	-6137
▁photographer	-6138
oa	-6139
bud	-6140
ham	-6141
ila	-6142
iny	-6143
▁tn	-6144
▁ts	-6145
rase	-6146
▁amd	-6147
▁hid	-6148
▁jam	-6149
▁jet	-6150
▁raw	-6151
▁rig	-6152
▁tel	-6153
▁tim	-6154
▁unh	-6155
craft	-6156
ether	-6157
icker	-6158
rable	-6159
▁arab	-6160
▁atmo	-6161
▁boom	-6162
▁cite	-6163
▁muse	-6164
▁sham	-6165
▁sink	-6166
▁ward	-6167
minton	-6168
soever	-6169
▁dutch	-6170
▁honor	-6171
▁judic	-6172
▁prize	-6173
▁salon	-6174
▁shake	-6175
▁stamp	-6176
▁vague	-6177
▁airbnb	-6178
▁beggar	-6179
▁button	-6180
▁costly	-6181
▁dental	-6182
▁diving	-6183
▁fortun	-6184
▁golden	-6185
▁greedy	-6186
▁obsess	-6187
▁reluct	-6188
▁stance	-6189
standing	-6190
▁bicycle	-6191
▁concent	-6192
▁defence	-6193
▁element	-6194
▁footage	-6195
▁handful	-6196
▁killing	-6197
▁organic	-6198
▁painful	-6199
▁boundary	-6200
▁maturity	-6201
▁monetary	-6202
▁ayurvedic	-6203
▁badminton	-6204
▁batalanda	-6205
▁extremist	-6206
▁prominent	-6207
▁stabilize	-6208
▁worldwide	-6209
▁capitalist	-6210
▁disconnect	-6211
▁enthusiast	-6212
▁irrelevant	-6213
▁privileged	-6214
▁whatsoever	-6215
▁rajapakshas	-6216
▁consistently	-6217
▁clarification	-6218
▁reconciliation	-6219
ew	-6220
ix	-6221
mc	-6222
tt	-6223
▁fk	-6224
bike	-6225
dict	-6226
enom	-6227
erge	-6228
fire	-6229
wood	-6230
▁dun	-6231
▁gmo	-6232
▁she	-6233
▁wat	-6234
check	-6235
ketch	-6236
watte	-6237
▁asus	-6238
▁bell	-6239
▁doom	-6240
▁emig	-6241
▁porn	-6242
▁unsa	-6243
▁vape	-6244
▁armed	-6245
▁arrog	-6246
▁novel	-6247
▁skept	-6248
▁theat	-6249
▁weren	-6250
▁comput	-6251
▁gamble	-6252
▁liquor	-6253
▁millen	-6254
▁nanote	-6255
▁overly	-6256
▁safely	-6257
▁scroll	-6258
▁trinco	-6259
▁victor	-6260
eriority	-6261
▁apology	-6262
▁boycott	-6263
▁cargill	-6264
▁cartoon	-6265
▁charger	-6266
▁disable	-6267
▁elderly	-6268
▁exagger	-6269
▁hotspot	-6270
▁migrant	-6271
▁mosquit	-6272
▁reading	-6273
▁routine	-6274
▁torrent	-6275
▁dividend	-6276
▁inverter	-6277
▁landlord	-6278
▁socially	-6279
▁eliminate	-6280
▁therapist	-6281
▁vegetable	-6282
▁appearance	-6283
▁assessment	-6284
▁importance	-6285
▁instrument	-6286
▁manageable	-6287
▁desperately	-6288
▁observation	-6289
▁appreciation	-6290
▁considerable	-6291
xx	-6292
aly	-6293
ese	-6294
iff	-6295
lli	-6296
mal	-6297
oty	-6298
see	-6299
udi	-6300
yas	-6301
▁va	-6302
ador	-6303
aken	-6304
asty	-6305
attu	-6306
inee	-6307
late	-6308
oooo	-6309
quer	-6310
▁api	-6311
▁bak	-6312
▁ccc	-6313
▁dip	-6314
▁eco	-6315
▁pit	-6316
▁pta	-6317
▁reh	-6318
▁spa	-6319
▁yup	-6320
eable	-6321
iotic	-6322
itute	-6323
obile	-6324
▁amex	-6325
▁bean	-6326
▁inev	-6327
▁isol	-6328
▁nose	-6329
▁proc	-6330
▁shel	-6331
▁tong	-6332
▁unst	-6333
arette	-6334
▁draft	-6335
▁float	-6336
▁insta	-6337
▁polon	-6338
iration	-6339
ogether	-6340
reshold	-6341
▁brilli	-6342
▁brutal	-6343
▁differ	-6344
▁dining	-6345
▁genius	-6346
▁gentle	-6347
▁tackle	-6348
▁yellow	-6349
▁bloated	-6350
▁discord	-6351
▁dispose	-6352
▁launder	-6353
▁suspend	-6354
▁ceremony	-6355
▁mosquito	-6356
▁numerous	-6357
▁password	-6358
▁quantity	-6359
▁wickreme	-6360
▁backwards	-6361
▁cigarette	-6362
▁conductor	-6363
▁orphanage	-6364
▁outsource	-6365
▁threshold	-6366
▁accordingly	-6367
▁demographic	-6368
▁enforcement	-6369
▁negotiation	-6370
▁consultation	-6371
▁inconvenience	-6372
▁misinformation	-6373
bby	-6374
gie	-6375
▁sr	-6376
inty	-6377
kara	-6378
onom	-6379
ptoc	-6380
rown	-6381
tawa	-6382
wire	-6383
▁ale	-6384
▁cow	-6385
▁ira	-6386
▁lan	-6387
▁plz	-6388
▁syn	-6389
inary	-6390
▁athe	-6391
▁belt	-6392
▁clip	-6393
▁dfcc	-6394
▁elev	-6395
▁gmoa	-6396
▁inqu	-6397
▁mbbs	-6398
▁pace	-6399
elling	-6400
lusion	-6401
parent	-6402
ressed	-6403
▁caste	-6404
▁coord	-6405
▁deter	-6406
▁lobby	-6407
▁perch	-6408
▁pitch	-6409
▁premi	-6410
▁stall	-6411
▁unrel	-6412
redient	-6413
▁emerge	-6414
▁enroll	-6415
▁fabric	-6416
▁garage	-6417
▁height	-6418
▁marine	-6419
▁museum	-6420
▁phenom	-6421
▁recall	-6422
▁bailout	-6423
▁dumbass	-6424
▁fresher	-6425
▁inquire	-6426
▁prosper	-6427
▁theatre	-6428
▁humanity	-6429
▁overtime	-6430
▁speaking	-6431
▁supplier	-6432
▁boyfriend	-6433
▁breakdown	-6434
▁countless	-6435
▁everytime	-6436
▁indonesia	-6437
▁reduction	-6438
▁ingredient	-6439
▁motivation	-6440
▁respective	-6441
▁drastically	-6442
▁grandparent	-6443
▁wickremesinghe	-6444
oh	-6445
don	-6446
irc	-6447
oil	-6448
ona	-6449
▁az	-6450
aris	-6451
iter	-6452
thon	-6453
▁anc	-6454
▁bcs	-6455
▁bmw	-6456
▁hil	-6457
apter	-6458
astro	-6459
ceive	-6460
chool	-6461
namic	-6462
rator	-6463
redit	-6464
▁dign	-6465
▁gall	-6466
▁holy	-6467
▁iirc	-6468
▁mart	-6469
▁prab	-6470
▁thai	-6471
tainty	-6472
▁penny	-6473
▁uncon	-6474
session	-6475
▁detain	-6476
▁doable	-6477
▁galaxy	-6478
▁hidden	-6479
▁jewell	-6480
▁korean	-6481
▁output	-6482
▁timing	-6483
▁trauma	-6484
▁tution	-6485
▁unsafe	-6486
▁vulner	-6487
arantine	-6488
▁academy	-6489
▁blindly	-6490
▁coastal	-6491
▁compuls	-6492
▁happily	-6493
▁leftist	-6494
alapitiya	-6495
▁insanely	-6496
▁organise	-6497
▁confusing	-6498
▁pointless	-6499
▁policeman	-6500
▁reluctant	-6501
▁unrelated	-6502
▁productive	-6503
▁quarantine	-6504
▁challenging	-6505
▁intelligent	-6506
▁transparent	-6507
▁overwhelming	-6508
few	-6509
iva	-6510
▁iq	-6511
▁os	-6512
▁pg	-6513
▁rh	-6514
acre	-6515
arat	-6516
onic	-6517
stay	-6518
▁bpo	-6519
▁hmm	-6520
▁ube	-6521
ducer	-6522
eness	-6523
keter	-6524
▁abey	-6525
▁full	-6526
▁halt	-6527
▁hong	-6528
▁kong	-6529
▁neck	-6530
▁ramp	-6531
▁roam	-6532
▁swap	-6533
▁tile	-6534
▁watt	-6535
father	-6536
unning	-6537
▁antib	-6538
▁bench	-6539
▁ethic	-6540
▁fluct	-6541
▁front	-6542
▁imply	-6543
▁parad	-6544
▁payer	-6545
▁shade	-6546
▁their	-6547
▁thick	-6548
▁volat	-6549
portion	-6550
▁alevel	-6551
▁bucket	-6552
▁butter	-6553
▁county	-6554
▁exempt	-6555
▁fertil	-6556
▁fiverr	-6557
▁length	-6558
▁occupy	-6559
▁offend	-6560
▁outage	-6561
▁python	-6562
▁sketch	-6563
▁tongue	-6564
▁upwork	-6565
▁depress	-6566
▁nanotek	-6567
▁premier	-6568
▁shelter	-6569
▁specify	-6570
▁upwards	-6571
▁creation	-6572
▁dominate	-6573
▁equality	-6574
▁massacre	-6575
▁outright	-6576
▁producer	-6577
▁sirisena	-6578
▁substant	-6579
▁anonymous	-6580
▁instantly	-6581
▁judgement	-6582
▁personnel	-6583
▁recruiter	-6584
▁antibiotic	-6585
▁compulsory	-6586
▁conversion	-6587
▁definition	-6588
▁distribute	-6589
▁incredible	-6590
▁scientific	-6591
▁recruitment	-6592
▁dictatorship	-6593
▁mismanagement	-6594
bb	-6595
adh	-6596
met	-6597
nes	-6598
▁bh	-6599
▁ie	-6600
▁js	-6601
acle	-6602
ktop	-6603
miss	-6604
orse	-6605
osis	-6606
plus	-6607
sion	-6608
sman	-6609
uild	-6610
▁gal	-6611
▁kad	-6612
▁llb	-6613
▁omg	-6614
▁som	-6615
arath	-6616
ensus	-6617
hance	-6618
ilipp	-6619
ulder	-6620
▁cope	-6621
▁hiru	-6622
▁infe	-6623
▁lost	-6624
▁lyce	-6625
▁scum	-6626
▁seed	-6627
▁subt	-6628
▁thur	-6629
▁toll	-6630
lation	-6631
▁adida	-6632
▁excel	-6633
▁gross	-6634
▁horse	-6635
▁humid	-6636
▁knock	-6637
▁river	-6638
▁ruler	-6639
▁theft	-6640
▁atmosp	-6641
▁breach	-6642
▁cruise	-6643
▁emphas	-6644
▁france	-6645
▁injure	-6646
▁inland	-6647
▁kidney	-6648
▁liable	-6649
▁pfizer	-6650
▁pirate	-6651
▁planet	-6652
▁pricey	-6653
▁prompt	-6654
▁ritual	-6655
▁string	-6656
▁sunset	-6657
▁theirs	-6658
▁biscuit	-6659
▁carnage	-6660
▁conquer	-6661
▁desktop	-6662
▁grandma	-6663
▁inquiry	-6664
▁maithri	-6665
▁olympic	-6666
▁philipp	-6667
▁qualify	-6668
▁utilize	-6669
▁contrast	-6670
▁counsell	-6671
▁inflated	-6672
▁initiate	-6673
▁israelis	-6674
▁ultimate	-6675
▁motorbike	-6676
▁similarly	-6677
▁aggressive	-6678
▁obligation	-6679
▁accidentally	-6680
▁constitutional	-6681
ox	-6682
asy	-6683
gre	-6684
rad	-6685
ran	-6686
van	-6687
▁ec	-6688
iger	-6689
pret	-6690
race	-6691
tech	-6692
ttle	-6693
▁ogf	-6694
▁ray	-6695
▁utc	-6696
adura	-6697
araja	-6698
world	-6699
▁blog	-6700
▁bold	-6701
▁coop	-6702
▁dust	-6703
▁hygi	-6704
▁loot	-6705
▁nazi	-6706
▁pile	-6707
▁rede	-6708
▁unex	-6709
▁whey	-6710
▁wrap	-6711
▁yoga	-6712
italin	-6713
ptocur	-6714
vision	-6715
▁depth	-6716
▁gover	-6717
▁maker	-6718
▁punch	-6719
▁redmi	-6720
▁spoil	-6721
▁spray	-6722
atively	-6723
ternoon	-6724
usation	-6725
▁assure	-6726
▁browse	-6727
▁closed	-6728
▁earbud	-6729
▁format	-6730
▁inclus	-6731
▁lyceum	-6732
▁priest	-6733
▁retard	-6734
▁wisely	-6735
lication	-6736
▁dispute	-6737
▁dynamic	-6738
▁frankly	-6739
▁generic	-6740
▁harmful	-6741
▁logical	-6742
▁outdate	-6743
▁ritalin	-6744
▁upfront	-6745
▁checkout	-6746
▁credible	-6747
▁lockdown	-6748
▁misunder	-6749
▁petition	-6750
▁pregnant	-6751
▁russians	-6752
▁skincare	-6753
▁unstable	-6754
▁afternoon	-6755
▁applicant	-6756
▁automatic	-6757
▁computing	-6758
▁cryptocur	-6759
▁diversity	-6760
▁exclusive	-6761
▁existence	-6762
▁goverment	-6763
▁incorrect	-6764
▁objective	-6765
▁pakistani	-6766
▁altogether	-6767
▁atmosphere	-6768
▁compensate	-6769
▁engagement	-6770
▁perception	-6771
▁smartphone	-6772
▁documentary	-6773
▁uncertainty	-6774
▁generational	-6775
mme	-6776
nis	-6777
unu	-6778
▁bf	-6779
▁ny	-6780
aree	-6781
esth	-6782
mika	-6783
▁asp	-6784
▁dol	-6785
▁had	-6786
▁iam	-6787
▁kfc	-6788
▁lat	-6789
▁ltd	-6790
▁luc	-6791
▁ruh	-6792
▁til	-6793
cling	-6794
guard	-6795
▁blat	-6796
▁cute	-6797
▁desk	-6798
▁devs	-6799
▁flip	-6800
▁grey	-6801
▁orth	-6802
▁smth	-6803
utical	-6804
▁brush	-6805
▁daddy	-6806
▁grasp	-6807
▁havel	-6808
▁hesit	-6809
▁insur	-6810
▁legis	-6811
▁paran	-6812
▁swing	-6813
▁unreg	-6814
▁yield	-6815
fession	-6816
▁biased	-6817
▁broken	-6818
▁casino	-6819
▁cheese	-6820
▁curfew	-6821
▁hitler	-6822
▁lounge	-6823
▁orange	-6824
▁tender	-6825
▁alleged	-6826
▁badulla	-6827
▁binance	-6828
▁dignity	-6829
▁editing	-6830
▁enhance	-6831
▁fishing	-6832
▁mileage	-6833
▁premise	-6834
▁silence	-6835
▁theater	-6836
▁virtual	-6837
▁wheeler	-6838
▁boarding	-6839
▁champion	-6840
▁disclose	-6841
▁dissolve	-6842
▁motivate	-6843
▁paycheck	-6844
▁phenomen	-6845
▁preserve	-6846
▁relocate	-6847
▁severely	-6848
▁showcase	-6849
▁criticise	-6850
▁guideline	-6851
▁nightlife	-6852
▁suffering	-6853
▁terminate	-6854
▁udawalawe	-6855
▁accusation	-6856
▁competitor	-6857
▁conclusion	-6858
▁philippine	-6859
▁credibility	-6860
▁nationality	-6861
▁partnership	-6862
▁unrealistic	-6863
▁occasionally	-6864
▁advertisement	-6865
▁disappointing	-6866
ctv	-6867
eze	-6868
fty	-6869
hum	-6870
ldr	-6871
thy	-6872
▁eb	-6873
▁mg	-6874
▁ry	-6875
atar	-6876
ease	-6877
gain	-6878
inct	-6879
nown	-6880
rain	-6881
rint	-6882
▁bai	-6883
▁huh	-6884
▁jes	-6885
▁soe	-6886
▁thr	-6887
angar	-6888
otype	-6889
stone	-6890
▁cctv	-6891
▁deem	-6892
▁dept	-6893
▁derm	-6894
▁hort	-6895
▁loop	-6896
▁nerv	-6897
▁pave	-6898
▁pera	-6899
▁smok	-6900
▁tldr	-6901
▁trad	-6902
▁unav	-6903
donald	-6904
laimer	-6905
unicip	-6906
▁ambul	-6907
▁blast	-6908
▁guilt	-6909
▁intim	-6910
▁karma	-6911
▁magic	-6912
▁pearl	-6913
▁resid	-6914
▁seize	-6915
▁since	-6916
▁sunny	-6917
▁usaid	-6918
▁vouch	-6919
▁bitter	-6920
▁creepy	-6921
▁flavor	-6922
▁freeze	-6923
▁poison	-6924
▁poorly	-6925
▁spouse	-6926
▁upvote	-6927
▁backend	-6928
▁carrier	-6929
▁deliber	-6930
▁demonst	-6931
▁federal	-6932
▁forgive	-6933
▁fulfill	-6934
▁garment	-6935
▁israeli	-6936
▁millenn	-6937
▁mission	-6938
▁municip	-6939
▁outrage	-6940
▁renewal	-6941
▁selling	-6942
▁surgeon	-6943
▁weekday	-6944
▁clinical	-6945
▁clueless	-6946
▁confront	-6947
▁distract	-6948
▁havelock	-6949
▁judgment	-6950
▁outsider	-6951
▁overpric	-6952
▁perceive	-6953
▁polonnar	-6954
▁secondly	-6955
▁throttle	-6956
▁tolerate	-6957
▁workshop	-6958
▁animation	-6959
▁brainwash	-6960
▁brilliant	-6961
▁dedicated	-6962
▁diversify	-6963
▁intellect	-6964
▁lucrative	-6965
▁preferred	-6966
▁prosecute	-6967
▁comparable	-6968
▁correction	-6969
▁disclaimer	-6970
▁fertilizer	-6971
▁specialization	-6972
ii	-6973
ky	-6974
pm	-6975
tu	-6976
hen	-6977
ogy	-6978
olf	-6979
▁oo	-6980
anth	-6981
gate	-6982
oval	-6983
user	-6984
ylan	-6985
▁eld	-6986
▁gce	-6987
▁kap	-6988
▁sem	-6989
▁smh	-6990
▁veg	-6991
break	-6992
orney	-6993
weera	-6994
wella	-6995
▁acqu	-6996
▁bend	-6997
▁cunt	-6998
▁esim	-6999
▁fuss	-7000
▁imax	-7001
▁marx	-7002
▁mood	-7003
▁obst	-7004
akaran	-7005
worker	-7006
▁aesth	-7007
▁broke	-7008
▁chunk	-7009
▁craft	-7010
▁curse	-7011
▁eager	-7012
▁facil	-7013
▁horiz	-7014
▁infor	-7015
▁layer	-7016
▁pende	-7017
▁plaza	-7018
▁prost	-7019
▁saree	-7020
▁saudi	-7021
▁scrap	-7022
▁stere	-7023
▁tiger	-7024
▁trace	-7025
▁viral	-7026
osexual	-7027
▁parade	-7028
▁hopeful	-7029
▁nervous	-7030
▁postgra	-7031
▁removal	-7032
▁surface	-7033
▁textile	-7034
▁unusual	-7035
▁chairman	-7036
▁compound	-7037
▁downfall	-7038
▁exporter	-7039
▁hesitant	-7040
▁mcdonald	-7041
▁mistaken	-7042
▁newswire	-7043
▁timeline	-7044
▁accessory	-7045
▁addiction	-7046
▁alternate	-7047
▁anonymize	-7048
▁elaborate	-7049
▁magically	-7050
▁normalize	-7051
▁acceptance	-7052
▁collective	-7053
▁controller	-7054
▁indirectly	-7055
▁overpriced	-7056
▁underworld	-7057
▁arrangement	-7058
▁dissanayake	-7059
▁polonnaruwa	-7060
▁bambalapitiya	-7061
lig	-7062
pro	-7063
uro	-7064
vis	-7065
▁pp	-7066
▁sq	-7067
▁ux	-7068
amed	-7069
arel	-7070
erry	-7071
lash	-7072
onse	-7073
ppet	-7074
rete	-7075
risy	-7076
wela	-7077
▁ade	-7078
▁diy	-7079
▁fet	-7080
▁has	-7081
▁row	-7082
▁tue	-7083
▁uno	-7084
▁usb	-7085
▁vid	-7086
inian	-7087
inity	-7088
matic	-7089
pattu	-7090
watha	-7091
▁carb	-7092
▁clan	-7093
▁dham	-7094
▁frag	-7095
▁medi	-7096
▁sooo	-7097
▁stir	-7098
urious	-7099
▁angel	-7100
▁cinec	-7101
▁combo	-7102
▁cough	-7103
▁curly	-7104
▁essay	-7105
▁hefty	-7106
▁proph	-7107
▁seper	-7108
▁sheer	-7109
▁slide	-7110
▁wikip	-7111
▁aswell	-7112
▁collar	-7113
▁dilith	-7114
▁empire	-7115
▁nandal	-7116
▁philos	-7117
▁redact	-7118
▁ruhuna	-7119
▁sample	-7120
▁tennis	-7121
▁unpaid	-7122
▁yearly	-7123
▁anxious	-7124
▁embrace	-7125
▁immense	-7126
▁instant	-7127
▁listing	-7128
▁offence	-7129
▁passive	-7130
▁portray	-7131
▁prefect	-7132
▁radical	-7133
▁rapidly	-7134
▁scandal	-7135
▁variant	-7136
▁attorney	-7137
▁forecast	-7138
▁hardcore	-7139
▁hardship	-7140
▁powercut	-7141
▁prohibit	-7142
▁shoulder	-7143
▁sightsee	-7144
▁wilpattu	-7145
▁extensive	-7146
▁hypocrisy	-7147
▁ignorance	-7148
▁massively	-7149
▁probation	-7150
▁skeptical	-7151
▁frustrated	-7152
▁limitation	-7153
▁overcharge	-7154
▁subjective	-7155
▁inefficient	-7156
▁orientation	-7157
▁permanently	-7158
▁continuously	-7159
▁manipulation	-7160
▁presentation	-7161
▁ridiculously	-7162
▁controversial	-7163
▁independently	-7164
do	-7165
urt	-7166
uty	-7167
▁bn	-7168
▁ku	-7169
▁tl	-7170
anut	-7171
coin	-7172
iver	-7173
mble	-7174
▁dow	-7175
▁few	-7176
▁kia	-7177
▁mcq	-7178
▁sna	-7179
▁vip	-7180
abase	-7181
amuwa	-7182
anker	-7183
clear	-7184
glect	-7185
ithub	-7186
opard	-7187
tical	-7188
while	-7189
▁apit	-7190
▁cock	-7191
▁cure	-7192
▁fron	-7193
▁meta	-7194
▁quiz	-7195
▁sque	-7196
▁trop	-7197
▁usdt	-7198
atedly	-7199
▁accum	-7200
▁atrad	-7201
▁cargo	-7202
▁incur	-7203
▁jesus	-7204
▁lemme	-7205
▁meant	-7206
▁outta	-7207
▁petty	-7208
▁prest	-7209
▁straw	-7210
angaroo	-7211
eliness	-7212
forward	-7213
ocation	-7214
▁asians	-7215
▁assass	-7216
▁boomer	-7217
▁bullet	-7218
▁compat	-7219
▁deputy	-7220
▁github	-7221
▁horton	-7222
▁humble	-7223
▁injury	-7224
▁kumara	-7225
▁metrop	-7226
▁motion	-7227
▁phrase	-7228
▁preach	-7229
▁profic	-7230
▁resale	-7231
▁summer	-7232
▁theore	-7233
▁bargain	-7234
▁concert	-7235
▁customs	-7236
▁diverse	-7237
▁elector	-7238
▁empathy	-7239
▁endorse	-7240
▁england	-7241
▁illness	-7242
▁intense	-7243
▁invoice	-7244
▁jewelry	-7245
▁kottawa	-7246
▁neglect	-7247
▁outlook	-7248
▁recycle	-7249
▁sparkle	-7250
▁trainee	-7251
▁tuesday	-7252
▁unknown	-7253
▁wattala	-7254
▁evaluate	-7255
▁flagship	-7256
▁headline	-7257
▁historic	-7258
▁homophob	-7259
▁junction	-7260
▁kangaroo	-7261
▁merchant	-7262
▁terminal	-7263
▁thursday	-7264
▁communism	-7265
▁deduction	-7266
▁developed	-7267
▁headphone	-7268
▁municipal	-7269
▁residency	-7270
▁substance	-7271
▁technique	-7272
▁wikipedia	-7273
▁calculator	-7274
▁expression	-7275
▁optimistic	-7276
▁phenomenon	-7277
▁rajapakshe	-7278
▁reasonably	-7279
▁repeatedly	-7280
▁resolution	-7281
▁bureaucracy	-7282
▁reservation	-7283
▁surprisingly	-7284
▁comparatively	-7285
▁straightforward	-7286
cul	-7287
dia	-7288
emn	-7289
kee	-7290
umn	-7291
gard	-7292
prit	-7293
rite	-7294
rony	-7295
urne	-7296
▁fis	-7297
▁oya	-7298
▁por	-7299
▁ves	-7300
▁was	-7301
ayaka	-7302
ished	-7303
licit	-7304
power	-7305
usive	-7306
▁atto	-7307
▁bump	-7308
▁ebay	-7309
▁horn	-7310
▁maha	-7311
▁prot	-7312
▁sane	-7313
▁scal	-7314
▁slim	-7315
▁swed	-7316
▁tune	-7317
▁unac	-7318
▁unde	-7319
advant	-7320
herent	-7321
liness	-7322
lywood	-7323
nesday	-7324
onseka	-7325
orious	-7326
rocket	-7327
▁accom	-7328
▁angle	-7329
▁arise	-7330
▁astro	-7331
▁damro	-7332
▁fedex	-7333
▁fronx	-7334
▁greet	-7335
▁halal	-7336
▁hindi	-7337
▁loser	-7338
▁lotus	-7339
▁naive	-7340
▁prefe	-7341
▁strip	-7342
▁whale	-7343
ievable	-7344
▁better	-7345
▁beware	-7346
▁biomed	-7347
▁clause	-7348
▁intent	-7349
▁invent	-7350
▁mahind	-7351
▁manual	-7352
▁meetup	-7353
▁outfit	-7354
▁peanut	-7355
▁prepay	-7356
▁seylan	-7357
▁unrest	-7358
▁contemp	-7359
▁counsel	-7360
▁flavour	-7361
▁fonseka	-7362
▁glorify	-7363
▁luckily	-7364
▁nuclear	-7365
▁telecom	-7366
advantage	-7367
▁arrogant	-7368
▁battaram	-7369
▁casually	-7370
▁database	-7371
▁drinking	-7372
▁informed	-7373
▁meantime	-7374
▁nandalal	-7375
▁rational	-7376
▁withhold	-7377
▁workload	-7378
▁aesthetic	-7379
▁classroom	-7380
▁container	-7381
▁luxurious	-7382
▁notorious	-7383
▁palestine	-7384
▁placement	-7385
▁reasoning	-7386
▁skyrocket	-7387
▁wednesday	-7388
▁collateral	-7389
▁homosexual	-7390
▁impressive	-7391
▁loneliness	-7392
▁occupation	-7393
▁regulatory	-7394
▁worthwhile	-7395
▁yahapalana	-7396
▁colonialism	-7397
▁grandfather	-7398
▁instruction	-7399
▁residential	-7400
▁disadvantage	-7401
▁historically	-7402
▁incompetence	-7403
▁notification	-7404
▁unprofession	-7405
▁authoritarian	-7406
▁knowledgeable	-7407
▁representation	-7408
ij	-7409
omi	-7410
ooo	-7411
orb	-7412
tek	-7413
tra	-7414
▁of	-7415
amba	-7416
card	-7417
etor	-7418
irya	-7419
rasa	-7420
rify	-7421
soft	-7422
▁caf	-7423
▁gpt	-7424
▁hrs	-7425
▁igp	-7426
▁kil	-7427
▁xia	-7428
izing	-7429
▁amid	-7430
▁anth	-7431
▁bash	-7432
▁hect	-7433
▁kudo	-7434
▁lact	-7435
▁maid	-7436
▁odel	-7437
▁poya	-7438
▁puth	-7439
▁seet	-7440
▁soil	-7441
▁sony	-7442
▁unbi	-7443
bourne	-7444
mother	-7445
olitan	-7446
ritory	-7447
▁appli	-7448
▁chess	-7449
▁crony	-7450
▁decor	-7451
▁groom	-7452
▁inspe	-7453
▁irony	-7454
▁knife	-7455
▁linux	-7456
▁login	-7457
▁lover	-7458
▁mouse	-7459
▁obliv	-7460
▁overc	-7461
▁recip	-7462
▁reset	-7463
▁weigh	-7464
▁editor	-7465
▁hilton	-7466
▁invade	-7467
▁notify	-7468
▁prayer	-7469
▁starve	-7470
▁winter	-7471
▁apparel	-7472
▁atheist	-7473
▁bitcoin	-7474
▁closely	-7475
▁culprit	-7476
▁fitting	-7477
▁further	-7478
▁idiotic	-7479
▁infront	-7480
▁muslims	-7481
▁prepaid	-7482
▁relaxed	-7483
▁restore	-7484
atologist	-7485
▁coworker	-7486
▁existent	-7487
▁moderate	-7488
▁panadura	-7489
▁referral	-7490
▁sensible	-7491
▁spectrum	-7492
▁tropical	-7493
▁unexpect	-7494
▁volatile	-7495
▁illegally	-7496
▁melbourne	-7497
▁territory	-7498
▁accomplish	-7499
▁automobile	-7500
▁biomedical	-7501
▁delusional	-7502
▁facilitate	-7503
▁inevitable	-7504
▁meditation	-7505
▁processing	-7506
▁srilankans	-7507
▁television	-7508
▁vulnerable	-7509
▁accommodate	-7510
▁embarrassing	-7511
▁metropolitan	-7512
▁unemployment	-7513
▁intentionally	-7514
bl	-7515
led	-7516
ple	-7517
▁if	-7518
▁mt	-7519
▁nv	-7520
▁rm	-7521
cend	-7522
orge	-7523
rary	-7524
rust	-7525
well	-7526
▁arc	-7527
▁gel	-7528
▁gip	-7529
▁kul	-7530
▁lee	-7531
▁meg	-7532
▁pip	-7533
▁rab	-7534
▁roi	-7535
▁sou	-7536
adium	-7537
amaha	-7538
asuma	-7539
chain	-7540
hough	-7541
ivers	-7542
order	-7543
▁acre	-7544
▁aqua	-7545
▁koll	-7546
▁rust	-7547
▁snap	-7548
▁spin	-7549
▁trim	-7550
▁yell	-7551
▁bootl	-7552
▁downs	-7553
▁dunno	-7554
▁hoard	-7555
▁metro	-7556
▁rival	-7557
▁scold	-7558
▁silly	-7559
asingly	-7560
eration	-7561
lighten	-7562
rential	-7563
▁bakery	-7564
▁barber	-7565
▁deploy	-7566
▁flower	-7567
▁fulfil	-7568
▁hurdle	-7569
▁makeup	-7570
▁regist	-7571
▁sirima	-7572
▁societ	-7573
▁tinder	-7574
▁billing	-7575
▁cashier	-7576
▁clarity	-7577
▁condemn	-7578
▁fiction	-7579
▁kandyan	-7580
▁robotic	-7581
▁stadium	-7582
restimate	-7583
▁academia	-7584
▁automate	-7585
▁cardinal	-7586
▁dedicate	-7587
▁standing	-7588
▁survival	-7589
▁unbiased	-7590
▁authorize	-7591
▁enlighten	-7592
▁immigrate	-7593
▁inclusive	-7594
▁integrity	-7595
▁interpret	-7596
▁recording	-7597
▁renewable	-7598
▁simplytek	-7599
▁waterfall	-7600
▁accumulate	-7601
▁attraction	-7602
▁automation	-7603
▁basketball	-7604
▁eventhough	-7605
▁settlement	-7606
▁exceptional	-7607
▁implication	-7608
▁outstanding	-7609
▁problematic	-7610
▁substantial	-7611
▁superiority	-7612
▁distribution	-7613
▁increasingly	-7614
▁preferential	-7615
▁alternatively	-7616
kr	-7617
rd	-7618
yo	-7619
zu	-7620
chi	-7621
dly	-7622
hth	-7623
igo	-7624
jan	-7625
oka	-7626
pad	-7627
aman	-7628
fere	-7629
igen	-7630
olla	-7631
root	-7632
ubow	-7633
▁ahh	-7634
▁amp	-7635
▁awk	-7636
▁ire	-7637
▁pdf	-7638
ahini	-7639
ayake	-7640
ernet	-7641
grace	-7642
icate	-7643
store	-7644
watta	-7645
▁acce	-7646
▁alph	-7647
▁anne	-7648
▁crew	-7649
▁crib	-7650
▁fasc	-7651
▁goss	-7652
▁imho	-7653
▁jean	-7654
▁junk	-7655
▁knee	-7656
▁lens	-7657
▁mild	-7658
▁pink	-7659
▁rath	-7660
▁spar	-7661
▁tire	-7662
▁adequ	-7663
▁alien	-7664
▁aunty	-7665
▁fever	-7666
▁frimi	-7667
▁gamer	-7668
▁giphy	-7669
▁juice	-7670
▁lyric	-7671
▁notic	-7672
▁pinna	-7673
▁prabh	-7674
▁rabie	-7675
▁reson	-7676
▁stake	-7677
▁sweep	-7678
▁wimal	-7679
ulative	-7680
▁absorb	-7681
▁endure	-7682
▁honour	-7683
▁jungle	-7684
▁replic	-7685
▁rumour	-7686
▁states	-7687
▁trader	-7688
▁worsen	-7689
▁xiaomi	-7690
▁accomod	-7691
▁awkward	-7692
▁camping	-7693
▁dentist	-7694
▁devalue	-7695
▁dismiss	-7696
▁edition	-7697
▁formula	-7698
▁fortune	-7699
▁hygiene	-7700
▁loyalty	-7701
▁paralle	-7702
▁pearson	-7703
▁refresh	-7704
▁restart	-7705
▁squeeze	-7706
▁summary	-7707
▁unoffic	-7708
▁washing	-7709
unciation	-7710
▁adoption	-7711
▁aircraft	-7712
▁airlines	-7713
▁battical	-7714
▁disgrace	-7715
▁ethernet	-7716
▁hesitate	-7717
▁mortgage	-7718
▁ofcourse	-7719
▁overcrow	-7720
▁overlook	-7721
▁printing	-7722
▁reckless	-7723
▁strictly	-7724
▁subtitle	-7725
▁apologize	-7726
▁blacklist	-7727
▁coalition	-7728
▁cultivate	-7729
▁designing	-7730
▁frustrate	-7731
▁generator	-7732
▁injection	-7733
▁interfere	-7734
▁interrupt	-7735
▁jewellery	-7736
▁liquidity	-7737
▁packaging	-7738
▁partially	-7739
▁signature	-7740
▁allocation	-7741
▁networking	-7742
▁snorkeling	-7743
▁furthermore	-7744
▁grandmother	-7745
▁instability	-7746
▁battaramulla	-7747
▁connectivity	-7748
▁understandable	-7749
▁unprofessional	-7750
exp	-7751
ira	-7752
lay	-7753
not	-7754
ora	-7755
sty	-7756
ted	-7757
zil	-7758
▁cm	-7759
▁kw	-7760
east	-7761
eria	-7762
ford	-7763
luck	-7764
mine	-7765
ophy	-7766
orie	-7767
town	-7768
▁ecu	-7769
▁nor	-7770
▁nye	-7771
▁quo	-7772
▁tai	-7773
▁tex	-7774
ilder	-7775
orant	-7776
ramid	-7777
space	-7778
venir	-7779
▁gree	-7780
▁tick	-7781
▁tsun	-7782
▁vent	-7783
angala	-7784
▁asiri	-7785
▁bandw	-7786
▁clock	-7787
▁cruel	-7788
▁curve	-7789
▁genre	-7790
▁giant	-7791
▁grama	-7792
▁hatch	-7793
▁hurry	-7794
▁indie	-7795
▁renov	-7796
▁scuba	-7797
▁snake	-7798
▁twist	-7799
▁uneth	-7800
▁wound	-7801
herland	-7802
▁fiscal	-7803
▁fridge	-7804
▁gossip	-7805
▁hectic	-7806
▁hypoth	-7807
▁lankas	-7808
▁merely	-7809
▁sirasa	-7810
▁thanks	-7811
▁tricky	-7812
ceptable	-7813
▁ashamed	-7814
▁baggage	-7815
▁durable	-7816
▁extract	-7817
▁firstly	-7818
▁hearing	-7819
▁pyramid	-7820
▁rebuild	-7821
▁sigirya	-7822
▁smoking	-7823
▁utterly	-7824
▁audacity	-7825
▁explicit	-7826
▁gambling	-7827
▁lasantha	-7828
▁pleasant	-7829
▁resonate	-7830
▁sexually	-7831
▁societal	-7832
▁souvenir	-7833
▁wireless	-7834
▁advisable	-7835
▁allegedly	-7836
▁commander	-7837
▁excessive	-7838
▁malaysian	-7839
▁reception	-7840
▁sincerely	-7841
▁sinharaja	-7842
▁stupidity	-7843
▁transform	-7844
▁unethical	-7845
▁blockchain	-7846
▁convention	-7847
▁creativity	-7848
▁netherland	-7849
▁underrated	-7850
▁vegetarian	-7851
▁wellawatte	-7852
▁accomodation	-7853
▁disappointed	-7854
▁productivity	-7855
▁unacceptable	-7856
▁yahapalanaya	-7857
▁pronunciation	-7858
▁psychological	-7859
▁cryptocurrency	-7860
uu	-7861
boy	-7862
opy	-7863
ost	-7864
▁ek	-7865
▁gt	-7866
▁sf	-7867
alla	-7868
amin	-7869
ingu	-7870
itie	-7871
vent	-7872
▁cvs	-7873
▁dms	-7874
▁gbp	-7875
▁hab	-7876
▁hij	-7877
▁kam	-7878
▁keh	-7879
▁lmk	-7880
▁nel	-7881
▁pon	-7882
▁wis	-7883
enezu	-7884
erome	-7885
▁bone	-7886
▁bund	-7887
▁mint	-7888
▁mole	-7889
▁nepo	-7890
▁reel	-7891
▁refe	-7892
▁slmc	-7893
▁tale	-7894
▁tent	-7895
▁ware	-7896
▁weed	-7897
holder	-7898
porate	-7899
redict	-7900
uranga	-7901
▁dozen	-7902
▁enact	-7903
▁grave	-7904
▁handy	-7905
▁inexp	-7906
▁mayor	-7907
▁notch	-7908
▁paddy	-7909
▁query	-7910
▁roast	-7911
▁spill	-7912
▁stagn	-7913
▁stare	-7914
▁taboo	-7915
caution	-7916
ifiable	-7917
▁ambass	-7918
▁bureau	-7919
▁bypass	-7920
▁comedy	-7921
▁jerome	-7922
▁miscon	-7923
▁neglig	-7924
▁prolly	-7925
▁puppet	-7926
▁triple	-7927
▁vanish	-7928
▁venezu	-7929
▁winner	-7930
▁wisdom	-7931
▁writer	-7932
▁caption	-7933
▁charter	-7934
▁drastic	-7935
▁funeral	-7936
▁isolate	-7937
▁marxist	-7938
▁mindful	-7939
▁polling	-7940
▁precise	-7941
▁rehabil	-7942
▁tsunami	-7943
▁accredit	-7944
▁backlash	-7945
▁combined	-7946
▁commonly	-7947
▁concrete	-7948
▁decently	-7949
▁emission	-7950
▁feminism	-7951
▁fraction	-7952
▁homeless	-7953
▁pleasure	-7954
▁shipment	-7955
▁shooting	-7956
▁brokerage	-7957
▁circulate	-7958
▁confusion	-7959
▁disregard	-7960
▁motivated	-7961
▁overcrowd	-7962
▁rejection	-7963
▁sexuality	-7964
▁strategic	-7965
▁unpredict	-7966
▁venezuela	-7967
▁ambassador	-7968
▁exaggerate	-7969
▁	-7970
e	-7971
a	-7972
i	-7973
t	-7974
n	-7975
r	-7976
o	-7977
l	-7978
s	-7979
c	-7980
p	-7981
d	-7982
u	-7983
m	-7984
y	-7985
g	-7986
h	-7987
k	-7988
f	-7989
b	-7990
w	-7991
v	-7992
x	-7993
j	-7994
q	-7995
z	-7996
