<unk>	0
<s>	0
</s>	0
▁s	-0
▁c	-1
in	-2
re	-3
▁p	-4
an	-5
on	-6
er	-7
▁l	-8
▁t	-9
en	-10
al	-11
at	-12
▁m	-13
ar	-14
▁d	-15
▁g	-16
▁f	-17
it	-18
or	-19
▁a	-20
▁b	-21
le	-22
▁w	-23
st	-24
ic	-25
▁h	-26
▁e	-27
ion	-28
ri	-29
ly	-30
▁co	-31
▁re	-32
ve	-33
ent	-34
un	-35
ro	-36
▁n	-37
ce	-38
ay	-39
se	-40
oo	-41
▁in	-42
ct	-43
el	-44
op	-45
ke	-46
ss	-47
▁st	-48
ing	-49
ank	-50
il	-51
me	-52
▁li	-53
ra	-54
ate	-55
et	-56
id	-57
▁th	-58
ow	-59
ur	-60
ge	-61
ot	-62
ol	-63
ig	-64
is	-65
▁de	-66
mp	-67
ation	-68
▁k	-69
ch	-70
ed	-71
ea	-72
us	-73
▁sri	-74
om	-75
ry	-76
▁pro	-77
▁lank	-78
ut	-79
▁ex	-80
pp	-81
ment	-82
ver	-83
▁ch	-84
end	-85
ear	-86
ul	-87
▁like	-88
ood	-89
ort	-90
▁v	-91
ity	-92
la	-93
▁go	-94
ice	-95
▁ne	-96
ant	-97
▁con	-98
ad	-99
and	-100
ff	-101
▁su	-102
▁y	-103
ble	-104
▁un	-105
▁pe	-106
ally	-107
ine	-108
▁good	-109
ck	-110
am	-111
▁o	-112
▁lanka	-113
ople	-114
▁people	-115
▁wor	-116
▁i	-117
▁r	-118
ue	-119
ci	-120
▁j	-121
▁kn	-122
unt	-123
▁know	-124
as	-125
art	-126
are	-127
▁sh	-128
ell	-129
ive	-130
pe	-131
▁u	-132
ud	-133
ink	-134
▁ti	-135
ind	-136
▁se	-137
ht	-138
▁mon	-139
▁lo	-140
▁po	-141
▁comp	-142
ist	-143
▁work	-144
age	-145
▁ma	-146
ook	-147
▁think	-148
▁ad	-149
th	-150
▁exp	-151
ir	-152
▁time	-153
uy	-154
nt	-155
ter	-156
ure	-157
um	-158
▁op	-159
▁count	-160
▁pre	-161
▁need	-162
▁ta	-163
▁so	-164
all	-165
▁di	-166
▁get	-167
der	-168
ance	-169
ence	-170
ard	-171
▁country	-172
▁app	-173
▁pl	-174
te	-175
co	-176
du	-177
▁want	-178
fe	-179
▁ha	-180
▁year	-181
ill	-182
▁pay	-183
▁sl	-184
▁fa	-185
▁col	-186
▁per	-187
▁tra	-188
ide	-189
ey	-190
im	-191
bo	-192
▁me	-193
▁look	-194
▁sp	-195
ree	-196
ru	-197
ou	-198
ase	-199
▁en	-200
ite	-201
ob	-202
qu	-203
▁ac	-204
▁pa	-205
▁ri	-206
able	-207
ie	-208
▁com	-209
vel	-210
▁thing	-211
▁fe	-212
▁rec	-213
ght	-214
▁we	-215
▁pol	-216
ult	-217
ber	-218
lace	-219
ong	-220
▁as	-221
▁day	-222
▁try	-223
ore	-224
▁lankan	-225
sh	-226
▁come	-227
ction	-228
eri	-229
ary	-230
ign	-231
ap	-232
▁hel	-233
ombo	-234
lo	-235
rent	-236
one	-237
vern	-238
any	-239
▁help	-240
▁ro	-241
ip	-242
▁place	-243
▁govern	-244
▁ra	-245
ous	-246
▁find	-247
▁colombo	-248
if	-249
ab	-250
▁ve	-251
int	-252
▁not	-253
▁adv	-254
ia	-255
▁government	-256
ish	-257
▁pr	-258
▁stud	-259
▁way	-260
▁le	-261
▁res	-262
igh	-263
▁thank	-264
orm	-265
▁new	-266
ath	-267
▁mar	-268
ical	-269
▁money	-270
▁start	-271
▁buy	-272
iz	-273
▁man	-274
▁act	-275
son	-276
ket	-277
▁say	-278
▁sa	-279
▁ho	-280
▁month	-281
▁uni	-282
▁tax	-283
pt	-284
gree	-285
▁inter	-286
▁well	-287
▁ind	-288
▁tr	-289
und	-290
▁experi	-291
▁job	-292
od	-293
dit	-294
▁imp	-295
▁experience	-296
▁cur	-297
up	-298
con	-299
▁bus	-300
▁high	-301
old	-302
▁guy	-303
ire	-304
ight	-305
▁use	-306
▁lea	-307
▁la	-308
ect	-309
ans	-310
▁happ	-311
ta	-312
▁rel	-313
port	-314
ually	-315
▁plan	-316
ange	-317
▁person	-318
ily	-319
▁te	-320
▁do	-321
▁off	-322
▁vis	-323
▁fri	-324
per	-325
sid	-326
▁right	-327
▁eng	-328
▁company	-329
▁price	-330
ub	-331
▁ph	-332
▁don	-333
ust	-334
▁sc	-335
em	-336
▁ask	-337
vers	-338
▁dis	-339
▁comm	-340
cial	-341
▁pri	-342
▁dec	-343
▁lot	-344
▁feel	-345
ick	-346
▁ab	-347
▁sch	-348
▁inf	-349
▁friend	-350
▁us	-351
▁see	-352
ian	-353
ise	-354
▁part	-355
▁life	-356
que	-357
reat	-358
▁spe	-359
▁al	-360
▁gen	-361
▁loc	-362
ild	-363
ast	-364
▁br	-365
▁car	-366
ool	-367
ote	-368
▁live	-369
ma	-370
stion	-371
ful	-372
▁id	-373
omm	-374
▁inc	-375
▁post	-376
▁diff	-377
▁qu	-378
▁iss	-379
▁issue	-380
▁happen	-381
▁polit	-382
cy	-383
▁ar	-384
▁med	-385
▁ele	-386
ty	-387
de	-388
▁current	-389
▁let	-390
cess	-391
▁bad	-392
tion	-393
▁long	-394
▁bank	-395
▁degree	-396
og	-397
es	-398
vest	-399
▁fin	-400
▁intern	-401
▁fi	-402
▁mo	-403
iv	-404
ommend	-405
ep	-406
▁recommend	-407
▁invest	-408
▁sm	-409
▁under	-410
▁et	-411
be	-412
ctor	-413
line	-414
▁supp	-415
▁gro	-416
▁at	-417
▁hear	-418
rea	-419
▁sure	-420
▁inst	-421
▁or	-422
lic	-423
▁sal	-424
▁hi	-425
▁cont	-426
▁reg	-427
ang	-428
urn	-429
ren	-430
▁travel	-431
▁ser	-432
ope	-433
pect	-434
▁mean	-435
▁etc	-436
ala	-437
▁fore	-438
▁cor	-439
iness	-440
▁ca	-441
▁school	-442
ory	-443
use	-444
rest	-445
▁tea	-446
▁univers	-447
▁econ	-448
▁cl	-449
ute	-450
ress	-451
count	-452
▁local	-453
▁che	-454
▁min	-455
uth	-456
ower	-457
ead	-458
▁fam	-459
▁ear	-460
ship	-461
▁bu	-462
▁econom	-463
▁real	-464
▁change	-465
oc	-466
▁university	-467
▁sub	-468
ric	-469
▁give	-470
ag	-471
▁take	-472
ual	-473
alk	-474
▁dep	-475
▁que	-476
▁dri	-477
▁student	-478
▁business	-479
▁end	-480
ible	-481
▁cla	-482
▁market	-483
▁cost	-484
atch	-485
▁diffe	-486
▁an	-487
ize	-488
▁care	-489
ial	-490
mber	-491
▁tell	-492
▁lear	-493
▁learn	-494
▁hope	-495
uck	-496
ically	-497
▁sy	-498
ord	-499
ail	-500
▁inte	-501
▁advice	-502
▁to	-503
▁sin	-504
▁hard	-505
ek	-506
vice	-507
▁love	-508
▁ent	-509
▁rep	-510
own	-511
orth	-512
▁tou	-513
▁kind	-514
ational	-515
▁option	-516
▁im	-517
▁trans	-518
come	-519
▁cre	-520
▁priv	-521
▁visit	-522
▁account	-523
ne	-524
stand	-525
▁sug	-526
▁actually	-527
ense	-528
ciate	-529
arent	-530
▁aw	-531
▁week	-532
▁interest	-533
▁family	-534
icle	-535
ject	-536
▁sinh	-537
▁sit	-538
▁question	-539
▁ter	-540
▁gener	-541
▁ins	-542
▁bro	-543
ssion	-544
▁check	-545
▁wr	-546
▁ag	-547
ition	-548
get	-549
▁point	-550
▁understand	-551
▁lit	-552
ious	-553
▁power	-554
▁study	-555
ason	-556
▁for	-557
blem	-558
ude	-559
▁problem	-560
▁sugge	-561
▁old	-562
▁ru	-563
ative	-564
▁foreign	-565
ital	-566
act	-567
ility	-568
▁on	-569
sider	-570
oll	-571
▁service	-572
▁vote	-573
▁salary	-574
▁reason	-575
reciate	-576
unity	-577
▁great	-578
eak	-579
▁ment	-580
duc	-581
cially	-582
▁make	-583
▁bud	-584
arge	-585
▁leave	-586
▁big	-587
▁idea	-588
▁recent	-589
▁av	-590
▁consider	-591
▁cour	-592
tle	-593
▁jo	-594
ific	-595
▁bit	-596
▁gra	-597
▁hand	-598
▁free	-599
▁sk	-600
▁educ	-601
ale	-602
amil	-603
▁may	-604
▁be	-605
▁engine	-606
▁support	-607
ably	-608
▁tamil	-609
sp	-610
mple	-611
▁import	-612
▁appreciate	-613
▁pub	-614
▁talk	-615
▁ass	-616
▁stay	-617
ft	-618
▁ev	-619
▁maybe	-620
eal	-621
▁private	-622
▁up	-623
gra	-624
lish	-625
▁bas	-626
▁different	-627
▁lk	-628
▁out	-629
ld	-630
ater	-631
▁build	-632
▁veh	-633
▁law	-634
▁par	-635
ile	-636
stem	-637
▁eas	-638
▁over	-639
▁vehicle	-640
iew	-641
ster	-642
▁shit	-643
▁online	-644
ack	-645
▁politic	-646
▁low	-647
▁is	-648
fer	-649
uation	-650
▁system	-651
▁party	-652
ain	-653
ya	-654
▁base	-655
▁face	-656
ouse	-657
▁qual	-658
▁war	-659
▁pret	-660
ame	-661
▁engineer	-662
ens	-663
▁sol	-664
▁home	-665
▁state	-666
▁parent	-667
▁def	-668
▁read	-669
▁aff	-670
os	-671
▁ext	-672
▁call	-673
▁class	-674
▁open	-675
▁touri	-676
▁share	-677
▁mat	-678
▁income	-679
▁tru	-680
▁spend	-681
▁world	-682
▁cle	-683
▁public	-684
▁situation	-685
▁sur	-686
▁area	-687
rupt	-688
ution	-689
▁card	-690
▁will	-691
▁sell	-692
▁bel	-693
▁es	-694
uff	-695
▁far	-696
ium	-697
▁run	-698
na	-699
ority	-700
▁rest	-701
▁sim	-702
▁food	-703
▁prov	-704
ach	-705
▁small	-706
▁yo	-707
▁acc	-708
▁add	-709
▁proper	-710
ism	-711
▁pretty	-712
▁bo	-713
ieve	-714
mit	-715
▁yes	-716
▁offer	-717
▁poss	-718
ract	-719
▁mind	-720
▁emp	-721
▁air	-722
ph	-723
ak	-724
▁leg	-725
▁tri	-726
▁stuff	-727
▁earn	-728
▁currently	-729
▁house	-730
▁social	-731
▁term	-732
bt	-733
▁pass	-734
rate	-735
▁teach	-736
loy	-737
▁stop	-738
▁able	-739
▁wa	-740
▁dat	-741
ose	-742
▁set	-743
▁el	-744
▁book	-745
▁hey	-746
▁level	-747
lete	-748
▁ke	-749
▁speak	-750
▁india	-751
▁case	-752
▁produ	-753
▁clo	-754
▁advance	-755
▁ran	-756
▁apply	-757
▁sinhala	-758
ular	-759
▁cer	-760
▁prob	-761
ith	-762
▁num	-763
▁cult	-764
cer	-765
▁won	-766
▁val	-767
▁bring	-768
▁wh	-769
▁des	-770
▁incre	-771
▁wonder	-772
▁recently	-773
▁presid	-774
▁maj	-775
▁worth	-776
▁prote	-777
▁all	-778
▁pack	-779
dition	-780
▁play	-781
velop	-782
▁tech	-783
▁cri	-784
▁pur	-785
▁mi	-786
▁bea	-787
rect	-788
ict	-789
tain	-790
▁sw	-791
▁develop	-792
▁manage	-793
▁have	-794
▁english	-795
▁rate	-796
▁number	-797
▁fut	-798
gle	-799
▁ob	-800
▁land	-801
▁education	-802
▁employ	-803
road	-804
▁ranil	-805
ately	-806
cu	-807
▁expect	-808
▁corrupt	-809
ha	-810
▁probably	-811
form	-812
▁medium	-813
▁rem	-814
▁kid	-815
ilar	-816
ister	-817
▁future	-818
▁fund	-819
▁election	-820
▁hot	-821
ug	-822
fit	-823
▁si	-824
▁abroad	-825
ene	-826
pecially	-827
ee	-828
ient	-829
▁win	-830
illion	-831
less	-832
oth	-833
▁cons	-834
▁phone	-835
▁cust	-836
▁especially	-837
ner	-838
▁sing	-839
▁em	-840
▁easy	-841
▁recommendation	-842
▁mention	-843
▁president	-844
▁ret	-845
▁lol	-846
lank	-847
▁red	-848
ash	-849
▁cu	-850
▁custom	-851
onest	-852
▁conf	-853
▁similar	-854
▁course	-855
ral	-856
ving	-857
▁honest	-858
▁possible	-859
olog	-860
▁foll	-861
▁complete	-862
row	-863
▁lkr	-864
▁main	-865
▁send	-866
▁ap	-867
▁heal	-868
quire	-869
▁comment	-870
▁fuck	-871
▁elect	-872
eap	-873
cept	-874
▁loan	-875
▁srilank	-876
ib	-877
▁mid	-878
▁am	-879
▁fre	-880
▁taxis	-881
▁sci	-882
▁sec	-883
▁close	-884
ura	-885
vious	-886
▁doctor	-887
▁increase	-888
▁ty	-889
▁police	-890
▁npp	-891
▁drive	-892
▁cause	-893
▁train	-894
▁ll	-895
▁follow	-896
▁gov	-897
▁hell	-898
▁yea	-899
▁dem	-900
▁web	-901
irl	-902
rol	-903
▁indu	-904
▁package	-905
dge	-906
urce	-907
▁health	-908
▁tourist	-909
ac	-910
ara	-911
▁south	-912
▁watch	-913
▁believe	-914
▁gu	-915
▁bi	-916
▁any	-917
fort	-918
oose	-919
▁att	-920
▁reme	-921
▁girl	-922
▁political	-923
▁int	-924
inion	-925
▁personal	-926
▁economy	-927
▁visa	-928
▁datum	-929
▁indust	-930
▁opinion	-931
▁agree	-932
▁charge	-933
ather	-934
▁lose	-935
▁sign	-936
▁trip	-937
▁order	-938
gram	-939
lect	-940
▁stand	-941
▁kand	-942
▁cheap	-943
▁wrong	-944
▁opport	-945
▁matter	-946
ock	-947
▁inform	-948
▁deal	-949
eld	-950
▁vi	-951
lain	-952
▁eff	-953
uk	-954
ream	-955
▁cap	-956
▁one	-957
▁away	-958
▁wait	-959
ung	-960
▁grow	-961
lude	-962
view	-963
▁instead	-964
▁infl	-965
▁group	-966
▁remember	-967
▁allow	-968
▁ago	-969
▁quality	-970
▁provide	-971
▁require	-972
▁economic	-973
ward	-974
▁pos	-975
icy	-976
▁z	-977
▁opportunity	-978
▁hour	-979
pl	-980
▁kandy	-981
▁payment	-982
day	-983
arch	-984
▁past	-985
▁rese	-986
ys	-987
▁soft	-988
▁night	-989
▁product	-990
▁budget	-991
▁near	-992
▁mus	-993
▁usually	-994
▁shop	-995
▁thou	-996
uw	-997
▁true	-998
▁yeah	-999
▁little	-1000
▁list	-1001
▁thought	-1002
▁meet	-1003
▁process	-1004
▁del	-1005
▁child	-1006
ify	-1007
▁engineering	-1008
ency	-1009
▁science	-1010
▁industry	-1011
man	-1012
▁politician	-1013
▁offic	-1014
▁bla	-1015
▁det	-1016
iya	-1017
▁bl	-1018
ware	-1019
▁culture	-1020
▁compare	-1021
▁clear	-1022
▁project	-1023
▁avail	-1024
▁short	-1025
▁cent	-1026
▁program	-1027
▁suggestion	-1028
ision	-1029
▁tod	-1030
▁investment	-1031
▁speci	-1032
▁choose	-1033
ven	-1034
▁trust	-1035
▁raj	-1036
▁field	-1037
▁relate	-1038
▁include	-1039
▁save	-1040
▁pick	-1041
alle	-1042
ety	-1043
▁pop	-1044
▁result	-1045
▁depend	-1046
▁norm	-1047
way	-1048
▁gue	-1049
▁art	-1050
▁exam	-1051
▁move	-1052
▁suggest	-1053
▁fl	-1054
▁driver	-1055
▁policy	-1056
▁mil	-1057
▁vide	-1058
▁research	-1059
▁today	-1060
reak	-1061
▁cra	-1062
▁specif	-1063
rove	-1064
rence	-1065
▁brand	-1066
▁head	-1067
▁mess	-1068
▁scam	-1069
ration	-1070
▁million	-1071
pon	-1072
ork	-1073
cture	-1074
▁finan	-1075
▁video	-1076
▁dial	-1077
▁rent	-1078
ensive	-1079
▁coup	-1080
oman	-1081
uter	-1082
▁general	-1083
sc	-1084
▁show	-1085
ota	-1086
▁road	-1087
▁mod	-1088
▁respon	-1089
dy	-1090
▁exa	-1091
▁national	-1092
▁fine	-1093
▁create	-1094
▁str	-1095
▁hotel	-1096
rop	-1097
▁cut	-1098
▁mor	-1099
▁woman	-1100
oice	-1101
ger	-1102
▁mom	-1103
▁relig	-1104
oot	-1105
▁example	-1106
▁back	-1107
▁defin	-1108
▁game	-1109
▁dialog	-1110
▁slt	-1111
▁hist	-1112
wer	-1113
cond	-1114
▁second	-1115
▁mob	-1116
▁port	-1117
▁ak	-1118
▁value	-1119
li	-1120
▁notice	-1121
▁ans	-1122
▁rece	-1123
▁usd	-1124
▁ok	-1125
▁non	-1126
▁couple	-1127
▁answer	-1128
rug	-1129
red	-1130
site	-1131
itely	-1132
▁prom	-1133
oy	-1134
uge	-1135
▁abs	-1136
▁available	-1137
elf	-1138
duce	-1139
side	-1140
▁hold	-1141
lim	-1142
▁stock	-1143
▁skill	-1144
▁ur	-1145
▁safe	-1146
▁international	-1147
▁information	-1148
▁inv	-1149
▁turn	-1150
▁event	-1151
▁city	-1152
▁exact	-1153
ok	-1154
▁pract	-1155
ume	-1156
▁hosp	-1157
dle	-1158
▁guess	-1159
▁fun	-1160
▁afford	-1161
▁website	-1162
io	-1163
▁lang	-1164
▁career	-1165
▁uk	-1166
▁liter	-1167
▁join	-1168
▁hospital	-1169
ology	-1170
uage	-1171
▁chance	-1172
▁language	-1173
▁ref	-1174
urity	-1175
▁soon	-1176
ning	-1177
▁return	-1178
▁news	-1179
▁srilanka	-1180
▁definitely	-1181
▁phys	-1182
▁decide	-1183
sk	-1184
▁rajap	-1185
▁type	-1186
▁break	-1187
ident	-1188
▁speed	-1189
▁fu	-1190
▁mig	-1191
▁software	-1192
▁fact	-1193
ification	-1194
work	-1195
▁dist	-1196
▁expensive	-1197
▁foc	-1198
▁early	-1199
▁interested	-1200
▁credit	-1201
very	-1202
▁beach	-1203
land	-1204
▁community	-1205
▁honestly	-1206
aff	-1207
▁receive	-1208
▁majority	-1209
ade	-1210
ane	-1211
duate	-1212
▁cover	-1213
▁rajapak	-1214
cle	-1215
▁internet	-1216
▁fix	-1217
▁bene	-1218
▁water	-1219
▁decent	-1220
min	-1221
ron	-1222
▁own	-1223
ural	-1224
▁debt	-1225
▁story	-1226
▁write	-1227
▁dr	-1228
▁nice	-1229
ated	-1230
▁super	-1231
ull	-1232
▁net	-1233
▁reddit	-1234
▁tuk	-1235
anna	-1236
ana	-1237
▁fee	-1238
nection	-1239
olve	-1240
▁hello	-1241
air	-1242
ulation	-1243
▁connection	-1244
ich	-1245
▁met	-1246
▁neg	-1247
artment	-1248
▁prefer	-1249
ability	-1250
▁direct	-1251
▁limit	-1252
▁middle	-1253
▁tot	-1254
▁luck	-1255
▁normal	-1256
ledge	-1257
▁const	-1258
▁akd	-1259
▁does	-1260
▁basically	-1261
ove	-1262
ding	-1263
ting	-1264
▁can	-1265
▁tip	-1266
▁doesn	-1267
oid	-1268
itch	-1269
▁focus	-1270
▁techn	-1271
tact	-1272
tern	-1273
▁da	-1274
▁dam	-1275
▁hum	-1276
set	-1277
▁age	-1278
other	-1279
▁math	-1280
▁certain	-1281
▁treat	-1282
gin	-1283
▁reco	-1284
▁ai	-1285
▁decision	-1286
▁cit	-1287
▁fuel	-1288
ior	-1289
▁self	-1290
▁report	-1291
▁hate	-1292
▁lead	-1293
▁risk	-1294
▁corruption	-1295
lia	-1296
▁contact	-1297
▁sector	-1298
ness	-1299
▁aust	-1300
▁profe	-1301
▁keep	-1302
liament	-1303
▁parliament	-1304
sa	-1305
▁sound	-1306
▁indian	-1307
▁dra	-1308
▁equ	-1309
▁form	-1310
izen	-1311
▁ite	-1312
▁cr	-1313
ature	-1314
▁item	-1315
ush	-1316
▁citizen	-1317
▁history	-1318
▁lankans	-1319
aya	-1320
▁path	-1321
▁special	-1322
▁young	-1323
▁common	-1324
▁camp	-1325
▁down	-1326
▁curi	-1327
▁position	-1328
itle	-1329
aste	-1330
▁force	-1331
▁purch	-1332
▁single	-1333
▁benefit	-1334
erg	-1335
▁choice	-1336
book	-1337
▁financial	-1338
▁ce	-1339
▁subject	-1340
dh	-1341
▁fair	-1342
▁improve	-1343
▁protest	-1344
▁east	-1345
▁galle	-1346
▁wanna	-1347
▁concer	-1348
xt	-1349
ama	-1350
▁accept	-1351
▁gr	-1352
▁date	-1353
▁wi	-1354
olute	-1355
▁rule	-1356
▁legal	-1357
▁vac	-1358
▁fail	-1359
▁entire	-1360
▁bat	-1361
▁absolute	-1362
date	-1363
▁austral	-1364
apt	-1365
▁af	-1366
▁finance	-1367
▁eat	-1368
▁personally	-1369
ina	-1370
▁compet	-1371
▁teacher	-1372
fully	-1373
▁colle	-1374
sis	-1375
▁did	-1376
▁dou	-1377
▁goo	-1378
▁office	-1379
▁source	-1380
▁opp	-1381
▁purchase	-1382
▁edit	-1383
verage	-1384
ime	-1385
▁didn	-1386
▁link	-1387
ited	-1388
▁cash	-1389
▁large	-1390
▁avoid	-1391
▁crisis	-1392
▁transport	-1393
▁cal	-1394
▁org	-1395
▁bill	-1396
▁ps	-1397
ari	-1398
▁paper	-1399
▁eu	-1400
▁control	-1401
▁site	-1402
▁medic	-1403
▁concern	-1404
▁rs	-1405
▁basic	-1406
ffic	-1407
▁maint	-1408
unch	-1409
▁google	-1410
▁customer	-1411
read	-1412
icult	-1413
▁knowledge	-1414
▁later	-1415
▁cy	-1416
▁line	-1417
▁curious	-1418
▁huge	-1419
▁har	-1420
▁cert	-1421
▁drop	-1422
▁fall	-1423
reme	-1424
▁bra	-1425
▁happy	-1426
▁contin	-1427
▁pet	-1428
idate	-1429
▁deli	-1430
▁instit	-1431
▁difficult	-1432
▁profession	-1433
joy	-1434
erve	-1435
▁waste	-1436
▁previous	-1437
vert	-1438
▁word	-1439
▁reduce	-1440
▁expense	-1441
▁view	-1442
▁internship	-1443
▁gl	-1444
▁airport	-1445
▁fac	-1446
▁sort	-1447
▁transfer	-1448
▁important	-1449
▁store	-1450
▁strong	-1451
▁security	-1452
vid	-1453
▁civ	-1454
▁enjoy	-1455
▁pm	-1456
▁claim	-1457
▁access	-1458
▁medical	-1459
ury	-1460
▁govt	-1461
▁outside	-1462
uwa	-1463
▁dig	-1464
▁ann	-1465
▁interview	-1466
alese	-1467
▁poor	-1468
▁spot	-1469
▁update	-1470
▁doll	-1471
▁detail	-1472
▁rain	-1473
oint	-1474
▁hal	-1475
▁genu	-1476
▁lack	-1477
ond	-1478
ille	-1479
▁rupe	-1480
▁demand	-1481
▁stream	-1482
▁fit	-1483
▁dollar	-1484
▁sinhalese	-1485
▁minim	-1486
▁genuine	-1487
era	-1488
▁late	-1489
orry	-1490
▁fla	-1491
▁hit	-1492
▁ella	-1493
ator	-1494
▁enter	-1495
ivid	-1496
▁organ	-1497
ential	-1498
▁rupee	-1499
sent	-1500
▁cand	-1501
▁reach	-1502
▁employee	-1503
▁bri	-1504
▁average	-1505
▁step	-1506
▁mult	-1507
▁graduate	-1508
▁exactly	-1509
▁wel	-1510
ace	-1511
irm	-1512
▁unp	-1513
gn	-1514
▁bar	-1515
▁eth	-1516
▁exist	-1517
▁individ	-1518
val	-1519
vie	-1520
▁sep	-1521
▁master	-1522
▁specific	-1523
▁literally	-1524
▁china	-1525
▁mal	-1526
▁team	-1527
itive	-1528
▁court	-1529
▁suc	-1530
▁sad	-1531
igure	-1532
▁moment	-1533
ker	-1534
out	-1535
▁ls	-1536
▁est	-1537
▁soci	-1538
▁human	-1539
▁movie	-1540
zy	-1541
▁mass	-1542
▁sense	-1543
▁light	-1544
▁leader	-1545
ada	-1546
▁imf	-1547
▁test	-1548
▁atta	-1549
▁sorry	-1550
▁rele	-1551
▁major	-1552
▁minister	-1553
▁plus	-1554
▁reli	-1555
▁figure	-1556
▁individual	-1557
▁lapt	-1558
▁australia	-1559
▁laptop	-1560
ret	-1561
▁mobile	-1562
▁religion	-1563
▁slow	-1564
▁member	-1565
▁hire	-1566
▁extra	-1567
▁official	-1568
body	-1569
▁wish	-1570
ump	-1571
▁model	-1572
▁bal	-1573
▁difference	-1574
ann	-1575
▁lt	-1576
▁hair	-1577
▁ide	-1578
▁pat	-1579
▁pea	-1580
▁rich	-1581
▁candidate	-1582
▁pot	-1583
▁miss	-1584
▁correct	-1585
▁docu	-1586
▁strug	-1587
▁document	-1588
cri	-1589
▁auth	-1590
▁explain	-1591
iod	-1592
▁simp	-1593
ention	-1594
▁civil	-1595
ibility	-1596
▁period	-1597
dn	-1598
▁fast	-1599
▁struggle	-1600
ously	-1601
mi	-1602
▁appro	-1603
▁title	-1604
▁trade	-1605
▁obvious	-1606
▁hy	-1607
▁na	-1608
▁design	-1609
▁standard	-1610
rict	-1611
▁mah	-1612
▁clean	-1613
▁discu	-1614
▁north	-1615
▁accord	-1616
▁affect	-1617
vp	-1618
ye	-1619
▁note	-1620
▁stick	-1621
▁action	-1622
sm	-1623
rency	-1624
med	-1625
▁lic	-1626
ivity	-1627
▁aware	-1628
▁select	-1629
▁getting	-1630
▁relation	-1631
ai	-1632
fortun	-1633
▁kinda	-1634
▁forget	-1635
▁cry	-1636
▁buddh	-1637
▁unfortun	-1638
ll	-1639
▁arm	-1640
▁isn	-1641
imate	-1642
▁electric	-1643
den	-1644
▁message	-1645
aur	-1646
▁euro	-1647
▁info	-1648
▁peace	-1649
▁migrate	-1650
reen	-1651
urance	-1652
▁weather	-1653
▁solution	-1654
com	-1655
uldn	-1656
ination	-1657
▁actual	-1658
▁handle	-1659
▁fo	-1660
ert	-1661
▁music	-1662
▁management	-1663
load	-1664
jith	-1665
▁range	-1666
▁comfort	-1667
▁practice	-1668
ym	-1669
pri	-1670
▁ah	-1671
ift	-1672
▁jvp	-1673
aurant	-1674
▁effect	-1675
▁profit	-1676
▁restaurant	-1677
icket	-1678
▁begin	-1679
▁covid	-1680
▁div	-1681
ror	-1682
▁walk	-1683
▁extreme	-1684
▁gb	-1685
▁sea	-1686
▁plat	-1687
▁continue	-1688
▁medicine	-1689
▁mot	-1690
▁partic	-1691
▁foreigner	-1692
cc	-1693
▁blo	-1694
▁gain	-1695
▁mental	-1696
▁professional	-1697
▁half	-1698
▁owner	-1699
▁network	-1700
▁yout	-1701
▁beaut	-1702
nect	-1703
▁imm	-1704
▁jap	-1705
istic	-1706
ulate	-1707
▁involve	-1708
he	-1709
round	-1710
▁feed	-1711
▁mis	-1712
▁phot	-1713
▁monthly	-1714
▁currency	-1715
▁code	-1716
▁absolutely	-1717
▁completely	-1718
▁x	-1719
▁society	-1720
iri	-1721
▁foot	-1722
ially	-1723
▁forward	-1724
▁insight	-1725
▁register	-1726
▁stat	-1727
▁island	-1728
▁respons	-1729
▁the	-1730
▁kill	-1731
ructure	-1732
▁arri	-1733
▁relative	-1734
rant	-1735
▁simply	-1736
ully	-1737
▁exc	-1738
▁marri	-1739
ake	-1740
▁sport	-1741
ba	-1742
iit	-1743
▁ltte	-1744
▁development	-1745
▁role	-1746
▁room	-1747
▁computer	-1748
ero	-1749
ization	-1750
▁fan	-1751
▁cric	-1752
▁commun	-1753
▁ticket	-1754
▁insurance	-1755
▁likely	-1756
▁ama	-1757
earch	-1758
▁gota	-1759
▁sajith	-1760
▁search	-1761
▁respect	-1762
▁condition	-1763
▁okay	-1764
▁white	-1765
▁nation	-1766
▁partner	-1767
more	-1768
▁ant	-1769
ource	-1770
▁crit	-1771
▁park	-1772
▁tourism	-1773
▁inflation	-1774
ifi	-1775
▁willing	-1776
▁reliable	-1777
▁generation	-1778
por	-1779
▁tv	-1780
▁hea	-1781
▁expl	-1782
▁uber	-1783
▁switch	-1784
ditional	-1785
▁mother	-1786
▁signific	-1787
ube	-1788
▁cop	-1789
▁dude	-1790
▁stup	-1791
▁he	-1792
sure	-1793
▁worker	-1794
▁daily	-1795
▁simple	-1796
▁stupid	-1797
igin	-1798
▁bear	-1799
▁bike	-1800
▁influ	-1801
▁env	-1802
▁gold	-1803
▁just	-1804
▁success	-1805
▁amaz	-1806
▁necess	-1807
▁helpful	-1808
▁unfortunately	-1809
▁conte	-1810
▁europe	-1811
▁saving	-1812
gress	-1813
▁assume	-1814
▁origin	-1815
▁viol	-1816
▁remove	-1817
ern	-1818
▁wester	-1819
pto	-1820
rib	-1821
▁quick	-1822
▁multip	-1823
▁platform	-1824
▁sen	-1825
▁die	-1826
lement	-1827
▁press	-1828
▁glob	-1829
▁freel	-1830
▁directly	-1831
▁relationship	-1832
▁bt	-1833
mail	-1834
▁jun	-1835
▁significant	-1836
▁ima	-1837
▁saf	-1838
▁minimum	-1839
by	-1840
gh	-1841
yle	-1842
atic	-1843
ther	-1844
▁cuz	-1845
▁top	-1846
▁wed	-1847
▁easily	-1848
▁regard	-1849
▁maintain	-1850
annel	-1851
▁init	-1852
▁cricket	-1853
▁blame	-1854
▁highly	-1855
▁youtube	-1856
aw	-1857
iron	-1858
▁heav	-1859
▁commer	-1860
▁traffic	-1861
mer	-1862
pose	-1863
▁oppos	-1864
▁license	-1865
ager	-1866
▁factor	-1867
▁channel	-1868
ux	-1869
olk	-1870
▁digital	-1871
▁ride	-1872
▁connect	-1873
▁western	-1874
▁passport	-1875
▁hol	-1876
ironment	-1877
▁ir	-1878
▁tb	-1879
cket	-1880
▁ppl	-1881
▁wear	-1882
▁environment	-1883
iate	-1884
▁oper	-1885
▁wife	-1886
▁unlim	-1887
▁canada	-1888
▁attack	-1889
▁perform	-1890
▁sho	-1891
mar	-1892
▁crime	-1893
▁reply	-1894
▁review	-1895
▁unlimited	-1896
▁tw	-1897
▁unit	-1898
▁vacc	-1899
▁complain	-1900
fect	-1901
▁boy	-1902
▁ign	-1903
▁prep	-1904
▁muslim	-1905
eric	-1906
▁star	-1907
▁letter	-1908
▁location	-1909
▁milit	-1910
▁remote	-1911
▁resource	-1912
umb	-1913
▁balance	-1914
cip	-1915
▁capital	-1916
▁eye	-1917
▁till	-1918
▁marry	-1919
▁total	-1920
▁folk	-1921
▁multiple	-1922
▁stra	-1923
▁applic	-1924
▁facebook	-1925
▁sex	-1926
▁anymore	-1927
orce	-1928
▁cam	-1929
▁sliit	-1930
▁qualification	-1931
spect	-1932
▁raise	-1933
▁smart	-1934
▁decade	-1935
▁overse	-1936
dic	-1937
core	-1938
▁match	-1939
▁popular	-1940
our	-1941
▁ach	-1942
▁finish	-1943
▁surpri	-1944
▁beautif	-1945
ffer	-1946
reet	-1947
▁router	-1948
▁exe	-1949
▁idk	-1950
▁worry	-1951
▁altern	-1952
mpt	-1953
action	-1954
change	-1955
▁property	-1956
▁hor	-1957
istry	-1958
▁email	-1959
▁physical	-1960
▁beautiful	-1961
▁dad	-1962
▁dest	-1963
▁aut	-1964
▁college	-1965
▁oh	-1966
▁acad	-1967
▁fight	-1968
▁track	-1969
▁americ	-1970
▁btw	-1971
▁army	-1972
▁meth	-1973
▁indep	-1974
▁mainly	-1975
ming	-1976
▁sale	-1977
▁apartment	-1978
ellow	-1979
ificate	-1980
▁academ	-1981
▁certificate	-1982
▁wise	-1983
▁space	-1984
▁address	-1985
▁brother	-1986
▁realize	-1987
▁suppose	-1988
▁gam	-1989
▁recogn	-1990
▁regular	-1991
▁independ	-1992
idence	-1993
▁anura	-1994
▁crazy	-1995
ugh	-1996
▁eg	-1997
▁log	-1998
▁military	-1999
▁gla	-2000
quest	-2001
▁commit	-2002
apore	-2003
▁cloth	-2004
ych	-2005
▁fake	-2006
▁ille	-2007
▁user	-2008
▁exchange	-2009
▁singapore	-2010
ating	-2011
▁illeg	-2012
▁cool	-2013
▁obviously	-2014
▁char	-2015
▁replace	-2016
▁overseas	-2017
back	-2018
▁mist	-2019
▁page	-2020
▁rand	-2021
▁request	-2022
ergy	-2023
▁moder	-2024
▁staff	-2025
▁ban	-2026
▁ess	-2027
▁imo	-2028
▁club	-2029
▁file	-2030
▁extremely	-2031
▁dm	-2032
▁it	-2033
tery	-2034
▁push	-2035
▁wedding	-2036
sl	-2037
▁catch	-2038
▁drink	-2039
sha	-2040
▁gym	-2041
▁vot	-2042
▁ethn	-2043
▁rema	-2044
▁fully	-2045
rist	-2046
yer	-2047
▁tend	-2048
▁black	-2049
▁marriage	-2050
iot	-2051
▁cro	-2052
▁central	-2053
▁content	-2054
▁progress	-2055
ground	-2056
ka	-2057
gine	-2058
▁lawyer	-2059
▁random	-2060
▁properly	-2061
▁appoint	-2062
▁no	-2063
sing	-2064
▁cir	-2065
▁block	-2066
▁suffer	-2067
▁vs	-2068
▁some	-2069
▁psych	-2070
▁export	-2071
ief	-2072
cent	-2073
▁lab	-2074
▁sat	-2075
▁vol	-2076
▁seri	-2077
▁every	-2078
▁imagine	-2079
▁lecture	-2080
▁god	-2081
▁legit	-2082
▁collect	-2083
of	-2084
bit	-2085
lex	-2086
otion	-2087
▁fire	-2088
▁attend	-2089
▁amazing	-2090
▁interesting	-2091
▁desp	-2092
▁grade	-2093
▁immig	-2094
▁method	-2095
▁alternative	-2096
inate	-2097
▁educate	-2098
▁promise	-2099
▁station	-2100
ark	-2101
▁lux	-2102
▁separ	-2103
▁sn	-2104
▁arg	-2105
▁bare	-2106
▁remain	-2107
ili	-2108
ody	-2109
▁ut	-2110
▁anal	-2111
▁record	-2112
▁achieve	-2113
▁officer	-2114
inda	-2115
osit	-2116
▁occ	-2117
▁chem	-2118
▁deep	-2119
▁goal	-2120
▁journ	-2121
▁senior	-2122
ively	-2123
orrow	-2124
▁seat	-2125
▁route	-2126
▁buddhist	-2127
▁usa	-2128
▁stri	-2129
▁activity	-2130
▁implement	-2131
fc	-2132
▁bir	-2133
▁street	-2134
▁morning	-2135
▁startup	-2136
▁requirement	-2137
▁key	-2138
▁finally	-2139
▁reality	-2140
sed	-2141
▁dog	-2142
inese	-2143
▁disa	-2144
▁doubt	-2145
▁chinese	-2146
▁deposit	-2147
▁release	-2148
▁apparent	-2149
▁particular	-2150
▁aud	-2151
▁jaff	-2152
▁topic	-2153
ze	-2154
racy	-2155
▁carry	-2156
▁cyber	-2157
▁friendly	-2158
ole	-2159
▁sj	-2160
▁dream	-2161
ference	-2162
▁jaffna	-2163
▁listen	-2164
▁living	-2165
▁illegal	-2166
▁inside	-2167
ays	-2168
ball	-2169
vant	-2170
▁fill	-2171
oon	-2172
▁ju	-2173
olar	-2174
▁prem	-2175
▁ship	-2176
▁coast	-2177
▁repair	-2178
▁fucking	-2179
▁population	-2180
iss	-2181
sue	-2182
▁truly	-2183
▁father	-2184
▁contract	-2185
▁religious	-2186
▁seriously	-2187
bor	-2188
ians	-2189
▁beha	-2190
▁technology	-2191
▁inn	-2192
alent	-2193
▁consult	-2194
▁explore	-2195
▁communic	-2196
▁tar	-2197
iriya	-2198
▁brit	-2199
▁temple	-2200
ince	-2201
▁lie	-2202
▁tho	-2203
▁cook	-2204
▁global	-2205
▁background	-2206
▁fav	-2207
▁jud	-2208
▁ethnic	-2209
▁fellow	-2210
▁pursue	-2211
▁protect	-2212
▁department	-2213
▁electricity	-2214
▁sus	-2215
▁minute	-2216
istration	-2217
ler	-2218
raph	-2219
▁put	-2220
▁final	-2221
▁battery	-2222
▁perfect	-2223
wh	-2224
band	-2225
anger	-2226
ronic	-2227
▁seek	-2228
▁pickme	-2229
▁scholar	-2230
▁straight	-2231
▁sla	-2232
phone	-2233
▁intro	-2234
▁context	-2235
▁welcome	-2236
▁bur	-2237
▁body	-2238
▁comb	-2239
▁corpor	-2240
▁clearly	-2241
bour	-2242
▁mark	-2243
▁stress	-2244
cut	-2245
ling	-2246
▁sig	-2247
▁sjb	-2248
▁chat	-2249
▁ident	-2250
▁neigh	-2251
▁overall	-2252
▁dev	-2253
▁fru	-2254
▁with	-2255
▁settle	-2256
▁specially	-2257
iner	-2258
care	-2259
stic	-2260
▁max	-2261
▁apparently	-2262
▁tro	-2263
▁crow	-2264
▁score	-2265
▁manager	-2266
irt	-2267
▁vers	-2268
▁west	-2269
▁solid	-2270
▁arrive	-2271
▁anybody	-2272
▁article	-2273
erv	-2274
duct	-2275
▁nuw	-2276
▁wage	-2277
▁guide	-2278
▁idiot	-2279
▁effort	-2280
▁energy	-2281
▁totally	-2282
▁specifically	-2283
▁surv	-2284
▁what	-2285
▁democ	-2286
▁growth	-2287
▁impact	-2288
▁jan	-2289
ently	-2290
▁despite	-2291
▁institution	-2292
ah	-2293
ssa	-2294
▁fd	-2295
▁dut	-2296
▁ver	-2297
▁confirm	-2298
▁potential	-2299
▁ye	-2300
alth	-2301
▁wealth	-2302
▁hopefully	-2303
like	-2304
▁physic	-2305
▁comfortable	-2306
▁marketing	-2307
▁mr	-2308
▁tbh	-2309
▁board	-2310
▁fil	-2311
▁host	-2312
▁photo	-2313
▁genuinely	-2314
▁fly	-2315
▁sam	-2316
▁found	-2317
▁throw	-2318
▁solve	-2319
▁client	-2320
▁safety	-2321
ny	-2322
time	-2323
▁crypto	-2324
▁supply	-2325
anda	-2326
▁you	-2327
ograph	-2328
▁bunch	-2329
▁prove	-2330
▁opposition	-2331
male	-2332
▁damn	-2333
▁mahinda	-2334
▁original	-2335
▁scholarship	-2336
▁nam	-2337
▁drug	-2338
▁brain	-2339
▁immed	-2340
▁union	-2341
▁subred	-2342
▁express	-2343
▁generally	-2344
▁temp	-2345
▁death	-2346
▁grand	-2347
▁confuse	-2348
▁luxury	-2349
▁subreddit	-2350
▁sil	-2351
▁rise	-2352
▁mistake	-2353
▁application	-2354
amp	-2355
▁oil	-2356
▁compla	-2357
▁nuwara	-2358
▁billion	-2359
ex	-2360
sb	-2361
ape	-2362
▁er	-2363
▁hang	-2364
▁miri	-2365
▁cance	-2366
▁broker	-2367
dra	-2368
ery	-2369
▁by	-2370
▁wo	-2371
▁asia	-2372
▁dumb	-2373
▁joke	-2374
▁pict	-2375
▁region	-2376
▁download	-2377
mb	-2378
ried	-2379
▁dead	-2380
▁dire	-2381
▁name	-2382
▁arrest	-2383
▁campus	-2384
▁picture	-2385
▁eventually	-2386
▁cs	-2387
illa	-2388
▁mix	-2389
▁vibe	-2390
▁institute	-2391
▁regardless	-2392
▁ep	-2393
▁hon	-2394
▁pan	-2395
▁tele	-2396
▁haven	-2397
▁target	-2398
sec	-2399
cist	-2400
rible	-2401
▁band	-2402
ission	-2403
▁present	-2404
▁academic	-2405
ott	-2406
▁gar	-2407
▁nat	-2408
▁oct	-2409
▁king	-2410
▁stable	-2411
▁facility	-2412
▁reasonable	-2413
▁copy	-2414
▁text	-2415
▁double	-2416
▁deliver	-2417
▁positive	-2418
▁undergra	-2419
▁complaint	-2420
cast	-2421
itel	-2422
rast	-2423
▁rag	-2424
▁prop	-2425
▁female	-2426
▁delivery	-2427
▁hn	-2428
pper	-2429
▁sun	-2430
least	-2431
urage	-2432
▁skin	-2433
▁affordable	-2434
erial	-2435
▁birth	-2436
▁crowd	-2437
▁expert	-2438
▁atleast	-2439
▁contrib	-2440
▁employer	-2441
cel	-2442
ird	-2443
ceed	-2444
eer	-2445
▁tu	-2446
enty	-2447
rend	-2448
▁mate	-2449
pa	-2450
pal	-2451
▁pc	-2452
▁shi	-2453
allen	-2454
▁blood	-2455
▁steal	-2456
▁advise	-2457
ram	-2458
arma	-2459
imal	-2460
▁challen	-2461
▁response	-2462
ome	-2463
▁wind	-2464
▁season	-2465
▁trading	-2466
edu	-2467
▁tia	-2468
▁vict	-2469
▁wild	-2470
▁motor	-2471
▁necessary	-2472
rid	-2473
▁lay	-2474
▁less	-2475
▁suit	-2476
▁terror	-2477
▁mobitel	-2478
▁ik	-2479
itor	-2480
scri	-2481
▁sle	-2482
▁aren	-2483
▁namal	-2484
▁prepare	-2485
▁warrant	-2486
▁foundation	-2487
erm	-2488
▁mp	-2489
▁asset	-2490
▁ignore	-2491
▁je	-2492
▁july	-2493
▁entry	-2494
▁reven	-2495
▁worried	-2496
uble	-2497
pping	-2498
▁mech	-2499
▁zero	-2500
▁ground	-2501
▁convers	-2502
▁greatly	-2503
nam	-2504
▁iit	-2505
▁sud	-2506
ience	-2507
▁loss	-2508
▁autom	-2509
▁passion	-2510
av	-2511
▁fra	-2512
▁eliya	-2513
▁discuss	-2514
▁mirissa	-2515
▁rajapaksa	-2516
ked	-2517
▁fear	-2518
resent	-2519
▁serve	-2520
▁cancel	-2521
▁british	-2522
▁survive	-2523
▁trouble	-2524
▁srilankan	-2525
plom	-2526
▁bet	-2527
▁tour	-2528
▁fresh	-2529
▁diplom	-2530
▁modern	-2531
▁incident	-2532
▁pull	-2533
spective	-2534
▁mindset	-2535
▁version	-2536
ady	-2537
▁bot	-2538
▁anti	-2539
▁weekend	-2540
▁cultural	-2541
▁rw	-2542
iece	-2543
▁fort	-2544
▁print	-2545
▁truth	-2546
▁represent	-2547
▁conv	-2548
▁milk	-2549
▁town	-2550
▁touch	-2551
▁flight	-2552
▁convert	-2553
▁hur	-2554
▁typ	-2555
▁hide	-2556
courage	-2557
▁sigiriya	-2558
▁hr	-2559
gger	-2560
iday	-2561
ooth	-2562
ender	-2563
phant	-2564
▁dece	-2565
▁rank	-2566
▁heavy	-2567
▁reput	-2568
▁itiner	-2569
▁holiday	-2570
▁promote	-2571
▁elephant	-2572
▁gas	-2573
▁weird	-2574
▁purpose	-2575
▁tuition	-2576
▁itinerary	-2577
▁traditional	-2578
draw	-2579
atory	-2580
▁constru	-2581
ier	-2582
ulty	-2583
▁center	-2584
▁pressure	-2585
▁cey	-2586
▁cse	-2587
▁pun	-2588
▁suck	-2589
▁surf	-2590
▁prior	-2591
▁plenty	-2592
▁racist	-2593
▁warranty	-2594
▁withdraw	-2595
force	-2596
▁flag	-2597
▁chill	-2598
▁heart	-2599
▁voter	-2600
▁yester	-2601
▁negative	-2602
we	-2603
▁ge	-2604
▁ig	-2605
arant	-2606
▁ready	-2607
▁reform	-2608
▁remind	-2609
▁statement	-2610
▁q	-2611
acy	-2612
▁aug	-2613
▁bab	-2614
press	-2615
▁cele	-2616
▁cine	-2617
▁agent	-2618
▁broad	-2619
▁morat	-2620
▁massive	-2621
▁commission	-2622
room	-2623
▁ult	-2624
▁fish	-2625
▁threat	-2626
▁influence	-2627
▁yesterday	-2628
▁employment	-2629
att	-2630
▁prev	-2631
▁proof	-2632
▁refer	-2633
▁physics	-2634
▁discussion	-2635
gy	-2636
▁atte	-2637
▁coun	-2638
▁ahead	-2639
▁emerg	-2640
▁refuse	-2641
▁deserve	-2642
▁minority	-2643
▁moratuwa	-2644
▁burn	-2645
▁mach	-2646
itution	-2647
▁nature	-2648
▁faculty	-2649
▁patient	-2650
▁preferably	-2651
▁ict	-2652
▁repe	-2653
▁freed	-2654
▁villa	-2655
▁approach	-2656
▁emergency	-2657
wa	-2658
▁cab	-2659
▁calc	-2660
▁scen	-2661
▁shoe	-2662
▁adult	-2663
▁banking	-2664
▁percent	-2665
▁separate	-2666
▁training	-2667
▁healthcare	-2668
▁performance	-2669
▁bc	-2670
▁lin	-2671
▁spread	-2672
▁revenue	-2673
▁commercial	-2674
ste	-2675
▁mb	-2676
▁rev	-2677
achel	-2678
▁behav	-2679
▁valid	-2680
lla	-2681
ibly	-2682
mpath	-2683
▁celeb	-2684
▁piece	-2685
▁tough	-2686
▁bachel	-2687
▁screen	-2688
▁freedom	-2689
▁district	-2690
oom	-2691
▁fb	-2692
▁den	-2693
▁pla	-2694
▁sum	-2695
place	-2696
▁duty	-2697
▁campa	-2698
▁plant	-2699
▁feedback	-2700
▁tom	-2701
▁pain	-2702
▁prof	-2703
▁rare	-2704
▁lease	-2705
▁authority	-2706
▁sleep	-2707
▁barely	-2708
▁bachelor	-2709
▁campaign	-2710
▁challenge	-2711
▁km	-2712
hood	-2713
▁bag	-2714
▁son	-2715
ption	-2716
▁transaction	-2717
▁toy	-2718
▁firm	-2719
▁usual	-2720
▁critic	-2721
▁unlike	-2722
▁corporate	-2723
uf	-2724
▁fr	-2725
anch	-2726
▁baby	-2727
▁data	-2728
▁song	-2729
antage	-2730
▁apart	-2731
▁approve	-2732
▁reserve	-2733
▁attention	-2734
▁electronic	-2735
▁din	-2736
▁isra	-2737
▁wifi	-2738
▁fiber	-2739
▁japan	-2740
▁secure	-2741
▁status	-2742
▁feeling	-2743
ask	-2744
asn	-2745
una	-2746
▁cat	-2747
antly	-2748
▁asso	-2749
▁race	-2750
▁frust	-2751
▁useful	-2752
▁advantage	-2753
fri	-2754
▁green	-2755
▁israel	-2756
light	-2757
▁arch	-2758
▁ceyl	-2759
▁disc	-2760
▁glad	-2761
▁hike	-2762
▁pure	-2763
friend	-2764
▁device	-2765
▁retire	-2766
▁slight	-2767
▁thread	-2768
uri	-2769
▁justice	-2770
grade	-2771
▁solo	-2772
▁christ	-2773
▁sudden	-2774
▁talent	-2775
▁infrast	-2776
▁negombo	-2777
▁responsibility	-2778
▁cas	-2779
▁dub	-2780
▁cafe	-2781
ension	-2782
▁image	-2783
▁scene	-2784
▁discount	-2785
hi	-2786
▁ic	-2787
sapp	-2788
▁hut	-2789
▁bull	-2790
▁manuf	-2791
▁shame	-2792
▁disapp	-2793
ault	-2794
▁colon	-2795
▁building	-2796
▁manufact	-2797
▁infrastructure	-2798
bre	-2799
▁ton	-2800
▁asian	-2801
▁shift	-2802
cipline	-2803
▁resign	-2804
▁strike	-2805
▁introduce	-2806
▁august	-2807
▁whatsapp	-2808
▁meal	-2809
▁ruin	-2810
let	-2811
▁od	-2812
▁coff	-2813
▁guid	-2814
▁rice	-2815
▁size	-2816
▁slpp	-2817
▁abuse	-2818
▁effic	-2819
▁scale	-2820
▁trend	-2821
ciation	-2822
▁useless	-2823
ini	-2824
ulla	-2825
itude	-2826
▁style	-2827
▁agency	-2828
▁investor	-2829
iex	-2830
uary	-2831
▁aliex	-2832
▁judge	-2833
▁practical	-2834
▁discipline	-2835
xic	-2836
▁bio	-2837
▁prime	-2838
▁insane	-2839
▁mechan	-2840
▁reject	-2841
▁secret	-2842
▁ol	-2843
cism	-2844
etic	-2845
▁unre	-2846
▁stage	-2847
▁permit	-2848
▁december	-2849
▁material	-2850
mon	-2851
ider	-2852
▁pls	-2853
▁clar	-2854
iately	-2855
▁analy	-2856
▁trump	-2857
▁emotion	-2858
▁feature	-2859
▁investig	-2860
▁immediately	-2861
▁perspective	-2862
▁understanding	-2863
eet	-2864
ober	-2865
▁opt	-2866
▁pra	-2867
isation	-2868
ression	-2869
▁petrol	-2870
▁vaccine	-2871
▁tomorrow	-2872
▁freelance	-2873
omb	-2874
shit	-2875
▁russ	-2876
▁apple	-2877
▁american	-2878
▁shipping	-2879
▁presidential	-2880
za	-2881
▁mem	-2882
▁mer	-2883
▁rid	-2884
▁shy	-2885
▁impo	-2886
▁admin	-2887
▁football	-2888
▁aliexpress	-2889
▁flo	-2890
▁tool	-2891
ception	-2892
▁pharma	-2893
▁airline	-2894
▁attempt	-2895
▁conversation	-2896
urb	-2897
board	-2898
ablish	-2899
▁october	-2900
▁violence	-2901
fs	-2902
go	-2903
▁pen	-2904
▁male	-2905
▁fibre	-2906
▁gaming	-2907
▁strate	-2908
▁produce	-2909
▁recover	-2910
oda	-2911
ril	-2912
istan	-2913
▁wide	-2914
▁clothe	-2915
▁unique	-2916
▁wouldn	-2917
▁concept	-2918
▁establish	-2919
▁responsible	-2920
▁cb	-2921
▁bay	-2922
ivate	-2923
▁nove	-2924
▁creat	-2925
gic	-2926
bass	-2927
ov	-2928
ps	-2929
▁bed	-2930
▁unf	-2931
style	-2932
▁delay	-2933
mission	-2934
▁compar	-2935
▁shitty	-2936
▁addition	-2937
▁immigration	-2938
▁cv	-2939
urse	-2940
▁hus	-2941
minal	-2942
▁alot	-2943
▁left	-2944
▁load	-2945
▁scare	-2946
▁animal	-2947
▁ideally	-2948
▁deb	-2949
▁tin	-2950
▁taste	-2951
▁volunt	-2952
▁diploma	-2953
▁prevent	-2954
▁november	-2955
▁registration	-2956
▁communication	-2957
ike	-2958
▁wt	-2959
ized	-2960
▁fal	-2961
▁ill	-2962
▁bond	-2963
▁machine	-2964
▁constitution	-2965
stain	-2966
▁colla	-2967
▁punish	-2968
▁guarant	-2969
▁operate	-2970
put	-2971
unce	-2972
urch	-2973
wala	-2974
▁byd	-2975
▁mur	-2976
▁cross	-2977
▁ceylon	-2978
▁damage	-2979
▁racism	-2980
▁democracy	-2981
▁competition	-2982
her	-2983
▁lak	-2984
▁phd	-2985
▁table	-2986
▁iphone	-2987
▁contribute	-2988
▁financially	-2989
▁lg	-2990
▁pi	-2991
ival	-2992
ways	-2993
▁got	-2994
▁nar	-2995
arily	-2996
asion	-2997
▁jump	-2998
▁peak	-2999
▁advert	-3000
▁evidence	-3001
▁rajapaksha	-3002
life	-3003
▁bsc	-3004
under	-3005
▁ball	-3006
▁mand	-3007
▁rela	-3008
▁liber	-3009
riction	-3010
▁bottle	-3011
▁camera	-3012
▁church	-3013
▁strict	-3014
▁transl	-3015
▁indians	-3016
▁confused	-3017
▁shortage	-3018
▁developer	-3019
▁essential	-3020
da	-3021
▁pak	-3022
ssible	-3023
▁toxic	-3024
▁upper	-3025
▁branch	-3026
▁coffee	-3027
▁accident	-3028
▁construction	-3029
amb	-3030
gth	-3031
▁bon	-3032
anese	-3033
▁june	-3034
cutive	-3035
▁annoy	-3036
▁queue	-3037
▁lately	-3038
▁husband	-3039
eme	-3040
▁bs	-3041
hold	-3042
▁nic	-3043
▁sup	-3044
ancer	-3045
▁monk	-3046
▁april	-3047
▁rural	-3048
▁active	-3049
▁additional	-3050
crimin	-3051
enance	-3052
▁conven	-3053
▁guarantee	-3054
▁impossible	-3055
lict	-3056
edule	-3057
▁side	-3058
▁false	-3059
▁scheme	-3060
▁consist	-3061
▁restriction	-3062
bus	-3063
utor	-3064
what	-3065
▁lma	-3066
▁hurt	-3067
▁sick	-3068
▁rental	-3069
▁toyota	-3070
▁january	-3071
▁monitor	-3072
▁sustain	-3073
▁upgrade	-3074
▁volunteer	-3075
yal	-3076
▁circ	-3077
▁trin	-3078
▁fault	-3079
▁septe	-3080
▁divide	-3081
entially	-3082
▁highway	-3083
▁distance	-3084
▁somewhat	-3085
▁recognize	-3086
mo	-3087
▁dh	-3088
vere	-3089
▁dress	-3090
▁youth	-3091
▁estate	-3092
▁obtain	-3093
▁regret	-3094
▁chemistry	-3095
▁executive	-3096
▁lifestyle	-3097
▁treatment	-3098
▁organization	-3099
comp	-3100
umer	-3101
ocent	-3102
▁bang	-3103
▁rough	-3104
▁sadly	-3105
▁sylla	-3106
▁anyways	-3107
▁criminal	-3108
▁japanese	-3109
▁thinking	-3110
▁emb	-3111
▁door	-3112
▁twice	-3113
▁paypal	-3114
▁september	-3115
▁maintenance	-3116
▁mad	-3117
▁lady	-3118
▁ideal	-3119
▁relax	-3120
▁engage	-3121
▁climate	-3122
▁install	-3123
▁surprised	-3124
ront	-3125
▁rad	-3126
▁assist	-3127
▁submit	-3128
▁limited	-3129
▁discrimin	-3130
ague	-3131
play	-3132
▁box	-3133
▁mac	-3134
▁root	-3135
▁tari	-3136
▁explo	-3137
▁histor	-3138
▁sister	-3139
▁encourage	-3140
dp	-3141
▁tariff	-3142
▁pakistan	-3143
lus	-3144
▁vat	-3145
▁advis	-3146
▁dubai	-3147
▁annual	-3148
▁locally	-3149
▁ministry	-3150
▁neighbor	-3151
▁priority	-3152
▁relevant	-3153
▁syllabus	-3154
br	-3155
▁boo	-3156
ament	-3157
verse	-3158
▁gift	-3159
▁lond	-3160
▁rely	-3161
▁rock	-3162
▁wash	-3163
▁player	-3164
▁guidance	-3165
▁innocent	-3166
▁provider	-3167
ced	-3168
roy	-3169
▁ang	-3170
▁pres	-3171
▁cycle	-3172
▁negot	-3173
▁shoot	-3174
▁aspect	-3175
▁couldn	-3176
▁natural	-3177
▁schedule	-3178
hol	-3179
sel	-3180
▁coz	-3181
▁bomb	-3182
▁lmao	-3183
▁loud	-3184
▁sent	-3185
▁taxi	-3186
▁appear	-3187
▁london	-3188
▁malays	-3189
kt	-3190
est	-3191
▁mea	-3192
▁rat	-3193
agram	-3194
▁brow	-3195
▁lesson	-3196
▁slowly	-3197
▁bankrupt	-3198
▁generate	-3199
▁citizenship	-3200
▁transportation	-3201
ening	-3202
right	-3203
▁hind	-3204
▁setup	-3205
▁cinema	-3206
▁repeat	-3207
▁signal	-3208
▁legally	-3209
▁conflict	-3210
▁everyday	-3211
▁successful	-3212
gr	-3213
imb	-3214
▁ba	-3215
ison	-3216
sequ	-3217
▁uncle	-3218
▁bother	-3219
▁counter	-3220
▁healthy	-3221
▁resident	-3222
▁associate	-3223
ef	-3224
▁map	-3225
▁pred	-3226
coming	-3227
▁ridic	-3228
▁sampath	-3229
▁consumer	-3230
▁undergraduate	-3231
oke	-3232
link	-3233
▁flu	-3234
▁her	-3235
▁rene	-3236
▁destroy	-3237
▁migration	-3238
▁appointment	-3239
vey	-3240
ario	-3241
▁gre	-3242
▁busy	-3243
▁refund	-3244
▁tempor	-3245
▁quickly	-3246
▁agreement	-3247
▁instagram	-3248
▁regulation	-3249
▁independent	-3250
▁diss	-3251
▁funny	-3252
▁march	-3253
▁solar	-3254
▁gender	-3255
▁window	-3256
▁journey	-3257
▁bullshit	-3258
▁girlfriend	-3259
ech	-3260
eel	-3261
ies	-3262
rit	-3263
ught	-3264
uable	-3265
▁adop	-3266
▁fest	-3267
▁favor	-3268
▁seller	-3269
▁journal	-3270
▁meaning	-3271
▁section	-3272
▁peaceful	-3273
▁province	-3274
▁effective	-3275
oor	-3276
▁my	-3277
illed	-3278
▁cous	-3279
▁poll	-3280
▁tutor	-3281
▁danger	-3282
▁dinner	-3283
▁fairly	-3284
▁competitive	-3285
ounce	-3286
▁arag	-3287
▁prin	-3288
▁bonus	-3289
▁equal	-3290
▁extern	-3291
▁ability	-3292
pay	-3293
bage	-3294
▁esc	-3295
▁gdp	-3296
▁gem	-3297
acity	-3298
ified	-3299
▁meme	-3300
▁blind	-3301
▁hutch	-3302
▁usage	-3303
▁cousin	-3304
▁delete	-3305
▁perman	-3306
▁intention	-3307
▁pod	-3308
▁tre	-3309
▁argu	-3310
▁vari	-3311
▁batch	-3312
▁mount	-3313
▁influen	-3314
▁justify	-3315
▁realise	-3316
▁scenario	-3317
▁supporter	-3318
take	-3319
▁aim	-3320
conut	-3321
urate	-3322
▁bail	-3323
▁function	-3324
▁structure	-3325
▁independence	-3326
ancy	-3327
just	-3328
sung	-3329
▁cru	-3330
▁alle	-3331
▁cate	-3332
▁assign	-3333
▁attract	-3334
▁coconut	-3335
▁pharmacy	-3336
▁direction	-3337
▁mentality	-3338
▁technical	-3339
ons	-3340
une	-3341
ommod	-3342
▁lock	-3343
▁ikman	-3344
▁ensure	-3345
▁victim	-3346
▁complex	-3347
▁display	-3348
▁heavily	-3349
▁session	-3350
▁attitude	-3351
▁freelancer	-3352
▁manufacture	-3353
sy	-3354
▁hnb	-3355
▁wtf	-3356
▁skip	-3357
▁lucky	-3358
▁voice	-3359
imately	-3360
▁garbage	-3361
▁spending	-3362
▁terrible	-3363
▁celebrate	-3364
cing	-3365
mary	-3366
kedin	-3367
▁blue	-3368
▁flex	-3369
▁hass	-3370
▁swim	-3371
▁aside	-3372
▁chick	-3373
▁equip	-3374
▁enforce	-3375
▁skilled	-3376
▁accommod	-3377
▁commerce	-3378
▁linkedin	-3379
▁valuable	-3380
▁relatively	-3381
asa	-3382
cil	-3383
raid	-3384
▁yala	-3385
▁categ	-3386
▁proud	-3387
▁desper	-3388
▁donate	-3389
▁weight	-3390
▁driving	-3391
▁meeting	-3392
▁ridicul	-3393
▁samsung	-3394
▁entirely	-3395
▁external	-3396
▁lecturer	-3397
▁strategy	-3398
▁ethnicity	-3399
▁dom	-3400
▁hom	-3401
ocate	-3402
▁forex	-3403
▁descri	-3404
▁easter	-3405
▁village	-3406
▁slightly	-3407
▁influencer	-3408
▁destination	-3409
fia	-3410
oph	-3411
down	-3412
king	-3413
vote	-3414
▁but	-3415
▁ceb	-3416
▁now	-3417
apura	-3418
asing	-3419
aster	-3420
igama	-3421
▁beat	-3422
▁film	-3423
▁lgbt	-3424
▁hassle	-3425
▁buddhism	-3426
▁starlink	-3427
po	-3428
key	-3429
rew	-3430
tuk	-3431
araz	-3432
▁gate	-3433
▁daraz	-3434
▁aragal	-3435
▁bugger	-3436
▁tuktuk	-3437
▁arrival	-3438
▁percentage	-3439
wards	-3440
▁arug	-3441
▁clue	-3442
▁kick	-3443
▁wasn	-3444
▁weak	-3445
▁basis	-3446
▁afraid	-3447
▁labour	-3448
▁planning	-3449
▁era	-3450
▁jew	-3451
▁soo	-3452
▁argue	-3453
▁frequ	-3454
▁mafia	-3455
▁renew	-3456
▁nearby	-3457
▁nearly	-3458
▁profile	-3459
scription	-3460
▁vacation	-3461
▁rn	-3462
ruit	-3463
tail	-3464
▁arr	-3465
enger	-3466
▁disp	-3467
▁haha	-3468
▁sund	-3469
▁thous	-3470
▁author	-3471
▁unable	-3472
gue	-3473
urd	-3474
▁gap	-3475
▁van	-3476
adays	-3477
▁harm	-3478
▁susp	-3479
ousing	-3480
▁click	-3481
▁sexual	-3482
▁approval	-3483
▁identify	-3484
▁nowadays	-3485
▁thousand	-3486
▁efficient	-3487
ellig	-3488
iliar	-3489
▁task	-3490
cedure	-3491
rength	-3492
▁graph	-3493
▁index	-3494
▁manip	-3495
▁trash	-3496
ologist	-3497
▁conduct	-3498
▁initial	-3499
▁european	-3500
▁procedure	-3501
▁preference	-3502
▁expectation	-3503
sess	-3504
▁ine	-3505
▁nav	-3506
olate	-3507
▁last	-3508
rative	-3509
▁cloud	-3510
security	-3511
▁evening	-3512
▁measure	-3513
▁movement	-3514
▁strength	-3515
▁aragalaya	-3516
isf	-3517
▁ay	-3518
▁beg	-3519
▁bor	-3520
▁hyb	-3521
lection	-3522
▁gather	-3523
▁scamme	-3524
▁council	-3525
▁housing	-3526
▁beginner	-3527
▁intellig	-3528
▁occasion	-3529
▁particip	-3530
▁advertise	-3531
goda	-3532
izer	-3533
▁tie	-3534
verty	-3535
▁rant	-3536
enture	-3537
▁drama	-3538
▁famous	-3539
▁hybrid	-3540
▁theory	-3541
▁poverty	-3542
▁birthday	-3543
▁clothing	-3544
▁photograph	-3545
ae	-3546
ani	-3547
fol	-3548
ton	-3549
unk	-3550
inge	-3551
▁buff	-3552
▁fool	-3553
▁elite	-3554
▁curric	-3555
▁propag	-3556
▁resort	-3557
▁series	-3558
▁arrange	-3559
▁default	-3560
▁exploit	-3561
▁familiar	-3562
▁suddenly	-3563
▁wildlife	-3564
▁consultant	-3565
▁presidency	-3566
uc	-3567
iet	-3568
folio	-3569
▁dark	-3570
▁disg	-3571
▁ital	-3572
▁mall	-3573
▁sold	-3574
▁bribe	-3575
▁murder	-3576
▁consequ	-3577
▁teaching	-3578
▁terrorist	-3579
▁tradition	-3580
▁nut	-3581
▁dict	-3582
▁sens	-3583
▁trap	-3584
market	-3585
▁trick	-3586
▁divorce	-3587
▁soldier	-3588
▁behavior	-3589
▁malaysia	-3590
▁portfolio	-3591
dex	-3592
ima	-3593
rep	-3594
roll	-3595
▁ali	-3596
▁epf	-3597
▁gun	-3598
▁obs	-3599
▁sky	-3600
▁trc	-3601
ilege	-3602
▁jail	-3603
▁shut	-3604
▁teen	-3605
▁cream	-3606
▁maxim	-3607
atically	-3608
▁upcoming	-3609
▁significantly	-3610
va	-3611
▁bru	-3612
▁kdu	-3613
▁san	-3614
agama	-3615
▁grant	-3616
▁extend	-3617
▁launch	-3618
▁sunday	-3619
▁careful	-3620
▁production	-3621
mm	-3622
iry	-3623
pse	-3624
▁cin	-3625
▁mic	-3626
▁nom	-3627
inger	-3628
▁libr	-3629
▁vend	-3630
▁admit	-3631
▁debit	-3632
▁survey	-3633
▁concerned	-3634
▁stability	-3635
iy	-3636
ban	-3637
▁ot	-3638
ount	-3639
▁rot	-3640
▁edex	-3641
▁cheer	-3642
▁shirt	-3643
▁wheel	-3644
▁anytime	-3645
▁premium	-3646
▁princip	-3647
▁suitable	-3648
▁ug	-3649
rier	-3650
▁tur	-3651
▁draw	-3652
▁heat	-3653
▁quit	-3654
▁shot	-3655
▁unne	-3656
▁depre	-3657
▁scared	-3658
▁library	-3659
▁division	-3660
▁unnecess	-3661
▁equipment	-3662
▁particularly	-3663
▁certification	-3664
ik	-3665
ass	-3666
ino	-3667
tic	-3668
▁atm	-3669
▁dry	-3670
▁egg	-3671
▁loo	-3672
▁nsb	-3673
arian	-3674
cohol	-3675
▁upto	-3676
stance	-3677
▁coach	-3678
▁laugh	-3679
▁burden	-3680
▁centre	-3681
▁debate	-3682
▁oppose	-3683
▁speech	-3684
▁chicken	-3685
▁recruit	-3686
▁speaker	-3687
▁festival	-3688
▁calculate	-3689
▁neighbour	-3690
▁disappoint	-3691
ena	-3692
mas	-3693
▁cup	-3694
namon	-3695
onsor	-3696
uring	-3697
▁cbsl	-3698
▁pool	-3699
rating	-3700
▁indic	-3701
▁labor	-3702
olution	-3703
▁equity	-3704
▁factory	-3705
▁respond	-3706
▁sponsor	-3707
▁typical	-3708
▁argument	-3709
▁category	-3710
▁cinnamon	-3711
▁possibly	-3712
▁entertain	-3713
▁rajapakse	-3714
▁consequence	-3715
▁cc	-3716
ruct	-3717
▁rob	-3718
anaya	-3719
entic	-3720
rance	-3721
▁kore	-3722
▁having	-3723
fficient	-3724
▁reflect	-3725
▁donation	-3726
▁redditor	-3727
▁specialist	-3728
arth	-3729
▁and	-3730
▁irre	-3731
ughter	-3732
▁logic	-3733
▁round	-3734
rateful	-3735
▁circle	-3736
▁capacity	-3737
desh	-3738
ssed	-3739
▁spl	-3740
▁adopt	-3741
▁fancy	-3742
▁floor	-3743
▁amount	-3744
▁excuse	-3745
▁alcohol	-3746
▁conserv	-3747
▁protein	-3748
▁announce	-3749
▁protection	-3750
▁appreciated	-3751
ga	-3752
pr	-3753
fic	-3754
ottu	-3755
▁ice	-3756
▁pic	-3757
▁crap	-3758
▁color	-3759
▁crash	-3760
▁attach	-3761
▁compete	-3762
▁edexcel	-3763
▁podcast	-3764
▁reputation	-3765
to	-3766
hole	-3767
▁der	-3768
iency	-3769
▁buddy	-3770
▁dance	-3771
▁input	-3772
▁pocket	-3773
▁archite	-3774
▁operation	-3775
fa	-3776
ela	-3777
alee	-3778
▁bul	-3779
▁feb	-3780
▁kit	-3781
▁piz	-3782
▁squ	-3783
iture	-3784
▁germ	-3785
▁extent	-3786
▁convince	-3787
▁identity	-3788
▁normally	-3789
▁authentic	-3790
▁colleague	-3791
▁privilege	-3792
▁possibility	-3793
▁investigation	-3794
iat	-3795
abil	-3796
ping	-3797
bassy	-3798
itiya	-3799
▁lakh	-3800
▁liqu	-3801
▁rail	-3802
▁tikt	-3803
ailand	-3804
▁gradu	-3805
▁ignor	-3806
▁thailand	-3807
▁propaganda	-3808
▁ath	-3809
▁eta	-3810
▁ple	-3811
▁deny	-3812
▁nons	-3813
▁align	-3814
▁remit	-3815
▁forest	-3816
▁retail	-3817
▁satisf	-3818
▁tiktok	-3819
▁compens	-3820
▁complic	-3821
▁trincom	-3822
▁annoying	-3823
▁collapse	-3824
▁weligama	-3825
▁socialist	-3826
▁cybersecurity	-3827
hd	-3828
orn	-3829
gery	-3830
▁kot	-3831
▁wit	-3832
arter	-3833
▁dehi	-3834
▁farm	-3835
▁gang	-3836
▁tired	-3837
umption	-3838
▁arugam	-3839
▁vendor	-3840
▁clarify	-3841
▁contain	-3842
▁embassy	-3843
▁publish	-3844
▁learning	-3845
▁surprise	-3846
▁permanent	-3847
▁trincomalee	-3848
▁unnecessary	-3849
oft	-3850
lare	-3851
▁rap	-3852
erman	-3853
inary	-3854
worth	-3855
▁boat	-3856
▁bruh	-3857
▁guil	-3858
▁ther	-3859
▁wall	-3860
▁cabin	-3861
▁quiet	-3862
▁recon	-3863
▁memory	-3864
▁severe	-3865
▁horrible	-3866
▁promotion	-3867
▁constantly	-3868
hal	-3869
▁mc	-3870
gage	-3871
rene	-3872
▁ben	-3873
▁mas	-3874
▁mos	-3875
▁sir	-3876
erate	-3877
usion	-3878
▁clin	-3879
▁damb	-3880
▁roll	-3881
▁risky	-3882
▁belief	-3883
▁buffet	-3884
▁dealer	-3885
▁impose	-3886
▁decline	-3887
▁accommodation	-3888
agn	-3889
uma	-3890
▁nt	-3891
▁uc	-3892
adasa	-3893
antha	-3894
▁nsbm	-3895
▁stack	-3896
▁approx	-3897
▁contra	-3898
▁holder	-3899
▁subsid	-3900
▁advisor	-3901
▁combine	-3902
▁maximum	-3903
▁portion	-3904
▁curricul	-3905
list	-3906
▁msc	-3907
▁outd	-3908
▁afric	-3909
▁initi	-3910
▁screw	-3911
▁borrow	-3912
▁deduct	-3913
▁charact	-3914
▁estimate	-3915
▁grateful	-3916
▁mandatory	-3917
▁supermarket	-3918
▁administration	-3919
ata	-3920
▁amb	-3921
▁gay	-3922
▁gif	-3923
▁ird	-3924
▁une	-3925
▁urg	-3926
▁rape	-3927
▁earth	-3928
▁adjust	-3929
▁favour	-3930
▁incred	-3931
▁native	-3932
▁rarely	-3933
▁biology	-3934
▁opposite	-3935
▁passenger	-3936
▁communicate	-3937
bs	-3938
je	-3939
ray	-3940
▁nu	-3941
▁pfc	-3942
▁asap	-3943
▁choc	-3944
▁hust	-3945
▁perf	-3946
▁reve	-3947
▁sake	-3948
▁drain	-3949
▁loose	-3950
▁quote	-3951
▁absurd	-3952
▁belong	-3953
▁primary	-3954
▁nonsense	-3955
▁threaten	-3956
▁awareness	-3957
▁beginning	-3958
▁character	-3959
▁curriculum	-3960
▁ridiculous	-3961
▁bre	-3962
▁doc	-3963
▁mba	-3964
arass	-3965
ratic	-3966
▁nuge	-3967
▁pizza	-3968
▁surely	-3969
▁upload	-3970
▁america	-3971
▁disgust	-3972
▁entitle	-3973
▁germany	-3974
▁graphic	-3975
▁suspect	-3976
▁nugegoda	-3977
▁temporary	-3978
vt	-3979
ife	-3980
▁ed	-3981
enda	-3982
▁gig	-3983
▁odd	-3984
▁fash	-3985
▁hiri	-3986
▁wake	-3987
▁guard	-3988
▁noise	-3989
▁shock	-3990
▁harass	-3991
ological	-3992
▁declare	-3993
▁civilian	-3994
▁critical	-3995
▁chocolate	-3996
▁programme	-3997
▁comparison	-3998
▁previously	-3999
▁dil	-4000
▁hnd	-4001
▁wow	-4002
esome	-4003
▁coin	-4004
▁mile	-4005
▁scoo	-4006
▁sole	-4007
worthy	-4008
▁margin	-4009
▁verify	-4010
▁awesome	-4011
▁fashion	-4012
▁plastic	-4013
▁shouldn	-4014
▁daughter	-4015
▁everybody	-4016
▁negotiate	-4017
▁selection	-4018
erior	-4019
iting	-4020
▁cold	-4021
▁cred	-4022
▁lane	-4023
▁welf	-4024
▁wing	-4025
▁label	-4026
▁paint	-4027
duction	-4028
▁casual	-4029
▁reveal	-4030
▁perfume	-4031
▁predict	-4032
▁welfare	-4033
▁powerful	-4034
▁workplace	-4035
▁initiative	-4036
▁technically	-4037
fl	-4038
oe	-4039
dom	-4040
ysis	-4041
▁anx	-4042
▁rip	-4043
icing	-4044
▁gard	-4045
▁rush	-4046
▁tang	-4047
icious	-4048
▁agric	-4049
▁frame	-4050
▁genoc	-4051
▁lgbtq	-4052
▁entrep	-4053
▁scammer	-4054
▁accurate	-4055
▁dambulla	-4056
▁traveler	-4057
▁household	-4058
▁convenient	-4059
▁nd	-4060
▁yr	-4061
onym	-4062
▁hyp	-4063
▁isp	-4064
arana	-4065
▁cima	-4066
▁sight	-4067
▁skull	-4068
▁sugar	-4069
dhapura	-4070
▁bangla	-4071
▁therap	-4072
▁fitness	-4073
▁liberal	-4074
▁agricult	-4075
▁psychiat	-4076
▁australian	-4077
▁leadership	-4078
▁medication	-4079
▁educational	-4080
aik	-4081
aka	-4082
che	-4083
now	-4084
ode	-4085
▁ga	-4086
▁ml	-4087
roid	-4088
▁ram	-4089
▁ven	-4090
▁hero	-4091
▁hill	-4092
▁split	-4093
▁tight	-4094
▁agenda	-4095
▁instru	-4096
▁safari	-4097
▁unfair	-4098
▁resolve	-4099
▁disagree	-4100
▁entrance	-4101
▁reference	-4102
▁regularly	-4103
▁retirement	-4104
▁anuradhapura	-4105
zz	-4106
ali	-4107
bri	-4108
gpt	-4109
aden	-4110
cery	-4111
cise	-4112
▁abt	-4113
igate	-4114
▁elig	-4115
▁flood	-4116
▁guest	-4117
▁slave	-4118
▁trcsl	-4119
▁mathem	-4120
▁prison	-4121
▁voting	-4122
▁earning	-4123
▁colonial	-4124
▁dictator	-4125
▁certainly	-4126
▁confident	-4127
▁dangerous	-4128
▁exception	-4129
▁immigrant	-4130
▁entreprene	-4131
▁plantation	-4132
lam	-4133
ley	-4134
owe	-4135
ten	-4136
fall	-4137
iour	-4138
over	-4139
▁ofc	-4140
▁rom	-4141
▁ten	-4142
rical	-4143
▁boot	-4144
▁grab	-4145
▁piss	-4146
▁suic	-4147
▁chase	-4148
▁disco	-4149
▁error	-4150
▁innov	-4151
▁petta	-4152
▁artist	-4153
▁expose	-4154
▁harsha	-4155
▁downvote	-4156
▁initially	-4157
▁progressive	-4158
▁au	-4159
cell	-4160
▁cmb	-4161
anage	-4162
itate	-4163
mploy	-4164
▁dual	-4165
▁ukra	-4166
▁defend	-4167
▁scient	-4168
▁chatgpt	-4169
▁proceed	-4170
▁witness	-4171
▁genocide	-4172
▁surround	-4173
▁unemploy	-4174
▁highlight	-4175
▁bangladesh	-4176
▁discrimination	-4177
here	-4178
inal	-4179
▁aus	-4180
▁pin	-4181
▁zone	-4182
iction	-4183
▁brown	-4184
▁curry	-4185
▁flash	-4186
▁habit	-4187
▁kottu	-4188
▁tower	-4189
▁dehiwala	-4190
▁remotely	-4191
▁premadasa	-4192
▁undergrad	-4193
▁electrical	-4194
▁pu	-4195
olic	-4196
▁men	-4197
▁obl	-4198
▁uae	-4199
▁adhd	-4200
▁siri	-4201
▁tree	-4202
▁satur	-4203
▁treas	-4204
▁anonym	-4205
▁entity	-4206
▁incomp	-4207
▁funding	-4208
▁propose	-4209
▁surgery	-4210
▁collection	-4211
▁confidence	-4212
▁historical	-4213
▁journalist	-4214
▁availability	-4215
sd	-4216
ging	-4217
▁asw	-4218
▁cha	-4219
▁kel	-4220
▁mag	-4221
▁rug	-4222
▁yep	-4223
allet	-4224
▁dome	-4225
▁wire	-4226
urally	-4227
▁chain	-4228
▁chair	-4229
▁climb	-4230
▁mixed	-4231
▁nurse	-4232
▁spare	-4233
▁expand	-4234
▁finger	-4235
▁formal	-4236
▁pettah	-4237
▁grocery	-4238
▁depreciate	-4239
▁essentially	-4240
▁sustainable	-4241
off	-4242
▁jr	-4243
eral	-4244
tance	-4245
▁bath	-4246
▁calm	-4247
▁core	-4248
▁pand	-4249
▁thri	-4250
bridge	-4251
▁adapt	-4252
▁glass	-4253
itation	-4254
▁minded	-4255
▁unsure	-4256
▁cabinet	-4257
▁hiriket	-4258
▁analysis	-4259
▁ideology	-4260
▁fundament	-4261
▁experienced	-4262
▁recognition	-4263
▁automatically	-4264
mu	-4265
▁ly	-4266
awat	-4267
otic	-4268
▁pil	-4269
eline	-4270
▁bent	-4271
▁flow	-4272
▁icbt	-4273
▁spam	-4274
gation	-4275
▁crook	-4276
▁quant	-4277
▁tooth	-4278
▁urban	-4279
adeniya	-4280
▁circum	-4281
▁explan	-4282
▁garden	-4283
▁hustle	-4284
▁manner	-4285
▁smooth	-4286
▁failure	-4287
▁southern	-4288
▁broadband	-4289
▁depression	-4290
▁mechanical	-4291
▁frustrating	-4292
▁additionally	-4293
ho	-4294
sbc	-4295
oing	-4296
▁fat	-4297
▁fds	-4298
▁nan	-4299
ingly	-4300
▁cake	-4301
▁hack	-4302
▁hsbc	-4303
▁mbps	-4304
▁scope	-4305
▁smell	-4306
▁sweet	-4307
▁invite	-4308
▁junior	-4309
▁regime	-4310
▁forever	-4311
▁privacy	-4312
▁internal	-4313
▁qualified	-4314
▁entrepreneur	-4315
▁accountability	-4316
▁cos	-4317
▁hat	-4318
▁ntb	-4319
▁swe	-4320
▁cart	-4321
▁conc	-4322
▁dish	-4323
▁nope	-4324
▁pair	-4325
▁pray	-4326
▁spec	-4327
▁crack	-4328
▁faith	-4329
▁islam	-4330
▁sacri	-4331
▁android	-4332
▁eastern	-4333
▁outcome	-4334
▁passionate	-4335
▁remittance	-4336
▁installment	-4337
ulf	-4338
iche	-4339
olit	-4340
▁fle	-4341
▁ong	-4342
▁insp	-4343
▁lift	-4344
▁mode	-4345
▁tiny	-4346
▁afaik	-4347
▁amend	-4348
▁expos	-4349
▁smoke	-4350
▁german	-4351
▁hostel	-4352
▁intend	-4353
▁russia	-4354
▁united	-4355
▁vision	-4356
▁pathway	-4357
▁advanced	-4358
▁typically	-4359
▁peradeniya	-4360
▁replacement	-4361
▁intelligence	-4362
hh	-4363
ella	-4364
fice	-4365
▁aid	-4366
▁fed	-4367
▁vit	-4368
ropri	-4369
▁elder	-4370
▁lunch	-4371
▁smile	-4372
▁wallet	-4373
▁incompet	-4374
▁sacrifice	-4375
kk	-4376
dha	-4377
elt	-4378
▁ud	-4379
▁vp	-4380
grat	-4381
ture	-4382
▁len	-4383
▁pix	-4384
▁rum	-4385
▁scr	-4386
▁dent	-4387
▁dias	-4388
▁lean	-4389
▁rainy	-4390
▁repay	-4391
▁ultra	-4392
ivalent	-4393
▁orient	-4394
▁transp	-4395
▁minimal	-4396
▁priorit	-4397
▁scooter	-4398
▁selfish	-4399
▁organize	-4400
▁sentence	-4401
▁cambridge	-4402
▁entertainment	-4403
▁fy	-4404
▁ms	-4405
▁hir	-4406
▁kur	-4407
▁pow	-4408
▁tor	-4409
▁grad	-4410
▁wave	-4411
▁clown	-4412
▁meter	-4413
▁minor	-4414
▁occur	-4415
▁overn	-4416
▁plain	-4417
▁affair	-4418
▁derana	-4419
▁capable	-4420
▁congrat	-4421
▁related	-4422
▁actively	-4423
▁coverage	-4424
▁exposure	-4425
▁instance	-4426
▁shopping	-4427
▁unlikely	-4428
▁clearance	-4429
▁overnight	-4430
▁participate	-4431
▁circumstance	-4432
▁conservative	-4433
yl	-4434
ased	-4435
ilet	-4436
osal	-4437
pora	-4438
▁gpa	-4439
▁pad	-4440
▁drag	-4441
▁hall	-4442
▁iron	-4443
▁mail	-4444
▁appeal	-4445
▁outlet	-4446
▁softlo	-4447
▁toilet	-4448
▁booking	-4449
▁ongoing	-4450
▁pattern	-4451
▁director	-4452
▁regulate	-4453
▁tangalle	-4454
▁telegram	-4455
▁allowance	-4456
▁equivalent	-4457
▁hiriketiya	-4458
▁ultimately	-4459
no	-4460
ssor	-4461
uate	-4462
▁hob	-4463
▁sab	-4464
andal	-4465
▁leak	-4466
▁twit	-4467
▁canad	-4468
▁disre	-4469
▁rugby	-4470
▁divers	-4471
▁excell	-4472
▁rating	-4473
ervation	-4474
▁asshole	-4475
▁charity	-4476
▁pretend	-4477
▁industri	-4478
▁mountain	-4479
▁admission	-4480
▁softlogic	-4481
▁translate	-4482
▁membership	-4483
▁psychology	-4484
▁sufficient	-4485
▁organisation	-4486
▁psychiatrist	-4487
nar	-4488
rom	-4489
city	-4490
▁etf	-4491
▁reb	-4492
▁unb	-4493
▁evil	-4494
▁rude	-4495
▁slip	-4496
▁soul	-4497
▁ucsc	-4498
▁vary	-4499
▁ahang	-4500
▁greed	-4501
▁keell	-4502
▁react	-4503
▁bridge	-4504
▁lovely	-4505
▁privat	-4506
▁suburb	-4507
▁alright	-4508
▁twitter	-4509
▁wealthy	-4510
▁audience	-4511
▁disaster	-4512
▁domestic	-4513
▁interact	-4514
▁behaviour	-4515
▁criticize	-4516
▁assignment	-4517
▁trustworthy	-4518
hn	-4519
hy	-4520
ja	-4521
emic	-4522
gala	-4523
ound	-4524
▁tag	-4525
▁blow	-4526
▁boss	-4527
▁dear	-4528
▁exec	-4529
▁hype	-4530
▁mira	-4531
▁reci	-4532
▁ring	-4533
iation	-4534
▁pixel	-4535
▁royal	-4536
▁bloody	-4537
▁diesel	-4538
▁excited	-4539
▁railway	-4540
▁suicide	-4541
▁utility	-4542
▁allocate	-4543
▁canadian	-4544
▁designer	-4545
▁diaspora	-4546
▁recovery	-4547
▁criticism	-4548
▁desperate	-4549
▁secretary	-4550
▁complicated	-4551
▁necessarily	-4552
oko	-4553
▁ack	-4554
▁ast	-4555
▁hid	-4556
▁ord	-4557
▁vet	-4558
▁vir	-4559
▁alive	-4560
▁bully	-4561
▁incon	-4562
▁lower	-4563
▁micro	-4564
▁panel	-4565
▁thief	-4566
▁acknow	-4567
▁colour	-4568
▁enable	-4569
▁barrier	-4570
▁analytic	-4571
▁describe	-4572
▁childhood	-4573
▁mathematic	-4574
▁fundamental	-4575
▁improvement	-4576
gl	-4577
pu	-4578
ita	-4579
resh	-4580
▁mut	-4581
cient	-4582
▁mald	-4583
▁shar	-4584
▁virt	-4585
scribe	-4586
▁shall	-4587
anayake	-4588
▁expire	-4589
▁married	-4590
▁ahangama	-4591
▁eligible	-4592
▁manipulate	-4593
ca	-4594
xy	-4595
rem	-4596
ough	-4597
urea	-4598
▁bow	-4599
▁kal	-4600
▁sar	-4601
aduwa	-4602
▁hung	-4603
▁stor	-4604
▁diagn	-4605
▁stuck	-4606
▁trial	-4607
▁object	-4608
▁distrib	-4609
▁pricing	-4610
▁roughly	-4611
▁socialism	-4612
▁officially	-4613
▁explanation	-4614
aid	-4615
ied	-4616
aper	-4617
▁fry	-4618
price	-4619
rease	-4620
ruary	-4621
▁cath	-4622
▁hond	-4623
▁temu	-4624
▁wick	-4625
▁hobby	-4626
▁occup	-4627
▁behave	-4628
▁burger	-4629
▁opening	-4630
▁succeed	-4631
▁worship	-4632
▁constant	-4633
▁decrease	-4634
▁february	-4635
▁correctly	-4636
▁narrative	-4637
▁overprice	-4638
▁commitment	-4639
▁specialize	-4640
arm	-4641
ppy	-4642
▁ya	-4643
▁hop	-4644
▁nah	-4645
▁pvt	-4646
▁vpn	-4647
▁yah	-4648
bling	-4649
▁buck	-4650
▁fant	-4651
▁hunt	-4652
▁koko	-4653
▁warn	-4654
▁boost	-4655
▁expat	-4656
▁plane	-4657
▁shout	-4658
▁accent	-4659
▁friday	-4660
▁hidden	-4661
▁commute	-4662
▁storage	-4663
▁ignorant	-4664
▁somebody	-4665
▁textbook	-4666
▁christian	-4667
▁professor	-4668
▁accounting	-4669
▁difficulty	-4670
eam	-4671
emy	-4672
pet	-4673
▁ip	-4674
▁bid	-4675
▁fyi	-4676
ander	-4677
awala	-4678
rench	-4679
▁grid	-4680
▁buyer	-4681
▁plate	-4682
counter	-4683
▁cancer	-4684
▁powder	-4685
▁stabil	-4686
▁viable	-4687
▁globally	-4688
▁profitable	-4689
wat	-4690
iary	-4691
iled	-4692
irst	-4693
mony	-4694
shop	-4695
▁dum	-4696
▁coll	-4697
▁mill	-4698
charge	-4699
▁burea	-4700
▁dedic	-4701
▁hindu	-4702
jection	-4703
▁addict	-4704
▁beauty	-4705
▁locate	-4706
▁consume	-4707
▁creative	-4708
▁pandemic	-4709
▁traveller	-4710
▁democratic	-4711
▁industrial	-4712
▁surprising	-4713
▁acknowledge	-4714
▁successfully	-4715
nel	-4716
ont	-4717
ache	-4718
agon	-4719
atha	-4720
▁kum	-4721
▁john	-4722
▁lazy	-4723
▁lion	-4724
▁mora	-4725
▁peep	-4726
▁herit	-4727
▁korea	-4728
▁veget	-4729
aragama	-4730
▁guilty	-4731
▁ancient	-4732
▁artific	-4733
▁activate	-4734
▁christmas	-4735
▁encounter	-4736
▁terrorism	-4737
▁accountable	-4738
▁agriculture	-4739
▁combination	-4740
gi	-4741
adu	-4742
sas	-4743
sey	-4744
▁bin	-4745
▁lav	-4746
house	-4747
▁aunt	-4748
▁bite	-4749
▁hole	-4750
▁emote	-4751
▁honda	-4752
▁motiv	-4753
▁shape	-4754
▁battle	-4755
▁define	-4756
▁depart	-4757
▁instal	-4758
▁defense	-4759
▁parking	-4760
▁disappear	-4761
▁recognise	-4762
▁punishment	-4763
▁nationalist	-4764
▁vaccination	-4765
▁compensation	-4766
bie	-4767
hib	-4768
ken	-4769
▁fea	-4770
▁inj	-4771
▁mum	-4772
▁ste	-4773
olish	-4774
point	-4775
▁furn	-4776
▁lend	-4777
▁mini	-4778
▁niss	-4779
▁riot	-4780
▁cable	-4781
▁embar	-4782
▁discon	-4783
▁escape	-4784
▁exclus	-4785
▁bentota	-4786
▁classic	-4787
▁working	-4788
▁swimming	-4789
▁communist	-4790
▁vaccinate	-4791
▁meaningful	-4792
▁rajapaksas	-4793
rap	-4794
uru	-4795
aran	-4796
▁jav	-4797
▁mir	-4798
aniya	-4799
erion	-4800
inder	-4801
irect	-4802
▁bore	-4803
▁gram	-4804
▁spir	-4805
▁tear	-4806
ortion	-4807
▁memor	-4808
▁stray	-4809
▁surge	-4810
▁venue	-4811
▁portal	-4812
▁server	-4813
ationally	-4814
▁catholic	-4815
▁discover	-4816
▁treasury	-4817
▁criterion	-4818
▁differently	-4819
▁economically	-4820
ser	-4821
ula	-4822
▁py	-4823
educ	-4824
ette	-4825
shot	-4826
unge	-4827
▁hes	-4828
▁jer	-4829
▁nur	-4830
▁poh	-4831
iment	-4832
▁salt	-4833
▁cheat	-4834
▁honey	-4835
▁italy	-4836
▁optim	-4837
▁unity	-4838
▁accuse	-4839
▁assess	-4840
▁clinic	-4841
▁bombing	-4842
▁violent	-4843
▁visible	-4844
▁flexible	-4845
▁kelaniya	-4846
▁publicly	-4847
▁excellent	-4848
▁immediate	-4849
▁reputable	-4850
▁consistent	-4851
▁depreciation	-4852
▁bm	-4853
▁gf	-4854
▁tf	-4855
bery	-4856
elam	-4857
icit	-4858
whel	-4859
▁nil	-4860
▁sav	-4861
▁dump	-4862
▁ease	-4863
▁stem	-4864
▁viet	-4865
▁badly	-4866
▁freak	-4867
▁mouth	-4868
▁niche	-4869
comfort	-4870
▁buddha	-4871
▁exceed	-4872
▁openly	-4873
▁century	-4874
▁licence	-4875
▁trigger	-4876
▁proposal	-4877
▁statistic	-4878
▁disgusting	-4879
▁potentially	-4880
eth	-4881
for	-4882
ius	-4883
▁dy	-4884
▁om	-4885
cean	-4886
soon	-4887
▁kar	-4888
▁ren	-4889
▁uns	-4890
▁uom	-4891
▁edge	-4892
▁keen	-4893
▁seme	-4894
▁tact	-4895
▁tail	-4896
▁tank	-4897
▁tatt	-4898
▁thug	-4899
▁forum	-4900
▁gotab	-4901
▁moral	-4902
▁ocean	-4903
▁steam	-4904
▁trail	-4905
▁earner	-4906
▁french	-4907
▁relief	-4908
▁uneduc	-4909
▁consent	-4910
▁ukraine	-4911
▁variety	-4912
▁heritage	-4913
▁pathetic	-4914
▁ownership	-4915
▁perfectly	-4916
▁prioritize	-4917
▁uneducated	-4918
▁personality	-4919
▁translation	-4920
▁subscription	-4921
itha	-4922
▁bub	-4923
▁bug	-4924
▁gri	-4925
oneer	-4926
▁airb	-4927
▁activ	-4928
▁fruit	-4929
▁utter	-4930
rection	-4931
▁expend	-4932
▁kindly	-4933
▁nissan	-4934
iliation	-4935
▁assault	-4936
▁gateway	-4937
▁payoneer	-4938
▁presence	-4939
▁regional	-4940
▁semester	-4941
▁realistic	-4942
▁convenience	-4943
pi	-4944
yy	-4945
bal	-4946
tin	-4947
▁kg	-4948
half	-4949
iety	-4950
ique	-4951
lead	-4952
sday	-4953
▁lif	-4954
▁rub	-4955
▁slf	-4956
▁bias	-4957
▁diet	-4958
▁dise	-4959
▁flav	-4960
▁goon	-4961
▁hasn	-4962
▁lake	-4963
▁vast	-4964
itchen	-4965
▁chand	-4966
▁eelam	-4967
▁integ	-4968
▁snork	-4969
▁yahap	-4970
asinghe	-4971
▁amazon	-4972
▁behalf	-4973
▁league	-4974
▁anxiety	-4975
▁benefic	-4976
▁kitchen	-4977
▁leasing	-4978
▁monsoon	-4979
▁vacancy	-4980
▁restrict	-4981
▁competent	-4982
▁rajapaksh	-4983
▁allegation	-4984
▁discourage	-4985
▁governance	-4986
▁incredibly	-4987
▁physically	-4988
▁supplement	-4989
▁importantly	-4990
▁politically	-4991
▁programming	-4992
▁restructure	-4993
▁internationally	-4994
reh	-4995
▁wf	-4996
▁bcz	-4997
▁owe	-4998
ublic	-4999
▁ayur	-5000
▁brut	-5001
▁chip	-5002
▁feas	-5003
▁flat	-5004
▁fulf	-5005
▁jaya	-5006
▁magn	-5007
▁pear	-5008
▁thro	-5009
▁demon	-5010
▁hypoc	-5011
▁phase	-5012
▁shady	-5013
▁sheet	-5014
awatuna	-5015
▁border	-5016
▁incent	-5017
▁insult	-5018
▁intake	-5019
▁parcel	-5020
▁urgent	-5021
▁continu	-5022
▁customs	-5023
▁macbook	-5024
▁overwhel	-5025
▁emotional	-5026
▁naturally	-5027
▁principle	-5028
▁frequently	-5029
▁friendship	-5030
abe	-5031
box	-5032
wor	-5033
▁hu	-5034
flow	-5035
▁ndb	-5036
▁nib	-5037
▁uoc	-5038
ailed	-5039
iance	-5040
night	-5041
rated	-5042
▁symb	-5043
▁zoom	-5044
▁award	-5045
▁backp	-5046
▁radio	-5047
▁swear	-5048
station	-5049
▁ayurve	-5050
▁basket	-5051
▁cringe	-5052
▁matara	-5053
▁tattoo	-5054
ropriate	-5055
▁contest	-5056
▁embarra	-5057
▁maldive	-5058
▁mentally	-5059
▁ordinary	-5060
▁republic	-5061
▁unawatuna	-5062
▁assistance	-5063
▁permission	-5064
▁practically	-5065
▁resignation	-5066
▁prescription	-5067
▁parliamentary	-5068
net	-5069
ola	-5070
▁ft	-5071
reep	-5072
used	-5073
▁ceo	-5074
▁kat	-5075
▁tol	-5076
gment	-5077
haust	-5078
▁batt	-5079
▁defe	-5080
▁pill	-5081
▁pump	-5082
▁slfp	-5083
▁angry	-5084
▁cater	-5085
▁incor	-5086
▁monet	-5087
diction	-5088
▁backup	-5089
▁farmer	-5090
▁filter	-5091
▁hardly	-5092
▁resist	-5093
▁bedroom	-5094
▁crowded	-5095
▁disease	-5096
▁exhaust	-5097
▁quarter	-5098
▁setting	-5099
▁venture	-5100
▁writing	-5101
istically	-5102
▁abortion	-5103
▁detailed	-5104
▁reminder	-5105
▁sentiment	-5106
▁workforce	-5107
▁withdrawal	-5108
▁contribution	-5109
eve	-5110
cuit	-5111
irty	-5112
▁suv	-5113
▁tap	-5114
▁und	-5115
andon	-5116
itual	-5117
▁forg	-5118
▁gamp	-5119
▁gear	-5120
▁hikk	-5121
▁lone	-5122
marily	-5123
romise	-5124
▁penal	-5125
▁rapid	-5126
▁liquid	-5127
▁mature	-5128
▁purely	-5129
▁abandon	-5130
▁abolish	-5131
▁exclude	-5132
▁mislead	-5133
▁yahapal	-5134
▁saturday	-5135
▁superior	-5136
▁amendment	-5137
▁bandarana	-5138
▁primarily	-5139
▁compromise	-5140
▁literature	-5141
▁architecture	-5142
han	-5143
uls	-5144
▁og	-5145
ando	-5146
look	-5147
paid	-5148
▁boc	-5149
▁pal	-5150
▁wfh	-5151
cious	-5152
eapon	-5153
onent	-5154
osity	-5155
otism	-5156
retch	-5157
▁auto	-5158
borate	-5159
▁brief	-5160
▁creep	-5161
▁quota	-5162
▁extrem	-5163
▁mirror	-5164
▁resume	-5165
▁tactic	-5166
▁vietnam	-5167
▁warning	-5168
▁backpack	-5169
▁headache	-5170
▁broadcast	-5171
▁component	-5172
▁dependent	-5173
▁hikkaduwa	-5174
▁necessity	-5175
▁violation	-5176
▁wonderful	-5177
▁bandaranaike	-5178
vy	-5179
fli	-5180
gen	-5181
wide	-5182
word	-5183
▁ash	-5184
▁fas	-5185
▁voc	-5186
antic	-5187
astic	-5188
prise	-5189
▁enth	-5190
▁tort	-5191
▁unus	-5192
▁audit	-5193
▁enrol	-5194
▁malay	-5195
▁moron	-5196
▁pleas	-5197
▁pride	-5198
▁rally	-5199
▁bubble	-5200
▁corner	-5201
▁temper	-5202
▁weapon	-5203
▁equally	-5204
▁ethical	-5205
▁impress	-5206
▁scratch	-5207
▁favorite	-5208
▁randomly	-5209
▁economist	-5210
▁uncomfort	-5211
▁revolution	-5212
▁srilankans	-5213
▁corporation	-5214
aha	-5215
tel	-5216
▁hd	-5217
▁mm	-5218
cate	-5219
flix	-5220
unic	-5221
▁ego	-5222
▁ish	-5223
▁otp	-5224
ampoo	-5225
▁boil	-5226
▁fare	-5227
▁pfca	-5228
▁sand	-5229
▁wood	-5230
▁anime	-5231
▁drunk	-5232
▁intel	-5233
▁misin	-5234
▁subst	-5235
uration	-5236
▁africa	-5237
▁mosque	-5238
▁reward	-5239
▁shampoo	-5240
▁spotify	-5241
▁midnight	-5242
▁northern	-5243
▁extension	-5244
▁acceptable	-5245
▁impression	-5246
▁unemployed	-5247
▁consumption	-5248
▁manufacturer	-5249
af	-5250
gu	-5251
app	-5252
gar	-5253
har	-5254
rel	-5255
zel	-5256
▁hv	-5257
comm	-5258
lier	-5259
▁alt	-5260
▁ped	-5261
▁wik	-5262
archy	-5263
phole	-5264
▁atro	-5265
▁cell	-5266
▁gent	-5267
▁java	-5268
▁modu	-5269
▁nibm	-5270
▁pale	-5271
▁pant	-5272
▁perk	-5273
▁scan	-5274
ancing	-5275
erable	-5276
ermine	-5277
opular	-5278
▁couri	-5279
▁first	-5280
▁grind	-5281
▁nomad	-5282
▁patri	-5283
▁strange	-5284
▁sympath	-5285
▁hardware	-5286
▁interior	-5287
▁loophole	-5288
▁unpopular	-5289
▁efficiency	-5290
▁examination	-5291
▁marketplace	-5292
▁nationalism	-5293
▁uncomfortable	-5294
ti	-5295
zi	-5296
oly	-5297
rog	-5298
sia	-5299
zen	-5300
▁cd	-5301
case	-5302
uber	-5303
wash	-5304
▁ble	-5305
▁cus	-5306
▁mit	-5307
▁peg	-5308
▁ske	-5309
▁ssd	-5310
opoly	-5311
▁dine	-5312
▁hund	-5313
▁jack	-5314
▁navy	-5315
▁util	-5316
iliate	-5317
stream	-5318
▁civic	-5319
▁joint	-5320
▁loyal	-5321
▁tourn	-5322
▁wella	-5323
▁detect	-5324
▁enthus	-5325
▁hatred	-5326
▁manife	-5327
▁singer	-5328
▁volume	-5329
▁acquire	-5330
▁analyst	-5331
▁deficit	-5332
▁disturb	-5333
▁handout	-5334
▁hundred	-5335
▁reverse	-5336
▁stretch	-5337
▁subsidy	-5338
▁torture	-5339
formation	-5340
▁happiness	-5341
▁privately	-5342
▁applicable	-5343
▁capitalism	-5344
▁legitimate	-5345
▁separately	-5346
su	-5347
wan	-5348
enna	-5349
ilst	-5350
mate	-5351
rely	-5352
▁cig	-5353
▁dod	-5354
▁ela	-5355
▁ing	-5356
▁lad	-5357
▁nov	-5358
▁wil	-5359
umble	-5360
▁acca	-5361
▁ally	-5362
▁dose	-5363
▁flee	-5364
▁jeal	-5365
▁unif	-5366
▁bread	-5367
▁chaos	-5368
▁escal	-5369
▁fraud	-5370
▁pilot	-5371
▁stead	-5372
▁storm	-5373
▁deeply	-5374
▁defeat	-5375
▁excess	-5376
▁misuse	-5377
▁module	-5378
▁narrow	-5379
▁aggress	-5380
▁bracket	-5381
▁capture	-5382
▁courier	-5383
▁hotline	-5384
▁feasible	-5385
▁importer	-5386
▁manifest	-5387
▁prospect	-5388
▁strongly	-5389
▁taxation	-5390
▁supportive	-5391
▁expenditure	-5392
▁investigate	-5393
▁verification	-5394
cs	-5395
dly	-5396
▁ja	-5397
▁jk	-5398
aren	-5399
away	-5400
inia	-5401
ouch	-5402
▁fup	-5403
▁joy	-5404
▁las	-5405
▁tab	-5406
▁unt	-5407
ising	-5408
▁cere	-5409
▁heck	-5410
▁shed	-5411
▁tier	-5412
▁urge	-5413
singhe	-5414
▁alert	-5415
▁multi	-5416
▁ratio	-5417
▁uncer	-5418
▁vezel	-5419
▁buying	-5420
▁desire	-5421
▁monkey	-5422
▁refuge	-5423
▁shower	-5424
▁whilst	-5425
▁worthy	-5426
▁russian	-5427
▁supreme	-5428
▁therapy	-5429
▁transit	-5430
▁uniform	-5431
▁chemical	-5432
▁downside	-5433
▁indirect	-5434
▁literacy	-5435
▁navigate	-5436
▁incentive	-5437
▁stressful	-5438
▁beneficial	-5439
▁contractor	-5440
▁innovation	-5441
▁tournament	-5442
▁transition	-5443
▁achievement	-5444
▁representative	-5445
ns	-5446
lly	-5447
anga	-5448
head	-5449
ield	-5450
ript	-5451
▁aka	-5452
▁gpu	-5453
▁wet	-5454
aging	-5455
front	-5456
▁fern	-5457
▁hamb	-5458
▁mism	-5459
▁mort	-5460
▁outs	-5461
mption	-5462
rovers	-5463
▁apiit	-5464
▁awful	-5465
▁femin	-5466
▁maith	-5467
▁scary	-5468
▁snack	-5469
aration	-5470
▁airtel	-5471
▁litter	-5472
▁monday	-5473
▁rocket	-5474
▁script	-5475
▁studio	-5476
▁jealous	-5477
▁netflix	-5478
▁offense	-5479
▁pension	-5480
▁snorkel	-5481
▁visitor	-5482
▁touristy	-5483
▁commenter	-5484
▁investing	-5485
▁satisfied	-5486
▁capability	-5487
▁disrespect	-5488
fy	-5489
my	-5490
log	-5491
▁ds	-5492
▁ib	-5493
▁mf	-5494
▁qa	-5495
▁yt	-5496
iser	-5497
▁jay	-5498
▁sms	-5499
ality	-5500
▁adam	-5501
▁adid	-5502
▁bamb	-5503
▁cast	-5504
▁caut	-5505
▁cond	-5506
▁dura	-5507
▁mask	-5508
▁thor	-5509
▁warm	-5510
▁esoft	-5511
▁popul	-5512
▁silva	-5513
▁swift	-5514
▁fluent	-5515
▁kitten	-5516
▁praise	-5517
▁bribery	-5518
▁learner	-5519
▁outdate	-5520
▁penalty	-5521
▁alliance	-5522
▁bathroom	-5523
▁enthusia	-5524
▁inconven	-5525
▁assistant	-5526
▁increment	-5527
▁introvert	-5528
▁principal	-5529
▁attractive	-5530
▁controvers	-5531
▁screenshot	-5532
▁hospitality	-5533
▁photography	-5534
▁unfortunate	-5535
▁manufacturing	-5536
cl	-5537
tee	-5538
▁ax	-5539
▁ui	-5540
fast	-5541
rage	-5542
▁cfa	-5543
▁ker	-5544
▁ugc	-5545
▁auss	-5546
▁bast	-5547
▁bout	-5548
▁exer	-5549
▁peer	-5550
spaper	-5551
▁appre	-5552
▁bound	-5553
▁divid	-5554
▁harsh	-5555
▁merit	-5556
▁metal	-5557
▁rumor	-5558
▁spect	-5559
apitiya	-5560
▁breath	-5561
▁poster	-5562
▁recipe	-5563
ographic	-5564
▁creator	-5565
▁founder	-5566
▁inspire	-5567
▁italian	-5568
▁largely	-5569
▁outdoor	-5570
▁cautious	-5571
▁follower	-5572
▁curiosity	-5573
▁determine	-5574
▁framework	-5575
▁furniture	-5576
▁newspaper	-5577
▁accessible	-5578
▁maharagama	-5579
▁suspicious	-5580
▁comfortably	-5581
▁description	-5582
▁emotionally	-5583
▁neighborhood	-5584
vi	-5585
cra	-5586
ipt	-5587
▁du	-5588
aram	-5589
itar	-5590
wise	-5591
▁aqu	-5592
▁wht	-5593
scape	-5594
▁fert	-5595
▁plot	-5596
▁wipe	-5597
ateral	-5598
itable	-5599
rition	-5600
▁bitch	-5601
▁bless	-5602
▁chart	-5603
▁dirty	-5604
▁drone	-5605
▁spark	-5606
▁unpro	-5607
▁wagon	-5608
raction	-5609
▁capita	-5610
▁fucker	-5611
▁harini	-5612
▁indone	-5613
▁indoor	-5614
▁reside	-5615
▁thrive	-5616
▁dislike	-5617
▁lavinia	-5618
▁miracle	-5619
▁motorcy	-5620
▁deadline	-5621
▁exercise	-5622
▁mechanic	-5623
▁construct	-5624
▁embarrass	-5625
▁originally	-5626
▁temperature	-5627
▁congratulation	-5628
ami	-5629
awa	-5630
ring	-5631
sper	-5632
▁ain	-5633
▁ham	-5634
▁lon	-5635
▁mfs	-5636
▁nep	-5637
▁ngo	-5638
etime	-5639
reach	-5640
▁dive	-5641
▁exit	-5642
▁nadu	-5643
incial	-5644
▁enemy	-5645
▁lodge	-5646
▁nepal	-5647
▁newly	-5648
▁panic	-5649
▁postp	-5650
▁pregn	-5651
▁apolog	-5652
▁aussie	-5653
▁lonely	-5654
▁pickup	-5655
▁prosec	-5656
▁symbol	-5657
▁hambant	-5658
▁kingdom	-5659
▁onwards	-5660
▁taxable	-5661
▁escalate	-5662
▁fernando	-5663
▁gotabaya	-5664
▁lifetime	-5665
▁monopoly	-5666
▁outdated	-5667
▁reaction	-5668
▁youtuber	-5669
▁departure	-5670
▁graduation	-5671
▁mainstream	-5672
▁provincial	-5673
▁documentation	-5674
ih	-5675
ney	-5676
▁dj	-5677
▁fm	-5678
▁nz	-5679
▁mel	-5680
▁pir	-5681
▁yog	-5682
▁yrs	-5683
agger	-5684
▁kiss	-5685
▁mbbs	-5686
▁nail	-5687
▁phil	-5688
▁pron	-5689
▁rein	-5690
▁semi	-5691
▁slap	-5692
▁tall	-5693
opolit	-5694
▁hyper	-5695
▁overs	-5696
▁rajag	-5697
▁spice	-5698
▁unite	-5699
▁counse	-5700
▁empath	-5701
▁guitar	-5702
▁packet	-5703
▁racial	-5704
▁solely	-5705
▁certify	-5706
▁compreh	-5707
▁cooking	-5708
▁focused	-5709
▁gampaha	-5710
▁liberty	-5711
▁nursing	-5712
▁observe	-5713
ructuring	-5714
▁frequent	-5715
▁postpone	-5716
▁romantic	-5717
▁stranger	-5718
▁talented	-5719
▁architect	-5720
▁landscape	-5721
▁artificial	-5722
▁association	-5723
▁businessman	-5724
fo	-5725
wn	-5726
oop	-5727
▁xd	-5728
laim	-5729
rera	-5730
▁evs	-5731
▁fab	-5732
▁kud	-5733
payer	-5734
vable	-5735
▁beer	-5736
▁coal	-5737
▁ielt	-5738
▁inch	-5739
▁meat	-5740
▁seal	-5741
▁span	-5742
▁airbn	-5743
▁consp	-5744
▁paste	-5745
▁rider	-5746
ography	-5747
▁hungry	-5748
▁legend	-5749
▁postal	-5750
▁promin	-5751
▁silver	-5752
▁widely	-5753
▁farming	-5754
▁receipt	-5755
▁victory	-5756
▁duration	-5757
▁governor	-5758
▁jayaward	-5759
▁taxpayer	-5760
▁manifesto	-5761
▁nutrition	-5762
▁protestor	-5763
▁repayment	-5764
▁accountant	-5765
▁conference	-5766
▁enterprise	-5767
▁peacefully	-5768
▁popularity	-5769
▁conditioner	-5770
▁effectively	-5771
▁frustration	-5772
▁interaction	-5773
▁establishment	-5774
has	-5775
rer	-5776
▁df	-5777
▁mn	-5778
aire	-5779
edly	-5780
hand	-5781
lock	-5782
mark	-5783
mint	-5784
quit	-5785
some	-5786
▁cid	-5787
▁lag	-5788
▁lap	-5789
▁lug	-5790
▁unk	-5791
eliya	-5792
isode	-5793
mptom	-5794
▁cave	-5795
▁deed	-5796
▁lord	-5797
▁recy	-5798
▁thin	-5799
▁zeal	-5800
verter	-5801
▁jewel	-5802
▁merch	-5803
▁offsh	-5804
unegala	-5805
▁allege	-5806
▁japura	-5807
▁jersey	-5808
▁palest	-5809
▁scream	-5810
▁combank	-5811
▁episode	-5812
▁execute	-5813
▁haircut	-5814
▁inflate	-5815
▁luggage	-5816
▁ranking	-5817
▁advocate	-5818
▁indicate	-5819
▁keyboard	-5820
▁overcome	-5821
▁americans	-5822
▁expertise	-5823
▁integrate	-5824
▁scientist	-5825
▁bankruptcy	-5826
▁economical	-5827
▁kurunegala	-5828
▁networking	-5829
▁rajagiriya	-5830
▁environmental	-5831
▁realistically	-5832
▁restructuring	-5833
aa	-5834
ald	-5835
rum	-5836
▁bb	-5837
spot	-5838
▁bis	-5839
▁esp	-5840
▁fur	-5841
▁gaz	-5842
▁oly	-5843
▁una	-5844
▁vul	-5845
herit	-5846
▁alto	-5847
▁ance	-5848
▁bind	-5849
▁bulk	-5850
▁elim	-5851
▁eval	-5852
▁iran	-5853
▁menu	-5854
▁ping	-5855
▁roof	-5856
ductor	-5857
ottuwa	-5858
▁actor	-5859
▁audio	-5860
▁crush	-5861
▁frank	-5862
▁grass	-5863
▁upset	-5864
igation	-5865
itarian	-5866
▁accomp	-5867
▁ancest	-5868
▁insist	-5869
▁interv	-5870
▁perera	-5871
▁silent	-5872
▁square	-5873
▁stripe	-5874
▁turtle	-5875
▁bureauc	-5876
▁crucial	-5877
▁disrupt	-5878
▁mandate	-5879
▁refugee	-5880
▁symptom	-5881
▁tension	-5882
▁trainer	-5883
▁violate	-5884
▁affiliate	-5885
▁pohottuwa	-5886
▁protester	-5887
▁residence	-5888
▁motorcycle	-5889
▁prediction	-5890
▁strengthen	-5891
▁incompetent	-5892
▁discriminate	-5893
ika	-5894
tte	-5895
uki	-5896
▁ct	-5897
ader	-5898
sist	-5899
▁dhl	-5900
▁ngl	-5901
ophob	-5902
▁bird	-5903
▁blah	-5904
▁brag	-5905
▁carn	-5906
▁dash	-5907
▁flaw	-5908
▁gala	-5909
▁leaf	-5910
▁mock	-5911
▁myth	-5912
▁orph	-5913
▁reck	-5914
▁relo	-5915
▁tone	-5916
alanda	-5917
lessly	-5918
▁after	-5919
▁champ	-5920
▁chief	-5921
▁devop	-5922
▁olymp	-5923
▁sharp	-5924
▁sneak	-5925
▁theme	-5926
cession	-5927
▁domain	-5928
▁evolve	-5929
▁mannar	-5930
▁overth	-5931
▁retain	-5932
▁scenic	-5933
▁unreal	-5934
▁weekly	-5935
▁bastard	-5936
▁sticker	-5937
▁atrocity	-5938
▁diagnose	-5939
▁teenager	-5940
▁carefully	-5941
▁exemption	-5942
▁gradually	-5943
▁indicator	-5944
▁sensitive	-5945
▁appropriate	-5946
▁calculation	-5947
▁involvement	-5948
▁consideration	-5949
cal	-5950
sen	-5951
zer	-5952
▁lm	-5953
▁pd	-5954
▁pf	-5955
▁qr	-5956
face	-5957
mare	-5958
rish	-5959
xual	-5960
▁bol	-5961
▁gho	-5962
▁hub	-5963
▁mud	-5964
▁pov	-5965
▁suz	-5966
utral	-5967
▁boom	-5968
▁crop	-5969
▁dick	-5970
▁logo	-5971
▁ugly	-5972
▁basil	-5973
▁chath	-5974
▁masse	-5975
▁stone	-5976
▁truck	-5977
▁bright	-5978
▁compli	-5979
▁conspi	-5980
▁disclo	-5981
▁mutual	-5982
▁hangout	-5983
▁reading	-5984
▁servant	-5985
▁udawala	-5986
▁workout	-5987
▁geopolit	-5988
▁inflated	-5989
▁offshore	-5990
▁favourite	-5991
▁nightmare	-5992
▁experiment	-5993
▁expressway	-5994
▁celebration	-5995
cd	-5996
vo	-5997
uba	-5998
▁cz	-5999
▁mu	-6000
cott	-6001
ered	-6002
hill	-6003
lord	-6004
moon	-6005
pass	-6006
rika	-6007
sena	-6008
▁cad	-6009
▁peo	-6010
▁rul	-6011
▁sue	-6012
▁vij	-6013
▁wij	-6014
ether	-6015
isine	-6016
using	-6017
▁beef	-6018
▁carg	-6019
▁cham	-6020
▁hook	-6021
▁keel	-6022
▁pend	-6023
▁plug	-6024
▁posh	-6025
▁rede	-6026
▁rout	-6027
▁tack	-6028
▁vape	-6029
▁vitz	-6030
arency	-6031
course	-6032
icycle	-6033
ulator	-6034
▁anger	-6035
▁fiver	-6036
▁forth	-6037
▁hilar	-6038
▁stare	-6039
▁sweat	-6040
▁whole	-6041
▁irrele	-6042
▁layoff	-6043
▁malabe	-6044
▁mentor	-6045
▁sovere	-6046
▁steady	-6047
▁suzuki	-6048
▁african	-6049
▁cuisine	-6050
▁depress	-6051
▁grammar	-6052
▁neutral	-6053
▁operator	-6054
▁breakfast	-6055
▁committee	-6056
▁fantastic	-6057
▁hilarious	-6058
▁honeymoon	-6059
▁miserable	-6060
▁pollution	-6061
▁prescribe	-6062
▁secondary	-6063
▁underpaid	-6064
▁universal	-6065
▁assumption	-6066
▁attendance	-6067
▁conspiracy	-6068
▁harassment	-6069
▁occasional	-6070
▁reliability	-6071
▁temporarily	-6072
▁confirmation	-6073
▁psychologist	-6074
▁transparency	-6075
▁approximately	-6076
ave	-6077
ila	-6078
soe	-6079
uct	-6080
▁nc	-6081
code	-6082
ston	-6083
▁ame	-6084
▁cul	-6085
▁gut	-6086
▁sme	-6087
▁thr	-6088
▁unw	-6089
erous	-6090
hibit	-6091
iling	-6092
▁asse	-6093
▁glor	-6094
▁moon	-6095
▁vice	-6096
▁along	-6097
▁deval	-6098
▁digit	-6099
▁ghost	-6100
▁prize	-6101
imation	-6102
▁adidas	-6103
▁freely	-6104
▁ladder	-6105
▁perpet	-6106
▁reconc	-6107
▁resell	-6108
▁upside	-6109
stically	-6110
▁gazette	-6111
▁inherit	-6112
▁literal	-6113
▁magnite	-6114
▁organic	-6115
▁sibling	-6116
▁zealand	-6117
▁activist	-6118
▁creditor	-6119
▁delusion	-6120
▁leverage	-6121
▁logistic	-6122
▁nepotism	-6123
▁thorough	-6124
▁adventure	-6125
▁alongside	-6126
▁chandrika	-6127
▁depressed	-6128
▁eliminate	-6129
▁liability	-6130
▁mechanism	-6131
▁mismanage	-6132
▁hambantota	-6133
▁respectful	-6134
▁photographer	-6135
oa	-6136
bud	-6137
ham	-6138
iny	-6139
▁tn	-6140
edia	-6141
ised	-6142
omen	-6143
sman	-6144
▁amd	-6145
▁bpo	-6146
▁jam	-6147
▁raw	-6148
▁rig	-6149
▁tim	-6150
▁unh	-6151
craft	-6152
icker	-6153
rable	-6154
▁arab	-6155
▁atmo	-6156
▁cite	-6157
▁isol	-6158
▁ward	-6159
minton	-6160
soever	-6161
▁dutch	-6162
▁honor	-6163
▁judic	-6164
▁salon	-6165
▁shake	-6166
▁stamp	-6167
▁vague	-6168
▁airbnb	-6169
▁beggar	-6170
▁boring	-6171
▁button	-6172
▁costly	-6173
▁dental	-6174
▁fortun	-6175
▁golden	-6176
▁making	-6177
▁reluct	-6178
▁stance	-6179
▁tailor	-6180
▁apology	-6181
▁bicycle	-6182
▁concent	-6183
▁defence	-6184
▁element	-6185
▁footage	-6186
▁handful	-6187
▁hotspot	-6188
▁painful	-6189
▁boundary	-6190
▁maturity	-6191
▁monetary	-6192
▁ayurvedic	-6193
▁badminton	-6194
▁batalanda	-6195
▁extremist	-6196
▁stabilize	-6197
▁worldwide	-6198
▁capitalist	-6199
▁disconnect	-6200
▁enthusiast	-6201
▁irrelevant	-6202
▁whatsoever	-6203
▁consistently	-6204
▁clarification	-6205
▁reconciliation	-6206
ix	-6207
mc	-6208
▁fk	-6209
▁ts	-6210
aken	-6211
bike	-6212
dict	-6213
erge	-6214
fire	-6215
late	-6216
rase	-6217
wood	-6218
▁dun	-6219
▁gmo	-6220
▁jet	-6221
▁tel	-6222
▁wat	-6223
check	-6224
itute	-6225
ketch	-6226
watte	-6227
▁asus	-6228
▁bean	-6229
▁bell	-6230
▁cope	-6231
▁emig	-6232
▁muse	-6233
▁porn	-6234
▁sink	-6235
▁unsa	-6236
▁arrog	-6237
▁media	-6238
▁novel	-6239
▁skept	-6240
▁theat	-6241
▁weren	-6242
▁diving	-6243
▁greedy	-6244
▁liquor	-6245
▁millen	-6246
▁nanote	-6247
▁overly	-6248
▁safely	-6249
▁trinco	-6250
▁victor	-6251
eriority	-6252
standing	-6253
▁cargill	-6254
▁cartoon	-6255
▁charger	-6256
▁disable	-6257
▁elderly	-6258
▁exagger	-6259
▁killing	-6260
▁migrant	-6261
▁mosquit	-6262
▁routine	-6263
▁torrent	-6264
▁airlines	-6265
▁dividend	-6266
▁inverter	-6267
▁landlord	-6268
▁overtake	-6269
▁socially	-6270
▁prominent	-6271
▁streaming	-6272
▁therapist	-6273
▁vegetable	-6274
▁appearance	-6275
▁assessment	-6276
▁importance	-6277
▁instrument	-6278
▁manageable	-6279
▁desperately	-6280
▁observation	-6281
▁appreciation	-6282
▁considerable	-6283
ew	-6284
xx	-6285
aly	-6286
don	-6287
ese	-6288
iff	-6289
lli	-6290
oty	-6291
see	-6292
udi	-6293
yas	-6294
▁js	-6295
▁va	-6296
ador	-6297
asty	-6298
attu	-6299
inee	-6300
oooo	-6301
▁api	-6302
▁bak	-6303
▁ccc	-6304
▁dip	-6305
▁eco	-6306
▁ifs	-6307
▁pit	-6308
▁pta	-6309
▁reh	-6310
▁she	-6311
▁spa	-6312
▁yup	-6313
eable	-6314
elter	-6315
iotic	-6316
obile	-6317
▁amex	-6318
▁doom	-6319
▁inev	-6320
▁inqu	-6321
▁phen	-6322
▁proc	-6323
▁tong	-6324
▁unst	-6325
arette	-6326
ressed	-6327
▁armed	-6328
▁crypt	-6329
▁draft	-6330
▁float	-6331
▁insta	-6332
iration	-6333
ogether	-6334
reshold	-6335
▁brilli	-6336
▁brutal	-6337
▁differ	-6338
▁grandp	-6339
▁tackle	-6340
▁timing	-6341
▁yellow	-6342
▁boycott	-6343
▁discord	-6344
▁dispose	-6345
▁launder	-6346
▁prepaid	-6347
▁suspend	-6348
▁ceremony	-6349
▁numerous	-6350
▁organise	-6351
▁password	-6352
▁quantity	-6353
▁wickreme	-6354
▁backwards	-6355
▁cigarette	-6356
▁conductor	-6357
▁orphanage	-6358
▁threshold	-6359
▁accordingly	-6360
▁demographic	-6361
▁enforcement	-6362
▁negotiation	-6363
▁consultation	-6364
▁inconvenience	-6365
▁misinformation	-6366
tt	-6367
bby	-6368
mal	-6369
▁sr	-6370
inty	-6371
kara	-6372
onom	-6373
quer	-6374
rown	-6375
tawa	-6376
wire	-6377
▁ale	-6378
▁cow	-6379
▁ira	-6380
▁plz	-6381
▁syn	-6382
▁thi	-6383
▁athe	-6384
▁belt	-6385
▁clip	-6386
▁dfcc	-6387
▁elev	-6388
▁gmoa	-6389
▁nose	-6390
▁unis	-6391
elling	-6392
lusion	-6393
▁caste	-6394
▁coord	-6395
▁deter	-6396
▁lobby	-6397
▁parad	-6398
▁perch	-6399
▁pitch	-6400
▁polon	-6401
▁stall	-6402
▁unrel	-6403
redient	-6404
▁emerge	-6405
▁enroll	-6406
▁fabric	-6407
▁garage	-6408
▁genius	-6409
▁gentle	-6410
▁height	-6411
▁marine	-6412
▁recall	-6413
▁bailout	-6414
▁bloated	-6415
▁dumbass	-6416
▁fresher	-6417
▁inquire	-6418
▁theatre	-6419
▁humanity	-6420
▁mosquito	-6421
▁overtime	-6422
▁supplier	-6423
▁boyfriend	-6424
▁breakdown	-6425
▁countless	-6426
▁everytime	-6427
▁indonesia	-6428
▁policeman	-6429
▁preferred	-6430
▁reduction	-6431
▁ingredient	-6432
▁motivation	-6433
▁respective	-6434
▁drastically	-6435
▁grandparent	-6436
▁overwhelming	-6437
▁wickremesinghe	-6438
oh	-6439
gie	-6440
irc	-6441
ona	-6442
▁az	-6443
thon	-6444
▁anc	-6445
▁bmw	-6446
▁hil	-6447
apter	-6448
astro	-6449
ceive	-6450
cling	-6451
namic	-6452
redit	-6453
▁dign	-6454
▁gall	-6455
▁holy	-6456
▁iirc	-6457
▁mart	-6458
▁pace	-6459
▁prab	-6460
▁scar	-6461
▁thai	-6462
tainty	-6463
▁penny	-6464
▁premi	-6465
▁uncon	-6466
session	-6467
▁detain	-6468
▁doable	-6469
▁galaxy	-6470
▁gamble	-6471
▁jewell	-6472
▁korean	-6473
▁museum	-6474
▁output	-6475
▁scroll	-6476
▁trauma	-6477
▁tution	-6478
▁unsafe	-6479
▁vulner	-6480
arantine	-6481
▁academy	-6482
▁blindly	-6483
▁coastal	-6484
▁compuls	-6485
▁happily	-6486
▁leftist	-6487
▁prosper	-6488
▁shelter	-6489
▁specify	-6490
alapitiya	-6491
▁insanely	-6492
▁tracking	-6493
▁pointless	-6494
▁reluctant	-6495
▁unrelated	-6496
▁productive	-6497
▁quarantine	-6498
▁intelligent	-6499
▁transparent	-6500
few	-6501
iva	-6502
▁iq	-6503
▁pg	-6504
▁rh	-6505
acre	-6506
arat	-6507
aris	-6508
iter	-6509
onic	-6510
stay	-6511
ttle	-6512
▁bcs	-6513
▁hmm	-6514
▁spo	-6515
▁ube	-6516
chool	-6517
ducer	-6518
eness	-6519
ilipp	-6520
inian	-6521
keter	-6522
▁aban	-6523
▁full	-6524
▁halt	-6525
▁hong	-6526
▁kong	-6527
▁neck	-6528
▁ramp	-6529
▁roam	-6530
▁tile	-6531
▁watt	-6532
father	-6533
▁antib	-6534
▁bench	-6535
▁ethic	-6536
▁excel	-6537
▁fluct	-6538
▁front	-6539
▁imply	-6540
▁payer	-6541
▁their	-6542
▁thick	-6543
▁volat	-6544
portion	-6545
▁alevel	-6546
▁bucket	-6547
▁butter	-6548
▁county	-6549
▁exempt	-6550
▁fertil	-6551
▁fiverr	-6552
▁length	-6553
▁obsess	-6554
▁occupy	-6555
▁offend	-6556
▁outage	-6557
▁python	-6558
▁sketch	-6559
▁tongue	-6560
▁upwork	-6561
▁inquiry	-6562
▁nanotek	-6563
▁olympic	-6564
▁outrage	-6565
▁philipp	-6566
▁upwards	-6567
▁counsell	-6568
▁creation	-6569
▁dominate	-6570
▁equality	-6571
▁massacre	-6572
▁motivate	-6573
▁outright	-6574
▁producer	-6575
▁substant	-6576
▁anonymous	-6577
▁instantly	-6578
▁judgement	-6579
▁personnel	-6580
▁recruiter	-6581
▁antibiotic	-6582
▁compulsory	-6583
▁conversion	-6584
▁definition	-6585
▁distribute	-6586
▁incredible	-6587
▁scientific	-6588
▁recruitment	-6589
▁dictatorship	-6590
▁mismanagement	-6591
bb	-6592
adh	-6593
gre	-6594
met	-6595
▁bh	-6596
▁ie	-6597
▁os	-6598
acle	-6599
ktop	-6600
miss	-6601
orse	-6602
osis	-6603
plus	-6604
sion	-6605
uild	-6606
▁gal	-6607
▁kad	-6608
▁omg	-6609
▁som	-6610
arath	-6611
ensus	-6612
hance	-6613
rator	-6614
▁hiru	-6615
▁infe	-6616
▁lyce	-6617
▁scum	-6618
▁seed	-6619
▁subt	-6620
▁swap	-6621
▁thur	-6622
▁toll	-6623
lation	-6624
▁gross	-6625
▁horse	-6626
▁humid	-6627
▁knock	-6628
▁river	-6629
▁ruler	-6630
▁theft	-6631
▁atmosp	-6632
▁breach	-6633
▁cruise	-6634
▁emphas	-6635
▁format	-6636
▁france	-6637
▁injure	-6638
▁inland	-6639
▁kidney	-6640
▁liable	-6641
▁pfizer	-6642
▁pirate	-6643
▁planet	-6644
▁pricey	-6645
▁prompt	-6646
▁ritual	-6647
▁string	-6648
▁sunset	-6649
▁biscuit	-6650
▁carnage	-6651
▁desktop	-6652
▁editing	-6653
▁grandma	-6654
▁maithri	-6655
▁premier	-6656
▁utilize	-6657
▁contrast	-6658
▁initiate	-6659
▁israelis	-6660
▁prepared	-6661
▁russians	-6662
▁sirisena	-6663
▁starting	-6664
▁ultimate	-6665
▁motorbike	-6666
▁similarly	-6667
▁aggressive	-6668
▁obligation	-6669
▁privileged	-6670
▁accidentally	-6671
▁constitutional	-6672
ox	-6673
asy	-6674
nes	-6675
nis	-6676
pro	-6677
rad	-6678
van	-6679
▁ec	-6680
▁gi	-6681
iger	-6682
ocur	-6683
race	-6684
rain	-6685
tech	-6686
▁ogf	-6687
▁ray	-6688
▁utc	-6689
adura	-6690
araja	-6691
ulder	-6692
world	-6693
▁abey	-6694
▁blog	-6695
▁bold	-6696
▁coop	-6697
▁dust	-6698
▁hygi	-6699
▁loot	-6700
▁nazi	-6701
▁pile	-6702
▁smok	-6703
▁unex	-6704
▁whey	-6705
▁yoga	-6706
italin	-6707
vision	-6708
▁depth	-6709
▁gover	-6710
▁maker	-6711
▁punch	-6712
▁redmi	-6713
▁shade	-6714
▁spray	-6715
atively	-6716
ternoon	-6717
usation	-6718
▁assure	-6719
▁earbud	-6720
▁inclus	-6721
▁lyceum	-6722
▁priest	-6723
▁retard	-6724
▁theirs	-6725
▁wisely	-6726
lication	-6727
▁conquer	-6728
▁dispute	-6729
▁dynamic	-6730
▁frankly	-6731
▁generic	-6732
▁harmful	-6733
▁logical	-6734
▁qualify	-6735
▁ritalin	-6736
▁upfront	-6737
▁boarding	-6738
▁checkout	-6739
▁credible	-6740
▁disclose	-6741
▁lockdown	-6742
▁misunder	-6743
▁petition	-6744
▁pregnant	-6745
▁skincare	-6746
▁throttle	-6747
▁unstable	-6748
▁afternoon	-6749
▁applicant	-6750
▁automatic	-6751
▁confusing	-6752
▁cryptocur	-6753
▁diversity	-6754
▁exclusive	-6755
▁existence	-6756
▁goverment	-6757
▁incorrect	-6758
▁objective	-6759
▁altogether	-6760
▁atmosphere	-6761
▁compensate	-6762
▁engagement	-6763
▁perception	-6764
▁philippine	-6765
▁smartphone	-6766
▁documentary	-6767
▁uncertainty	-6768
▁generational	-6769
led	-6770
mme	-6771
ran	-6772
unu	-6773
▁bf	-6774
▁ny	-6775
aree	-6776
esth	-6777
mika	-6778
pret	-6779
▁asp	-6780
▁dol	-6781
▁had	-6782
▁iam	-6783
▁kfc	-6784
▁lat	-6785
▁ltd	-6786
▁luc	-6787
▁ruh	-6788
▁til	-6789
guard	-6790
otype	-6791
▁bend	-6792
▁blat	-6793
▁cute	-6794
▁desk	-6795
▁devs	-6796
▁flip	-6797
▁grey	-6798
▁orth	-6799
▁smth	-6800
▁tire	-6801
▁wrap	-6802
utical	-6803
▁brush	-6804
▁curse	-6805
▁daddy	-6806
▁grasp	-6807
▁havel	-6808
▁hesit	-6809
▁infor	-6810
▁insur	-6811
▁layer	-6812
▁legis	-6813
▁paran	-6814
▁regul	-6815
▁unreg	-6816
▁yield	-6817
fession	-6818
▁biased	-6819
▁browse	-6820
▁casino	-6821
▁cheese	-6822
▁comput	-6823
▁curfew	-6824
▁dining	-6825
▁hitler	-6826
▁lounge	-6827
▁orange	-6828
▁tender	-6829
▁badulla	-6830
▁binance	-6831
▁dignity	-6832
▁enhance	-6833
▁fishing	-6834
▁fulfill	-6835
▁mileage	-6836
▁premise	-6837
▁silence	-6838
▁surfing	-6839
▁theater	-6840
▁virtual	-6841
▁wheeler	-6842
▁champion	-6843
▁dissolve	-6844
▁mistaken	-6845
▁paycheck	-6846
▁phenomen	-6847
▁preserve	-6848
▁relocate	-6849
▁severely	-6850
▁showcase	-6851
▁criticise	-6852
▁guideline	-6853
▁nightlife	-6854
▁normalize	-6855
▁terminate	-6856
▁udawalawe	-6857
▁accusation	-6858
▁competitor	-6859
▁conclusion	-6860
▁credibility	-6861
▁nationality	-6862
▁partnership	-6863
▁unrealistic	-6864
▁occasionally	-6865
▁advertisement	-6866
do	-6867
pm	-6868
yo	-6869
ctv	-6870
eze	-6871
fty	-6872
hum	-6873
ldr	-6874
thy	-6875
▁eb	-6876
▁mg	-6877
▁ry	-6878
amed	-6879
atar	-6880
gain	-6881
inct	-6882
nown	-6883
▁bai	-6884
▁hrs	-6885
▁huh	-6886
▁jes	-6887
▁llb	-6888
▁soe	-6889
angar	-6890
power	-6891
stone	-6892
▁cctv	-6893
▁deem	-6894
▁dept	-6895
▁derm	-6896
▁hort	-6897
▁loop	-6898
▁nerv	-6899
▁pave	-6900
▁pera	-6901
▁tldr	-6902
▁unav	-6903
▁unde	-6904
donald	-6905
laimer	-6906
unicip	-6907
▁ambul	-6908
▁blast	-6909
▁guilt	-6910
▁intim	-6911
▁karma	-6912
▁magic	-6913
▁pearl	-6914
▁resid	-6915
▁seize	-6916
▁since	-6917
▁spoil	-6918
▁usaid	-6919
▁vouch	-6920
▁bitter	-6921
▁flavor	-6922
▁poison	-6923
▁poorly	-6924
▁repute	-6925
▁spouse	-6926
▁upvote	-6927
▁backend	-6928
▁carrier	-6929
▁deliber	-6930
▁demonst	-6931
▁federal	-6932
▁forgive	-6933
▁garment	-6934
▁israeli	-6935
▁millenn	-6936
▁mission	-6937
▁municip	-6938
▁renewal	-6939
▁surgeon	-6940
▁weekday	-6941
▁clinical	-6942
▁clueless	-6943
▁confront	-6944
▁distract	-6945
▁havelock	-6946
▁judgment	-6947
▁outsider	-6948
▁perceive	-6949
▁secondly	-6950
▁tolerate	-6951
▁workshop	-6952
▁animation	-6953
▁brainwash	-6954
▁brilliant	-6955
▁developed	-6956
▁diversify	-6957
▁elaborate	-6958
▁intellect	-6959
▁lucrative	-6960
▁outsource	-6961
▁pakistani	-6962
▁prosecute	-6963
▁comparable	-6964
▁correction	-6965
▁disclaimer	-6966
▁fertilizer	-6967
▁disappointing	-6968
▁specialization	-6969
tu	-6970
hen	-6971
ogy	-6972
olf	-6973
ris	-6974
anth	-6975
oval	-6976
rete	-6977
user	-6978
ylan	-6979
▁diy	-6980
▁gce	-6981
▁kap	-6982
▁sem	-6983
▁smh	-6984
▁veg	-6985
▁vid	-6986
break	-6987
orney	-6988
weera	-6989
wella	-6990
▁cunt	-6991
▁esim	-6992
▁fuss	-6993
▁imax	-6994
▁marx	-6995
▁mood	-6996
▁obst	-6997
akaran	-6998
worker	-6999
▁aesth	-7000
▁chunk	-7001
▁craft	-7002
▁eager	-7003
▁facil	-7004
▁horiz	-7005
▁pende	-7006
▁plaza	-7007
▁prost	-7008
▁rabie	-7009
▁saree	-7010
▁saudi	-7011
▁stere	-7012
▁sunny	-7013
▁tiger	-7014
▁viral	-7015
osexual	-7016
▁regist	-7017
▁hopeful	-7018
▁listing	-7019
▁nervous	-7020
▁postgra	-7021
▁removal	-7022
▁reputed	-7023
▁surface	-7024
▁textile	-7025
▁unusual	-7026
▁chairman	-7027
▁compound	-7028
▁downfall	-7029
▁exporter	-7030
▁hesitant	-7031
▁mcdonald	-7032
▁newswire	-7033
▁polonnar	-7034
▁timeline	-7035
▁accessory	-7036
▁addiction	-7037
▁alternate	-7038
▁anonymize	-7039
▁magically	-7040
▁suffering	-7041
▁acceptance	-7042
▁collective	-7043
▁controller	-7044
▁indirectly	-7045
▁overcharge	-7046
▁underworld	-7047
▁arrangement	-7048
▁dissanayake	-7049
▁bambalapitiya	-7050
ii	-7051
lig	-7052
uro	-7053
vis	-7054
▁sq	-7055
▁ux	-7056
arel	-7057
ease	-7058
erry	-7059
gate	-7060
ined	-7061
lash	-7062
onse	-7063
ppet	-7064
risy	-7065
wela	-7066
▁ade	-7067
▁fet	-7068
▁row	-7069
▁tue	-7070
▁uno	-7071
▁usb	-7072
inity	-7073
ished	-7074
matic	-7075
pattu	-7076
watha	-7077
▁acqu	-7078
▁clan	-7079
▁dham	-7080
▁medi	-7081
▁sooo	-7082
▁stir	-7083
▁tune	-7084
seeing	-7085
unning	-7086
urious	-7087
▁angel	-7088
▁cinec	-7089
▁combo	-7090
▁cough	-7091
▁curly	-7092
▁essay	-7093
▁hefty	-7094
▁meant	-7095
▁proph	-7096
▁seper	-7097
▁sheer	-7098
▁slide	-7099
▁trace	-7100
▁wikip	-7101
▁aswell	-7102
▁creepy	-7103
▁dilith	-7104
▁empire	-7105
▁nandal	-7106
▁philos	-7107
▁redact	-7108
▁ruhuna	-7109
▁sample	-7110
▁tennis	-7111
▁unpaid	-7112
▁yearly	-7113
▁anxious	-7114
▁embrace	-7115
▁immense	-7116
▁instant	-7117
▁offence	-7118
▁passive	-7119
▁portray	-7120
▁prefect	-7121
▁radical	-7122
▁rapidly	-7123
▁scandal	-7124
▁variant	-7125
▁attorney	-7126
▁forecast	-7127
▁hardcore	-7128
▁hardship	-7129
▁informed	-7130
▁powercut	-7131
▁prohibit	-7132
▁shoulder	-7133
▁wilpattu	-7134
▁dedicated	-7135
▁extensive	-7136
▁following	-7137
▁hypocrisy	-7138
▁ignorance	-7139
▁massively	-7140
▁probation	-7141
▁recording	-7142
▁skeptical	-7143
▁frustrated	-7144
▁limitation	-7145
▁subjective	-7146
▁inefficient	-7147
▁orientation	-7148
▁permanently	-7149
▁polonnaruwa	-7150
▁rajapakshas	-7151
▁sightseeing	-7152
▁continuously	-7153
▁manipulation	-7154
▁presentation	-7155
▁ridiculously	-7156
▁controversial	-7157
▁independently	-7158
bly	-7159
kee	-7160
urt	-7161
uty	-7162
▁bn	-7163
▁ku	-7164
▁tl	-7165
aman	-7166
anut	-7167
coin	-7168
iver	-7169
mble	-7170
▁dow	-7171
▁few	-7172
▁has	-7173
▁kia	-7174
▁mcq	-7175
▁sna	-7176
▁vip	-7177
abase	-7178
amuwa	-7179
anker	-7180
ayaka	-7181
clear	-7182
glect	-7183
ithub	-7184
opard	-7185
tical	-7186
while	-7187
▁apit	-7188
▁carb	-7189
▁cock	-7190
▁cure	-7191
▁fron	-7192
▁meta	-7193
▁quiz	-7194
▁rage	-7195
▁sque	-7196
▁trop	-7197
▁usdt	-7198
atedly	-7199
▁accum	-7200
▁atrad	-7201
▁cargo	-7202
▁grave	-7203
▁incur	-7204
▁jesus	-7205
▁lemme	-7206
▁outta	-7207
▁petty	-7208
▁prest	-7209
▁straw	-7210
▁strip	-7211
angaroo	-7212
eliness	-7213
forward	-7214
ocation	-7215
▁assass	-7216
▁boomer	-7217
▁broken	-7218
▁bullet	-7219
▁collar	-7220
▁compat	-7221
▁deputy	-7222
▁freeze	-7223
▁github	-7224
▁horton	-7225
▁humble	-7226
▁injury	-7227
▁kumara	-7228
▁metrop	-7229
▁motion	-7230
▁notify	-7231
▁parade	-7232
▁preach	-7233
▁profic	-7234
▁resale	-7235
▁summer	-7236
▁theore	-7237
▁bargain	-7238
▁concert	-7239
▁diverse	-7240
▁elector	-7241
▁empathy	-7242
▁endorse	-7243
▁england	-7244
▁illness	-7245
▁intense	-7246
▁invoice	-7247
▁jewelry	-7248
▁kottawa	-7249
▁neglect	-7250
▁outlook	-7251
▁relaxed	-7252
▁sparkle	-7253
▁trainee	-7254
▁tuesday	-7255
▁unknown	-7256
▁wattala	-7257
▁evaluate	-7258
▁flagship	-7259
▁headline	-7260
▁historic	-7261
▁homophob	-7262
▁junction	-7263
▁kangaroo	-7264
▁merchant	-7265
▁terminal	-7266
▁thursday	-7267
▁communism	-7268
▁deduction	-7269
▁headphone	-7270
▁municipal	-7271
▁residency	-7272
▁substance	-7273
▁technique	-7274
▁wikipedia	-7275
▁calculator	-7276
▁expression	-7277
▁optimistic	-7278
▁phenomenon	-7279
▁reasonably	-7280
▁repeatedly	-7281
▁resolution	-7282
▁bureaucracy	-7283
▁reservation	-7284
▁surprisingly	-7285
▁comparatively	-7286
▁straightforward	-7287
dia	-7288
emn	-7289
omi	-7290
umn	-7291
▁pp	-7292
gard	-7293
prit	-7294
rite	-7295
rony	-7296
urne	-7297
▁fis	-7298
▁oya	-7299
▁por	-7300
▁ves	-7301
▁was	-7302
licit	-7303
usive	-7304
▁atto	-7305
▁bump	-7306
▁ebay	-7307
▁horn	-7308
▁junk	-7309
▁maha	-7310
▁prot	-7311
▁sane	-7312
▁scal	-7313
▁slim	-7314
▁swed	-7315
▁unac	-7316
advant	-7317
herent	-7318
inated	-7319
liness	-7320
lywood	-7321
nesday	-7322
onseka	-7323
orious	-7324
rocket	-7325
▁accom	-7326
▁angle	-7327
▁arise	-7328
▁astro	-7329
▁damro	-7330
▁fedex	-7331
▁fronx	-7332
▁greet	-7333
▁halal	-7334
▁hindi	-7335
▁loser	-7336
▁lotus	-7337
▁naive	-7338
▁prefe	-7339
▁whale	-7340
ievable	-7341
▁asians	-7342
▁better	-7343
▁beware	-7344
▁biomed	-7345
▁clause	-7346
▁integr	-7347
▁intent	-7348
▁invent	-7349
▁mahind	-7350
▁manual	-7351
▁meetup	-7352
▁outfit	-7353
▁peanut	-7354
▁phrase	-7355
▁seylan	-7356
▁states	-7357
▁unrest	-7358
▁camping	-7359
▁compute	-7360
▁contemp	-7361
▁fonseka	-7362
▁glorify	-7363
▁luckily	-7364
▁nuclear	-7365
▁telecom	-7366
advantage	-7367
▁arrogant	-7368
▁battaram	-7369
▁casually	-7370
▁database	-7371
▁dedicate	-7372
▁meantime	-7373
▁moderate	-7374
▁nandalal	-7375
▁rational	-7376
▁workload	-7377
▁aesthetic	-7378
▁classroom	-7379
▁container	-7380
▁luxurious	-7381
▁notorious	-7382
▁palestine	-7383
▁placement	-7384
▁skyrocket	-7385
▁wednesday	-7386
▁collateral	-7387
▁homosexual	-7388
▁impressive	-7389
▁loneliness	-7390
▁occupation	-7391
▁rajapakshe	-7392
▁regulatory	-7393
▁worthwhile	-7394
▁colonialism	-7395
▁grandfather	-7396
▁instruction	-7397
▁residential	-7398
▁disadvantage	-7399
▁historically	-7400
▁incompetence	-7401
▁notification	-7402
▁unprofession	-7403
▁authoritarian	-7404
▁knowledgeable	-7405
▁representation	-7406
ooo	-7407
orb	-7408
tek	-7409
▁of	-7410
▁oo	-7411
amba	-7412
card	-7413
etor	-7414
irya	-7415
rasa	-7416
soft	-7417
▁caf	-7418
▁gpt	-7419
▁igp	-7420
▁kil	-7421
▁xia	-7422
iased	-7423
▁amid	-7424
▁anth	-7425
▁bash	-7426
▁hect	-7427
▁kudo	-7428
▁lact	-7429
▁maid	-7430
▁odel	-7431
▁poya	-7432
▁puth	-7433
▁seet	-7434
▁soil	-7435
▁sony	-7436
▁trad	-7437
bourne	-7438
mother	-7439
olitan	-7440
ritory	-7441
▁chess	-7442
▁crony	-7443
▁decor	-7444
▁groom	-7445
▁inspe	-7446
▁irony	-7447
▁knife	-7448
▁linux	-7449
▁login	-7450
▁lover	-7451
▁mouse	-7452
▁obliv	-7453
▁overc	-7454
▁recip	-7455
▁reset	-7456
▁weigh	-7457
▁editor	-7458
▁hiking	-7459
▁hilton	-7460
▁invade	-7461
▁prayer	-7462
▁societ	-7463
▁starve	-7464
▁winter	-7465
▁apparel	-7466
▁atheist	-7467
▁bitcoin	-7468
▁closely	-7469
▁counsel	-7470
▁culprit	-7471
▁flavour	-7472
▁further	-7473
▁idiotic	-7474
▁infront	-7475
▁recycle	-7476
▁restore	-7477
▁selling	-7478
atologist	-7479
▁coworker	-7480
▁existent	-7481
▁gambling	-7482
▁panadura	-7483
▁referral	-7484
▁sensible	-7485
▁spectrum	-7486
▁tropical	-7487
▁unbiased	-7488
▁unexpect	-7489
▁volatile	-7490
▁withhold	-7491
▁computing	-7492
▁illegally	-7493
▁melbourne	-7494
▁territory	-7495
▁accomplish	-7496
▁automobile	-7497
▁biomedical	-7498
▁delusional	-7499
▁inevitable	-7500
▁meditation	-7501
▁processing	-7502
▁television	-7503
▁vulnerable	-7504
▁yahapalana	-7505
▁accommodate	-7506
▁challenging	-7507
▁metropolitan	-7508
▁unemployment	-7509
▁intentionally	-7510
cul	-7511
ple	-7512
rat	-7513
tra	-7514
▁mt	-7515
▁nv	-7516
▁rm	-7517
rary	-7518
rust	-7519
ubow	-7520
well	-7521
▁arc	-7522
▁eld	-7523
▁gel	-7524
▁gip	-7525
▁kul	-7526
▁lee	-7527
▁meg	-7528
▁pdf	-7529
▁roi	-7530
▁sou	-7531
▁tex	-7532
adium	-7533
amaha	-7534
asuma	-7535
chain	-7536
hough	-7537
icate	-7538
ivers	-7539
order	-7540
▁acre	-7541
▁aqua	-7542
▁koll	-7543
▁rust	-7544
▁snap	-7545
▁spin	-7546
▁trim	-7547
▁alien	-7548
▁bootl	-7549
▁broke	-7550
▁downs	-7551
▁dunno	-7552
▁hoard	-7553
▁metro	-7554
▁rival	-7555
▁scold	-7556
▁silly	-7557
asingly	-7558
eration	-7559
lighten	-7560
rential	-7561
▁bakery	-7562
▁barber	-7563
▁deploy	-7564
▁flower	-7565
▁hurdle	-7566
▁makeup	-7567
▁sirima	-7568
▁tinder	-7569
▁cashier	-7570
▁clarity	-7571
▁condemn	-7572
▁fiction	-7573
▁kandyan	-7574
▁robotic	-7575
▁smoking	-7576
▁stadium	-7577
▁washing	-7578
restimate	-7579
▁academia	-7580
▁cardinal	-7581
▁drinking	-7582
▁overlook	-7583
▁speaking	-7584
▁survival	-7585
▁cultivate	-7586
▁enlighten	-7587
▁inclusive	-7588
▁integrity	-7589
▁interpret	-7590
▁renewable	-7591
▁simplytek	-7592
▁waterfall	-7593
▁accumulate	-7594
▁attraction	-7595
▁automation	-7596
▁basketball	-7597
▁eventhough	-7598
▁facilitate	-7599
▁laundering	-7600
▁settlement	-7601
▁exceptional	-7602
▁implication	-7603
▁outstanding	-7604
▁problematic	-7605
▁substantial	-7606
▁superiority	-7607
▁distribution	-7608
▁embarrassing	-7609
▁increasingly	-7610
▁preferential	-7611
▁alternatively	-7612
bl	-7613
kr	-7614
rd	-7615
zu	-7616
chi	-7617
ded	-7618
igo	-7619
jan	-7620
oka	-7621
pad	-7622
fere	-7623
igen	-7624
olla	-7625
orge	-7626
rify	-7627
root	-7628
▁ahh	-7629
▁amp	-7630
▁awk	-7631
▁ire	-7632
ahini	-7633
ayake	-7634
ernet	-7635
grace	-7636
store	-7637
watta	-7638
▁acce	-7639
▁alph	-7640
▁anne	-7641
▁crew	-7642
▁crib	-7643
▁fasc	-7644
▁goss	-7645
▁gree	-7646
▁hail	-7647
▁imho	-7648
▁jean	-7649
▁knee	-7650
▁mild	-7651
▁pink	-7652
▁rath	-7653
▁tick	-7654
▁yell	-7655
▁adequ	-7656
▁fever	-7657
▁frimi	-7658
▁gamer	-7659
▁giphy	-7660
▁juice	-7661
▁lyric	-7662
▁notic	-7663
▁pinna	-7664
▁prabh	-7665
▁reson	-7666
▁stake	-7667
▁sweep	-7668
▁wimal	-7669
ulative	-7670
▁absorb	-7671
▁closed	-7672
▁endure	-7673
▁fulfil	-7674
▁honour	-7675
▁jungle	-7676
▁replic	-7677
▁rumour	-7678
▁trader	-7679
▁worsen	-7680
▁xiaomi	-7681
▁accomod	-7682
▁ashamed	-7683
▁awkward	-7684
▁billing	-7685
▁charter	-7686
▁dentist	-7687
▁devalue	-7688
▁dismiss	-7689
▁edition	-7690
▁fitting	-7691
▁formula	-7692
▁fortune	-7693
▁hygiene	-7694
▁loyalty	-7695
▁muslims	-7696
▁paralle	-7697
▁pearson	-7698
▁refresh	-7699
▁restart	-7700
▁squeeze	-7701
▁summary	-7702
▁unoffic	-7703
unciation	-7704
▁adoption	-7705
▁aircraft	-7706
▁automate	-7707
▁battical	-7708
▁disgrace	-7709
▁ethernet	-7710
▁hesitate	-7711
▁mortgage	-7712
▁ofcourse	-7713
▁overcrow	-7714
▁printing	-7715
▁reckless	-7716
▁strictly	-7717
▁subtitle	-7718
▁apologize	-7719
▁authorize	-7720
▁blacklist	-7721
▁coalition	-7722
▁designing	-7723
▁frustrate	-7724
▁generator	-7725
▁immigrate	-7726
▁impressed	-7727
▁injection	-7728
▁interfere	-7729
▁interrupt	-7730
▁jewellery	-7731
▁liquidity	-7732
▁partially	-7733
▁reasoning	-7734
▁signature	-7735
▁allocation	-7736
▁furthermore	-7737
▁grandmother	-7738
▁instability	-7739
▁battaramulla	-7740
▁connectivity	-7741
▁understandable	-7742
▁unprofessional	-7743
ij	-7744
pc	-7745
dam	-7746
exp	-7747
hth	-7748
lay	-7749
not	-7750
ora	-7751
sty	-7752
zil	-7753
▁cm	-7754
▁kw	-7755
east	-7756
eria	-7757
ford	-7758
luck	-7759
mine	-7760
ophy	-7761
orie	-7762
town	-7763
▁cod	-7764
▁ecu	-7765
▁nor	-7766
▁nye	-7767
▁pip	-7768
▁quo	-7769
▁tai	-7770
ilder	-7771
orant	-7772
ramid	-7773
space	-7774
venir	-7775
▁refe	-7776
▁tsun	-7777
▁vent	-7778
angala	-7779
▁asiri	-7780
▁bandw	-7781
▁clock	-7782
▁cruel	-7783
▁curve	-7784
▁genre	-7785
▁giant	-7786
▁grama	-7787
▁hatch	-7788
▁hurry	-7789
▁renov	-7790
▁scuba	-7791
▁snake	-7792
▁twist	-7793
▁uneth	-7794
▁wound	-7795
herland	-7796
▁bypass	-7797
▁fiscal	-7798
▁fridge	-7799
▁gossip	-7800
▁hectic	-7801
▁hypoth	-7802
▁lankas	-7803
▁merely	-7804
▁sirasa	-7805
▁tricky	-7806
ceptable	-7807
▁baggage	-7808
▁durable	-7809
▁extract	-7810
▁firstly	-7811
▁pyramid	-7812
▁rebuild	-7813
▁satisfy	-7814
▁sigirya	-7815
▁utterly	-7816
▁audacity	-7817
▁concrete	-7818
▁explicit	-7819
▁isolated	-7820
▁lasantha	-7821
▁pleasant	-7822
▁resonate	-7823
▁saturate	-7824
▁sexually	-7825
▁societal	-7826
▁souvenir	-7827
▁wireless	-7828
▁advisable	-7829
▁allegedly	-7830
▁commander	-7831
▁corrupted	-7832
▁excessive	-7833
▁malaysian	-7834
▁packaging	-7835
▁reception	-7836
▁saturated	-7837
▁sincerely	-7838
▁sinharaja	-7839
▁stupidity	-7840
▁transform	-7841
▁unethical	-7842
▁blockchain	-7843
▁convention	-7844
▁creativity	-7845
▁netherland	-7846
▁snorkeling	-7847
▁specialise	-7848
▁stereotype	-7849
▁vegetarian	-7850
▁wellawatte	-7851
▁accomodation	-7852
▁disappointed	-7853
▁productivity	-7854
▁unacceptable	-7855
▁yahapalanaya	-7856
▁pronunciation	-7857
▁psychological	-7858
▁cryptocurrency	-7859
ky	-7860
uu	-7861
opy	-7862
ost	-7863
ppa	-7864
▁ek	-7865
▁gt	-7866
▁sf	-7867
alla	-7868
ingu	-7869
vent	-7870
▁cvs	-7871
▁gbp	-7872
▁hab	-7873
▁hij	-7874
▁kam	-7875
▁keh	-7876
▁lmk	-7877
▁nel	-7878
▁pon	-7879
▁rav	-7880
▁wis	-7881
enezu	-7882
erome	-7883
▁bone	-7884
▁bund	-7885
▁mint	-7886
▁mole	-7887
▁nepo	-7888
▁rave	-7889
▁reel	-7890
▁scra	-7891
▁slmc	-7892
▁tale	-7893
▁tent	-7894
▁ware	-7895
▁weed	-7896
▁wine	-7897
holder	-7898
porate	-7899
redict	-7900
▁dozen	-7901
▁enact	-7902
▁handy	-7903
▁indie	-7904
▁inexp	-7905
▁mayor	-7906
▁notch	-7907
▁query	-7908
▁roast	-7909
▁spill	-7910
▁stagn	-7911
▁swing	-7912
▁taboo	-7913
▁whine	-7914
▁yaris	-7915
caution	-7916
ifiable	-7917
▁ambass	-7918
▁bureau	-7919
▁comedy	-7920
▁jerome	-7921
▁miscon	-7922
▁neglig	-7923
▁prolly	-7924
▁puppet	-7925
▁triple	-7926
▁vanish	-7927
▁venezu	-7928
▁winner	-7929
▁wisdom	-7930
▁writer	-7931
▁caption	-7932
▁drastic	-7933
▁funeral	-7934
▁marxist	-7935
▁mindful	-7936
▁precise	-7937
▁rehabil	-7938
▁testing	-7939
▁tsunami	-7940
▁waiting	-7941
▁accredit	-7942
▁backlash	-7943
▁commonly	-7944
▁decently	-7945
▁emission	-7946
▁feminism	-7947
▁fraction	-7948
▁homeless	-7949
▁pleasure	-7950
▁shipment	-7951
▁brokerage	-7952
▁confusion	-7953
▁disregard	-7954
▁financing	-7955
▁rejection	-7956
▁sexuality	-7957
▁strategic	-7958
▁subscribe	-7959
▁unpredict	-7960
▁venezuela	-7961
▁ambassador	-7962
▁functional	-7963
▁journalism	-7964
▁researcher	-7965
▁supposedly	-7966
▁thoroughly	-7967
▁exclusively	-7968
▁flexibility	-7969
▁	-7970
e	-7971
a	-7972
i	-7973
t	-7974
n	-7975
r	-7976
o	-7977
l	-7978
s	-7979
c	-7980
p	-7981
d	-7982
u	-7983
m	-7984
y	-7985
g	-7986
h	-7987
k	-7988
f	-7989
b	-7990
v	-7991
w	-7992
x	-7993
j	-7994
q	-7995
z	-7996
