<unk>	0
<s>	0
</s>	0
▁s	-0
in	-1
er	-2
▁c	-3
an	-4
▁p	-5
on	-6
re	-7
al	-8
▁t	-9
▁l	-10
en	-11
▁m	-12
▁w	-13
▁g	-14
ar	-15
at	-16
▁b	-17
▁d	-18
ou	-19
it	-20
▁f	-21
st	-22
▁n	-23
▁e	-24
le	-25
▁a	-26
or	-27
ce	-28
▁h	-29
ri	-30
ot	-31
om	-32
ly	-33
▁re	-34
ion	-35
ve	-36
et	-37
se	-38
ing	-39
ent	-40
ay	-41
ic	-42
ke	-43
ll	-44
op	-45
▁u	-46
▁go	-47
ss	-48
▁st	-49
ct	-50
▁in	-51
ol	-52
▁not	-53
▁th	-54
ow	-55
one	-56
ver	-57
ee	-58
ank	-59
▁li	-60
ate	-61
▁'	-62
ra	-63
ch	-64
im	-65
id	-66
ro	-67
ig	-68
ld	-69
ge	-70
od	-71
▁de	-72
is	-73
ation	-74
ea	-75
▁k	-76
▁al	-77
▁com	-78
oun	-79
am	-80
▁get	-81
ry	-82
th	-83
▁sri	-84
ally	-85
▁ex	-86
▁lank	-87
ck	-88
▁we	-89
il	-90
pp	-91
ould	-92
ear	-93
any	-94
ur	-95
ad	-96
▁ch	-97
▁y	-98
end	-99
▁lo	-100
ment	-101
▁v	-102
ake	-103
▁like	-104
and	-105
ity	-106
▁su	-107
▁un	-108
ue	-109
ant	-110
▁con	-111
ff	-112
▁bu	-113
ill	-114
ble	-115
▁r	-116
ul	-117
▁wor	-118
ive	-119
▁pro	-120
ine	-121
ort	-122
▁pe	-123
el	-124
ht	-125
ir	-126
la	-127
ople	-128
▁lanka	-129
▁people	-130
ut	-131
▁good	-132
art	-133
her	-134
▁would	-135
ount	-136
▁1	-137
ci	-138
▁2	-139
▁do	-140
▁sh	-141
now	-142
▁j	-143
ed	-144
▁know	-145
ter	-146
un	-147
as	-148
ok	-149
ind	-150
are	-151
▁ne	-152
ice	-153
▁be	-154
ink	-155
um	-156
▁exp	-157
ime	-158
ect	-159
ome	-160
▁o	-161
00	-162
▁sp	-163
▁po	-164
▁see	-165
▁ev	-166
eed	-167
▁any	-168
ist	-169
▁comp	-170
▁well	-171
age	-172
▁one	-173
em	-174
ase	-175
ard	-176
▁work	-177
▁think	-178
ence	-179
▁ad	-180
▁per	-181
so	-182
ack	-183
ie	-184
▁time	-185
▁use	-186
▁en	-187
▁op	-188
▁count	-189
ud	-190
▁make	-191
ide	-192
▁also	-193
▁pre	-194
ure	-195
▁ve	-196
▁even	-197
ast	-198
▁need	-199
▁ever	-200
▁I	-201
ance	-202
▁country	-203
▁app	-204
▁pl	-205
▁mu	-206
all	-207
▁se	-208
qu	-209
du	-210
▁want	-211
▁ar	-212
▁di	-213
der	-214
▁pri	-215
sp	-216
▁sl	-217
▁fo	-218
▁year	-219
▁say	-220
▁fa	-221
ree	-222
▁ri	-223
▁every	-224
▁pay	-225
ap	-226
▁tra	-227
▁co	-228
ight	-229
▁im	-230
ith	-231
ru	-232
lo	-233
▁ac	-234
▁look	-235
▁col	-236
ong	-237
ound	-238
▁rec	-239
sh	-240
ite	-241
bo	-242
▁inter	-243
able	-244
nt	-245
our	-246
▁ma	-247
fe	-248
ip	-249
▁take	-250
out	-251
ob	-252
ght	-253
▁wh	-254
▁3	-255
▁thing	-256
vel	-257
▁ha	-258
ous	-259
▁pr	-260
▁me	-261
ber	-262
eri	-263
pt	-264
lace	-265
▁pol	-266
▁an	-267
▁day	-268
▁i	-269
▁lea	-270
▁try	-271
hing	-272
ult	-273
▁sin	-274
ab	-275
▁lankan	-276
▁much	-277
▁te	-278
ary	-279
▁gu	-280
ign	-281
▁anyone	-282
▁come	-283
▁mon	-284
▁le	-285
▁hel	-286
ombo	-287
vern	-288
▁give	-289
gh	-290
▁really	-291
if	-292
▁inc	-293
port	-294
▁place	-295
▁act	-296
▁help	-297
sk	-298
▁he	-299
int	-300
▁govern	-301
▁ra	-302
▁part	-303
▁so	-304
▁find	-305
orm	-306
ia	-307
other	-308
▁colombo	-309
▁ta	-310
way	-311
▁back	-312
▁government	-313
▁adv	-314
og	-315
ish	-316
omet	-317
▁stud	-318
▁way	-319
us	-320
oney	-321
ffer	-322
ough	-323
▁somet	-324
son	-325
▁thank	-326
▁man	-327
▁new	-328
iz	-329
igh	-330
▁mar	-331
ep	-332
▁money	-333
▁start	-334
ical	-335
▁buy	-336
▁ind	-337
▁us	-338
▁tr	-339
▁could	-340
▁uni	-341
▁around	-342
ire	-343
▁fee	-344
▁mo	-345
gree	-346
▁tax	-347
est	-348
▁month	-349
erience	-350
▁job	-351
▁experience	-352
dit	-353
con	-354
lect	-355
▁cur	-356
▁can	-357
▁qu	-358
▁will	-359
▁some	-360
▁cont	-361
sid	-362
▁bus	-363
▁guy	-364
▁20	-365
old	-366
▁high	-367
▁sa	-368
▁still	-369
▁happ	-370
ain	-371
▁gr	-372
ually	-373
▁person	-374
▁with	-375
▁sc	-376
▁acc	-377
ange	-378
ise	-379
▁br	-380
▁5	-381
thing	-382
▁plan	-383
li	-384
ily	-385
ian	-386
ick	-387
▁am	-388
▁right	-389
▁eng	-390
▁something	-391
▁ro	-392
riend	-393
ust	-394
▁vis	-395
▁company	-396
▁may	-397
▁ke	-398
vers	-399
cial	-400
▁dis	-401
ub	-402
▁price	-403
▁curre	-404
▁fir	-405
▁many	-406
▁ph	-407
▁dec	-408
▁comm	-409
▁ask	-410
▁lot	-411
▁4	-412
▁ab	-413
▁inf	-414
ple	-415
ote	-416
▁sch	-417
▁feel	-418
ath	-419
▁bo	-420
act	-421
▁loc	-422
▁reg	-423
▁sm	-424
ild	-425
reat	-426
que	-427
▁em	-428
▁gen	-429
ame	-430
▁first	-431
omm	-432
▁friend	-433
▁live	-434
ak	-435
stion	-436
ful	-437
▁car	-438
▁life	-439
▁id	-440
▁post	-441
te	-442
▁rel	-443
lease	-444
ag	-445
▁since	-446
ace	-447
cy	-448
▁iss	-449
▁happen	-450
▁polit	-451
▁issue	-452
ore	-453
▁rem	-454
▁someone	-455
ty	-456
cess	-457
▁current	-458
▁med	-459
▁let	-460
ail	-461
ool	-462
be	-463
▁bank	-464
aw	-465
vest	-466
▁long	-467
▁fin	-468
▁degree	-469
▁intern	-470
▁bad	-471
up	-472
iv	-473
line	-474
ket	-475
▁under	-476
▁et	-477
ommend	-478
▁recommend	-479
▁invest	-480
ose	-481
ory	-482
lic	-483
▁hear	-484
▁mean	-485
▁sure	-486
▁supp	-487
▁at	-488
▁everyone	-489
▁res	-490
▁please	-491
▁keep	-492
▁inst	-493
▁face	-494
▁or	-495
ope	-496
▁sal	-497
▁hi	-498
eci	-499
▁ser	-500
▁sim	-501
ffic	-502
▁ear	-503
ower	-504
use	-505
▁univers	-506
ress	-507
▁school	-508
ead	-509
▁fore	-510
▁tea	-511
▁local	-512
▁cor	-513
iness	-514
▁etc	-515
xt	-516
▁call	-517
▁elect	-518
▁travel	-519
conom	-520
▁fu	-521
▁min	-522
ship	-523
tion	-524
▁university	-525
es	-526
▁rep	-527
▁fam	-528
own	-529
▁real	-530
▁econom	-531
ass	-532
ual	-533
▁might	-534
▁sub	-535
▁change	-536
▁differ	-537
▁market	-538
face	-539
▁student	-540
alk	-541
ang	-542
▁que	-543
ft	-544
ial	-545
ala	-546
ible	-547
▁business	-548
▁che	-549
▁tw	-550
▁cost	-551
▁dep	-552
▁cla	-553
▁seem	-554
atch	-555
▁without	-556
▁cl	-557
▁you	-558
▁dri	-559
ile	-560
read	-561
▁care	-562
ize	-563
▁end	-564
▁tell	-565
▁sy	-566
earn	-567
ically	-568
▁learn	-569
ord	-570
▁never	-571
vice	-572
ert	-573
ious	-574
▁anything	-575
me	-576
▁advice	-577
▁hard	-578
eek	-579
▁tran	-580
▁ent	-581
fer	-582
less	-583
▁on	-584
▁love	-585
ational	-586
ject	-587
▁priv	-588
▁kind	-589
ways	-590
▁cre	-591
▁option	-592
▁fun	-593
stand	-594
▁actually	-595
urn	-596
ciate	-597
▁visit	-598
▁week	-599
ute	-600
▁sug	-601
▁sinh	-602
sit	-603
▁sit	-604
▁ag	-605
come	-606
▁account	-607
icle	-608
arent	-609
▁interest	-610
de	-611
▁ass	-612
▁question	-613
▁family	-614
ense	-615
▁prop	-616
▁move	-617
get	-618
▁gener	-619
▁for	-620
▁power	-621
▁wr	-622
▁point	-623
▁understand	-624
▁check	-625
blem	-626
▁to	-627
ason	-628
▁lit	-629
▁problem	-630
ude	-631
ative	-632
ather	-633
ital	-634
sider	-635
▁6	-636
▁att	-637
ern	-638
▁el	-639
▁last	-640
ently	-641
ility	-642
▁sugge	-643
erm	-644
▁foreign	-645
▁up	-646
ning	-647
▁study	-648
▁always	-649
▁service	-650
duc	-651
eak	-652
reciate	-653
▁reason	-654
▁ment	-655
▁great	-656
▁two	-657
▁salary	-658
▁exam	-659
▁vote	-660
▁big	-661
▁bud	-662
▁old	-663
▁av	-664
arge	-665
▁tou	-666
▁idea	-667
amil	-668
tle	-669
ific	-670
▁consider	-671
▁cho	-672
unity	-673
▁gra	-674
▁ins	-675
▁educ	-676
ember	-677
ne	-678
▁cour	-679
▁imp	-680
▁10	-681
▁another	-682
▁sk	-683
▁leave	-684
▁engine	-685
▁pub	-686
ably	-687
▁hand	-688
▁support	-689
gra	-690
▁cri	-691
▁import	-692
ach	-693
▁tamil	-694
▁stay	-695
▁bit	-696
▁appreciate	-697
▁talk	-698
▁private	-699
▁maybe	-700
▁free	-701
lish	-702
▁bas	-703
with	-704
▁over	-705
▁out	-706
▁enough	-707
▁hope	-708
duct	-709
stem	-710
ssion	-711
▁202	-712
▁build	-713
ever	-714
▁next	-715
▁pass	-716
ium	-717
iew	-718
▁par	-719
▁system	-720
▁eas	-721
▁veh	-722
oy	-723
▁all	-724
ether	-725
▁online	-726
▁politic	-727
ater	-728
rect	-729
▁vehicle	-730
▁show	-731
ale	-732
ract	-733
▁different	-734
atter	-735
▁law	-736
▁shit	-737
uation	-738
▁party	-739
▁tri	-740
bt	-741
▁tru	-742
rea	-743
ya	-744
▁low	-745
sc	-746
▁engineer	-747
▁ca	-748
ens	-749
ouse	-750
ready	-751
▁state	-752
▁pret	-753
▁already	-754
▁war	-755
▁qual	-756
▁def	-757
▁sol	-758
stly	-759
▁ext	-760
▁public	-761
▁read	-762
▁stu	-763
rupt	-764
▁aff	-765
ution	-766
▁base	-767
▁parent	-768
mo	-769
▁open	-770
▁100	-771
ecially	-772
▁cle	-773
▁touri	-774
▁bel	-775
▁spend	-776
road	-777
▁far	-778
▁sur	-779
▁situation	-780
ism	-781
▁card	-782
▁world	-783
▁home	-784
▁put	-785
ere	-786
ieve	-787
ority	-788
▁area	-789
▁share	-790
llow	-791
▁class	-792
▁other	-793
▁sell	-794
▁less	-795
cept	-796
yp	-797
▁rest	-798
▁run	-799
▁prov	-800
▁income	-801
▁small	-802
▁proper	-803
▁add	-804
▁food	-805
▁that	-806
alth	-807
▁who	-808
▁red	-809
ctor	-810
▁pretty	-811
here	-812
ware	-813
▁else	-814
ib	-815
ey	-816
▁become	-817
▁7	-818
▁offer	-819
sw	-820
ither	-821
▁poss	-822
▁leg	-823
▁currently	-824
▁ru	-825
▁social	-826
▁emp	-827
▁though	-828
loy	-829
▁lk	-830
▁yes	-831
▁air	-832
▁stuff	-833
▁ho	-834
▁set	-835
▁teach	-836
▁mind	-837
▁pack	-838
▁ret	-839
▁least	-840
▁house	-841
sident	-842
▁able	-843
▁hey	-844
ular	-845
lank	-846
ict	-847
▁disc	-848
bs	-849
▁speak	-850
▁book	-851
▁everything	-852
▁dat	-853
▁bea	-854
onder	-855
▁stop	-856
▁comple	-857
▁advance	-858
▁dr	-859
▁ran	-860
▁cult	-861
▁case	-862
▁recently	-863
▁wonder	-864
▁mod	-865
▁15	-866
▁num	-867
▁apply	-868
▁maj	-869
▁prob	-870
▁india	-871
velop	-872
dition	-873
▁8	-874
▁resp	-875
▁incre	-876
▁val	-877
▁bring	-878
▁sinhala	-879
▁worth	-880
▁amount	-881
joy	-882
mit	-883
gg	-884
▁jo	-885
▁due	-886
▁play	-887
ac	-888
▁cert	-889
▁nothing	-890
▁earn	-891
▁pur	-892
▁develop	-893
▁tech	-894
▁it	-895
▁how	-896
▁either	-897
▁wa	-898
▁manage	-899
form	-900
▁fre	-901
▁english	-902
▁mi	-903
outh	-904
▁education	-905
▁fut	-906
▁number	-907
ister	-908
▁land	-909
ody	-910
▁sw	-911
▁top	-912
rate	-913
▁esp	-914
illion	-915
ately	-916
ene	-917
ilar	-918
▁rate	-919
▁term	-920
fit	-921
000	-922
▁employ	-923
▁expect	-924
▁corrupt	-925
▁kid	-926
▁abroad	-927
▁level	-928
▁probably	-929
amp	-930
▁future	-931
▁ranil	-932
day	-933
▁prot	-934
▁hot	-935
olog	-936
ral	-937
▁sing	-938
ric	-939
where	-940
▁election	-941
nect	-942
▁however	-943
▁cu	-944
▁cust	-945
▁president	-946
▁lankans	-947
▁recommendation	-948
▁fund	-949
▁mention	-950
▁conf	-951
ought	-952
▁medium	-953
▁especially	-954
▁phone	-955
▁similar	-956
▁clo	-957
ner	-958
▁lkr	-959
▁cons	-960
▁as	-961
▁custom	-962
▁hone	-963
▁trans	-964
▁comment	-965
▁srilank	-966
▁lol	-967
▁product	-968
▁lu	-969
▁course	-970
▁possible	-971
▁9	-972
▁fuck	-973
ving	-974
▁thought	-975
▁hell	-976
▁ap	-977
quire	-978
eap	-979
vious	-980
▁send	-981
pl	-982
▁sec	-983
oup	-984
▁bro	-985
▁easy	-986
▁main	-987
▁fi	-988
of	-989
▁name	-990
▁na	-991
▁police	-992
▁complete	-993
ash	-994
▁connect	-995
▁loan	-996
▁stre	-997
ma	-998
▁side	-999
▁sci	-1000
▁doctor	-1001
row	-1002
▁yea	-1003
▁train	-1004
▁package	-1005
▁increase	-1006
▁is	-1007
irl	-1008
▁cause	-1009
▁drive	-1010
▁mid	-1011
▁whole	-1012
ource	-1013
▁follow	-1014
▁believe	-1015
▁there	-1016
ha	-1017
▁health	-1018
fort	-1019
▁datum	-1020
▁political	-1021
▁south	-1022
▁npp	-1023
inion	-1024
ward	-1025
▁taxis	-1026
▁full	-1027
▁bl	-1028
▁indu	-1029
▁opinion	-1030
▁what	-1031
▁close	-1032
▁watch	-1033
▁personal	-1034
▁tourist	-1035
▁indust	-1036
▁gov	-1037
▁stand	-1038
▁inform	-1039
gram	-1040
▁matter	-1041
▁economy	-1042
ph	-1043
sition	-1044
▁typ	-1045
▁girl	-1046
view	-1047
▁sign	-1048
▁whether	-1049
▁agree	-1050
▁order	-1051
▁charge	-1052
▁opport	-1053
▁wrong	-1054
duce	-1055
▁bi	-1056
▁cheap	-1057
uk	-1058
lude	-1059
▁away	-1060
▁group	-1061
▁ago	-1062
▁instead	-1063
▁vi	-1064
ield	-1065
arch	-1066
▁deal	-1067
ock	-1068
▁remember	-1069
dge	-1070
▁infl	-1071
▁past	-1072
lain	-1073
andy	-1074
▁wait	-1075
▁allow	-1076
▁provide	-1077
▁visa	-1078
os	-1079
wor	-1080
▁lose	-1081
▁require	-1082
▁trip	-1083
▁economic	-1084
▁cap	-1085
ys	-1086
▁int	-1087
▁payment	-1088
▁z	-1089
▁grow	-1090
uw	-1091
alle	-1092
▁regard	-1093
▁budget	-1094
icy	-1095
▁yeah	-1096
▁shop	-1097
ify	-1098
▁list	-1099
▁near	-1100
▁true	-1101
▁quality	-1102
▁usually	-1103
▁hour	-1104
▁off	-1105
▁soft	-1106
▁direct	-1107
▁little	-1108
▁process	-1109
ency	-1110
▁rese	-1111
sm	-1112
▁politician	-1113
▁project	-1114
▁science	-1115
▁industry	-1116
▁kandy	-1117
▁night	-1118
▁opportunity	-1119
▁bre	-1120
▁meet	-1121
ond	-1122
oc	-1123
▁child	-1124
▁offic	-1125
▁compare	-1126
oman	-1127
▁det	-1128
▁cent	-1129
▁culture	-1130
side	-1131
▁avail	-1132
▁sup	-1133
▁program	-1134
▁within	-1135
▁pop	-1136
▁tod	-1137
▁clear	-1138
▁short	-1139
▁mus	-1140
▁fact	-1141
ision	-1142
ara	-1143
▁suggestion	-1144
▁cou	-1145
▁trust	-1146
▁investment	-1147
▁engineering	-1148
▁field	-1149
▁raj	-1150
▁result	-1151
▁include	-1152
▁30	-1153
ade	-1154
▁norm	-1155
ety	-1156
lla	-1157
▁depend	-1158
▁ob	-1159
▁choose	-1160
▁gue	-1161
▁speci	-1162
ruct	-1163
▁today	-1164
most	-1165
ensive	-1166
ron	-1167
▁pick	-1168
▁quite	-1169
▁policy	-1170
▁save	-1171
ration	-1172
▁suggest	-1173
▁woman	-1174
rove	-1175
ting	-1176
▁cra	-1177
▁head	-1178
▁research	-1179
lim	-1180
▁mil	-1181
▁driver	-1182
aster	-1183
▁scam	-1184
▁brand	-1185
▁prefer	-1186
▁million	-1187
tear	-1188
▁art	-1189
▁form	-1190
▁12	-1191
▁game	-1192
▁des	-1193
▁vide	-1194
▁specif	-1195
alog	-1196
▁finan	-1197
▁au	-1198
▁mess	-1199
▁almost	-1200
ament	-1201
▁create	-1202
ition	-1203
▁prom	-1204
▁sect	-1205
▁road	-1206
ota	-1207
rol	-1208
▁national	-1209
▁video	-1210
▁str	-1211
eat	-1212
▁rent	-1213
▁indian	-1214
▁yet	-1215
cond	-1216
▁hotel	-1217
▁201	-1218
▁example	-1219
aste	-1220
▁cut	-1221
▁mom	-1222
▁slt	-1223
▁ok	-1224
▁notice	-1225
▁defin	-1226
▁general	-1227
oud	-1228
▁mob	-1229
▁usd	-1230
▁hist	-1231
▁second	-1232
▁mor	-1233
▁dialog	-1234
▁relate	-1235
▁rece	-1236
dle	-1237
▁must	-1238
▁relig	-1239
▁25	-1240
▁spe	-1241
▁port	-1242
▁value	-1243
▁ak	-1244
ient	-1245
▁available	-1246
▁inv	-1247
swer	-1248
▁couple	-1249
▁fine	-1250
angu	-1251
itely	-1252
▁rather	-1253
▁international	-1254
▁fl	-1255
air	-1256
▁answer	-1257
▁hold	-1258
▁ur	-1259
▁skill	-1260
▁safe	-1261
▁langu	-1262
▁ps	-1263
▁event	-1264
nd	-1265
▁abs	-1266
▁exact	-1267
▁pract	-1268
ology	-1269
▁turn	-1270
ura	-1271
▁stock	-1272
▁language	-1273
man	-1274
▁guess	-1275
bsite	-1276
▁information	-1277
▁eff	-1278
▁conc	-1279
ons	-1280
ari	-1281
urity	-1282
▁pu	-1283
▁city	-1284
hind	-1285
▁liter	-1286
ume	-1287
▁hosp	-1288
▁break	-1289
▁afford	-1290
▁website	-1291
▁decide	-1292
▁srilanka	-1293
▁join	-1294
▁return	-1295
▁career	-1296
▁hospital	-1297
▁soon	-1298
▁x	-1299
aff	-1300
▁chance	-1301
▁unless	-1302
ification	-1303
▁sometime	-1304
▁definitely	-1305
cus	-1306
land	-1307
▁ref	-1308
cle	-1309
▁50	-1310
▁uk	-1311
▁interested	-1312
▁phys	-1313
▁rajap	-1314
iling	-1315
ane	-1316
▁speed	-1317
▁mostly	-1318
cket	-1319
work	-1320
▁mig	-1321
▁imm	-1322
▁type	-1323
▁software	-1324
hand	-1325
▁dist	-1326
uge	-1327
▁receive	-1328
spect	-1329
▁internet	-1330
▁majority	-1331
▁community	-1332
ross	-1333
ural	-1334
duate	-1335
▁bene	-1336
▁planning	-1337
▁expensive	-1338
▁dem	-1339
▁honestly	-1340
▁blo	-1341
▁focus	-1342
▁early	-1343
▁rajapak	-1344
▁beach	-1345
▁news	-1346
▁story	-1347
▁fix	-1348
▁cover	-1349
he	-1350
▁cr	-1351
▁water	-1352
▁own	-1353
▁credit	-1354
▁west	-1355
▁nice	-1356
▁write	-1357
▁hello	-1358
▁transp	-1359
olve	-1360
▁neg	-1361
▁af	-1362
artment	-1363
▁debt	-1364
▁decent	-1365
date	-1366
▁limit	-1367
▁budd	-1368
sa	-1369
▁met	-1370
ulation	-1371
ability	-1372
min	-1373
ledge	-1374
rict	-1375
▁normal	-1376
▁reddit	-1377
uel	-1378
▁har	-1379
▁tem	-1380
▁tot	-1381
▁techn	-1382
ven	-1383
ove	-1384
▁luck	-1385
erious	-1386
▁connection	-1387
▁19	-1388
▁treat	-1389
az	-1390
com	-1391
▁math	-1392
▁sector	-1393
dd	-1394
oid	-1395
aper	-1396
▁dam	-1397
▁akd	-1398
tears	-1399
▁certain	-1400
▁basically	-1401
oint	-1402
▁tip	-1403
▁protest	-1404
cu	-1405
red	-1406
▁net	-1407
ior	-1408
▁wan	-1409
▁decision	-1410
liament	-1411
▁middle	-1412
book	-1413
▁const	-1414
▁parliament	-1415
▁cit	-1416
▁sel	-1417
▁aust	-1418
▁report	-1419
na	-1420
▁serious	-1421
itch	-1422
▁lead	-1423
▁age	-1424
▁hum	-1425
▁profe	-1426
ird	-1427
▁ll	-1428
▁contact	-1429
▁sometimes	-1430
▁equ	-1431
▁risk	-1432
▁rs	-1433
oung	-1434
▁path	-1435
▁da	-1436
ness	-1437
▁special	-1438
iya	-1439
▁curi	-1440
wh	-1441
▁down	-1442
▁item	-1443
▁history	-1444
▁corruption	-1445
ana	-1446
izen	-1447
▁common	-1448
erg	-1449
▁ce	-1450
▁young	-1451
▁single	-1452
ama	-1453
▁force	-1454
▁fair	-1455
▁fuel	-1456
▁position	-1457
▁camp	-1458
gin	-1459
▁purch	-1460
▁benefit	-1461
▁they	-1462
▁subject	-1463
itle	-1464
▁dra	-1465
▁self	-1466
▁sound	-1467
▁vac	-1468
▁choice	-1469
▁citizen	-1470
▁financial	-1471
▁tuk	-1472
▁personally	-1473
▁opp	-1474
▁entire	-1475
▁austral	-1476
▁date	-1477
▁legal	-1478
▁compet	-1479
▁improve	-1480
▁ai	-1481
▁non	-1482
▁accept	-1483
▁rule	-1484
▁galle	-1485
olute	-1486
apt	-1487
fully	-1488
▁teacher	-1489
▁absolute	-1490
▁dou	-1491
▁fail	-1492
por	-1493
tern	-1494
sis	-1495
verage	-1496
▁eat	-1497
▁link	-1498
▁finance	-1499
▁large	-1500
▁200	-1501
ential	-1502
▁edit	-1503
▁avoid	-1504
▁office	-1505
ina	-1506
▁tow	-1507
▁source	-1508
gan	-1509
▁bill	-1510
▁transport	-1511
llar	-1512
▁select	-1513
ogle	-1514
▁customer	-1515
▁cash	-1516
rugg	-1517
▁rup	-1518
▁medic	-1519
▁basic	-1520
▁google	-1521
▁curious	-1522
▁knowledge	-1523
ated	-1524
erve	-1525
▁concern	-1526
▁crisis	-1527
ug	-1528
ump	-1529
ited	-1530
fficult	-1531
▁contin	-1532
ik	-1533
▁cal	-1534
▁paper	-1535
▁difficult	-1536
▁bra	-1537
▁fall	-1538
▁cy	-1539
ger	-1540
idate	-1541
▁toward	-1542
▁word	-1543
▁maint	-1544
▁reduce	-1545
▁huge	-1546
▁strong	-1547
era	-1548
▁dig	-1549
▁mass	-1550
cer	-1551
vert	-1552
▁wel	-1553
▁deli	-1554
▁instit	-1555
▁previous	-1556
▁purchase	-1557
▁important	-1558
▁profession	-1559
▁line	-1560
iri	-1561
▁security	-1562
▁pet	-1563
▁transfer	-1564
over	-1565
▁enjoy	-1566
▁outside	-1567
▁soci	-1568
▁access	-1569
▁expense	-1570
▁drop	-1571
▁super	-1572
▁view	-1573
atever	-1574
▁sort	-1575
▁happy	-1576
▁claim	-1577
▁interview	-1578
▁win	-1579
▁rupee	-1580
pri	-1581
▁airport	-1582
ille	-1583
▁bri	-1584
▁poor	-1585
▁later	-1586
▁whatever	-1587
gr	-1588
▁civ	-1589
▁hal	-1590
alese	-1591
▁site	-1592
▁store	-1593
▁update	-1594
▁fac	-1595
ident	-1596
▁internship	-1597
▁late	-1598
▁detail	-1599
vid	-1600
cc	-1601
▁genu	-1602
▁electric	-1603
▁ann	-1604
▁control	-1605
▁fe	-1606
▁govt	-1607
▁spot	-1608
val	-1609
▁pm	-1610
▁genuine	-1611
ivid	-1612
▁rain	-1613
orry	-1614
▁lack	-1615
▁medical	-1616
▁mal	-1617
▁minim	-1618
▁employee	-1619
▁sinhalese	-1620
▁waste	-1621
ator	-1622
▁dollar	-1623
▁organ	-1624
sent	-1625
▁mult	-1626
▁getting	-1627
▁via	-1628
▁reach	-1629
vie	-1630
▁hit	-1631
ncy	-1632
▁cand	-1633
▁eth	-1634
▁step	-1635
▁leader	-1636
▁exactly	-1637
▁team	-1638
▁individ	-1639
oo	-1640
ode	-1641
▁average	-1642
▁demand	-1643
▁deliver	-1644
reme	-1645
▁sad	-1646
▁graduate	-1647
ott	-1648
iron	-1649
uwa	-1650
▁have	-1651
▁master	-1652
▁stream	-1653
eep	-1654
▁fit	-1655
▁test	-1656
▁court	-1657
▁literally	-1658
▁suc	-1659
▁ol	-1660
▁bar	-1661
▁correct	-1662
io	-1663
ature	-1664
igure	-1665
▁ella	-1666
▁hire	-1667
▁moment	-1668
▁movie	-1669
50	-1670
co	-1671
▁fla	-1672
▁arm	-1673
▁oft	-1674
▁australia	-1675
ho	-1676
ife	-1677
ury	-1678
▁clean	-1679
▁major	-1680
▁mobile	-1681
▁specific	-1682
▁hate	-1683
▁ide	-1684
▁human	-1685
▁sorry	-1686
▁minister	-1687
ruggle	-1688
▁light	-1689
▁individual	-1690
▁often	-1691
▁sense	-1692
▁towards	-1693
▁struggle	-1694
▁la	-1695
▁hop	-1696
▁plus	-1697
▁reli	-1698
▁figure	-1699
▁member	-1700
▁est	-1701
▁china	-1702
20	-1703
ark	-1704
▁bal	-1705
▁nor	-1706
aptop	-1707
▁religion	-1708
▁candidate	-1709
▁pot	-1710
ention	-1711
▁difference	-1712
▁imf	-1713
▁laptop	-1714
▁official	-1715
▁pea	-1716
▁unp	-1717
▁loud	-1718
▁miss	-1719
▁standard	-1720
eal	-1721
▁slow	-1722
▁exist	-1723
▁model	-1724
body	-1725
reen	-1726
▁extra	-1727
▁design	-1728
▁auth	-1729
▁rich	-1730
▁appro	-1731
▁affect	-1732
ym	-1733
ination	-1734
ye	-1735
▁bla	-1736
▁ter	-1737
▁hair	-1738
iod	-1739
imate	-1740
▁period	-1741
▁wish	-1742
fortun	-1743
▁civil	-1744
▁comput	-1745
aur	-1746
▁lab	-1747
ibility	-1748
▁discu	-1749
▁kinda	-1750
▁explain	-1751
▁fast	-1752
▁trade	-1753
▁across	-1754
ada	-1755
▁colle	-1756
▁accord	-1757
ex	-1758
vp	-1759
ann	-1760
erate	-1761
▁obvious	-1762
▁solution	-1763
▁unfortun	-1764
▁desp	-1765
▁18	-1766
▁cry	-1767
▁docu	-1768
▁title	-1769
▁document	-1770
load	-1771
▁activ	-1772
▁music	-1773
aurant	-1774
ogether	-1775
▁aware	-1776
▁management	-1777
▁peace	-1778
▁continue	-1779
tte	-1780
▁buddh	-1781
jith	-1782
▁along	-1783
▁north	-1784
ift	-1785
▁simp	-1786
▁actual	-1787
▁relation	-1788
▁div	-1789
▁alone	-1790
▁action	-1791
ructure	-1792
▁handle	-1793
▁weather	-1794
ps	-1795
▁sen	-1796
▁note	-1797
▁practice	-1798
▁restaurant	-1799
▁lic	-1800
istic	-1801
▁info	-1802
ission	-1803
▁sever	-1804
icket	-1805
▁comfort	-1806
▁partic	-1807
▁mis	-1808
mb	-1809
▁23	-1810
▁marri	-1811
▁network	-1812
▁half	-1813
▁insur	-1814
▁range	-1815
▁ah	-1816
▁medicine	-1817
▁register	-1818
ell	-1819
▁effect	-1820
▁involve	-1821
▁message	-1822
ret	-1823
▁forget	-1824
ront	-1825
▁profit	-1826
ror	-1827
▁gb	-1828
▁mot	-1829
▁gain	-1830
▁stat	-1831
▁explo	-1832
▁professional	-1833
bal	-1834
set	-1835
▁ill	-1836
▁east	-1837
▁extreme	-1838
▁sea	-1839
▁owner	-1840
▁mental	-1841
▁begin	-1842
ization	-1843
▁island	-1844
zy	-1845
▁beaut	-1846
▁completely	-1847
ating	-1848
ially	-1849
▁yout	-1850
▁insight	-1851
▁0	-1852
▁walk	-1853
aya	-1854
▁glo	-1855
▁jvp	-1856
▁anyway	-1857
▁forward	-1858
▁foreigner	-1859
ker	-1860
▁collect	-1861
rant	-1862
time	-1863
ulate	-1864
▁jap	-1865
▁society	-1866
▁currency	-1867
ream	-1868
wise	-1869
▁role	-1870
▁worry	-1871
▁protect	-1872
▁eur	-1873
▁plat	-1874
▁covid	-1875
▁stick	-1876
▁behind	-1877
▁monthly	-1878
▁simply	-1879
ifi	-1880
scri	-1881
▁absolutely	-1882
▁feed	-1883
▁phot	-1884
▁thinking	-1885
▁development	-1886
ditional	-1887
▁migrate	-1888
oot	-1889
▁exc	-1890
▁foot	-1891
▁kill	-1892
▁respons	-1893
▁computer	-1894
▁rid	-1895
lling	-1896
▁arri	-1897
▁crit	-1898
▁partner	-1899
▁together	-1900
▁white	-1901
▁fan	-1902
▁okay	-1903
▁mother	-1904
▁cop	-1905
▁gota	-1906
▁uber	-1907
▁nation	-1908
▁park	-1909
▁stup	-1910
▁daily	-1911
▁except	-1912
▁simple	-1913
ube	-1914
▁success	-1915
the	-1916
▁room	-1917
▁commun	-1918
▁likely	-1919
▁sajith	-1920
▁just	-1921
▁sport	-1922
▁relative	-1923
▁reliable	-1924
by	-1925
iit	-1926
sure	-1927
light	-1928
▁influ	-1929
▁respect	-1930
atic	-1931
earch	-1932
▁three	-1933
▁search	-1934
▁stupid	-1935
▁generation	-1936
umb	-1937
0000	-1938
▁tourism	-1939
▁condition	-1940
▁switch	-1941
▁signific	-1942
att	-1943
▁dude	-1944
▁recent	-1945
▁europe	-1946
▁ticket	-1947
igin	-1948
▁env	-1949
▁necess	-1950
▁helpful	-1951
▁unfortunately	-1952
gress	-1953
▁worker	-1954
par	-1955
▁11	-1956
ier	-1957
▁multip	-1958
▁directly	-1959
▁insurance	-1960
ah	-1961
rib	-1962
▁amaz	-1963
▁perf	-1964
▁hea	-1965
▁tv	-1966
▁western	-1967
▁somewhere	-1968
▁viol	-1969
▁quick	-1970
▁origin	-1971
▁platform	-1972
▁no	-1973
ager	-1974
▁willing	-1975
▁inflation	-1976
back	-1977
▁ful	-1978
▁bike	-1979
▁gold	-1980
pto	-1981
yle	-1982
▁enter	-1983
▁40	-1984
ming	-1985
▁init	-1986
▁cricket	-1987
ero	-1988
pal	-1989
▁saf	-1990
▁assume	-1991
▁minimum	-1992
▁ltte	-1993
▁easily	-1994
▁remove	-1995
▁significant	-1996
ption	-1997
olk	-1998
▁bt	-1999
iate	-2000
more	-2001
▁saving	-2002
iss	-2003
▁bear	-2004
▁blame	-2005
▁digital	-2006
mber	-2007
▁jun	-2008
▁sun	-2009
▁vot	-2010
▁freel	-2011
ironment	-2012
eric	-2013
▁maintain	-2014
▁environment	-2015
▁cuz	-2016
▁tre	-2017
annel	-2018
▁wife	-2019
▁relationship	-2020
▁tb	-2021
▁die	-2022
▁highly	-2023
▁living	-2024
▁youtube	-2025
▁star	-2026
▁wear	-2027
▁24	-2028
action	-2029
▁milit	-2030
eme	-2031
▁review	-2032
▁traffic	-2033
▁pat	-2034
go	-2035
loor	-2036
▁attack	-2037
▁hol	-2038
▁ppl	-2039
outer	-2040
▁heav	-2041
▁ant	-2042
▁unit	-2043
▁unlim	-2044
▁popular	-2045
ai	-2046
▁press	-2047
▁letter	-2048
▁folk	-2049
▁canada	-2050
▁muslim	-2051
▁channel	-2052
▁license	-2053
▁qualification	-2054
orce	-2055
▁mat	-2056
▁applic	-2057
▁perform	-2058
▁complain	-2059
lk	-2060
▁ign	-2061
▁passport	-2062
▁grin	-2063
▁balance	-2064
▁unlimited	-2065
200	-2066
▁gl	-2067
▁prem	-2068
▁till	-2069
▁match	-2070
▁reply	-2071
▁total	-2072
▁surpri	-2073
▁multiple	-2074
change	-2075
gal	-2076
▁16	-2077
▁stra	-2078
▁capital	-2079
▁grinning	-2080
▁cam	-2081
▁vacc	-2082
▁smart	-2083
▁honest	-2084
▁anymore	-2085
▁ach	-2086
▁crime	-2087
▁facebook	-2088
▁location	-2089
emic	-2090
▁among	-2091
▁refer	-2092
▁altern	-2093
▁decade	-2094
▁overse	-2095
▁remote	-2096
nch	-2097
iful	-2098
▁router	-2099
▁resource	-2100
▁indep	-2101
▁raise	-2102
▁hor	-2103
▁aut	-2104
▁2025	-2105
▁email	-2106
▁track	-2107
▁boy	-2108
▁beautiful	-2109
ogn	-2110
sha	-2111
und	-2112
▁ele	-2113
▁imag	-2114
▁meth	-2115
▁commer	-2116
▁contract	-2117
istry	-2118
▁dest	-2119
▁property	-2120
▁commit	-2121
▁physical	-2122
▁idk	-2123
▁rout	-2124
▁oh	-2125
▁otherwise	-2126
apore	-2127
▁finish	-2128
▁military	-2129
▁sex	-2130
▁prep	-2131
▁space	-2132
▁americ	-2133
▁address	-2134
▁certific	-2135
▁brother	-2136
▁singapore	-2137
▁certificate	-2138
oe	-2139
sb	-2140
▁fight	-2141
cry	-2142
▁13	-2143
▁dad	-2144
▁sliit	-2145
fc	-2146
▁btw	-2147
▁char	-2148
▁recogn	-2149
▁suppose	-2150
rist	-2151
▁college	-2152
▁ille	-2153
▁independ	-2154
▁apartment	-2155
▁army	-2156
▁clot	-2157
▁acad	-2158
▁push	-2159
app	-2160
▁mainly	-2161
▁regular	-2162
▁sn	-2163
▁mist	-2164
▁rand	-2165
▁crazy	-2166
ground	-2167
▁realize	-2168
▁exchange	-2169
▁fake	-2170
▁replace	-2171
▁fold	-2172
▁eye	-2173
▁cool	-2174
▁anura	-2175
▁overseas	-2176
bit	-2177
▁code	-2178
▁user	-2179
▁central	-2180
▁14	-2181
▁don	-2182
quest	-2183
▁tend	-2184
▁loudly	-2185
▁properly	-2186
ych	-2187
rage	-2188
▁ban	-2189
▁catch	-2190
▁obviously	-2191
ugh	-2192
yer	-2193
▁dm	-2194
▁black	-2195
▁drink	-2196
▁staff	-2197
▁progress	-2198
iot	-2199
▁ess	-2200
ively	-2201
ergy	-2202
▁club	-2203
▁ethn	-2204
▁sale	-2205
crying	-2206
▁random	-2207
▁content	-2208
▁file	-2209
▁page	-2210
▁fully	-2211
▁appoint	-2212
▁educate	-2213
hear	-2214
▁imo	-2215
▁wise	-2216
sed	-2217
rest	-2218
ester	-2219
▁request	-2220
▁extremely	-2221
▁smiling	-2222
▁vs	-2223
otion	-2224
▁lect	-2225
▁remain	-2226
▁suffer	-2227
▁vol	-2228
▁block	-2229
▁marry	-2230
plement	-2231
▁imagine	-2232
▁fem	-2233
▁separ	-2234
▁lawyer	-2235
▁method	-2236
▁implement	-2237
ec	-2238
▁aw	-2239
▁ut	-2240
like	-2241
▁goal	-2242
▁several	-2243
▁startup	-2244
▁alternative	-2245
ays	-2246
mer	-2247
ction	-2248
inate	-2249
▁fire	-2250
▁legit	-2251
▁amazing	-2252
orrow	-2253
▁occ	-2254
▁station	-2255
▁gym	-2256
▁lie	-2257
▁stri	-2258
▁achieve	-2259
▁promise	-2260
▁srilankan	-2261
ief	-2262
dding	-2263
▁marriage	-2264
racy	-2265
▁arg	-2266
▁gam	-2267
▁folded	-2268
▁record	-2269
▁wedding	-2270
ince	-2271
osit	-2272
▁deep	-2273
▁front	-2274
▁grade	-2275
▁attend	-2276
▁officer	-2277
ding	-2278
vant	-2279
▁cir	-2280
▁jour	-2281
▁ip	-2282
▁cli	-2283
▁immig	-2284
▁listen	-2285
▁finally	-2286
▁reality	-2287
rd	-2288
▁ju	-2289
care	-2290
▁sam	-2291
inese	-2292
▁seat	-2293
▁topic	-2294
▁senior	-2295
▁requirement	-2296
▁doubt	-2297
▁psych	-2298
▁population	-2299
▁interesting	-2300
10	-2301
ili	-2302
ball	-2303
▁usa	-2304
▁ship	-2305
▁carry	-2306
▁global	-2307
▁illegal	-2308
▁particular	-2309
gust	-2310
olar	-2311
▁fav	-2312
▁export	-2313
▁street	-2314
▁activity	-2315
▁anywhere	-2316
▁buddhist	-2317
▁background	-2318
gic	-2319
▁bare	-2320
▁slight	-2321
▁chinese	-2322
▁department	-2323
▁mb	-2324
▁aud	-2325
▁lux	-2326
sitive	-2327
▁morning	-2328
▁apparent	-2329
irm	-2330
▁500	-2331
▁dog	-2332
▁demo	-2333
▁truly	-2334
▁deposit	-2335
ext	-2336
▁inn	-2337
▁jaff	-2338
▁cyber	-2339
▁repair	-2340
▁temple	-2341
ape	-2342
band	-2343
▁anal	-2344
▁brit	-2345
▁chem	-2346
idence	-2347
▁inside	-2348
▁seriously	-2349
▁technology	-2350
ung	-2351
skin	-2352
▁ride	-2353
▁tour	-2354
▁purs	-2355
osition	-2356
▁batter	-2357
▁release	-2358
▁mahind	-2359
istration	-2360
▁communic	-2361
▁electricity	-2362
▁jud	-2363
▁beha	-2364
▁fill	-2365
▁father	-2366
▁consult	-2367
cip	-2368
▁coast	-2369
▁dream	-2370
▁final	-2371
▁ident	-2372
▁context	-2373
ics	-2374
▁tar	-2375
alent	-2376
▁jaffna	-2377
▁intro	-2378
▁fellow	-2379
▁pickme	-2380
unch	-2381
▁key	-2382
▁comb	-2383
▁democ	-2384
▁corpor	-2385
▁ethnic	-2386
▁perfect	-2387
tone	-2388
▁the	-2389
▁scholar	-2390
▁welcome	-2391
▁bur	-2392
▁tho	-2393
▁route	-2394
smiling	-2395
▁settle	-2396
▁overall	-2397
30	-2398
iner	-2399
▁fru	-2400
▁sat	-2401
pose	-2402
▁del	-2403
iriya	-2404
▁body	-2405
▁mark	-2406
▁vers	-2407
▁pursue	-2408
▁battery	-2409
▁straight	-2410
▁everywhere	-2411
▁80	-2412
▁sj	-2413
▁god	-2414
▁ver	-2415
heart	-2416
▁dumb	-2417
▁minute	-2418
ighb	-2419
friend	-2420
▁stress	-2421
▁confuse	-2422
▁express	-2423
irt	-2424
rug	-2425
▁300	-2426
▁mine	-2427
erv	-2428
onse	-2429
rowd	-2430
▁dev	-2431
▁cook	-2432
▁neighb	-2433
▁explore	-2434
sing	-2435
▁hide	-2436
▁seek	-2437
▁surv	-2438
▁vict	-2439
▁idiot	-2440
▁clearly	-2441
▁potential	-2442
pping	-2443
sweat	-2444
▁article	-2445
▁confirm	-2446
▁religious	-2447
uwara	-2448
▁anybody	-2449
▁despite	-2450
▁apparently	-2451
hap	-2452
▁17	-2453
▁sla	-2454
▁chat	-2455
▁growth	-2456
▁impact	-2457
▁building	-2458
ling	-2459
▁found	-2460
▁totally	-2461
▁institution	-2462
▁dut	-2463
▁max	-2464
▁alth	-2465
▁specifically	-2466
cel	-2467
▁60	-2468
▁solid	-2469
▁arrive	-2470
▁wealth	-2471
▁manager	-2472
▁specially	-2473
▁mr	-2474
▁enc	-2475
▁sig	-2476
▁genuinely	-2477
▁comfortable	-2478
▁hopefully	-2479
lt	-2480
ze	-2481
sec	-2482
▁guide	-2483
▁although	-2484
▁cs	-2485
▁nam	-2486
▁effort	-2487
▁generally	-2488
ny	-2489
▁damn	-2490
▁bunch	-2491
▁fly	-2492
▁tbh	-2493
▁board	-2494
▁photo	-2495
▁throw	-2496
cs	-2497
▁tu	-2498
ogra	-2499
reddit	-2500
▁brain	-2501
▁energy	-2502
▁safety	-2503
dra	-2504
▁fd	-2505
anda	-2506
▁emb	-2507
▁sjb	-2508
▁prove	-2509
▁region	-2510
cast	-2511
cist	-2512
▁nob	-2513
▁recover	-2514
▁opposition	-2515
▁application	-2516
mm	-2517
▁jan	-2518
▁joke	-2519
▁original	-2520
▁death	-2521
▁immed	-2522
▁nuwara	-2523
▁subreddit	-2524
▁scholarship	-2525
ery	-2526
▁eg	-2527
▁ep	-2528
▁pict	-2529
▁rise	-2530
▁wage	-2531
▁union	-2532
▁supply	-2533
▁solve	-2534
▁double	-2535
▁picture	-2536
▁marketing	-2537
▁35	-2538
▁grand	-2539
▁download	-2540
med	-2541
▁er	-2542
▁web	-2543
▁crypto	-2544
▁mahinda	-2545
▁q	-2546
▁bir	-2547
▁host	-2548
▁king	-2549
▁cance	-2550
▁heart	-2551
▁client	-2552
room	-2553
▁mix	-2554
erial	-2555
▁2024	-2556
▁compla	-2557
▁billion	-2558
ked	-2559
rast	-2560
▁oil	-2561
▁vibe	-2562
▁broker	-2563
cent	-2564
▁none	-2565
▁factor	-2566
▁contrib	-2567
▁eventually	-2568
omb	-2569
least	-2570
▁text	-2571
▁expert	-2572
▁rolling	-2573
▁undergra	-2574
▁regardless	-2575
imal	-2576
▁fil	-2577
floor	-2578
▁asia	-2579
▁atleast	-2580
ule	-2581
▁90	-2582
▁bet	-2583
▁pan	-2584
▁dead	-2585
▁hang	-2586
▁luxury	-2587
▁modern	-2588
av	-2589
to	-2590
▁fle	-2591
▁gar	-2592
▁nat	-2593
▁stable	-2594
▁reasonable	-2595
▁nic	-2596
allen	-2597
▁skin	-2598
▁crowd	-2599
▁target	-2600
ney	-2601
enty	-2602
▁drug	-2603
▁exec	-2604
▁miri	-2605
▁birth	-2606
▁nobody	-2607
▁delivery	-2608
ram	-2609
▁pc	-2610
gger	-2611
rible	-2612
▁tele	-2613
▁challen	-2614
▁mistake	-2615
▁facility	-2616
▁complaint	-2617
ies	-2618
itel	-2619
stic	-2620
▁now	-2621
▁affordable	-2622
ceed	-2623
▁she	-2624
vent	-2625
▁sle	-2626
▁wild	-2627
▁asset	-2628
▁trading	-2629
itor	-2630
▁oct	-2631
▁sil	-2632
▁copy	-2633
▁advise	-2634
▁campus	-2635
▁present	-2636
▁namal	-2637
▁arrest	-2638
▁academic	-2639
▁response	-2640
▁foundation	-2641
how	-2642
empt	-2643
▁tia	-2644
▁2022	-2645
▁necessary	-2646
cing	-2647
plom	-2648
▁eli	-2649
▁hyp	-2650
▁inte	-2651
▁suit	-2652
▁trou	-2653
resent	-2654
▁motor	-2655
▁diplom	-2656
▁warrant	-2657
ssa	-2658
what	-2659
phant	-2660
▁entry	-2661
▁female	-2662
▁mindset	-2663
▁prepare	-2664
▁employer	-2665
ience	-2666
▁band	-2667
▁milk	-2668
▁ground	-2669
▁incident	-2670
▁mate	-2671
▁ignore	-2672
▁british	-2673
▁rag	-2674
ronic	-2675
▁july	-2676
▁loss	-2677
▁autom	-2678
spective	-2679
▁greatly	-2680
▁version	-2681
▁positive	-2682
▁ir	-2683
▁pull	-2684
▁zero	-2685
▁trouble	-2686
▁elephant	-2687
nam	-2688
▁45	-2689
iece	-2690
▁bot	-2691
▁going	-2692
▁truth	-2693
▁discuss	-2694
▁promote	-2695
ady	-2696
rid	-2697
▁hur	-2698
arily	-2699
▁fort	-2700
▁cancel	-2701
▁weekend	-2702
▁restrict	-2703
▁21	-2704
▁reven	-2705
▁steal	-2706
▁convers	-2707
▁mobitel	-2708
▁passion	-2709
▁survive	-2710
▁american	-2711
▁slightly	-2712
▁traditional	-2713
pper	-2714
▁fear	-2715
▁eliya	-2716
▁score	-2717
▁serve	-2718
▁cultural	-2719
▁ik	-2720
▁mech	-2721
ourage	-2722
▁asian	-2723
▁massive	-2724
▁represent	-2725
▁pun	-2726
ender	-2727
press	-2728
▁print	-2729
▁flight	-2730
▁by	-2731
▁150	-2732
▁iit	-2733
force	-2734
▁wind	-2735
▁remind	-2736
▁friendly	-2737
▁rajapaksa	-2738
acy	-2739
▁22	-2740
▁pa	-2741
▁rw	-2742
▁cse	-2743
▁rap	-2744
▁vill	-2745
fficient	-2746
oth	-2747
▁ig	-2748
anger	-2749
▁coll	-2750
▁rank	-2751
▁suck	-2752
▁consum	-2753
▁reform	-2754
▁physics	-2755
▁purpose	-2756
▁tuition	-2757
▁influence	-2758
mp	-2759
draw	-2760
iday	-2761
▁bab	-2762
atory	-2763
▁town	-2764
inerary	-2765
▁terror	-2766
lan	-2767
unt	-2768
arant	-2769
▁dece	-2770
▁flag	-2771
▁voter	-2772
▁racist	-2773
▁season	-2774
▁pressure	-2775
▁institute	-2776
▁itinerary	-2777
▁conv	-2778
▁touch	-2779
▁weird	-2780
▁yester	-2781
▁warranty	-2782
▁fr	-2783
atuwa	-2784
▁prior	-2785
▁ready	-2786
▁statement	-2787
▁commission	-2788
▁discussion	-2789
ix	-2790
fore	-2791
▁din	-2792
▁hat	-2793
▁ult	-2794
▁cele	-2795
▁cine	-2796
▁broad	-2797
itution	-2798
▁convert	-2799
▁healthcare	-2800
▁fb	-2801
ulty	-2802
▁1000	-2803
▁wifi	-2804
▁center	-2805
▁disapp	-2806
▁nature	-2807
▁threat	-2808
▁holiday	-2809
▁mirissa	-2810
▁withdraw	-2811
▁yesterday	-2812
place	-2813
▁agent	-2814
ruction	-2815
▁plenty	-2816
▁deserve	-2817
mon	-2818
per	-2819
hold	-2820
▁adult	-2821
▁ahead	-2822
▁chill	-2823
▁approach	-2824
wards	-2825
▁green	-2826
▁feedback	-2827
▁minority	-2828
▁negative	-2829
▁transaction	-2830
we	-2831
rop	-2832
▁2019	-2833
▁mach	-2834
▁trend	-2835
▁refuse	-2836
▁banking	-2837
▁mp	-2838
arma	-2839
▁gas	-2840
▁scen	-2841
▁reput	-2842
▁spread	-2843
▁district	-2844
▁separate	-2845
▁sigiriya	-2846
dden	-2847
ibly	-2848
ried	-2849
▁coun	-2850
▁song	-2851
▁heavy	-2852
▁piece	-2853
▁moratuwa	-2854
▁commercial	-2855
▁employment	-2856
edom	-2857
▁proof	-2858
▁usual	-2859
▁faculty	-2860
▁challenge	-2861
br	-2862
▁hy	-2863
▁je	-2864
fact	-2865
▁cab	-2866
achel	-2867
▁calc	-2868
▁percent	-2869
▁authority	-2870
▁km	-2871
▁bat	-2872
▁cey	-2873
▁lay	-2874
▁lin	-2875
▁baby	-2876
▁bull	-2877
ograph	-2878
▁sleep	-2879
▁third	-2880
▁critic	-2881
aign	-2882
▁bag	-2883
▁pain	-2884
▁rare	-2885
▁tough	-2886
ergency	-2887
▁reject	-2888
▁freedom	-2889
▁preferably	-2890
achelor	-2891
etic	-2892
▁bey	-2893
▁tom	-2894
antage	-2895
▁behav	-2896
▁fiber	-2897
▁screen	-2898
▁campaign	-2899
▁training	-2900
▁cat	-2901
▁shi	-2902
▁valid	-2903
▁unlike	-2904
▁justice	-2905
▁revenue	-2906
▁attention	-2907
anch	-2908
▁ict	-2909
▁pure	-2910
▁infrast	-2911
▁patient	-2912
▁reserve	-2913
▁advantage	-2914
▁corporate	-2915
▁den	-2916
▁2000	-2917
▁asso	-2918
▁germ	-2919
levant	-2920
▁secure	-2921
▁status	-2922
▁emergency	-2923
let	-2924
▁firm	-2925
▁glad	-2926
▁prof	-2927
▁bachelor	-2928
urer	-2929
▁pla	-2930
▁burn	-2931
▁ceyl	-2932
▁performance	-2933
▁infrastructure	-2934
▁hr	-2935
antly	-2936
▁shoe	-2937
cially	-2938
▁japan	-2939
▁plant	-2940
▁beyond	-2941
15	-2942
sapp	-2943
▁fra	-2944
▁mem	-2945
▁rev	-2946
▁toy	-2947
▁pred	-2948
▁race	-2949
▁frust	-2950
▁shift	-2951
▁barely	-2952
▁useful	-2953
60	-2954
bu	-2955
pa	-2956
ask	-2957
eyes	-2958
hood	-2959
rael	-2960
ughe	-2961
▁thr	-2962
▁duty	-2963
ension	-2964
laughe	-2965
▁working	-2966
cism	-2967
▁son	-2968
grade	-2969
ufact	-2970
▁lease	-2971
▁retire	-2972
▁discount	-2973
style	-2974
▁oper	-2975
▁rice	-2976
▁colon	-2977
▁scene	-2978
▁sudden	-2979
scription	-2980
ike	-2981
▁70	-2982
right	-2983
▁guid	-2984
▁hike	-2985
cipline	-2986
▁thread	-2987
▁gre	-2988
▁var	-2989
▁feat	-2990
▁solo	-2991
▁device	-2992
▁introduce	-2993
rel	-2994
life	-2995
▁meal	-2996
▁ruin	-2997
▁israel	-2998
▁talent	-2999
▁manufact	-3000
hone	-3001
▁dub	-3002
▁hut	-3003
▁investor	-3004
eel	-3005
ault	-3006
shit	-3007
ster	-3008
▁got	-3009
ciation	-3010
▁christ	-3011
▁useless	-3012
iex	-3013
xic	-3014
mbps	-3015
▁cas	-3016
▁ton	-3017
rimin	-3018
▁apart	-3019
▁image	-3020
▁resign	-3021
▁approve	-3022
▁perspective	-3023
▁responsibility	-3024
una	-3025
ized	-3026
▁pra	-3027
▁abuse	-3028
▁aliex	-3029
▁fresh	-3030
▁agency	-3031
▁strike	-3032
▁emotion	-3033
▁somehow	-3034
▁investig	-3035
▁practical	-3036
▁discipline	-3037
do	-3038
▁34	-3039
ober	-3040
itude	-3041
▁analy	-3042
▁judge	-3043
ression	-3044
▁former	-3045
▁insane	-3046
▁presidential	-3047
gy	-3048
nb	-3049
oda	-3050
sel	-3051
ibre	-3052
▁clar	-3053
▁prime	-3054
▁secret	-3055
▁tomorrow	-3056
board	-3057
▁cafe	-3058
▁coff	-3059
▁admin	-3060
▁hence	-3061
▁august	-3062
▁mechan	-3063
▁feature	-3064
▁whatsapp	-3065
ka	-3066
ider	-3067
just	-3068
▁arch	-3069
▁slpp	-3070
isation	-3071
▁permit	-3072
▁attempt	-3073
▁material	-3074
▁ic	-3075
▁tool	-3076
ablish	-3077
iately	-3078
▁creat	-3079
▁limited	-3080
▁negombo	-3081
▁violence	-3082
▁immediately	-3083
ov	-3084
▁bs	-3085
oice	-3086
▁lak	-3087
istan	-3088
▁2023	-3089
▁airline	-3090
▁vaccine	-3091
▁various	-3092
▁december	-3093
ini	-3094
▁celeb	-3095
urb	-3096
▁bay	-3097
▁nove	-3098
▁surf	-3099
▁clothe	-3100
ced	-3101
▁ge	-3102
▁sept	-3103
▁racism	-3104
▁strate	-3105
▁aliexpress	-3106
▁electronic	-3107
▁bc	-3108
uary	-3109
▁opt	-3110
▁size	-3111
▁scale	-3112
▁trump	-3113
▁concept	-3114
▁and	-3115
▁bed	-3116
▁fri	-3117
asing	-3118
▁russ	-3119
mission	-3120
▁animal	-3121
▁unique	-3122
oss	-3123
▁my	-3124
itive	-3125
▁ball	-3126
▁fibre	-3127
▁stage	-3128
▁compar	-3129
▁lankas	-3130
▁democracy	-3131
▁competition	-3132
itt	-3133
ril	-3134
▁od	-3135
▁fal	-3136
▁apple	-3137
▁produce	-3138
▁addition	-3139
▁november	-3140
▁conversation	-3141
▁registration	-3142
king	-3143
rier	-3144
▁bond	-3145
▁ceylon	-3146
▁responsible	-3147
▁constitution	-3148
term	-3149
▁mer	-3150
▁nar	-3151
▁delay	-3152
▁taste	-3153
▁damage	-3154
▁guarant	-3155
▁prevent	-3156
▁evidence	-3157
▁football	-3158
▁developer	-3159
▁establish	-3160
loc	-3161
▁cv	-3162
ival	-3163
▁alot	-3164
▁cross	-3165
▁table	-3166
▁petrol	-3167
▁freelan	-3168
▁indians	-3169
hi	-3170
lete	-3171
▁deb	-3172
▁shy	-3173
medium	-3174
▁style	-3175
▁iphone	-3176
▁ideally	-3177
▁worried	-3178
▁contribute	-3179
ans	-3180
pay	-3181
lict	-3182
roll	-3183
unte	-3184
▁byd	-3185
▁hon	-3186
▁hus	-3187
asion	-3188
▁mand	-3189
▁shame	-3190
▁transl	-3191
▁conduct	-3192
▁october	-3193
▁financially	-3194
▁communication	-3195
▁pls	-3196
▁unf	-3197
▁jump	-3198
▁immigration	-3199
tuk	-3200
▁mur	-3201
▁phd	-3202
▁tin	-3203
▁load	-3204
▁male	-3205
▁rela	-3206
ossible	-3207
▁branch	-3208
▁punish	-3209
▁shitty	-3210
▁strict	-3211
▁shipping	-3212
▁wt	-3213
hole	-3214
urch	-3215
▁pen	-3216
▁hurt	-3217
▁husband	-3218
▁machine	-3219
▁shortage	-3220
▁rajapaksha	-3221
ood	-3222
rif	-3223
▁sem	-3224
▁prim	-3225
unteer	-3226
▁advert	-3227
▁bottle	-3228
▁volunteer	-3229
▁additional	-3230
▁impossible	-3231
col	-3232
eas	-3233
oon	-3234
anese	-3235
hands	-3236
ounce	-3237
stain	-3238
utive	-3239
▁false	-3240
▁buying	-3241
▁divide	-3242
▁attract	-3243
▁consist	-3244
▁guarantee	-3245
gth	-3246
put	-3247
▁kn	-3248
▁aim	-3249
▁bsc	-3250
▁flu	-3251
▁log	-3252
▁mag	-3253
▁rat	-3254
enance	-3255
▁rural	-3256
▁active	-3257
▁lately	-3258
▁should	-3259
▁spending	-3260
▁freelance	-3261
▁treatment	-3262
har	-3263
key	-3264
llab	-3265
▁pak	-3266
urate	-3267
▁queue	-3268
▁camera	-3269
▁scheme	-3270
▁essential	-3271
za	-3272
utor	-3273
ulous	-3274
scribe	-3275
▁toxic	-3276
▁coffee	-3277
▁conven	-3278
▁tuktuk	-3279
▁operate	-3280
▁accident	-3281
iy	-3282
pet	-3283
▁lg	-3284
down	-3285
▁wide	-3286
▁annoy	-3287
▁church	-3288
▁lecture	-3289
▁somewhat	-3290
uc	-3291
den	-3292
oke	-3293
▁cru	-3294
▁dress	-3295
▁locally	-3296
▁discrimin	-3297
hol	-3298
lus	-3299
ariff	-3300
edule	-3301
▁sadly	-3302
▁youth	-3303
▁engage	-3304
▁rental	-3305
▁syllab	-3306
▁climate	-3307
▁monitor	-3308
▁lifestyle	-3309
▁organization	-3310
play	-3311
year	-3312
▁data	-3313
▁hind	-3314
▁pres	-3315
▁root	-3316
▁trin	-3317
▁fault	-3318
▁ideal	-3319
▁relax	-3320
sidency	-3321
▁regret	-3322
▁tariff	-3323
▁highway	-3324
▁confused	-3325
▁restriction	-3326
▁coz	-3327
▁mad	-3328
▁rad	-3329
▁sick	-3330
▁liber	-3331
▁rough	-3332
▁setup	-3333
▁submit	-3334
▁diploma	-3335
▁sustain	-3336
▁executive	-3337
▁september	-3338
▁nur	-3339
▁obt	-3340
▁lady	-3341
▁crimin	-3342
▁estate	-3343
▁malays	-3344
▁obtain	-3345
▁sister	-3346
entially	-3347
▁ministry	-3348
▁encourage	-3349
▁recognize	-3350
ost	-3351
ocent	-3352
▁bang	-3353
▁june	-3354
▁when	-3355
▁april	-3356
▁assist	-3357
▁player	-3358
▁japanese	-3359
ta	-3360
▁eu	-3361
▁map	-3362
inger	-3363
▁left	-3364
▁peak	-3365
▁rely	-3366
coming	-3367
▁twice	-3368
▁pharma	-3369
▁toyota	-3370
▁upgrade	-3371
▁construction	-3372
new	-3373
ague	-3374
▁bon	-3375
▁cro	-3376
▁her	-3377
▁sent	-3378
iction	-3379
▁cycle	-3380
▁conflict	-3381
▁relevant	-3382
▁maintenance	-3383
dp	-3384
roy	-3385
▁bru	-3386
▁mac	-3387
▁advis	-3388
▁histor	-3389
▁install	-3390
▁bankrupt	-3391
▁guidance	-3392
▁successful	-3393
nal	-3394
▁27	-3395
anth	-3396
▁box	-3397
▁flex	-3398
▁gift	-3399
▁criminal	-3400
▁chemistry	-3401
ugam	-3402
▁400	-3403
▁aspect	-3404
▁legally	-3405
▁neighbor	-3406
▁provider	-3407
▁associate	-3408
▁citizenship	-3409
▁lma	-3410
▁vat	-3411
▁bomb	-3412
▁door	-3413
▁samp	-3414
▁upper	-3415
▁annual	-3416
▁lesson	-3417
▁paypal	-3418
▁january	-3419
▁consumer	-3420
▁innocent	-3421
▁pakistan	-3422
▁syllabus	-3423
▁whenever	-3424
awa	-3425
lass	-3426
link	-3427
sequ	-3428
sung	-3429
▁250	-3430
▁pod	-3431
agram	-3432
▁monk	-3433
▁rock	-3434
▁bother	-3435
▁distance	-3436
▁priority	-3437
25	-3438
ario	-3439
ison	-3440
verse	-3441
▁diss	-3442
▁negot	-3443
▁ridic	-3444
▁shoot	-3445
▁appear	-3446
▁natural	-3447
▁agreement	-3448
▁undergraduate	-3449
19	-3450
▁argu	-3451
▁unre	-3452
▁blood	-3453
▁favor	-3454
▁schedule	-3455
fs	-3456
▁flo	-3457
▁lond	-3458
▁poll	-3459
▁equal	-3460
▁repeat	-3461
▁signal	-3462
▁destroy	-3463
▁feeling	-3464
▁meeting	-3465
▁sampath	-3466
▁bullshit	-3467
imb	-3468
une	-3469
▁squ	-3470
▁fest	-3471
▁murder	-3472
▁anyways	-3473
▁quickly	-3474
rs	-3475
but	-3476
rit	-3477
▁adop	-3478
▁vari	-3479
▁dubai	-3480
ologist	-3481
▁migration	-3482
▁structure	-3483
▁independent	-3484
vey	-3485
ivity	-3486
▁circ	-3487
▁tire	-3488
▁funny	-3489
▁march	-3490
▁dinner	-3491
▁fairly	-3492
▁london	-3493
▁slowly	-3494
▁everyday	-3495
▁peaceful	-3496
▁province	-3497
▁instagram	-3498
▁girlfriend	-3499
▁appointment	-3500
▁28	-3501
▁san	-3502
▁alle	-3503
▁fish	-3504
▁prin	-3505
▁window	-3506
▁healthy	-3507
▁journey	-3508
▁transportation	-3509
mas	-3510
bage	-3511
haps	-3512
▁gem	-3513
conut	-3514
lanka	-3515
▁arag	-3516
▁valu	-3517
▁usage	-3518
▁danger	-3519
▁counter	-3520
▁journal	-3521
▁effective	-3522
▁intention	-3523
illed	-3524
point	-3525
▁four	-3526
▁lmao	-3527
▁tutor	-3528
▁cinema	-3529
▁gender	-3530
▁perhaps	-3531
▁direction	-3532
▁competitive	-3533
▁cod	-3534
acity	-3535
encer	-3536
▁skip	-3537
▁blind	-3538
▁bonus	-3539
▁uncle	-3540
▁voice	-3541
▁delete	-3542
▁perman	-3543
▁seller	-3544
▁coconut	-3545
▁session	-3546
▁scenario	-3547
▁surprised	-3548
▁regulation	-3549
yal	-3550
▁cous	-3551
rating	-3552
▁batch	-3553
▁tempor	-3554
▁ability	-3555
▁complex	-3556
▁pharmacy	-3557
asa	-3558
eech	-3559
sess	-3560
▁arr	-3561
▁pal	-3562
▁blue	-3563
▁busy	-3564
▁hutch	-3565
▁solar	-3566
▁assign	-3567
▁victim	-3568
▁fucking	-3569
▁resident	-3570
▁bio	-3571
▁esc	-3572
▁cousin	-3573
▁deduct	-3574
▁display	-3575
▁heavily	-3576
▁section	-3577
▁function	-3578
▁therefore	-3579
▁26	-3580
ssed	-3581
ssle	-3582
▁2015	-3583
ternal	-3584
▁ensure	-3585
▁independence	-3586
gue	-3587
▁ie	-3588
while	-3589
▁lucky	-3590
▁labour	-3591
▁enforce	-3592
▁justify	-3593
▁realise	-3594
▁reflect	-3595
▁mentality	-3596
▁disappoint	-3597
▁ridiculous	-3598
uck	-3599
urd	-3600
▁dom	-3601
▁gdp	-3602
ified	-3603
kedin	-3604
▁dark	-3605
ertain	-3606
▁chick	-3607
▁bugger	-3608
▁hassle	-3609
▁garbage	-3610
▁attitude	-3611
▁buddhism	-3612
▁entirely	-3613
▁starlink	-3614
▁supporter	-3615
▁technical	-3616
ateg	-3617
▁hnb	-3618
ommod	-3619
▁taxi	-3620
imately	-3621
▁village	-3622
▁generate	-3623
▁terrible	-3624
▁valuable	-3625
▁celebrate	-3626
▁destination	-3627
90	-3628
hal	-3629
ull	-3630
uri	-3631
ught	-3632
▁hom	-3633
▁mea	-3634
▁bail	-3635
▁clue	-3636
▁weak	-3637
▁aside	-3638
▁categ	-3639
▁ikman	-3640
▁refund	-3641
▁skilled	-3642
▁influencer	-3643
▁relatively	-3644
12	-3645
da	-3646
cil	-3647
fia	-3648
off	-3649
araz	-3650
arden	-3651
▁beat	-3652
▁lock	-3653
▁swim	-3654
▁index	-3655
▁proud	-3656
▁aragal	-3657
▁lecturer	-3658
▁linkedin	-3659
▁strategy	-3660
pe	-3661
vy	-3662
rative	-3663
▁basis	-3664
▁daraz	-3665
▁unable	-3666
security	-3667
▁accommod	-3668
▁european	-3669
▁identify	-3670
▁particip	-3671
▁freelancer	-3672
eth	-3673
ancy	-3674
vote	-3675
▁bul	-3676
▁gun	-3677
▁jew	-3678
▁kick	-3679
▁upon	-3680
▁easter	-3681
▁voting	-3682
▁arrival	-3683
▁initial	-3684
▁samsung	-3685
▁approval	-3686
▁external	-3687
▁percentage	-3688
cl	-3689
ler	-3690
raid	-3691
▁but	-3692
▁era	-3693
arket	-3694
▁meme	-3695
▁yala	-3696
▁frequ	-3697
▁expectation	-3698
sy	-3699
ruit	-3700
▁sum	-3701
▁ten	-3702
▁wtf	-3703
igama	-3704
▁equip	-3705
▁forex	-3706
▁mafia	-3707
▁donate	-3708
▁nearby	-3709
▁weight	-3710
▁surprise	-3711
▁ethnicity	-3712
▁preference	-3713
80	-3714
sd	-3715
rep	-3716
▁gap	-3717
iliar	-3718
▁2020	-3719
▁gate	-3720
▁haha	-3721
▁lgbt	-3722
▁susp	-3723
▁ther	-3724
ousand	-3725
▁trash	-3726
▁author	-3727
▁intell	-3728
▁movement	-3729
fl	-3730
ngth	-3731
adays	-3732
enger	-3733
▁anti	-3734
▁mount	-3735
▁renew	-3736
▁afraid	-3737
▁beside	-3738
▁thousand	-3739
▁vacation	-3740
▁presidency	-3741
ae	-3742
amb	-3743
rem	-3744
izer	-3745
▁ceb	-3746
▁ine	-3747
▁mic	-3748
▁bott	-3749
▁hous	-3750
▁mall	-3751
▁rant	-3752
▁sold	-3753
cedure	-3754
▁bribe	-3755
▁click	-3756
▁scare	-3757
▁gaming	-3758
▁nearly	-3759
▁intellig	-3760
▁malaysia	-3761
▁nowadays	-3762
▁strength	-3763
▁aragalaya	-3764
▁procedure	-3765
thy	-3766
ping	-3767
▁ice	-3768
▁tur	-3769
▁van	-3770
▁buff	-3771
▁dict	-3772
▁film	-3773
▁fool	-3774
▁harm	-3775
▁kott	-3776
▁grant	-3777
▁manip	-3778
▁consequ	-3779
▁evening	-3780
▁exploit	-3781
▁meaning	-3782
▁measure	-3783
▁profile	-3784
▁soldier	-3785
▁birthday	-3786
▁occasion	-3787
▁teaching	-3788
▁tradition	-3789
40	-3790
dex	-3791
fol	-3792
▁ay	-3793
▁rn	-3794
▁tim	-3795
▁ital	-3796
▁scamme	-3797
▁sexual	-3798
▁council	-3799
▁housing	-3800
▁beginner	-3801
▁upcoming	-3802
iet	-3803
ima	-3804
brid	-3805
▁bor	-3806
▁epf	-3807
▁tik	-3808
▁nons	-3809
▁task	-3810
▁gradu	-3811
▁gather	-3812
▁arrange	-3813
▁premium	-3814
▁clothing	-3815
▁familiar	-3816
oph	-3817
folio	-3818
▁shar	-3819
enture	-3820
▁cream	-3821
▁round	-3822
▁arugam	-3823
▁famous	-3824
▁propag	-3825
▁longterm	-3826
▁suddenly	-3827
▁significantly	-3828
va	-3829
ata	-3830
▁ofc	-3831
▁tie	-3832
iment	-3833
▁vend	-3834
▁argue	-3835
▁depre	-3836
▁graph	-3837
▁curric	-3838
▁launch	-3839
▁portfolio	-3840
▁stability	-3841
ban	-3842
rew	-3843
▁ang	-3844
▁men	-3845
▁trap	-3846
▁elite	-3847
▁indic	-3848
▁labor	-3849
▁extend	-3850
▁theory	-3851
atically	-3852
▁advertise	-3853
▁rajapakse	-3854
dic	-3855
unk	-3856
▁dh	-3857
▁kdu	-3858
▁nom	-3859
▁nut	-3860
agama	-3861
inary	-3862
▁quit	-3863
▁shut	-3864
▁cloud	-3865
▁trick	-3866
▁bottom	-3867
▁hybrid	-3868
▁sunday	-3869
▁divorce	-3870
▁consultant	-3871
▁production	-3872
bsl	-3873
eet	-3874
mil	-3875
▁ba	-3876
pack	-3877
▁cow	-3878
ilege	-3879
under	-3880
▁libr	-3881
▁princi	-3882
▁resort	-3883
▁behavior	-3884
▁suitable	-3885
▁wildlife	-3886
ilt	-3887
iry	-3888
inge	-3889
▁amb	-3890
▁cin	-3891
▁cup	-3892
entic	-3893
▁edex	-3894
▁upto	-3895
necess	-3896
▁spons	-3897
▁series	-3898
▁library	-3899
▁argument	-3900
▁calculate	-3901
▁consequence	-3902
70	-3903
isf	-3904
ller	-3905
arian	-3906
arter	-3907
iency	-3908
otein	-3909
verty	-3910
▁draw	-3911
▁pool	-3912
▁admit	-3913
▁oppose	-3914
▁survey	-3915
▁default	-3916
▁poverty	-3917
▁respond	-3918
▁sponsor	-3919
▁division	-3920
▁festival	-3921
▁possibly	-3922
▁unnecess	-3923
▁terrorist	-3924
▁certification	-3925
emp	-3926
▁egg	-3927
▁rob	-3928
▁sky	-3929
orate	-3930
▁cbsl	-3931
▁jail	-3932
▁teen	-3933
▁fancy	-3934
▁maxim	-3935
▁burden	-3936
▁equity	-3937
▁speech	-3938
▁through	-3939
▁redditor	-3940
▁neighbour	-3941
▁specialist	-3942
▁particularly	-3943
emy	-3944
rom	-3945
▁75	-3946
goda	-3947
▁der	-3948
▁dry	-3949
▁eld	-3950
▁nsb	-3951
cohol	-3952
ailand	-3953
locate	-3954
stance	-3955
▁adopt	-3956
▁centre	-3957
▁cinnam	-3958
▁anytime	-3959
▁careful	-3960
▁chicken	-3961
▁donation	-3962
no	-3963
tok	-3964
▁ath	-3965
▁jay	-3966
▁obs	-3967
▁ple	-3968
▁coach	-3969
▁drama	-3970
▁superm	-3971
▁factory	-3972
▁category	-3973
▁cinnamon	-3974
▁thailand	-3975
▁operation	-3976
▁investigation	-3977
11	-3978
ani	-3979
cut	-3980
▁ot	-3981
▁ug	-3982
▁mel	-3983
ously	-3984
▁reve	-3985
employ	-3986
ughter	-3987
▁attach	-3988
▁extent	-3989
▁besides	-3990
▁driving	-3991
▁recruit	-3992
▁speaker	-3993
▁typical	-3994
▁convince	-3995
▁reputation	-3996
▁_	-3997
▁99	-3998
▁hund	-3999
▁shot	-4000
▁wash	-4001
▁cheer	-4002
▁debit	-4003
▁incom	-4004
olution	-4005
▁compete	-4006
▁hundred	-4007
▁announce	-4008
▁normally	-4009
▁entertain	-4010
▁equipment	-4011
▁throughout	-4012
dy	-4013
sse	-4014
iting	-4015
itiya	-4016
▁crap	-4017
▁lakh	-4018
▁crash	-4019
▁grate	-4020
▁motiv	-4021
▁shock	-4022
▁debate	-4023
▁edexcel	-4024
▁podcast	-4025
▁protein	-4026
▁capacity	-4027
▁privilege	-4028
ca	-4029
ray	-4030
fare	-4031
▁atm	-4032
▁sou	-4033
▁spl	-4034
iture	-4035
▁irre	-4036
▁liqu	-4037
▁after	-4038
▁logic	-4039
▁tired	-4040
▁married	-4041
awe	-4042
orn	-4043
itie	-4044
itect	-4045
▁heat	-4046
▁color	-4047
▁ignor	-4048
▁input	-4049
▁laugh	-4050
▁circle	-4051
▁pocket	-4052
▁tiktok	-4053
▁vendor	-4054
▁clarify	-4055
▁compens	-4056
▁trincom	-4057
▁identity	-4058
▁authentic	-4059
▁protection	-4060
fa	-4061
hd	-4062
wa	-4063
anay	-4064
apse	-4065
lare	-4066
olit	-4067
ooth	-4068
▁feb	-4069
▁mos	-4070
▁deny	-4071
▁iron	-4072
▁kore	-4073
▁floor	-4074
▁excuse	-4075
▁combine	-4076
ich	-4077
abil	-4078
alee	-4079
▁ali	-4080
▁piz	-4081
phone	-4082
▁buddy	-4083
▁cabin	-4084
▁recon	-4085
▁risky	-4086
▁stuck	-4087
▁buffet	-4088
▁complic	-4089
▁conserv	-4090
▁commerce	-4091
▁curricul	-4092
▁permanent	-4093
▁propaganda	-4094
ef	-4095
pm	-4096
▁mc	-4097
ising	-4098
uring	-4099
▁disp	-4100
▁wall	-4101
▁wher	-4102
▁favour	-4103
▁memory	-4104
▁native	-4105
▁retail	-4106
▁severe	-4107
▁subsid	-4108
▁alcohol	-4109
▁colleague	-4110
▁possibility	-4111
▁unnecessary	-4112
sl	-4113
iat	-4114
▁ben	-4115
▁pic	-4116
emote	-4117
ratic	-4118
▁boat	-4119
ortion	-4120
▁genoc	-4121
▁oppos	-4122
▁quiet	-4123
▁forest	-4124
▁booking	-4125
▁portion	-4126
▁socialist	-4127
comm	-4128
▁msc	-4129
▁wit	-4130
adasa	-4131
usion	-4132
▁farm	-4133
▁sole	-4134
▁drain	-4135
▁belong	-4136
▁rarely	-4137
▁contain	-4138
▁outdate	-4139
▁annoying	-4140
▁mandatory	-4141
▁curriculum	-4142
▁trincomalee	-4143
▁cybersecurity	-4144
hiw	-4145
ser	-4146
▁nu	-4147
assy	-4148
▁rot	-4149
▁sir	-4150
▁gang	-4151
▁nsbm	-4152
▁rail	-4153
▁align	-4154
▁approx	-4155
▁borrow	-4156
▁impose	-4157
▁america	-4158
▁entitle	-4159
▁estimate	-4160
▁grateful	-4161
▁learning	-4162
▁opposite	-4163
▁administration	-4164
24	-4165
vt	-4166
▁yo	-4167
rance	-4168
round	-4169
▁coin	-4170
▁onto	-4171
worthy	-4172
▁screw	-4173
▁belief	-4174
▁dealer	-4175
▁holder	-4176
▁mathem	-4177
▁surely	-4178
▁charact	-4179
▁disgust	-4180
▁germany	-4181
▁architect	-4182
▁constantly	-4183
dom	-4184
▁29	-4185
enda	-4186
▁eta	-4187
▁hnd	-4188
▁ird	-4189
▁odd	-4190
▁pfc	-4191
▁rip	-4192
▁urg	-4193
esome	-4194
▁bruh	-4195
▁clin	-4196
ashion	-4197
▁dance	-4198
▁initi	-4199
▁anurad	-4200
▁upload	-4201
▁primary	-4202
▁horrible	-4203
▁weligama	-4204
▁passenger	-4205
▁leadership	-4206
▁accommodation	-4207
ij	-4208
su	-4209
▁cc	-4210
awat	-4211
eral	-4212
▁gro	-4213
▁sac	-4214
agree	-4215
▁asap	-4216
▁cold	-4217
▁hust	-4218
▁quote	-4219
ography	-4220
▁adjust	-4221
▁decline	-4222
▁collapse	-4223
▁critical	-4224
▁powerful	-4225
▁character	-4226
▁promotion	-4227
▁comparison	-4228
▁communicate	-4229
▁supermarket	-4230
aka	-4231
fic	-4232
▁nt	-4233
▁ye	-4234
ians	-4235
▁dil	-4236
▁gay	-4237
▁pin	-4238
ality	-4239
▁cred	-4240
▁hero	-4241
▁sake	-4242
▁wake	-4243
▁afric	-4244
▁noise	-4245
▁incred	-4246
▁verify	-4247
▁disagree	-4248
▁genocide	-4249
▁awareness	-4250
▁temporary	-4251
csl	-4252
ino	-4253
uma	-4254
▁jr	-4255
aden	-4256
▁fed	-4257
▁ven	-4258
▁piss	-4259
▁dehiw	-4260
▁guard	-4261
▁loose	-4262
▁stack	-4263
▁wheel	-4264
▁casual	-4265
▁harass	-4266
▁united	-4267
ological	-4268
▁awesome	-4269
▁embassy	-4270
▁maximum	-4271
▁suspect	-4272
▁whoever	-4273
▁ideology	-4274
▁nonsense	-4275
▁everybody	-4276
▁previously	-4277
▁understanding	-4278
si	-4279
ali	-4280
gpt	-4281
lam	-4282
lig	-4283
free	-4284
gery	-4285
onym	-4286
▁600	-4287
▁fis	-4288
month	-4289
▁camb	-4290
▁here	-4291
▁lane	-4292
ricult	-4293
▁clown	-4294
▁pizza	-4295
▁absurd	-4296
▁therap	-4297
▁advisor	-4298
▁fashion	-4299
▁scammer	-4300
▁welfare	-4301
▁agricult	-4302
▁threaten	-4303
▁initiative	-4304
▁technically	-4305
agn	-4306
ren	-4307
cise	-4308
iour	-4309
roid	-4310
▁cima	-4311
▁hiri	-4312
▁mile	-4313
▁roll	-4314
▁tang	-4315
▁lower	-4316
▁whose	-4317
▁satisf	-4318
▁traveler	-4319
▁initially	-4320
▁reference	-4321
▁workplace	-4322
▁ya	-4323
soft	-4324
▁gig	-4325
antha	-4326
▁2021	-4327
▁pett	-4328
▁rush	-4329
colate	-4330
hapura	-4331
▁tight	-4332
▁tower	-4333
▁agenda	-4334
▁manner	-4335
▁neither	-4336
▁perfume	-4337
▁accurate	-4338
▁chocolate	-4339
▁programme	-4340
▁selection	-4341
▁discrimination	-4342
mi	-4343
ena	-4344
▁gp	-4345
lade	-4346
rene	-4347
ysis	-4348
▁anx	-4349
▁ram	-4350
▁rom	-4351
▁boot	-4352
▁label	-4353
▁lgbtq	-4354
▁sugar	-4355
▁artist	-4356
▁margin	-4357
▁reveal	-4358
▁unfair	-4359
▁biology	-4360
▁chatgpt	-4361
▁declare	-4362
▁plastic	-4363
▁predict	-4364
▁colonial	-4365
▁entrance	-4366
▁psychiat	-4367
▁unemploy	-4368
▁efficient	-4369
▁negotiate	-4370
▁regularly	-4371
▁medication	-4372
che	-4373
▁mba	-4374
▁dual	-4375
▁leaf	-4376
▁suic	-4377
▁thri	-4378
ladesh	-4379
▁guest	-4380
▁entrep	-4381
▁indeed	-4382
▁graphic	-4383
▁publish	-4384
▁civilian	-4385
▁daughter	-4386
▁southern	-4387
▁dangerous	-4388
▁exception	-4389
▁educational	-4390
500	-4391
arm	-4392
▁36	-4393
▁ly	-4394
▁nd	-4395
cery	-4396
list	-4397
mark	-4398
▁abt	-4399
▁jer	-4400
▁wow	-4401
ingly	-4402
ridge	-4403
▁hill	-4404
▁nuge	-4405
▁siri	-4406
▁chase	-4407
▁earth	-4408
▁error	-4409
▁innov	-4410
▁defend	-4411
▁garden	-4412
▁dictator	-4413
▁shopping	-4414
▁surround	-4415
▁australian	-4416
▁anuradhapura	-4417
gu	-4418
aik	-4419
ont	-4420
▁ale	-4421
anage	-4422
▁calm	-4423
urally	-4424
▁flood	-4425
▁habit	-4426
▁paint	-4427
▁expose	-4428
▁propose	-4429
▁resolve	-4430
▁concerned	-4431
▁household	-4432
▁collection	-4433
▁progressive	-4434
ika	-4435
lkr	-4436
fall	-4437
rent	-4438
▁120	-4439
▁asw	-4440
▁rug	-4441
▁elig	-4442
▁insp	-4443
▁wing	-4444
▁chain	-4445
▁curry	-4446
▁split	-4447
▁treas	-4448
▁anonym	-4449
▁appeal	-4450
▁expand	-4451
▁invite	-4452
▁prison	-4453
▁superi	-4454
▁liberal	-4455
▁witness	-4456
▁organize	-4457
▁highlight	-4458
▁immigrant	-4459
▁undergrad	-4460
▁bangladesh	-4461
▁entreprene	-4462
▁retirement	-4463
▁sustainable	-4464
not	-4465
inal	-4466
olic	-4467
▁isp	-4468
level	-4469
▁grab	-4470
▁tree	-4471
▁climb	-4472
▁flash	-4473
▁frame	-4474
▁kottu	-4475
▁sight	-4476
▁smile	-4477
▁harsha	-4478
▁safari	-4479
▁smooth	-4480
▁remotely	-4481
▁certainly	-4482
ipe	-4483
▁ud	-4484
▁cmb	-4485
▁doc	-4486
bulla	-4487
▁spam	-4488
▁wire	-4489
▁zone	-4490
gation	-4491
▁amend	-4492
▁skull	-4493
▁alevel	-4494
▁finger	-4495
▁outlet	-4496
▁regime	-4497
▁scared	-4498
▁unsure	-4499
▁earning	-4500
▁forever	-4501
▁proceed	-4502
▁premadasa	-4503
▁plantation	-4504
edy	-4505
ley	-4506
owe	-4507
ased	-4508
▁aid	-4509
▁aus	-4510
▁ong	-4511
allet	-4512
eline	-4513
▁bite	-4514
▁dish	-4515
▁five	-4516
▁nope	-4517
▁brown	-4518
▁glass	-4519
▁islam	-4520
adeniya	-4521
▁scient	-4522
▁cabinet	-4523
▁failure	-4524
▁grocery	-4525
▁privacy	-4526
▁surgery	-4527
▁nugegoda	-4528
▁fundament	-4529
▁historical	-4530
▁journalist	-4531
▁recognition	-4532
▁availability	-4533
cell	-4534
orke	-4535
▁yep	-4536
arana	-4537
bally	-4538
▁dome	-4539
▁flow	-4540
▁icbt	-4541
▁loop	-4542
▁mbps	-4543
▁chair	-4544
▁nurse	-4545
▁analyt	-4546
▁object	-4547
▁pettah	-4548
▁android	-4549
▁fitness	-4550
▁typically	-4551
▁automatically	-4552
gn	-4553
pro	-4554
▁ed	-4555
▁ko	-4556
andal	-4557
ooter	-4558
raine	-4559
▁grad	-4560
▁spec	-4561
▁crack	-4562
▁crook	-4563
▁mixed	-4564
▁tooth	-4565
▁german	-4566
▁hustle	-4567
▁patter	-4568
▁eastern	-4569
▁hiriket	-4570
▁analysis	-4571
▁downvote	-4572
▁broadband	-4573
▁mathematic	-4574
▁mechanical	-4575
▁essentially	-4576
af	-4577
city	-4578
▁fat	-4579
▁fds	-4580
▁pix	-4581
▁uae	-4582
▁pand	-4583
▁occur	-4584
▁quant	-4585
▁slave	-4586
▁smell	-4587
▁trcsl	-4588
▁urban	-4589
▁circum	-4590
▁entity	-4591
▁explan	-4592
▁junior	-4593
▁pattern	-4594
▁internal	-4595
▁depreciate	-4596
▁appreciated	-4597
▁frustrating	-4598
▁participate	-4599
▁additionally	-4600
uate	-4601
▁cha	-4602
▁gri	-4603
▁mah	-4604
▁pil	-4605
▁scr	-4606
▁2018	-4607
▁adhd	-4608
▁bent	-4609
▁cake	-4610
▁hack	-4611
▁pray	-4612
▁adapt	-4613
▁repay	-4614
ittance	-4615
▁vision	-4616
▁outcome	-4617
▁incompet	-4618
▁depression	-4619
▁intelligence	-4620
eam	-4621
▁uc	-4622
oing	-4623
otic	-4624
pora	-4625
shop	-4626
▁vit	-4627
awala	-4628
ropri	-4629
▁2026	-4630
▁lone	-4631
▁faith	-4632
▁scope	-4633
facepal	-4634
▁formal	-4635
▁intend	-4636
▁sacrif	-4637
▁overpri	-4638
▁dambulla	-4639
▁peradeniya	-4640
▁replacement	-4641
▁entrepreneur	-4642
▁accountability	-4643
rap	-4644
rain	-4645
▁vet	-4646
cient	-4647
night	-4648
osure	-4649
▁cart	-4650
▁dias	-4651
▁lift	-4652
▁mode	-4653
iation	-4654
liance	-4655
▁lunch	-4656
▁minor	-4657
▁plain	-4658
▁trave	-4659
▁wallet	-4660
▁priorit	-4661
▁related	-4662
▁selfish	-4663
▁interact	-4664
▁unlikely	-4665
▁admission	-4666
▁elsewhere	-4667
▁translate	-4668
▁electrical	-4669
▁passionate	-4670
▁remittance	-4671
▁experienced	-4672
▁entertainment	-4673
▁vp	-4674
ilet	-4675
lock	-4676
▁fry	-4677
▁nan	-4678
▁pad	-4679
▁pow	-4680
▁rum	-4681
▁tag	-4682
▁dent	-4683
▁hall	-4684
▁scar	-4685
▁wave	-4686
▁afaik	-4687
▁overn	-4688
▁rugby	-4689
▁sweet	-4690
ception	-4691
▁privat	-4692
ervation	-4693
▁pathway	-4694
fficiency	-4695
▁sentence	-4696
▁clearance	-4697
▁overnight	-4698
▁qualified	-4699
▁sacrifice	-4700
▁confidence	-4701
▁installment	-4702
for	-4703
▁gpa	-4704
▁hsb	-4705
▁kur	-4706
▁tor	-4707
▁unb	-4708
▁bath	-4709
▁capt	-4710
▁empt	-4711
▁pair	-4712
▁tiny	-4713
▁alive	-4714
▁canad	-4715
▁elder	-4716
▁pixel	-4717
▁colour	-4718
▁derana	-4719
▁toilet	-4720
▁minimal	-4721
▁ongoing	-4722
▁pretend	-4723
▁scooter	-4724
▁wealthy	-4725
▁coverage	-4726
▁criticism	-4727
▁desperate	-4728
▁meanwhile	-4729
▁assignment	-4730
▁trustworthy	-4731
oko	-4732
sas	-4733
ton	-4734
▁95	-4735
ache	-4736
know	-4737
osal	-4738
ssor	-4739
▁unc	-4740
▁core	-4741
▁hsbc	-4742
▁hype	-4743
▁bully	-4744
▁empty	-4745
▁meter	-4746
▁recip	-4747
duction	-4748
itation	-4749
ivalent	-4750
▁affair	-4751
▁charity	-4752
▁utility	-4753
▁victory	-4754
▁actively	-4755
▁audience	-4756
▁allowance	-4757
▁vaccinate	-4758
▁ultimately	-4759
▁manufacture	-4760
▁circumstance	-4761
gl	-4762
hn	-4763
po	-4764
xy	-4765
ied	-4766
▁sab	-4767
▁vir	-4768
igate	-4769
rease	-4770
▁5000	-4771
▁drag	-4772
▁warn	-4773
▁disre	-4774
▁trial	-4775
▁asshole	-4776
▁barrier	-4777
▁nowhere	-4778
▁pricing	-4779
▁designer	-4780
▁disaster	-4781
▁discover	-4782
▁industri	-4783
▁instance	-4784
▁mountain	-4785
▁tangalle	-4786
▁telegram	-4787
▁behaviour	-4788
▁cambridge	-4789
▁convenient	-4790
▁membership	-4791
▁necessarily	-4792
▁psychiatrist	-4793
zz	-4794
eem	-4795
uth	-4796
resh	-4797
▁ntb	-4798
ruary	-4799
▁dear	-4800
▁rude	-4801
▁ucsc	-4802
▁divers	-4803
▁hostel	-4804
▁russia	-4805
▁alright	-4806
▁roughly	-4807
▁allocate	-4808
▁diaspora	-4809
▁equivalent	-4810
▁conservative	-4811
▁organisation	-4812
nar	-4813
ppy	-4814
grat	-4815
head	-4816
▁hob	-4817
▁nah	-4818
ander	-4819
rated	-4820
▁blow	-4821
▁soul	-4822
▁wick	-4823
icious	-4824
▁rainy	-4825
▁smoke	-4826
▁100000	-4827
▁bloody	-4828
▁bridge	-4829
▁powder	-4830
▁congrat	-4831
▁suicide	-4832
▁domestic	-4833
▁exposure	-4834
▁secretary	-4835
▁socialism	-4836
▁difficulty	-4837
▁hiriketiya	-4838
▁combination	-4839
▁fundamental	-4840
kk	-4841
ux	-4842
ita	-4843
gala	-4844
▁ack	-4845
▁bow	-4846
▁six	-4847
house	-4848
logic	-4849
▁boss	-4850
▁mira	-4851
▁sens	-4852
▁stor	-4853
▁virt	-4854
▁shall	-4855
▁shirt	-4856
▁ultra	-4857
▁acknow	-4858
▁distrib	-4859
▁succeed	-4860
▁describe	-4861
▁starting	-4862
▁criticize	-4863
▁narrative	-4864
▁officially	-4865
▁explanation	-4866
ira	-4867
odge	-4868
shot	-4869
▁ast	-4870
▁hir	-4871
▁len	-4872
▁mut	-4873
▁nib	-4874
▁pvt	-4875
▁sar	-4876
aduwa	-4877
itter	-4878
olish	-4879
ublic	-4880
▁boom	-4881
▁evil	-4882
angama	-4883
inform	-4884
▁10000	-4885
▁accom	-4886
▁expat	-4887
▁keell	-4888
▁media	-4889
▁occup	-4890
▁royal	-4891
anayake	-4892
▁behave	-4893
▁lovely	-4894
▁rating	-4895
▁suburb	-4896
▁advanced	-4897
▁analytic	-4898
▁constant	-4899
▁creative	-4900
▁recovery	-4901
▁democratic	-4902
▁improvement	-4903
▁restructure	-4904
dem	-4905
exp	-4906
base	-4907
educ	-4908
▁kal	-4909
▁laz	-4910
onent	-4911
▁leak	-4912
▁vary	-4913
▁burea	-4914
▁react	-4915
▁shout	-4916
▁spare	-4917
▁burger	-4918
▁enable	-4919
▁expire	-4920
▁ancient	-4921
▁parking	-4922
▁railway	-4923
▁christian	-4924
▁correctly	-4925
▁commitment	-4926
22	-4927
ja	-4928
net	-4929
oom	-4930
she	-4931
▁hu	-4932
ette	-4933
ging	-4934
iary	-4935
iled	-4936
onda	-4937
wide	-4938
▁kum	-4939
▁vpn	-4940
▁koko	-4941
▁lean	-4942
▁slip	-4943
▁thief	-4944
▁accent	-4945
▁excell	-4946
▁capable	-4947
▁commute	-4948
▁inflate	-4949
▁storage	-4950
▁dehiwala	-4951
▁eligible	-4952
▁globally	-4953
▁somebody	-4954
▁textbook	-4955
▁softlogic	-4956
ba	-4957
ken	-4958
nel	-4959
awal	-4960
itha	-4961
▁beg	-4962
▁kar	-4963
▁lif	-4964
▁was	-4965
▁peep	-4966
ounter	-4967
▁boost	-4968
▁buyer	-4969
▁herit	-4970
▁kelan	-4971
eration	-4972
▁addict	-4973
▁friday	-4974
▁viable	-4975
▁century	-4976
▁funding	-4977
▁decrease	-4978
▁february	-4979
▁ignorant	-4980
▁disappear	-4981
▁recognise	-4982
▁accounting	-4983
▁profitable	-4984
▁rajapaksas	-4985
▁surprising	-4986
▁economically	-4987
ga	-4988
my	-4989
yi	-4990
adu	-4991
box	-4992
elt	-4993
▁55	-4994
▁65	-4995
agon	-4996
▁mas	-4997
▁ord	-4998
▁yah	-4999
▁john	-5000
▁mald	-5001
▁dedic	-5002
▁battle	-5003
▁cancer	-5004
▁determ	-5005
▁orient	-5006
▁portal	-5007
▁artific	-5008
▁twitter	-5009
▁worship	-5010
▁director	-5011
▁professor	-5012
▁statistic	-5013
▁agriculture	-5014
▁successfully	-5015
bie	-5016
ela	-5017
eye	-5018
gen	-5019
▁56	-5020
core	-5021
elam	-5022
ilty	-5023
▁inj	-5024
▁lav	-5025
irect	-5026
▁buck	-5027
▁desk	-5028
▁jack	-5029
▁mill	-5030
▁ring	-5031
▁korea	-5032
▁panel	-5033
asinghe	-5034
▁diesel	-5035
▁locate	-5036
▁consume	-5037
▁canadian	-5038
▁encounter	-5039
▁traveller	-5040
▁psychology	-5041
▁accountable	-5042
▁compensation	-5043
14	-5044
hib	-5045
▁dy	-5046
ando	-5047
look	-5048
▁bin	-5049
▁nav	-5050
▁2010	-5051
▁ease	-5052
▁lion	-5053
▁nibm	-5054
▁niss	-5055
▁tear	-5056
charge	-5057
iliate	-5058
lusive	-5059
▁cable	-5060
▁italy	-5061
▁malay	-5062
▁optim	-5063
▁plate	-5064
▁venue	-5065
▁beauty	-5066
▁escape	-5067
▁bombing	-5068
ationally	-5069
▁activate	-5070
▁pandemic	-5071
▁semester	-5072
▁christmas	-5073
▁governance	-5074
▁industrial	-5075
▁meaningful	-5076
▁punishment	-5077
lix	-5078
tin	-5079
atha	-5080
door	-5081
icit	-5082
ique	-5083
lead	-5084
▁198	-5085
▁199	-5086
▁mir	-5087
▁soo	-5088
▁1500	-5089
▁fant	-5090
▁indo	-5091
▁lend	-5092
▁mini	-5093
stream	-5094
▁cater	-5095
▁embar	-5096
▁honda	-5097
▁discon	-5098
▁instal	-5099
▁ahangama	-5100
▁flexible	-5101
▁publicly	-5102
▁childhood	-5103
▁confident	-5104
▁manipulate	-5105
▁acknowledge	-5106
▁vaccination	-5107
hy	-5108
ola	-5109
uru	-5110
▁31	-5111
ript	-5112
whel	-5113
▁bee	-5114
▁fyi	-5115
ourse	-5116
▁cath	-5117
▁riot	-5118
▁stem	-5119
▁temu	-5120
▁hesit	-5121
▁unity	-5122
▁define	-5123
▁guilty	-5124
▁stabil	-5125
▁benefic	-5126
▁classic	-5127
▁regulate	-5128
▁treasury	-5129
▁immediate	-5130
▁disgusting	-5131
fp	-5132
yy	-5133
eve	-5134
▁32	-5135
▁ft	-5136
▁tf	-5137
iant	-5138
soon	-5139
ulla	-5140
▁ash	-5141
▁gif	-5142
▁ing	-5143
▁kot	-5144
▁mum	-5145
inder	-5146
ivate	-5147
▁furn	-5148
▁grid	-5149
▁lazy	-5150
▁pill	-5151
▁salt	-5152
▁summ	-5153
lement	-5154
▁badly	-5155
▁eelam	-5156
▁hobby	-5157
▁shape	-5158
▁steam	-5159
▁veget	-5160
▁assess	-5161
▁buddha	-5162
▁french	-5163
▁instru	-5164
▁server	-5165
▁wanted	-5166
▁sharing	-5167
▁heritage	-5168
▁consistent	-5169
law	-5170
rad	-5171
▁fk	-5172
▁ml	-5173
▁py	-5174
cean	-5175
paid	-5176
sday	-5177
▁800	-5178
▁bid	-5179
▁cus	-5180
▁som	-5181
▁uom	-5182
▁wij	-5183
erion	-5184
▁flav	-5185
▁forg	-5186
▁spir	-5187
▁memor	-5188
▁micro	-5189
▁oblig	-5190
▁depart	-5191
▁farmer	-5192
▁assault	-5193
▁reading	-5194
▁trigger	-5195
▁pathetic	-5196
▁criterion	-5197
▁investing	-5198
▁ownership	-5199
▁prioritize	-5200
▁specialize	-5201
▁sufficient	-5202
▁translation	-5203
▁depreciation	-5204
▁internationally	-5205
▁cp	-5206
▁om	-5207
bble	-5208
half	-5209
hott	-5210
iety	-5211
uber	-5212
▁hig	-5213
▁nil	-5214
shirt	-5215
▁batt	-5216
▁feas	-5217
▁neut	-5218
▁rape	-5219
▁tail	-5220
▁viet	-5221
▁honey	-5222
▁inher	-5223
▁niche	-5224
▁ocean	-5225
▁stray	-5226
▁utter	-5227
awatuna	-5228
▁basket	-5229
▁clinic	-5230
▁earner	-5231
▁expend	-5232
▁insult	-5233
▁kindly	-5234
▁uneduc	-5235
iliation	-5236
▁impress	-5237
▁licence	-5238
▁opening	-5239
▁variety	-5240
▁violent	-5241
▁visible	-5242
▁naturally	-5243
▁principle	-5244
▁terrorism	-5245
▁differently	-5246
▁personality	-5247
▁politically	-5248
▁subscription	-5249
75	-5250
ax	-5251
gi	-5252
ula	-5253
▁33	-5254
▁gf	-5255
omen	-5256
some	-5257
word	-5258
▁bun	-5259
▁jav	-5260
▁tol	-5261
astic	-5262
▁bias	-5263
▁mail	-5264
▁tact	-5265
itchen	-5266
▁award	-5267
▁diagn	-5268
▁integ	-5269
▁mouth	-5270
▁satur	-5271
▁surge	-5272
▁uncom	-5273
raction	-5274
▁exceed	-5275
▁league	-5276
▁openly	-5277
▁payone	-5278
▁relief	-5279
▁tshirt	-5280
friendly	-5281
▁bentota	-5282
▁consent	-5283
▁gateway	-5284
▁mislead	-5285
▁opportun	-5286
▁overwhel	-5287
▁presence	-5288
▁proposal	-5289
▁amendment	-5290
▁reputable	-5291
▁convenience	-5292
▁importantly	-5293
▁nationalist	-5294
▁potentially	-5295
fo	-5296
abe	-5297
ida	-5298
▁bm	-5299
athy	-5300
bery	-5301
flow	-5302
▁alt	-5303
▁cos	-5304
▁soc	-5305
▁tap	-5306
▁airb	-5307
▁brut	-5308
▁dise	-5309
▁goon	-5310
▁isol	-5311
▁mora	-5312
▁thum	-5313
▁vast	-5314
▁angry	-5315
▁chand	-5316
▁freak	-5317
▁hypoc	-5318
▁rapid	-5319
▁amazon	-5320
▁behalf	-5321
▁higher	-5322
▁intake	-5323
▁nissan	-5324
▁kitchen	-5325
▁macbook	-5326
▁setting	-5327
▁payoneer	-5328
▁reminder	-5329
▁republic	-5330
▁perfectly	-5331
▁realistic	-5332
▁afterwards	-5333
▁allegation	-5334
▁frequently	-5335
▁physically	-5336
▁supplement	-5337
▁contribution	-5338
100	-5339
aran	-5340
▁bcz	-5341
▁boc	-5342
▁kat	-5343
▁owe	-5344
▁unt	-5345
ailed	-5346
▁hole	-5347
▁lake	-5348
▁gotab	-5349
▁hindu	-5350
▁phase	-5351
▁sheet	-5352
▁yahap	-5353
▁accuse	-5354
▁cringe	-5355
▁liquid	-5356
▁parcel	-5357
▁thumbs	-5358
▁urgent	-5359
ropriate	-5360
▁anxiety	-5361
▁venture	-5362
▁waiting	-5363
▁whereas	-5364
▁kelaniya	-5365
▁mentally	-5366
▁regional	-5367
▁communist	-5368
▁emotional	-5369
▁sentiment	-5370
▁workforce	-5371
▁incredibly	-5372
▁complicated	-5373
▁parliamentary	-5374
▁yr	-5375
aint	-5376
▁ceo	-5377
▁gaz	-5378
gment	-5379
known	-5380
mouth	-5381
▁chip	-5382
▁diet	-5383
▁dump	-5384
▁edge	-5385
▁flat	-5386
▁fulf	-5387
▁symb	-5388
▁radio	-5389
▁mature	-5390
▁pohott	-5391
▁beaming	-5392
▁customs	-5393
▁monsoon	-5394
▁neutral	-5395
▁catholic	-5396
▁favorite	-5397
▁superior	-5398
▁swimming	-5399
▁determine	-5400
▁excellent	-5401
▁unawatuna	-5402
▁wonderful	-5403
▁assistance	-5404
▁discourage	-5405
▁literature	-5406
▁practically	-5407
45	-5408
fh	-5409
hh	-5410
mn	-5411
hus	-5412
reh	-5413
▁cb	-5414
▁ec	-5415
away	-5416
cuit	-5417
emon	-5418
reep	-5419
urve	-5420
▁rub	-5421
▁sav	-5422
▁uoc	-5423
▁keen	-5424
source	-5425
▁cheat	-5426
▁forum	-5427
▁fruit	-5428
▁monet	-5429
▁shady	-5430
uration	-5431
▁backup	-5432
▁border	-5433
▁filter	-5434
▁incent	-5435
▁mirror	-5436
▁resist	-5437
▁abolish	-5438
▁disease	-5439
▁embarra	-5440
▁ethical	-5441
▁strange	-5442
▁ukraine	-5443
istically	-5444
▁detailed	-5445
▁fulltime	-5446
▁saturday	-5447
▁competent	-5448
▁overprice	-5449
▁acceptable	-5450
▁impression	-5451
▁resignation	-5452
▁prescription	-5453
13	-5454
tch	-5455
▁85	-5456
▁kg	-5457
aker	-5458
irty	-5459
▁ego	-5460
▁ndb	-5461
▁voc	-5462
▁wfh	-5463
ampoo	-5464
haust	-5465
itual	-5466
▁3000	-5467
▁gear	-5468
▁tank	-5469
▁thus	-5470
▁audit	-5471
▁incor	-5472
▁moral	-5473
▁patri	-5474
▁swear	-5475
ference	-5476
▁ayurve	-5477
▁detect	-5478
▁hardly	-5479
▁matara	-5480
▁minded	-5481
▁purely	-5482
▁bedroom	-5483
▁contest	-5484
▁defense	-5485
▁exclude	-5486
▁exhaust	-5487
▁quarter	-5488
▁shampoo	-5489
▁abortion	-5490
▁midnight	-5491
▁component	-5492
▁uncomfort	-5493
▁permission	-5494
hat	-5495
see	-5496
zen	-5497
▁ms	-5498
aken	-5499
lier	-5500
▁ble	-5501
▁ham	-5502
▁kit	-5503
▁wed	-5504
etime	-5505
world	-5506
▁atro	-5507
▁hikk	-5508
▁pfca	-5509
▁tort	-5510
▁unus	-5511
▁zoom	-5512
liness	-5513
romise	-5514
shrugg	-5515
▁demon	-5516
▁moron	-5517
▁overt	-5518
▁pride	-5519
▁quota	-5520
▁subst	-5521
▁trail	-5522
rolling	-5523
▁corner	-5524
▁snorke	-5525
▁equally	-5526
▁scratch	-5527
▁selling	-5528
▁supreme	-5529
▁yahapal	-5530
shrugging	-5531
▁ordinary	-5532
▁parttime	-5533
▁randomly	-5534
▁dependent	-5535
▁compromise	-5536
▁efficiency	-5537
▁friendship	-5538
▁unemployed	-5539
▁withdrawal	-5540
▁corporation	-5541
▁architecture	-5542
yo	-5543
uls	-5544
▁og	-5545
case	-5546
gage	-5547
husi	-5548
▁700	-5549
▁dan	-5550
cious	-5551
iracy	-5552
osity	-5553
otism	-5554
▁brow	-5555
▁fare	-5556
▁gent	-5557
▁hung	-5558
▁perk	-5559
▁pump	-5560
▁scan	-5561
▁shed	-5562
▁shel	-5563
opular	-5564
▁andor	-5565
▁brief	-5566
▁plane	-5567
▁pleas	-5568
▁rally	-5569
▁mosque	-5570
▁resume	-5571
▁tactic	-5572
▁temper	-5573
aranaike	-5574
▁analyst	-5575
▁committ	-5576
▁deficit	-5577
▁excited	-5578
▁maldive	-5579
▁vacancy	-5580
▁vietnam	-5581
▁backpack	-5582
▁headache	-5583
▁northern	-5584
▁economist	-5585
▁extension	-5586
▁necessity	-5587
▁primarily	-5588
▁privately	-5589
▁violation	-5590
▁beneficial	-5591
▁uneducated	-5592
▁consumption	-5593
▁uncomfortable	-5594
ti	-5595
han	-5596
mar	-5597
oly	-5598
sto	-5599
ilst	-5600
ised	-5601
ouch	-5602
unic	-5603
▁fas	-5604
▁lad	-5605
▁otp	-5606
▁suv	-5607
eapon	-5608
itate	-5609
▁magn	-5610
▁navy	-5611
▁symp	-5612
▁warm	-5613
▁alert	-5614
▁femin	-5615
▁nomad	-5616
▁penal	-5617
▁hatred	-5618
▁module	-5619
▁reward	-5620
▁continu	-5621
▁enthusi	-5622
▁hotline	-5623
▁kingdom	-5624
▁onwards	-5625
▁russian	-5626
▁stretch	-5627
▁torture	-5628
▁happiness	-5629
▁hikkaduwa	-5630
▁bandaranaike	-5631
▁manufacturer	-5632
ns	-5633
tel	-5634
atta	-5635
flix	-5636
iser	-5637
▁cer	-5638
▁fup	-5639
▁kad	-5640
▁ske	-5641
▁wik	-5642
▁cell	-5643
▁defe	-5644
▁gamp	-5645
▁pear	-5646
▁plot	-5647
▁prol	-5648
erable	-5649
nament	-5650
ounder	-5651
▁aband	-5652
▁anime	-5653
▁creep	-5654
▁drunk	-5655
▁esoft	-5656
▁excess	-5657
▁whilst	-5658
▁handout	-5659
▁subsidy	-5660
▁writing	-5661
▁feasible	-5662
▁hardware	-5663
▁interior	-5664
▁legitimate	-5665
▁achievement	-5666
▁examination	-5667
▁marketplace	-5668
▁programming	-5669
▁verification	-5670
bl	-5671
vi	-5672
dly	-5673
sey	-5674
sia	-5675
sim	-5676
▁cd	-5677
▁hv	-5678
▁mf	-5679
wash	-5680
▁aka	-5681
aging	-5682
archy	-5683
build	-5684
▁auto	-5685
▁cast	-5686
▁heal	-5687
▁jeal	-5688
▁util	-5689
▁chaos	-5690
▁fraud	-5691
▁stead	-5692
holding	-5693
▁africa	-5694
▁desire	-5695
▁misuse	-5696
▁narrow	-5697
▁aggress	-5698
▁courier	-5699
▁disturb	-5700
▁therapy	-5701
▁warning	-5702
▁prospect	-5703
▁strongly	-5704
▁taxation	-5705
▁broadcast	-5706
▁applicable	-5707
▁separately	-5708
▁transition	-5709
▁description	-5710
▁expenditure	-5711
aa	-5712
ius	-5713
top	-5714
anga	-5715
fast	-5716
used	-5717
vere	-5718
▁350	-5719
front	-5720
iform	-5721
inter	-5722
itten	-5723
opoly	-5724
▁2500	-5725
▁ally	-5726
▁flee	-5727
▁heck	-5728
▁hunt	-5729
▁mism	-5730
▁sand	-5731
▁sooo	-5732
opolit	-5733
relate	-5734
▁advoc	-5735
▁enrol	-5736
▁intel	-5737
▁joint	-5738
▁loyal	-5739
▁maith	-5740
▁nepal	-5741
▁pregn	-5742
▁worst	-5743
▁extrem	-5744
▁weapon	-5745
▁abandon	-5746
▁acquire	-5747
▁bracket	-5748
▁inspire	-5749
▁spotify	-5750
▁importer	-5751
▁indirect	-5752
▁loophole	-5753
▁affiliate	-5754
▁unpopular	-5755
▁capitalism	-5756
▁graduation	-5757
▁innovation	-5758
▁revolution	-5759
▁supportive	-5760
▁emotionally	-5761
▁unfortunate	-5762
aha	-5763
rog	-5764
ush	-5765
zel	-5766
▁ib	-5767
mate	-5768
sper	-5769
antic	-5770
check	-5771
erely	-5772
▁slfp	-5773
▁bread	-5774
▁civic	-5775
▁exper	-5776
▁incon	-5777
▁spark	-5778
station	-5779
▁broken	-5780
▁bubble	-5781
▁defeat	-5782
▁easier	-5783
▁fucker	-5784
▁monkey	-5785
▁praise	-5786
▁prepay	-5787
▁script	-5788
▁shower	-5789
▁singer	-5790
▁crowded	-5791
▁jealous	-5792
▁uniform	-5793
▁visitor	-5794
▁downside	-5795
▁literacy	-5796
▁navigate	-5797
▁outdated	-5798
▁assistant	-5799
▁commenter	-5800
▁stressful	-5801
▁attractive	-5802
▁capability	-5803
▁disrespect	-5804
▁tournament	-5805
▁hospitality	-5806
▁investigate	-5807
▁nationalism	-5808
▁representative	-5809
23	-5810
dr	-5811
▁247	-5812
▁nov	-5813
payer	-5814
▁bast	-5815
▁fern	-5816
▁java	-5817
▁rein	-5818
▁thug	-5819
▁urge	-5820
spaper	-5821
▁awful	-5822
▁bound	-5823
emption	-5824
▁fluent	-5825
▁litter	-5826
▁manife	-5827
▁volume	-5828
▁cooking	-5829
▁leasing	-5830
▁offense	-5831
▁reverse	-5832
▁transit	-5833
▁incentive	-5834
▁increment	-5835
▁introvert	-5836
▁newspaper	-5837
▁accessible	-5838
16	-5839
88	-5840
99	-5841
sf	-5842
xx	-5843
cal	-5844
ipt	-5845
usd	-5846
▁37	-5847
▁jk	-5848
▁qa	-5849
aram	-5850
asty	-5851
itar	-5852
ugee	-5853
▁las	-5854
▁pir	-5855
▁ren	-5856
▁ssd	-5857
class	-5858
scape	-5859
vable	-5860
▁2017	-5861
▁2030	-5862
▁adam	-5863
▁dura	-5864
▁exer	-5865
▁fert	-5866
▁foll	-5867
▁hamb	-5868
▁mort	-5869
▁nail	-5870
▁thru	-5871
emotes	-5872
rovers	-5873
▁appre	-5874
▁grind	-5875
▁pilot	-5876
▁postp	-5877
▁scary	-5878
▁snack	-5879
▁spect	-5880
▁deeply	-5881
▁indoor	-5882
▁packet	-5883
▁pickup	-5884
▁poster	-5885
▁reside	-5886
▁capture	-5887
▁largely	-5888
▁learner	-5889
▁netflix	-5890
▁pension	-5891
emotefree	-5892
▁chemical	-5893
▁follower	-5894
▁governor	-5895
▁reaction	-5896
▁taxpayer	-5897
▁misinform	-5898
▁satisfied	-5899
▁streaming	-5900
▁purchasing	-5901
▁screenshot	-5902
ald	-5903
bay	-5904
bre	-5905
bud	-5906
gle	-5907
gre	-5908
ldr	-5909
wan	-5910
laim	-5911
quit	-5912
▁bug	-5913
▁cfa	-5914
▁uns	-5915
▁wil	-5916
chool	-5917
ongue	-5918
▁bout	-5919
▁dism	-5920
▁pant	-5921
▁tatt	-5922
▁thor	-5923
▁wipe	-5924
▁wood	-5925
ateral	-5926
▁apiit	-5927
▁jayaw	-5928
▁lodge	-5929
▁metal	-5930
▁newly	-5931
▁rumor	-5932
▁unpro	-5933
▁vezel	-5934
erately	-5935
▁allege	-5936
▁indone	-5937
▁making	-5938
▁monday	-5939
▁recipe	-5940
▁studio	-5941
▁thrive	-5942
▁worthy	-5943
▁compreh	-5944
▁creator	-5945
▁farming	-5946
▁muslims	-5947
▁deadline	-5948
▁exercise	-5949
▁framework	-5950
▁principal	-5951
▁suspicious	-5952
▁temperature	-5953
▁neighborhood	-5954
26	-5955
you	-5956
▁ax	-5957
▁lt	-5958
▁ui	-5959
enna	-5960
erce	-5961
▁cig	-5962
▁fab	-5963
▁mfs	-5964
▁ste	-5965
alate	-5966
cycle	-5967
▁2016	-5968
▁auss	-5969
▁boil	-5970
▁done	-5971
▁pera	-5972
▁pron	-5973
itable	-5974
▁comes	-5975
▁hyper	-5976
▁rajag	-5977
▁ratio	-5978
▁silva	-5979
▁spice	-5980
▁storm	-5981
▁swift	-5982
apitiya	-5983
▁airtel	-5984
▁collab	-5985
▁legend	-5986
▁overth	-5987
▁postal	-5988
▁prosec	-5989
▁racial	-5990
▁solely	-5991
haragama	-5992
▁bribery	-5993
▁miracle	-5994
▁outdoor	-5995
▁wickrem	-5996
▁duration	-5997
▁geopolit	-5998
▁indicate	-5999
▁saturate	-6000
▁touristy	-6001
▁curiosity	-6002
▁furniture	-6003
▁landscape	-6004
▁migrating	-6005
▁repayment	-6006
▁contractor	-6007
▁controvers	-6008
▁economical	-6009
▁strengthen	-6010
▁comfortably	-6011
▁frustration	-6012
mc	-6013
ham	-6014
mpt	-6015
▁yt	-6016
bour	-6017
inia	-6018
▁aqu	-6019
▁ela	-6020
▁hun	-6021
▁mit	-6022
▁nep	-6023
▁sms	-6024
▁wet	-6025
agger	-6026
prise	-6027
▁1015	-6028
▁caut	-6029
▁menu	-6030
▁nadu	-6031
▁slap	-6032
ancest	-6033
incial	-6034
▁bitch	-6035
▁bless	-6036
▁champ	-6037
▁dirty	-6038
▁gramm	-6039
▁harsh	-6040
▁merit	-6041
▁panic	-6042
▁promin	-6043
▁inspect	-6044
▁italian	-6045
▁penalty	-6046
▁receipt	-6047
▁alliance	-6048
▁bathroom	-6049
▁fernando	-6050
▁inconven	-6051
▁mechanic	-6052
▁construct	-6053
▁embarrass	-6054
▁bankruptcy	-6055
▁enterprise	-6056
▁photography	-6057
18	-6058
pr	-6059
cra	-6060
has	-6061
het	-6062
ype	-6063
▁42	-6064
edly	-6065
spot	-6066
xual	-6067
▁evs	-6068
▁fur	-6069
▁lag	-6070
▁peg	-6071
▁rul	-6072
▁ugc	-6073
▁und	-6074
▁acca	-6075
▁cave	-6076
▁epis	-6077
▁exit	-6078
▁ielt	-6079
▁phil	-6080
▁span	-6081
▁tall	-6082
▁tier	-6083
▁abans	-6084
▁consp	-6085
▁overs	-6086
▁regul	-6087
▁times	-6088
oration	-6089
related	-6090
umption	-6091
▁aussie	-6092
▁latter	-6093
▁perera	-6094
▁symbol	-6095
▁tattoo	-6096
▁thanks	-6097
▁turtle	-6098
▁unreal	-6099
▁dislike	-6100
▁mandate	-6101
▁nursing	-6102
▁observe	-6103
▁refugee	-6104
▁socalle	-6105
▁cautious	-6106
▁frequent	-6107
▁lifetime	-6108
▁monopoly	-6109
▁youtuber	-6110
▁protestor	-6111
▁artificial	-6112
▁conference	-6113
▁expression	-6114
▁mainstream	-6115
▁originally	-6116
▁congratulation	-6117
yl	-6118
zi	-6119
cir	-6120
sin	-6121
tra	-6122
▁mm	-6123
▁qr	-6124
▁xd	-6125
anna	-6126
keep	-6127
▁bam	-6128
▁sus	-6129
▁vul	-6130
eliya	-6131
▁beer	-6132
▁coal	-6133
▁crop	-6134
▁deed	-6135
▁mbbs	-6136
▁meat	-6137
▁peer	-6138
▁seal	-6139
▁thin	-6140
▁tldr	-6141
circle	-6142
rition	-6143
verter	-6144
▁enemy	-6145
▁honor	-6146
▁merch	-6147
▁resid	-6148
▁rider	-6149
▁topup	-6150
▁wagon	-6151
unegala	-6152
vention	-6153
▁ancest	-6154
▁apolog	-6155
▁capita	-6156
▁guitar	-6157
▁obsess	-6158
▁rocket	-6159
▁saying	-6160
▁widely	-6161
ographic	-6162
▁bastard	-6163
▁bureauc	-6164
▁combank	-6165
▁episode	-6166
▁execute	-6167
▁hearing	-6168
▁taxable	-6169
▁advocate	-6170
▁postpone	-6171
▁carefully	-6172
▁depressed	-6173
▁peacefully	-6174
▁popularity	-6175
▁effectively	-6176
▁interaction	-6177
▁documentation	-6178
▁environmental	-6179
▁manufacturing	-6180
bn	-6181
aid	-6182
arn	-6183
aire	-6184
bike	-6185
east	-6186
hill	-6187
iest	-6188
moon	-6189
open	-6190
rish	-6191
▁gce	-6192
▁wht	-6193
ggage	-6194
obile	-6195
power	-6196
shore	-6197
▁2009	-6198
▁bind	-6199
▁blah	-6200
▁bulk	-6201
▁came	-6202
▁coop	-6203
▁dine	-6204
▁dose	-6205
▁mask	-6206
▁more	-6207
▁zeal	-6208
iently	-6209
lessly	-6210
ughing	-6211
▁50000	-6212
▁actor	-6213
▁audio	-6214
▁drone	-6215
▁forth	-6216
▁frank	-6217
▁grass	-6218
▁paste	-6219
▁sweat	-6220
▁upset	-6221
▁academ	-6222
▁better	-6223
▁counse	-6224
▁udawal	-6225
▁certify	-6226
▁crucial	-6227
▁lavinia	-6228
▁luggage	-6229
▁atrocity	-6230
▁committee	-6231
▁departure	-6232
▁integrate	-6233
▁outsource	-6234
▁scientist	-6235
▁experiment	-6236
▁maharagama	-6237
▁provincial	-6238
▁appropriate	-6239
▁association	-6240
▁conditioner	-6241
▁incompetent	-6242
▁establishment	-6243
17	-6244
48	-6245
pi	-6246
yr	-6247
▁48	-6248
▁bb	-6249
▁cz	-6250
▁dj	-6251
▁hd	-6252
▁nz	-6253
iter	-6254
lord	-6255
pher	-6256
site	-6257
▁125	-6258
▁510	-6259
▁ira	-6260
▁kud	-6261
▁ped	-6262
▁por	-6263
▁unw	-6264
index	-6265
isine	-6266
▁desc	-6267
▁kiss	-6268
▁lord	-6269
▁moon	-6270
▁ping	-6271
▁roof	-6272
inking	-6273
▁adida	-6274
▁basil	-6275
▁chart	-6276
▁crush	-6277
▁jewel	-6278
▁sneak	-6279
▁theme	-6280
cession	-6281
quality	-6282
yearold	-6283
▁harini	-6284
▁hungry	-6285
▁insist	-6286
▁scenic	-6287
▁sovere	-6288
▁square	-6289
▁yellow	-6290
ographer	-6291
▁ceremon	-6292
▁cuisine	-6293
▁founder	-6294
▁haircut	-6295
▁servant	-6296
▁gotabaya	-6297
▁keyboard	-6298
▁speaking	-6299
▁exemption	-6300
▁expertise	-6301
▁gradually	-6302
▁indicator	-6303
▁manifesto	-6304
▁prescribe	-6305
▁sensitive	-6306
mediumlight	-6307
▁kurunegala	-6308
▁motorcycle	-6309
▁rajagiriya	-6310
▁involvement	-6311
▁realistically	-6312
ms	-6313
cin	-6314
don	-6315
ran	-6316
sal	-6317
uct	-6318
uki	-6319
vis	-6320
▁67	-6321
▁mn	-6322
ader	-6323
sena	-6324
xist	-6325
▁180	-6326
▁bis	-6327
▁etf	-6328
▁mud	-6329
▁ngl	-6330
▁ngo	-6331
▁oly	-6332
▁sue	-6333
inton	-6334
value	-6335
▁atmo	-6336
▁bird	-6337
▁carn	-6338
▁econ	-6339
▁elim	-6340
▁euro	-6341
▁glor	-6342
▁logo	-6343
▁myth	-6344
arency	-6345
▁chath	-6346
▁chief	-6347
▁popul	-6348
▁stone	-6349
itarian	-6350
▁accomp	-6351
▁evolve	-6352
▁jersey	-6353
▁layoff	-6354
▁lonely	-6355
▁retain	-6356
▁steady	-6357
▁disrupt	-6358
▁tension	-6359
▁trainer	-6360
▁violate	-6361
▁boundary	-6362
▁diagnose	-6363
▁escalate	-6364
▁logistic	-6365
▁offshore	-6366
▁americans	-6367
▁favourite	-6368
▁miserable	-6369
▁nutrition	-6370
▁pohottuwa	-6371
▁residence	-6372
facepalming	-6373
▁prediction	-6374
▁srilankans	-6375
▁businessman	-6376
▁celebration	-6377
▁gifemotefree	-6378
vo	-6379
hum	-6380
sen	-6381
▁69	-6382
▁lm	-6383
▁tn	-6384
acre	-6385
cott	-6386
sher	-6387
stay	-6388
▁cad	-6389
▁cid	-6390
▁gut	-6391
▁peo	-6392
▁pov	-6393
▁suz	-6394
▁wat	-6395
aking	-6396
hibit	-6397
mptom	-6398
ophob	-6399
score	-6400
▁2008	-6401
▁asse	-6402
▁cham	-6403
▁coup	-6404
▁eval	-6405
▁pend	-6406
▁prab	-6407
▁tack	-6408
lusion	-6409
▁anger	-6410
▁divid	-6411
▁judic	-6412
▁olymp	-6413
▁bright	-6414
▁colomb	-6415
▁disclo	-6416
▁domain	-6417
▁kitten	-6418
▁mentor	-6419
pointing	-6420
▁element	-6421
▁grammar	-6422
▁liberty	-6423
▁mosquit	-6424
▁symptom	-6425
▁activist	-6426
▁mistaken	-6427
▁operator	-6428
▁overcome	-6429
▁teenager	-6430
▁alongside	-6431
▁breakfast	-6432
▁pollution	-6433
▁accountant	-6434
▁expressway	-6435
▁occasional	-6436
▁calculation	-6437
▁transparency	-6438
cur	-6439
enn	-6440
rum	-6441
ste	-6442
zer	-6443
▁df	-6444
▁du	-6445
▁nc	-6446
acle	-6447
arat	-6448
edia	-6449
erge	-6450
fire	-6451
mare	-6452
ring	-6453
ston	-6454
thon	-6455
▁197	-6456
▁900	-6457
▁amd	-6458
▁hub	-6459
▁vij	-6460
erous	-6461
inghe	-6462
ivers	-6463
redit	-6464
umble	-6465
▁2014	-6466
▁alto	-6467
▁begg	-6468
▁bell	-6469
▁chee	-6470
▁dick	-6471
▁flaw	-6472
▁gala	-6473
▁orph	-6474
▁pile	-6475
▁posh	-6476
▁tone	-6477
▁ugly	-6478
▁vitz	-6479
▁watt	-6480
▁20000	-6481
▁dutch	-6482
▁fiver	-6483
▁hilar	-6484
▁seems	-6485
▁sharp	-6486
▁truck	-6487
▁villa	-6488
▁dining	-6489
▁freely	-6490
▁japura	-6491
▁ladder	-6492
▁mutual	-6493
▁nanote	-6494
▁palest	-6495
▁reconc	-6496
▁scream	-6497
▁silent	-6498
▁silver	-6499
▁tailor	-6500
▁weekly	-6501
laughing	-6502
▁fresher	-6503
▁gampaha	-6504
▁gazette	-6505
▁hangout	-6506
▁launder	-6507
▁literal	-6508
▁organic	-6509
▁romantic	-6510
▁talented	-6511
▁hilarious	-6512
▁liability	-6513
▁mismanage	-6514
▁nightmare	-6515
▁secondary	-6516
▁underpaid	-6517
▁universal	-6518
▁assumption	-6519
▁attendance	-6520
▁harassment	-6521
▁instrument	-6522
▁confirmation	-6523
▁disappointed	-6524
▁approximately	-6525
▁consideration	-6526
150	-6527
▁pf	-6528
host	-6529
part	-6530
rite	-6531
safe	-6532
stud	-6533
▁225	-6534
▁cul	-6535
▁dhl	-6536
▁dun	-6537
▁lan	-6538
▁lob	-6539
▁raw	-6540
itute	-6541
▁aunt	-6542
▁beef	-6543
▁bicy	-6544
▁dash	-6545
▁iran	-6546
▁keel	-6547
▁mock	-6548
▁unst	-6549
antota	-6550
soever	-6551
▁armed	-6552
▁devop	-6553
▁float	-6554
▁horse	-6555
▁pitch	-6556
▁salon	-6557
▁skept	-6558
▁unite	-6559
▁dental	-6560
▁diving	-6561
▁golden	-6562
▁mannar	-6563
▁overly	-6564
▁perpet	-6565
▁reluct	-6566
▁stance	-6567
▁suzuki	-6568
00000000	-6569
stically	-6570
▁bicycle	-6571
▁chandri	-6572
▁inherit	-6573
▁looking	-6574
▁magnite	-6575
▁zealand	-6576
▁airlines	-6577
▁maturity	-6578
▁monetary	-6579
▁mosquito	-6580
▁socially	-6581
▁honeymoon	-6582
▁mechanism	-6583
▁prominent	-6584
▁worldwide	-6585
▁capitalist	-6586
▁disconnect	-6587
▁enthusiast	-6588
▁importance	-6589
▁whatsoever	-6590
▁accordingly	-6591
▁desperately	-6592
▁enforcement	-6593
▁observation	-6594
▁reliability	-6595
▁appreciation	-6596
▁consistently	-6597
▁discriminate	-6598
▁opportunitie	-6599
▁photographer	-6600
▁clarification	-6601
▁reconciliation	-6602
ew	-6603
hr	-6604
boo	-6605
vil	-6606
▁03	-6607
▁bh	-6608
▁ct	-6609
aris	-6610
attu	-6611
mail	-6612
oker	-6613
ptoc	-6614
quer	-6615
self	-6616
very	-6617
▁asp	-6618
▁ccc	-6619
▁gal	-6620
▁gpu	-6621
▁joy	-6622
▁rig	-6623
▁sib	-6624
▁spo	-6625
count	-6626
oking	-6627
▁asus	-6628
▁dive	-6629
▁doom	-6630
▁elev	-6631
▁expl	-6632
▁inch	-6633
▁maps	-6634
▁pace	-6635
▁reck	-6636
▁recy	-6637
▁roam	-6638
▁sham	-6639
alanda	-6640
parent	-6641
▁digit	-6642
▁theat	-6643
▁vague	-6644
imation	-6645
iration	-6646
▁airbnb	-6647
▁breath	-6648
▁fortun	-6649
▁gentle	-6650
▁marine	-6651
▁recall	-6652
▁repute	-6653
▁safely	-6654
▁scroll	-6655
▁states	-6656
▁stripe	-6657
▁waving	-6658
▁african	-6659
▁elderly	-6660
▁migrant	-6661
▁painful	-6662
▁prosper	-6663
▁qualify	-6664
▁routine	-6665
▁clapping	-6666
▁landlord	-6667
▁nepotism	-6668
▁password	-6669
▁thorough	-6670
▁backwards	-6671
▁eliminate	-6672
▁protester	-6673
▁therapist	-6674
▁assessment	-6675
▁conspiracy	-6676
▁hambantota	-6677
▁irrelevant	-6678
▁manageable	-6679
▁motivation	-6680
▁respectful	-6681
▁psychologist	-6682
▁misinformation	-6683
car	-6684
ole	-6685
uba	-6686
yas	-6687
▁78	-6688
▁ds	-6689
▁ty	-6690
mble	-6691
plus	-6692
pret	-6693
rase	-6694
sman	-6695
▁gmo	-6696
▁hmm	-6697
▁iam	-6698
▁ish	-6699
▁reh	-6700
▁sht	-6701
▁spa	-6702
arath	-6703
ceive	-6704
craft	-6705
ician	-6706
▁bean	-6707
▁bore	-6708
▁brag	-6709
▁goto	-6710
▁kong	-6711
▁porn	-6712
▁proc	-6713
▁vape	-6714
▁vice	-6715
ection	-6716
minton	-6717
▁caste	-6718
▁lobby	-6719
▁stamp	-6720
reshold	-6721
▁brutal	-6722
▁emerge	-6723
▁fabric	-6724
▁greedy	-6725
standing	-6726
▁apology	-6727
▁boycott	-6728
▁charger	-6729
▁defence	-6730
▁disable	-6731
▁discord	-6732
▁dispose	-6733
▁footage	-6734
▁handful	-6735
▁hotspot	-6736
▁inquire	-6737
▁torrent	-6738
▁workout	-6739
▁backhand	-6740
▁equality	-6741
▁inverter	-6742
▁numerous	-6743
▁pregnant	-6744
▁skincare	-6745
▁stranger	-6746
▁adventure	-6747
▁ayurvedic	-6748
▁chandrika	-6749
▁computing	-6750
▁reduction	-6751
▁threshold	-6752
▁wickremes	-6753
▁negotiation	-6754
▁considerable	-6755
▁consultation	-6756
ave	-6757
eng	-6758
iny	-6759
mal	-6760
met	-6761
nis	-6762
rip	-6763
squ	-6764
sri	-6765
sth	-6766
▁38	-6767
▁if	-6768
▁pd	-6769
they	-6770
wood	-6771
▁dip	-6772
▁pos	-6773
▁yog	-6774
apter	-6775
bling	-6776
icker	-6777
iotic	-6778
▁arab	-6779
▁clip	-6780
▁emig	-6781
▁esim	-6782
▁inev	-6783
▁lyce	-6784
▁muse	-6785
▁nose	-6786
▁phen	-6787
▁sink	-6788
lation	-6789
▁antib	-6790
▁arrog	-6791
▁ethic	-6792
▁ghost	-6793
redient	-6794
▁calcul	-6795
▁closed	-6796
▁costly	-6797
▁emphas	-6798
▁france	-6799
▁galaxy	-6800
▁height	-6801
▁jewell	-6802
▁liquor	-6803
▁malabe	-6804
▁tackle	-6805
▁tongue	-6806
▁trinco	-6807
▁vulner	-6808
▁zscore	-6809
▁coastal	-6810
▁compuls	-6811
▁exagger	-6812
▁finding	-6813
▁raising	-6814
▁sticker	-6815
▁suspend	-6816
▁theatre	-6817
▁upwards	-6818
▁ceremony	-6819
▁creditor	-6820
▁delusion	-6821
▁supplier	-6822
▁badminton	-6823
▁breakdown	-6824
▁stabilize	-6825
▁vegetable	-6826
▁appearance	-6827
▁ingredient	-6828
▁freelancing	-6829
29	-6830
35	-6831
aj	-6832
kw	-6833
oa	-6834
ami	-6835
etf	-6836
igo	-6837
irc	-6838
led	-6839
rise	-6840
sale	-6841
▁130	-6842
▁anc	-6843
▁jet	-6844
▁pta	-6845
▁tel	-6846
ainty	-6847
ducer	-6848
ected	-6849
▁amex	-6850
▁athe	-6851
▁belt	-6852
▁carg	-6853
▁cite	-6854
▁dign	-6855
▁hong	-6856
▁loot	-6857
▁plug	-6858
▁thai	-6859
▁ward	-6860
arette	-6861
▁brill	-6862
▁gover	-6863
▁penny	-6864
▁prize	-6865
▁river	-6866
▁ruler	-6867
fession	-6868
▁before	-6869
▁beggar	-6870
▁enroll	-6871
▁fertil	-6872
▁genius	-6873
▁lyceum	-6874
▁onsite	-6875
▁unsafe	-6876
▁victor	-6877
commerce	-6878
location	-6879
▁amongst	-6880
▁blindly	-6881
▁concent	-6882
▁fishing	-6883
▁melting	-6884
▁nanotek	-6885
▁sibling	-6886
▁staying	-6887
▁creation	-6888
▁dividend	-6889
▁insanely	-6890
▁leverage	-6891
▁substant	-6892
▁ultimate	-6893
▁batalanda	-6894
▁conductor	-6895
▁fantastic	-6896
▁indonesia	-6897
▁instantly	-6898
▁personnel	-6899
▁reluctant	-6900
▁transform	-6901
▁unrelated	-6902
▁compulsory	-6903
▁productive	-6904
▁drastically	-6905
▁intelligent	-6906
▁temporarily	-6907
▁transparent	-6908
▁wickremesinghe	-6909
bb	-6910
300	-6911
etc	-6912
few	-6913
ige	-6914
udi	-6915
uty	-6916
▁07	-6917
▁az	-6918
ador	-6919
mind	-6920
onom	-6921
stop	-6922
west	-6923
▁110	-6924
▁api	-6925
▁sep	-6926
▁yrs	-6927
ottle	-6928
rator	-6929
▁gall	-6930
▁hort	-6931
inting	-6932
▁coord	-6933
▁excel	-6934
▁fluct	-6935
▁greed	-6936
▁novel	-6937
▁parad	-6938
▁uncon	-6939
▁volat	-6940
conomic	-6941
▁atmosp	-6942
▁boring	-6943
▁browse	-6944
▁county	-6945
▁detain	-6946
▁doable	-6947
▁garage	-6948
▁kidney	-6949
▁museum	-6950
▁occupy	-6951
▁output	-6952
arantine	-6953
lication	-6954
▁carnage	-6955
▁desktop	-6956
▁dumbass	-6957
▁premier	-6958
▁shelter	-6959
▁champion	-6960
▁drinking	-6961
▁humanity	-6962
▁misunder	-6963
▁organise	-6964
▁overtime	-6965
▁tracking	-6966
▁unstable	-6967
▁anonymous	-6968
▁cigarette	-6969
▁countless	-6970
▁ecommerce	-6971
▁everytime	-6972
▁goverment	-6973
▁judgement	-6974
▁orphanage	-6975
▁conversion	-6976
▁respective	-6977
▁demographic	-6978
▁grandparent	-6979
▁unrealistic	-6980
▁dictatorship	-6981
▁inconvenience	-6982
▁mismanagement	-6983
27	-6984
36	-6985
ii	-6986
adh	-6987
ers	-6988
ila	-6989
isa	-6990
osy	-6991
▁fm	-6992
▁iq	-6993
▁mt	-6994
▁os	-6995
▁pg	-6996
▁sr	-6997
eeze	-6998
erry	-6999
lash	-7000
mika	-7001
oral	-7002
▁bcs	-7003
▁bmw	-7004
▁dum	-7005
▁jam	-7006
▁ker	-7007
▁omg	-7008
▁plz	-7009
▁saw	-7010
▁sme	-7011
▁yup	-7012
cling	-7013
eness	-7014
ilipp	-7015
ounge	-7016
quiry	-7017
using	-7018
▁4000	-7019
▁bold	-7020
▁dfcc	-7021
▁dust	-7022
▁gmoa	-7023
▁holy	-7024
▁iirc	-7025
▁mart	-7026
▁ramp	-7027
▁them	-7028
▁toll	-7029
igious	-7030
income	-7031
▁dynam	-7032
▁imply	-7033
▁newsw	-7034
▁payer	-7035
▁polon	-7036
▁shake	-7037
atively	-7038
▁earbud	-7039
▁injure	-7040
▁inland	-7041
▁orange	-7042
▁pirate	-7043
▁python	-7044
▁sinhal	-7045
▁sunset	-7046
▁trauma	-7047
▁tution	-7048
▁wisely	-7049
▁bailout	-7050
▁biscuit	-7051
▁cargill	-7052
▁cartoon	-7053
▁charter	-7054
▁conquer	-7055
▁cryptoc	-7056
▁deliber	-7057
▁frankly	-7058
▁outrage	-7059
▁philipp	-7060
▁postgra	-7061
▁specify	-7062
▁sympath	-7063
▁contrast	-7064
▁massacre	-7065
▁overtake	-7066
▁petition	-7067
▁producer	-7068
▁sirisena	-7069
▁throttle	-7070
▁wherever	-7071
▁authorize	-7072
▁diversify	-7073
▁extremist	-7074
▁motorbike	-7075
▁policeman	-7076
▁altogether	-7077
▁antibiotic	-7078
▁quarantine	-7079
▁credibility	-7080
▁recruitment	-7081
▁constitutional	-7082
aly	-7083
asy	-7084
bee	-7085
hen	-7086
van	-7087
▁ww	-7088
fect	-7089
food	-7090
inda	-7091
kara	-7092
omed	-7093
orse	-7094
race	-7095
▁bak	-7096
▁bol	-7097
▁dim	-7098
▁kfc	-7099
▁lap	-7100
▁llb	-7101
▁ogf	-7102
▁utc	-7103
adura	-7104
▁abey	-7105
▁grim	-7106
▁halt	-7107
▁neck	-7108
▁scum	-7109
▁subt	-7110
▁tile	-7111
▁whey	-7112
borate	-7113
donald	-7114
father	-7115
italin	-7116
roller	-7117
unning	-7118
urance	-7119
▁bench	-7120
▁draft	-7121
▁knock	-7122
▁layer	-7123
▁spray	-7124
▁unexp	-7125
usation	-7126
▁breach	-7127
▁bucket	-7128
▁butter	-7129
▁cheese	-7130
▁cruise	-7131
▁epfetf	-7132
▁excite	-7133
▁fiverr	-7134
▁flavor	-7135
▁format	-7136
▁inject	-7137
▁liable	-7138
▁ritual	-7139
▁uncert	-7140
▁academy	-7141
▁bloated	-7142
▁dispute	-7143
▁happily	-7144
▁leftist	-7145
▁logical	-7146
▁playing	-7147
▁rapidly	-7148
▁upfront	-7149
▁utilize	-7150
▁credible	-7151
▁dissolve	-7152
▁initiate	-7153
▁israelis	-7154
▁outright	-7155
▁paycheck	-7156
▁quantity	-7157
balapitiya	-7158
▁applicant	-7159
▁boyfriend	-7160
▁incorrect	-7161
▁objective	-7162
▁similarly	-7163
▁udawalawe	-7164
▁aggressive	-7165
▁atmosphere	-7166
▁conclusion	-7167
▁engagement	-7168
▁frustrated	-7169
▁incredible	-7170
▁obligation	-7171
▁perception	-7172
▁smartphone	-7173
▁uncertainty	-7174
▁accidentally	-7175
▁disappointing	-7176
28	-7177
ox	-7178
awn	-7179
boy	-7180
nes	-7181
rat	-7182
unu	-7183
▁ts	-7184
aree	-7185
ease	-7186
oura	-7187
sion	-7188
than	-7189
utes	-7190
well	-7191
▁cct	-7192
▁lat	-7193
▁luc	-7194
▁tok	-7195
araja	-7196
ensus	-7197
guard	-7198
hance	-7199
ketch	-7200
llion	-7201
▁ange	-7202
▁blat	-7203
▁carb	-7204
▁cope	-7205
▁cute	-7206
▁dept	-7207
▁grey	-7208
▁hiru	-7209
▁medi	-7210
▁obst	-7211
▁orth	-7212
▁pers	-7213
▁wrap	-7214
akaran	-7215
▁brush	-7216
▁combo	-7217
▁grasp	-7218
▁gross	-7219
▁insta	-7220
▁intim	-7221
▁legis	-7222
▁magic	-7223
▁meant	-7224
▁perch	-7225
▁plead	-7226
▁shade	-7227
▁stall	-7228
▁straw	-7229
▁thick	-7230
million	-7231
ternoon	-7232
▁assure	-7233
▁aswell	-7234
▁button	-7235
▁empire	-7236
▁exempt	-7237
▁horton	-7238
▁length	-7239
▁planet	-7240
▁poorly	-7241
▁priest	-7242
▁prompt	-7243
▁retard	-7244
▁sketch	-7245
▁binance	-7246
▁dignity	-7247
▁generic	-7248
▁harmful	-7249
▁mission	-7250
▁premise	-7251
▁ranking	-7252
▁renting	-7253
▁weekday	-7254
▁boarding	-7255
▁clueless	-7256
▁gambling	-7257
▁lockdown	-7258
▁mcdonald	-7259
▁perceive	-7260
▁phenomen	-7261
▁relocate	-7262
▁secondly	-7263
▁severely	-7264
▁afternoon	-7265
▁brainwash	-7266
▁cryptocur	-7267
▁dedicated	-7268
▁exclusive	-7269
▁pointless	-7270
▁prosecute	-7271
▁recruiter	-7272
▁accusation	-7273
▁compensate	-7274
▁competitor	-7275
▁definition	-7276
▁distribute	-7277
▁philippine	-7278
▁documentary	-7279
▁orientation	-7280
▁partnership	-7281
▁generational	-7282
▁overwhelming	-7283
▁specialization	-7284
400	-7285
tha	-7286
▁05	-7287
▁46	-7288
▁bf	-7289
1000	-7290
2025	-7291
coin	-7292
comp	-7293
ethe	-7294
gain	-7295
hour	-7296
igen	-7297
iver	-7298
onic	-7299
▁bpo	-7300
▁fet	-7301
▁ltd	-7302
▁pit	-7303
▁usb	-7304
apura	-7305
inity	-7306
izing	-7307
▁cctv	-7308
▁devs	-7309
▁hook	-7310
▁hygi	-7311
▁nazi	-7312
▁nerv	-7313
▁this	-7314
▁unam	-7315
finger	-7316
laimer	-7317
unicip	-7318
vision	-7319
▁antic	-7320
▁evisa	-7321
▁maker	-7322
▁prost	-7323
▁swing	-7324
▁vouch	-7325
▁yield	-7326
▁hitler	-7327
▁inferi	-7328
▁nandal	-7329
▁pfizer	-7330
▁poison	-7331
▁pricey	-7332
▁backend	-7333
▁demonst	-7334
▁depress	-7335
▁dynamic	-7336
▁federal	-7337
▁fulfill	-7338
▁garment	-7339
▁ikmanlk	-7340
▁immense	-7341
▁inquiry	-7342
▁mileage	-7343
▁polling	-7344
▁relieve	-7345
▁renewal	-7346
▁ritalin	-7347
▁theater	-7348
▁unusual	-7349
▁disclose	-7350
▁distract	-7351
▁dominate	-7352
▁downfall	-7353
▁hesitant	-7354
▁motivate	-7355
▁tolerate	-7356
▁workshop	-7357
▁automatic	-7358
▁criticise	-7359
▁elaborate	-7360
▁lucrative	-7361
▁disclaimer	-7362
▁fertilizer	-7363
▁institutes	-7364
▁privileged	-7365
▁scientific	-7366
▁arrangement	-7367
▁advertisement	-7368
56	-7369
900	-7370
bol	-7371
bro	-7372
can	-7373
oka	-7374
ona	-7375
umn	-7376
▁01	-7377
▁mg	-7378
▁ny	-7379
▁ry	-7380
▁sq	-7381
dark	-7382
hera	-7383
inct	-7384
▁bai	-7385
▁dod	-7386
▁dol	-7387
▁kap	-7388
▁lem	-7389
▁row	-7390
▁ruh	-7391
▁smh	-7392
▁soe	-7393
▁uno	-7394
anaya	-7395
clear	-7396
edown	-7397
order	-7398
pattu	-7399
▁1990	-7400
▁2027	-7401
▁2029	-7402
▁derm	-7403
▁dham	-7404
holder	-7405
urious	-7406
utical	-7407
▁ambul	-7408
▁curse	-7409
▁domin	-7410
▁facil	-7411
▁guilt	-7412
▁horiz	-7413
▁humid	-7414
▁punch	-7415
▁saree	-7416
▁seize	-7417
▁strip	-7418
▁sunny	-7419
▁unreg	-7420
▁viral	-7421
forward	-7422
osexual	-7423
▁asians	-7424
▁assass	-7425
▁bitter	-7426
▁curfew	-7427
▁integr	-7428
▁korean	-7429
▁lounge	-7430
▁lowkey	-7431
▁offend	-7432
▁outage	-7433
▁parade	-7434
▁sample	-7435
▁spouse	-7436
▁string	-7437
▁summer	-7438
▁tennis	-7439
▁upvote	-7440
▁upwork	-7441
▁yearly	-7442
▁carrier	-7443
▁enhance	-7444
▁forgive	-7445
▁glorify	-7446
▁hypocri	-7447
▁nervous	-7448
▁offence	-7449
▁passive	-7450
▁silence	-7451
▁variant	-7452
ructuring	-7453
▁checkout	-7454
▁compound	-7455
▁confront	-7456
▁countrys	-7457
▁flagship	-7458
▁havelock	-7459
▁newswire	-7460
▁powercut	-7461
▁preserve	-7462
▁russians	-7463
▁standing	-7464
▁timeline	-7465
▁unamused	-7466
▁wilpattu	-7467
▁alternate	-7468
▁beginning	-7469
▁diversity	-7470
▁extensive	-7471
▁intellect	-7472
▁nightlife	-7473
▁normalize	-7474
▁pakistani	-7475
▁probation	-7476
▁skeptical	-7477
▁beforehand	-7478
▁collective	-7479
▁comparable	-7480
▁nationality	-7481
▁occasionally	-7482
47	-7483
tt	-7484
bar	-7485
bel	-7486
fin	-7487
fty	-7488
iva	-7489
jan	-7490
▁76	-7491
card	-7492
esth	-7493
gate	-7494
llor	-7495
mony	-7496
oooo	-7497
osis	-7498
oval	-7499
quis	-7500
will	-7501
▁140	-7502
▁boo	-7503
▁ecu	-7504
▁hid	-7505
▁jes	-7506
▁mcq	-7507
▁tue	-7508
▁vid	-7509
angar	-7510
gally	-7511
matic	-7512
orney	-7513
rence	-7514
store	-7515
▁abus	-7516
▁bust	-7517
▁cock	-7518
▁cunt	-7519
▁flip	-7520
▁fuss	-7521
▁imax	-7522
▁koll	-7523
▁scal	-7524
▁semi	-7525
▁sinc	-7526
▁thur	-7527
▁trop	-7528
▁tuks	-7529
▁unav	-7530
advant	-7531
awatte	-7532
orious	-7533
▁blast	-7534
▁chunk	-7535
▁cinec	-7536
▁essay	-7537
▁hindi	-7538
▁lotus	-7539
▁pende	-7540
▁rabie	-7541
▁shell	-7542
▁slide	-7543
▁trace	-7544
▁usaid	-7545
▁wikip	-7546
▁biased	-7547
▁bullet	-7548
▁redact	-7549
▁societ	-7550
▁tender	-7551
▁concert	-7552
▁hopeful	-7553
▁intense	-7554
▁israeli	-7555
▁millenn	-7556
▁nonstop	-7557
▁outlook	-7558
▁portray	-7559
▁radical	-7560
▁removal	-7561
▁smoking	-7562
▁sparkle	-7563
▁surgeon	-7564
advantage	-7565
fessional	-7566
▁chairman	-7567
▁clinical	-7568
▁hardcore	-7569
▁hardship	-7570
▁nandalal	-7571
▁prohibit	-7572
▁accessory	-7573
▁addiction	-7574
▁brilliant	-7575
▁corrupted	-7576
▁deduction	-7577
▁existence	-7578
▁guideline	-7579
▁hypocrisy	-7580
▁ignorance	-7581
▁notorious	-7582
▁anonymized	-7583
▁impressive	-7584
▁indirectly	-7585
▁phenomenon	-7586
▁underworld	-7587
▁worthwhile	-7588
▁bureaucracy	-7589
▁dissanayake	-7590
▁continuously	-7591
▁disadvantage	-7592
▁ridiculously	-7593
▁independently	-7594
▁restructuring	-7595
bps	-7596
equ	-7597
iam	-7598
▁44	-7599
▁68	-7600
▁bn	-7601
▁nv	-7602
alam	-7603
anut	-7604
gard	-7605
inte	-7606
ophy	-7607
ppet	-7608
rary	-7609
▁450	-7610
▁caf	-7611
▁dow	-7612
▁few	-7613
▁hap	-7614
▁has	-7615
▁ray	-7616
anker	-7617
hough	-7618
ished	-7619
licit	-7620
opard	-7621
otype	-7622
stone	-7623
▁bash	-7624
▁bump	-7625
▁deem	-7626
▁fron	-7627
▁junk	-7628
▁meta	-7629
▁pave	-7630
▁repe	-7631
▁smth	-7632
▁stir	-7633
▁trim	-7634
▁unac	-7635
▁usdt	-7636
liment	-7637
naruwa	-7638
▁atrad	-7639
▁bored	-7640
▁craft	-7641
▁daddy	-7642
▁eager	-7643
▁fonse	-7644
▁hoard	-7645
▁incur	-7646
▁mouse	-7647
▁redmi	-7648
▁scrap	-7649
▁sheer	-7650
▁snake	-7651
▁stere	-7652
▁theft	-7653
▁upsid	-7654
▁casino	-7655
▁contem	-7656
▁deputy	-7657
▁dilith	-7658
▁gamble	-7659
▁grandm	-7660
▁injury	-7661
▁invade	-7662
▁kumara	-7663
▁manual	-7664
▁meetup	-7665
▁phrase	-7666
▁profic	-7667
▁starve	-7668
unicipal	-7669
▁anxious	-7670
▁badulla	-7671
▁bitcoin	-7672
▁diverse	-7673
▁editing	-7674
▁empathy	-7675
▁endorse	-7676
▁england	-7677
▁instant	-7678
▁nuclear	-7679
▁running	-7680
▁textile	-7681
▁trainee	-7682
▁tuesday	-7683
▁unknown	-7684
▁virtual	-7685
▁attorney	-7686
▁forecast	-7687
▁merchant	-7688
▁rational	-7689
▁shoulder	-7690
▁sightsee	-7691
▁simplyte	-7692
▁survival	-7693
▁workload	-7694
▁animation	-7695
▁headphone	-7696
▁magically	-7697
▁substance	-7698
▁technique	-7699
▁wikipedia	-7700
▁limitation	-7701
▁occupation	-7702
▁optimistic	-7703
▁upsidedown	-7704
▁vulnerable	-7705
▁inefficient	-7706
▁instruction	-7707
▁permanently	-7708
▁reservation	-7709
▁presentation	-7710
▁surprisingly	-7711
▁comparatively	-7712
▁controversial	-7713
▁knowledgeable	-7714
▁representation	-7715
hs	-7716
cri	-7717
cse	-7718
lay	-7719
omi	-7720
sla	-7721
▁57	-7722
▁89	-7723
▁cm	-7724
▁ek	-7725
▁ti	-7726
atar	-7727
demn	-7728
home	-7729
iger	-7730
ithm	-7731
mine	-7732
rete	-7733
rony	-7734
rust	-7735
star	-7736
that	-7737
▁160	-7738
▁diy	-7739
▁hrs	-7740
▁org	-7741
▁oya	-7742
abase	-7743
iased	-7744
ithub	-7745
ities	-7746
uting	-7747
▁2012	-7748
▁2028	-7749
▁anth	-7750
▁atto	-7751
▁blog	-7752
▁cure	-7753
▁horn	-7754
▁obli	-7755
▁sony	-7756
school	-7757
▁accum	-7758
▁angle	-7759
▁cargo	-7760
▁cough	-7761
▁cowor	-7762
▁damro	-7763
▁fronx	-7764
▁furth	-7765
▁halal	-7766
▁hefty	-7767
▁overc	-7768
▁paran	-7769
▁petty	-7770
▁plaza	-7771
▁reset	-7772
▁saudi	-7773
ievable	-7774
▁boomer	-7775
▁creepy	-7776
▁deploy	-7777
▁exclus	-7778
▁freeze	-7779
▁github	-7780
▁invent	-7781
▁makeup	-7782
▁philos	-7783
▁resale	-7784
▁resell	-7785
▁ruhuna	-7786
▁bargain	-7787
▁closely	-7788
▁compass	-7789
▁condemn	-7790
▁counsel	-7791
▁dancing	-7792
▁dismiss	-7793
▁embrace	-7794
▁flavour	-7795
▁infront	-7796
▁invoice	-7797
▁isolate	-7798
▁jewelry	-7799
▁luckily	-7800
▁pensive	-7801
▁scandal	-7802
▁surface	-7803
▁telecom	-7804
▁wattala	-7805
▁feminism	-7806
▁historic	-7807
▁homophob	-7808
▁judgment	-7809
▁outsider	-7810
▁repeated	-7811
▁showcase	-7812
▁spectrum	-7813
▁tropical	-7814
mediumdark	-7815
▁classroom	-7816
▁illegally	-7817
▁integrity	-7818
▁massively	-7819
▁residency	-7820
▁calculator	-7821
▁controller	-7822
▁eventhough	-7823
▁homosexual	-7824
▁overcharge	-7825
▁processing	-7826
▁settlement	-7827
▁snorkeling	-7828
▁residential	-7829
▁distribution	-7830
▁manipulation	-7831
ml	-7832
ua	-7833
bow	-7834
log	-7835
orb	-7836
sex	-7837
urt	-7838
▁pp	-7839
irya	-7840
mavo	-7841
prit	-7842
root	-7843
tery	-7844
this	-7845
▁kia	-7846
▁kil	-7847
▁lee	-7848
▁rav	-7849
▁ves	-7850
adium	-7851
chain	-7852
plate	-7853
rency	-7854
speak	-7855
wheel	-7856
▁1200	-7857
▁2013	-7858
▁bend	-7859
▁clan	-7860
▁cond	-7861
▁ebay	-7862
▁lact	-7863
▁poya	-7864
▁sane	-7865
▁swap	-7866
▁swed	-7867
▁tiss	-7868
▁yell	-7869
▁yoga	-7870
around	-7871
bourne	-7872
nesday	-7873
ritory	-7874
▁chess	-7875
▁crony	-7876
▁curly	-7877
▁giant	-7878
▁greet	-7879
▁irony	-7880
▁jesus	-7881
▁karma	-7882
▁loser	-7883
▁multi	-7884
▁naive	-7885
▁outta	-7886
▁prabh	-7887
▁prest	-7888
▁rival	-7889
▁whale	-7890
asingly	-7891
colombo	-7892
flation	-7893
rection	-7894
ruption	-7895
▁500000	-7896
▁appare	-7897
▁ballot	-7898
▁barber	-7899
▁compat	-7900
▁endure	-7901
▁helped	-7902
▁jungle	-7903
▁kangar	-7904
▁metrop	-7905
▁motion	-7906
▁prayer	-7907
▁theore	-7908
▁unpaid	-7909
▁fonseka	-7910
▁grandma	-7911
▁idiotic	-7912
▁illness	-7913
▁neglect	-7914
▁stadium	-7915
atologist	-7916
▁arrogant	-7917
▁automate	-7918
▁database	-7919
▁exporter	-7920
▁headline	-7921
▁meantime	-7922
▁ofcourse	-7923
▁sensible	-7924
▁unbiased	-7925
▁volatile	-7926
▁communism	-7927
▁confusing	-7928
▁interpret	-7929
▁liquidity	-7930
▁luxurious	-7931
▁melbourne	-7932
▁rajapaksh	-7933
▁terminate	-7934
▁territory	-7935
▁wednesday	-7936
▁automobile	-7937
▁bookingcom	-7938
▁correction	-7939
▁regulatory	-7940
▁repeatedly	-7941
▁subjective	-7942
▁colonialism	-7943
▁grandfather	-7944
▁implication	-7945
▁polonnaruwa	-7946
▁problematic	-7947
▁substantial	-7948
▁historically	-7949
▁incompetence	-7950
▁increasingly	-7951
▁notification	-7952
▁bambalapitiya	-7953
▁intentionally	-7954
▁straightforward	-7955
800	-7956
▁	-7957
e	-7958
a	-7959
t	-7960
o	-7961
n	-7962
i	-7963
r	-7964
l	-7965
s	-7966
c	-7967
d	-7968
p	-7969
u	-7970
m	-7971
h	-7972
y	-7973
g	-7974
k	-7975
w	-7976
b	-7977
f	-7978
v	-7979
x	-7980
0	-7981
'	-7982
j	-7983
2	-7984
1	-7985
_	-7986
q	-7987
5	-7988
z	-7989
3	-7990
I	-7991
4	-7992
6	-7993
9	-7994
8	-7995
7	-7996
