<unk>	0
<s>	0
</s>	0
s	-4.37059
▁not	-4.4148
▁'	-4.44848
▁get	-4.82219
▁sri	-4.8641
▁	-4.87839
▁m	-4.93011
▁like	-4.98954
▁go	-5.11248
▁people	-5.15393
▁lanka	-5.19506
▁would	-5.22797
e	-5.27371
▁good	-5.33459
ly	-5.34022
▁know	-5.41561
▁one	-5.50946
▁do	-5.54417
▁time	-5.54623
▁even	-5.56662
▁well	-5.5766
_	-5.57665
▁make	-5.60017
▁also	-5.61624
▁work	-5.61798
▁I	-5.64893
▁think	-5.67161
▁country	-5.67981
ing	-5.69867
▁need	-5.70719
▁say	-5.70796
▁want	-5.70806
▁year	-5.72069
y	-5.72177
▁use	-5.7673
▁see	-5.78013
▁be	-5.82136
▁take	-5.83
▁ve	-5.85412
▁s	-5.89477
▁day	-5.89746
▁thing	-5.93356
▁look	-5.93601
▁come	-6.03376
er	-6.0625
▁give	-6.07107
▁pay	-6.07172
▁try	-6.0832
▁really	-6.10561
▁much	-6.11238
d	-6.1237
k	-6.1459
▁2	-6.16236
▁government	-6.17299
▁help	-6.18355
▁way	-6.20492
▁find	-6.21464
▁could	-6.22495
▁place	-6.23372
▁colombo	-6.24087
▁anyone	-6.24737
▁we	-6.2614
▁start	-6.26678
▁money	-6.26988
▁job	-6.28438
▁around	-6.28815
a	-6.30185
▁experience	-6.30497
▁back	-6.31076
▁lankan	-6.32745
▁still	-6.33922
▁1	-6.34821
▁feel	-6.35424
▁sl	-6.35471
▁3	-6.36637
▁ask	-6.38387
▁many	-6.38482
r	-6.41606
▁guy	-6.43181
▁month	-6.43252
▁something	-6.44298
▁thank	-6.44885
▁first	-6.45749
▁right	-6.45879
▁lot	-6.47105
▁life	-6.47376
▁company	-6.47633
▁will	-6.48268
▁new	-6.50175
▁can	-6.50907
▁live	-6.50961
▁buy	-6.51294
▁since	-6.51923
ed	-6.52743
al	-6.54695
▁issue	-6.55272
▁high	-6.55654
▁friend	-6.57146
▁price	-6.61422
▁plan	-6.62137
▁everyone	-6.6318
▁keep	-6.64624
▁someone	-6.65458
▁re	-6.6645
▁happen	-6.66589
▁post	-6.66653
▁long	-6.6722
▁degree	-6.69489
t	-6.71167
▁tell	-6.71424
▁call	-6.71639
▁bad	-6.71758
▁school	-6.71915
▁local	-6.72324
▁etc	-6.72569
▁d	-6.72594
▁car	-6.74378
▁university	-6.74658
b	-6.75541
▁student	-6.7563
▁4	-6.76781
▁let	-6.77841
▁please	-6.78894
▁travel	-6.79169
▁change	-6.79291
▁without	-6.79866
▁sure	-6.80737
▁family	-6.8078
▁might	-6.81717
▁never	-6.81774
▁mean	-6.81792
▁end	-6.82389
▁love	-6.83614
▁advice	-6.85285
▁seem	-6.85541
▁5	-6.86004
▁tax	-6.8689
▁business	-6.86901
ion	-6.87209
▁question	-6.88058
▁cost	-6.8945
▁bank	-6.90367
▁hear	-6.90859
th	-6.90957
▁anything	-6.91401
▁visit	-6.91999
▁two	-6.92871
▁leave	-6.93768
▁tamil	-6.94098
▁actually	-6.94524
▁always	-6.94722
▁point	-6.94733
▁you	-6.94749
▁every	-6.94781
▁learn	-6.94943
▁al	-6.94969
▁study	-6.96054
▁hi	-6.97369
▁understand	-6.97801
▁hard	-6.98104
n	-6.9826
▁problem	-6.98388
▁system	-6.99728
▁last	-6.99783
▁power	-7.00021
▁kind	-7.00098
▁another	-7.00402
▁move	-7.01053
▁old	-7.01425
▁part	-7.01537
▁stay	-7.01569
c	-7.01894
m	-7.02935
▁parent	-7.03117
▁option	-7.03404
p	-7.05039
▁support	-7.05131
▁big	-7.05243
▁talk	-7.05964
▁service	-7.06794
▁person	-7.07269
▁face	-7.07539
▁party	-7.07712
▁man	-7.08186
▁check	-7.09438
▁enough	-7.0992
▁may	-7.10003
▁market	-7.10186
▁consider	-7.10716
▁next	-7.1105
▁idea	-7.11124
i	-7.12256
▁10	-7.12322
▁public	-7.12683
▁week	-7.1283
▁salary	-7.1305
▁private	-7.1318
▁home	-7.13265
▁situation	-7.13324
▁show	-7.14083
▁reason	-7.14146
▁different	-7.1459
▁world	-7.14674
l	-7.1502
▁free	-7.15095
▁already	-7.15155
▁food	-7.16012
▁u	-7.16199
▁share	-7.16281
or	-7.17823
▁vehicle	-7.18055
▁bit	-7.18101
▁maybe	-7.18247
▁account	-7.18517
▁vote	-7.18698
in	-7.19089
▁become	-7.1921
▁small	-7.19327
▁appreciate	-7.19639
▁state	-7.19815
▁area	-7.19971
▁build	-7.21196
▁online	-7.2229
▁put	-7.22971
▁low	-7.23173
▁spend	-7.23286
▁open	-7.24353
▁great	-7.2458
▁run	-7.25132
▁base	-7.25329
▁c	-7.25643
▁foreign	-7.25915
▁offer	-7.2611
▁education	-7.26228
▁due	-7.26272
▁un	-7.26913
▁everything	-7.27091
▁real	-7.27634
▁i	-7.27888
▁case	-7.28093
▁stop	-7.28186
▁6	-7.2863
▁house	-7.28931
▁able	-7.2912
▁per	-7.29359
g	-7.29413
able	-7.29612
face	-7.29799
▁however	-7.30491
ic	-7.3075
▁that	-7.31363
▁currently	-7.32017
▁income	-7.32041
▁least	-7.32069
▁current	-7.32199
▁less	-7.32594
▁class	-7.33065
▁either	-7.33068
▁especially	-7.33223
▁card	-7.33771
▁india	-7.34232
▁else	-7.34283
▁though	-7.34323
▁social	-7.349
▁stuff	-7.34962
▁sinhala	-7.35173
▁number	-7.35511
▁recently	-7.35675
▁level	-7.36465
▁kid	-7.37049
▁bring	-7.37064
▁uni	-7.37235
▁far	-7.37256
▁speak	-7.37775
ation	-7.38126
te	-7.38153
▁amount	-7.38929
▁future	-7.39497
▁pretty	-7.39497
st	-7.39604
▁follow	-7.39835
▁bus	-7.39965
h	-7.40136
▁nothing	-7.40795
▁abroad	-7.41081
▁english	-7.41308
▁side	-7.419
▁drive	-7.42492
▁advance	-7.42913
▁doctor	-7.42921
▁loan	-7.42992
▁apply	-7.43051
▁care	-7.43542
▁believe	-7.43578
▁hand	-7.43927
▁medium	-7.44204
▁similar	-7.4425
▁read	-7.44789
▁mention	-7.44928
▁hope	-7.45224
▁g	-7.45236
▁hey	-7.45483
▁lose	-7.45543
▁term	-7.45717
▁political	-7.45748
▁shit	-7.46234
▁book	-7.46388
▁earn	-7.46419
▁land	-7.47156
▁course	-7.4772
▁recommend	-7.4777
▁trip	-7.48035
▁cause	-7.48456
▁economic	-7.48488
▁yes	-7.48612
▁lkr	-7.48633
▁increase	-7.48639
▁other	-7.48649
▁rate	-7.48668
▁thought	-7.49521
▁law	-7.49527
▁war	-7.49862
▁ranil	-7.50369
o	-7.50449
▁close	-7.5068
▁kandy	-7.50784
▁hour	-7.50871
▁whole	-7.50931
▁lankans	-7.51038
▁phone	-7.51282
▁play	-7.51354
▁provide	-7.51788
▁group	-7.51884
▁police	-7.51931
▁to	-7.52045
▁app	-7.52504
▁sell	-7.52729
▁name	-7.53023
▁little	-7.53599
▁possible	-7.5374
▁send	-7.53745
▁b	-7.53836
▁economy	-7.53912
▁20	-7.5421
▁away	-7.5439
▁worth	-7.54497
▁matter	-7.54743
▁past	-7.54932
ment	-7.54989
▁expect	-7.55011
▁girl	-7.55084
▁whether	-7.55334
▁include	-7.55495
▁woman	-7.55913
▁instead	-7.55995
▁opportunity	-7.56248
▁wrong	-7.57011
▁election	-7.57125
▁comment	-7.57189
▁opinion	-7.57694
▁personal	-7.58189
▁night	-7.58246
▁project	-7.58394
u	-7.58402
on	-7.58502
▁tourist	-7.58519
▁probably	-7.5873
with	-7.59022
▁process	-7.59335
▁easy	-7.59422
▁mind	-7.59881
▁policy	-7.59946
▁field	-7.60053
f	-7.60325
▁culture	-7.60399
▁child	-7.60928
▁wonder	-7.61429
▁full	-7.62546
▁create	-7.62987
le	-7.63122
▁skill	-7.63241
▁recommendation	-7.63405
▁train	-7.64066
▁watch	-7.64538
▁datum	-7.64884
▁invest	-7.6497
▁within	-7.65073
▁today	-7.65265
▁npp	-7.65282
▁import	-7.6534
▁taxis	-7.65616
▁industry	-7.65995
▁7	-7.66032
re	-7.66308
▁in	-7.66483
▁100	-7.66548
▁charge	-7.66578
▁order	-7.66852
▁payment	-7.66954
▁south	-7.66955
▁almost	-7.67029
▁choose	-7.67131
▁ago	-7.67269
▁fund	-7.67375
▁example	-7.675
▁quite	-7.6795
▁na	-7.68075
▁driver	-7.68084
▁allow	-7.68146
an	-7.68208
▁us	-7.68426
▁result	-7.6854
▁hold	-7.68711
▁package	-7.6912
▁add	-7.69198
▁deal	-7.69284
▁research	-7.69308
▁president	-7.6949
▁wait	-7.69562
▁remember	-7.696
▁usually	-7.69624
▁there	-7.69639
▁top	-7.6968
▁a	-7.70056
▁save	-7.70202
▁politician	-7.70379
▁hotel	-7.70488
▁compare	-7.70761
ity	-7.7081
▁cheap	-7.71152
▁30	-7.71301
▁budget	-7.71446
▁yet	-7.71742
▁general	-7.71865
▁quality	-7.71876
▁turn	-7.72284
▁second	-7.72433
▁international	-7.72448
▁ever	-7.72547
▁x	-7.72604
▁science	-7.72952
▁visa	-7.72973
▁value	-7.72977
▁early	-7.733
▁career	-7.73449
▁road	-7.73459
▁game	-7.737
▁fuck	-7.74055
▁cut	-7.74135
▁exam	-7.74143
▁decide	-7.74541
▁meet	-7.74992
▁must	-7.7526
it	-7.75782
▁notice	-7.75851
▁fact	-7.76129
▁15	-7.76192
▁story	-7.76511
▁short	-7.76868
▁focus	-7.77003
▁interest	-7.77211
at	-7.77224
▁engineering	-7.77256
▁beach	-7.77809
▁lead	-7.77919
▁suggestion	-7.78038
▁national	-7.78107
▁information	-7.78607
▁community	-7.79004
▁million	-7.79144
▁pass	-7.79217
▁near	-7.79232
x	-7.79456
▁language	-7.79534
▁answer	-7.80062
▁break	-7.80739
▁final	-7.81183
▁return	-7.81253
▁set	-7.81526
▁head	-7.82035
▁couple	-7.82121
▁investment	-7.8229
▁8	-7.82543
▁trust	-7.82666
▁true	-7.83773
▁city	-7.84415
ce	-7.84518
▁video	-7.84665
▁receive	-7.84666
▁grow	-7.84706
▁product	-7.85224
▁main	-7.85441
▁suggest	-7.85803
▁ella	-7.85871
▁write	-7.85885
v	-7.85945
▁rather	-7.86022
▁depend	-7.86357
▁young	-7.86502
▁mostly	-7.86705
▁brand	-7.87548
▁rs	-7.87785
se	-7.88497
▁agree	-7.88501
▁chance	-7.88674
▁manage	-7.88691
▁normal	-7.88834
▁decision	-7.88905
▁honestly	-7.89166
▁age	-7.89556
▁health	-7.8977
▁develop	-7.89794
▁software	-7.89845
▁join	-7.90171
▁proper	-7.90318
▁force	-7.90798
▁12	-7.90882
▁fine	-7.91126
▁usd	-7.91275
▁lol	-7.91431
▁majority	-7.91447
▁r	-7.91925
en	-7.91951
▁basically	-7.92008
▁type	-7.92236
▁debt	-7.926
▁history	-7.92603
▁financial	-7.92615
▁hospital	-7.92799
▁shop	-7.92904
▁safe	-7.92948
▁program	-7.9331
▁fix	-7.93704
▁fall	-7.9399
▁edit	-7.94347
▁sector	-7.94687
▁slt	-7.94776
▁often	-7.94934
▁available	-7.94956
▁act	-7.94991
▁complete	-7.9514
▁important	-7.95219
▁lack	-7.95314
▁sinhalese	-7.95442
▁decent	-7.95567
▁require	-7.95755
▁galle	-7.95952
▁they	-7.95958
▁de	-7.96056
▁connection	-7.96247
▁rule	-7.96399
▁date	-7.96537
▁later	-7.96652
▁corruption	-7.96759
▁single	-7.96823
▁crisis	-7.96956
▁sometimes	-7.97462
▁indian	-7.9755
▁interested	-7.97761
▁expensive	-7.97835
▁report	-7.98366
▁definitely	-7.98476
▁tip	-7.98494
▁uk	-7.98563
▁soon	-7.98589
▁dialog	-7.98626
ra	-7.98669
▁relate	-7.98737
▁fee	-7.98956
▁regard	-7.98972
▁9	-7.99016
w	-7.99317
▁certain	-7.99813
▁total	-8.00175
▁50	-8.00261
▁what	-8.00395
▁protest	-8.00718
▁contact	-8.00953
▁team	-8.00991
▁v	-8.01103
▁subject	-8.01458
▁middle	-8.01509
de	-8.01542
▁benefit	-8.01616
▁position	-8.02048
▁internet	-8.02559
▁unless	-8.02595
▁nice	-8.02663
▁avoid	-8.02685
▁late	-8.0276
▁common	-8.02958
nd	-8.02971
▁teacher	-8.03046
▁website	-8.03099
▁cover	-8.03384
▁choice	-8.0363
▁water	-8.03681
▁office	-8.03875
▁basic	-8.04165
▁planning	-8.04311
▁credit	-8.044
▁hello	-8.04409
▁guess	-8.0472
▁engineer	-8.04721
▁stock	-8.04883
▁medical	-8.04997
▁speed	-8.0502
▁politic	-8.05099
▁eat	-8.05179
▁line	-8.05262
▁fair	-8.05553
▁claim	-8.0592
▁knowledge	-8.05966
▁teach	-8.05967
▁enjoy	-8.06244
▁rent	-8.06532
▁large	-8.06595
▁control	-8.06917
▁detail	-8.06941
▁fuel	-8.07234
▁personally	-8.07622
▁official	-8.07641
▁struggle	-8.07641
▁reach	-8.07667
▁word	-8.08819
▁special	-8.0882
▁tech	-8.08845
▁e	-8.08915
▁ll	-8.0893
▁list	-8.09078
age	-8.09165
▁huge	-8.09209
▁srilanka	-8.09302
▁view	-8.09423
▁govt	-8.09895
▁step	-8.09958
▁poor	-8.10255
▁news	-8.10285
200	-8.10363
▁genuine	-8.10504
▁clear	-8.10775
▁happy	-8.10833
ist	-8.11105
ize	-8.11157
▁treat	-8.1118
▁sound	-8.11403
▁pm	-8.11429
▁scam	-8.11537
▁pro	-8.11591
▁yeah	-8.11679
▁sort	-8.11973
▁legal	-8.12201
▁expense	-8.12411
us	-8.12492
▁outside	-8.12524
▁individual	-8.12564
▁miss	-8.12778
▁continue	-8.12907
▁fail	-8.13148
▁25	-8.13174
▁bill	-8.13213
▁improve	-8.1325
▁security	-8.13316
1	-8.13429
▁ai	-8.13431
▁minister	-8.13754
▁reduce	-8.13902
▁waste	-8.13938
ar	-8.14072
▁f	-8.14115
▁paper	-8.14659
▁stand	-8.14663
▁major	-8.15066
▁super	-8.15262
▁towards	-8.15323
▁p	-8.15521
▁customer	-8.15578
▁wan	-8.15618
▁society	-8.15722
▁period	-8.16182
▁whatever	-8.16195
▁parliament	-8.16312
▁cash	-8.16361
▁finance	-8.16419
▁walk	-8.16494
▁human	-8.16656
▁literally	-8.16992
▁drop	-8.17009
▁graduate	-8.17264
▁source	-8.17289
ma	-8.17484
▁risk	-8.1756
▁sub	-8.17564
up	-8.17916
2	-8.17937
▁path	-8.18007
▁accept	-8.18268
z	-8.1848
▁completely	-8.18491
▁ltte	-8.18836
▁strong	-8.1898
▁he	-8.19266
▁update	-8.19305
▁test	-8.19317
▁concern	-8.19474
▁event	-8.19533
▁rupee	-8.19781
▁google	-8.19941
▁average	-8.19947
▁demand	-8.20121
▁transfer	-8.20421
▁professional	-8.20477
▁hop	-8.20495
▁island	-8.20582
▁religion	-8.20592
▁dollar	-8.20754
▁sense	-8.20771
▁airport	-8.20907
▁imf	-8.2092
▁interview	-8.21065
▁specific	-8.21107
▁self	-8.21122
▁development	-8.2115
▁non	-8.21155
▁forward	-8.21227
▁con	-8.2134
ant	-8.21383
▁china	-8.21564
▁hit	-8.21607
▁sit	-8.21909
▁employee	-8.22041
▁figure	-8.22201
▁master	-8.22247
▁math	-8.22276
▁purchase	-8.22364
▁across	-8.22857
▁court	-8.23021
▁pick	-8.23058
▁form	-8.23131
▁akd	-8.23187
▁fast	-8.23201
▁alone	-8.23238
▁jvp	-8.23382
▁action	-8.23493
▁handle	-8.2396
▁l	-8.23968
▁ol	-8.24148
▁standard	-8.24207
▁getting	-8.24318
▁mother	-8.24415
▁affect	-8.24513
▁light	-8.24745
▁entire	-8.24871
▁moment	-8.25027
▁t	-8.25083
of	-8.25114
▁together	-8.25352
ur	-8.25591
▁internship	-8.25697
▁tuk	-8.25721
▁who	-8.2573
▁all	-8.25731
▁hire	-8.25864
▁solution	-8.26029
▁hate	-8.26113
▁australia	-8.2612
▁leader	-8.26222
3	-8.26363
▁link	-8.26369
ate	-8.26881
▁have	-8.27269
is	-8.27304
▁afford	-8.275
▁via	-8.27549
am	-8.27624
▁difficult	-8.27757
▁rest	-8.27812
▁clean	-8.27912
▁exist	-8.28095
▁nation	-8.28156
▁three	-8.28433
▁red	-8.28544
▁model	-8.28657
▁reddit	-8.28878
▁site	-8.2908
▁citizen	-8.29124
▁extra	-8.29406
▁tea	-8.29438
▁relationship	-8.29659
ive	-8.2973
▁document	-8.29779
▁ps	-8.29992
▁item	-8.30186
▁practice	-8.30363
▁spot	-8.30381
▁transport	-8.30477
▁rich	-8.30572
▁role	-8.30912
▁difference	-8.31074
▁plus	-8.31343
▁member	-8.31415
na	-8.31473
▁behind	-8.3161
▁despi	-8.31791
▁management	-8.31871
▁19	-8.32041
▁actual	-8.3222
▁trade	-8.3251
▁along	-8.32519
▁simply	-8.32692
▁attack	-8.32692
▁curious	-8.33056
▁gr	-8.33098
▁network	-8.33242
▁candidate	-8.3342
▁explore	-8.33603
▁forget	-8.33786
▁currency	-8.33978
▁select	-8.34025
▁explain	-8.34153
▁win	-8.34368
▁generation	-8.34465
▁sorry	-8.34522
▁design	-8.34657
▁accord	-8.347
▁exactly	-8.3475
ri	-8.34932
▁blame	-8.35081
▁laptop	-8.35263
▁gain	-8.3532
▁mental	-8.35423
▁medicine	-8.35636
ary	-8.35655
▁kill	-8.3568
▁mobile	-8.35743
▁room	-8.35887
▁corrupt	-8.35923
▁luck	-8.36086
▁insight	-8.36198
▁wife	-8.36414
um	-8.36465
hand	-8.36656
▁air	-8.36664
▁absolutely	-8.36741
▁limit	-8.36773
▁half	-8.36944
▁23	-8.36959
ry	-8.37019
smiling	-8.37164
▁note	-8.37183
▁store	-8.37197
▁pre	-8.37309
▁wish	-8.37364
la	-8.37581
ness	-8.37642
▁white	-8.3831
▁involve	-8.38424
▁access	-8.38588
▁correct	-8.38775
▁daily	-8.38866
▁ticket	-8.39056
▁raise	-8.3926
▁directly	-8.39582
▁cricket	-8.39636
▁stream	-8.4012
▁address	-8.40417
▁previous	-8.40524
▁owner	-8.40548
ty	-8.40647
rd	-8.40654
co	-8.40668
▁western	-8.40838
▁recent	-8.40946
▁willing	-8.4103
▁music	-8.41392
▁potential	-8.416
▁fun	-8.41656
▁bear	-8.41823
▁gb	-8.4216
▁foreigner	-8.42346
▁sign	-8.42482
▁park	-8.42511
▁respect	-8.4257
▁license	-8.42595
▁anyway	-8.42736
▁easily	-8.42795
▁covid	-8.42996
▁resource	-8.43405
▁message	-8.43426
▁beautiful	-8.44006
▁simple	-8.44009
▁temple	-8.44419
▁prefer	-8.44598
▁stick	-8.44614
▁platform	-8.44618
▁multiple	-8.44619
▁okay	-8.44622
il	-8.44713
▁wear	-8.44727
ent	-8.44792
▁dad	-8.44976
▁weather	-8.45232
▁assume	-8.45438
▁k	-8.45487
▁range	-8.45492
ance	-8.45603
▁condition	-8.45614
▁monthly	-8.45766
▁insurance	-8.45851
man	-8.46021
▁migrate	-8.46268
▁civil	-8.46281
less	-8.46346
▁movie	-8.46473
▁bro	-8.46638
▁tourism	-8.46697
▁sever	-8.4674
▁morning	-8.4689
▁father	-8.46892
▁remain	-8.471
▁muslim	-8.47134
▁restaurant	-8.47328
▁realize	-8.47443
▁fight	-8.47498
▁connect	-8.47626
▁maintain	-8.47737
▁living	-8.47749
ie	-8.47875
▁push	-8.47952
▁suffer	-8.48152
▁18	-8.48241
▁gota	-8.48466
ish	-8.48629
▁switch	-8.48789
▁traffic	-8.48789
▁brother	-8.4879
▁decade	-8.4922
▁worry	-8.4943
▁honest	-8.49596
▁north	-8.4965
▁match	-8.49696
ism	-8.49882
▁helpful	-8.50038
▁aware	-8.5006
▁location	-8.50075
▁bike	-8.50091
▁remove	-8.50134
▁worker	-8.50147
▁mom	-8.50188
j	-8.50222
▁partner	-8.50306
▁thinking	-8.50975
▁serious	-8.51116
▁promise	-8.51199
▁ill	-8.51233
el	-8.51421
▁computer	-8.51846
▁seat	-8.52029
▁senior	-8.52036
▁register	-8.52477
▁canada	-8.52515
▁custom	-8.52558
un	-8.52625
▁crime	-8.52698
▁enter	-8.52736
▁w	-8.52759
▁space	-8.52961
ne	-8.5301
▁inflation	-8.53142
▁physical	-8.5333
▁eye	-8.53377
▁environment	-8.53666
as	-8.53688
▁port	-8.53761
▁40	-8.53924
▁passport	-8.54075
▁extremely	-8.54212
▁sajith	-8.54487
▁balance	-8.54491
ch	-8.54524
▁minute	-8.54537
▁unfortunately	-8.54559
ha	-8.54696
▁finish	-8.54715
▁background	-8.54728
▁saving	-8.54753
▁h	-8.54764
▁sport	-8.54784
▁station	-8.54803
▁protect	-8.54854
▁2025	-8.54885
▁ride	-8.54936
▁somewhere	-8.54939
▁likely	-8.55003
▁ur	-8.551
▁digital	-8.55165
▁activity	-8.55171
▁search	-8.55183
▁military	-8.55188
▁sigiriya	-8.55195
▁reliable	-8.5524
ise	-8.55355
▁hell	-8.55362
ge	-8.55413
▁n	-8.55425
▁st	-8.55484
▁complain	-8.55487
▁youtube	-8.55689
and	-8.55778
▁mess	-8.55822
▁obviously	-8.55829
▁marry	-8.55859
ya	-8.56126
▁mainly	-8.56133
id	-8.56147
▁op	-8.5635
▁manager	-8.56438
▁info	-8.56468
4	-8.56511
▁particular	-8.56536
▁till	-8.56602
▁staff	-8.56799
▁letter	-8.56845
▁hair	-8.57008
uz	-8.57027
im	-8.57225
5	-8.57465
out	-8.5754
▁email	-8.57694
▁singapore	-8.57927
▁jaffna	-8.57942
▁buddhist	-8.57965
▁fit	-8.58105
▁tv	-8.58216
▁highly	-8.58285
▁officer	-8.58442
▁stupid	-8.58583
▁route	-8.58923
▁die	-8.5917
▁profit	-8.59281
▁uber	-8.59379
▁property	-8.59383
▁reply	-8.59452
the	-8.59493
▁properly	-8.59584
▁begin	-8.59589
▁remote	-8.59811
▁truly	-8.59811
20	-8.60034
▁arrive	-8.6005
▁channel	-8.6005
▁minimum	-8.6005
▁record	-8.6005
න	-8.60171
▁11	-8.60328
▁unit	-8.60352
▁dream	-8.60528
▁seek	-8.60555
▁dr	-8.60717
▁catch	-8.60779
▁inside	-8.60781
▁review	-8.60788
▁fully	-8.60922
▁army	-8.60954
▁itinerary	-8.61008
▁suppose	-8.61027
▁request	-8.61732
▁context	-8.61733
ve	-8.61769
▁among	-8.61915
▁anymore	-8.61978
▁clearly	-8.62047
▁content	-8.62496
▁vi	-8.62567
▁folk	-8.62713
▁track	-8.6275
▁grade	-8.62764
▁east	-8.62765
▁reality	-8.62883
▁global	-8.62961
▁ban	-8.63058
▁gov	-8.63327
▁effort	-8.63691
li	-8.63796
▁lie	-8.63897
▁street	-8.63966
▁boy	-8.64114
▁router	-8.64125
▁random	-8.64187
▁16	-8.64264
ful	-8.64362
▁rain	-8.64417
▁qualification	-8.64435
▁central	-8.64435
▁eliya	-8.64443
▁goal	-8.64851
▁technology	-8.64934
▁gym	-8.65187
▁front	-8.65309
▁certificate	-8.65436
▁cool	-8.65448
ta	-8.65465
▁ex	-8.65513
▁growth	-8.65683
▁key	-8.65686
▁college	-8.65688
▁title	-8.6569
▁educate	-8.65766
▁carry	-8.65851
▁topic	-8.6615
▁dude	-8.66227
▁marriage	-8.6623
▁slow	-8.66329
▁nuwara	-8.66488
▁13	-8.66504
▁user	-8.66664
▁code	-8.66859
▁unlimited	-8.66957
▁population	-8.66958
▁listen	-8.67024
▁cultural	-8.67039
▁fellow	-8.67213
▁religious	-8.67526
▁except	-8.67622
▁dog	-8.67675
▁overseas	-8.67729
▁ok	-8.67957
ia	-8.68217
▁institution	-8.68243
▁overall	-8.68248
▁ppl	-8.68253
▁pursue	-8.68276
▁department	-8.68508
▁seriously	-8.68554
▁se	-8.68663
▁alternative	-8.68764
▁block	-8.68782
▁incident	-8.69022
▁pressure	-8.69027
▁facebook	-8.69069
▁exchange	-8.69285
to	-8.69321
▁lawyer	-8.69547
▁club	-8.69594
▁eventually	-8.69807
joy	-8.69825
▁deep	-8.69862
me	-8.70043
▁mid	-8.7019
▁mark	-8.70561
▁guide	-8.70583
▁wedding	-8.70599
et	-8.70605
▁attend	-8.70843
▁body	-8.70849
▁pr	-8.70906
▁imagine	-8.70933
▁fill	-8.7122
▁essential	-8.71426
▁24	-8.7144
▁sad	-8.71571
▁regular	-8.71664
▁straight	-8.71666
▁black	-8.71666
▁tend	-8.71813
▁massive	-8.71948
▁smart	-8.72198
▁challenge	-8.72201
line	-8.72347
▁ad	-8.72391
da	-8.72638
▁fly	-8.7287
di	-8.73134
▁stress	-8.73266
▁although	-8.73298
▁academic	-8.73319
tears	-8.73446
▁vs	-8.7352
▁relative	-8.73623
▁sale	-8.73796
▁tour	-8.73804
▁unp	-8.73836
▁otherwise	-8.73844
▁am	-8.73867
▁welcome	-8.74103
▁method	-8.74104
▁sliit	-8.74104
▁14	-8.74108
▁200	-8.74136
▁60	-8.74216
▁present	-8.74315
▁flight	-8.74404
▁safety	-8.7443
▁significant	-8.74476
▁application	-8.74653
▁electricity	-8.7467
▁doubt	-8.74676
▁z	-8.74716
▁file	-8.74756
ti	-8.74774
▁popular	-8.75179
▁billion	-8.75427
▁amazing	-8.75484
▁reform	-8.75505
▁direct	-8.7557
6	-8.75729
▁idk	-8.75841
▁implement	-8.75979
▁crazy	-8.76042
▁export	-8.76373
ul	-8.76429
▁interesting	-8.7653
▁modern	-8.76553
▁fake	-8.76614
▁po	-8.76642
▁sjb	-8.76886
▁comfortable	-8.77027
▁_	-8.77092
▁achieve	-8.77114
▁startup	-8.7723
▁page	-8.77307
▁btw	-8.77451
com	-8.77561
▁discuss	-8.77631
▁ignore	-8.77735
nt	-8.77743
▁art	-8.77852
▁ac	-8.77917
▁cs	-8.77937
▁elephant	-8.7802
▁over	-8.78122
▁bar	-8.78177
▁mistake	-8.78214
▁repair	-8.78307
▁mine	-8.78426
▁stable	-8.78439
▁contract	-8.78517
▁impact	-8.78592
▁mirissa	-8.78592
▁dis	-8.78755
▁settle	-8.78844
▁building	-8.79058
sa	-8.79381
ship	-8.79458
▁inform	-8.79984
▁rajapaksa	-8.80063
▁active	-8.80126
▁approach	-8.80329
▁fear	-8.80342
▁2022	-8.80696
▁folde	-8.80707
▁dm	-8.80764
ily	-8.80855
▁oil	-8.80892
▁truth	-8.80914
▁fan	-8.80956
▁fire	-8.81083
▁throw	-8.81211
▁nature	-8.81214
▁prove	-8.8129
▁necessary	-8.81301
▁board	-8.81426
▁requirement	-8.81628
▁generally	-8.81759
▁apartment	-8.81843
▁progress	-8.82071
▁confirm	-8.82096
ine	-8.82151
▁imo	-8.82183
▁ship	-8.82292
▁usa	-8.82368
▁chinese	-8.82394
▁solid	-8.82396
▁town	-8.824
▁ground	-8.82493
▁solve	-8.82773
lo	-8.82811
▁ass	-8.82859
▁god	-8.82978
▁joke	-8.83004
▁purpose	-8.83016
▁traditional	-8.83144
ous	-8.83168
▁energy	-8.83292
▁patient	-8.83292
▁response	-8.83292
ro	-8.83423
▁hide	-8.83506
▁mahinda	-8.83593
▁target	-8.83593
▁2024	-8.8368
▁client	-8.83895
▁everywhere	-8.83903
▁rise	-8.83948
do	-8.83987
ally	-8.84125
▁rid	-8.84135
▁reserve	-8.84597
op	-8.84799
▁sleep	-8.84807
▁battery	-8.84808
9	-8.84821
▁refuse	-8.84889
▁drink	-8.85104
▁promote	-8.85125
▁eg	-8.85145
▁foot	-8.85161
▁80	-8.85206
▁discussion	-8.85225
▁article	-8.8542
▁beyond	-8.8542
▁heart	-8.85446
▁west	-8.85599
▁elect	-8.85625
▁factor	-8.8563
▁third	-8.85736
▁advise	-8.86036
▁anywhere	-8.86037
▁natural	-8.86061
▁specifically	-8.86065
▁print	-8.86151
▁serve	-8.86206
go	-8.86216
▁90	-8.86271
one	-8.86291
▁female	-8.86345
▁illegal	-8.86483
ol	-8.86605
▁double	-8.86656
▁mindset	-8.8667
▁asia	-8.86933
▁healthcare	-8.86974
▁luxury	-8.86988
▁it	-8.86998
▁loss	-8.8703
▁british	-8.87283
▁freedom	-8.8729
▁collect	-8.87466
▁foundation	-8.87601
▁deposit	-8.87604
▁coast	-8.87764
▁adult	-8.87911
▁apparently	-8.88267
▁picture	-8.8854
▁regardless	-8.88592
▁pickme	-8.8889
▁an	-8.88899
▁prepare	-8.8891
▁ready	-8.88965
▁facility	-8.89176
▁institute	-8.89192
▁o	-8.8924
▁brain	-8.89495
▁authority	-8.89508
▁hike	-8.89576
▁peace	-8.89798
▁opposition	-8.89818
▁death	-8.89833
▁release	-8.90137
▁conversation	-8.90148
▁influence	-8.90297
light	-8.90336
▁count	-8.90555
▁copy	-8.91012
▁arrest	-8.91108
▁web	-8.91132
8	-8.91195
▁july	-8.91252
work	-8.91279
▁17	-8.91337
▁anti	-8.91349
▁co	-8.91357
tone	-8.91365
▁sim	-8.91538
▁perspective	-8.91761
▁responsibility	-8.9177
▁wage	-8.91831
he	-8.91877
▁mp	-8.91884
▁srilankan	-8.91973
▁none	-8.92068
▁commission	-8.9209
▁status	-8.92102
▁original	-8.92336
▁delivery	-8.92413
▁scholarship	-8.92419
▁2019	-8.92532
▁union	-8.92545
▁capital	-8.92554
▁perfect	-8.92595
no	-8.92698
▁positive	-8.92748
▁heavy	-8.9278
▁commit	-8.92953
ud	-8.92999
▁gold	-8.93066
▁deliver	-8.93116
ru	-8.93256
▁complaint	-8.93273
▁trouble	-8.93456
▁oh	-8.93582
▁download	-8.93746
▁asian	-8.93858
ian	-8.94076
▁subreddit	-8.94079
ter	-8.94141
▁zero	-8.94415
▁green	-8.94415
▁vibe	-8.9453
inning	-8.9479
▁infrastructure	-8.95089
▁replace	-8.95398
▁steal	-8.95431
▁bunch	-8.95437
▁revenue	-8.95444
▁shift	-8.95769
▁secure	-8.95771
▁marketing	-8.95862
▁km	-8.96
▁physics	-8.96111
▁hopefully	-8.96188
▁quick	-8.96314
vi	-8.96426
▁cook	-8.96478
▁technical	-8.96567
mo	-8.9671
▁justice	-8.96795
▁500	-8.96813
▁ha	-8.96831
ot	-8.96968
▁wise	-8.96979
▁barely	-8.96983
▁practical	-8.97053
▁tho	-8.97079
▁attempt	-8.9714
▁affordable	-8.97325
▁any	-8.97425
▁sudden	-8.97486
▁minority	-8.97505
▁campus	-8.97513
▁21	-8.97574
▁greatly	-8.97595
50	-8.97714
▁photo	-8.97832
▁score	-8.9828
tic	-8.98301
▁intern	-8.98322
▁drug	-8.98448
▁own	-8.98513
▁friendly	-8.98521
0000	-8.98554
ad	-8.98653
▁immediately	-8.98727
▁independent	-8.98882
▁supply	-8.98882
▁tough	-8.98882
7	-8.99011
▁out	-8.99022
▁atleast	-8.99235
▁abuse	-8.99242
▁chill	-8.99267
▁agent	-8.99291
▁gen	-8.99582
▁trend	-8.9959
▁prevent	-8.99594
ho	-8.99609
▁negombo	-8.99627
▁meal	-8.99632
▁employer	-8.9973
▁35	-8.99839
▁tuition	-8.99943
▁touch	-8.99951
▁pull	-8.99954
▁gas	-8.99974
ex	-9.00043
▁produce	-9.0033
▁season	-9.00356
▁rock	-9.00652
▁performance	-9.00674
▁negative	-9.00701
ana	-9.00844
▁effect	-9.0099
▁ruin	-9.01015
▁nobody	-9.01023
▁asset	-9.01035
▁burn	-9.01071
▁spread	-9.01376
▁ahead	-9.01387
▁tuktuk	-9.01403
30	-9.01514
min	-9.01677
▁45	-9.01782
▁300	-9.01815
▁stage	-9.01831
ni	-9.02045
▁rag	-9.02051
▁apart	-9.02056
▁cancel	-9.02098
▁weird	-9.02099
▁race	-9.02138
▁pure	-9.02265
▁plenty	-9.02461
▁corporate	-9.02465
▁star	-9.02767
▁male	-9.02797
▁somehow	-9.02826
▁treatment	-9.02958
mi	-9.02961
▁diploma	-9.0317
▁sex	-9.0318
▁wifi	-9.03194
▁feedback	-9.03201
▁rare	-9.03255
▁pc	-9.03347
hi	-9.03506
▁min	-9.03517
ster	-9.03549
▁rice	-9.03583
▁under	-9.03851
▁1000	-9.03857
▁attention	-9.03929
▁discipline	-9.03929
▁cross	-9.03973
▁rank	-9.04072
▁fresh	-9.04095
▁usual	-9.04214
wa	-9.04252
skin	-9.04261
▁introduce	-9.04299
▁racist	-9.04299
▁typical	-9.04299
si	-9.04607
▁europe	-9.04624
▁advantage	-9.04671
▁holiday	-9.04671
▁permit	-9.04671
▁emergency	-9.04671
▁august	-9.04698
▁survive	-9.04726
▁contribute	-9.04744
▁faculty	-9.05044
▁crowd	-9.0507
be	-9.05106
▁dead	-9.05135
▁shy	-9.05276
arious	-9.05392
▁yesterday	-9.05418
▁scene	-9.0542
ba	-9.05655
▁voter	-9.05725
▁bachelor	-9.05794
▁flag	-9.05889
ම	-9.05906
▁center	-9.05937
▁ra	-9.06012
▁training	-9.06044
▁blood	-9.06165
▁deserve	-9.06176
▁tbh	-9.06196
▁reasonable	-9.06255
▁slightly	-9.06315
▁ar	-9.06322
▁statement	-9.06514
▁dumb	-9.06588
▁host	-9.0659
▁weekend	-9.06604
pa	-9.06652
ure	-9.06844
▁material	-9.06931
▁damage	-9.06937
10	-9.07289
▁150	-9.07307
▁prime	-9.07319
▁entry	-9.07321
▁ethnic	-9.07324
▁j	-9.07363
▁campaign	-9.07695
▁husband	-9.07695
▁transaction	-9.07695
▁electronic	-9.07721
lk	-9.0786
over	-9.07866
▁player	-9.08047
▁violence	-9.0808
▁delay	-9.08083
▁yala	-9.08105
▁employment	-9.08115
heart	-9.08118
▁bc	-9.0835
▁separate	-9.0837
▁king	-9.08377
▁responsible	-9.08472
▁exact	-9.08782
▁expert	-9.08835
pe	-9.08844
▁commercial	-9.08854
▁version	-9.08886
▁mr	-9.09019
we	-9.09135
▁rw	-9.09171
▁feed	-9.09206
▁firm	-9.09243
▁device	-9.09639
▁ක	-9.09647
▁unique	-9.09676
▁region	-9.09741
▁ka	-9.09798
▁milk	-9.09894
▁december	-9.10026
▁bond	-9.1005
▁warranty	-9.10053
▁ya	-9.10167
▁limited	-9.10335
▁2000	-9.10396
▁ensure	-9.1042
▁2023	-9.10438
▁rant	-9.10633
body	-9.10743
▁damn	-9.10838
crying	-9.10973
▁strike	-9.11211
▁convert	-9.11221
▁son	-9.11231
▁effective	-9.11239
ence	-9.1138
ever	-9.11387
▁relax	-9.1146
bo	-9.11544
if	-9.11569
▁feature	-9.11613
▁talent	-9.11613
▁ceylon	-9.11613
ත	-9.11639
▁japan	-9.12007
▁anura	-9.12015
▁september	-9.1203
▁solo	-9.12123
▁sa	-9.12137
▁wealth	-9.12159
▁bio	-9.12258
▁establish	-9.12358
▁represent	-9.12405
▁hurt	-9.12414
▁peak	-9.12418
▁70	-9.12661
▁cat	-9.12677
▁loudly	-9.12769
▁toxic	-9.12815
▁thread	-9.12816
▁piece	-9.12863
▁skin	-9.13152
▁duty	-9.13232
level	-9.13257
ug	-9.13275
▁june	-9.1328
ir	-9.13397
▁henc	-9.13593
▁journey	-9.13626
▁hang	-9.13638
ala	-9.14161
▁bag	-9.1431
▁iit	-9.1434
▁idiot	-9.14359
▁aim	-9.14362
▁whenev	-9.14449
▁conflict	-9.14462
▁airline	-9.14479
▁up	-9.14857
▁lease	-9.14858
▁primar	-9.14858
▁here	-9.15005
▁useless	-9.15064
▁april	-9.15269
▁baby	-9.15273
▁perform	-9.15358
▁investor	-9.15615
▁success	-9.15666
▁financially	-9.16081
▁racism	-9.16101
▁communication	-9.16107
ut	-9.16411
▁valid	-9.16429
▁hr	-9.16492
▁district	-9.16519
▁surf	-9.16675
ver	-9.16739
▁proof	-9.17014
▁scale	-9.17045
but	-9.17363
▁therefor	-9.17391
▁concept	-9.17396
▁presidential	-9.17403
▁pain	-9.17439
day	-9.17485
▁la	-9.17664
▁moratuwa	-9.17785
▁going	-9.17965
est	-9.18192
▁whatsapp	-9.1821
▁fault	-9.18212
▁fiber	-9.18214
▁estate	-9.18218
sh	-9.18234
▁legit	-9.18237
▁somewh	-9.18267
▁village	-9.184
▁spending	-9.18426
▁22	-9.18533
▁repeat	-9.18637
▁rural	-9.18638
▁image	-9.18658
▁song	-9.18792
▁0	-9.18876
▁regret	-9.19067
▁appear	-9.19068
▁mass	-9.19074
▁suck	-9.19205
▁refer	-9.1926
▁wa	-9.19402
▁mil	-9.19451
▁evidence	-9.19498
▁immigration	-9.19498
▁she	-9.19503
▁slpp	-9.19587
▁arm	-9.19746
▁competition	-9.19931
▁obtain	-9.19932
▁additional	-9.1998
▁operate	-9.20145
▁successful	-9.20338
▁crypto	-9.20365
back	-9.2039
sweat	-9.2047
▁mon	-9.20484
os	-9.20501
▁hat	-9.20712
▁agency	-9.20811
ara	-9.21003
▁reject	-9.21135
▁sister	-9.21243
▁recover	-9.21358
▁sun	-9.21425
▁former	-9.21429
▁aspect	-9.21681
▁ministry	-9.21681
▁jump	-9.21686
ga	-9.21699
▁fish	-9.21828
▁banking	-9.21969
▁mobitel	-9.22124
▁murder	-9.22124
▁hot	-9.22217
▁feeling	-9.22256
▁american	-9.22292
so	-9.22491
▁26	-9.22541
▁associate	-9.22568
▁guidance	-9.22568
▁motor	-9.22572
▁youth	-9.22877
cy	-9.22986
▁cycle	-9.23015
▁encourage	-9.23015
▁dress	-9.23015
▁four	-9.23071
▁useful	-9.23131
▁no	-9.23141
▁emotional	-9.23202
▁ne	-9.23269
▁impossible	-9.23463
▁trading	-9.23463
▁broker	-9.23464
▁twice	-9.23464
▁lifestyle	-9.23501
▁size	-9.23596
▁tia	-9.2363
▁ict	-9.23726
▁machine	-9.23914
tu	-9.2395
▁approve	-9.23967
ක	-9.24007
▁meeting	-9.24042
▁counter	-9.24243
▁worried	-9.24366
▁alot	-9.24491
iya	-9.24521
▁bay	-9.24653
ting	-9.24812
▁structure	-9.24854
▁longterm	-9.24861
▁european	-9.24883
▁fo	-9.24892
▁quickly	-9.25004
va	-9.25074
▁tomorrow	-9.25277
▁victim	-9.25277
▁october	-9.25318
▁chat	-9.25568
▁mad	-9.25697
▁developer	-9.25729
▁voice	-9.25736
▁scheme	-9.25736
▁pet	-9.25895
▁ability	-9.25938
▁annual	-9.26197
▁buddhism	-9.26197
▁insane	-9.26197
▁organization	-9.26197
▁relevant	-9.26197
ng	-9.26219
▁chemistry	-9.26227
▁ideal	-9.26377
ang	-9.26401
▁task	-9.26409
▁democracy	-9.2666
▁door	-9.26702
▁cv	-9.2672
▁shortage	-9.26797
▁lecture	-9.26961
ization	-9.2697
▁cop	-9.27125
▁march	-9.27148
▁competitive	-9.27155
▁judge	-9.27541
▁monitor	-9.27592
▁submit	-9.27592
▁em	-9.27684
▁working	-9.27838
land	-9.2803
▁animal	-9.28062
▁identity	-9.28062
▁overnight	-9.28066
▁lady	-9.28069
ig	-9.28163
▁style	-9.28257
▁fort	-9.28334
▁rely	-9.285
▁schedule	-9.28533
▁section	-9.28536
▁executive	-9.28539
▁girlfriend	-9.28542
▁batch	-9.28543
▁criminal	-9.28631
▁cafe	-9.28673
▁transportation	-9.287
▁dark	-9.28724
book	-9.28758
▁passion	-9.28971
▁november	-9.29007
▁bother	-9.29027
▁priority	-9.29048
▁load	-9.29232
▁guarantee	-9.29484
▁distance	-9.29544
▁upon	-9.29544
q	-9.29878
▁skip	-9.29962
▁ideally	-9.30009
▁clothe	-9.30023
▁tool	-9.30046
ap	-9.30109
▁pack	-9.3012
▁freelance	-9.30159
down	-9.3023
▁constantly	-9.30281
▁mix	-9.30294
▁mate	-9.30384
▁strategy	-9.30443
▁queue	-9.30445
▁indians	-9.30543
▁argue	-9.30926
▁attitude	-9.30926
▁nearby	-9.30951
▁consumer	-9.31007
▁realise	-9.31077
▁dec	-9.31135
▁sea	-9.31246
▁ton	-9.31276
▁measure	-9.31411
▁safari	-9.31411
▁session	-9.31411
▁camera	-9.31426
▁text	-9.31448
▁beat	-9.31507
▁agreement	-9.31633
per	-9.31783
▁2015	-9.31835
▁enforce	-9.31899
▁complex	-9.31899
▁january	-9.31899
▁petrol	-9.31899
time	-9.32018
oc	-9.32088
▁taxi	-9.32098
▁conduct	-9.3213
son	-9.32335
▁bsc	-9.32376
▁destroy	-9.32389
▁root	-9.3242
▁sp	-9.32494
ee	-9.32609
▁coconut	-9.32882
▁dinner	-9.32882
▁refund	-9.32883
▁construction	-9.32939
▁mo	-9.33058
mp	-9.33086
ah	-9.33121
▁busy	-9.33155
▁church	-9.33377
19	-9.33378
▁data	-9.33537
mbps	-9.33606
▁fb	-9.3378
▁identify	-9.33874
▁gift	-9.33876
▁appointment	-9.33926
▁table	-9.33948
▁ni	-9.33958
▁suit	-9.33963
15	-9.34025
▁lately	-9.34161
▁ie	-9.3431
▁slowly	-9.34322
▁sexual	-9.34337
▁divide	-9.34342
▁heavily	-9.34374
▁recognize	-9.34375
sp	-9.34385
ling	-9.34515
▁lk	-9.34536
ile	-9.34611
▁fd	-9.34863
▁regulation	-9.34877
▁preferably	-9.34897
▁iphone	-9.34908
▁mar	-9.35249
▁express	-9.35277
▁engage	-9.35342
▁shoe	-9.35384
▁stuck	-9.35393
▁upper	-9.35394
▁everyday	-9.35498
▁weight	-9.35568
▁34	-9.35656
ab	-9.35756
▁appoint	-9.35839
▁climate	-9.3589
▁reflect	-9.3589
▁blind	-9.3589
▁namal	-9.35917
▁independence	-9.35954
▁pe	-9.36325
▁tie	-9.36393
▁destination	-9.364
▁admit	-9.364
▁bs	-9.36413
▁unlike	-9.36466
▁trap	-9.36546
▁weak	-9.36598
oo	-9.36603
▁monk	-9.36664
▁taste	-9.36715
▁pi	-9.36821
▁adopt	-9.36913
▁heat	-9.3692
▁centre	-9.36952
mark	-9.37117
▁nic	-9.37233
ial	-9.37282
▁2020	-9.37389
▁cousin	-9.37428
▁registration	-9.37431
ical	-9.37514
year	-9.3782
▁branch	-9.37946
▁syllabus	-9.37946
▁false	-9.37946
▁critical	-9.37947
▁window	-9.3795
▁sick	-9.37952
▁rental	-9.37962
▁lakh	-9.37974
▁operation	-9.37998
▁phd	-9.38077
pro	-9.38105
▁israel	-9.38388
bi	-9.38466
▁province	-9.38467
▁discount	-9.3847
▁byd	-9.38473
▁strict	-9.38505
▁buying	-9.38619
▁direction	-9.38662
ka	-9.38866
▁lesson	-9.38871
▁sh	-9.38937
▁afraid	-9.3899
▁argument	-9.3899
▁behavior	-9.3899
▁ridiculous	-9.38992
▁provider	-9.39003
▁peaceful	-9.39061
ran	-9.39066
▁shitty	-9.39148
▁confused	-9.39157
▁maha	-9.3918
▁ho	-9.39304
▁mod	-9.39361
▁evening	-9.39487
▁extend	-9.39517
▁japanese	-9.39523
▁citizenship	-9.39563
▁valuable	-9.39574
▁easter	-9.39757
▁cse	-9.39832
▁apple	-9.3984
▁healthy	-9.39923
▁prior	-9.39968
▁gem	-9.39971
▁gun	-9.39997
▁constitution	-9.4014
▁anyways	-9.40216
sha	-9.4025
ability	-9.40271
ell	-9.40304
fe	-9.40474
▁entirely	-9.40506
▁accident	-9.40513
▁innocent	-9.40578
▁rajapaksha	-9.40578
▁instagram	-9.40579
▁gender	-9.40581
tha	-9.40599
▁stability	-9.40602
om	-9.40629
▁27	-9.40987
▁net	-9.41012
▁uncle	-9.41084
▁perhaps	-9.41113
▁terrible	-9.41113
▁excuse	-9.41118
▁dev	-9.41146
▁upgrade	-9.41165
▁council	-9.4165
▁london	-9.4165
▁gdp	-9.41652
▁kick	-9.41654
▁28	-9.41898
po	-9.41927
▁respond	-9.42191
▁toyota	-9.42191
▁absolute	-9.42253
▁loud	-9.42265
▁box	-9.42588
▁ba	-9.42614
sl	-9.42623
▁on	-9.42682
▁bullshit	-9.42735
▁migration	-9.42735
▁bottle	-9.42737
▁terrorist	-9.42742
ck	-9.43012
ak	-9.43175
▁signal	-9.43193
▁maintenance	-9.43281
▁sunday	-9.43294
ably	-9.43302
▁dambulla	-9.43308
▁era	-9.43321
▁setup	-9.43424
▁inter	-9.43472
▁ko	-9.43478
▁usage	-9.43499
▁bo	-9.4355
▁tariff	-9.4383
▁arugam	-9.43831
▁ab	-9.43922
▁legally	-9.43982
▁coz	-9.44099
▁gap	-9.44099
ite	-9.44113
eyes	-9.44197
▁expectation	-9.44244
▁threat	-9.44346
▁permanent	-9.44383
▁vaccine	-9.44383
▁obvious	-9.44458
han	-9.4455
medium	-9.44731
▁comp	-9.44781
▁relatively	-9.44805
▁scenario	-9.44938
▁volunteer	-9.44938
▁harass	-9.44942
▁multi	-9.44942
▁labour	-9.44943
▁fr	-9.44964
our	-9.45109
▁shame	-9.45192
▁cyber	-9.45497
▁external	-9.45497
▁grateful	-9.45497
▁thousand	-9.45497
▁drain	-9.45498
▁equipment	-9.45507
▁restriction	-9.45549
ton	-9.45561
500	-9.4581
▁surprise	-9.45839
way	-9.45877
▁significantly	-9.45915
▁authentic	-9.46059
▁desperate	-9.46059
▁fibre	-9.46059
▁series	-9.46059
▁pa	-9.46553
ac	-9.46566
▁production	-9.46592
▁investigation	-9.46637
▁grant	-9.4671
tion	-9.46773
▁screen	-9.468
▁cry	-9.46917
▁250	-9.4696
▁lay	-9.47017
▁lucky	-9.47045
▁initially	-9.4708
▁soldier	-9.47192
▁trincomalee	-9.47192
▁proud	-9.47241
▁highway	-9.47337
end	-9.47355
ke	-9.47385
▁cal	-9.47434
▁en	-9.47513
▁burden	-9.47763
▁garbage	-9.47763
▁vacation	-9.47763
▁elite	-9.47768
▁glad	-9.47769
▁2021	-9.47789
▁consult	-9.48311
▁approval	-9.48338
▁ultimate	-9.48358
▁civilian	-9.48375
▁possibl	-9.48388
▁leadership	-9.4839
▁cap	-9.48392
▁locally	-9.48431
▁generate	-9.4845
▁birth	-9.48906
▁throughout	-9.48916
aya	-9.49069
▁camp	-9.49092
off	-9.49193
▁should	-9.49335
▁premium	-9.49497
▁efficient	-9.49545
▁familiar	-9.4957
ci	-9.49606
▁employ	-9.49783
▁grand	-9.49875
▁withdraw	-9.49938
▁bottom	-9.50082
▁rajapakse	-9.50082
▁bi	-9.50129
▁lecturer	-9.50288
▁shoot	-9.50363
▁united	-9.50521
▁sadly	-9.50556
▁ta	-9.50645
▁portfolio	-9.5067
▁resort	-9.5067
▁housing	-9.50671
▁consequence	-9.50672
▁film	-9.50694
▁movement	-9.50724
▁collapse	-9.51262
▁garden	-9.51262
▁hill	-9.51266
▁famous	-9.51269
▁basis	-9.51274
▁round	-9.51392
qu	-9.51395
▁yo	-9.51412
▁teaching	-9.51507
ber	-9.51736
base	-9.51745
ash	-9.51753
use	-9.51815
▁aliexpress	-9.51857
▁funny	-9.51868
▁accommodation	-9.51881
▁initial	-9.51974
▁lane	-9.52058
▁freelancer	-9.52219
▁cod	-9.52302
▁organize	-9.52456
▁display	-9.52462
▁aside	-9.52491
▁blue	-9.5257
▁highlight	-9.52722
▁scamme	-9.52966
▁arrival	-9.53059
▁justify	-9.53059
▁ethnicity	-9.53131
▁map	-9.53254
io	-9.53263
12	-9.53273
rt	-9.53468
▁floor	-9.53541
▁lo	-9.53613
▁pls	-9.53677
▁household	-9.53681
▁percentage	-9.53682
▁wake	-9.53686
▁draw	-9.53693
▁failure	-9.53712
▁factory	-9.53735
▁dubai	-9.53744
ue	-9.53837
▁down	-9.53863
ill	-9.5392
▁redditor	-9.53933
▁function	-9.54073
▁ev	-9.54217
▁celebrate	-9.54274
▁default	-9.54274
▁oppose	-9.54274
mil	-9.54302
▁extreme	-9.54407
▁400	-9.54501
▁def	-9.54575
cc	-9.54682
▁laugh	-9.54732
ama	-9.54774
ect	-9.54836
▁married	-9.54888
▁undergraduate	-9.54888
▁coffee	-9.54891
▁vat	-9.55074
▁cur	-9.55121
▁so	-9.55346
▁administration	-9.55505
▁presidency	-9.55505
▁unfair	-9.55505
▁cinema	-9.55505
▁theory	-9.5551
40	-9.55529
▁cr	-9.55969
▁internal	-9.56063
▁capacity	-9.56126
▁domestic	-9.56126
▁sampath	-9.56128
▁shipping	-9.56136
ery	-9.56333
not	-9.56457
▁cent	-9.56603
▁off	-9.56709
▁drama	-9.56718
▁hassle	-9.56751
▁bonus	-9.56752
▁suspect	-9.56797
point	-9.56917
▁max	-9.56946
ice	-9.56986
▁cup	-9.57042
ner	-9.57043
og	-9.57187
▁unnecessar	-9.5738
▁mafia	-9.5738
▁reputation	-9.5738
▁rush	-9.57381
▁linkedin	-9.57381
▁defend	-9.57389
▁hutch	-9.5739
my	-9.57505
▁tradition	-9.57691
▁ball	-9.57897
▁tin	-9.57898
▁comfort	-9.58001
▁hundred	-9.58013
▁voting	-9.58013
▁launch	-9.58016
▁mentality	-9.58169
▁protection	-9.58305
60	-9.58375
▁ro	-9.5858
▁nowadays	-9.5865
▁privilege	-9.5865
▁wildlife	-9.58652
▁awareness	-9.58718
▁tired	-9.58728
▁jan	-9.58821
▁press	-9.59147
▁addition	-9.59155
▁extent	-9.59311
▁onto	-9.59371
▁suitable	-9.59379
▁29	-9.59383
▁mis	-9.59393
▁quit	-9.5942
▁gaming	-9.59547
▁five	-9.59569
ach	-9.59581
▁seller	-9.59857
▁mall	-9.59907
▁belief	-9.59936
▁solar	-9.59944
tle	-9.6029
▁fe	-9.603
▁engine	-9.60357
'	-9.60476
▁anuradhapura	-9.60586
▁driving	-9.60586
▁proceed	-9.60586
▁adjust	-9.60596
▁beside	-9.60825
70	-9.6088
▁lankas	-9.61037
▁cl	-9.61197
▁frustrating	-9.61239
▁trump	-9.6124
▁possibility	-9.61241
▁football	-9.61246
▁threaten	-9.61283
▁belong	-9.61321
ca	-9.6137
▁left	-9.61381
▁ceb	-9.61382
▁soft	-9.61545
du	-9.61665
ki	-9.61839
month	-9.61852
▁aragalaya	-9.61897
▁bridge	-9.61897
▁category	-9.61899
▁surgery	-9.61904
▁tree	-9.61907
▁accountability	-9.61991
▁frame	-9.62016
▁mac	-9.62087
▁im	-9.62512
▁wild	-9.62558
▁combine	-9.62559
▁expose	-9.62559
▁poverty	-9.62559
▁2018	-9.62594
▁preference	-9.62594
▁labor	-9.62611
hands	-9.62622
ct	-9.62701
▁learning	-9.62764
▁portion	-9.62869
▁malaysia	-9.63132
▁neighbor	-9.63221
ass	-9.63226
▁paypal	-9.63231
▁dry	-9.63247
▁upcom	-9.63252
▁bet	-9.633
for	-9.63316
▁convince	-9.636
▁log	-9.63896
▁witness	-9.63897
▁debate	-9.63897
▁tutor	-9.63899
rie	-9.63924
▁africa	-9.63942
▁workplace	-9.64028
▁pool	-9.64048
▁powerful	-9.64145
▁ku	-9.6415
▁democratic	-9.64152
▁leg	-9.64193
ini	-9.64377
▁birthday	-9.64585
▁equal	-9.64724
tan	-9.64727
▁gather	-9.64914
▁doc	-9.65135
pi	-9.65232
▁traveler	-9.65248
▁divorce	-9.65253
▁suicide	-9.65253
▁trash	-9.65264
▁neithe	-9.65267
▁deny	-9.65275
▁atm	-9.6533
thi	-9.65424
ard	-9.65741
▁flow	-9.65815
▁shut	-9.6586
▁opposite	-9.65938
▁procedure	-9.65938
▁survey	-9.65938
▁weligama	-9.65938
▁guest	-9.65943
▁label	-9.65959
▁consultant	-9.65971
▁clothing	-9.65995
▁wave	-9.66039
▁circle	-9.66105
▁band	-9.66362
▁colleague	-9.66628
▁memory	-9.66628
▁borrow	-9.66628
▁lift	-9.66632
▁curry	-9.66654
▁color	-9.66656
▁input	-9.66661
▁compete	-9.67065
▁confuse	-9.67102
▁stra	-9.6718
▁climb	-9.67322
▁frequent	-9.67322
▁neighbour	-9.67322
▁daughter	-9.67322
▁li	-9.67337
▁quote	-9.67342
▁chase	-9.67373
▁sc	-9.67385
▁cheer	-9.6751
▁quiet	-9.67534
▁impos	-9.67591
▁resident	-9.67594
ator	-9.67786
▁embassy	-9.68021
▁division	-9.68022
▁vision	-9.68034
▁passionate	-9.6806
▁sake	-9.68196
▁plant	-9.68329
▁moral	-9.68547
▁educational	-9.68624
ow	-9.68638
▁van	-9.68698
▁auto	-9.68723
▁smile	-9.68734
▁journalist	-9.68763
▁intention	-9.68773
▁plantation	-9.68791
▁maximu	-9.68807
▁fa	-9.68853
▁logic	-9.6923
▁bribe	-9.69417
▁discrimination	-9.69435
▁junior	-9.69435
▁pretend	-9.69435
▁dangerous	-9.69442
▁wide	-9.69573
▁shock	-9.69582
▁zone	-9.69656
▁tur	-9.69864
mb	-9.69994
▁warn	-9.70036
gr	-9.70038
▁ම	-9.70054
▁di	-9.70119
▁fundamental	-9.70149
▁loose	-9.7015
▁wh	-9.70152
▁communicate	-9.70203
▁understanding	-9.70222
▁af	-9.70223
▁upto	-9.70351
▁harm	-9.70357
▁germany	-9.70381
pl	-9.70389
▁influencer	-9.70514
her	-9.70551
▁ice	-9.7059
▁arrange	-9.70818
▁scar	-9.70837
▁calculate	-9.70869
▁tiktok	-9.70869
▁surround	-9.70869
▁instance	-9.70871
▁wall	-9.70882
▁native	-9.70906
▁horrible	-9.70908
▁confidence	-9.70927
▁forest	-9.70932
liance	-9.70956
▁character	-9.70957
ify	-9.71061
▁sustainable	-9.71087
▁constant	-9.71112
▁previously	-9.71196
▁careful	-9.71283
hu	-9.71425
▁socialist	-9.71428
▁rob	-9.71472
▁hybrid	-9.71593
▁plastic	-9.71593
▁speech	-9.71593
▁urban	-9.71593
▁adapt	-9.71594
▁formal	-9.71662
▁additionally	-9.71689
▁manner	-9.71693
▁faith	-9.71697
▁sum	-9.71809
ative	-9.71883
▁com	-9.71941
▁ran	-9.72176
▁intelligen	-9.722
▁roll	-9.72244
▁tldr	-9.72323
▁buddha	-9.72325
▁thailand	-9.72326
▁lunch	-9.72333
▁festival	-9.72346
▁fancy	-9.72365
▁risky	-9.72397
certification	-9.72428
▁bed	-9.72485
▁pop	-9.7251
▁booking	-9.72602
▁surprised	-9.7261
▁75	-9.72644
▁bomb	-9.72731
▁resign	-9.72997
▁passenger	-9.73059
▁pocket	-9.73059
▁anytime	-9.73078
▁liberal	-9.73104
▁micro	-9.73112
▁boat	-9.73116
▁align	-9.73128
list	-9.73169
▁calm	-9.73176
▁cold	-9.73183
▁ke	-9.7333
ave	-9.73365
od	-9.7356
▁server	-9.73583
▁ip	-9.73629
▁electric	-9.73639
gi	-9.73675
▁retire	-9.73746
▁attach	-9.7375
▁bangladesh	-9.73799
▁welfare	-9.73799
▁medication	-9.73799
▁profile	-9.73803
▁decline	-9.73824
▁rape	-9.73854
▁br	-9.73966
▁scared	-9.74017
▁pakistan	-9.74021
▁the	-9.74035
80	-9.74145
▁crap	-9.74267
▁exploit	-9.74482
▁renew	-9.74539
▁comparison	-9.74545
▁convenient	-9.74545
▁curriculum	-9.74545
▁tooth	-9.74546
▁six	-9.74548
▁appeal	-9.74552
▁jail	-9.74564
▁forex	-9.74571
▁ig	-9.74578
▁estimate	-9.74586
▁shopping	-9.74601
▁shot	-9.74677
all	-9.7483
lt	-9.75048
▁america	-9.75112
ika	-9.75205
▁paint	-9.75236
▁chicken	-9.75297
▁commerce	-9.75297
▁wtf	-9.75298
▁invite	-9.75298
▁reveal	-9.75298
▁initiative	-9.75299
▁forever	-9.75309
▁capable	-9.75386
නන	-9.7545
tte	-9.75523
some	-9.75836
▁dig	-9.75856
▁deduct	-9.7595
ack	-9.76
▁med	-9.76002
▁punish	-9.76011
▁diaspora	-9.76055
▁ikman	-9.76071
▁blow	-9.7608
lanka	-9.7624
ai	-9.76379
▁australian	-9.76473
▁remind	-9.76657
▁programme	-9.76756
▁q	-9.76788
▁mathematic	-9.76818
▁nsbm	-9.76818
▁click	-9.76819
▁bugger	-9.76821
▁rip	-9.76825
▁rude	-9.7684
▁piss	-9.76848
▁nonsense	-9.76864
▁annoying	-9.77041
ual	-9.77064
tra	-9.77108
ger	-9.77289
▁publish	-9.77588
▁samsung	-9.77588
▁tower	-9.77589
▁entrance	-9.77589
▁odd	-9.7759
▁cream	-9.77601
▁debit	-9.77606
tt	-9.77617
cient	-9.77661
cl	-9.77844
▁rn	-9.7787
▁casual	-9.77879
▁chatgpt	-9.78363
▁trail	-9.78377
▁hiriketiya	-9.7839
▁eta	-9.78476
▁media	-9.78517
▁trial	-9.78535
▁lean	-9.78538
▁gay	-9.78597
▁egg	-9.7861
yo	-9.78651
▁tri	-9.78713
▁index	-9.78733
▁dance	-9.78829
▁thi	-9.78927
▁pol	-9.79041
▁concerned	-9.79093
▁secret	-9.7912
▁entitle	-9.79144
▁sponsor	-9.79144
▁propaganda	-9.79144
▁propose	-9.79144
▁sacrifice	-9.79144
▁ideology	-9.79144
▁promotion	-9.79145
▁expand	-9.79154
▁ram	-9.79229
▁physically	-9.79268
que	-9.79412
▁cha	-9.79583
▁rough	-9.79597
ble	-9.79767
▁lower	-9.79845
pay	-9.79865
▁id	-9.79899
▁alcohol	-9.79931
▁cinnamon	-9.79931
▁genocide	-9.79931
▁mandator	-9.79932
▁verify	-9.79932
▁leak	-9.79939
▁hindu	-9.79945
▁regime	-9.79953
▁kdu	-9.79958
dy	-9.80034
▁temporary	-9.8005
▁gig	-9.80072
▁spar	-9.80106
ris	-9.80139
▁selection	-9.8038
▁120	-9.80601
tear	-9.80662
▁rat	-9.80674
▁confident	-9.80716
▁adhd	-9.80725
▁narrative	-9.80727
▁urgent	-9.80735
▁chain	-9.80817
fa	-9.80828
▁improvement	-9.81009
owe	-9.81145
▁fat	-9.81502
▁core	-9.81515
▁canadian	-9.81525
▁criticism	-9.81525
▁undergrad	-9.81525
▁nurse	-9.81525
▁meanwhile	-9.81535
▁commitment	-9.81654
▁eu	-9.81672
▁beginner	-9.81822
▁mode	-9.81835
▁meme	-9.81991
▁deeply	-9.82194
pm	-9.82223
▁barrier	-9.82332
▁flash	-9.82341
▁hostel	-9.82375
▁accountable	-9.82468
▁du	-9.82723
▁thus	-9.82772
lkr	-9.82938
nder	-9.83112
▁disappear	-9.83144
▁library	-9.83144
▁plain	-9.83145
▁intend	-9.83145
▁accurate	-9.83146
▁colour	-9.83148
▁pan	-9.83155
app	-9.83157
▁grab	-9.83185
▁depression	-9.83187
▁childhood	-9.83191
▁scammer	-9.83396
▁historical	-9.83532
house	-9.83701
▁certainly	-9.83706
ory	-9.83915
▁affair	-9.83964
▁incredibly	-9.83964
▁premadasa	-9.83964
▁margin	-9.83964
▁outcome	-9.83964
▁qualifie	-9.83965
▁agenda	-9.83965
▁cybersecurity	-9.83965
▁vendor	-9.83966
▁governance	-9.83984
▁progressive	-9.84036
▁graphic	-9.84113
▁peradeniy	-9.84162
▁sir	-9.84214
▁mixed	-9.84219
side	-9.84314
▁lock	-9.84411
▁rap	-9.84517
25	-9.84559
11	-9.84729
▁absurd	-9.84791
▁edexcel	-9.84791
▁grocery	-9.84791
▁eligib	-9.84791
▁sugar	-9.84792
▁lmao	-9.84792
▁daraz	-9.84792
▁minimal	-9.84795
▁brown	-9.84796
▁fool	-9.84796
▁accuse	-9.84801
▁advisor	-9.8489
awa	-9.84928
pr	-9.85178
▁harsha	-9.85205
▁speaker	-9.85234
▁director	-9.8529
ay	-9.85374
▁aus	-9.85456
▁wi	-9.85494
▁declare	-9.85624
▁disagree	-9.85624
▁negotiate	-9.85624
▁nowhere	-9.85626
▁donate	-9.85627
▁cbsl	-9.85628
▁resolve	-9.85649
▁boss	-9.8565
tro	-9.85654
▁occasional	-9.8568
▁mechanical	-9.85707
▁jr	-9.85995
pp	-9.86124
▁opt	-9.86298
▁mum	-9.86309
▁grad	-9.86458
▁describe	-9.86468
▁mba	-9.8647
▁habit	-9.86472
▁discover	-9.86472
▁coach	-9.86494
▁gam	-9.86507
▁acknowledge	-9.86537
▁hero	-9.8656
▁guilty	-9.86593
▁noise	-9.86604
▁bully	-9.86631
▁specialist	-9.86645
▁artist	-9.86786
▁5000	-9.86801
▁stat	-9.86871
by	-9.86943
▁cus	-9.86959
▁trick	-9.87002
locate	-9.87287
▁clarify	-9.87312
▁angry	-9.87312
▁unsure	-9.87314
▁split	-9.87316
▁crack	-9.8732
▁reference	-9.87333
▁battle	-9.87335
▁entity	-9.87339
▁aunt	-9.87345
▁cloud	-9.87414
▁99	-9.87445
act	-9.87475
▁ja	-9.87501
mer	-9.87519
▁designer	-9.87541
ith	-9.87773
▁da	-9.87846
45	-9.87932
tre	-9.87992
lin	-9.88081
▁severe	-9.88083
▁gang	-9.88115
▁announce	-9.88118
▁clue	-9.88155
▁encounter	-9.88166
▁mountain	-9.88167
▁pattern	-9.88167
▁cabinet	-9.88172
▁revolution	-9.88178
▁elsewhere	-9.88181
▁panel	-9.88189
▁hnd	-9.88298
▁minor	-9.8831
▁isp	-9.88331
ada	-9.88331
mn	-9.88352
▁poll	-9.88354
▁everybody	-9.88376
▁socialism	-9.88425
▁par	-9.88543
▁immediate	-9.88547
▁ten	-9.8881
▁advanced	-9.89004
▁immigrant	-9.89029
▁participate	-9.89029
▁recognition	-9.89029
▁starlink	-9.89029
▁violent	-9.89029
▁fashion	-9.89029
▁psychology	-9.89031
▁screw	-9.89032
▁crook	-9.89032
▁lgbtq	-9.89033
▁biology	-9.89035
▁crash	-9.89039
▁bail	-9.89053
▁installment	-9.89056
▁hack	-9.89071
▁capitalism	-9.89082
▁retirement	-9.8909
nce	-9.89096
right	-9.89367
ll	-9.89537
pura	-9.89672
▁wealthy	-9.89738
ze	-9.89742
▁wind	-9.89753
▁tear	-9.89816
100	-9.89879
▁equity	-9.89898
▁error	-9.89898
▁principle	-9.89898
▁proposal	-9.89898
▁ongoing	-9.89898
▁retail	-9.89967
▁colonial	-9.89986
▁enable	-9.90006
▁earth	-9.9003
▁agriculture	-9.9015
▁collection	-9.90189
hood	-9.90204
▁earning	-9.90225
▁che	-9.90295
▁lake	-9.90355
▁roughly	-9.90433
▁wash	-9.90491
ility	-9.90498
▁attract	-9.90646
▁behaviour	-9.90775
▁exposure	-9.90775
▁frustrate	-9.90775
▁podcast	-9.90775
▁utility	-9.90778
▁donation	-9.90781
▁psychiatrist	-9.90781
▁admission	-9.90784
▁tight	-9.90796
▁empt	-9.90799
▁36	-9.90813
aka	-9.90859
▁reward	-9.90871
▁excited	-9.90899
▁eastern	-9.91221
istic	-9.91228
▁pot	-9.91245
▁govern	-9.91519
mal	-9.91566
ible	-9.91628
▁friday	-9.9166
▁century	-9.9166
▁sweet	-9.9166
▁succeed	-9.9166
▁protein	-9.9166
▁leaf	-9.91664
▁statistic	-9.91666
▁supermarket	-9.91668
air	-9.91693
port	-9.91721
▁selfish	-9.91774
▁nationalist	-9.91784
▁hall	-9.91988
▁31	-9.91995
▁dealer	-9.92054
▁nu	-9.92127
▁dear	-9.92127
▁alive	-9.92187
gg	-9.9244
tal	-9.92497
▁hnb	-9.92554
▁presence	-9.92554
▁riot	-9.92554
▁conservative	-9.92554
▁boost	-9.92555
▁pizza	-9.92555
▁southern	-9.92559
▁stack	-9.92577
fi	-9.92588
uck	-9.92873
▁bare	-9.92927
▁personality	-9.93031
▁ird	-9.93076
ung	-9.93106
▁manipulate	-9.93188
▁beg	-9.93263
▁entrepreneur	-9.93312
▁difficulty	-9.9336
▁analysis	-9.93454
▁anxiety	-9.93454
▁breakfast	-9.93454
▁translate	-9.93454
▁shape	-9.93454
▁relation	-9.93458
▁upload	-9.9346
▁wallet	-9.93476
▁accent	-9.93481
▁cheat	-9.93501
▁cima	-9.93519
▁wheel	-9.93618
▁slave	-9.93666
▁profession	-9.94046
▁toward	-9.94048
▁sustain	-9.94298
▁circumstance	-9.94363
▁regulate	-9.94363
▁creative	-9.94367
▁automatically	-9.94369
▁beaut	-9.94384
▁shout	-9.94396
▁adam	-9.94456
ale	-9.94516
▁ear	-9.94584
▁restructure	-9.94624
▁norm	-9.94748
▁farm	-9.94838
▁funding	-9.94869
▁recovery	-9.95045
▁lend	-9.95098
▁predict	-9.9519
▁pen	-9.95205
▁hikkaduwa	-9.9528
▁escape	-9.95281
▁industrial	-9.95281
▁para	-9.95309
isation	-9.95347
▁fitness	-9.95372
▁msc	-9.95453
▁aid	-9.95517
▁favorit	-9.9565
▁va	-9.95659
int	-9.95662
▁economically	-9.95728
▁cor	-9.95797
▁cc	-9.95897
how	-9.96017
5000	-9.96068
▁decrease	-9.96206
▁equivalent	-9.96206
▁heritage	-9.96206
▁remittance	-9.96206
▁scooter	-9.96206
▁asap	-9.96208
▁railway	-9.96209
▁meaningful	-9.9622
▁amendment	-9.96222
▁realistic	-9.96265
▁le	-9.9627
▁architectur	-9.96317
▁committe	-9.96436
▁wo	-9.96628
▁tap	-9.96883
▁manufacture	-9.96977
aga	-9.97011
▁occur	-9.97141
▁hustle	-9.97141
▁pandem	-9.97142
▁assignment	-9.97179
▁2026	-9.97181
▁visible	-9.97207
▁warm	-9.97308
▁coverage	-9.97355
▁observe	-9.97869
net	-9.97993
▁strength	-9.98047
▁organisation	-9.98084
▁privacy	-9.98084
▁christmas	-9.98085
▁corner	-9.98092
▁insult	-9.98116
▁react	-9.98123
▁islam	-9.98418
▁unity	-9.98531
▁ah	-9.98541
▁tb	-9.98672
▁favor	-9.98675
▁gate	-9.98702
▁appreciated	-9.98815
▁holder	-9.98963
▁christian	-9.98993
▁bite	-9.99007
▁awesome	-9.99037
▁prospect	-9.99037
▁brutal	-9.99037
▁pricing	-9.99038
▁meter	-9.99054
▁dirt	-9.99069
▁pathway	-9.99085
what	-9.99123
▁clearance	-9.99177
floor	-9.99231
▁sight	-9.99277
wide	-9.99295
▁cho	-9.99327
▁pic	-9.99499
▁fi	-9.99508
▁inc	-9.99758
▁bias	-9.99887
nu	-9.99889
▁allegation	-9.99998
▁audience	-9.99998
▁combination	-9.99998
▁scenic	-9.99998
▁clown	-10
▁italy	-10
▁innovation	-10.0002
ff	-10.0004
▁sky	-10.0005
ency	-10.0011
▁elder	-10.0013
▁mini	-10.002
ology	-10.0027
ingly	-10.0029
vo	-10.0035
▁drag	-10.0035
▁dual	-10.0036
hr	-10.0039
car	-10.0044
▁rating	-10.0044
ide	-10.005
▁ag	-10.0052
uff	-10.0065
▁fk	-10.009
▁availability	-10.0097
▁tangalle	-10.0097
▁ultra	-10.0097
▁commute	-10.0097
▁dutch	-10.0097
▁uae	-10.0099
▁broad	-10.0105
▁audit	-10.0113
ja	-10.0126
war	-10.0134
lu	-10.0156
▁600	-10.0158
▁wherea	-10.016
▁hype	-10.0174
14	-10.0176
▁consume	-10.0178
▁10000	-10.0188
▁trans	-10.019
▁analytic	-10.0195
▁flood	-10.0195
▁pettah	-10.0195
▁trauma	-10.0195
▁entertainment	-10.0198
▁repute	-10.0198
▁oct	-10.0202
▁slip	-10.0208
▁electrical	-10.0214
pt	-10.0217
▁prioritiz	-10.0224
▁dish	-10.0238
flow	-10.0258
yearold	-10.0267
▁bankrupt	-10.0293
▁february	-10.0294
▁icbt	-10.0294
▁trigger	-10.0294
▁unawatuna	-10.0294
▁exhaust	-10.0294
▁worship	-10.0294
▁indeed	-10.0294
▁fruit	-10.0294
▁royal	-10.0294
▁asshole	-10.0295
▁secretary	-10.0297
▁pair	-10.0299
▁cave	-10.0308
▁advertise	-10.031
▁badly	-10.0319
▁wing	-10.0324
put	-10.0335
▁lab	-10.0341
▁allocat	-10.0354
like	-10.0355
▁shall	-10.0367
▁where	-10.0374
▁pin	-10.0385
▁favour	-10.0393
▁criticize	-10.0394
▁kottu	-10.0394
▁flexible	-10.0394
▁kingdom	-10.0394
▁fluent	-10.0395
▁smell	-10.0396
▁cos	-10.0397
0	-10.0398
▁award	-10.0398
▁buck	-10.0399
▁compensation	-10.0399
▁glass	-10.0403
▁cmb	-10.0411
▁parttime	-10.0413
ature	-10.0416
ving	-10.0417
▁guard	-10.0434
au	-10.0435
▁reading	-10.0439
▁jaya	-10.0447
are	-10.0447
▁ir	-10.045
ib	-10.0459
▁german	-10.0462
▁korea	-10.0465
▁rep	-10.0466
▁regional	-10.0467
uk	-10.047
▁recruit	-10.0471
▁rolling	-10.0473
▁gpa	-10.0478
▁globally	-10.0491
▁lion	-10.0494
▁broadband	-10.0495
▁assault	-10.0495
▁lazy	-10.0495
▁prison	-10.0496
▁traveller	-10.0496
▁otp	-10.05
▁keell	-10.05
▁victory	-10.0502
▁vast	-10.0503
▁transition	-10.0504
▁successfully	-10.0506
▁replacement	-10.0511
▁repay	-10.0512
▁pharmacy	-10.0514
mu	-10.0515
▁allowance	-10.0518
free	-10.0522
▁cab	-10.0523
▁sm	-10.0526
gage	-10.0544
▁supportive	-10.0545
▁smooth	-10.0548
▁spec	-10.055
▁emotion	-10.0554
18	-10.0578
▁ti	-10.0584
ification	-10.0585
▁depreciate	-10.0597
▁extremis	-10.0597
▁inflate	-10.0597
▁sentiment	-10.0597
▁silent	-10.0597
▁delete	-10.0597
▁consent	-10.0597
they	-10.0597
▁border	-10.0598
▁disaster	-10.0604
▁setting	-10.0607
▁scope	-10.0609
wise	-10.0619
core	-10.062
16	-10.0627
▁el	-10.063
▁tha	-10.064
▁mouth	-10.0642
▁rec	-10.0678
▁th	-10.0691
paid	-10.0696
▁afternoon	-10.07
▁navigate	-10.07
▁recognise	-10.07
▁uncomfortable	-10.0703
▁define	-10.0703
▁punishment	-10.0707
▁evil	-10.0716
▁starting	-10.0745
▁warning	-10.0749
▁operat	-10.075
rn	-10.0752
▁32	-10.0758
ign	-10.0759
log	-10.0769
▁necessar	-10.0772
ull	-10.0773
▁65	-10.078
▁ce	-10.0782
▁unlikely	-10.0798
▁overprice	-10.0804
▁principal	-10.0804
▁eelam	-10.0804
▁brief	-10.0804
▁module	-10.0804
▁56	-10.0804
▁800	-10.0815
ec	-10.0816
▁flat	-10.0818
▁disgusting	-10.0823
board	-10.0825
gen	-10.0826
▁ofc	-10.0839
▁ethical	-10.0839
▁classic	-10.0843
▁jo	-10.0845
▁bombing	-10.0852
▁ik	-10.0853
▁chem	-10.0865
▁vet	-10.0874
cr	-10.0883
▁contain	-10.0888
▁bandaranaike	-10.091
▁torture	-10.091
▁suburb	-10.091
▁workforce	-10.091
▁sentence	-10.091
▁loyal	-10.091
▁stem	-10.091
▁outlet	-10.0911
▁100000	-10.093
▁abt	-10.0933
more	-10.0963
▁consistent	-10.0969
ese	-10.0996
▁hu	-10.0997
▁behalf	-10.1016
▁cambridge	-10.1016
▁semester	-10.1016
▁northern	-10.1016
▁trcsl	-10.1016
▁venture	-10.1017
▁assistance	-10.1017
▁percent	-10.1019
▁pride	-10.102
▁න	-10.1021
▁surprising	-10.1022
▁respectful	-10.1025
andor	-10.1028
tain	-10.1033
▁afterwards	-10.1036
▁plate	-10.104
▁utter	-10.1048
clude	-10.1068
▁ali	-10.1083
you	-10.1085
ious	-10.1088
press	-10.1089
▁men	-10.109
▁95	-10.1092
▁accounting	-10.11
▁rajapaksas	-10.1114
35	-10.1114
▁disconnect	-10.1123
▁downvote	-10.1123
▁frustration	-10.1123
▁necessit	-10.1123
▁variety	-10.1123
▁fyi	-10.1124
▁insist	-10.1124
▁how	-10.1126
▁chip	-10.1132
▁experienced	-10.1134
▁alright	-10.1136
▁powder	-10.1136
▁sufficient	-10.1142
▁soul	-10.1147
ping	-10.1159
▁farmer	-10.116
soon	-10.1169
▁villa	-10.1186
▁parking	-10.1197
ali	-10.1202
▁rom	-10.1202
iri	-10.1218
ple	-10.122
▁russia	-10.1222
▁arch	-10.123
▁soo	-10.123
▁depreciation	-10.1232
▁ignorant	-10.1232
▁landscape	-10.1232
▁nissan	-10.1232
▁writing	-10.1232
▁defeat	-10.1232
▁telegram	-10.1232
▁slfp	-10.1233
▁gradual	-10.1233
▁hunt	-10.1236
▁impression	-10.1238
let	-10.1245
▁dependent	-10.1252
just	-10.126
▁sen	-10.1266
▁opening	-10.1282
▁diet	-10.1306
▁clinic	-10.1314
away	-10.1323
▁adventure	-10.1342
▁defense	-10.1342
▁efficiency	-10.1342
▁softlogic	-10.1342
▁tournament	-10.1342
▁toilet	-10.1342
▁activate	-10.1343
▁polite	-10.1343
▁contribution	-10.1344
▁competent	-10.1345
▁udawalawe	-10.1347
behave	-10.1348
▁haha	-10.1348
wi	-10.1361
rate	-10.1373
yr	-10.1378
claim	-10.1378
▁del	-10.1393
▁cater	-10.1408
▁lovely	-10.1426
▁catholic	-10.1453
▁crucial	-10.1453
▁discourage	-10.1453
▁chief	-10.1453
▁literacy	-10.1453
▁terrorism	-10.1454
ier	-10.1458
▁cake	-10.1461
▁incentive	-10.1463
▁gar	-10.1473
phone	-10.148
▁sam	-10.1493
▁practically	-10.1498
tiny	-10.1499
▁waiting	-10.1506
▁friendship	-10.1508
▁hole	-10.1514
▁came	-10.1514
▁san	-10.1515
uwa	-10.1522
▁harsh	-10.155
▁55	-10.1552
▁restrict	-10.1555
▁saturday	-10.1566
▁charity	-10.1566
▁exempt	-10.1566
▁explanation	-10.1566
▁tension	-10.1566
▁phase	-10.1566
▁malay	-10.1569
▁collective	-10.1575
▁fulltime	-10.1577
▁tank	-10.1584
▁vary	-10.1589
▁bla	-10.1595
ized	-10.1615
cent	-10.163
▁dil	-10.1632
▁interact	-10.1633
raja	-10.1641
ight	-10.1653
▁strange	-10.1663
▁author	-10.1665
▁ch	-10.1669
▁communist	-10.1679
▁gotabaya	-10.1679
▁happiness	-10.1679
▁rugby	-10.1679
▁sharing	-10.1679
▁pfc	-10.168
▁subscription	-10.168
▁niche	-10.1683
▁hotline	-10.1683
▁painful	-10.1684
▁keen	-10.1685
▁desire	-10.169
▁grid	-10.169
▁investigate	-10.1693
▁rally	-10.1695
▁finger	-10.1707
▁mere	-10.1708
▁av	-10.1708
▁pv	-10.1725
▁peer	-10.1733
▁nov	-10.1749
umb	-10.175
▁instal	-10.1769
ft	-10.1771
friendly	-10.1776
▁ki	-10.1779
▁chi	-10.1786
▁addict	-10.1789
▁hobby	-10.1794
▁maldive	-10.1794
▁scratch	-10.1794
sensitive	-10.1794
▁exceed	-10.1794
▁determine	-10.1794
▁freak	-10.1794
▁wije	-10.1794
▁smoke	-10.1795
▁buddy	-10.1795
▁feasible	-10.1795
▁chaos	-10.1796
▁textbook	-10.1796
▁jack	-10.1797
▁honda	-10.1798
▁chair	-10.1799
▁roof	-10.18
▁radio	-10.1803
▁involvement	-10.1826
box	-10.1846
set	-10.1848
▁mbps	-10.1857
▁har	-10.1869
ella	-10.1897
lan	-10.1901
▁transit	-10.1905
▁mislead	-10.191
▁professor	-10.191
▁android	-10.191
▁chocolate	-10.191
▁disturb	-10.191
▁embarrass	-10.191
▁polonnaruwa	-10.191
▁contest	-10.191
▁token	-10.191
▁ci	-10.1911
▁cancer	-10.1912
▁expat	-10.1914
▁2009	-10.1917
▁sing	-10.1917
▁affiliate	-10.1917
▁hardware	-10.1918
▁depressed	-10.1919
▁russian	-10.1921
▁manufacturer	-10.1931
▁uom	-10.1932
98	-10.1946
ase	-10.1953
ula	-10.1958
▁tag	-10.1958
▁lak	-10.1969
▁ceo	-10.1971
ragama	-10.1975
▁capitalist	-10.1983
chi	-10.1985
▁portal	-10.1986
▁pat	-10.1994
▁internationally	-10.2011
▁sometime	-10.2018
▁therap	-10.2025
▁cooking	-10.2025
▁association	-10.2028
▁bubble	-10.2028
▁buffet	-10.2028
▁expenditure	-10.2028
▁deficit	-10.2028
▁disease	-10.2028
▁storage	-10.2028
▁nepal	-10.2028
▁excel	-10.2029
▁ease	-10.2032
▁complicated	-10.2035
▁raw	-10.2043
▁sheet	-10.2044
▁aka	-10.2046
▁ego	-10.2058
una	-10.206
▁venue	-10.2063
ward	-10.2072
▁ele	-10.2073
▁acceptable	-10.2079
▁exception	-10.2092
eye	-10.2093
vert	-10.2105
▁minded	-10.2111
goda	-10.213
▁vaccinate	-10.213
▁capita	-10.2136
have	-10.2137
▁abandon	-10.2147
▁bentota	-10.2147
▁dehiwala	-10.2147
▁enterprise	-10.2147
▁hsbc	-10.2147
▁mirror	-10.2147
▁nugegoda	-10.2147
▁licence	-10.2147
▁racial	-10.2147
▁trustworthy	-10.2147
▁nibm	-10.2147
▁museum	-10.2147
▁grind	-10.2147
▁monkey	-10.2148
▁gear	-10.215
▁epf	-10.215
par	-10.2155
▁membership	-10.2157
▁indicate	-10.2159
▁related	-10.2169
▁profitable	-10.2181
sit	-10.2183
▁raja	-10.2183
▁sole	-10.2184
▁solely	-10.2196
mon	-10.2197
▁fl	-10.2202
21	-10.2241
▁publicly	-10.2245
▁buyer	-10.2256
relate	-10.2256
24	-10.2259
17	-10.226
kw	-10.2264
sumption	-10.2267
▁introvert	-10.2268
▁treasury	-10.2268
▁swimming	-10.2268
▁weapon	-10.2268
▁swim	-10.2268
▁pension	-10.2268
▁awful	-10.2269
▁java	-10.227
▁intake	-10.2271
▁permission	-10.2273
che	-10.2273
▁tra	-10.2281
▁parliamentary	-10.2286
▁ed	-10.2291
▁rainy	-10.2306
itch	-10.2306
▁ring	-10.2319
▁wanted	-10.232
col	-10.2325
90	-10.2327
▁differently	-10.2346
▁environmental	-10.2347
▁gf	-10.2348
▁fry	-10.2357
tri	-10.2375
▁thug	-10.238
▁ph	-10.2382
▁merc	-10.2386
▁cautious	-10.2389
▁compromise	-10.2389
▁escalat	-10.2389
▁exercise	-10.2389
▁inspire	-10.2389
▁onwards	-10.239
▁tactic	-10.239
▁hatred	-10.239
▁component	-10.239
▁midnight	-10.2391
▁republic	-10.2392
▁specialize	-10.2393
gala	-10.2397
▁earner	-10.2399
▁symbol	-10.24
▁salt	-10.2403
▁origin	-10.2405
▁ft	-10.2406
▁2010	-10.2407
▁mora	-10.2452
▁breath	-10.2452
23	-10.246
▁mature	-10.2479
▁for	-10.2487
oneer	-10.2487
ham	-10.2499
▁ayurved	-10.2513
laughe	-10.2513
▁amazon	-10.2513
▁criterion	-10.2513
▁excellent	-10.2513
▁sibling	-10.2513
▁twitter	-10.2513
▁ocean	-10.2513
▁bloat	-10.2513
▁romantic	-10.2513
▁frank	-10.2513
▁matara	-10.2513
▁corporation	-10.2513
▁aggressive	-10.2513
▁logistic	-10.2514
▁spice	-10.2515
▁reputabl	-10.2515
75	-10.2517
▁pad	-10.2519
▁attractive	-10.2527
▁outdated	-10.253
ura	-10.2543
ji	-10.2549
▁teen	-10.2554
▁mu	-10.2582
own	-10.2585
▁nut	-10.26
▁annoy	-10.2601
▁equally	-10.2602
head	-10.2604
▁flee	-10.2619
▁spa	-10.2632
▁scan	-10.2635
▁perfume	-10.2638
▁relief	-10.2638
▁supreme	-10.2638
▁derana	-10.2638
▁vacanc	-10.2638
▁shirt	-10.2638
▁french	-10.2639
▁perera	-10.2639
▁offend	-10.264
▁cam	-10.264
▁objective	-10.264
▁bird	-10.2643
lm	-10.2643
▁mail	-10.2644
▁strongly	-10.2644
▁2016	-10.2645
▁stressful	-10.2646
▁golden	-10.2652
▁learner	-10.2655
▁kit	-10.266
▁wonderful	-10.2663
▁enthusiast	-10.2687
ena	-10.2693
▁politically	-10.2695
▁largely	-10.2695
▁perfectly	-10.2696
▁ga	-10.2708
▁higher	-10.2713
read	-10.2717
▁acc	-10.273
rification	-10.2736
▁expire	-10.2752
ock	-10.2761
▁abolish	-10.2765
▁abortion	-10.2765
▁analyst	-10.2765
▁convenience	-10.2765
▁quarter	-10.2765
▁receipt	-10.2765
▁obsess	-10.2765
▁thief	-10.2765
▁diesel	-10.2765
▁browse	-10.2765
▁burger	-10.2765
▁alert	-10.2765
▁gateway	-10.2766
▁liquid	-10.2766
▁esoft	-10.2767
▁appropriate	-10.2768
▁strengthen	-10.277
▁quota	-10.2771
▁resignation	-10.2775
26	-10.2802
▁1500	-10.2806
▁diagnos	-10.2813
school	-10.2816
▁ap	-10.282
▁slight	-10.2849
ata	-10.2858
▁disc	-10.2864
har	-10.2876
▁superior	-10.2888
▁kitchen	-10.2893
▁satisfied	-10.2893
▁monetar	-10.2893
▁filter	-10.2893
▁whale	-10.2894
▁waterfall	-10.2895
▁representative	-10.2895
▁boot	-10.2901
▁pix	-10.2903
▁summar	-10.2903
▁interaction	-10.2905
▁ratio	-10.2907
▁backup	-10.2915
▁nationalism	-10.2918
▁partial	-10.2921
▁tr	-10.2931
▁hon	-10.2934
▁comfortabl	-10.296
cap	-10.2974
▁fin	-10.2993
ms	-10.3
▁jam	-10.3022
▁motorcycl	-10.3023
▁neutral	-10.3023
▁disrupt	-10.3023
▁routine	-10.3023
▁servant	-10.3023
▁mutual	-10.3023
▁prescribe	-10.3023
ake	-10.3027
▁flaw	-10.3028
▁bread	-10.3028
▁nadu	-10.3031
▁dump	-10.3032
nna	-10.3035
▁mega	-10.3038
▁numero	-10.3039
itie	-10.3057
mate	-10.3059
▁meaning	-10.3064
pet	-10.3074
ball	-10.3076
ular	-10.308
▁importer	-10.3094
key	-10.3104
esh	-10.3106
▁gi	-10.3109
mm	-10.3112
fl	-10.3115
▁assign	-10.3151
▁conclusion	-10.3154
▁isolate	-10.3154
▁wikipedia	-10.3154
▁yahapalana	-10.3154
▁latter	-10.3154
▁drunk	-10.3154
▁praise	-10.3154
▁worst	-10.3154
▁snack	-10.3154
▁cringe	-10.3155
▁capability	-10.3156
▁thrive	-10.3157
▁advocate	-10.3157
▁2017	-10.316
tor	-10.3162
▁1015	-10.3176
▁bat	-10.3194
▁kg	-10.3201
▁hospitality	-10.3204
22	-10.322
ko	-10.3231
▁ත	-10.3244
ring	-10.3251
300	-10.3252
▁bud	-10.3257
top	-10.3259
cite	-10.3265
▁arab	-10.3269
▁occasion	-10.3278
▁wf	-10.3281
▁vietnam	-10.3288
▁legitimate	-10.3288
▁ucsc	-10.3288
▁pilot	-10.3288
▁somebody	-10.3288
▁examination	-10.3288
▁socalle	-10.3288
▁steam	-10.3288
▁programming	-10.3288
which	-10.3288
▁departure	-10.3288
▁sunset	-10.3289
▁unemployed	-10.3289
▁forum	-10.329
▁monday	-10.3291
uisine	-10.3293
▁mosqu	-10.3294
▁urge	-10.3298
▁cell	-10.3307
▁oya	-10.3307
▁consideration	-10.3311
▁exit	-10.3311
▁achievement	-10.3313
▁admin	-10.3316
▁shower	-10.3319
▁consistently	-10.3349
af	-10.3363
▁lap	-10.3371
▁nil	-10.3374
hara	-10.3375
mind	-10.3378
duction	-10.338
▁fam	-10.3384
▁joint	-10.3385
▁afaik	-10.3423
▁transparency	-10.3423
▁swear	-10.3423
▁swap	-10.3423
▁narrow	-10.3423
parcel	-10.3424
▁myth	-10.343
▁dividend	-10.3432
▁rot	-10.3439
atha	-10.3442
▁reside	-10.3442
▁vaccinat	-10.3442
▁coin	-10.3454
▁separately	-10.3456
old	-10.3474
▁widely	-10.3516
▁customs	-10.3525
▁tone	-10.3527
▁privately	-10.3529
▁aw	-10.3531
▁pu	-10.3538
fence	-10.3542
65	-10.3544
▁ahangama	-10.356
icycle	-10.356
▁extension	-10.356
▁fernando	-10.356
▁fortunate	-10.356
▁hypocri	-10.356
▁indonesia	-10.356
▁subsidy	-10.356
▁unpopular	-10.356
▁graduation	-10.356
▁organise	-10.356
▁fraud	-10.356
▁skull	-10.356
▁vpn	-10.356
▁peep	-10.356
▁literature	-10.356
▁ugc	-10.356
▁captur	-10.3561
▁observation	-10.3561
▁overtake	-10.3561
▁anger	-10.3563
▁legend	-10.3563
▁meat	-10.3565
▁panic	-10.3571
▁tier	-10.3572
▁wav	-10.3575
case	-10.3578
ilst	-10.3597
unt	-10.3605
this	-10.3616
▁vari	-10.3628
▁bowl	-10.3635
▁carefully	-10.3652
800	-10.3656
riya	-10.3661
▁visitor	-10.3662
ordinary	-10.3682
▁goon	-10.3684
ition	-10.3689
▁bracket	-10.3699
▁economist	-10.3699
▁approx	-10.3699
▁silva	-10.3699
▁scold	-10.3699
▁edge	-10.3702
▁accessible	-10.3702
▁more	-10.3706
▁pill	-10.3711
▁governor	-10.3711
vent	-10.3712
course	-10.3715
▁respective	-10.3716
ny	-10.3719
▁feb	-10.3724
▁importance	-10.3731
▁tu	-10.3737
▁prop	-10.3738
lic	-10.3761
▁iran	-10.3767
▁ju	-10.3772
amba	-10.3777
▁mile	-10.3788
▁investing	-10.3788
600	-10.3802
▁bur	-10.3818
▁stone	-10.3832
▁object	-10.3837
▁netflix	-10.3839
▁purchasing	-10.3839
▁stretch	-10.3839
▁tshirt	-10.3839
▁volume	-10.3839
▁leasing	-10.3839
▁translation	-10.3839
▁vegetable	-10.3839
▁suv	-10.384
▁mandate	-10.384
▁uneducate	-10.3841
▁pump	-10.3842
▁sympath	-10.3843
▁alongside	-10.3844
▁wire	-10.3847
▁exp	-10.3857
▁pickup	-10.3864
▁forth	-10.3869
ache	-10.387
law	-10.3875
▁handout	-10.3876
▁os	-10.3877
bar	-10.3889
bur	-10.3904
wan	-10.3907
ava	-10.3913
▁mock	-10.3921
400	-10.3922
▁logical	-10.3928
term	-10.393
cha	-10.3951
▁touristy	-10.3952
oke	-10.3955
▁enrol	-10.3962
▁americans	-10.3963
▁yr	-10.3967
▁easier	-10.3982
▁landlord	-10.3982
▁reconciliation	-10.3982
▁strategic	-10.3982
▁scientist	-10.3982
▁bruh	-10.3982
▁prosper	-10.3982
▁screenshot	-10.3982
▁apology	-10.3983
▁neighborhood	-10.3983
▁euro	-10.3984
▁beneficial	-10.3984
▁misuse	-10.3984
▁assistant	-10.3984
▁kumara	-10.3984
▁chemical	-10.3985
▁slap	-10.3991
▁equality	-10.3994
cal	-10.3996
▁bell	-10.3997
▁approximately	-10.4001
▁pathetic	-10.4004
13	-10.4006
▁establishment	-10.4006
▁farming	-10.4036
▁productive	-10.4038
ude	-10.404
front	-10.4047
▁tf	-10.4062
dict	-10.4063
▁trainer	-10.4065
▁bas	-10.4075
▁empath	-10.408
other	-10.408
▁pollut	-10.4085
▁85	-10.4094
▁boom	-10.4106
▁yea	-10.4116
ware	-10.4117
▁instrument	-10.4127
▁provincial	-10.4127
▁symptom	-10.4127
▁evaluat	-10.4127
▁prosecut	-10.4127
▁discord	-10.4127
▁litter	-10.4127
▁temu	-10.4127
▁kelaniya	-10.4128
▁description	-10.4129
▁upset	-10.4129
▁acquire	-10.4129
▁realistically	-10.413
▁reverse	-10.4134
▁sep	-10.414
▁hub	-10.4148
▁boil	-10.4153
▁thin	-10.4157
▁menu	-10.4173
▁documentation	-10.4179
wala	-10.4192
▁certif	-10.4196
power	-10.4197
▁cast	-10.4199
anna	-10.421
▁ward	-10.421
fire	-10.4211
33	-10.4219
▁50000	-10.4223
▁unfortunate	-10.4226
96	-10.4229
▁cham	-10.4245
payment	-10.4252
▁qua	-10.4256
▁distract	-10.4264
lock	-10.4266
arine	-10.427
▁tattoo	-10.4274
▁crush	-10.4274
▁dismiss	-10.4274
▁emerge	-10.4274
▁increment	-10.4274
▁recipe	-10.4274
▁vague	-10.4274
▁moron	-10.4275
▁suspicious	-10.4275
▁organic	-10.4276
▁honor	-10.4284
▁cz	-10.4285
▁3000	-10.4289
▁reaction	-10.4291
▁selling	-10.4291
▁metal	-10.43
shop	-10.4302
weera	-10.4319
view	-10.4333
▁sec	-10.4337
▁2500	-10.437
▁iron	-10.4372
▁bug	-10.4373
▁33	-10.4376
ium	-10.4382
win	-10.4388
▁bin	-10.4406
▁aud	-10.4408
▁counsel	-10.4423
▁john	-10.4423
▁motivation	-10.4423
▁nepotism	-10.4423
▁steady	-10.4423
▁supplement	-10.4423
▁wickremesinghe	-10.4423
▁enemy	-10.4423
▁taxpayer	-10.4424
▁bathroom	-10.4424
▁etf	-10.4424
▁thumb	-10.4424
▁boyfriend	-10.4424
▁shake	-10.4425
▁bankruptcy	-10.4425
▁mentor	-10.4425
ancy	-10.4426
▁lu	-10.4431
nity	-10.4431
▁bright	-10.4434
▁inf	-10.4434
▁ent	-10.4435
iate	-10.4438
▁pala	-10.4442
▁stranger	-10.4445
▁2030	-10.4446
89	-10.4447
navy	-10.4449
▁audio	-10.4455
▁bri	-10.4471
▁bf	-10.4477
cam	-10.4488
▁originally	-10.4496
▁spin	-10.4496
▁pub	-10.4496
play	-10.4502
▁gal	-10.4515
tar	-10.4519
star	-10.4537
▁constitutional	-10.4548
ire	-10.4558
▁violat	-10.4565
▁mechanic	-10.4567
▁preserv	-10.4572
▁semi	-10.4574
▁courier	-10.4575
▁empire	-10.4575
▁incompetent	-10.4575
▁league	-10.4575
▁qualify	-10.4575
▁scream	-10.4575
▁draft	-10.4575
▁silence	-10.4575
▁lonely	-10.4575
▁plot	-10.4575
▁residence	-10.4576
▁upward	-10.4576
▁dictatorship	-10.4576
▁hungry	-10.4577
▁assessment	-10.4578
27	-10.4585
▁pace	-10.4587
▁cla	-10.46
▁disable	-10.4611
▁pray	-10.4612
▁crowded	-10.4636
▁hrs	-10.4639
ima	-10.464
▁pur	-10.4652
▁fare	-10.4664
gama	-10.4667
new	-10.4722
cious	-10.4723
▁danger	-10.4727
▁contrast	-10.4729
▁evolve	-10.4729
▁refuge	-10.4729
▁resume	-10.4729
▁gmoa	-10.4729
▁duration	-10.4729
▁bedroom	-10.4729
▁yellow	-10.4729
▁creator	-10.4729
▁making	-10.473
▁liberty	-10.473
▁ping	-10.4731
▁merit	-10.4732
▁instruction	-10.4733
▁uniform	-10.4734
▁initiate	-10.4735
▁expertise	-10.4737
04	-10.4744
▁cre	-10.4775
▁perk	-10.4786
▁ut	-10.4799
arm	-10.4802
ike	-10.4803
take	-10.4806
now	-10.4824
▁tim	-10.4829
▁ethic	-10.4833
▁streaming	-10.4841
▁excite	-10.4865
can	-10.4882
▁applicable	-10.4885
▁dynamic	-10.4885
▁inherit	-10.4885
▁newspaper	-10.4885
▁ghost	-10.4885
▁overcome	-10.4885
▁shady	-10.4885
▁manifesto	-10.4886
annar	-10.4887
▁height	-10.4889
▁headache	-10.489
▁assure	-10.4892
▁rumor	-10.4893
▁2014	-10.4894
▁ngo	-10.4896
▁evs	-10.4899
▁thr	-10.4903
▁manual	-10.4905
▁script	-10.4913
lly	-10.4914
path	-10.4916
▁blah	-10.492
▁clinical	-10.4925
▁bout	-10.4925
▁boc	-10.4928
oy	-10.493
▁flu	-10.4931
▁gu	-10.4935
▁sand	-10.4962
class	-10.4966
▁ge	-10.4971
ley	-10.5024
▁shed	-10.5027
▁dictator	-10.5042
▁wrap	-10.5043
▁ceremony	-10.5044
▁reluctant	-10.5044
▁boundary	-10.5044
▁perceive	-10.5044
curricula	-10.5044
▁scrap	-10.5044
▁broadcast	-10.5044
▁gaze	-10.5045
▁tolerat	-10.5045
▁kindly	-10.5045
▁lodg	-10.5046
▁indicator	-10.5046
▁dislike	-10.5046
▁beginning	-10.5047
bit	-10.5047
▁nightlife	-10.5048
▁therapist	-10.5048
▁invert	-10.5051
▁violation	-10.5055
▁stance	-10.5059
▁diving	-10.5063
tail	-10.5064
▁pile	-10.5069
▁247	-10.5069
▁magic	-10.5072
tch	-10.5077
▁done	-10.5077
row	-10.5089
▁lifetime	-10.5095
tech	-10.5098
hour	-10.5099
low	-10.5105
▁bind	-10.5115
▁07	-10.5123
index	-10.5131
rent	-10.5138
▁hut	-10.5139
holder	-10.5144
▁activis	-10.5146
val	-10.5151
▁ui	-10.5155
▁artificial	-10.5156
▁mill	-10.5158
▁dia	-10.5169
▁exceptional	-10.5184
▁peacefully	-10.5192
▁backpack	-10.5196
eliminate	-10.5205
occupy	-10.5205
▁applicant	-10.5205
▁celebration	-10.5205
▁cycling	-10.5205
▁dissanayake	-10.5205
▁integrity	-10.5205
▁jungle	-10.5205
▁swift	-10.5205
▁virtual	-10.5205
▁further	-10.5205
▁nightmare	-10.5205
▁aussie	-10.5205
pitiya	-10.5206
▁ntb	-10.5206
▁password	-10.5208
▁diverse	-10.5208
▁pregnant	-10.521
▁roam	-10.5212
▁unknown	-10.5212
▁ally	-10.5213
▁miserable	-10.5216
▁hort	-10.5224
▁broken	-10.5226
▁wipe	-10.524
▁dine	-10.524
▁510	-10.5243
▁curiosi	-10.5252
▁dust	-10.5254
▁perch	-10.526
etc	-10.5262
lum	-10.5263
▁qa	-10.527
mission	-10.528
▁scary	-10.5286
▁cid	-10.5286
▁sms	-10.5292
▁manageable	-10.53
▁disappoint	-10.5315
iz	-10.5317
▁rc	-10.5334
▁impe	-10.534
make	-10.5343
▁outdate	-10.5347
indu	-10.5362
plus	-10.5366
▁sinha	-10.5367
organ	-10.5369
▁atrocit	-10.5369
▁chandrika	-10.5369
▁furniture	-10.5369
▁injure	-10.5369
▁ladder	-10.5369
▁nursing	-10.5369
▁ritual	-10.5369
▁zoom	-10.5369
▁interfere	-10.5369
▁nomad	-10.5369
▁transparent	-10.5369
▁detect	-10.537
▁infect	-10.537
▁england	-10.537
▁appreciation	-10.5371
▁mainstream	-10.5371
▁chairman	-10.5372
▁rocket	-10.5377
▁france	-10.5378
▁blog	-10.5378
pointing	-10.5379
▁existence	-10.5379
▁uoc	-10.5396
▁ssd	-10.5399
paha	-10.5401
▁350	-10.5421
▁israeli	-10.5424
▁dive	-10.5443
soft	-10.5459
▁economical	-10.5459
self	-10.5463
▁sme	-10.5463
▁prof	-10.547
▁complet	-10.547
▁hearing	-10.5472
wo	-10.5478
liya	-10.5483
there	-10.5486
▁beam	-10.5495
▁180	-10.551
▁theme	-10.5512
▁seal	-10.5512
▁bull	-10.5514
iyan	-10.5528
▁airbnb	-10.5536
▁calculation	-10.5536
▁deliberate	-10.5536
▁obligation	-10.5536
▁substantial	-10.5536
▁miracle	-10.5536
▁reliability	-10.5536
▁studio	-10.5536
▁loophole	-10.5536
▁outdoor	-10.5536
▁embra	-10.5537
▁downside	-10.5537
▁mask	-10.5537
▁novel	-10.5539
▁porn	-10.5539
▁lee	-10.554
▁sus	-10.5543
▁posh	-10.5543
bra	-10.5543
▁heck	-10.5544
▁retain	-10.5556
▁offense	-10.5557
▁lug	-10.5558
▁wood	-10.5567
van	-10.5568
▁install	-10.5569
▁deed	-10.5573
▁eng	-10.5578
▁amongst	-10.5579
bag	-10.5582
▁follower	-10.5583
▁tall	-10.5586
mani	-10.5588
▁limitation	-10.5592
load	-10.5595
▁pun	-10.5596
▁mag	-10.5601
900	-10.5603
ample	-10.5606
made	-10.5611
▁coastal	-10.5613
▁pit	-10.5615
▁backwards	-10.562
▁businessman	-10.5621
economic	-10.5629
even	-10.5638
▁pri	-10.5645
▁pant	-10.5648
▁qr	-10.565
related	-10.5659
▁sweat	-10.5664
▁gut	-10.5677
▁mechan	-10.5698
▁discriminate	-10.5705
▁manufacturing	-10.5705
▁motorbike	-10.5705
▁negotiation	-10.5705
▁prominent	-10.5705
▁whatsoever	-10.5705
▁dispute	-10.5705
▁universal	-10.5705
▁cruise	-10.5705
▁italian	-10.5705
▁stabilize	-10.5706
▁offsho	-10.5706
▁hesitat	-10.5706
▁haput	-10.5707
▁geni	-10.5708
▁essa	-10.5708
▁confront	-10.5708
▁caste	-10.5709
▁nope	-10.571
▁format	-10.571
▁depth	-10.571
▁yell	-10.5712
▁scroll	-10.5713
▁arise	-10.5715
▁guideline	-10.5716
▁saturate	-10.5726
▁bot	-10.5728
▁wow	-10.5731
▁popularity	-10.5733
▁storm	-10.5734
▁fulfill	-10.5737
▁enroll	-10.5739
▁jee	-10.5741
▁wet	-10.5745
▁dam	-10.576
▁timeline	-10.5781
76	-10.5794
income	-10.5801
hen	-10.5807
ong	-10.5809
▁parad	-10.5825
ential	-10.5843
run	-10.5845
tin	-10.5851
▁them	-10.5856
▁pal	-10.5858
any	-10.586
code	-10.5864
▁worthy	-10.5869
rick	-10.5871
▁backhand	-10.5873
▁conference	-10.5878
▁humble	-10.5878
▁yield	-10.5878
▁ukraine	-10.5878
▁plug	-10.5878
▁anime	-10.5878
▁postpone	-10.5878
▁misinformation	-10.5878
▁psychologist	-10.5878
▁migrating	-10.5878
▁prescription	-10.5879
▁airtel	-10.588
▁deput	-10.5884
▁teenager	-10.5885
▁lord	-10.5885
▁creation	-10.5885
29	-10.5886
▁attendance	-10.5892
▁disappointed	-10.5893
endar	-10.5894
▁nine	-10.5897
▁aug	-10.5898
art	-10.5904
bee	-10.5906
▁mission	-10.5908
▁vice	-10.5916
▁nail	-10.5917
▁continuously	-10.5918
▁withdrawal	-10.5921
ound	-10.5922
▁hardship	-10.5934
▁lem	-10.5951
▁fore	-10.596
night	-10.5967
ically	-10.5967
craft	-10.5976
mouth	-10.5976
▁20000	-10.5978
person	-10.5982
▁freely	-10.5986
ole	-10.5993
avi	-10.5997
ux	-10.6
drive	-10.6016
▁pharmac	-10.602
form	-10.6022
hole	-10.6026
▁temp	-10.6032
▁insta	-10.6043
dha	-10.6046
▁paste	-10.6049
▁ecommerce	-10.6053
▁episode	-10.6053
▁grammar	-10.6053
▁hambantot	-10.6053
▁ingredient	-10.6053
▁lavinia	-10.6053
▁maturity	-10.6053
▁technique	-10.6053
▁zealand	-10.6053
▁unusual	-10.6053
▁silver	-10.6053
▁mbbs	-10.6053
▁utiliz	-10.6053
▁women	-10.6054
nami	-10.6054
part	-10.6054
▁wagon	-10.6055
▁excessive	-10.6055
▁liability	-10.6055
▁dispos	-10.6056
▁smartphone	-10.6056
▁desk	-10.6057
▁crop	-10.6063
▁rebuild	-10.6064
uc	-10.6065
▁assist	-10.6066
▁square	-10.6069
▁eld	-10.6071
▁demo	-10.6073
parent	-10.6082
zen	-10.6086
▁passive	-10.6095
▁normalize	-10.6099
▁overwhelming	-10.6099
men	-10.6116
▁comm	-10.6121
▁700	-10.6129
▁integrate	-10.6129
▁inject	-10.6135
rew	-10.6157
rative	-10.6168
die	-10.6171
▁heal	-10.6172
▁agricultur	-10.618
1000	-10.6181
▁youtuber	-10.6181
pola	-10.6183
most	-10.6186
▁doom	-10.6189
▁poster	-10.62
▁architect	-10.621
▁soe	-10.621
▁lag	-10.6211
▁tn	-10.6212
▁optional	-10.6214
▁130	-10.6225
▁conspirac	-10.6232
▁extensive	-10.6232
▁fertiliz	-10.6232
▁honeymoon	-10.6232
▁orphanage	-10.6232
▁portuguese	-10.6232
▁invade	-10.6232
▁kitten	-10.6232
▁outsource	-10.6232
▁drastically	-10.6232
▁overlook	-10.6232
▁mismanagement	-10.6233
▁bulk	-10.6233
▁experiment	-10.6234
▁neck	-10.6235
▁stall	-10.6237
▁overtime	-10.6237
▁bribery	-10.6238
▁accordingly	-10.6238
ooo	-10.624
▁toll	-10.6244
▁dominat	-10.6247
▁attraction	-10.6253
card	-10.6256
▁recruiter	-10.6274
▁outsider	-10.6276
▁sur	-10.6281
▁grandma	-10.6292
▁blast	-10.6298
tel	-10.6299
▁wisely	-10.6305
▁layer	-10.6307
tical	-10.631
700	-10.6316
ira	-10.6322
ict	-10.6323
▁creditor	-10.6334
▁05	-10.6354
ivity	-10.6359
▁peg	-10.6362
try	-10.6376
▁ham	-10.638
pad	-10.6381
▁unite	-10.6386
▁bang	-10.6389
ven	-10.6394
gram	-10.6403
▁civi	-10.6408
lit	-10.6409
acy	-10.6409
▁lgbt	-10.6413
▁psych	-10.6413
▁aesthetic	-10.6413
▁inconvenience	-10.6413
▁monopoly	-10.6413
▁prabhakaran	-10.6413
▁scientific	-10.6413
▁squeez	-10.6413
▁tackle	-10.6413
▁tropical	-10.6413
▁assassinat	-10.6413
▁length	-10.6413
▁sham	-10.6413
▁unstable	-10.6414
▁greet	-10.6414
▁terminal	-10.6414
▁rational	-10.6414
▁angel	-10.6414
▁flex	-10.6415
▁hook	-10.6416
▁kiss	-10.6416
▁bucket	-10.6417
▁pipe	-10.6418
▁indoor	-10.642
loom	-10.642
▁surface	-10.6421
▁packet	-10.6421
▁marketplace	-10.6422
▁classmate	-10.6423
▁lan	-10.6426
▁illness	-10.6433
▁reset	-10.6436
▁accidental	-10.6436
▁nz	-10.6437
ela	-10.6441
▁cad	-10.6441
▁intelligent	-10.6444
shan	-10.6447
▁indie	-10.6448
▁acca	-10.6459
▁mount	-10.6462
▁contractor	-10.6463
fold	-10.6482
▁alto	-10.6482
▁cm	-10.6483
▁uda	-10.649
lak	-10.6498
style	-10.6508
▁gl	-10.6508
▁nah	-10.654
hamas	-10.6548
ssert	-10.6556
rian	-10.6559
▁caf	-10.6565
ola	-10.6569
▁78	-10.6582
ult	-10.6585
▁ca	-10.6591
▁sovereign	-10.6596
▁intentional	-10.6597
▁altogether	-10.6599
▁anonymous	-10.6599
▁blockchain	-10.6599
▁occupation	-10.6599
▁throttle	-10.6599
▁hotspot	-10.6599
▁instability	-10.6599
▁theatre	-10.6599
▁bmw	-10.6599
▁visual	-10.6599
▁personnel	-10.6599
▁river	-10.6599
gamuwa	-10.6599
▁jewel	-10.66
▁dining	-10.66
▁impressive	-10.6601
▁offence	-10.6602
though	-10.6603
▁middleclass	-10.6603
▁intel	-10.6605
ified	-10.6607
▁ven	-10.6609
▁dedicated	-10.6619
▁judgement	-10.662
▁tongue	-10.6621
▁creepy	-10.6621
▁pta	-10.6621
▁bn	-10.6623
cut	-10.6633
▁pov	-10.6633
▁disappointing	-10.6637
▁rapidly	-10.6638
47	-10.6643
see	-10.6644
▁cct	-10.6644
post	-10.6649
place	-10.6651
taking	-10.6656
rom	-10.666
▁38	-10.6679
▁moderate	-10.6687
lore	-10.6708
▁devs	-10.6708
world	-10.671
guard	-10.671
mobile	-10.6711
150	-10.6716
keep	-10.6717
gam	-10.6719
▁restructur	-10.6735
▁len	-10.6736
▁sooo	-10.6748
28	-10.6765
▁ep	-10.6767
▁safely	-10.6781
▁disrespect	-10.6786
▁enhance	-10.6787
▁freelancing	-10.6787
▁guitar	-10.6787
▁immense	-10.6787
▁lyceum	-10.6787
▁parallel	-10.6787
▁leverage	-10.6787
▁suppress	-10.6787
galaxy	-10.6787
▁onsite	-10.6787
▁spiritual	-10.6788
▁asus	-10.6788
▁petition	-10.6789
▁resistance	-10.6789
▁peko	-10.6789
▁upside	-10.679
▁outright	-10.679
▁keyboard	-10.6791
▁gentle	-10.6791
▁alarm	-10.68
▁recall	-10.6801
41	-10.6802
56	-10.6808
▁cb	-10.6808
▁liqu	-10.6812
▁photography	-10.6812
▁greedy	-10.6817
ove	-10.682
▁colon	-10.6821
▁fup	-10.6824
▁econ	-10.6824
ook	-10.6828
▁dash	-10.6829
▁handful	-10.6833
iff	-10.6835
▁hd	-10.684
▁belt	-10.6871
▁craft	-10.6871
uru	-10.6877
▁nomin	-10.6884
tive	-10.6897
▁historically	-10.6902
usd	-10.6918
phil	-10.6918
▁convers	-10.6921
▁mood	-10.6924
get	-10.6924
▁prepay	-10.6926
iva	-10.6937
national	-10.6942
▁ramp	-10.6954
▁motivate	-10.6957
▁bath	-10.6959
36	-10.6967
ologist	-10.6974
▁abusive	-10.698
▁awkward	-10.698
▁bureaucracy	-10.698
▁feminism	-10.698
▁implicat	-10.698
▁incompetenc	-10.698
▁municipal	-10.698
▁pidurangala	-10.698
▁societal	-10.698
▁territory	-10.698
▁brush	-10.698
▁chunk	-10.698
▁opportunitie	-10.698
▁penalty	-10.698
▁breach	-10.698
▁cultivat	-10.698
▁demonstrat	-10.698
▁federal	-10.698
▁prompt	-10.698
▁sharp	-10.698
▁cartoon	-10.698
▁stamp	-10.698
▁aspir	-10.698
▁aqua	-10.698
▁abans	-10.698
▁imply	-10.698
▁distribute	-10.698
▁truck	-10.698
▁inefficient	-10.6981
▁fantastic	-10.6981
▁flip	-10.6982
▁survival	-10.6983
▁perception	-10.6983
▁apiit	-10.6983
▁halt	-10.6983
▁invent	-10.6986
▁trace	-10.6987
▁pitch	-10.6988
▁extract	-10.6991
▁2008	-10.6993
table	-10.6997
▁ec	-10.7
inland	-10.7
▁moon	-10.7
▁snorkeling	-10.7004
▁que	-10.7006
▁float	-10.7009
▁gpu	-10.7019
▁cd	-10.7022
▁bitter	-10.7024
▁humanity	-10.7037
▁button	-10.7046
▁125	-10.7049
▁prep	-10.705
▁ros	-10.7059
▁understandable	-10.7066
▁kindness	-10.7074
▁69	-10.7095
lect	-10.7098
call	-10.7099
▁actor	-10.7107
xx	-10.7112
hana	-10.7129
▁sav	-10.7133
oka	-10.7134
▁col	-10.7139
▁literal	-10.7139
▁je	-10.7147
leftist	-10.7151
▁bid	-10.7155
▁accusation	-10.7176
▁bataland	-10.7176
▁condemn	-10.7176
▁flavor	-10.7176
▁massacre	-10.7176
▁nanotek	-10.7176
▁nutrition	-10.7176
▁threshold	-10.7176
▁fiscal	-10.7176
▁premise	-10.7176
▁yep	-10.7176
▁mediocr	-10.7176
▁carrier	-10.7176
▁clarification	-10.7176
▁saree	-10.7176
▁bargain	-10.7177
▁honour	-10.7177
▁favourite	-10.7177
▁inclusive	-10.7178
▁arrogant	-10.7178
▁incredible	-10.718
▁loot	-10.718
▁ish	-10.7184
▁harbo	-10.7185
▁partnership	-10.7191
▁worse	-10.7192
▁authorize	-10.7193
care	-10.7194
▁diversity	-10.7195
▁37	-10.7196
▁fianc	-10.7198
▁2012	-10.72
▁scum	-10.7201
▁spam	-10.7204
▁tent	-10.721
▁seven	-10.7215
▁workload	-10.7219
▁ot	-10.7225
▁closed	-10.7234
▁joy	-10.7234
▁backend	-10.724
▁thru	-10.7242
▁inch	-10.725
▁shoulder	-10.7256
diagnose	-10.73
iness	-10.7313
▁overly	-10.7314
▁pakistani	-10.7316
inton	-10.7316
pack	-10.732
▁protester	-10.7333
▁begg	-10.7334
▁if	-10.7343
▁impress	-10.7349
▁dedicate	-10.7354
▁vent	-10.7354
▁chart	-10.7354
▁depress	-10.7357
rel	-10.736
▁execut	-10.7363
නත	-10.7368
▁entertain	-10.7374
▁maithri	-10.7375
facepalming	-10.7376
▁anxious	-10.7376
▁atmosphere	-10.7376
▁brainwash	-10.7376
▁credibility	-10.7376
▁exaggerate	-10.7376
▁happily	-10.7376
▁sirisena	-10.7376
▁animation	-10.7376
▁champion	-10.7376
▁hilarious	-10.7376
▁fingerprint	-10.7376
▁compound	-10.7377
▁captain	-10.7377
▁upfront	-10.7377
▁ndb	-10.7377
▁vital	-10.738
▁hung	-10.738
▁kong	-10.7382
▁amid	-10.739
2000	-10.739
▁photographer	-10.7394
▁meta	-10.7396
▁yu	-10.7398
▁saw	-10.7398
▁maps	-10.7403
▁logo	-10.7407
▁sticker	-10.7408
state	-10.7409
hat	-10.741
▁hyper	-10.742
▁4000	-10.7422
▁bury	-10.7426
▁singer	-10.7428
ten	-10.7432
eadline	-10.7432
▁fm	-10.7435
▁mistaken	-10.7442
▁after	-10.7445
▁900	-10.7451
▁few	-10.7452
▁bitch	-10.7456
nor	-10.7459
▁nationality	-10.7464
▁illegally	-10.7489
asinghe	-10.7497
quality	-10.75
million	-10.7503
kandy	-10.7504
cade	-10.7506
pray	-10.7521
▁fulfil	-10.7541
▁exporter	-10.7547
▁interio	-10.755
▁compensat	-10.7569
▁orient	-10.7573
▁terror	-10.7575
vt	-10.7578
▁fantas	-10.7578
shrugging	-10.758
▁accomodat	-10.758
▁circulat	-10.758
▁ignorance	-10.758
▁jersey	-10.758
▁unsafe	-10.758
▁vulnerable	-10.758
▁blatant	-10.758
▁wisdom	-10.758
▁assumption	-10.758
▁crony	-10.758
▁funeral	-10.758
▁generic	-10.758
▁dignity	-10.7581
▁migrant	-10.7581
▁skincare	-10.7581
▁tsu	-10.7581
▁twist	-10.7582
▁ielt	-10.7582
▁string	-10.7583
▁thero	-10.7584
▁differ	-10.7585
▁isb	-10.7586
▁shell	-10.7586
▁harini	-10.7587
▁spotify	-10.7587
train	-10.7587
▁2013	-10.7587
▁horn	-10.7589
▁arrangement	-10.7595
▁sht	-10.7598
suriya	-10.7602
▁instantly	-10.762
▁caa	-10.7624
fact	-10.7641
▁functional	-10.7648
yard	-10.7659
▁korean	-10.7662
fo	-10.7666
8000	-10.7677
▁sue	-10.7682
▁endless	-10.7689
55	-10.7696
▁aust	-10.7703
▁peo	-10.7724
▁tile	-10.7727
▁overwhelm	-10.7734
▁continuous	-10.774
▁110	-10.7745
rope	-10.775
unch	-10.7752
▁cope	-10.7757
cast	-10.7769
▁holy	-10.7769
▁luc	-10.7782
▁excess	-10.7786
▁beforehand	-10.7788
▁forgive	-10.7788
▁injury	-10.7788
▁inquire	-10.7788
▁judgment	-10.7788
▁leopard	-10.7788
▁nandalal	-10.7788
▁temperature	-10.7788
▁unexpected	-10.7788
▁unrealistic	-10.7788
▁calorie	-10.7788
▁clarity	-10.7788
▁ruhun	-10.7788
▁zscore	-10.7788
▁trinco	-10.7788
▁radical	-10.7788
▁tailor	-10.7788
▁eager	-10.7788
▁portray	-10.7788
▁vezel	-10.7788
▁domain	-10.7788
▁japura	-10.7789
▁hopeful	-10.7789
▁suzu	-10.7789
▁dept	-10.779
▁hiru	-10.779
▁icon	-10.779
▁boring	-10.779
▁magically	-10.779
▁layoff	-10.7791
▁ugly	-10.7791
▁dick	-10.7791
▁combo	-10.7791
ratne	-10.7792
▁giant	-10.7792
▁devop	-10.7794
▁garage	-10.7794
▁ob	-10.7794
▁cult	-10.7795
▁pg	-10.7796
▁mcq	-10.7797
▁nanu	-10.7798
▁founder	-10.7806
▁fla	-10.7812
▁tale	-10.7816
▁curse	-10.7826
▁hv	-10.783
▁bu	-10.7831
▁pera	-10.7835
change	-10.7838
▁ruler	-10.7852
▁reminder	-10.7853
pan	-10.7863
rous	-10.7864
▁89	-10.7868
82	-10.7883
conductor	-10.79
▁clos	-10.7904
▁dim	-10.7908
▁kok	-10.7909
build	-10.7912
▁2005	-10.7919
▁casually	-10.7921
people	-10.7924
human	-10.7933
sri	-10.7937
▁exclusive	-10.7958
▁disgust	-10.7962
▁medi	-10.7966
▁hygien	-10.7966
hrs	-10.7967
▁guilt	-10.7968
▁greed	-10.7969
used	-10.7971
▁gone	-10.7974
▁command	-10.798
▁mob	-10.7992
▁67	-10.7995
uni	-10.7998
▁keel	-10.7999
▁alternat	-10.7999
▁apologize	-10.8001
▁attorney	-10.8001
▁cigarette	-10.8001
▁compulsory	-10.8001
▁disadvantage	-10.8001
▁fabric	-10.8001
▁grandmother	-10.8001
▁nervous	-10.8001
▁outstand	-10.8001
▁python	-10.8001
▁quarantine	-10.8001
▁rajagiriya	-10.8001
▁resolution	-10.8001
▁sigirya	-10.8001
▁diversify	-10.8001
▁ravana	-10.8001
▁adida	-10.8001
▁psychological	-10.8001
▁gross	-10.8001
▁kidney	-10.8001
▁optimistic	-10.8001
▁boycott	-10.8002
▁thrill	-10.8002
▁blend	-10.8002
▁uncertainty	-10.8003
▁asw	-10.8003
▁spell	-10.8005
▁bailout	-10.8006
▁loop	-10.8006
nayake	-10.8008
▁grave	-10.8008
▁coworker	-10.801
▁regulatory	-10.801
▁hangout	-10.8011
▁raid	-10.8012
▁coup	-10.8015
▁paycheck	-10.8017
▁mfs	-10.8023
▁engagement	-10.8024
▁charter	-10.8026
▁cow	-10.8027
▁conditioner	-10.8032
▁bash	-10.8034
▁stake	-10.8044
▁expression	-10.8046
uma	-10.8046
▁nose	-10.8071
▁checkout	-10.8079
lam	-10.8081
▁ccc	-10.8083
▁siri	-10.8085
▁preach	-10.8094
▁ash	-10.81
turn	-10.8134
▁fresher	-10.8139
rais	-10.8146
2025	-10.8147
▁ii	-10.8147
emma	-10.815
▁socio	-10.8154
▁increas	-10.8155
life	-10.8163
▁brag	-10.8195
▁quo	-10.8201
rance	-10.8207
▁transform	-10.8212
▁legislat	-10.8216
wilpattu	-10.8218
▁adequate	-10.8218
▁contradict	-10.8218
▁definition	-10.8218
▁explicit	-10.8218
▁fonseka	-10.8218
▁grandfather	-10.8218
▁inquiry	-10.8218
▁intellectual	-10.8218
▁judiciary	-10.8218
▁knock	-10.8218
▁mortgage	-10.8218
▁philosoph	-10.8218
▁shampoo	-10.8218
▁temporarily	-10.8218
▁reckless	-10.8218
▁sunrise	-10.8218
▁malabe	-10.8218
▁endorse	-10.8218
▁shade	-10.8219
▁lyric	-10.8219
▁controversial	-10.8219
▁downfall	-10.8219
▁outlook	-10.8219
▁genetic	-10.8219
▁spoil	-10.8219
▁aswell	-10.8219
▁yoga	-10.822
▁sink	-10.8221
▁haircut	-10.8221
▁harmful	-10.8224
▁manipulation	-10.8225
▁summer	-10.8235
▁demon	-10.8237
▁bless	-10.8241
acle	-10.8247
▁prayer	-10.8252
nam	-10.8253
eutic	-10.8257
well	-10.826
▁restor	-10.826
▁mindful	-10.8263
▁nazi	-10.8265
▁kal	-10.8271
maker	-10.8272
▁workshop	-10.8273
allocation	-10.8282
▁formula	-10.8283
▁goto	-10.8283
▁punch	-10.8287
07	-10.8307
▁pointless	-10.8321
ump	-10.8325
roll	-10.8342
▁severely	-10.8346
54	-10.8352
▁225	-10.8359
aaa	-10.8363
rior	-10.8365
print	-10.8366
pala	-10.837
around	-10.838
visa	-10.8382
▁strip	-10.8407
▁allege	-10.8418
▁supposed	-10.8422
▁strictly	-10.8424
▁historic	-10.8438
▁concert	-10.844
▁disclose	-10.844
▁emphasis	-10.844
▁emphasiz	-10.844
▁injustice	-10.844
▁kurunegala	-10.844
▁merchant	-10.844
▁prefect	-10.844
▁sirimavo	-10.844
▁structural	-10.844
▁criticise	-10.844
▁twenty	-10.844
▁shelter	-10.8441
▁substance	-10.8441
▁premier	-10.8441
▁conscious	-10.8441
metric	-10.8441
▁badulla	-10.8441
▁combank	-10.8441
▁raising	-10.8441
▁biological	-10.8441
▁penny	-10.8441
▁outfit	-10.8442
▁herb	-10.8442
▁swing	-10.8442
▁rival	-10.8442
▁fucker	-10.8443
▁wound	-10.8443
▁priest	-10.8443
▁mileage	-10.8446
▁groom	-10.8446
▁polish	-10.8446
▁clip	-10.8448
▁detain	-10.8448
▁bold	-10.845
anne	-10.845
▁crew	-10.8455
▁nerd	-10.8455
▁palestine	-10.8455
▁hong	-10.8459
▁alleged	-10.8463
▁som	-10.8469
▁intense	-10.8474
▁indirectly	-10.8475
▁freeze	-10.8479
▁everytime	-10.8485
jith	-10.8487
▁implementation	-10.8491
▁exclusively	-10.8492
▁shin	-10.8508
▁gp	-10.8509
ndra	-10.8512
uch	-10.8539
▁fed	-10.8539
▁api	-10.8543
uction	-10.8552
lip	-10.8559
▁sheer	-10.8568
eath	-10.8569
aza	-10.8572
ought	-10.8585
after	-10.8594
▁nik	-10.8606
▁abs	-10.8614
▁consist	-10.8616
▁advertis	-10.8618
ncy	-10.8618
▁rapid	-10.8625
999	-10.8625
ggie	-10.8633
▁clock	-10.864
▁tender	-10.8641
▁glorif	-10.8657
32	-10.8665
aught	-10.8667
▁hesitant	-10.8668
▁irrelevant	-10.8668
▁lobby	-10.8668
▁mosquito	-10.8668
▁neglect	-10.8668
▁shield	-10.8668
▁convict	-10.8668
▁distinct	-10.8668
▁resonate	-10.8668
▁nonstop	-10.8668
▁horse	-10.8668
▁repeatedly	-10.8668
▁desktop	-10.8668
▁jeweller	-10.8668
▁fuss	-10.8668
▁tick	-10.8669
▁sunny	-10.867
▁dharma	-10.867
නම	-10.8671
▁database	-10.8671
▁motion	-10.8672
▁clueless	-10.8673
▁2027	-10.8676
▁reviv	-10.8679
▁straw	-10.8679
▁nude	-10.868
▁hopper	-10.8681
▁unpaid	-10.8684
▁pave	-10.8685
▁acne	-10.8686
▁ww	-10.8687
▁prediction	-10.8694
▁pleasant	-10.8697
▁03	-10.8698
udge	-10.8723
▁span	-10.8737
watta	-10.8772
singhe	-10.8773
tax	-10.8791
▁taxable	-10.881
▁hy	-10.8821
▁phi	-10.8832
illa	-10.8836
high	-10.8842
▁plat	-10.8851
▁killing	-10.8854
▁amd	-10.8856
▁cure	-10.8857
fall	-10.8876
▁yrs	-10.8877
max	-10.8886
▁reap	-10.8891
credible	-10.8896
jp	-10.8897
▁depart	-10.8899
▁academy	-10.89
▁accumulat	-10.89
▁analyze	-10.89
▁github	-10.89
▁inferior	-10.89
▁intimidat	-10.89
▁palestinian	-10.89
▁philippine	-10.89
▁straightforward	-10.89
▁wednesday	-10.89
▁pleasure	-10.89
▁bypass	-10.89
▁buffer	-10.89
▁kerala	-10.89
▁spouse	-10.89
▁boast	-10.89
▁demographic	-10.89
▁problematic	-10.8901
▁viral	-10.8901
▁residency	-10.8901
▁maid	-10.8903
▁lockdown	-10.8903
rolling	-10.8903
▁vape	-10.8903
▁vanish	-10.8907
▁macro	-10.8908
▁row	-10.8908
▁trait	-10.8909
▁suspend	-10.8911
yana	-10.8912
▁diplomatic	-10.8914
▁addiction	-10.8922
▁cfa	-10.8922
▁drinking	-10.8924
tude	-10.8927
▁bend	-10.8931
▁coff	-10.8934
▁sara	-10.8949
▁terminat	-10.895
▁incur	-10.8954
izing	-10.8954
▁spark	-10.8961
▁policeman	-10.8963
▁endure	-10.8969
▁generational	-10.8979
▁relaxed	-10.8989
▁washing	-10.8991
ounge	-10.8994
▁kar	-10.9024
known	-10.9029
nounce	-10.9029
long	-10.904
▁30000	-10.9052
especially	-10.9062
button	-10.9066
road	-10.9066
tamin	-10.9068
▁01	-10.9072
few	-10.9079
eem	-10.908
▁israelis	-10.9096
▁roi	-10.9111
▁iv	-10.9111
nawa	-10.9127
▁intent	-10.9128
pot	-10.9131
▁ashamed	-10.9138
▁communism	-10.9138
▁competitor	-10.9138
▁deploy	-10.9138
▁insurrection	-10.9138
▁launder	-10.9138
▁magnite	-10.9138
▁participation	-10.9138
▁phrase	-10.9138
▁privatis	-10.9138
▁unacceptable	-10.9138
▁unethical	-10.9138
▁comprehensive	-10.9138
▁computing	-10.9138
▁poison	-10.9138
▁sneak	-10.9138
▁grasp	-10.9138
▁introduct	-10.9139
▁resell	-10.9139
▁disorder	-10.9139
▁legacy	-10.9139
▁attest	-10.9139
▁cheese	-10.914
▁incorrect	-10.914
▁hoard	-10.9141
▁theft	-10.9142
▁hiking	-10.9142
▁hurr	-10.9143
▁batt	-10.9145
▁charm	-10.9146
▁powercut	-10.915
▁1990	-10.9151
shit	-10.9153
▁specialization	-10.9154
▁140	-10.9158
▁renewable	-10.916
▁relic	-10.9162
▁kara	-10.9164
▁motivated	-10.9166
▁yt	-10.9175
38	-10.9179
▁badm	-10.9182
▁specialise	-10.9183
▁noticed	-10.9183
▁stripe	-10.9195
▁anc	-10.9196
▁slot	-10.9196
▁grass	-10.9198
▁prize	-10.9201
▁cbk	-10.9204
▁showcas	-10.9212
oil	-10.9215
99	-10.9229
▁slide	-10.9233
pawn	-10.9239
▁pose	-10.9244
ltd	-10.9254
▁jew	-10.9256
fin	-10.9258
poli	-10.9259
agon	-10.9261
▁shi	-10.9266
▁42	-10.9268
▁wht	-10.927
▁esp	-10.9272
▁tig	-10.9273
screen	-10.9306
dark	-10.9307
▁sci	-10.9312
▁remov	-10.9318
▁bb	-10.9323
▁wat	-10.9335
▁instant	-10.9336
rift	-10.9338
▁48	-10.9348
▁culturally	-10.9357
▁gamer	-10.9362
▁weigh	-10.9367
▁deni	-10.9371
▁oppress	-10.9376
▁surge	-10.9378
▁balanced	-10.9378
▁44	-10.9381
▁spirit	-10.9382
▁allergy	-10.9382
▁congratulation	-10.9382
▁creativity	-10.9382
▁facilitat	-10.9382
▁flexibility	-10.9382
▁fortress	-10.9382
▁horror	-10.9382
▁newswire	-10.9382
▁patience	-10.9382
▁proportion	-10.9382
▁unprofessional	-10.9382
▁widespread	-10.9382
▁renovat	-10.9382
▁meditation	-10.9382
▁hectic	-10.9382
▁conquer	-10.9382
▁vitz	-10.9382
▁unrest	-10.9383
▁olympic	-10.9383
▁secular	-10.9383
love	-10.9383
▁contrar	-10.9383
▁taboo	-10.9383
tumble	-10.9384
▁specify	-10.9384
▁pirate	-10.9384
▁1948	-10.9385
▁sovereignty	-10.9385
▁expressway	-10.9386
▁dumbass	-10.9387
▁instructor	-10.9387
▁sparkle	-10.9388
▁bump	-10.939
▁frontend	-10.939
▁superiority	-10.9391
▁advertisement	-10.9396
galle	-10.9396
▁resale	-10.9396
tip	-10.9407
▁geopolitical	-10.9408
▁relocate	-10.942
▁biased	-10.9421
entrepreneurship	-10.9421
▁boomer	-10.9423
50000	-10.9426
reservation	-10.9438
live	-10.9446
kanda	-10.9448
▁hopeless	-10.9452
sale	-10.9478
▁fc	-10.9483
▁iam	-10.9486
suit	-10.9492
▁kw	-10.9498
▁liter	-10.9503
▁referr	-10.9514
▁sem	-10.9516
room	-10.9523
▁fdi	-10.9533
ggle	-10.9539
hill	-10.9539
▁financ	-10.9539
▁sincere	-10.9541
▁valu	-10.9542
ground	-10.9543
clear	-10.9549
▁planet	-10.9551
srilanka	-10.9557
brand	-10.9563
▁imagin	-10.9567
▁coll	-10.9573
hold	-10.9582
awn	-10.9593
▁jealous	-10.9599
74	-10.96
▁interi	-10.9617
▁automatic	-10.9631
▁afghanistan	-10.9632
▁coalition	-10.9632
▁concrete	-10.9632
▁confusing	-10.9632
▁immigrate	-10.9632
▁inherent	-10.9632
▁junction	-10.9632
▁overcharge	-10.9632
▁postgraduate	-10.9632
▁prohibit	-10.9632
▁rescue	-10.9632
▁ritalin	-10.9632
▁sightseeing	-10.9632
▁biomedical	-10.9632
▁habarana	-10.9632
▁senanayake	-10.9632
▁luxuri	-10.9632
▁torrent	-10.9632
▁cargill	-10.9632
▁ecosystem	-10.9632
▁jkh	-10.9632
▁scandal	-10.9632
exciting	-10.9632
▁virus	-10.9633
▁authoritarian	-10.9633
▁pinnawala	-10.9633
▁betray	-10.9633
37	-10.9633
▁thankfully	-10.9633
▁knee	-10.9634
▁persist	-10.9634
▁thick	-10.9635
▁crab	-10.9636
▁quantity	-10.9636
▁havelock	-10.9637
▁beef	-10.9637
▁variant	-10.9637
▁productivity	-10.9638
▁atto	-10.9638
▁classroom	-10.9639
game	-10.9639
▁vlog	-10.9641
▁assembl	-10.9645
iest	-10.9645
▁rail	-10.9646
▁hatch	-10.9648
▁160	-10.9649
▁harmon	-10.9652
pende	-10.9654
▁thai	-10.9654
▁sexuality	-10.9656
▁eka	-10.9661
▁queer	-10.9664
▁settlement	-10.968
▁beware	-10.9685
▁meantime	-10.969
gar	-10.9694
▁naive	-10.97
31	-10.9706
oid	-10.9706
nsible	-10.9714
▁dip	-10.9722
ique	-10.9744
uka	-10.9747
igama	-10.9761
▁tab	-10.9765
▁correction	-10.9771
physic	-10.978
▁glo	-10.9788
▁backward	-10.98
drop	-10.9801
break	-10.9811
learn	-10.9814
▁charger	-10.9826
▁photograph	-10.9832
▁surfing	-10.9838
▁sama	-10.9841
▁dar	-10.9854
▁brit	-10.9868
▁fil	-10.9877
▁accommodat	-10.9878
▁assess	-10.9884
▁overcrowd	-10.9889
▁biscuit	-10.9889
▁brilliant	-10.9889
▁celebrit	-10.9889
▁comparative	-10.9889
▁distribution	-10.9889
▁epfetf	-10.9889
▁inevitable	-10.9889
▁lasantha	-10.9889
▁phenomenon	-10.9889
▁satisfy	-10.9889
▁supplier	-10.9889
▁theoretical	-10.9889
▁tuesday	-10.9889
▁unbiased	-10.9889
▁fluctuat	-10.9889
▁humiliat	-10.9889
▁spiral	-10.9889
▁gossip	-10.9889
▁vocal	-10.9889
▁immun	-10.9889
▁distant	-10.9889
diamond	-10.9889
▁spectrum	-10.9889
▁dental	-10.9889
▁pohottuwa	-10.9889
▁tragic	-10.9889
store	-10.989
▁dissolve	-10.989
▁cease	-10.989
▁brake	-10.989
▁empower	-10.989
▁flour	-10.989
▁org	-10.9891
▁karma	-10.9892
▁refresh	-10.9892
▁basil	-10.9893
dictate	-10.9894
▁trilli	-10.9895
that	-10.9896
▁mouse	-10.9896
▁squad	-10.9898
▁filth	-10.9899
▁fitting	-10.99
▁grama	-10.9905
▁winter	-10.9907
▁exploitation	-10.9911
verse	-10.9922
▁trainee	-10.9922
▁iq	-10.9927
▁dire	-10.9928
▁dub	-10.9928
▁sol	-10.9935
▁gallery	-10.9939
▁weekday	-10.9939
tx	-10.9949
▁lip	-10.9951
▁spit	-10.9954
▁meetup	-10.9962
▁convo	-10.9966
fit	-10.9971
pit	-10.9978
▁jul	-10.9996
01	-10.9999
then	-10.9999
▁writer	-11.0006
▁dj	-11.0014
▁whe	-11.0017
▁mild	-11.0027
nanda	-11.0031
▁ravi	-11.0039
▁tablet	-11.007
48	-11.007
venue	-11.0076
worth	-11.0076
▁att	-11.0077
▁proto	-11.0082
▁this	-11.0082
harm	-11.0083
▁tenn	-11.0089
utter	-11.0095
▁cough	-11.0098
▁llb	-11.0104
hari	-11.0105
▁ny	-11.0106
▁tele	-11.0112
▁liber	-11.0136
▁popula	-11.0137
▁basket	-11.0152
battaramulla	-11.0152
conventional	-11.0152
▁anniversary	-11.0152
▁disregard	-11.0152
▁ethernet	-11.0152
▁feminist	-11.0152
▁horizon	-11.0152
▁inefficiency	-11.0152
▁lebanon	-11.0152
▁muscle	-11.0152
▁sabotage	-11.0152
▁scuba	-11.0152
▁thursday	-11.0152
▁loneli	-11.0152
▁minimize	-11.0152
▁illusion	-11.0152
▁verbal	-11.0152
▁retard	-11.0152
▁pdf	-11.0152
▁undermine	-11.0152
▁dhl	-11.0152
▁evade	-11.0152
▁breed	-11.0152
▁esim	-11.0152
▁prevalen	-11.0153
▁orange	-11.0153
▁unemployment	-11.0153
▁accredit	-11.0153
▁worthwhile	-11.0154
▁versa	-11.0154
▁adhere	-11.0154
▁bullet	-11.0155
▁elitis	-11.0156
▁wander	-11.0156
▁orientation	-11.016
▁ecu	-11.0161
▁winner	-11.0162
dom	-11.0163
▁stir	-11.0165
▁undergo	-11.0165
▁cunt	-11.0166
▁deem	-11.0167
▁announcement	-11.0169
▁25000	-11.017
▁amara	-11.017
▁massage	-11.0171
▁linu	-11.0177
▁bpo	-11.018
▁seize	-11.0186
▁acceptance	-11.0188
nnai	-11.0194
▁soil	-11.0195
▁subjective	-11.0203
▁odi	-11.0204
▁cro	-11.0205
▁idiotic	-11.0208
▁metro	-11.0208
geon	-11.0216
▁concentrate	-11.0216
akin	-11.023
▁lens	-11.0239
pass	-11.0241
▁hint	-11.0251
▁94	-11.0285
08	-11.0286
▁71	-11.0297
▁usb	-11.0303
kwh	-11.0325
▁triple	-11.0326
▁medal	-11.0336
colombo	-11.0346
home	-11.0346
week	-11.0346
▁vf	-11.0348
count	-11.035
reliable	-11.0351
▁scare	-11.0365
acred	-11.0367
▁500000	-11.0373
▁snorkel	-11.0388
▁creep	-11.0389
ision	-11.039
▁ironic	-11.0397
worsen	-11.0399
will	-11.0407
▁prepar	-11.0412
hz	-11.0413
graphy	-11.0421
▁administrative	-11.0422
▁algorithm	-11.0422
▁caution	-11.0422
▁dishearten	-11.0422
▁rajapakshe	-11.0422
▁sketch	-11.0422
▁skyrocket	-11.0422
▁subsequent	-11.0422
▁sweep	-11.0422
▁technological	-11.0422
▁unofficial	-11.0422
▁venezuela	-11.0422
▁rabie	-11.0422
▁unaware	-11.0422
▁blank	-11.0422
▁goverment	-11.0423
▁subscribe	-11.0423
ifie	-11.0423
▁automate	-11.0423
▁salon	-11.0424
▁telecom	-11.0424
▁collaboration	-11.0424
▁silly	-11.0424
▁statue	-11.0425
▁grey	-11.0425
▁modify	-11.0425
▁withhold	-11.0426
▁tune	-11.0427
▁nuance	-11.0429
▁obst	-11.0431
▁reception	-11.0431
rmv	-11.0433
▁colonize	-11.0433
▁amex	-11.0435
▁lowkey	-11.0437
▁2006	-11.0438
▁chest	-11.044
heshe	-11.0441
▁cabin	-11.0441
unda	-11.0446
▁lost	-11.0452
▁thoroughly	-11.0454
57	-11.0455
▁fighter	-11.0457
diyal	-11.0466
digit	-11.0476
▁presentation	-11.0485
79	-11.0505
arath	-11.0505
wella	-11.0508
▁meh	-11.0512
▁1020	-11.0514
▁57	-11.0526
amro	-11.0559
esco	-11.0561
master	-11.0564
▁jews	-11.0567
liable	-11.0569
▁77	-11.0575
word	-11.0584
wela	-11.0586
▁paus	-11.0586
government	-11.0623
tamil	-11.0626
▁shocking	-11.0644
මන	-11.0644
▁fisher	-11.0648
තත	-11.0673
▁found	-11.0675
▁fate	-11.0676
▁eve	-11.0688
▁cooper	-11.0697
▁pupp	-11.0699
▁antibiotic	-11.07
▁arbitrar	-11.07
▁bundle	-11.07
▁challenging	-11.07
▁enlighten	-11.07
▁hurdle	-11.07
▁knife	-11.07
▁paranoid	-11.07
▁peanut	-11.07
▁piracy	-11.07
▁recession	-11.07
▁recycle	-11.07
▁stigma	-11.07
▁taiwan	-11.07
▁threewheeler	-11.07
▁unpredictable	-11.07
▁justification	-11.07
▁bambalapitiy	-11.07
▁prestig	-11.07
▁dfcc	-11.07
▁perpetrat	-11.07
▁someday	-11.07
▁iirc	-11.07
▁aviation	-11.07
▁ancestor	-11.07
▁probation	-11.07
▁conservation	-11.0701
▁resist	-11.0701
▁invasion	-11.0701
▁heartbreak	-11.0702
▁tution	-11.0702
▁underworld	-11.0702
▁populis	-11.0702
▁rupa	-11.0702
▁enact	-11.0703
▁paradise	-11.0703
▁constructive	-11.0703
▁query	-11.0704
▁tenure	-11.0704
▁restart	-11.0704
▁snap	-11.0704
▁chapte	-11.0705
▁ambition	-11.0706
▁globe	-11.0707
▁collaborate	-11.071
▁hardworke	-11.071
▁1970	-11.0711
▁seperate	-11.0716
▁rack	-11.072
▁acre	-11.0722
▁dramatic	-11.0724
ogf	-11.0724
▁bali	-11.0725
85	-11.0732
▁vid	-11.0734
▁butter	-11.0735
▁netherlands	-11.0738
▁tir	-11.0741
▁cas	-11.0751
▁county	-11.0755
ford	-11.0775
teen	-11.0786
▁trim	-11.0796
mini	-11.0807
▁sane	-11.0819
▁bored	-11.0823
▁vijaya	-11.0825
ovo	-11.0833
▁dun	-11.0843
friend	-11.0854
tec	-11.0854
6000	-11.0864
▁reel	-11.087
3000	-11.0891
මත	-11.0899
▁slim	-11.092
▁abo	-11.0926
▁colonis	-11.0931
npp	-11.0941
bus	-11.0953
▁hari	-11.0954
▁butt	-11.0964
▁construct	-11.0973
from	-11.0975
▁innovati	-11.0981
evolution	-11.0982
▁emigration	-11.0986
▁fridge	-11.0986
▁irrespective	-11.0986
▁stereotype	-11.0986
▁wicket	-11.0986
▁courage	-11.0986
▁marxist	-11.0986
▁vouch	-11.0986
▁combat	-11.0986
▁fortune	-11.0986
▁notorious	-11.0986
▁forecast	-11.0986
▁roast	-11.0986
▁supervis	-11.0987
▁replica	-11.0987
▁monast	-11.0987
▁compatib	-11.0987
▁onboard	-11.0988
▁collar	-11.0989
▁binance	-11.099
▁queen	-11.0991
▁6000	-11.0992
▁surgeon	-11.0992
▁toast	-11.0993
▁bride	-11.0994
▁2028	-11.0994
▁olevel	-11.0995
asuma	-11.0996
▁rebel	-11.1001
▁junk	-11.1004
▁2011	-11.1005
▁fever	-11.1012
▁hinder	-11.102
▁gamble	-11.1031
▁deduction	-11.1034
▁nye	-11.1046
▁specialized	-11.1046
▁000	-11.1049
consistency	-11.1049
▁controll	-11.105
▁jet	-11.1066
escent	-11.1069
fade	-11.1075
▁ath	-11.1083
▁46	-11.1091
▁accessor	-11.1102
assurance	-11.1116
▁smoothly	-11.1125
▁ironical	-11.1128
heft	-11.1131
gate	-11.115
▁pearl	-11.1153
▁cozy	-11.1164
vol	-11.118
▁quietly	-11.1189
happy	-11.1203
write	-11.1204
▁coordinate	-11.1207
▁usable	-11.1207
jaya	-11.1222
zone	-11.1232
▁recur	-11.1253
party	-11.1265
▁equip	-11.1274
▁uncertain	-11.1277
▁quant	-11.1279
▁batticaloa	-11.128
▁bootlick	-11.128
▁concession	-11.128
▁confusion	-11.128
▁distress	-11.128
▁earbud	-11.128
▁forgot	-11.128
▁oblivio	-11.128
▁volatile	-11.128
▁bastard	-11.128
▁plaza	-11.128
▁automation	-11.128
▁fiction	-11.128
▁hometown	-11.128
▁wattala	-11.128
▁revolve	-11.128
▁cinec	-11.128
▁snake	-11.128
▁fiverr	-11.128
▁simplytek	-11.128
▁perahera	-11.128
▁trek	-11.1281
▁running	-11.1281
▁telco	-11.1282
ulu	-11.1283
▁better	-11.1283
▁outflow	-11.1284
▁rust	-11.1284
▁coward	-11.1284
▁chess	-11.1285
▁generator	-11.1286
▁150000	-11.1287
▁dns	-11.129
▁1980	-11.129
▁homophobic	-11.129
▁banana	-11.1295
▁5060	-11.1295
▁whatnot	-11.1296
▁patch	-11.1296
mount	-11.1298
▁musician	-11.13
▁3040	-11.1302
dasa	-11.1308
▁amma	-11.131
▁pour	-11.1325
▁blessing	-11.1326
▁moor	-11.1331
beat	-11.1337
▁stupidity	-11.1338
▁atheist	-11.1341
▁container	-11.1347
▁strain	-11.1355
▁akka	-11.1356
▁fck	-11.1368
▁artificially	-11.137
▁raj	-11.1372
▁interactiv	-11.1377
▁39	-11.1383
▁div	-11.1385
ombi	-11.1388
▁tricky	-11.1397
uti	-11.1418
page	-11.1426
chandra	-11.1434
▁admire	-11.1439
▁til	-11.1457
▁eh	-11.147
▁dispose	-11.1495
tract	-11.15
first	-11.1506
job	-11.1506
critic	-11.1508
water	-11.1518
▁pand	-11.1519
born	-11.1548
▁therm	-11.1555
▁maxim	-11.1557
▁albe	-11.1564
42	-11.1564
▁plead	-11.1565
▁academi	-11.1572
▁lg	-11.1577
▁arguabl	-11.1583
▁casino	-11.1583
▁disgrace	-11.1583
▁exorbitant	-11.1583
▁fraction	-11.1583
▁incorporate	-11.1583
▁leisure	-11.1583
▁memorable	-11.1583
▁separatis	-11.1583
▁smoking	-11.1583
▁television	-11.1583
▁comparable	-11.1583
▁absorb	-11.1583
▁buzz	-11.1583
▁salarie	-11.1583
▁gulf	-11.1583
▁saudi	-11.1583
▁chronic	-11.1583
▁desert	-11.1583
▁plumb	-11.1583
helmet	-11.1583
▁metropoli	-11.1583
▁asiri	-11.1583
▁angle	-11.1583
▁grain	-11.1583
▁basketball	-11.1583
▁commod	-11.1584
▁northeast	-11.1585
▁ngl	-11.1585
▁puppet	-11.1585
▁disrespectful	-11.1586
▁audaci	-11.1586
▁optimiz	-11.1586
▁amend	-11.1586
▁skeptical	-11.1589
67	-11.1589
▁lump	-11.1589
▁disappointment	-11.1593
▁upwork	-11.1593
▁halfway	-11.1596
eylan	-11.1597
▁annex	-11.1598
▁sail	-11.16
▁outage	-11.161
▁rubb	-11.1617
urable	-11.1618
▁modest	-11.1621
▁minne	-11.1621
▁palm	-11.1623
door	-11.1626
▁momentum	-11.1626
▁stabili	-11.1649
▁rejection	-11.1657
▁nor	-11.1662
jan	-11.1663
▁elevate	-11.1702
▁sanit	-11.171
▁unam	-11.1724
▁conclud	-11.173
▁gathering	-11.1737
▁env	-11.1744
▁360	-11.1749
▁shooting	-11.1762
bel	-11.1771
gain	-11.1783
▁dial	-11.1786
position	-11.1792
check	-11.1798
ghz	-11.1818
circle	-11.1819
food	-11.1819
visit	-11.1821
scale	-11.1821
south	-11.1823
market	-11.1831
watte	-11.1837
thank	-11.1839
▁indirect	-11.1847
▁bone	-11.1851
▁40000	-11.1858
▁68	-11.1871
▁kand	-11.1881
2019	-11.1884
tern	-11.1888
▁interpret	-11.1895
▁ambassador	-11.1895
▁brazil	-11.1895
▁calculator	-11.1895
▁chaotic	-11.1895
▁configur	-11.1895
▁franchise	-11.1895
▁hierarch	-11.1895
▁imprison	-11.1895
▁intervention	-11.1895
▁misogyn	-11.1895
▁plague	-11.1895
▁privatize	-11.1895
▁rhetoric	-11.1895
▁tertiary	-11.1895
▁treasure	-11.1895
clamation	-11.1895
▁counsellor	-11.1895
▁sabara	-11.1895
▁lorry	-11.1895
▁appease	-11.1895
▁console	-11.1895
▁kfc	-11.1895
▁traction	-11.1895
▁plz	-11.1895
▁transcript	-11.1895
▁collateral	-11.1895
▁geek	-11.1896
▁charith	-11.1896
▁preferred	-11.1896
▁registrar	-11.1896
▁mourn	-11.1896
▁disguise	-11.1896
▁bakery	-11.1898
▁crib	-11.1898
▁cooperate	-11.1898
▁brave	-11.1898
▁southeast	-11.1899
▁refine	-11.1899
▁drown	-11.19
▁compile	-11.1901
▁hmm	-11.1901
▁7000	-11.1903
▁chola	-11.1903
▁cliq	-11.1903
▁rlly	-11.1904
▁revis	-11.1909
▁subtle	-11.1909
▁200000	-11.1917
▁expe	-11.1936
▁jealousy	-11.1937
▁validation	-11.1943
▁02	-11.1949
▁honk	-11.195
▁tire	-11.1954
holding	-11.1955
▁smth	-11.1962
akka	-11.1966
ctor	-11.1973
▁worthless	-11.1977
▁manipulat	-11.1981
lib	-11.1993
▁tw	-11.1995
enous	-11.1998
▁criti	-11.2004
▁diver	-11.2013
▁homeless	-11.202
▁batsm	-11.2031
▁indig	-11.2035
esy	-11.205
naval	-11.2054
▁pink	-11.2061
▁integrat	-11.2078
▁lil	-11.2112
▁bore	-11.212
▁tast	-11.2133
travel	-11.2142
serve	-11.2142
finger	-11.2145
match	-11.2148
2024	-11.215
money	-11.2156
bound	-11.2171
story	-11.2172
look	-11.2176
▁faci	-11.218
▁turm	-11.2195
▁possess	-11.2207
▁ambul	-11.2218
elecommunication	-11.2218
▁asleep	-11.2218
▁culprit	-11.2218
▁hypothetical	-11.2218
▁inappropriate	-11.2218
▁melbourne	-11.2218
▁monarch	-11.2218
▁nonexistent	-11.2218
▁overstay	-11.2218
▁overthinke	-11.2218
▁pfizer	-11.2218
▁provision	-11.2218
▁repercussion	-11.2218
▁robotic	-11.2218
▁secretariat	-11.2218
▁souvenir	-11.2218
▁subsidize	-11.2218
▁tragedy	-11.2218
▁upskill	-11.2218
▁virgin	-11.2218
▁dodgy	-11.2218
▁quiz	-11.2218
▁1983	-11.2218
▁heaven	-11.2218
▁retreat	-11.2218
▁apparel	-11.2218
▁jesus	-11.2218
▁backlash	-11.2218
▁retaliat	-11.2218
▁adani	-11.2218
▁brace	-11.2218
▁shark	-11.2218
▁hindi	-11.2218
▁halal	-11.2218
▁ayya	-11.2218
▁harvest	-11.2219
▁prince	-11.2219
▁journalism	-11.222
▁leap	-11.2222
▁cpu	-11.2222
▁jaw	-11.2226
▁foolish	-11.2226
▁dynast	-11.2228
▁starve	-11.2235
▁usaid	-11.2239
▁450	-11.224
▁factual	-11.224
▁devalue	-11.2243
nym	-11.2243
▁inner	-11.2243
▁melting	-11.2245
▁unclear	-11.2245
▁810	-11.2253
▁pleading	-11.2254
▁ox	-11.226
▁730	-11.2262
▁genre	-11.2263
credit	-11.2272
▁sob	-11.2274
▁indi	-11.2285
iddle	-11.2292
▁1030	-11.2293
▁erp	-11.2303
▁tint	-11.2385
residential	-11.2421
islamic	-11.2433
▁bow	-11.2441
cou	-11.2442
250	-11.2446
▁kia	-11.2446
lush	-11.2459
sustainable	-11.2474
minute	-11.2475
perform	-11.2477
▁stab	-11.2484
▁now	-11.2505
fill	-11.2505
▁eco	-11.2521
chem	-11.2523
▁yap	-11.2524
▁eff	-11.2524
▁inspect	-11.2533
▁southwest	-11.2538
▁clan	-11.2543
▁drastic	-11.255
▁dhammika	-11.2551
▁evident	-11.2551
▁geographical	-11.2551
▁helicopter	-11.2551
▁identification	-11.2551
▁interrupt	-11.2551
▁pronunciation	-11.2551
▁satellite	-11.2551
▁stomach	-11.2551
▁stunning	-11.2551
▁vegetarian	-11.2551
▁rehabilitat	-11.2551
▁revenge	-11.2551
▁monument	-11.2551
▁kollupiti	-11.2551
▁flirt	-11.2551
▁dentist	-11.2551
▁insert	-11.2551
▁spicy	-11.2551
▁invoic	-11.2551
▁york	-11.2551
▁children	-11.2552
squint	-11.2552
▁vibran	-11.2552
▁washroom	-11.2552
▁bleed	-11.2552
▁misunderstand	-11.2552
▁sensor	-11.2552
▁paddy	-11.2553
▁unhealth	-11.2554
▁spring	-11.2554
▁kotte	-11.2555
▁redeem	-11.2555
▁rumo	-11.2556
▁pound	-11.2557
▁ballot	-11.2558
▁machan	-11.2559
pensive	-11.256
▁delusional	-11.256
ossil	-11.2561
▁cryptocurrency	-11.2561
▁daddy	-11.2562
▁installation	-11.2564
▁unbelievable	-11.2568
▁roadside	-11.257
▁motherland	-11.2571
▁ppp	-11.2576
▁classify	-11.2583
▁rotat	-11.2585
▁neat	-11.2586
▁ditch	-11.2588
▁1080	-11.2589
▁commander	-11.2589
▁igp	-11.2592
▁anthe	-11.2596
still	-11.2596
▁az	-11.26
▁backpacker	-11.2601
▁worklife	-11.2609
▁fleet	-11.2609
▁meth	-11.263
▁bake	-11.2642
▁converse	-11.2648
▁arun	-11.2651
asia	-11.266
▁legalize	-11.268
kara	-11.2683
udu	-11.2695
▁lev	-11.272
තන	-11.2729
avan	-11.2734
▁alter	-11.276
▁jetw	-11.2774
rsion	-11.2779
▁gel	-11.2796
step	-11.2797
▁kol	-11.2801
4000	-11.2805
pex	-11.2813
religious	-11.2819
service	-11.282
field	-11.282
cultural	-11.282
watch	-11.2823
▁mobil	-11.2826
▁outta	-11.2834
▁prioriti	-11.2836
▁gambl	-11.2845
▁apparent	-11.2849
termination	-11.2853
▁12000	-11.2863
▁disast	-11.2873
▁journal	-11.2875
▁geo	-11.2884
▁responsib	-11.2891
▁outrage	-11.2895
▁constitu	-11.2895
▁crippl	-11.2896
▁descend	-11.2896
▁accomplish	-11.2896
▁affiliation	-11.2896
▁athlete	-11.2896
▁bandwidth	-11.2896
▁cosmetic	-11.2896
▁credential	-11.2896
▁destruction	-11.2896
▁dhamma	-11.2896
▁elaborate	-11.2896
▁essence	-11.2896
▁expansion	-11.2896
▁homagama	-11.2896
▁isolation	-11.2896
▁keheliya	-11.2896
▁magistrate	-11.2896
▁memorize	-11.2896
▁paragraph	-11.2896
▁resilienc	-11.2896
▁selfstudy	-11.2896
▁stadium	-11.2896
▁terrify	-11.2896
▁upvote	-11.2896
▁zimbabwe	-11.2896
▁underrated	-11.2896
▁wickrem	-11.2896
▁consensus	-11.2896
▁intervene	-11.2896
▁ebay	-11.2896
▁ancestr	-11.2896
▁omg	-11.2896
▁lmk	-11.2897
▁kottawa	-11.2897
cieve	-11.2897
▁winking	-11.2897
▁bounce	-11.2899
▁sinhalatamil	-11.2904
▁colonialism	-11.2904
▁chaba	-11.2905
illionaire	-11.2906
▁curve	-11.2908
▁overwork	-11.2913
▁christianity	-11.2913
▁validate	-11.2918
await	-11.292
thiya	-11.2921
▁harin	-11.2923
▁idp	-11.2936
▁830	-11.2936
2022	-11.2936
▁gpt	-11.2936
▁bidd	-11.2938
foresee	-11.295
tention	-11.2951
▁healing	-11.2964
trip	-11.298
▁apit	-11.3003
▁np	-11.3004
මක	-11.301
data	-11.3011
chef	-11.3023
▁crapp	-11.3036
alley	-11.3047
▁whin	-11.3055
▁overse	-11.3065
agala	-11.3091
intern	-11.3119
nasty	-11.312
▁chr	-11.3141
▁83	-11.3153
▁karuna	-11.3158
agama	-11.3162
science	-11.3177
child	-11.3177
east	-11.3186
▁promis	-11.3188
ranil	-11.3192
athon	-11.3209
range	-11.3215
▁complicate	-11.3231
▁discre	-11.3232
▁insecur	-11.3249
▁patriot	-11.3251
▁scholar	-11.3253
grimacing	-11.3253
▁8889	-11.3253
▁accompan	-11.3253
▁advisable	-11.3253
▁chathurang	-11.3253
▁circuit	-11.3253
▁delicious	-11.3253
▁demotivate	-11.3253
▁exploration	-11.3253
▁flavour	-11.3253
▁meritocra	-11.3253
▁overthrow	-11.3253
▁participant	-11.3253
▁precaution	-11.3253
▁shadow	-11.3253
▁unbearabl	-11.3253
▁vocabulary	-11.3253
▁nvq	-11.3253
▁forbid	-11.3253
▁cruel	-11.3253
▁username	-11.3253
▁predator	-11.3253
▁procure	-11.3253
▁generous	-11.3253
▁precise	-11.3253
▁theater	-11.3253
▁explod	-11.3253
▁swrd	-11.3253
▁furious	-11.3254
▁immatur	-11.3254
▁remit	-11.3254
▁newbie	-11.3254
▁seafood	-11.3254
▁downhill	-11.3254
▁scalp	-11.3255
▁tyran	-11.3255
▁dunno	-11.3255
▁shove	-11.3255
▁rajarat	-11.3255
esture	-11.3255
▁tinder	-11.3256
▁latin	-11.3256
lakuru	-11.3256
▁glory	-11.3258
▁stunt	-11.3259
▁steer	-11.3259
▁insecurity	-11.326
▁flair	-11.326
▁imho	-11.326
▁specie	-11.3261
▁lamp	-11.3261
▁motherboard	-11.3262
▁barber	-11.3263
▁dodge	-11.3264
▁showroom	-11.3265
▁incom	-11.3267
▁oppression	-11.3269
electoral	-11.327
▁cement	-11.3274
rfc	-11.3276
▁hail	-11.3276
▁saas	-11.3277
▁attachment	-11.328
▁hav	-11.3286
▁selective	-11.3304
▁sirasa	-11.3305
▁630	-11.3316
shaw	-11.3318
▁1520	-11.332
▁expir	-11.3332
▁thoughtful	-11.3336
▁clay	-11.3337
▁nawal	-11.3339
▁erase	-11.3342
jector	-11.3345
▁mrp	-11.3346
▁programmer	-11.3349
▁eran	-11.3352
cyli	-11.337
9000	-11.3373
kumar	-11.3427
cott	-11.3432
▁pear	-11.3441
▁sept	-11.3445
▁ceyl	-11.3452
▁accelerate	-11.3459
▁fav	-11.3468
▁15000	-11.348
▁elevat	-11.3481
▁technic	-11.3498
where	-11.3528
stream	-11.3543
wanted	-11.3547
business	-11.3547
little	-11.3549
▁vici	-11.3562
▁06	-11.3565
▁intens	-11.3571
▁approximate	-11.3575
▁instruct	-11.3605
▁acqui	-11.362
▁controvers	-11.3623
itarian	-11.3623
▁apologise	-11.3624
▁aptitude	-11.3624
▁censor	-11.3624
▁emigrate	-11.3624
▁goddamn	-11.3624
▁hormon	-11.3624
▁jayawardena	-11.3624
▁kapruka	-11.3624
▁knuckle	-11.3624
▁mechatronic	-11.3624
▁opportunist	-11.3624
▁resilient	-11.3624
▁toronto	-11.3624
▁uplift	-11.3624
▁assimilat	-11.3624
▁consolidat	-11.3624
▁dancing	-11.3624
▁sanctuary	-11.3624
▁occurrence	-11.3624
▁rainbow	-11.3624
▁intercity	-11.3624
▁pivot	-11.3624
▁sleeve	-11.3624
▁yew	-11.3624
▁batik	-11.3624
▁pardon	-11.3624
scription	-11.3624
▁grace	-11.3624
▁ambuluwa	-11.3624
▁plc	-11.3624
▁uphold	-11.3625
▁juice	-11.3625
▁speculation	-11.3626
lunder	-11.3626
▁homosexuality	-11.3626
▁biotech	-11.3626
▁diff	-11.3627
▁ddr	-11.3627
▁confidential	-11.3628
▁satisfaction	-11.3628
▁afterma	-11.3629
▁infant	-11.363
▁clash	-11.3631
▁drill	-11.3634
▁2029	-11.3636
▁paris	-11.364
▁aboard	-11.3641
▁maz	-11.3642
▁systematic	-11.3643
▁seren	-11.3646
▁rig	-11.3653
▁rubber	-11.3653
▁bait	-11.3655
theless	-11.3658
68	-11.3668
▁reign	-11.3671
▁victoria	-11.3682
▁256	-11.3689
▁ube	-11.3692
duwa	-11.3713
▁indo	-11.3717
▁poke	-11.3721
esse	-11.3722
anker	-11.3724
▁pond	-11.3728
liant	-11.3732
▁2002	-11.3744
▁competenc	-11.3755
▁atti	-11.3775
▁jun	-11.3821
▁hera	-11.3835
thala	-11.3857
▁liv	-11.3879
▁overhea	-11.3882
icc	-11.3907
lpl	-11.391
▁roti	-11.3921
round	-11.3928
7000	-11.3931
speaker	-11.3932
buy	-11.3933
wickrama	-11.4008
▁bureaucrat	-11.4008
▁burgher	-11.4008
▁dismantle	-11.4008
▁inconsistent	-11.4008
▁inspiration	-11.4008
▁masculin	-11.4008
▁pilgrim	-11.4008
▁privatization	-11.4008
▁significance	-11.4008
▁stimulat	-11.4008
▁tunnel	-11.4008
▁unreasonable	-11.4008
▁vigilant	-11.4008
▁bureau	-11.4008
▁rebellion	-11.4008
▁throat	-11.4008
▁yamaha	-11.4008
▁attribute	-11.4008
▁compassion	-11.4008
▁frimi	-11.4008
▁parliamentarian	-11.4008
▁durability	-11.4008
▁cancellation	-11.4008
▁oversight	-11.4008
▁influential	-11.4008
▁mortal	-11.4008
▁steel	-11.4009
▁qatar	-11.4009
▁remand	-11.4009
▁influ	-11.401
▁patriotism	-11.401
▁spanish	-11.4012
▁1956	-11.4013
▁spill	-11.4014
▁universe	-11.4018
▁squat	-11.4021
dominant	-11.4021
▁shameless	-11.4023
▁bbc	-11.4023
▁300000	-11.4025
ception	-11.4027
▁devil	-11.4031
▁decorat	-11.4032
▁impressed	-11.4038
rathna	-11.4041
▁sword	-11.4049
▁nord	-11.406
▁ipl	-11.4089
▁noon	-11.4089
▁merge	-11.4118
▁downgrad	-11.4122
halo	-11.4136
▁itak	-11.4138
▁cert	-11.4166
funde	-11.418
hinge	-11.4216
fare	-11.4227
▁calc	-11.4241
mich	-11.4244
▁troll	-11.4273
artial	-11.4304
▁lite	-11.4313
▁cloth	-11.4323
club	-11.4332
jvp	-11.4332
blue	-11.4332
▁boi	-11.4335
▁generat	-11.4336
anathan	-11.4337
▁stag	-11.4338
▁tht	-11.4338
info	-11.4339
▁rub	-11.4342
media	-11.4352
▁negativ	-11.4356
▁offens	-11.4356
plant	-11.4372
monger	-11.4376
current	-11.4379
▁00	-11.4384
▁compute	-11.439
▁coworke	-11.4392
▁pregnan	-11.4396
▁migra	-11.4399
▁teenage	-11.4402
emotes	-11.4408
▁comprehen	-11.4408
▁autonomy	-11.4408
▁ayubowan	-11.4408
▁bangalore	-11.4408
▁complication	-11.4408
▁deteriorat	-11.4408
▁discontinue	-11.4408
▁fascist	-11.4408
▁hyperinflation	-11.4408
▁jayawardene	-11.4408
▁mcdonald	-11.4408
▁rainforest	-11.4408
▁reimburse	-11.4408
▁sandwich	-11.4408
▁simplify	-11.4408
▁subtitle	-11.4408
▁toddler	-11.4408
▁xiaomi	-11.4408
▁amateur	-11.4408
▁clapping	-11.4408
▁confess	-11.4408
▁livelihood	-11.4408
▁ncpi	-11.4408
▁pyramid	-11.4408
▁segregat	-11.4408
▁archaeolog	-11.4408
▁cleanliness	-11.4408
▁congrat	-11.4408
▁swiss	-11.4408
▁tweet	-11.4408
▁ethno	-11.4408
▁reopen	-11.4408
▁bitcoin	-11.4408
▁embed	-11.4408
▁ubereat	-11.4409
▁zip	-11.4409
▁shore	-11.4409
▁alpha	-11.4409
▁presum	-11.4409
▁honey	-11.4409
▁disparit	-11.4409
▁inclusi	-11.4409
emotefr	-11.4409
▁slmc	-11.441
▁inexperience	-11.441
iesl	-11.4411
▁curtain	-11.4411
borella	-11.4411
▁diligen	-11.4411
▁discourse	-11.4413
▁saint	-11.4413
▁prophe	-11.4414
▁bald	-11.4414
▁wireless	-11.4414
▁submission	-11.4415
▁betterment	-11.4416
▁upris	-11.4416
mboda	-11.4417
▁pinch	-11.4417
▁inspector	-11.4418
▁wheat	-11.4418
▁surre	-11.442
▁millennial	-11.442
▁eight	-11.4421
▁2007	-11.4421
▁possession	-11.4421
▁scrutiny	-11.4424
▁twin	-11.4425
▁variation	-11.4427
▁bayya	-11.4429
▁execution	-11.443
▁distraction	-11.4437
▁promo	-11.4438
▁grandpa	-11.4461
▁malaysian	-11.4466
repeal	-11.4469
▁ceil	-11.4475
rich	-11.4503
▁coordinat	-11.4509
lunge	-11.4509
fuck	-11.4511
▁tempt	-11.4538
▁nepo	-11.4611
hhh	-11.4631
why	-11.4639
▁fur	-11.4641
▁melt	-11.4641
▁summ	-11.4645
▁comic	-11.4651
ishwa	-11.4659
450	-11.4666
▁albu	-11.4667
solve	-11.4696
habi	-11.4711
nawala	-11.4723
▁deter	-11.4727
▁chai	-11.4735
▁ipo	-11.4742
nominate	-11.4743
available	-11.4748
wealth	-11.4748
would	-11.4748
social	-11.4749
wood	-11.4749
speed	-11.4751
▁dili	-11.4759
▁thorough	-11.4776
▁geopolitic	-11.4781
▁nois	-11.4799
▁plea	-11.4807
▁outlin	-11.4812
about	-11.4818
rahera	-11.4824
disproportionate	-11.4825
frequency	-11.4825
▁anarchy	-11.4825
▁anticipat	-11.4825
▁argentin	-11.4825
▁clergy	-11.4825
▁constraint	-11.4825
▁contemplat	-11.4825
▁cunning	-11.4825
▁dermatologist	-11.4825
▁devastate	-11.4825
▁etiquette	-11.4825
▁fascinating	-11.4825
▁furnish	-11.4825
▁hidden	-11.4825
▁html	-11.4825
▁huawei	-11.4825
▁indulge	-11.4825
▁irritate	-11.4825
▁judicial	-11.4825
▁kalutara	-11.4825
▁kangaroo	-11.4825
▁narcissist	-11.4825
▁neoliberal	-11.4825
▁panadura	-11.4825
▁rabbit	-11.4825
▁redirect	-11.4825
▁subcontinent	-11.4825
▁substitut	-11.4825
▁switzerland	-11.4825
▁tarnish	-11.4825
▁underestimate	-11.4825
▁unlucky	-11.4825
▁blackmail	-11.4825
▁commemorat	-11.4825
▁embark	-11.4825
▁vintage	-11.4825
▁remedy	-11.4825
▁vocation	-11.4825
▁electorate	-11.4825
▁probability	-11.4825
▁miscon	-11.4825
▁daytoday	-11.4825
▁situate	-11.4825
▁milestone	-11.4825
▁ireland	-11.4825
▁proxim	-11.4825
▁savior	-11.4825
▁depict	-11.4825
▁astrolog	-11.4825
▁arjun	-11.4825
▁carnage	-11.4825
▁fried	-11.4825
surname	-11.4825
▁succ	-11.4825
▁anticorrupt	-11.4826
▁cardinal	-11.4826
▁hitler	-11.4826
▁benchmark	-11.4826
▁illitera	-11.4826
▁imei	-11.4826
▁domino	-11.4826
egory	-11.4828
▁abide	-11.4829
▁overload	-11.4829
▁crumb	-11.4829
▁guardian	-11.4831
▁kudo	-11.4834
▁archive	-11.4835
▁transformation	-11.4837
▁shani	-11.4838
▁relieved	-11.4838
▁revision	-11.4839
▁brick	-11.4841
▁rapist	-11.4841
▁1960	-11.4841
▁civilization	-11.4845
▁tee	-11.4848
▁viva	-11.485
▁fond	-11.4857
▁underage	-11.4861
uuu	-11.4877
46	-11.4882
▁stagnat	-11.4893
sekara	-11.49
▁atp	-11.49
▁neo	-11.4909
▁deriv	-11.4915
zza	-11.4916
frame	-11.492
▁correlat	-11.4958
nanayak	-11.4967
▁kiri	-11.4982
kirt	-11.4989
▁trc	-11.5014
verge	-11.5022
▁elon	-11.508
tube	-11.5098
▁democrat	-11.5142
නක	-11.5148
script	-11.5172
wheel	-11.5183
custom	-11.5183
limit	-11.5185
create	-11.5186
order	-11.5193
▁investigat	-11.5204
pool	-11.5233
▁rememb	-11.5236
pushpi	-11.5239
▁ambitio	-11.5251
hela	-11.5253
▁suspicio	-11.5257
▁bench	-11.5259
▁majest	-11.526
facepalme	-11.526
▁gammanpil	-11.526
▁grassroot	-11.526
▁instinct	-11.526
▁invitation	-11.526
▁jkcg	-11.526
▁maldivian	-11.526
▁peratugami	-11.526
▁quantitative	-11.526
▁reccomend	-11.526
▁sweden	-11.526
▁teledrama	-11.526
▁untouch	-11.526
▁futsal	-11.526
▁memorial	-11.526
▁sophisticat	-11.526
photocopy	-11.526
precedent	-11.526
▁bandaranayak	-11.526
▁igcse	-11.526
▁imperial	-11.526
▁pepper	-11.526
▁physician	-11.526
▁detach	-11.526
▁renowne	-11.526
▁inequality	-11.526
▁vessel	-11.526
▁convey	-11.526
▁sermon	-11.526
▁hbb	-11.526
▁traumatize	-11.526
solicit	-11.526
▁cpc	-11.526
▁foremost	-11.526
corolla	-11.526
▁undervalue	-11.5261
▁griev	-11.5261
▁naked	-11.5261
bhaya	-11.5262
▁gorge	-11.5262
▁chamber	-11.5262
▁fedex	-11.5262
▁spike	-11.5262
▁counselling	-11.5262
▁frown	-11.5262
▁kidnap	-11.5263
▁decency	-11.5264
▁outward	-11.5264
▁ceylonese	-11.5265
▁wimal	-11.5265
▁exhibition	-11.5265
dney	-11.5266
▁ffs	-11.5266
▁prostitution	-11.5267
▁ratna	-11.5267
▁ananda	-11.5268
▁biden	-11.5268
▁deaf	-11.5272
▁inspection	-11.5274
▁corona	-11.5277
▁deport	-11.5278
▁bamba	-11.5279
▁asy	-11.5285
▁huh	-11.5285
▁acid	-11.5291
stock	-11.5299
▁chin	-11.5303
▁yup	-11.5326
early	-11.5339
▁modernize	-11.5343
▁roo	-11.5352
eceive	-11.5364
riti	-11.5397
▁thu	-11.5398
plane	-11.5402
80000	-11.5425
▁alien	-11.5437
loss	-11.5445
contaminat	-11.5448
brow	-11.5475
curtin	-11.5479
kind	-11.5529
sufficient	-11.5537
▁pali	-11.5547
▁continu	-11.5553
▁pest	-11.5564
කක	-11.5581
▁concentrat	-11.5604
pora	-11.5613
kele	-11.5615
source	-11.5624
storm	-11.5636
muslim	-11.5638
buddhist	-11.5638
maybe	-11.5638
political	-11.5638
productive	-11.5639
group	-11.564
track	-11.5643
llor	-11.5643
left	-11.5657
▁warrant	-11.5682
hotel	-11.5695
▁festiv	-11.5705
▁humid	-11.571
▁pradeshi	-11.5714
▁physiotherap	-11.5714
▁reinforce	-11.5714
▁upbring	-11.5714
▁abeysinghe	-11.5714
▁asbestos	-11.5714
▁baffle	-11.5714
▁bilingual	-11.5714
▁dengue	-11.5714
▁dolphin	-11.5714
▁inflict	-11.5714
▁intimate	-11.5714
▁irresponsible	-11.5714
▁mysterious	-11.5714
▁piliyandala	-11.5714
▁proficiency	-11.5714
▁recondition	-11.5714
▁reconnect	-11.5714
▁refurbish	-11.5714
▁repetitive	-11.5714
▁rhythm	-11.5714
▁sanction	-11.5714
▁shangri	-11.5714
▁subsidiary	-11.5714
▁suicidal	-11.5714
▁tissamahara	-11.5714
▁wheelchair	-11.5714
▁greece	-11.5714
▁shatter	-11.5714
▁tolerance	-11.5714
▁lagoon	-11.5714
▁mumbai	-11.5714
▁sync	-11.5714
▁terrifi	-11.5714
▁confine	-11.5714
▁cuba	-11.5714
▁unwilling	-11.5714
▁kadaw	-11.5714
▁segment	-11.5714
kbps	-11.5714
▁strive	-11.5714
▁atrad	-11.5714
▁warehouse	-11.5714
▁vertical	-11.5714
▁dairy	-11.5714
rachchi	-11.5714
▁spew	-11.5714
▁forcefully	-11.5714
▁sauce	-11.5715
▁excu	-11.5715
▁urgency	-11.5715
▁telephone	-11.5715
▁salut	-11.5715
▁enrich	-11.5715
▁ousl	-11.5715
▁fintech	-11.5715
▁minimis	-11.5716
▁reelect	-11.5716
kovil	-11.5716
▁outrageous	-11.5716
▁benz	-11.5716
▁sedan	-11.5716
▁compose	-11.5717
▁christ	-11.5717
▁echo	-11.5717
▁ccpi	-11.5718
▁haunt	-11.5719
built	-11.5719
▁8090	-11.572
kantha	-11.572
▁caption	-11.5721
▁overrate	-11.5721
▁yaris	-11.5722
▁reconsider	-11.5722
▁odel	-11.5722
▁jct	-11.5723
▁colum	-11.5724
▁jean	-11.5726
▁pierc	-11.5726
▁trademark	-11.5737
▁wso	-11.5737
▁1950	-11.5738
▁4050	-11.5741
▁harv	-11.5743
▁smh	-11.5744
▁lasi	-11.5757
huwa	-11.5759
▁kalu	-11.5776
▁experi	-11.5797
angoda	-11.5798
▁fel	-11.5802
voltage	-11.5836
▁divert	-11.5858
▁ahh	-11.593
grade	-11.597
ikk	-11.6
▁glu	-11.6091
oic	-11.6099
majority	-11.6114
dialog	-11.6114
voke	-11.6115
please	-11.6116
nuwara	-11.6116
finance	-11.6118
bank	-11.6122
good	-11.6125
▁stagna	-11.6137
▁millenni	-11.6176
versus	-11.6184
parakramabahu	-11.619
▁accessibility	-11.619
▁anecdot	-11.619
▁aswesuma	-11.619
▁bhutan	-11.619
▁bollywood	-11.619
▁cemetery	-11.619
▁continent	-11.619
▁declaration	-11.619
▁eradicate	-11.619
▁forensic	-11.619
▁insurgenc	-11.619
▁maithree	-11.619
▁packaging	-11.619
▁proficient	-11.619
▁recipient	-11.619
▁transgender	-11.619
▁umbrella	-11.619
▁uncommon	-11.619
▁vacuum	-11.619
▁visibility	-11.619
▁voluntar	-11.619
▁compliment	-11.619
▁hijack	-11.619
▁prevail	-11.619
▁saviour	-11.619
▁trivial	-11.619
▁tweak	-11.619
▁uganda	-11.619
▁egypt	-11.619
▁fronx	-11.619
▁marvel	-11.619
▁mitigat	-11.619
▁potato	-11.619
▁iraq	-11.619
windle	-11.619
▁freeloader	-11.619
▁kerner	-11.619
▁outstation	-11.619
▁breez	-11.619
▁david	-11.619
▁slogan	-11.619
▁wellawatte	-11.619
▁avurud	-11.6191
▁sanath	-11.6191
▁botanic	-11.6191
▁exac	-11.6192
▁lottery	-11.6192
rench	-11.6192
▁vedda	-11.6192
▁azure	-11.6192
▁nonetheless	-11.6192
▁fixture	-11.6192
▁grip	-11.6193
▁predominant	-11.6193
▁downward	-11.6193
▁synd	-11.6194
▁litre	-11.6194
▁crave	-11.6195
▁humidity	-11.6195
▁covent	-11.6195
▁defect	-11.6196
▁juris	-11.6196
▁prolong	-11.6197
▁oust	-11.6197
▁noble	-11.6197
▁billionaire	-11.6198
▁moderation	-11.62
nomic	-11.6203
▁fella	-11.6207
▁guru	-11.621
ahini	-11.6214
▁chant	-11.6214
▁neela	-11.6228
▁dudl	-11.6234
deniya	-11.6249
තක	-11.632
▁lame	-11.6323
skinne	-11.6334
india	-11.6335
hitha	-11.637
requi	-11.6377
▁gau	-11.639
▁nelu	-11.6395
waka	-11.6407
ival	-11.643
epic	-11.6462
▁09	-11.6464
interest	-11.6469
raze	-11.6479
graphic	-11.6536
▁manag	-11.6552
shot	-11.6572
▁victor	-11.6581
float	-11.6598
temporary	-11.6614
ethnic	-11.6614
private	-11.6614
culture	-11.6614
support	-11.6614
space	-11.6615
account	-11.6615
characteristic	-11.6628
▁complian	-11.6634
▁indicat	-11.6639
▁suspen	-11.6668
yyyy	-11.6678
▁numb	-11.668
arriage	-11.6684
focuse	-11.6688
responsive	-11.669
▁abnormal	-11.669
▁coronavirus	-11.669
▁distinguish	-11.669
▁fiasco	-11.669
▁gratitude	-11.669
▁gullible	-11.669
▁imbalance	-11.669
▁invalid	-11.669
▁lactose	-11.669
▁noodle	-11.669
▁orthodonti	-11.669
▁pledge	-11.669
▁pretentious	-11.669
▁ruthless	-11.669
▁unlawful	-11.669
▁unregistere	-11.669
▁upcountry	-11.669
▁1987	-11.669
▁refrigerat	-11.669
▁surgical	-11.669
▁whitewash	-11.669
▁axio	-11.669
▁evasion	-11.669
▁sanskr	-11.669
▁tesla	-11.669
▁steep	-11.669
▁annum	-11.669
▁deflation	-11.669
▁johnston	-11.669
▁katunayak	-11.669
▁frugal	-11.669
▁intact	-11.669
▁sambol	-11.669
▁pedest	-11.669
▁uncover	-11.669
▁karunaratne	-11.6691
▁utilis	-11.6691
▁wickramasingh	-11.6691
▁ruling	-11.6691
▁dissent	-11.6691
▁maithripala	-11.6691
▁negligence	-11.6691
▁carbon	-11.6691
▁tobac	-11.6692
▁awake	-11.6692
▁insure	-11.6693
balloon	-11.6693
▁utopia	-11.6693
▁awhile	-11.6693
▁infinit	-11.6693
▁undertake	-11.6694
▁displace	-11.6695
▁glance	-11.6697
lancer	-11.6697
▁musk	-11.6697
▁simulat	-11.6697
▁soak	-11.6698
▁degrade	-11.6699
▁cess	-11.67
▁electrician	-11.67
▁baiya	-11.67
▁pillar	-11.6701
▁militan	-11.6703
▁appeti	-11.6704
▁graf	-11.6705
▁infra	-11.6707
▁glim	-11.6709
▁wataw	-11.6712
▁leftw	-11.6732
pathetic	-11.6773
fringe	-11.6795
▁lipto	-11.6853
▁obv	-11.6854
arrow	-11.688
lution	-11.6885
erbat	-11.6888
▁ryz	-11.6923
iraj	-11.6938
trum	-11.6962
lateral	-11.6971
provoke	-11.7012
staff	-11.714
practical	-11.714
affordable	-11.714
season	-11.714
family	-11.714
girl	-11.7142
foot	-11.7144
wife	-11.7145
stick	-11.7146
slide	-11.7146
▁relat	-11.7153
western	-11.7162
▁upgrad	-11.7165
▁corpora	-11.7211
▁unauthori	-11.7217
▁1977	-11.7217
▁accuracy	-11.7217
▁bizarre	-11.7217
▁conglomerate	-11.7217
▁deactivate	-11.7217
▁hyundai	-11.7217
▁intermediate	-11.7217
▁kataragama	-11.7217
▁kilometer	-11.7217
▁kotthu	-11.7217
▁lakshman	-11.7217
▁linguistic	-11.7217
▁maligawa	-11.7217
▁militariz	-11.7217
▁obligate	-11.7217
▁sapphire	-11.7217
▁stubborn	-11.7217
▁unmarrie	-11.7217
▁bacteria	-11.7217
▁revamp	-11.7217
▁separation	-11.7217
▁whistle	-11.7217
▁wreck	-11.7217
▁equation	-11.7217
▁feudal	-11.7217
▁poruwa	-11.7217
▁slasscom	-11.7217
▁nuwaraeliya	-11.7217
▁sarong	-11.7217
▁spineless	-11.7217
▁spokes	-11.7217
▁bleach	-11.7217
▁obstruct	-11.7217
▁sabha	-11.7217
▁congest	-11.7217
▁ideological	-11.7217
▁spoon	-11.7217
▁amaze	-11.7217
▁playstation	-11.7217
belarus	-11.7217
▁wtc	-11.7217
▁nicotin	-11.7217
▁surpass	-11.7217
▁redundan	-11.7217
▁devote	-11.7218
▁brainstorm	-11.7218
kaduwa	-11.7218
shrug	-11.722
▁crown	-11.722
▁commence	-11.722
aternal	-11.722
▁ergo	-11.722
▁adverse	-11.722
▁practise	-11.7221
▁seettu	-11.7221
▁legislative	-11.7223
▁barrel	-11.7223
eksha	-11.7224
▁leech	-11.7224
▁mnc	-11.7225
▁soap	-11.7225
▁incline	-11.7226
▁parasit	-11.7229
▁optimis	-11.723
▁coca	-11.723
▁hoop	-11.7232
▁meddl	-11.7234
next	-11.7236
hoot	-11.724
uddh	-11.7245
▁jero	-11.725
ological	-11.7281
ponent	-11.7315
▁activ	-11.7322
972	-11.7335
depend	-11.7363
gampola	-11.7374
odys	-11.7401
giri	-11.7458
▁admir	-11.7475
liza	-11.7529
▁moderat	-11.7531
990	-11.7545
▁abduct	-11.7598
▁refus	-11.7621
sigiriya	-11.7696
english	-11.7696
sense	-11.7696
waste	-11.7698
▁choos	-11.7699
faith	-11.7699
planne	-11.7701
weight	-11.7701
surf	-11.772
▁desir	-11.7721
product	-11.7738
▁homophobi	-11.7753
▁delusion	-11.7758
▁explosi	-11.777
▁ridicul	-11.7771
▁surveill	-11.7772
disciplinar	-11.7772
▁abundant	-11.7772
▁administrator	-11.7772
▁circular	-11.7772
▁circus	-11.7772
▁costeffective	-11.7772
▁dedication	-11.7772
▁defensive	-11.7772
▁enormous	-11.7772
▁fragrance	-11.7772
▁frizz	-11.7772
▁impartial	-11.7772
▁inconvenient	-11.7772
▁intrigu	-11.7772
▁irrigation	-11.7772
▁malaria	-11.7772
▁maradana	-11.7772
▁misconduct	-11.7772
▁misguide	-11.7772
▁nostalgi	-11.7772
▁pragmatic	-11.7772
▁pseudo	-11.7772
▁puzzle	-11.7772
▁relocation	-11.7772
▁renegotiate	-11.7772
▁resentment	-11.7772
▁swallow	-11.7772
▁virtusa	-11.7772
▁wasantha	-11.7772
▁coexist	-11.7772
▁emirate	-11.7772
▁equate	-11.7772
▁maritime	-11.7772
▁rogue	-11.7772
▁tarrif	-11.7772
▁toffee	-11.7772
measurable	-11.7772
▁anthare	-11.7772
▁detriment	-11.7772
▁roadblock	-11.7772
▁unchecked	-11.7772
▁communal	-11.7772
▁homestay	-11.7772
▁pulse	-11.7772
▁motif	-11.7772
▁attain	-11.7772
▁geography	-11.7772
▁nerve	-11.7772
▁astronom	-11.7773
▁lurk	-11.7773
▁extort	-11.7773
▁sysco	-11.7773
triangle	-11.7773
because	-11.7773
▁obey	-11.7773
▁ninewell	-11.7773
▁breast	-11.7773
▁mineral	-11.7773
▁columbo	-11.7774
▁matri	-11.7774
▁tyre	-11.7774
▁adjac	-11.7774
▁rightfully	-11.7774
▁explosive	-11.7774
▁tusk	-11.7774
▁knw	-11.7775
▁commend	-11.7775
stroke	-11.7775
▁motive	-11.7775
▁rigid	-11.7775
▁wrapper	-11.7776
▁alienate	-11.7776
▁absent	-11.7778
ensus	-11.7778
▁skim	-11.778
▁digest	-11.7781
▁wiki	-11.7783
▁excis	-11.7784
imuth	-11.7788
▁remarkabl	-11.779
▁limb	-11.7792
hush	-11.7798
ragging	-11.7858
avish	-11.7866
peek	-11.7884
aul	-11.7892
ranjan	-11.7915
flag	-11.7935
▁thri	-11.8011
5050	-11.8065
▁matt	-11.8119
▁indep	-11.8121
kku	-11.8152
▁becu	-11.8153
guise	-11.8165
optim	-11.8186
▁denominat	-11.819
when	-11.8195
▁originat	-11.8207
▁educat	-11.8232
▁literar	-11.8267
bkr	-11.8278
value	-11.8283
pleasant	-11.8283
broken	-11.8283
should	-11.8284
dubai	-11.8284
independence	-11.8284
whether	-11.8284
advice	-11.8284
distance	-11.8284
demand	-11.8285
passport	-11.8285
▁issu	-11.8291
▁incentiv	-11.8309
▁acknowledg	-11.8309
controlle	-11.8315
▁bloc	-11.8334
▁squa	-11.8343
▁unknow	-11.8351
degrad	-11.8355
▁misunderst	-11.8359
▁practi	-11.8359
▁acquaint	-11.836
▁bluetooth	-11.836
▁burglar	-11.836
▁categorize	-11.836
▁ceremonial	-11.836
▁clutch	-11.836
▁correspond	-11.836
▁discharge	-11.836
▁ineffective	-11.836
▁jayewardene	-11.836
▁mistreat	-11.836
▁myanmar	-11.836
▁nephew	-11.836
▁nonprofit	-11.836
▁nuisance	-11.836
▁nurture	-11.836
▁nvidia	-11.836
▁patriarch	-11.836
▁prejudice	-11.836
▁recycling	-11.836
▁riyasewana	-11.836
▁sarcastic	-11.836
▁simultaneously	-11.836
▁spontaneous	-11.836
▁unregulate	-11.836
▁valorant	-11.836
▁vulnerabilit	-11.836
euthanasia	-11.836
▁antenna	-11.836
▁deplete	-11.836
▁emulate	-11.836
▁postgrad	-11.836
▁derail	-11.836
▁proltte	-11.836
▁parrot	-11.8361
▁testimon	-11.8361
▁bigotry	-11.8361
▁companion	-11.8361
▁overlap	-11.8361
▁persua	-11.8361
▁alphabet	-11.8361
▁shelf	-11.8361
shrink	-11.8361
▁cherry	-11.8361
▁fifth	-11.8361
▁bleak	-11.8361
▁greek	-11.8361
▁noob	-11.8361
▁iusf	-11.8361
▁weerasinghe	-11.8361
▁robust	-11.8361
▁isuru	-11.8361
▁retrieve	-11.8361
▁rotten	-11.8361
▁dilute	-11.8362
▁romania	-11.8362
▁candle	-11.8363
▁acbt	-11.8363
▁0112	-11.8363
▁guysss	-11.8365
▁moving	-11.8366
▁itenar	-11.8367
▁skate	-11.8367
▁manju	-11.8368
▁shanak	-11.8369
shantha	-11.837
bulb	-11.8371
exico	-11.8373
▁cliff	-11.8373
▁coerc	-11.8375
▁oversize	-11.839
▁salv	-11.8394
amantha	-11.8403
thesis	-11.8412
prado	-11.8421
▁ashok	-11.8445
▁dalad	-11.8445
laughing	-11.8517
artisan	-11.8579
▁extraordinar	-11.8598
1111	-11.8642
tense	-11.8747
▁volt	-11.8835
tongue	-11.8908
powder	-11.8909
colonial	-11.8909
advisor	-11.8909
cloud	-11.8909
familiar	-11.8909
approve	-11.8909
civil	-11.8909
standard	-11.8909
sinhala	-11.8909
white	-11.8909
piece	-11.8909
general	-11.8909
scope	-11.891
through	-11.8913
radar	-11.8919
▁prostitut	-11.8975
▁famili	-11.8983
lympic	-11.8985
unconstitutional	-11.8985
▁aflatoxin	-11.8985
▁atrocious	-11.8985
▁cocktail	-11.8985
▁coinciden	-11.8985
▁custody	-11.8985
▁desperation	-11.8985
▁headquarter	-11.8985
▁horrific	-11.8985
▁immerse	-11.8985
▁infamous	-11.8985
▁infuriate	-11.8985
▁invisible	-11.8985
▁mudalali	-11.8985
▁oblige	-11.8985
▁reschedule	-11.8985
▁scandinavia	-11.8985
▁sltmobitel	-11.8985
▁splurg	-11.8985
▁suprise	-11.8985
▁tangible	-11.8985
▁unforgettable	-11.8985
▁whisper	-11.8985
▁1978	-11.8985
▁analyse	-11.8985
▁illustrat	-11.8985
▁inaugura	-11.8985
▁mystery	-11.8985
▁pickmeuber	-11.8985
▁wannabe	-11.8985
▁1994	-11.8985
▁proactive	-11.8985
oriente	-11.8985
▁1993	-11.8985
▁demean	-11.8985
▁molecul	-11.8985
▁suffice	-11.8985
▁alleviat	-11.8986
▁pluck	-11.8986
▁seminar	-11.8986
▁zionist	-11.8986
▁decease	-11.8986
▁sabry	-11.8986
▁fusion	-11.8986
▁reckon	-11.8986
▁murali	-11.8986
▁sadden	-11.8986
▁typo	-11.8986
▁charle	-11.8986
▁javascript	-11.8986
aneous	-11.8986
paksa	-11.8986
decisive	-11.8986
▁thomas	-11.8986
▁jerk	-11.8986
▁lightning	-11.8987
▁discretion	-11.8987
▁pork	-11.8987
▁purple	-11.8987
▁expedit	-11.8988
▁swip	-11.8989
igorous	-11.8991
▁atom	-11.8991
byob	-11.8992
arrack	-11.8998
▁hydro	-11.9015
▁ferr	-11.9093
▁pursu	-11.9134
patali	-11.9253
evil	-11.9288
pronoun	-11.9295
▁breathtak	-11.9308
971	-11.9457
▁afterward	-11.9525
educate	-11.9569
cross	-11.9574
democratic	-11.9575
negombo	-11.9576
specific	-11.9576
education	-11.9576
street	-11.9576
fuel	-11.9576
essential	-11.958
▁communicat	-11.959
▁advoca	-11.9635
▁skeptic	-11.9638
▁hospita	-11.9642
▁beneficia	-11.9643
▁homosexual	-11.9647
ottawa	-11.9651
▁pohottu	-11.9651
gmailcom	-11.9652
▁abysmal	-11.9652
▁balcony	-11.9652
▁bangkok	-11.9652
▁dispatch	-11.9652
▁distrust	-11.9652
▁gimmick	-11.9652
▁horrendous	-11.9652
▁horrify	-11.9652
▁jazeera	-11.9652
▁laundry	-11.9652
▁lesbian	-11.9652
▁microwave	-11.9652
▁nonresident	-11.9652
▁orchestrate	-11.9652
▁ratmalana	-11.9652
▁underprivilege	-11.9652
▁1997	-11.9652
▁aerospace	-11.9652
▁butcher	-11.9652
▁deprive	-11.9652
▁durdan	-11.9652
▁instigat	-11.9652
▁jeppa	-11.9652
▁laboratory	-11.9652
▁malicious	-11.9652
▁persecut	-11.9652
▁ruppe	-11.9652
▁bumble	-11.9652
▁jazz	-11.9652
▁actress	-11.9652
▁trouser	-11.9652
▁quint	-11.9652
▁ruwan	-11.9652
▁analog	-11.9652
▁eternal	-11.9652
▁troop	-11.9652
▁untill	-11.9652
▁tribal	-11.9652
▁lalith	-11.9652
▁smuggl	-11.9652
▁hedge	-11.9652
▁robert	-11.9652
▁stafford	-11.9653
▁mihin	-11.9653
psychotic	-11.9653
dispens	-11.9653
▁multiply	-11.9653
▁propagat	-11.9653
▁sheep	-11.9653
▁cashew	-11.9653
▁thunder	-11.9653
▁bilateral	-11.9653
▁cnn	-11.9653
▁profound	-11.9653
▁dispers	-11.9654
▁payhere	-11.9654
▁dhal	-11.9654
▁cities	-11.9655
▁silk	-11.9655
laveli	-11.9656
▁agitat	-11.9657
▁nhs	-11.966
ohoma	-11.9675
nzi	-11.9688
held	-11.9696
▁insul	-11.97
hygienic	-11.9765
000000	-11.9775
▁revel	-11.9952
consul	-12.0003
I	-13.7168
