<unk>	0
<s>	0
</s>	0
s	-4.35835
▁not	-4.37389
▁'	-4.42606
▁	-4.49794
▁get	-4.75339
▁sri	-4.83925
▁m	-4.93443
▁like	-4.96721
▁go	-5.05447
_	-5.10168
▁lanka	-5.15442
▁people	-5.15862
▁good	-5.17842
▁would	-5.18903
▁know	-5.33776
▁one	-5.47722
▁well	-5.48244
▁do	-5.51139
ly	-5.52653
e	-5.56272
▁think	-5.57077
▁time	-5.58048
▁make	-5.61066
▁also	-5.62384
▁work	-5.6251
▁need	-5.63812
▁even	-5.64049
I	-5.6483
▁use	-5.65034
▁country	-5.67802
▁want	-5.72101
▁be	-5.73472
▁year	-5.74368
▁see	-5.75201
▁say	-5.75719
ing	-5.80033
▁look	-5.81285
▁s	-5.85784
▁take	-5.88117
▁ve	-5.91441
y	-5.93185
▁thing	-5.93224
k	-5.99543
▁pay	-6.00647
▁day	-6.0093
▁try	-6.0101
▁much	-6.04181
▁anyone	-6.06268
▁come	-6.06492
▁give	-6.08758
▁really	-6.09241
▁place	-6.1096
▁find	-6.13138
▁colombo	-6.13797
▁government	-6.17097
▁way	-6.19221
d	-6.19864
er	-6.20962
▁thank	-6.21846
▁help	-6.21923
▁money	-6.22873
▁sl	-6.23927
▁could	-6.24148
▁around	-6.26141
▁job	-6.27354
▁2	-6.27447
▁buy	-6.29979
▁lankan	-6.30405
▁experience	-6.30649
▁guy	-6.32477
▁back	-6.33591
▁still	-6.33923
▁start	-6.34375
▁we	-6.37161
r	-6.39903
▁month	-6.40055
▁will	-6.41329
▁high	-6.4153
▁right	-6.41617
▁something	-6.42324
▁company	-6.43101
▁price	-6.4418
▁many	-6.44938
▁can	-6.45002
▁new	-6.4582
▁ask	-6.45937
▁lot	-6.46955
▁3	-6.49172
▁1	-6.5148
▁live	-6.52058
▁first	-6.52294
▁feel	-6.5342
▁since	-6.56717
▁happen	-6.57628
▁issue	-6.58459
t	-6.59191
▁someone	-6.59449
▁life	-6.59807
▁post	-6.62126
▁degree	-6.62717
▁friend	-6.64214
ed	-6.65915
▁plan	-6.66143
▁long	-6.67602
▁bad	-6.6783
▁sure	-6.68156
▁everyone	-6.68629
▁please	-6.69345
▁keep	-6.69354
▁car	-6.7006
▁tax	-6.70751
a	-6.70884
▁school	-6.74787
▁etc	-6.74839
▁local	-6.74858
▁call	-6.75403
▁let	-6.76988
▁mean	-6.77167
▁university	-6.77622
▁change	-6.7855
▁might	-6.78985
▁bank	-6.79084
▁d	-6.80176
▁travel	-6.80265
▁student	-6.80462
▁hi	-6.80984
▁hear	-6.81272
▁re	-6.81316
▁cost	-6.81756
▁seem	-6.82453
▁without	-6.8246
▁business	-6.83229
b	-6.83996
▁tell	-6.84308
face	-6.85618
▁u	-6.86303
▁never	-6.86396
▁anything	-6.87905
▁advice	-6.88627
l	-6.88797
▁face	-6.89559
al	-6.89702
▁4	-6.90482
▁you	-6.90708
▁end	-6.9082
▁option	-6.91592
▁love	-6.91896
▁actually	-6.92107
▁learn	-6.93501
▁question	-6.94422
▁family	-6.94594
▁hard	-6.94968
▁al	-6.95745
m	-6.96057
▁visit	-6.96211
▁5	-6.96444
▁market	-6.97058
▁point	-6.98155
c	-6.98201
▁check	-6.99152
▁last	-6.99726
▁problem	-7.00521
▁study	-7.00697
▁always	-7.01044
n	-7.01134
▁service	-7.0118
▁every	-7.01493
▁two	-7.01513
▁vote	-7.02575
▁man	-7.02583
▁understand	-7.0297
▁salary	-7.03333
▁move	-7.03519
▁old	-7.03905
▁idea	-7.04084
▁big	-7.04631
▁part	-7.04812
p	-7.04827
▁leave	-7.05312
▁power	-7.0539
▁another	-7.06041
▁consider	-7.07478
▁tamil	-7.08278
▁person	-7.08301
▁account	-7.084
▁stay	-7.0846
with	-7.08504
▁talk	-7.08825
▁maybe	-7.09163
▁enough	-7.09896
▁week	-7.09958
th	-7.10273
▁free	-7.10944
▁next	-7.11107
▁support	-7.11218
▁10	-7.12266
▁private	-7.12593
▁online	-7.13249
▁system	-7.13397
▁vehicle	-7.13649
▁different	-7.14517
▁appreciate	-7.14564
▁party	-7.14883
i	-7.15154
▁bit	-7.16347
▁may	-7.16389
▁already	-7.16512
▁show	-7.1738
▁low	-7.17728
▁great	-7.18097
▁parent	-7.18983
▁reason	-7.19127
▁area	-7.20098
▁situation	-7.20309
▁put	-7.20393
or	-7.20497
▁per	-7.20562
▁home	-7.20607
▁base	-7.20755
▁world	-7.20757
ion	-7.21041
▁share	-7.21655
▁small	-7.22874
▁income	-7.22908
▁that	-7.22953
▁public	-7.23135
▁card	-7.23492
▁food	-7.23545
▁open	-7.23937
▁i	-7.24579
▁pretty	-7.24695
▁become	-7.25581
▁recommend	-7.25617
▁run	-7.25877
▁offer	-7.26123
▁yes	-7.26242
▁currently	-7.26926
▁though	-7.2705
▁shit	-7.27265
▁kind	-7.27363
▁stuff	-7.27604
▁uni	-7.27873
in	-7.28912
▁foreign	-7.29466
▁to	-7.29484
▁least	-7.29514
▁hey	-7.30432
▁build	-7.30922
▁india	-7.3118
▁able	-7.31247
▁everything	-7.31697
▁stop	-7.31912
▁current	-7.32264
▁else	-7.32332
▁case	-7.32383
▁recently	-7.32541
▁sinhala	-7.32743
▁state	-7.32861
▁apply	-7.33195
▁class	-7.33319
▁real	-7.3351
▁spend	-7.33627
▁bring	-7.33803
▁bus	-7.34045
▁amount	-7.34172
▁due	-7.34542
▁g	-7.34613
▁nothing	-7.34823
▁hope	-7.35175
▁less	-7.35199
▁app	-7.35397
▁either	-7.3614
on	-7.36954
▁english	-7.37138
▁far	-7.37499
▁house	-7.37835
▁education	-7.37836
▁un	-7.37915
▁wonder	-7.38108
▁number	-7.38127
▁sell	-7.38723
able	-7.38742
▁advance	-7.38767
▁law	-7.39061
▁earn	-7.40613
ic	-7.40646
▁rate	-7.40749
▁book	-7.41091
▁abroad	-7.4146
▁ranil	-7.41483
▁worth	-7.41541
▁probably	-7.41547
▁future	-7.41721
▁level	-7.41722
▁read	-7.41741
▁social	-7.42604
▁election	-7.43409
▁however	-7.4357
▁recommendation	-7.44155
▁mention	-7.44283
▁6	-7.44338
▁phone	-7.44537
▁especially	-7.44752
▁medium	-7.44829
h	-7.45166
▁similar	-7.4536
▁lkr	-7.4586
▁speak	-7.4595
▁invest	-7.46125
▁course	-7.4639
▁lol	-7.46474
▁term	-7.46668
▁comment	-7.46733
▁kid	-7.46825
o	-7.46987
▁care	-7.47228
▁possible	-7.47508
▁thought	-7.48092
▁lankans	-7.48189
▁side	-7.4869
▁send	-7.48926
▁easy	-7.49249
st	-7.49269
▁name	-7.4934
▁land	-7.49442
▁loan	-7.5037
▁doctor	-7.50947
f	-7.51368
▁package	-7.51418
▁increase	-7.51435
te	-7.51556
▁believe	-7.51606
▁other	-7.51652
▁drive	-7.51676
▁play	-7.51745
▁cause	-7.51799
▁follow	-7.52175
▁political	-7.52641
▁datum	-7.52864
▁100	-7.5311
u	-7.53202
▁whole	-7.53374
▁npp	-7.53381
▁taxis	-7.53618
▁police	-7.53824
▁opinion	-7.5404
▁expect	-7.54293
▁watch	-7.54858
▁hand	-7.54869
it	-7.55417
▁war	-7.5552
▁economy	-7.5563
▁matter	-7.55651
▁charge	-7.56299
▁whether	-7.56345
▁close	-7.56468
▁ago	-7.56472
▁order	-7.56654
▁trip	-7.56787
▁wrong	-7.5694
▁cheap	-7.57245
▁visa	-7.5725
▁20	-7.57339
▁away	-7.57951
▁group	-7.57981
▁a	-7.58013
▁instead	-7.58268
g	-7.5838
▁mind	-7.58808
▁remember	-7.58994
▁provide	-7.59032
▁lose	-7.59663
▁economic	-7.59968
▁tourist	-7.60635
▁fund	-7.60986
▁payment	-7.61052
▁budget	-7.61614
▁full	-7.61656
▁import	-7.61689
▁yeah	-7.61941
▁personal	-7.62218
▁true	-7.62369
▁quality	-7.62836
▁usually	-7.62888
▁hour	-7.62952
re	-7.63058
▁process	-7.63339
▁little	-7.63461
▁president	-7.64081
▁na	-7.64216
▁politician	-7.64426
▁project	-7.64544
▁science	-7.64554
▁industry	-7.64637
▁past	-7.64725
▁opportunity	-7.64746
▁compare	-7.65297
▁culture	-7.65539
▁within	-7.6632
▁south	-7.66777
▁wait	-7.66894
▁us	-7.66933
▁there	-7.67136
▁game	-7.67146
▁suggestion	-7.67599
▁product	-7.68006
▁kandy	-7.68055
▁investment	-7.68379
▁include	-7.68434
▁engineering	-7.68531
▁add	-7.68577
▁choose	-7.68676
▁field	-7.6881
▁result	-7.6889
x	-7.68895
▁c	-7.68975
▁allow	-7.69345
▁fuck	-7.70003
▁today	-7.70052
▁quite	-7.70581
▁save	-7.70653
▁top	-7.70733
▁policy	-7.70853
▁deal	-7.70951
▁suggest	-7.71247
▁15	-7.71267
le	-7.71422
▁woman	-7.7144
▁research	-7.71792
▁driver	-7.71876
▁b	-7.72257
▁brand	-7.72384
▁girl	-7.72404
▁million	-7.72557
▁30	-7.731
ation	-7.73284
▁in	-7.73524
▁agree	-7.73536
▁bro	-7.74052
▁create	-7.7409
▁video	-7.74173
▁almost	-7.74179
▁shop	-7.74244
▁cut	-7.74436
▁night	-7.74581
▁yet	-7.76145
▁ever	-7.76204
▁hotel	-7.76517
▁example	-7.76618
en	-7.76708
▁exam	-7.76744
▁child	-7.7698
▁notice	-7.77156
▁depend	-7.7721
▁second	-7.77233
▁dialog	-7.77385
▁interest	-7.77909
▁value	-7.78121
▁must	-7.78243
of	-7.78333
w	-7.78437
▁trust	-7.78485
▁road	-7.78655
▁slt	-7.78932
▁available	-7.79116
▁near	-7.79138
▁general	-7.79598
▁couple	-7.79625
▁fine	-7.79937
▁international	-7.80129
▁rather	-7.80391
▁skill	-7.80655
▁answer	-7.80776
▁7	-7.81038
▁hold	-7.81186
▁usd	-7.81399
▁language	-7.81811
▁turn	-7.82389
▁guess	-7.82596
▁srilanka	-7.82646
▁information	-7.8289
▁website	-7.83517
▁city	-7.83596
▁join	-7.83614
▁decide	-7.83783
▁stock	-7.84082
▁train	-7.84395
▁set	-7.84465
▁return	-7.84721
▁fact	-7.84818
▁type	-7.84904
▁what	-7.8511
▁chance	-7.85126
▁career	-7.85147
▁soon	-7.8539
▁head	-7.85485
▁pass	-7.85498
▁unless	-7.85556
▁definitely	-7.85664
▁receive	-7.86336
▁interested	-7.86614
▁safe	-7.86879
▁speed	-7.87157
▁mostly	-7.87157
v	-7.8723
▁software	-7.87589
▁write	-7.88122
▁v	-7.88135
▁focus	-7.88145
▁internet	-7.88408
▁majority	-7.88437
▁program	-7.88529
▁community	-7.88678
▁meet	-7.88906
▁planning	-7.89098
▁expensive	-7.89098
▁relate	-7.89272
▁honestly	-7.89446
an	-7.89685
▁early	-7.90016
joy	-7.90168
▁fee	-7.90245
▁beach	-7.90436
▁break	-7.90541
▁story	-7.90685
▁fix	-7.90805
▁decent	-7.91081
▁nice	-7.91404
▁manage	-7.9186
▁hello	-7.9204
ment	-7.92579
se	-7.92764
▁hospital	-7.93509
▁8	-7.93699
▁debt	-7.93835
▁50	-7.93889
▁proper	-7.94028
▁ai	-7.94088
▁regard	-7.94542
▁news	-7.94564
▁short	-7.94833
▁water	-7.95222
▁main	-7.95567
▁grow	-7.95578
▁connection	-7.96094
▁r	-7.96212
▁sector	-7.96504
▁total	-7.96518
▁akd	-7.96806
▁tip	-7.97023
z	-7.97027
▁basically	-7.9712
▁decision	-7.97868
▁credit	-7.98132
nd	-7.98252
▁wan	-7.98264
▁report	-7.98339
▁lead	-7.98589
▁x	-7.98881
ar	-7.98882
tears	-7.99313
▁age	-7.99437
▁rent	-7.99712
▁contact	-8.00031
▁sometimes	-8.00078
▁require	-8.00151
▁galle	-8.00225
▁normal	-8.00397
▁national	-8.00397
▁health	-8.00574
▁uk	-8.00789
ity	-8.00802
▁indian	-8.01069
▁parliament	-8.01129
▁item	-8.0113
▁history	-8.01133
▁non	-8.01181
▁common	-8.01295
▁corruption	-8.01348
smiling	-8.01458
▁fuel	-8.01466
▁young	-8.01786
▁rs	-8.01852
▁middle	-8.02079
▁single	-8.02087
▁act	-8.02235
ist	-8.02293
▁position	-8.02453
▁benefit	-8.02721
▁final	-8.0296
▁they	-8.03082
▁financial	-8.0314
▁sound	-8.03238
um	-8.03296
▁choice	-8.03526
▁complete	-8.04157
▁detail	-8.04175
▁cover	-8.04385
▁engineer	-8.0443
▁date	-8.04447
▁protest	-8.0446
▁personally	-8.04492
▁politic	-8.04536
▁list	-8.04657
▁rule	-8.04829
▁eat	-8.05014
▁force	-8.05202
▁gr	-8.05406
▁12	-8.05992
▁develop	-8.06241
▁teacher	-8.06339
▁link	-8.0648
▁scam	-8.06484
▁ll	-8.06564
▁finance	-8.06886
▁office	-8.08164
▁avoid	-8.08178
▁subject	-8.08469
▁source	-8.0854
1	-8.0859
▁bill	-8.08597
▁line	-8.08736
▁red	-8.09338
▁customer	-8.09509
▁basic	-8.09516
▁legal	-8.09627
▁crisis	-8.10057
▁knowledge	-8.10212
▁google	-8.10212
▁curious	-8.10212
▁f	-8.10458
▁teach	-8.10769
▁fall	-8.1116
ize	-8.11508
▁huge	-8.11606
▁tech	-8.11712
▁cash	-8.11794
▁word	-8.12012
ri	-8.12016
▁reduce	-8.12131
▁purchase	-8.12484
ary	-8.12596
▁certain	-8.12616
▁pro	-8.12766
▁previous	-8.12839
▁important	-8.12887
▁super	-8.13015
ra	-8.13202
▁security	-8.13215
▁transfer	-8.13372
▁outside	-8.13385
▁expense	-8.1373
▁drop	-8.13779
▁de	-8.14157
▁e	-8.14199
▁late	-8.14234
▁happy	-8.14268
ne	-8.14283
▁sort	-8.14313
▁interview	-8.1445
▁claim	-8.14454
▁rupee	-8.14629
▁all	-8.14656
▁airport	-8.14813
the	-8.14956
▁paper	-8.14988
▁whatever	-8.1502
▁update	-8.15355
▁store	-8.15434
up	-8.15494
ant	-8.15538
▁internship	-8.15557
▁site	-8.15582
▁via	-8.15592
▁math	-8.15629
▁later	-8.15743
ive	-8.16004
▁control	-8.16111
▁reddit	-8.16194
▁court	-8.16269
▁genuine	-8.16821
is	-8.16895
▁medical	-8.16906
▁sub	-8.16924
▁sinhalese	-8.17017
▁t	-8.17117
▁large	-8.17161
▁govt	-8.17168
▁pm	-8.17319
ate	-8.17333
▁lack	-8.17383
▁waste	-8.17425
▁employee	-8.17566
▁enjoy	-8.1788
hand	-8.18317
na	-8.18397
▁view	-8.18416
▁edit	-8.18444
▁dollar	-8.18497
▁step	-8.18733
▁improve	-8.19026
▁reach	-8.19291
▁getting	-8.19323
us	-8.19504
ce	-8.19586
▁he	-8.20059
▁win	-8.20204
▁risk	-8.20318
▁exactly	-8.20386
▁individual	-8.20403
▁team	-8.20467
▁average	-8.20584
▁demand	-8.20803
▁ella	-8.20873
▁graduate	-8.20969
▁luck	-8.21092
▁corrupt	-8.21121
▁poor	-8.21571
▁literally	-8.21586
▁hate	-8.21895
▁clear	-8.21913
▁fail	-8.21933
2	-8.22044
▁moment	-8.22154
▁movie	-8.22154
▁minister	-8.22328
▁hire	-8.22331
ter	-8.22623
▁china	-8.22719
▁25	-8.22798
▁accept	-8.22837
▁major	-8.22882
▁master	-8.22987
▁9	-8.23178
▁australia	-8.23231
▁op	-8.23259
▁often	-8.23306
▁ol	-8.2337
▁light	-8.23413
▁strong	-8.23497
▁specific	-8.23534
▁mobile	-8.23545
▁sorry	-8.23899
▁self	-8.23933
▁sense	-8.2396
▁plus	-8.24209
▁towards	-8.24263
▁ur	-8.24296
▁struggle	-8.24296
▁p	-8.24547
▁figure	-8.24695
▁test	-8.24741
age	-8.24771
▁model	-8.24955
3	-8.24967
▁candidate	-8.25296
▁official	-8.25298
▁religion	-8.25317
▁difference	-8.25498
▁laptop	-8.25699
▁imf	-8.25713
▁afford	-8.26244
ur	-8.26245
▁standard	-8.26518
▁miss	-8.26539
▁info	-8.26612
▁fair	-8.26729
▁rest	-8.26758
▁trade	-8.26781
▁hit	-8.26866
▁affect	-8.27121
▁pick	-8.27186
▁rich	-8.27199
ma	-8.27288
im	-8.27447
▁difficult	-8.27471
▁treat	-8.27496
▁period	-8.27944
▁clean	-8.2815
▁have	-8.28166
▁wish	-8.28171
▁fast	-8.2837
▁explain	-8.28565
▁across	-8.28774
▁spot	-8.28999
▁kinda	-8.29113
▁select	-8.29115
▁professional	-8.2946
▁human	-8.29577
▁solution	-8.29819
▁hop	-8.29857
▁concern	-8.29899
▁title	-8.3003
▁stand	-8.30577
▁management	-8.30717
▁path	-8.30852
▁entire	-8.30902
▁continue	-8.30922
▁actual	-8.31122
▁handle	-8.31188
▁who	-8.31561
▁alone	-8.31763
▁action	-8.32053
▁weather	-8.32161
▁restaurant	-8.32398
▁practice	-8.32592
▁stream	-8.32779
▁extra	-8.33245
▁range	-8.333
▁half	-8.33679
▁network	-8.3368
▁event	-8.33686
▁citizen	-8.33689
▁music	-8.3422
▁prefer	-8.34317
▁register	-8.34336
▁medicine	-8.34347
▁exist	-8.34349
▁message	-8.34356
▁ps	-8.34456
ent	-8.34685
▁gov	-8.34742
el	-8.34766
▁forget	-8.34777
▁gain	-8.35013
▁pre	-8.35234
▁form	-8.35297
▁extreme	-8.35442
▁white	-8.35472
▁anyway	-8.35494
▁access	-8.35752
▁custom	-8.35789
▁walk	-8.35892
▁insight	-8.36336
▁jvp	-8.36375
▁limit	-8.3643
▁completely	-8.36661
▁forward	-8.36786
▁gota	-8.36826
▁foreigner	-8.37377
▁currency	-8.37464
▁society	-8.37464
am	-8.37598
▁worry	-8.37692
▁role	-8.37706
▁behind	-8.3792
▁tuk	-8.37926
▁covid	-8.37982
▁air	-8.38427
▁absolutely	-8.3853
▁migrate	-8.3861
▁n	-8.38619
▁development	-8.38675
lo	-8.38844
ry	-8.38862
▁computer	-8.38875
▁hair	-8.39294
▁kill	-8.39358
▁room	-8.39401
il	-8.39528
▁accord	-8.39756
▁island	-8.39758
▁together	-8.39761
rd	-8.39811
▁transport	-8.40183
▁port	-8.40233
▁okay	-8.40233
▁k	-8.4038
▁bike	-8.40709
▁gb	-8.40786
▁monthly	-8.40843
▁se	-8.40858
▁daily	-8.40931
▁con	-8.40947
▁23	-8.41111
▁simple	-8.4117
▁nation	-8.41588
▁sajith	-8.41638
▁document	-8.41852
▁reliable	-8.41883
▁sport	-8.41998
▁dude	-8.42139
▁along	-8.42364
▁search	-8.42372
▁generation	-8.42428
▁tourism	-8.42598
▁recent	-8.42673
▁fun	-8.42694
▁switch	-8.42845
▁helpful	-8.43232
▁ticket	-8.43309
▁rain	-8.43559
▁unfortunately	-8.43609
▁thinking	-8.43781
▁sit	-8.44003
▁member	-8.44022
▁insurance	-8.44274
▁directly	-8.44537
▁leader	-8.44584
▁tv	-8.44599
▁digital	-8.44762
▁somewhere	-8.44762
▁western	-8.45038
de	-8.45166
▁platform	-8.45251
▁three	-8.45254
▁w	-8.45434
▁inflation	-8.45521
▁uber	-8.45528
▁simply	-8.45776
▁ltte	-8.4599
▁assume	-8.46238
▁remove	-8.46286
▁cricket	-8.46486
▁design	-8.46532
▁minimum	-8.46735
ever	-8.46926
co	-8.46967
▁easily	-8.46984
▁correct	-8.47029
▁tea	-8.47039
▁worker	-8.47206
▁traffic	-8.47234
ie	-8.47299
inning	-8.47501
▁saving	-8.47736
▁wear	-8.47868
▁blame	-8.47993
▁willing	-8.48102
▁19	-8.48226
▁stick	-8.4829
▁fit	-8.48407
less	-8.48528
▁18	-8.48994
▁partner	-8.49014
▁ill	-8.49179
▁stupid	-8.49223
▁wife	-8.49259
▁maintain	-8.49279
▁youtube	-8.49351
▁40	-8.49483
▁living	-8.49513
▁relationship	-8.49514
▁cuz	-8.4954
▁2025	-8.50335
▁l	-8.50481
▁connect	-8.50539
ch	-8.50619
at	-8.50791
4	-8.50813
▁review	-8.50817
▁attack	-8.51061
▁north	-8.51327
▁sign	-8.51361
▁bear	-8.51443
▁canada	-8.51583
▁ppl	-8.516
▁hell	-8.51639
▁unit	-8.51709
nt	-8.5182
▁channel	-8.52107
▁complain	-8.52207
▁letter	-8.52264
▁license	-8.5237
▁qualification	-8.5237
▁folk	-8.52376
▁balance	-8.52899
▁passport	-8.52943
▁till	-8.52964
▁mother	-8.52975
200	-8.53127
da	-8.53162
▁unlimited	-8.53164
▁crime	-8.53198
man	-8.53218
▁owner	-8.53286
▁multiple	-8.53431
▁h	-8.5349
▁reply	-8.53498
▁match	-8.53505
▁involve	-8.5371
▁honest	-8.53835
▁decade	-8.53969
▁note	-8.54136
▁anymore	-8.54232
id	-8.54498
▁profit	-8.54499
▁location	-8.545
▁remote	-8.54507
▁facebook	-8.54556
▁raise	-8.54778
▁condition	-8.54837
▁likely	-8.55006
▁resource	-8.55047
▁router	-8.55184
ish	-8.55225
▁finish	-8.55587
me	-8.55622
▁ok	-8.55646
▁beautiful	-8.55856
▁email	-8.55856
▁track	-8.55928
▁potential	-8.56403
▁contract	-8.56404
▁physical	-8.56552
▁property	-8.56706
▁z	-8.56725
▁civil	-8.56797
▁art	-8.56829
j	-8.56927
▁ad	-8.56986
▁mess	-8.57173
▁aware	-8.57219
and	-8.57285
▁address	-8.57506
▁otherwise	-8.57518
▁idk	-8.57577
▁military	-8.57785
ise	-8.57984
▁gold	-8.58036
▁certificate	-8.58062
▁space	-8.58113
ness	-8.58135
▁singapore	-8.58342
▁brother	-8.58348
crying	-8.58403
▁fight	-8.58629
la	-8.58739
▁sale	-8.58812
▁east	-8.58841
▁sliit	-8.58903
▁suppose	-8.59185
▁btw	-8.59185
▁college	-8.59494
▁apartment	-8.59775
▁army	-8.59873
▁tho	-8.59943
ve	-8.59961
▁code	-8.60053
▁ass	-8.60125
▁eye	-8.60366
ha	-8.60515
▁push	-8.60518
▁seat	-8.60524
▁regular	-8.60605
▁exchange	-8.60606
▁realize	-8.60712
▁overseas	-8.60893
▁enter	-8.60923
ya	-8.61106
ta	-8.61153
▁fake	-8.61188
▁mainly	-8.61371
▁crazy	-8.61453
ful	-8.61878
▁cool	-8.62061
▁serious	-8.62522
▁remain	-8.62628
▁central	-8.6263
to	-8.62652
▁park	-8.62723
▁tend	-8.63044
▁loudly	-8.63081
▁staff	-8.6327
▁catch	-8.63521
▁ex	-8.63544
▁bar	-8.63551
▁obviously	-8.63684
▁slow	-8.63807
▁properly	-8.64013
▁educate	-8.64157
▁content	-8.64396
▁random	-8.64396
▁dm	-8.6441
▁oh	-8.64426
▁page	-8.64448
▁club	-8.64468
et	-8.64513
▁file	-8.64752
▁imo	-8.64761
▁ride	-8.65001
▁special	-8.65128
▁environment	-8.65183
▁request	-8.65291
un	-8.6541
▁fully	-8.65463
▁sad	-8.65496
▁smart	-8.65588
▁severa	-8.65679
▁suffer	-8.65893
▁ban	-8.65899
▁inside	-8.65905
▁lie	-8.65995
▁user	-8.66116
▁lawyer	-8.66197
▁marry	-8.66203
▁imagine	-8.6625
ol	-8.66637
▁popular	-8.66777
▁method	-8.66802
▁alternative	-8.66805
tone	-8.66901
▁among	-8.67052
ism	-8.67345
▁startup	-8.67404
▁muslim	-8.67611
▁amazing	-8.67719
▁senior	-8.67719
▁200	-8.67992
▁dis	-8.68173
▁vs	-8.68415
ia	-8.68489
▁station	-8.68515
▁marriage	-8.68645
▁black	-8.68647
▁promise	-8.6867
▁die	-8.68819
▁grade	-8.68842
▁boy	-8.68902
▁except	-8.69215
▁wedding	-8.69267
▁protect	-8.69505
▁officer	-8.69887
▁dad	-8.70064
▁listen	-8.7029
▁reality	-8.7034
▁topic	-8.70435
▁requirement	-8.70596
light	-8.70624
9	-8.70643
▁mark	-8.70711
▁illegal	-8.70752
▁global	-8.70756
▁population	-8.7084
▁doubt	-8.70859
▁goal	-8.70913
▁ac	-8.71039
▁particular	-8.71157
▁carry	-8.71331
li	-8.71411
▁anywhere	-8.71476
▁despi	-8.71479
▁activity	-8.7148
▁background	-8.71495
▁buddhist	-8.7151
▁street	-8.71528
20	-8.71598
▁interesting	-8.7171
▁dog	-8.71784
▁chinese	-8.71795
▁department	-8.71799
▁fan	-8.71975
▁deposit	-8.72115
▁morning	-8.72115
▁gym	-8.72116
▁bare	-8.72277
ge	-8.72372
▁repair	-8.72438
▁truly	-8.7246
▁16	-8.72557
▁technology	-8.7276
▁temple	-8.7279
▁cs	-8.7291
▁sa	-8.72921
▁jaffna	-8.73107
out	-8.73471
▁seriously	-8.73527
▁release	-8.73734
▁respect	-8.74045
▁mine	-8.74066
▁electricity	-8.74076
▁fill	-8.74081
▁father	-8.7439
▁context	-8.74717
▁dream	-8.74717
▁welcome	-8.75047
▁explore	-8.75048
▁block	-8.75064
▁manager	-8.75144
▁mom	-8.75169
▁route	-8.75204
skin	-8.75299
▁rid	-8.75307
▁fellow	-8.75378
▁pickme	-8.7541
▁mental	-8.75614
▁implement	-8.75666
▁perfect	-8.75711
heart	-8.75845
▁wise	-8.76331
▁battery	-8.76378
▁overall	-8.76384
▁joke	-8.76385
▁everywhere	-8.76385
▁pr	-8.76685
▁drink	-8.76745
▁body	-8.77055
▁pursue	-8.7707
▁mid	-8.77146
▁minute	-8.77446
sweat	-8.77619
▁religious	-8.78511
▁24	-8.78676
▁hide	-8.78914
line	-8.78928
▁unp	-8.7893
▁article	-8.79097
▁60	-8.79409
▁ship	-8.79438
▁anybody	-8.7944
▁clearly	-8.79458
▁apparently	-8.79469
▁record	-8.79479
▁seek	-8.79508
▁co	-8.79627
▁impact	-8.79788
▁growth	-8.80022
▁institution	-8.80147
ine	-8.80282
▁front	-8.80336
▁am	-8.80387
ty	-8.80396
▁guide	-8.80467
▁specifically	-8.80507
▁arrive	-8.80831
▁solid	-8.80834
▁building	-8.81135
▁although	-8.81197
▁comfortable	-8.81208
▁specially	-8.81298
▁west	-8.81444
▁hopefully	-8.81584
▁fire	-8.81997
▁14	-8.82001
▁usa	-8.82008
▁prove	-8.82022
▁500	-8.82113
▁80	-8.82132
▁settle	-8.82214
▁effort	-8.82242
▁sjb	-8.82242
▁energy	-8.82252
▁throw	-8.826
▁bunch	-8.82607
▁damn	-8.82614
▁11	-8.82637
▁export	-8.82756
▁tbh	-8.82976
▁safety	-8.82995
sa	-8.83051
▁board	-8.8322
▁oil	-8.83254
▁generally	-8.83363
5	-8.83629
▁13	-8.83764
▁fly	-8.83808
▁srilankan	-8.83847
▁collect	-8.83932
as	-8.83971
▁relative	-8.83998
▁original	-8.84018
▁application	-8.84034
▁opposition	-8.84037
▁mahinda	-8.84053
▁begin	-8.84059
▁wage	-8.84194
▁elect	-8.84247
▁solve	-8.84433
▁rise	-8.84585
▁crypto	-8.8476
▁institute	-8.8476
▁subreddit	-8.8476
▁scholarship	-8.84761
▁death	-8.8478
▁po	-8.84784
vi	-8.84983
▁supply	-8.85125
▁double	-8.85125
▁union	-8.85389
▁achieve	-8.85456
▁picture	-8.85491
▁academic	-8.85539
▁attend	-8.85846
▁download	-8.8586
▁it	-8.85953
▁folde	-8.8596
▁god	-8.85995
▁drug	-8.86055
▁direct	-8.86261
▁asia	-8.86273
▁vibe	-8.86278
▁intern	-8.86287
▁photo	-8.86596
▁client	-8.86598
di	-8.86621
▁cultural	-8.86676
com	-8.86739
be	-8.86842
he	-8.86849
▁active	-8.87037
▁2024	-8.87083
▁factor	-8.87285
▁over	-8.87333
▁300	-8.87423
▁rag	-8.87441
▁marketing	-8.87503
▁o	-8.87571
▁eventually	-8.87718
▁significant	-8.87734
▁90	-8.87749
ot	-8.87917
▁web	-8.87921
▁positive	-8.88094
▁regardless	-8.88147
▁coast	-8.88369
▁pc	-8.88409
▁brain	-8.8847
▁atleast	-8.88471
▁straight	-8.88852
▁modern	-8.88853
▁dead	-8.88876
▁luxury	-8.88885
ally	-8.8922
▁advise	-8.8923
▁foundation	-8.89234
▁stable	-8.89342
▁reasonable	-8.8957
8	-8.89572
▁target	-8.89612
▁capital	-8.897
▁deliver	-8.89729
▁deep	-8.89774
▁mistake	-8.89904
▁nobody	-8.89995
▁print	-8.90108
▁delivery	-8.90262
▁dumb	-8.90378
▁facility	-8.9038
▁campus	-8.90402
▁copy	-8.90536
▁complaint	-8.90618
ul	-8.90649
▁key	-8.90837
▁affordable	-8.90884
▁tia	-8.91074
▁idiot	-8.91084
▁anti	-8.9109
▁peace	-8.91135
▁female	-8.91153
▁trading	-8.91543
▁asset	-8.91568
▁technical	-8.91933
▁skin	-8.92059
▁ya	-8.92264
▁arrest	-8.92325
▁response	-8.92325
▁namal	-8.92326
▁steal	-8.92327
▁legit	-8.92348
▁2022	-8.92418
▁traditional	-8.92442
30	-8.92639
▁necessary	-8.92719
ance	-8.92886
ee	-8.92888
▁replace	-8.93109
▁loss	-8.93124
ian	-8.93146
▁nuwara	-8.93174
▁employer	-8.93224
ti	-8.93464
▁eg	-8.93504
▁mate	-8.93509
▁promote	-8.93511
▁zero	-8.93511
▁prepare	-8.93513
▁entry	-8.93518
▁mindset	-8.93526
▁sim	-8.93886
▁incident	-8.93909
▁quick	-8.9391
▁pull	-8.93921
▁ground	-8.94074
▁europe	-8.94242
▁ignore	-8.94309
▁trouble	-8.94309
▁british	-8.94313
▁tour	-8.9433
▁dr	-8.94456
▁milk	-8.94542
tain	-8.94547
ala	-8.94713
▁version	-8.94729
▁cancel	-8.94737
▁july	-8.94819
▁elephant	-8.95114
▁convert	-8.9512
we	-8.95124
floor	-8.95208
▁discuss	-8.95445
▁mobitel	-8.95519
▁truth	-8.95525
▁own	-8.95658
mi	-8.95667
▁survive	-8.95926
▁anura	-8.9593
▁fear	-8.95945
▁weekend	-8.95994
▁billion	-8.96024
▁score	-8.9603
est	-8.96235
▁confirm	-8.9629
▁rolling	-8.963
▁adult	-8.96337
▁eliya	-8.9642
▁rajapaksa	-8.96635
▁serve	-8.96679
▁massive	-8.96778
▁season	-8.96832
▁slightly	-8.96855
▁cook	-8.96861
▁asian	-8.96868
▁greatly	-8.97069
▁exact	-8.9718
▁foot	-8.97243
▁broker	-8.97559
▁flight	-8.97609
▁st	-8.97682
ana	-8.97861
▁iit	-8.98286
▁vi	-8.98298
▁stress	-8.98382
▁physics	-8.98402
▁heart	-8.98522
▁rank	-8.98544
▁influence	-8.98652
▁rw	-8.98734
▁inform	-8.98785
▁effect	-8.98791
mo	-8.98799
▁blood	-8.98818
▁tuition	-8.98818
▁mirissa	-8.9882
▁reform	-8.98841
▁purpose	-8.98859
▁150	-8.98874
tu	-8.98934
▁suck	-8.98954
▁bc	-8.98981
tion	-8.99226
▁town	-8.99248
▁gas	-8.99628
▁mp	-8.99635
▁itinerary	-8.9966
▁racist	-8.9966
▁weird	-8.99662
▁pressure	-8.99667
▁up	-8.99712
▁mr	-8.99794
▁0	-8.999
op	-8.9999
pe	-9.00063
▁commercial	-9.00084
▁holiday	-9.00084
▁natural	-9.00084
▁touch	-9.00091
▁warranty	-9.00103
▁chill	-9.00143
▁1000	-9.0037
▁separate	-9.00535
▁discussion	-9.00588
▁statement	-9.00703
ba	-9.00789
▁voter	-9.0086
▁wifi	-9.00941
▁healthcare	-9.0095
▁cse	-9.01171
▁ar	-9.01311
▁yesterday	-9.01366
▁nature	-9.01369
▁center	-9.01465
no	-9.01564
▁none	-9.01651
ll	-9.01656
▁progress	-9.01769
▁commission	-9.01797
▁plenty	-9.01797
▁sigiriya	-9.01797
▁deserve	-9.018
▁ready	-9.01818
▁fb	-9.01826
▁produce	-9.01844
▁agent	-9.01865
▁an	-9.0195
▁pa	-9.02076
▁refer	-9.02141
▁scene	-9.02163
▁approach	-9.02234
▁ahead	-9.02246
▁moratuwa	-9.02257
va	-9.02291
▁mass	-9.02474
▁friendly	-9.02526
▁count	-9.02558
10	-9.02633
▁transaction	-9.02665
▁trend	-9.02665
▁green	-9.02666
▁negative	-9.02666
▁feedback	-9.02672
▁minority	-9.02678
▁star	-9.02944
▁present	-9.03058
▁challenge	-9.03102
▁refuse	-9.03102
▁17	-9.03191
▁ob	-9.03199
▁2019	-9.03266
▁out	-9.03406
ad	-9.03455
▁commit	-9.03535
▁district	-9.0354
▁heavy	-9.0354
▁spread	-9.03542
ni	-9.03595
▁tough	-9.03981
▁piece	-9.03981
▁employment	-9.04003
▁usual	-9.04042
ho	-9.04077
▁song	-9.04107
▁faculty	-9.04423
▁proof	-9.04528
ster	-9.04651
▁ha	-9.04692
▁baby	-9.04872
▁authority	-9.04877
▁patient	-9.05314
▁sleep	-9.05315
▁third	-9.05324
▁freedom	-9.05327
go	-9.0568
▁preferably	-9.05778
0000	-9.05941
▁km	-9.05961
▁la	-9.05986
▁banking	-9.05987
▁campaign	-9.06213
lk	-9.06482
7	-9.06662
▁fiber	-9.06668
▁com	-9.07089
▁justice	-9.0712
▁attention	-9.0712
▁revenue	-9.07173
if	-9.07334
ro	-9.07349
▁2000	-9.07402
▁corporate	-9.07581
▁reserve	-9.07588
▁status	-9.07596
▁ict	-9.07604
▁hr	-9.07632
ara	-9.07677
▁training	-9.077
▁lk	-9.07712
▁21	-9.07712
iya	-9.08018
▁advantage	-9.08035
▁bachelor	-9.08035
▁emergency	-9.08035
▁secure	-9.08088
▁pure	-9.08186
▁em	-9.08422
▁japan	-9.08493
▁shift	-9.08496
▁firm	-9.08496
▁shoe	-9.08498
▁glad	-9.08502
▁infrastructure	-9.08959
▁performance	-9.08969
▁race	-9.0898
▁hot	-9.09022
▁burn	-9.09026
▁useful	-9.09061
▁ch	-9.09359
▁expert	-9.09406
▁beyond	-9.09424
▁bio	-9.09653
eyes	-9.09715
▁35	-9.09762
▁70	-9.10014
▁apart	-9.10336
▁petrol	-9.10361
▁duty	-9.10367
si	-9.10371
▁abuse	-9.10386
do	-9.10716
▁discount	-9.10833
▁sudden	-9.10833
▁lease	-9.10835
▁45	-9.10956
▁hike	-9.10965
▁hat	-9.11103
▁rajapaksha	-9.11307
▁rice	-9.11404
sh	-9.11432
▁going	-9.11646
▁size	-9.11654
▁gen	-9.11691
▁thread	-9.11785
▁surf	-9.11804
▁ruin	-9.11805
▁solo	-9.1181
▁mix	-9.1201
▁device	-9.12271
▁introduce	-9.12298
ence	-9.12687
▁talent	-9.12745
▁image	-9.12755
▁meal	-9.1277
hi	-9.12782
mbps	-9.13073
▁investor	-9.13138
end	-9.13199
▁prevent	-9.13234
▁mil	-9.13543
▁practical	-9.13797
▁cafe	-9.13823
▁perspective	-9.14198
▁strike	-9.14198
▁responsibility	-9.14199
▁approve	-9.14273
▁useless	-9.14391
▁region	-9.14429
▁feed	-9.14493
▁fresh	-9.14541
▁discipline	-9.14689
▁somehow	-9.14689
▁prime	-9.14689
▁agency	-9.14691
▁presidential	-9.14736
▁ceylon	-9.15188
book	-9.15439
▁flag	-9.15518
▁crowd	-9.15546
ir	-9.15618
▁former	-9.15634
▁tomorrow	-9.15676
▁conversation	-9.1569
ous	-9.15763
▁cat	-9.15814
but	-9.15875
pa	-9.15901
q	-9.16093
ex	-9.16099
▁august	-9.16174
▁material	-9.16174
▁whatsapp	-9.16174
▁feature	-9.16175
▁2023	-9.16192
▁hence	-9.16202
▁negombo	-9.16211
▁electronic	-9.16227
▁slpp	-9.16249
tic	-9.16398
▁valid	-9.16601
▁diploma	-9.16658
▁hang	-9.16673
▁attempt	-9.16674
▁permit	-9.16674
▁under	-9.17037
▁violence	-9.17176
▁tool	-9.17289
▁immediately	-9.17329
▁limited	-9.17468
▁aliexpress	-9.17681
▁december	-9.17681
▁vaccine	-9.17681
▁american	-9.18019
▁reject	-9.18113
oo	-9.18168
laughe	-9.18189
▁ka	-9.18372
wa	-9.18463
▁ba	-9.18484
▁wealth	-9.185
▁racism	-9.18699
ki	-9.18766
▁clothe	-9.18768
▁cyber	-9.19212
▁unique	-9.1926
▁scale	-9.19343
mb	-9.19631
▁text	-9.19717
▁concept	-9.19728
▁fibre	-9.19728
▁trump	-9.19728
▁chat	-9.1999
▁recover	-9.19996
▁no	-9.20059
▁sex	-9.20146
▁animal	-9.20246
▁working	-9.20662
▁express	-9.20691
arious	-9.20726
▁j	-9.20733
▁annual	-9.20766
▁competition	-9.20767
▁democracy	-9.20767
▁machine	-9.20767
▁registration	-9.20767
▁camera	-9.20778
▁stage	-9.20808
▁bag	-9.20861
▁ab	-9.20957
ug	-9.20969
▁november	-9.2129
▁responsible	-9.21295
▁bond	-9.21315
▁male	-9.21352
▁taste	-9.2136
▁alot	-9.21425
▁apple	-9.21584
▁football	-9.21822
▁shy	-9.22005
medium	-9.22292
▁cross	-9.22303
▁evidence	-9.22345
▁cinema	-9.22346
▁delay	-9.22349
▁damage	-9.22352
▁contribute	-9.22919
▁cv	-9.22937
▁ta	-9.22975
▁developer	-9.22993
▁worried	-9.23412
▁bottle	-9.23413
▁byd	-9.23416
han	-9.23424
▁iphone	-9.23442
▁style	-9.23592
▁min	-9.23797
▁pls	-9.23801
▁ideally	-9.23814
tear	-9.23945
▁communication	-9.23953
▁34	-9.23969
▁october	-9.23995
▁immigration	-9.24491
▁jump	-9.24497
per	-9.24644
▁king	-9.24736
▁ig	-9.24887
▁divide	-9.25002
▁branch	-9.25034
▁phd	-9.25034
▁shipping	-9.25042
▁shitty	-9.25144
ship	-9.252
▁load	-9.25268
▁financially	-9.25294
▁mon	-9.25306
▁pack	-9.25403
son	-9.25479
▁husband	-9.2558
▁host	-9.25612
▁shortage	-9.25677
▁hurt	-9.25691
▁data	-9.25778
▁additional	-9.25782
▁sun	-9.25855
▁ton	-9.25929
min	-9.26103
▁impossible	-9.2613
▁volunteer	-9.2613
ite	-9.26553
▁false	-9.26682
▁guarantee	-9.26683
▁fault	-9.26684
▁bs	-9.26799
▁freelance	-9.27071
ath	-9.27172
▁22	-9.27172
over	-9.27197
level	-9.27223
▁scheme	-9.27238
▁rural	-9.2724
▁indians	-9.27322
▁treatment	-9.27336
▁bsc	-9.27338
▁essential	-9.27493
▁organization	-9.27796
▁queue	-9.27796
▁sea	-9.2784
▁era	-9.28048
▁appoint	-9.28324
▁fo	-9.28328
▁tuktuk	-9.28358
▁toxic	-9.28358
▁dress	-9.28368
▁coffee	-9.28405
ag	-9.28429
▁lately	-9.28481
▁operate	-9.28513
▁lecture	-9.28778
ial	-9.28843
▁somewhat	-9.28923
▁church	-9.28923
▁primar	-9.28927
▁inter	-9.28933
▁mad	-9.29312
▁spending	-9.29359
▁success	-9.29473
▁monitor	-9.29491
om	-9.29636
hands	-9.29854
▁rental	-9.29861
▁climate	-9.30063
▁conflict	-9.30063
▁lifestyle	-9.30086
▁highway	-9.30225
down	-9.30256
▁max	-9.30403
os	-9.30566
▁regret	-9.30637
▁tariff	-9.30637
▁april	-9.30638
▁restriction	-9.30668
▁youth	-9.30738
ke	-9.30765
▁confused	-9.30779
▁sadly	-9.3083
▁root	-9.3084
cc	-9.30931
ily	-9.30982
▁ideal	-9.31014
▁pain	-9.31054
ical	-9.31169
ama	-9.31184
▁cal	-9.31213
▁executive	-9.31216
▁recognize	-9.31216
▁submit	-9.31216
▁sick	-9.31222
▁lady	-9.31223
▁mod	-9.31228
▁september	-9.31245
▁setup	-9.31342
▁sp	-9.31583
▁encourage	-9.31797
▁ministry	-9.31797
▁sister	-9.318
▁estate	-9.31805
▁ethnic	-9.31846
▁son	-9.3197
way	-9.31989
ard	-9.32181
ling	-9.32244
▁toyota	-9.32382
▁japanese	-9.32388
▁upgrade	-9.32421
▁june	-9.32454
▁when	-9.32488
ect	-9.32682
time	-9.32687
▁buying	-9.3274
▁remind	-9.32785
▁twice	-9.3297
▁construction	-9.32982
▁bet	-9.33064
▁upper	-9.33097
▁peak	-9.33162
ac	-9.33347
▁coz	-9.33351
▁cycle	-9.33562
▁relevant	-9.33562
▁maintenance	-9.33592
▁player	-9.3362
▁absolute	-9.33758
▁vat	-9.33769
▁successful	-9.33832
▁guidance	-9.34157
ure	-9.34475
▁withdraw	-9.34654
▁locally	-9.34713
▁box	-9.34732
▁gift	-9.34756
▁chemistry	-9.348
▁european	-9.34863
▁lesson	-9.35223
▁sc	-9.35273
▁aspect	-9.35358
▁associate	-9.35358
▁innocent	-9.35358
▁syllabus	-9.35358
▁citizenship	-9.35385
▁nic	-9.35479
▁criminal	-9.35919
▁january	-9.35964
▁lmao	-9.35965
▁paypal	-9.35967
▁competitive	-9.35995
▁consumer	-9.36045
▁shame	-9.36273
▁provider	-9.36332
ig	-9.36533
▁dubai	-9.36576
▁rock	-9.36582
▁bother	-9.3659
▁distance	-9.3664
tr	-9.36703
fi	-9.36727
ah	-9.36742
▁priority	-9.36766
▁legally	-9.3678
▁monk	-9.36871
▁250	-9.36892
▁bay	-9.36922
iv	-9.37033
▁door	-9.37045
▁repeat	-9.37187
▁destroy	-9.37187
▁schedule	-9.37187
▁undergraduate	-9.37187
▁shoot	-9.37346
▁perform	-9.37347
▁agreement	-9.37374
▁yo	-9.37382
▁screen	-9.37386
ga	-9.37415
▁table	-9.37466
▁effective	-9.37616
ip	-9.37682
hu	-9.38013
▁rely	-9.38064
bo	-9.38085
mil	-9.38173
ization	-9.38264
▁wide	-9.38297
▁ball	-9.38331
▁judge	-9.38391
▁sampath	-9.38426
▁bullshit	-9.38427
▁village	-9.38557
▁insane	-9.38648
▁peaceful	-9.38678
▁signal	-9.38747
▁fr	-9.38872
▁instagram	-9.39052
▁independent	-9.39276
land	-9.39484
▁arm	-9.39506
▁quickly	-9.3968
▁london	-9.3968
▁adopt	-9.39681
▁structure	-9.39719
one	-9.3974
▁meeting	-9.39786
▁migration	-9.39885
▁fd	-9.39939
▁counter	-9.39974
bi	-9.40028
▁fort	-9.4015
▁fish	-9.40161
▁journey	-9.40313
▁province	-9.40313
▁gender	-9.40314
▁funny	-9.40323
▁girlfriend	-9.40331
▁dinner	-9.40344
mp	-9.40351
▁appointment	-9.40353
▁march	-9.4037
▁everyday	-9.40399
ru	-9.40496
ash	-9.40892
ut	-9.40927
▁window	-9.40952
▁transportation	-9.4107
▁mis	-9.41086
▁slowly	-9.41175
cl	-9.41179
▁fairly	-9.41563
▁wa	-9.41565
▁dec	-9.41576
▁four	-9.41654
ice	-9.41695
▁usage	-9.41777
ver	-9.41831
▁healthy	-9.42037
▁aim	-9.4222
▁perhaps	-9.42236
▁tutor	-9.42236
▁skip	-9.42237
▁motor	-9.42238
▁therefor	-9.42272
▁direction	-9.42366
▁ni	-9.42449
▁meme	-9.42449
50	-9.42804
▁coconut	-9.42885
▁regulation	-9.42885
▁scenario	-9.42885
▁victim	-9.42885
▁voice	-9.42885
▁bonus	-9.42885
▁session	-9.42885
▁delete	-9.42885
▁blind	-9.4289
▁batch	-9.42906
▁surprised	-9.43072
▁strict	-9.43134
▁anyways	-9.43389
▁she	-9.4348
▁complex	-9.43539
▁airline	-9.436
▁pharmacy	-9.4361
▁cop	-9.43615
back	-9.43811
ting	-9.4383
▁feeling	-9.43843
▁pet	-9.44038
use	-9.44071
▁cousin	-9.44197
▁solar	-9.44208
▁hutch	-9.4421
▁taxi	-9.44255
▁ability	-9.44305
▁blue	-9.44305
▁conduct	-9.44397
▁seller	-9.44454
▁400	-9.44614
▁beat	-9.4462
sp	-9.44624
▁heavily	-9.44859
▁display	-9.44863
▁cap	-9.44869
▁section	-9.44958
▁busy	-9.45055
▁def	-9.4509
act	-9.45402
▁external	-9.45526
▁ensure	-9.45526
▁labour	-9.4553
▁independence	-9.45567
▁2015	-9.45577
▁passion	-9.45867
▁fucking	-9.45941
15	-9.46112
▁reflect	-9.46197
▁attitude	-9.46197
▁justify	-9.46197
▁ridiculous	-9.46198
▁film	-9.46218
▁mentality	-9.46265
day	-9.46285
▁generate	-9.46294
▁realise	-9.46356
▁dark	-9.46477
▁represent	-9.46872
▁buddhism	-9.46872
▁garbage	-9.46872
▁hassle	-9.46872
▁starlink	-9.46872
▁gdp	-9.46874
▁bugger	-9.46875
▁compete	-9.47029
▁band	-9.47097
▁lucky	-9.4713
▁celebrate	-9.47553
▁terrible	-9.47553
▁hnb	-9.47553
▁destination	-9.47556
▁valuable	-9.4756
ak	-9.47592
▁ra	-9.4779
▁suit	-9.47797
tha	-9.48037
▁off	-9.48077
▁entirely	-9.48153
▁heat	-9.48179
▁strategy	-9.48238
▁refund	-9.48238
▁aside	-9.48271
▁influencer	-9.48511
▁should	-9.48805
▁cl	-9.48805
▁linkedin	-9.48928
▁kick	-9.48928
▁daraz	-9.48929
▁skilled	-9.48934
▁proud	-9.4895
▁relatively	-9.48999
▁par	-9.49021
▁ie	-9.49027
▁lecturer	-9.49143
ably	-9.49339
▁index	-9.49339
▁engine	-9.49426
▁relax	-9.4949
▁identify	-9.49622
▁basis	-9.49634
▁percentage	-9.49636
▁constitution	-9.49811
▁freelancer	-9.49844
▁initial	-9.4992
500	-9.49975
▁press	-9.50058
▁ko	-9.50076
▁approval	-9.50321
▁arrival	-9.50321
▁extend	-9.50321
▁samsung	-9.50321
▁voting	-9.50321
▁yala	-9.50361
▁upon	-9.50429
▁ceb	-9.50483
▁cod	-9.50548
▁easter	-9.5061
▁hous	-9.50671
po	-9.50693
▁wtf	-9.51025
▁donate	-9.51028
▁nearby	-9.51051
ile	-9.5116
ay	-9.51165
▁camp	-9.51167
▁expectation	-9.5134
▁26	-9.5147
▁surprise	-9.51531
▁li	-9.5159
▁mafia	-9.51735
▁forex	-9.51758
▁prior	-9.51764
▁preference	-9.51769
▁ethnicity	-9.51776
▁ja	-9.51865
▁weight	-9.51871
▁cry	-9.51946
sl	-9.51964
lanka	-9.52039
▁ev	-9.52253
ue	-9.52312
▁electric	-9.52362
▁28	-9.52427
▁council	-9.52449
▁aragalaya	-9.52449
▁trash	-9.52455
tre	-9.5247
▁gap	-9.52509
▁2020	-9.52565
▁upto	-9.52625
ng	-9.5286
▁fe	-9.52872
▁movement	-9.52886
▁pop	-9.52928
▁afraid	-9.53168
▁nowadays	-9.53168
▁presidency	-9.53168
▁thousand	-9.53168
▁vacation	-9.53168
▁beside	-9.53383
qu	-9.53461
▁dig	-9.53538
▁accident	-9.53612
12	-9.53635
▁doc	-9.53731
▁rn	-9.53787
▁malaysia	-9.53801
▁scamme	-9.53815
▁bribe	-9.53869
▁procedure	-9.53893
▁strength	-9.53893
▁task	-9.53897
▁upcom	-9.53918
▁gaming	-9.53936
▁br	-9.53953
▁ro	-9.5415
▁obvious	-9.54224
▁loud	-9.54232
▁rant	-9.54256
▁employ	-9.54371
▁comp	-9.54574
▁resign	-9.54579
▁establish	-9.54586
▁net	-9.54598
▁med	-9.54609
▁desperate	-9.54623
▁soldier	-9.54623
▁measure	-9.54624
▁birthday	-9.5463
▁operation	-9.54662
▁profile	-9.54704
▁grant	-9.54752
▁ice	-9.54769
ify	-9.54826
work	-9.54898
▁ne	-9.55012
▁gun	-9.55176
og	-9.55217
▁27	-9.55219
▁round	-9.55378
ai	-9.55558
▁left	-9.55634
▁teaching	-9.55908
▁so	-9.55991
▁engage	-9.56073
ang	-9.56082
▁bo	-9.56098
▁premium	-9.56099
▁famous	-9.56103
▁drama	-9.56106
▁cream	-9.56108
▁clothing	-9.56143
▁gem	-9.56161
▁tie	-9.56164
▁af	-9.56166
▁familiar	-9.56224
▁sexual	-9.56236
0	-9.56543
▁portfolio	-9.56845
▁arugam	-9.56845
▁longterm	-9.56845
▁on	-9.56848
▁poll	-9.57082
▁murder	-9.57391
▁argue	-9.57597
▁rajapakse	-9.57597
▁launch	-9.576
▁stability	-9.57611
▁significantly	-9.57646
▁lay	-9.57867
▁mac	-9.57979
▁lo	-9.58056
sha	-9.58278
▁ultimate	-9.58354
▁hybrid	-9.58354
▁theory	-9.58359
▁elite	-9.58362
▁trap	-9.58404
▁bi	-9.5855
▁uncle	-9.59083
▁behavior	-9.59118
▁bottom	-9.59118
▁calculate	-9.59118
▁divorce	-9.59118
▁respond	-9.59118
▁resort	-9.59119
▁wildlife	-9.59121
▁sunday	-9.59129
▁consultant	-9.59137
▁kdu	-9.59138
▁cloud	-9.59255
▁shut	-9.59331
▁quit	-9.59407
ton	-9.59417
▁atm	-9.59462
▁possibl	-9.59491
▁production	-9.59635
▁jail	-9.59912
▁suitable	-9.59957
19	-9.60359
▁mo	-9.60451
pay	-9.60637
▁click	-9.60662
▁advisor	-9.60662
▁argument	-9.60662
▁consequence	-9.60662
▁library	-9.60662
▁organize	-9.60662
▁series	-9.60663
▁color	-9.6072
yo	-9.60827
▁cup	-9.60864
▁unlike	-9.61078
▁th	-9.61109
▁beginner	-9.61115
▁burden	-9.61444
▁default	-9.61444
▁festival	-9.61444
▁oppose	-9.61444
▁poverty	-9.61444
▁sponsor	-9.61444
▁survey	-9.61444
▁division	-9.61444
▁draw	-9.61444
▁admit	-9.61444
▁certification	-9.61444
▁chicken	-9.6145
▁terrorist	-9.61453
▁egg	-9.61605
▁pool	-9.61725
▁weak	-9.61733
▁redditor	-9.61763
▁careful	-9.61985
▁tradition	-9.61996
ca	-9.62001
ika	-9.62015
year	-9.6203
▁sh	-9.62059
▁equity	-9.62231
▁neighbour	-9.62231
▁reputation	-9.62231
▁speech	-9.62231
▁cbsl	-9.62234
▁anytime	-9.62234
▁fancy	-9.62255
▁centre	-9.62276
▁specialist	-9.62318
▁stra	-9.62463
▁grand	-9.62638
▁multi	-9.62861
▁cinnamon	-9.63025
▁donation	-9.63028
▁wild	-9.63031
▁efficient	-9.6311
▁pakistan	-9.63218
▁map	-9.63315
tan	-9.63316
▁israel	-9.63485
ci	-9.63598
▁category	-9.63825
▁thailand	-9.63827
▁investigation	-9.63836
▁coach	-9.63843
▁dry	-9.63965
fe	-9.6399
▁laugh	-9.64072
60	-9.64129
▁typical	-9.64232
ess	-9.64271
some	-9.64391
▁factory	-9.64433
our	-9.6461
▁birth	-9.64623
▁convince	-9.64631
▁podcast	-9.64631
▁driving	-9.64631
▁extent	-9.64631
▁attach	-9.64631
▁debit	-9.64646
lin	-9.64652
so	-9.64821
ran	-9.6497
▁crap	-9.65106
ious	-9.65113
pi	-9.65377
▁threat	-9.65401
▁throughout	-9.65444
▁hundred	-9.65444
▁equipment	-9.65451
▁stuck	-9.65453
▁intention	-9.65456
▁shot	-9.6546
app	-9.65495
▁debate	-9.65593
▁cheer	-9.65617
▁speaker	-9.65628
not	-9.658
▁logic	-9.65999
▁dev	-9.66181
▁eu	-9.66194
▁edexcel	-9.66264
▁protein	-9.66264
▁capacity	-9.66266
▁crash	-9.66271
▁lakh	-9.66287
▁labor	-9.66321
▁privilege	-9.66334
aya	-9.66435
▁ram	-9.66442
ka	-9.6683
▁confuse	-9.66887
40	-9.66946
▁sir	-9.66992
▁appear	-9.67079
▁married	-9.6709
▁impos	-9.67106
▁input	-9.67116
▁tired	-9.67152
oc	-9.6738
ze	-9.67486
▁pan	-9.67583
mark	-9.67592
month	-9.67706
▁comfort	-9.67854
▁attract	-9.67898
▁clarify	-9.67923
▁identity	-9.67923
▁pocket	-9.67923
▁tiktok	-9.67923
▁vendor	-9.67925
▁programme	-9.67991
▁wall	-9.68007
▁protection	-9.68123
▁here	-9.68155
awa	-9.68339
▁normally	-9.68393
▁circle	-9.68435
ck	-9.6869
▁combine	-9.68764
▁grateful	-9.68764
▁propaganda	-9.68764
▁trincomalee	-9.68764
▁critical	-9.68764
▁excuse	-9.68769
▁haha	-9.6878
▁resident	-9.68781
▁q	-9.68882
▁deny	-9.68906
▁pic	-9.68997
▁unnecessar	-9.69006
▁dance	-9.69022
ble	-9.69128
ber	-9.69158
▁permanent	-9.69207
io	-9.69222
▁cold	-9.69248
▁buffet	-9.69611
▁commerce	-9.69611
▁buddy	-9.69615
▁boat	-9.69635
▁roll	-9.6966
▁forest	-9.69695
▁mall	-9.69887
80	-9.70012
▁equal	-9.7003
▁bat	-9.70142
'	-9.70208
mu	-9.70271
▁colleague	-9.70466
▁possibility	-9.70466
▁safari	-9.70466
▁publish	-9.70467
▁accurate	-9.70468
▁memory	-9.7047
ery	-9.70474
▁native	-9.70488
▁rip	-9.70528
▁risky	-9.70807
▁evening	-9.70872
▁ali	-9.70921
▁floor	-9.71127
off	-9.71193
▁internal	-9.71263
▁exploit	-9.71283
▁borrow	-9.71328
▁quiet	-9.71328
▁onto	-9.7142
▁eta	-9.71428
▁portion	-9.71605
▁wi	-9.71612
▁socialist	-9.71653
▁soft	-9.71668
▁grad	-9.71964
▁deduct	-9.72122
▁retire	-9.72161
▁curriculum	-9.72198
▁mandatory	-9.72198
▁weligama	-9.72198
▁drain	-9.72198
▁cybersecurity	-9.72199
▁piss	-9.72218
▁belong	-9.72329
▁gang	-9.72339
▁msc	-9.7234
▁annoying	-9.7237
▁gay	-9.72476
▁rarely	-9.72582
▁fat	-9.72693
▁cent	-9.72777
▁america	-9.72888
▁aus	-9.72966
▁function	-9.72972
▁cr	-9.7304
▁entitle	-9.73075
▁adapt	-9.73075
▁belief	-9.73075
▁estimate	-9.73075
▁nsbm	-9.73075
▁opposite	-9.73075
▁administration	-9.73092
all	-9.73097
▁loose	-9.73099
▁align	-9.73141
gi	-9.73269
hood	-9.73276
▁farm	-9.73382
▁mode	-9.73542
for	-9.73817
▁bankrupt	-9.73954
▁mathematic	-9.7396
▁collapse	-9.7396
▁dangerous	-9.73964
▁screw	-9.73964
▁pfc	-9.73981
▁hero	-9.74028
▁stat	-9.74144
▁germany	-9.74196
▁jr	-9.7425
▁constantly	-9.74258
70	-9.74416
▁ti	-9.74416
hr	-9.7453
6	-9.74542
ab	-9.74557
are	-9.74792
▁bruh	-9.74832
▁passenger	-9.74853
▁pizza	-9.74854
▁odd	-9.74855
▁upload	-9.74857
▁fool	-9.7486
▁maximu	-9.74866
▁accommodation	-9.74874
▁horrible	-9.74885
▁leadership	-9.74888
▁exp	-9.74906
pro	-9.75076
▁hnd	-9.75106
▁powerful	-9.75121
▁din	-9.75268
▁ird	-9.75272
▁mba	-9.75465
▁lock	-9.75529
▁alcohol	-9.75661
▁holder	-9.75734
▁comparison	-9.75753
▁genocide	-9.75753
▁asap	-9.75754
▁harass	-9.75758
▁supermarket	-9.75762
▁quote	-9.7577
▁decline	-9.75775
▁wake	-9.75782
▁communicate	-9.75783
▁promotion	-9.7582
▁artist	-9.75873
25	-9.76064
▁casual	-9.76258
ral	-9.76353
▁gather	-9.76356
▁down	-9.7636
▁rare	-9.76377
▁leg	-9.76624
▁awesome	-9.76663
▁disagree	-9.76663
▁perfume	-9.76663
▁temporary	-9.76663
▁verify	-9.76663
▁defend	-9.76677
▁threaten	-9.7671
▁awareness	-9.76725
mer	-9.76756
▁noise	-9.76765
▁formal	-9.76847
▁sake	-9.76867
▁le	-9.76974
▁ho	-9.76983
▁pal	-9.77063
▁plant	-9.77101
▁punish	-9.77551
▁neighbor	-9.77574
▁embassy	-9.7758
▁everybody	-9.7758
▁suspect	-9.7758
▁sugar	-9.77582
▁nonsense	-9.77585
▁stack	-9.77596
▁ideology	-9.77601
▁mar	-9.77644
▁media	-9.77743
ass	-9.77887
▁75	-9.77993
▁fa	-9.7811
▁learning	-9.78165
▁united	-9.78188
▁absurd	-9.78506
▁fashion	-9.78506
▁initiative	-9.78506
▁welfare	-9.78506
▁smooth	-9.78507
▁clown	-9.78511
▁ikman	-9.78512
▁rush	-9.78513
▁agenda	-9.78524
▁2021	-9.78532
▁scammer	-9.78752
▁lane	-9.78765
ative	-9.78878
ory	-9.7901
▁pe	-9.79279
tal	-9.7939
▁chocolate	-9.7944
▁garden	-9.79441
▁crook	-9.79441
▁label	-9.79466
▁cima	-9.79467
▁reference	-9.79467
▁wash	-9.79484
▁progressive	-9.79505
▁earth	-9.79526
▁workplace	-9.7968
du	-9.7975
▁en	-9.79868
▁cab	-9.79918
▁initially	-9.79979
▁cc	-9.80036
▁cla	-9.80138
▁harm	-9.80336
▁clue	-9.80373
▁convenient	-9.80384
▁discrimination	-9.80384
▁plastic	-9.80384
▁tower	-9.80385
▁yea	-9.80396
▁tight	-9.80408
▁manner	-9.80468
▁pi	-9.80508
▁cus	-9.80657
▁selection	-9.80723
▁bed	-9.80728
▁australian	-9.80826
▁shock	-9.80913
base	-9.80941
▁sm	-9.80969
▁neithe	-9.81116
▁da	-9.81185
venue	-9.8126
▁predict	-9.81275
▁lower	-9.81311
▁chatgpt	-9.81336
▁declare	-9.81336
▁medication	-9.81336
▁unfair	-9.81336
▁reveal	-9.81337
▁entrance	-9.81337
▁biology	-9.8134
▁leaf	-9.81341
▁negotiate	-9.81353
▁bail	-9.81366
▁civilian	-9.81382
▁lgbtq	-9.81389
▁graphic	-9.81531
▁dual	-9.81535
flow	-9.81584
▁five	-9.81733
ability	-9.81889
▁paint	-9.8189
▁ah	-9.82031
▁600	-9.82047
gg	-9.8223
▁va	-9.82247
▁auto	-9.82295
▁premadasa	-9.82298
▁daughter	-9.82298
▁error	-9.82298
▁southern	-9.82302
▁guest	-9.82306
▁chase	-9.82308
▁specialize	-9.82397
▁understanding	-9.82414
▁che	-9.82486
lkr	-9.82513
▁99	-9.8263
int	-9.82686
pm	-9.82767
▁hill	-9.82982
▁29	-9.8317
▁anuradhapura	-9.83269
▁nugegoda	-9.83269
▁surround	-9.83269
▁undergrad	-9.83269
▁indeed	-9.83269
▁regime	-9.83277
▁micro	-9.83283
▁sky	-9.83306
▁shopping	-9.8333
▁wow	-9.83369
▁van	-9.83381
▁isp	-9.83423
▁calm	-9.83462
▁abt	-9.8353
▁traveler	-9.83554
▁tri	-9.83617
▁educational	-9.83844
▁trick	-9.83987
lt	-9.84029
▁wing	-9.84126
▁enforce	-9.84214
▁downvote	-9.84249
▁flood	-9.84249
▁hustle	-9.84249
▁kottu	-9.84249
▁resolve	-9.84249
▁nurse	-9.84249
▁invite	-9.84249
▁split	-9.84249
▁habit	-9.8425
▁propose	-9.84253
▁expose	-9.84255
rt	-9.84261
▁chain	-9.84268
▁household	-9.84269
▁liberal	-9.84278
aka	-9.84298
▁gig	-9.84342
▁collection	-9.84452
▁sum	-9.84726
▁concerned	-9.8486
▁harsha	-9.8494
▁opt	-9.85122
▁bangladesh	-9.85239
▁immigrant	-9.85239
▁prison	-9.85239
▁witness	-9.85239
▁appeal	-9.85244
▁curry	-9.85255
▁expand	-9.85261
▁retirement	-9.85281
▁tin	-9.85316
rate	-9.85353
que	-9.85368
▁gl	-9.85427
▁mini	-9.85457
▁sustainable	-9.85495
ose	-9.85623
▁highlight	-9.85759
fa	-9.8586
▁sometime	-9.85936
▁german	-9.85974
▁climb	-9.86239
▁entrepreneur	-9.86239
▁inflate	-9.86239
▁flash	-9.86244
▁tree	-9.86247
▁smile	-9.86251
▁120	-9.86256
▁ofc	-9.86256
▁grab	-9.86277
adband	-9.86287
▁journalist	-9.86294
▁scared	-9.86444
ini	-9.86788
▁historical	-9.86878
▁rat	-9.8694
▁gpa	-9.86954
▁tb	-9.87049
▁log	-9.87159
what	-9.87207
▁dambulla	-9.87249
▁proceed	-9.87249
▁skull	-9.8725
▁unsure	-9.87251
▁outlet	-9.87258
▁forever	-9.87267
▁plantation	-9.873
ris	-9.87316
▁spam	-9.8736
▁cmb	-9.87388
▁electrical	-9.87393
vo	-9.87403
▁pv	-9.8752
▁zone	-9.87528
gu	-9.87586
con	-9.87637
▁col	-9.87692
▁character	-9.8786
ud	-9.87965
▁grocery	-9.8827
▁privacy	-9.8827
▁recognition	-9.8827
▁availability	-9.8827
▁trcsl	-9.88272
▁cabinet	-9.88273
▁commute	-9.88274
▁brown	-9.88276
▁colour	-9.88276
▁surgery	-9.88278
▁smell	-9.8829
▁nope	-9.88295
▁epf	-9.88296
▁failure	-9.88317
ff	-9.88456
ted	-9.88472
▁certainly	-9.88534
▁the	-9.88752
ack	-9.88764
▁aid	-9.88847
▁el	-9.88862
necessarily	-9.89004
▁rob	-9.89121
▁soo	-9.89164
▁arrange	-9.89267
▁secret	-9.89271
▁ma	-9.89294
▁analytic	-9.89301
▁android	-9.89301
▁fundamental	-9.89301
▁pettah	-9.89304
▁automatically	-9.89306
▁hindu	-9.89312
▁icbt	-9.89322
▁authentic	-9.89331
▁yep	-9.89358
▁fitness	-9.89378
ja	-9.89418
dr	-9.89552
▁ran	-9.89733
▁jan	-9.89759
▁typically	-9.89816
▁dealer	-9.90056
▁id	-9.90057
uae	-9.90175
▁addition	-9.90228
▁flow	-9.90267
▁announce	-9.90309
▁junior	-9.90342
▁participate	-9.90342
▁ultra	-9.90343
▁analysis	-9.90343
▁boost	-9.90344
▁crack	-9.90349
▁mechanical	-9.904
▁tap	-9.90427
▁slave	-9.90439
▁di	-9.9044
che	-9.90662
▁eastern	-9.90667
▁ce	-9.90746
tin	-9.90759
▁earning	-9.90888
▁ga	-9.90897
11	-9.90913
▁pol	-9.90938
gen	-9.90954
▁essentially	-9.91096
ger	-9.91116
ible	-9.91247
ner	-9.91283
▁dehiwala	-9.91395
▁depreciate	-9.91395
▁frustrating	-9.91395
▁vaccinate	-9.91395
▁pattern	-9.91395
▁adhd	-9.91395
▁urban	-9.91407
▁entity	-9.91417
▁2026	-9.91429
▁passionate	-9.91439
▁pix	-9.91447
gr	-9.91518
▁im	-9.9163
▁mbps	-9.91731
▁maha	-9.91761
▁bomb	-9.9217
▁additionally	-9.92183
▁wo	-9.92241
ley	-9.92296
▁advertise	-9.92422
▁how	-9.92454
▁bridge	-9.92459
▁intelligence	-9.92459
▁outcome	-9.92459
▁peradeniya	-9.92459
▁vision	-9.92461
▁statistic	-9.92465
▁depression	-9.92489
▁2018	-9.9249
▁cake	-9.92499
▁pot	-9.92633
▁thi	-9.92677
net	-9.92726
▁lift	-9.92745
▁fds	-9.92895
▁hack	-9.92904
pl	-9.92992
▁lab	-9.93006
▁scar	-9.93016
you	-9.93067
▁moral	-9.93342
▁translate	-9.93534
▁intend	-9.93535
▁faith	-9.93539
▁plain	-9.93574
▁pathway	-9.9358
▁appreciated	-9.93623
▁democratic	-9.93627
▁accountability	-9.93628
▁replacement	-9.93633
▁scope	-9.93688
▁ik	-9.93853
▁slip	-9.93879
cy	-9.93888
▁acc	-9.93945
dy	-9.94213
▁pen	-9.9433
▁admission	-9.94621
▁afaik	-9.94621
▁remittance	-9.94621
▁scooter	-9.94621
▁lunch	-9.9463
▁entertainment	-9.94634
▁elsewhere	-9.94637
▁wallet	-9.94646
unt	-9.9471
▁selfish	-9.94728
▁minor	-9.9475
ese	-9.95006
▁unlikely	-9.95182
ator	-9.95187
▁wave	-9.95197
▁bite	-9.9536
▁retail	-9.95514
▁fk	-9.95718
▁rugby	-9.9572
▁sacrifice	-9.9572
▁pretend	-9.9572
▁sentence	-9.9572
▁sweet	-9.9572
▁minimal	-9.9572
▁tooth	-9.95723
▁smoke	-9.95724
▁overnight	-9.95725
▁qualified	-9.95729
▁installment	-9.95741
▁clearance	-9.95795
▁confidence	-9.95826
▁trial	-9.95835
side	-9.96207
▁core	-9.96337
▁fry	-9.96347
▁ku	-9.96367
point	-9.96523
thi	-9.96787
▁margin	-9.9682
▁criticism	-9.96831
▁exempt	-9.96831
▁hsbc	-9.96831
▁organisation	-9.96831
▁domestic	-9.96831
▁ongoing	-9.96831
▁toilet	-9.96832
▁derana	-9.96832
▁nowhere	-9.96834
▁ntb	-9.96837
▁trustworthy	-9.9684
▁meanwhile	-9.96842
▁meter	-9.96854
▁assignment	-9.96856
▁pair	-9.96877
▁elder	-9.96912
▁related	-9.96936
▁coverage	-9.97011
▁lend	-9.97027
▁tag	-9.971
ali	-9.97208
istic	-9.97232
24	-9.97233
▁wealthy	-9.97416
▁alive	-9.9747
care	-9.97597
mn	-9.97708
▁ear	-9.97749
▁hype	-9.9775
▁manufacture	-9.97787
▁russia	-9.97863
▁adjust	-9.97932
▁affair	-9.97955
▁audience	-9.97955
▁charity	-9.97955
▁circumstance	-9.97955
▁empty	-9.97955
▁tangalle	-9.97955
▁conservative	-9.97956
▁utility	-9.97957
▁discover	-9.97965
▁hunt	-9.97994
▁victory	-9.98018
▁allowance	-9.98085
▁drag	-9.98114
▁bully	-9.98149
▁tiny	-9.98265
right	-9.9833
▁dear	-9.98404
▁guard	-9.98481
▁warn	-9.98946
5000	-9.99021
▁behaviour	-9.99091
▁cambridge	-9.99091
▁hiriketiya	-9.99091
▁mountain	-9.99091
▁barrier	-9.99091
▁pricing	-9.99092
▁suburb	-9.99092
isation	-9.99092
▁telegram	-9.99092
▁instance	-9.99093
▁railway	-9.99094
▁psychiatrist	-9.99099
▁asshole	-9.991
▁soul	-9.99121
▁blow	-9.99125
▁membership	-9.99136
they	-9.99137
▁disaster	-9.99146
cient	-9.9921
▁nationalist	-9.99342
ping	-9.99794
▁director	-9.99819
▁rough	-9.99839
▁consult	-9.99857
house	-9.99966
▁designer	-10.0003
sit	-10.0014
▁allocate	-10.0024
▁diaspora	-10.0024
▁equivalent	-10.0024
▁regulate	-10.0024
▁ucsc	-10.0024
▁canadian	-10.0024
▁ag	-10.0027
▁rude	-10.0029
▁hostel	-10.0029
▁salt	-10.0032
▁alright	-10.0034
▁worship	-10.0038
▁coin	-10.0047
ow	-10.006
▁roughly	-10.0064
ela	-10.0066
my	-10.007
▁36	-10.0083
tro	-10.0084
▁5000	-10.0109
▁kit	-10.0111
▁profession	-10.0112
eye	-10.0115
▁95	-10.0118
98	-10.0119
ight	-10.012
75	-10.0139
▁combination	-10.014
▁describe	-10.014
▁exposure	-10.014
▁powder	-10.014
▁suicide	-10.014
▁royal	-10.014
▁six	-10.0141
▁100000	-10.0141
▁secretary	-10.0144
▁wheel	-10.0144
▁audit	-10.0145
▁rainy	-10.0153
▁glass	-10.0159
▁inf	-10.0161
▁socialism	-10.0163
ith	-10.0188
uck	-10.0195
itie	-10.0201
▁rap	-10.0208
▁vet	-10.0237
▁recruit	-10.0238
mon	-10.0239
list	-10.0241
▁confident	-10.0257
core	-10.0258
▁explanation	-10.0258
▁narrative	-10.0258
▁succeed	-10.0258
▁criticize	-10.0258
▁shirt	-10.0258
▁creative	-10.0259
▁boss	-10.0261
▁define	-10.0261
▁cheat	-10.0261
▁experienced	-10.0266
ponent	-10.0273
▁nu	-10.0285
▁du	-10.0286
▁difficulty	-10.0293
100	-10.0296
▁constant	-10.0337
▁contain	-10.0363
▁cos	-10.0367
▁beg	-10.0373
▁restructure	-10.0378
▁leak	-10.0378
▁expat	-10.038
▁nah	-10.0382
▁keell	-10.0383
▁favour	-10.0388
▁improvement	-10.04
▁rating	-10.0414
▁evil	-10.0422
lic	-10.0431
▁recovery	-10.0439
ency	-10.0454
▁manipulate	-10.0485
▁favor	-10.0486
era	-10.0491
▁officially	-10.0496
▁thief	-10.0498
▁burger	-10.0498
ual	-10.0498
by	-10.0499
▁shout	-10.05
▁lean	-10.0503
▁enable	-10.0506
▁commitment	-10.0508
▁react	-10.051
tra	-10.0511
▁advanced	-10.0547
iz	-10.0554
ier	-10.0582
▁expire	-10.0583
▁rec	-10.0599
ball	-10.0606
lan	-10.0608
45	-10.0615
fl	-10.0616
rn	-10.0618
▁ignorant	-10.0619
▁softlogic	-10.0619
▁somebody	-10.0619
▁storage	-10.0619
▁vpn	-10.062
▁koko	-10.062
▁eligible	-10.062
storm	-10.0621
▁textbook	-10.0622
▁accent	-10.0622
▁parking	-10.0625
07	-10.0626
▁capable	-10.0631
wise	-10.0647
▁ethical	-10.0657
▁wind	-10.0664
▁correctly	-10.0694
▁10000	-10.071
▁ip	-10.0718
▁chem	-10.0732
▁addict	-10.0737
▁percent	-10.074
▁decrease	-10.0743
▁disappear	-10.0743
▁friday	-10.0743
▁professor	-10.0743
▁recognise	-10.0743
▁surprising	-10.0743
▁century	-10.0743
▁steam	-10.0743
▁battle	-10.0743
▁buck	-10.0746
▁peep	-10.0746
▁har	-10.0747
tt	-10.0751
▁february	-10.0751
▁sufficient	-10.076
box	-10.0765
▁viable	-10.0766
▁profitable	-10.0772
▁globally	-10.0776
▁govern	-10.0782
▁ed	-10.0782
▁economically	-10.0787
▁finger	-10.0797
ase	-10.0808
ull	-10.0823
▁nav	-10.084
mm	-10.084
▁consume	-10.0851
▁christian	-10.0865
▁john	-10.0868
▁twitter	-10.0868
▁violent	-10.0868
▁beaut	-10.0868
▁cancer	-10.0869
▁ease	-10.0871
▁fin	-10.0873
▁ten	-10.0876
90	-10.0877
▁honda	-10.0881
▁agriculture	-10.0881
ik	-10.089
▁portal	-10.0923
▁booking	-10.0931
▁para	-10.0937
▁tf	-10.0937
af	-10.0938
▁successfully	-10.0953
▁sur	-10.0958
▁activate	-10.0994
▁compensation	-10.0994
▁encounter	-10.0994
▁locate	-10.0994
▁obsess	-10.0995
▁psychology	-10.0995
▁diesel	-10.0995
▁korea	-10.0995
▁traveller	-10.0995
▁meaningful	-10.0996
▁jack	-10.0997
▁panel	-10.0998
▁severe	-10.1083
▁funding	-10.1107
▁accountable	-10.1122
▁ahangama	-10.1123
▁escape	-10.1123
▁nissan	-10.1123
▁occur	-10.1123
▁pandemic	-10.1123
▁semester	-10.1123
▁christmas	-10.1123
▁nibm	-10.1123
▁temu	-10.1123
▁italy	-10.1123
▁industrial	-10.1124
▁governance	-10.1124
▁punishment	-10.1128
phone	-10.1131
tch	-10.1134
▁1500	-10.1137
▁2010	-10.1138
▁plate	-10.1142
ign	-10.1156
▁rajapaksas	-10.1157
▁bombing	-10.116
▁lion	-10.1174
▁ft	-10.1178
▁cable	-10.1201
▁imp	-10.1206
wi	-10.1216
▁accounting	-10.1234
▁indicat	-10.1245
how	-10.1247
▁vaccination	-10.1253
▁cringe	-10.1253
▁rape	-10.1253
▁flexible	-10.1253
▁acknowledge	-10.1256
▁norm	-10.1258
▁otp	-10.1258
▁childhood	-10.1259
▁disgusting	-10.1267
▁boot	-10.1289
▁cater	-10.1309
yr	-10.1318
▁lovely	-10.1325
▁mu	-10.1328
▁priorit	-10.1335
uru	-10.1338
aming	-10.1343
▁immediate	-10.1344
▁mora	-10.1357
vent	-10.1371
▁ring	-10.1371
▁treasury	-10.1384
▁shape	-10.1384
▁swim	-10.1384
▁fyi	-10.1384
▁riot	-10.1384
▁relation	-10.1384
▁stem	-10.1385
▁buddha	-10.1389
paid	-10.1393
▁guilty	-10.1397
▁mail	-10.1397
soon	-10.1417
▁classic	-10.146
▁ego	-10.1462
▁aud	-10.1471
▁consistent	-10.1478
own	-10.1483
▁villa	-10.1492
▁assault	-10.1517
▁eelam	-10.1517
▁french	-10.1517
▁heritage	-10.1517
▁hobby	-10.1517
▁lazy	-10.1518
▁pathetic	-10.1518
▁sharing	-10.1518
▁bud	-10.1518
▁quota	-10.1521
▁niche	-10.1522
▁warm	-10.1524
esh	-10.1526
▁grid	-10.1534
77	-10.1535
▁starting	-10.1543
ide	-10.1544
▁tear	-10.1588
ute	-10.1589
▁san	-10.1593
▁serv	-10.1594
behave	-10.16
ility	-10.1602
▁unity	-10.161
▁fold	-10.1618
14	-10.1618
▁server	-10.1632
▁tra	-10.1641
▁rot	-10.1651
▁prospect	-10.1653
▁criterion	-10.1653
▁depreciation	-10.1653
▁translation	-10.1653
▁trigger	-10.1653
▁award	-10.1657
▁ownership	-10.1658
▁buyer	-10.1666
▁uom	-10.1681
pp	-10.1682
▁nov	-10.1692
▁farmer	-10.1693
▁ap	-10.1697
▁sight	-10.1698
gh	-10.1715
hari	-10.1716
▁regional	-10.1729
▁ceo	-10.1735
▁gf	-10.1746
▁clinic	-10.1754
try	-10.176
▁emotion	-10.1778
▁65	-10.1781
▁bla	-10.1783
▁bentota	-10.179
▁league	-10.179
▁ocean	-10.179
▁principle	-10.179
▁subscription	-10.179
▁variety	-10.179
▁licence	-10.179
▁insult	-10.179
▁presence	-10.179
▁terrorism	-10.179
▁reputabl	-10.1791
▁visible	-10.1794
▁roof	-10.1799
▁dump	-10.1799
away	-10.1807
ura	-10.1815
cha	-10.1819
iness	-10.1827
▁personality	-10.1833
▁utter	-10.1835
ound	-10.1845
pr	-10.1857
pet	-10.186
▁tha	-10.1871
tc	-10.1871
▁my	-10.1872
▁dish	-10.1893
▁wf	-10.1904
▁del	-10.1915
▁restrict	-10.1921
▁colonial	-10.1927
▁convenience	-10.1928
▁mislead	-10.1928
▁proposal	-10.1928
▁relief	-10.1928
▁tshirt	-10.1928
▁exceed	-10.1929
▁fruit	-10.1929
▁consent	-10.1929
▁freak	-10.1929
▁gateway	-10.1929
▁amendment	-10.193
▁repute	-10.1932
▁hall	-10.1937
▁broad	-10.1939
like	-10.1948
▁islam	-10.1957
▁bias	-10.1965
head	-10.1976
▁hon	-10.1982
▁payone	-10.1985
▁ir	-10.1987
▁publicly	-10.2003
▁operat	-10.2031
▁mouth	-10.204
▁renew	-10.206
▁afterwards	-10.2069
▁allegation	-10.2069
▁amazon	-10.2069
▁behalf	-10.2069
▁kitchen	-10.2069
▁legitimate	-10.2069
▁phase	-10.2069
▁supplement	-10.2069
▁vietnam	-10.2069
▁intake	-10.2069
▁angry	-10.2069
▁vacanc	-10.207
▁contribution	-10.207
▁republic	-10.2071
▁java	-10.2072
▁realistic	-10.2076
▁complicated	-10.2076
▁owe	-10.2078
▁communist	-10.2078
▁setting	-10.2078
▁vast	-10.2079
▁internationally	-10.2088
▁frequently	-10.21
mouth	-10.21
place	-10.2103
▁lake	-10.2107
ani	-10.2116
▁investing	-10.2117
▁reminder	-10.2118
▁earner	-10.212
▁reading	-10.2139
pura	-10.2141
rie	-10.2141
ade	-10.2154
▁where	-10.2162
▁spec	-10.217
▁urgent	-10.2173
▁pin	-10.2175
▁wh	-10.218
▁emotional	-10.2183
▁cam	-10.2189
▁56	-10.2194
▁flat	-10.2206
▁anxiety	-10.2212
▁catholic	-10.2212
▁discourage	-10.2212
▁incredibly	-10.2212
▁radio	-10.2212
▁sentiment	-10.2212
▁ukraine	-10.2212
▁parcel	-10.2212
▁kelaniya	-10.2212
▁venture	-10.2213
▁sheet	-10.2216
▁thus	-10.2218
▁55	-10.2219
▁fulltime	-10.2224
▁workforce	-10.2225
▁32	-10.2228
▁chip	-10.2234
▁boc	-10.2238
▁thumbs	-10.2255
▁ke	-10.2278
▁physically	-10.2278
▁thr	-10.2283
▁hole	-10.2285
hat	-10.2285
her	-10.2303
spare	-10.2304
▁800	-10.2312
▁31	-10.2318
▁wherea	-10.2332
▁accus	-10.2334
▁fi	-10.2335
▁shall	-10.2348
▁superior	-10.2354
▁determine	-10.2357
▁excellent	-10.2357
▁neutral	-10.2357
▁supreme	-10.2357
▁unawatuna	-10.2357
▁disease	-10.2357
▁swimming	-10.2357
▁tactic	-10.2357
▁matara	-10.2357
▁literature	-10.2357
▁brutal	-10.2357
▁assistance	-10.2358
▁etf	-10.2358
▁favorite	-10.2358
▁edge	-10.236
▁forum	-10.236
▁fucker	-10.2365
▁yr	-10.2366
uk	-10.2366
▁dive	-10.2369
put	-10.2371
▁parttime	-10.2379
▁opening	-10.2381
▁mentally	-10.2387
▁politically	-10.2387
▁mature	-10.2388
▁wonderful	-10.2389
andor	-10.2389
▁sta	-10.239
ingly	-10.2423
▁ju	-10.244
▁gu	-10.2445
900	-10.2449
▁mum	-10.2465
set	-10.2466
▁practically	-10.2478
▁hv	-10.2481
▁overprice	-10.2483
▁cur	-10.2484
▁strange	-10.2488
▁abolish	-10.2504
▁mirror	-10.2504
▁prescription	-10.2504
▁saturday	-10.2504
▁shady	-10.2504
▁border	-10.2505
▁filter	-10.2505
▁gear	-10.2507
▁impression	-10.2508
▁keen	-10.2509
let	-10.2509
riya	-10.2512
▁resignation	-10.2513
friendly	-10.2515
▁uoc	-10.2524
▁kindly	-10.2549
▁acceptable	-10.2551
▁diet	-10.2555
ring	-10.2566
ula	-10.2597
▁scan	-10.2608
▁sing	-10.261
▁waiting	-10.261
port	-10.2625
▁slight	-10.2631
friend	-10.2648
▁backup	-10.2651
▁abortion	-10.2653
▁defense	-10.2653
▁exclude	-10.2653
▁exhaust	-10.2653
▁permission	-10.2653
▁quarter	-10.2653
▁shampoo	-10.2653
▁brief	-10.2653
▁zoom	-10.2653
▁contest	-10.2653
▁bedroom	-10.2654
▁racial	-10.2654
▁midnight	-10.2654
▁ndb	-10.2655
▁trail	-10.2656
▁differently	-10.2658
ular	-10.2663
▁swear	-10.2665
▁rom	-10.2666
▁3000	-10.2666
▁symbol	-10.2674
ny	-10.2681
ude	-10.2685
▁tank	-10.2685
▁kg	-10.2689
▁men	-10.2695
wide	-10.2698
▁wanted	-10.2715
▁prop	-10.272
emote	-10.2726
▁aw	-10.2755
▁hu	-10.2763
low	-10.2767
▁bug	-10.2791
▁horr	-10.2792
▁therap	-10.2802
▁qa	-10.2804
▁compromise	-10.2805
▁efficiency	-10.2805
▁ordinary	-10.2805
▁scratch	-10.2805
▁unemployed	-10.2805
▁resume	-10.2805
▁corner	-10.2805
shrugging	-10.2805
▁adida	-10.2805
▁broadcast	-10.2805
▁corporation	-10.2805
▁architecture	-10.2805
▁moron	-10.2806
▁pride	-10.2807
▁wire	-10.2812
▁backpack	-10.2822
▁withdrawal	-10.2831
▁dependent	-10.2834
▁cell	-10.2835
▁toward	-10.2836
board	-10.2839
▁ru	-10.284
any	-10.2841
▁friendship	-10.2842
▁minded	-10.2845
▁origin	-10.2854
▁shel	-10.2868
▁equally	-10.2877
▁ca	-10.2889
▁shed	-10.2891
▁badly	-10.2899
▁customs	-10.2923
▁scen	-10.2947
ort	-10.2948
ple	-10.2956
ock	-10.2957
▁analyst	-10.2959
▁consumption	-10.2959
▁economist	-10.2959
▁maldive	-10.2959
▁torture	-10.2959
▁uncomfortable	-10.2959
▁uneducated	-10.2959
▁violation	-10.2959
▁deficit	-10.2959
▁hikkaduwa	-10.2959
▁mosque	-10.2959
▁nepal	-10.2959
▁hatred	-10.2959
▁northern	-10.2959
▁extension	-10.296
▁beneficial	-10.296
▁necessity	-10.2961
▁pump	-10.2962
▁headache	-10.2962
▁malay	-10.2964
▁excited	-10.2971
▁rally	-10.2976
nga	-10.2987
▁plot	-10.2993
▁higher	-10.301
ung	-10.3011
ju	-10.3012
atha	-10.3015
▁pub	-10.302
just	-10.3025
car	-10.3033
23	-10.3046
16	-10.305
▁ye	-10.3055
▁og	-10.307
▁bull	-10.3096
▁sec	-10.31
▁qu	-10.3106
van	-10.3109
▁bandaranaike	-10.3115
▁courier	-10.3115
▁happiness	-10.3115
▁stretch	-10.3115
▁onwards	-10.3115
▁nomad	-10.3115
▁module	-10.3115
▁suv	-10.3115
▁kingdom	-10.3116
▁misuse	-10.3117
▁alert	-10.3117
▁whil	-10.3117
▁slfp	-10.3119
▁hotline	-10.312
have	-10.312
▁reward	-10.3125
▁collective	-10.3128
▁manufacturer	-10.3138
vert	-10.3152
▁russian	-10.3156
▁interact	-10.3157
▁semi	-10.3159
ixed	-10.319
▁spa	-10.3194
▁goon	-10.3195
▁rep	-10.321
▁comm	-10.3231
ong	-10.3237
▁author	-10.3267
▁africa	-10.327
▁abandon	-10.3274
▁frustrate	-10.3274
▁subsidy	-10.3274
▁writing	-10.3274
▁examination	-10.3274
▁drunk	-10.3274
▁verification	-10.3274
▁anime	-10.3274
▁grind	-10.3274
▁programming	-10.3274
▁wrap	-10.3274
▁feasible	-10.3274
▁interior	-10.3275
▁esoft	-10.3276
▁awful	-10.3276
oke	-10.3277
▁breath	-10.328
▁hardware	-10.3281
inate	-10.3282
ake	-10.3283
▁marketplace	-10.3284
▁affiliate	-10.3286
▁achievement	-10.329
▁handout	-10.33
aga	-10.3314
▁fup	-10.3315
she	-10.3321
▁dil	-10.3325
▁pray	-10.3335
usd	-10.3337
▁sole	-10.3343
▁aka	-10.3352
▁selling	-10.3369
col	-10.3376
▁cast	-10.3383
▁sus	-10.3385
od	-10.339
wan	-10.3396
law	-10.3397
▁enrol	-10.34
▁annoy	-10.3403
▁flee	-10.3422
▁os	-10.3424
▁assign	-10.3434
▁flex	-10.3435
▁description	-10.3435
▁expenditure	-10.3435
▁applicable	-10.3435
▁chaos	-10.3435
▁narrow	-10.3436
par	-10.3436
▁spotify	-10.3441
ology	-10.3441
▁desire	-10.3442
▁transition	-10.3442
▁reverse	-10.3444
▁respectful	-10.3444
can	-10.3456
▁boil	-10.3458
nna	-10.3461
▁warning	-10.3479
pack	-10.348
▁pill	-10.3509
cious	-10.3511
ima	-10.3515
▁observe	-10.3515
▁at	-10.3526
▁perk	-10.3529
▁exception	-10.3533
ooo	-10.3536
300	-10.3538
▁ib	-10.3539
nity	-10.3545
raja	-10.3552
▁unfortunate	-10.3559
▁bot	-10.3559
▁convers	-10.3566
▁wav	-10.357
▁instal	-10.3574
get	-10.3577
float	-10.3585
▁separately	-10.3589
▁dictator	-10.3598
▁bracket	-10.3599
▁graduation	-10.3599
▁inspire	-10.3599
▁unpopular	-10.3599
▁volume	-10.3599
▁weapon	-10.3599
▁worst	-10.3599
▁loophole	-10.3599
which	-10.3599
▁acquire	-10.3601
▁revolution	-10.3601
▁thug	-10.3602
▁innovation	-10.3604
▁heck	-10.3604
▁stressful	-10.3606
▁capitalism	-10.3606
▁jaya	-10.3613
▁outdated	-10.3617
▁attractive	-10.3619
▁mf	-10.3621
tle	-10.3627
▁menu	-10.3631
▁monkey	-10.3638
800	-10.3639
▁chair	-10.3642
▁emotionally	-10.3647
free	-10.3649
▁350	-10.3669
▁supportive	-10.3673
▁heal	-10.3677
▁more	-10.3685
▁2500	-10.3693
17	-10.3708
56	-10.3716
har	-10.3751
▁civi	-10.3751
▁33	-10.3753
▁for	-10.3762
04	-10.3762
▁audio	-10.3764
▁easier	-10.3766
▁enthusiast	-10.3766
▁tournament	-10.3766
▁defeat	-10.3766
▁praise	-10.3766
▁bloat	-10.3766
▁silva	-10.3766
▁bubble	-10.3766
▁literacy	-10.3766
▁downside	-10.3767
▁chemical	-10.3767
▁capability	-10.3767
▁representative	-10.3767
▁assistant	-10.3768
▁bread	-10.3769
▁strongly	-10.3771
▁navigate	-10.3771
▁uniform	-10.3771
▁prepay	-10.3771
▁admin	-10.3772
▁investigate	-10.3778
▁nationalism	-10.3784
▁nut	-10.3786
▁broken	-10.3789
▁mere	-10.3791
▁singer	-10.3799
▁wipe	-10.3803
▁hospitality	-10.3805
relate	-10.3807
▁fare	-10.3807
13	-10.3807
▁crowded	-10.381
sensitive	-10.3816
35	-10.3817
▁script	-10.3836
▁700	-10.3841
▁ml	-10.3856
agama	-10.3862
air	-10.3867
▁bu	-10.3872
uff	-10.3878
▁joint	-10.3888
ies	-10.3891
▁fluent	-10.3897
▁85	-10.3907
▁importer	-10.392
▁sustain	-10.393
▁transit	-10.3933
▁incentive	-10.3935
▁introvert	-10.3935
▁newspaper	-10.3935
▁offense	-10.3935
▁increment	-10.3935
▁leasing	-10.3935
▁litter	-10.3935
▁organic	-10.3935
▁flu	-10.3935
▁accessible	-10.3939
tefree	-10.3943
▁urge	-10.3947
▁mag	-10.3956
▁privately	-10.3961
▁wood	-10.3967
▁gpu	-10.3976
▁247	-10.3976
uwa	-10.399
▁acca	-10.3991
22	-10.3991
▁visitor	-10.3996
▁fam	-10.3999
lly	-10.4034
code	-10.4038
lle	-10.4039
war	-10.4061
▁cooking	-10.4063
▁900	-10.407
dict	-10.4072
ium	-10.4077
▁capture	-10.4108
▁fernando	-10.4108
▁netflix	-10.4108
▁principal	-10.4108
▁purchasing	-10.4108
▁saturate	-10.4108
▁screenshot	-10.4108
▁pilot	-10.4108
▁mutual	-10.4108
▁satisfied	-10.4108
▁taxpayer	-10.4108
▁snack	-10.4108
▁pension	-10.4108
ifemo	-10.4109
▁lodg	-10.411
▁distract	-10.411
▁indoor	-10.4111
▁thrive	-10.4111
▁2017	-10.4113
▁packet	-10.4114
▁governor	-10.4118
▁metal	-10.4118
▁reaction	-10.4118
▁reside	-10.4123
▁adam	-10.4123
▁tall	-10.4126
▁2030	-10.4131
▁pickup	-10.4132
▁ssd	-10.4134
▁thru	-10.4134
▁nail	-10.4144
▁mari	-10.4147
▁scary	-10.416
▁environmental	-10.4171
▁ent	-10.4173
▁sms	-10.4181
▁bell	-10.4189
duction	-10.4192
pre	-10.4193
ward	-10.4201
▁ratio	-10.4219
iff	-10.4226
ave	-10.4243
▁peo	-10.4243
▁trans	-10.4257
▁pad	-10.4259
▁shower	-10.4278
▁indonesia	-10.4283
▁landscape	-10.4283
▁studio	-10.4283
▁temperature	-10.4283
▁exercise	-10.4283
▁italian	-10.4283
▁recipe	-10.4283
▁lavinia	-10.4283
▁rumor	-10.4283
▁vezel	-10.4283
▁browse	-10.4283
▁framework	-10.4284
▁making	-10.4284
▁suspicious	-10.4284
▁logistic	-10.4284
▁neighborhood	-10.4284
▁objective	-10.4285
▁monday	-10.4286
▁creator	-10.4286
▁apiit	-10.4288
▁bribery	-10.4289
▁cfa	-10.4291
▁deeply	-10.4291
18	-10.4299
▁teen	-10.4303
▁bout	-10.431
▁fore	-10.4319
▁cd	-10.4321
▁after	-10.4344
lock	-10.4344
▁farming	-10.4345
power	-10.4348
▁logical	-10.4353
sman	-10.4353
▁streaming	-10.4355
related	-10.4371
ample	-10.4398
ena	-10.4419
gama	-10.443
▁curiosity	-10.4462
▁frustration	-10.4462
▁furniture	-10.4462
▁motorcycl	-10.4462
▁outdoor	-10.4462
▁swift	-10.4462
▁tattoo	-10.4462
▁miracle	-10.4462
▁organise	-10.4462
▁airtel	-10.4462
▁anonymous	-10.4462
▁abans	-10.4462
▁migrating	-10.4462
▁comfortably	-10.4463
▁polite	-10.4463
▁legend	-10.4464
▁repayment	-10.4464
▁spice	-10.4464
▁duration	-10.4465
▁hd	-10.4467
▁2016	-10.4468
mate	-10.4472
▁ec	-10.4473
▁yt	-10.4476
▁follower	-10.448
▁mask	-10.4487
▁largely	-10.4491
▁dia	-10.4491
▁pant	-10.4493
▁exit	-10.4494
nda	-10.4497
▁solely	-10.4507
front	-10.4528
26	-10.4529
fc	-10.4533
▁plane	-10.4537
▁ham	-10.4538
▁incompeten	-10.4553
▁cho	-10.4563
400	-10.4569
iva	-10.4572
▁slap	-10.4579
nce	-10.4579
▁bas	-10.4581
▁outsourc	-10.4581
▁gate	-10.4581
▁eng	-10.4583
▁came	-10.459
▁economical	-10.4597
▁if	-10.4603
▁pl	-10.4603
▁ge	-10.4606
ira	-10.4617
case	-10.462
▁peg	-10.4622
▁mfs	-10.4622
shop	-10.4629
▁ui	-10.463
▁mechanic	-10.4633
tech	-10.4639
▁enterprise	-10.4643
▁penalty	-10.4643
▁receipt	-10.4643
▁gotabaya	-10.4643
▁aussie	-10.4643
▁bathroom	-10.4644
▁bankruptcy	-10.4645
▁appropriate	-10.4647
▁jam	-10.4648
▁alliance	-10.4649
▁dirty	-10.4655
▁perera	-10.4656
▁panic	-10.4657
▁cave	-10.4661
▁photography	-10.467
ram	-10.4675
▁nadu	-10.4686
ux	-10.4693
▁thin	-10.4698
▁bitch	-10.47
▁hut	-10.4706
▁den	-10.4709
▁pu	-10.471
ache	-10.4713
circle	-10.4716
▁dose	-10.4724
▁qr	-10.4735
▁api	-10.4754
ike	-10.4754
top	-10.4774
▁artificial	-10.4788
▁frequent	-10.4788
▁learner	-10.4789
this	-10.4799
▁sooo	-10.4807
▁outdate	-10.4808
rave	-10.4818
▁cautious	-10.4829
▁conference	-10.4829
▁crucial	-10.4829
▁discriminate	-10.4829
▁episode	-10.4829
▁isolate	-10.4829
▁monopoly	-10.4829
▁motivation	-10.4829
▁nursing	-10.4829
▁prescribe	-10.4829
▁rajagiriya	-10.4829
▁turtle	-10.4829
▁congratulation	-10.4829
▁tldr	-10.4829
▁mbbs	-10.4829
▁socalle	-10.4829
▁aggressive	-10.4829
▁mandate	-10.4829
▁ugc	-10.4829
▁latter	-10.483
▁mainstream	-10.483
▁ielt	-10.483
▁prominen	-10.4831
▁dislike	-10.4831
▁refugee	-10.4834
▁lan	-10.4838
▁ngo	-10.4839
65	-10.4842
life	-10.4847
▁1015	-10.4851
▁tier	-10.4852
▁expression	-10.4855
▁universal	-10.4855
▁lifetime	-10.4872
▁peer	-10.488
▁worthy	-10.4881
open	-10.4882
view	-10.4893
21	-10.4903
acy	-10.4903
▁bf	-10.4906
index	-10.4908
▁disc	-10.4909
▁bid	-10.4909
▁done	-10.4914
▁inc	-10.4914
▁mas	-10.4916
▁muslims	-10.493
▁touristy	-10.493
▁postal	-10.4937
▁youtuber	-10.4952
ump	-10.497
▁mob	-10.4982
ador	-10.4991
lla	-10.4993
▁cz	-10.501
▁guitar	-10.5017
▁manufacturing	-10.5017
▁bastard	-10.5017
▁execute	-10.5017
▁jersey	-10.5017
▁maharagama	-10.5017
▁enemy	-10.5017
▁atrocit	-10.5017
▁postpone	-10.5017
▁silent	-10.5017
▁combank	-10.5018
▁advocate	-10.5018
▁euro	-10.5019
▁meat	-10.502
▁wagon	-10.502
▁kumara	-10.502
pad	-10.5021
▁rocket	-10.5024
▁crop	-10.5026
▁interaction	-10.5026
▁depressed	-10.5027
▁honor	-10.5028
arine	-10.5028
zen	-10.5029
▁capita	-10.5032
▁respective	-10.5034
▁popularity	-10.5039
▁originally	-10.504
▁documentation	-10.5053
ild	-10.5054
▁blah	-10.5056
▁poster	-10.5057
▁econ	-10.5061
▁integrate	-10.5069
▁xd	-10.5081
tension	-10.5098
yearold	-10.51
▁cre	-10.51
gan	-10.5107
▁carefully	-10.5115
path	-10.5121
76	-10.5122
▁pla	-10.5125
▁peacefully	-10.5141
holding	-10.5142
▁effectively	-10.5142
▁wht	-10.515
▁deed	-10.516
▁chi	-10.5161
▁seal	-10.5162
▁evs	-10.5173
▁mile	-10.5178
ston	-10.5179
ata	-10.519
▁association	-10.521
▁luggage	-10.521
▁provincial	-10.521
▁manifesto	-10.521
▁scientist	-10.521
▁kitten	-10.521
▁frank	-10.521
▁committee	-10.521
▁pohottuwa	-10.521
▁departure	-10.521
▁monetar	-10.521
▁experiment	-10.5211
▁bulk	-10.5211
▁upset	-10.5211
▁drone	-10.5214
▁harini	-10.5215
▁establishment	-10.5219
▁2009	-10.522
wo	-10.5237
▁install	-10.5239
▁partial	-10.5247
▁oct	-10.5254
▁tn	-10.5269
▁magic	-10.528
▁wije	-10.5281
▁37	-10.5293
▁taxable	-10.5298
▁actor	-10.5305
art	-10.5309
▁forth	-10.5318
▁bind	-10.532
posh	-10.5328
▁certif	-10.5332
▁meaning	-10.5335
cade	-10.5345
▁conditioner	-10.5357
▁gi	-10.5359
▁capitalist	-10.5364
▁180	-10.5383
▁bin	-10.5384
▁chart	-10.5386
bn	-10.5387
▁occasion	-10.5394
▁disrupt	-10.5406
▁crush	-10.5406
▁cuisine	-10.5406
▁gradually	-10.5406
▁kurunegala	-10.5406
▁sneak	-10.5406
▁fraud	-10.5406
▁yellow	-10.5406
▁kiss	-10.5406
ologist	-10.5406
▁insist	-10.5406
▁observation	-10.5406
▁merc	-10.5407
▁hungry	-10.5407
▁keyboard	-10.5407
▁haircut	-10.5408
▁realistically	-10.5408
▁jewel	-10.5408
▁basil	-10.5408
bar	-10.5412
▁painful	-10.5412
▁lord	-10.5412
lp	-10.5413
▁expertise	-10.5414
▁founder	-10.5416
▁indicator	-10.5417
▁moon	-10.5424
▁square	-10.5429
▁510	-10.5432
▁involvement	-10.5433
▁nz	-10.5437
goda	-10.5444
rolling	-10.5445
▁offsho	-10.5446
most	-10.5459
▁hiru	-10.5463
▁mount	-10.5463
▁alto	-10.5473
150	-10.5486
even	-10.5488
▁dj	-10.5489
▁sue	-10.5493
▁cow	-10.5498
▁logo	-10.5521
▁harsh	-10.5531
▁bur	-10.5535
▁wat	-10.5548
hana	-10.5555
amba	-10.5562
▁prob	-10.5563
▁boom	-10.5588
▁airbnb	-10.5606
▁celebration	-10.5606
▁escalate	-10.5606
▁evolve	-10.5606
▁gampaha	-10.5606
▁nutrition	-10.5606
▁steady	-10.5606
▁violate	-10.5606
▁boundary	-10.5606
▁chief	-10.5606
▁resell	-10.5606
▁miserable	-10.5606
facepalming	-10.5606
▁trauma	-10.5606
▁domain	-10.5606
▁hook	-10.5606
▁residence	-10.5606
▁ngl	-10.5606
▁layoff	-10.5607
▁favourite	-10.5607
▁cb	-10.5607
▁anger	-10.5609
▁bird	-10.5612
rew	-10.5615
▁stone	-10.5616
▁prediction	-10.5622
▁lonely	-10.5622
▁sand	-10.5627
▁prof	-10.5629
▁any	-10.5638
form	-10.5638
phil	-10.5641
▁brag	-10.5643
uc	-10.5651
▁retain	-10.5662
▁eco	-10.5675
27	-10.5685
▁businessman	-10.5689
pointing	-10.5694
plus	-10.5703
self	-10.5705
max	-10.5706
etc	-10.5716
bra	-10.5718
▁paste	-10.5718
bag	-10.5736
cam	-10.5739
press	-10.5741
cial	-10.5743
ham	-10.5748
▁ally	-10.5771
star	-10.578
▁occasional	-10.578
gam	-10.5795
▁temp	-10.5797
anna	-10.5798
old	-10.5801
▁detect	-10.5802
used	-10.5807
▁disturb	-10.5808
▁activist	-10.581
▁breakfast	-10.581
▁calculation	-10.581
▁grammar	-10.581
▁mosquito	-10.581
▁opportunitie	-10.581
▁pollution	-10.581
▁romantic	-10.581
▁symptom	-10.581
▁transparency	-10.581
▁virtual	-10.581
▁invade	-10.581
▁overcome	-10.581
▁element	-10.581
▁aqua	-10.581
▁liberty	-10.581
▁plug	-10.5811
▁mentor	-10.5811
▁expressway	-10.5813
▁alongside	-10.5814
▁teenager	-10.5817
▁horn	-10.5817
▁2008	-10.5819
▁bright	-10.5819
▁pit	-10.5824
▁scroll	-10.5829
▁theme	-10.584
▁pov	-10.5843
▁competen	-10.5846
▁cid	-10.5846
▁mistaken	-10.5859
stop	-10.5873
▁sweat	-10.5876
verse	-10.5876
ko	-10.5876
pola	-10.5878
diagnose	-10.5879
craft	-10.5904
▁iran	-10.5907
1000	-10.5912
▁trainer	-10.5918
▁wet	-10.5926
▁lak	-10.5936
▁ping	-10.5939
▁ot	-10.5942
▁shi	-10.5954
▁vari	-10.5955
ware	-10.5967
96	-10.5972
organ	-10.598
▁literal	-10.5986
▁cad	-10.5991
▁insta	-10.6004
6000	-10.6007
hara	-10.6011
▁launder	-10.6018
▁assumption	-10.6018
▁honeymoon	-10.6018
▁instrument	-10.6018
▁ladder	-10.6018
▁scream	-10.6018
▁suzu	-10.6018
▁tailor	-10.6018
▁nightmare	-10.6018
▁silver	-10.6018
▁sharp	-10.6018
▁gazette	-10.6018
▁hilarious	-10.6018
▁vitz	-10.6018
▁mannar	-10.6018
▁dutch	-10.6019
▁salon	-10.6019
▁japura	-10.6019
▁liability	-10.602
▁underpaid	-10.602
▁truck	-10.602
▁jew	-10.602
▁dick	-10.602
▁ugly	-10.6021
▁clapp	-10.6021
wella	-10.6024
▁hangout	-10.6025
▁flaw	-10.6026
▁attendance	-10.6026
▁2014	-10.6026
there	-10.6027
▁preserv	-10.6028
▁disappointed	-10.6029
don	-10.6032
▁hub	-10.6034
7000	-10.6034
▁pile	-10.6037
▁approximately	-10.6039
▁confirmation	-10.6041
▁raw	-10.6042
▁rig	-10.6043
▁stripe	-10.6047
▁golden	-10.6051
arath	-10.6056
▁67	-10.6066
▁speaking	-10.6092
▁dip	-10.6097
▁fresher	-10.6106
▁productive	-10.6117
▁sab	-10.6122
▁mock	-10.6122
▁sme	-10.6128
▁americans	-10.6134
dha	-10.6136
▁amd	-10.6144
row	-10.6156
▁consideration	-10.617
▁sham	-10.6188
▁je	-10.6208
lib	-10.6214
▁aunt	-10.6214
▁keel	-10.6224
occupy	-10.6231
▁bicycle	-10.6231
▁chandrika	-10.6231
▁clarification	-10.6231
▁magnite	-10.6231
▁maturity	-10.6231
▁mechanism	-10.6231
▁reconciliation	-10.6231
▁reliability	-10.6231
▁vague	-10.6231
▁whatsoever	-10.6231
▁zealand	-10.6231
▁horse	-10.6231
▁scrap	-10.6231
▁emerge	-10.6231
▁diving	-10.6231
▁dhl	-10.6231
▁dental	-10.6232
▁disconnect	-10.6232
▁appreciation	-10.6232
▁gentle	-10.6232
▁beef	-10.6234
▁vape	-10.6234
▁devop	-10.6234
▁accordingly	-10.6235
▁stance	-10.6239
▁enforcement	-10.6239
▁pitch	-10.624
▁photographer	-10.6244
▁pace	-10.6247
▁african	-10.6252
▁125	-10.6252
▁importance	-10.6258
that	-10.6269
weera	-10.6271
▁225	-10.6273
long	-10.6287
▁enroll	-10.6296
▁consistently	-10.6296
esim	-10.6298
▁lem	-10.6308
▁hearing	-10.6315
▁belt	-10.6318
▁fm	-10.635
other	-10.6352
fo	-10.6359
▁srilankans	-10.6359
shit	-10.6364
east	-10.6371
uth	-10.6375
▁bang	-10.6375
laughing	-10.6381
▁esp	-10.6385
▁ep	-10.6393
▁inver	-10.6407
▁constitutional	-10.6423
pitiya	-10.6426
oka	-10.644
▁boycott	-10.6448
▁conspiracy	-10.6448
▁eliminate	-10.6448
▁hambantota	-10.6448
▁irrelevant	-10.6448
▁nepotism	-10.6448
▁qualify	-10.6448
▁reluctant	-10.6448
▁routine	-10.6448
▁landlord	-10.6448
▁overtake	-10.6448
▁premier	-10.6448
▁prosper	-10.6448
▁psychologist	-10.6448
▁misinformation	-10.6448
▁asus	-10.6449
▁migrant	-10.6449
ential	-10.645
▁password	-10.6451
▁assessment	-10.6451
▁upside	-10.6451
▁dumbass	-10.6452
▁offend	-10.6452
▁hmm	-10.6453
▁therapist	-10.6453
▁recall	-10.6457
▁scientific	-10.6462
▁brit	-10.6463
▁overly	-10.6466
▁prize	-10.6468
▁roam	-10.6472
▁meta	-10.6476
sso	-10.648
▁frame	-10.6481
▁liqu	-10.6483
▁inch	-10.6493
▁42	-10.6494
tamin	-10.6498
▁dispose	-10.6499
tec	-10.6506
▁20000	-10.6513
▁backwards	-10.6516
▁gal	-10.6517
ification	-10.6521
▁clo	-10.6526
▁ccc	-10.653
▁manageable	-10.6544
▁69	-10.6559
▁50000	-10.6562
28	-10.6568
▁sink	-10.6573
▁maps	-10.6586
atic	-10.6594
read	-10.6596
sale	-10.6599
▁doom	-10.6604
▁gut	-10.6627
▁cruise	-10.6635
▁caste	-10.6645
▁ayurved	-10.6656
▁sht	-10.6658
600	-10.6658
▁yu	-10.6661
▁airlines	-10.6665
▁numero	-10.6666
▁adventure	-10.667
▁fabric	-10.667
▁lobby	-10.667
▁pregnant	-10.667
▁threshold	-10.667
▁torrent	-10.667
▁computing	-10.667
▁hotspot	-10.667
▁ghost	-10.667
▁vegetable	-10.667
▁discord	-10.667
▁demographic	-10.667
▁trinco	-10.667
▁stabilize	-10.6671
▁apology	-10.6671
▁negotiation	-10.6671
▁stamp	-10.6672
▁merit	-10.6674
▁authorize	-10.6675
▁kong	-10.6676
▁consultation	-10.6679
▁equality	-10.6682
though	-10.6684
▁bpo	-10.6685
▁greedy	-10.6696
▁stranger	-10.6696
▁inquire	-10.6704
▁handful	-10.6712
▁vice	-10.6716
▁goto	-10.672
▁protester	-10.6726
36	-10.6741
▁iam	-10.6745
▁gp	-10.6747
una	-10.6752
▁prep	-10.6755
▁this	-10.6784
economic	-10.6786
▁dam	-10.6796
86	-10.68
ult	-10.6801
▁ethic	-10.6829
new	-10.6847
▁sud	-10.6852
ola	-10.6856
▁lu	-10.6856
▁cham	-10.6861
▁pos	-10.6865
▁len	-10.6878
66	-10.6881
▁fu	-10.6894
▁liquid	-10.6896
▁emphasi	-10.6898
▁freelancing	-10.6898
▁galaxy	-10.6898
▁ingredient	-10.6898
▁intelligent	-10.6898
▁sirisena	-10.6898
▁supplier	-10.6898
▁suspend	-10.6898
▁tackle	-10.6898
▁theatre	-10.6898
▁unrealistic	-10.6898
▁wickremesinghe	-10.6898
▁nanotek	-10.6898
▁upwards	-10.6898
▁zscore	-10.6898
▁malabe	-10.6898
▁raising	-10.6898
▁river	-10.6898
▁clip	-10.69
▁appearance	-10.6901
▁ceremony	-10.6902
▁height	-10.6903
▁lyce	-10.6903
▁france	-10.6905
▁01	-10.6906
▁shake	-10.6909
▁unite	-10.691
▁ros	-10.6916
▁scum	-10.6918
▁thai	-10.6921
tten	-10.6923
▁workout	-10.6926
▁yup	-10.693
▁tongue	-10.6931
▁nose	-10.6946
▁coastal	-10.696
ach	-10.6962
▁gener	-10.6968
▁sol	-10.6981
rasp	-10.6986
▁tone	-10.6991
inland	-10.7
▁creditor	-10.7011
▁jk	-10.7011
made	-10.7016
school	-10.7016
rel	-10.7023
▁chun	-10.7025
cut	-10.7029
pray	-10.7031
jith	-10.7047
▁charger	-10.7051
lak	-10.7053
ancy	-10.7064
▁dispos	-10.7076
▁ward	-10.7083
▁sticker	-10.7085
▁israeli	-10.7091
▁embarrass	-10.7099
ivity	-10.7103
▁safely	-10.7116
▁130	-10.7121
▁danger	-10.713
▁batalanda	-10.713
▁compulsory	-10.713
▁sibling	-10.713
▁temporarily	-10.713
▁transparent	-10.713
▁unsafe	-10.713
▁unusual	-10.713
curricula	-10.713
▁leverage	-10.713
▁beggar	-10.713
▁onsite	-10.713
▁gmoa	-10.713
▁personnel	-10.713
▁utiliz	-10.713
▁transform	-10.7131
▁fantastic	-10.7131
▁penny	-10.7131
▁drastically	-10.7131
▁differ	-10.7131
▁genius	-10.7132
▁halt	-10.7134
▁amex	-10.7138
▁creation	-10.7139
▁hong	-10.7144
▁dividend	-10.7145
angala	-10.7146
▁melting	-10.7149
▁cite	-10.7151
▁dub	-10.7152
▁pta	-10.7153
gram	-10.7156
▁instantly	-10.7163
▁anc	-10.7166
▁amongst	-10.7175
shak	-10.7176
▁loot	-10.7194
ou	-10.7199
▁bean	-10.7213
ban	-10.7241
▁fishing	-10.7244
colombo	-10.7256
income	-10.7256
guard	-10.7258
▁socially	-10.7266
pensive	-10.7275
▁exceptional	-10.7282
▁insanely	-10.7283
chi	-10.7286
▁closed	-10.7302
▁county	-10.7304
▁them	-10.7305
▁mill	-10.7306
▁complet	-10.7312
cast	-10.7313
▁lee	-10.7337
▁greed	-10.7343
▁yrs	-10.7344
▁78	-10.7347
▁tile	-10.7347
iate	-10.7354
▁innovat	-10.7361
▁cigarette	-10.7368
▁ecommerce	-10.7368
▁forgive	-10.7368
▁grandparent	-10.7368
▁inconvenience	-10.7368
▁mismanagement	-10.7368
▁motorbike	-10.7368
▁orphanage	-10.7368
▁upvote	-10.7368
▁iirc	-10.7368
▁garage	-10.7368
▁museum	-10.7368
▁carnage	-10.7369
▁dfcc	-10.7369
▁unstable	-10.7369
▁kidney	-10.7369
▁desktop	-10.7369
▁spoil	-10.7369
▁circulat	-10.737
▁cheese	-10.737
▁dictatorship	-10.737
▁pirate	-10.737
▁empath	-10.737
▁shade	-10.737
▁boring	-10.737
boy	-10.7372
▁novel	-10.7373
▁plz	-10.7373
▁ruler	-10.7374
▁overtime	-10.7374
▁judgement	-10.7383
▁hort	-10.7386
▁detain	-10.7387
▁assist	-10.7393
cap	-10.7396
▁format	-10.7398
▁saw	-10.74
▁everytime	-10.7406
▁humanity	-10.7408
▁excel	-10.7425
▁kara	-10.745
▁03	-10.7455
puls	-10.7475
▁110	-10.7477
▁diagnos	-10.7484
million	-10.75
▁gover	-10.7525
700	-10.7529
▁raja	-10.7545
54	-10.7545
kw	-10.7546
▁pg	-10.7563
▁disappoint	-10.7565
▁caf	-10.7584
▁porn	-10.7585
▁pharmac	-10.7586
▁iv	-10.7588
▁drinking	-10.759
▁orient	-10.7608
▁alternat	-10.7609
▁sinha	-10.7612
▁basket	-10.7612
▁altogether	-10.7612
▁antibiotic	-10.7612
▁atmosphere	-10.7612
▁biscuit	-10.7612
▁cargill	-10.7612
▁contrast	-10.7612
▁credibility	-10.7612
▁diversify	-10.7612
▁earbud	-10.7612
▁extremist	-10.7612
▁massacre	-10.7612
▁python	-10.7612
▁quarantine	-10.7612
▁throttle	-10.7612
▁petition	-10.7612
▁conquer	-10.7612
▁cartoon	-10.7612
▁fiverr	-10.7612
▁bmw	-10.7612
▁tution	-10.7612
squint	-10.7612
▁omg	-10.7613
▁orange	-10.7613
▁specify	-10.7614
▁sunset	-10.7614
▁swing	-10.7614
▁grey	-10.7614
▁cult	-10.7616
▁bailout	-10.7616
▁som	-10.7617
▁trace	-10.762
▁trait	-10.7622
▁dust	-10.7628
▁bold	-10.7631
▁curse	-10.7632
taking	-10.7634
▁charter	-10.7638
▁4000	-10.7641
▁iq	-10.7648
acle	-10.7649
▁toll	-10.7651
▁dur	-10.7662
▁policeman	-10.7663
▁layer	-10.7679
2000	-10.7685
run	-10.7687
▁imply	-10.7689
ella	-10.769
▁bn	-10.77
▁accidental	-10.7708
mint	-10.7711
▁lap	-10.7715
▁arch	-10.7722
▁38	-10.7724
▁approx	-10.7726
▁spin	-10.7741
▁blast	-10.7745
hole	-10.775
medical	-10.775
play	-10.7754
kanda	-10.776
▁moderate	-10.777
▁devs	-10.7772
▁llb	-10.7775
pende	-10.7781
hour	-10.7787
82	-10.7791
aire	-10.7792
yan	-10.78
▁ramp	-10.7811
will	-10.7812
▁pakistani	-10.7817
▁parad	-10.7822
▁injure	-10.7831
▁diy	-10.7837
▁excite	-10.7842
▁lag	-10.7845
train	-10.7856
▁cm	-10.7857
▁object	-10.7859
ddle	-10.786
▁academy	-10.7862
▁applicant	-10.7862
▁conclusion	-10.7862
▁credible	-10.7862
▁dissolve	-10.7862
▁draft	-10.7862
▁happily	-10.7862
▁inclusiv	-10.7862
▁incredible	-10.7862
▁initiate	-10.7862
▁knock	-10.7862
▁perception	-10.7862
▁relocate	-10.7862
▁ritual	-10.7862
▁strategic	-10.7862
▁udawalawe	-10.7862
▁dispute	-10.7862
▁epfetf	-10.7862
▁deliberate	-10.7862
▁flavor	-10.7862
▁wattala	-10.7862
▁prompt	-10.7862
▁whey	-10.7862
▁distribute	-10.7863
▁uncertainty	-10.7863
▁incorrect	-10.7863
▁resist	-10.7863
▁brainwash	-10.7863
▁hy	-10.7864
▁thick	-10.7864
▁breach	-10.7864
▁obligation	-10.7864
▁upfront	-10.7864
▁olympic	-10.7864
▁tolerat	-10.7864
▁neck	-10.7865
▁outright	-10.7865
▁quantity	-10.7865
▁smartphone	-10.7866
▁kfc	-10.7866
▁bucket	-10.7866
▁asw	-10.7867
▁clueless	-10.7868
▁stall	-10.7869
▁invent	-10.7871
▁engagement	-10.7875
▁paycheck	-10.7882
▁ww	-10.7882
rous	-10.7883
▁butter	-10.7885
▁pera	-10.7887
▁nazi	-10.7888
▁utc	-10.7892
▁rapidly	-10.7894
▁disappointing	-10.7894
▁dominat	-10.7894
▁korean	-10.7895
▁holy	-10.7901
▁wisely	-10.7915
▁passive	-10.7917
▁org	-10.7921
▁button	-10.7925
suit	-10.793
state	-10.7962
table	-10.7962
game	-10.7967
▁reg	-10.7978
95	-10.7979
▁dan	-10.7981
store	-10.7997
wala	-10.8002
▁israelis	-10.8013
▁grandma	-10.8028
29	-10.8032
▁nil	-10.8034
▁generational	-10.804
▁cope	-10.8046
kara	-10.8067
999	-10.8075
▁exclusive	-10.8078
conductor	-10.808
▁rc	-10.8082
▁dept	-10.8113
▁devi	-10.8113
▁disrespect	-10.8117
physic	-10.8119
▁afternoon	-10.8119
▁compensate	-10.8119
▁competitor	-10.8119
▁convict	-10.8119
▁definition	-10.8119
▁dynamic	-10.8119
▁empire	-10.8119
▁gambling	-10.8119
▁mcdonald	-10.8119
▁pfizer	-10.8119
▁philippine	-10.8119
▁prohibit	-10.8119
▁regulator	-10.8119
▁substantial	-10.8119
▁blatant	-10.8119
▁length	-10.8119
▁radical	-10.8119
▁sketch	-10.8119
▁perceive	-10.8119
▁premise	-10.8119
▁rabie	-10.8119
▁flip	-10.8119
▁aswell	-10.8119
▁retard	-10.8119
aught	-10.8119
▁gross	-10.8119
▁angel	-10.8119
▁brush	-10.812
men	-10.812
▁dignity	-10.812
▁priest	-10.812
▁binance	-10.812
▁lockdown	-10.8121
▁incur	-10.8122
▁orientation	-10.8123
▁harmful	-10.8124
▁combo	-10.8124
▁specialization	-10.8126
▁accusation	-10.8127
▁assure	-10.8127
▁plead	-10.8128
▁partnership	-10.8129
▁straw	-10.8132
▁dedicated	-10.8134
▁fed	-10.8136
from	-10.8139
unch	-10.814
lore	-10.8142
▁oya	-10.8143
▁fulfill	-10.8144
aru	-10.8145
akka	-10.8148
▁weekday	-10.8151
cker	-10.8152
▁recruiter	-10.8164
▁overwhelming	-10.8165
▁ut	-10.8182
▁clinical	-10.8186
vt	-10.819
▁tenn	-10.819
2025	-10.8191
poli	-10.8196
▁severely	-10.82
ulu	-10.8207
▁perch	-10.8207
▁mission	-10.8215
▁pointless	-10.8216
mani	-10.8225
ria	-10.8239
▁planet	-10.8259
38	-10.826
turn	-10.8264
quality	-10.8266
▁merchan	-10.8268
▁pun	-10.8268
finger	-10.8271
asiri	-10.8279
person	-10.8283
make	-10.8284
inner	-10.8285
ther	-10.8285
kia	-10.829
thank	-10.8294
rance	-10.8311
pan	-10.8318
att	-10.8324
leftist	-10.8326
47	-10.8329
▁ny	-10.8332
post	-10.8337
▁inquir	-10.8343
▁consist	-10.8344
rope	-10.8351
▁motivate	-10.8361
▁depress	-10.8365
▁liter	-10.8377
nawa	-10.8377
▁pp	-10.8378
▁unam	-10.8379
▁automatic	-10.838
▁casino	-10.8382
▁disclaimer	-10.8382
▁disclose	-10.8382
▁elaborate	-10.8382
▁exaggerate	-10.8382
▁fertilizer	-10.8382
▁hesitant	-10.8382
▁inferior	-10.8382
▁lucrative	-10.8382
▁nervous	-10.8382
▁occupation	-10.8382
▁ritalin	-10.8382
▁vouch	-10.8382
▁yield	-10.8382
▁criticise	-10.8382
▁enhance	-10.8382
▁immense	-10.8382
▁cctv	-10.8382
▁evisa	-10.8382
▁poison	-10.8382
▁theater	-10.8382
▁garment	-10.8382
▁blog	-10.8382
▁hitler	-10.8382
▁controversial	-10.8382
▁downfall	-10.8382
▁ltd	-10.8383
▁embra	-10.8383
▁sunny	-10.8384
▁ikmanlk	-10.8385
▁mileage	-10.8386
▁viral	-10.8386
▁daddy	-10.8386
▁pipe	-10.8387
▁butt	-10.8389
▁advertisement	-10.8391
▁arrangement	-10.8391
▁summer	-10.8397
▁renewal	-10.8401
watta	-10.8402
▁myth	-10.8406
▁repay	-10.8418
harm	-10.8419
▁feb	-10.8423
▁atrad	-10.8425
▁freeze	-10.8427
▁48	-10.8432
▁workshop	-10.8435
asia	-10.8445
▁05	-10.847
▁backend	-10.848
saudi	-10.8482
▁hom	-10.8486
▁kar	-10.8508
bel	-10.8508
▁pat	-10.851
▁incompetenc	-10.8514
▁soe	-10.8523
▁pur	-10.8531
▁scare	-10.8533
script	-10.854
dark	-10.8541
▁row	-10.8548
load	-10.8553
holder	-10.8558
liable	-10.8563
▁lg	-10.8585
▁bowl	-10.8589
▁remov	-10.8599
▁russians	-10.8603
rill	-10.8604
pass	-10.8614
▁nor	-10.8615
live	-10.8621
▁spar	-10.8624
▁guilt	-10.8625
uction	-10.8626
▁impress	-10.8629
fall	-10.8631
unu	-10.8633
room	-10.864
▁inspect	-10.8644
▁terror	-10.8647
▁tire	-10.8648
▁brilliant	-10.8652
▁curfew	-10.8652
▁extensive	-10.8652
▁glorify	-10.8652
▁horizon	-10.8652
▁newswire	-10.8652
▁wilpattu	-10.8652
▁beforehand	-10.8652
▁comparable	-10.8652
▁interpret	-10.8652
▁spouse	-10.8652
▁silence	-10.8652
▁visual	-10.8652
▁demonstrat	-10.8652
▁lowkey	-10.8652
▁carrier	-10.8653
▁rational	-10.8653
▁saree	-10.8653
▁lounge	-10.8653
▁anonymize	-10.8653
▁compound	-10.8654
▁skeptical	-10.8655
▁string	-10.8655
▁confront	-10.8656
▁variant	-10.8656
▁havelock	-10.8656
▁offence	-10.8657
▁desk	-10.8657
▁upwork	-10.8657
▁beginning	-10.8657
▁flagship	-10.8657
▁2029	-10.8658
▁probation	-10.8658
▁nightlife	-10.8659
▁2027	-10.8659
▁powercut	-10.8662
ander	-10.8663
▁mcq	-10.8665
▁1990	-10.8665
▁outage	-10.8669
▁ecu	-10.8669
▁smh	-10.867
lf	-10.8672
▁icon	-10.8674
▁poorly	-10.8675
▁diversity	-10.8676
▁functional	-10.8684
▁injur	-10.8686
▁seize	-10.869
41	-10.8693
▁slide	-10.8701
▁normalize	-10.8705
▁occasionally	-10.8708
▁nationality	-10.8712
▁span	-10.8717
▁pett	-10.8717
▁punch	-10.8728
▁checkout	-10.8731
▁ric	-10.8747
▁lens	-10.8759
▁vf	-10.8763
▁bitter	-10.8764
card	-10.8784
jp	-10.8801
33	-10.8805
people	-10.8818
asa	-10.8845
▁jo	-10.8875
▁tele	-10.8883
▁disgust	-10.8898
▁strip	-10.8909
▁command	-10.8914
▁surge	-10.8925
▁patriot	-10.8928
▁bureaucracy	-10.893
▁concert	-10.893
▁disadvantage	-10.893
▁dissanayake	-10.893
▁hypocrisy	-10.893
▁ignorance	-10.893
▁nandalal	-10.893
▁outlook	-10.893
▁phenomenon	-10.893
▁restructuring	-10.893
▁smoking	-10.893
▁subscribe	-10.893
▁essay	-10.893
▁cinec	-10.893
▁badulla	-10.893
▁portray	-10.893
▁endorse	-10.893
▁spell	-10.893
▁hindi	-10.893
▁notorious	-10.893
▁forecast	-10.893
▁ruhun	-10.893
▁dhamm	-10.8931
▁underworld	-10.8931
▁hesitat	-10.8931
▁worthwhile	-10.8931
▁fuss	-10.8932
▁impressive	-10.8933
▁sparkle	-10.8933
▁chairman	-10.8933
▁bullet	-10.8933
▁quant	-10.8933
▁hung	-10.8934
rish	-10.8936
▁surgeon	-10.8936
▁stir	-10.8938
▁formula	-10.8938
▁raid	-10.8939
▁loop	-10.8942
▁cunt	-10.8942
▁guideline	-10.8942
▁existence	-10.8944
▁usaid	-10.8946
▁addiction	-10.8947
▁yoga	-10.8948
▁architect	-10.895
▁redmi	-10.8952
▁intense	-10.8952
▁hopeful	-10.8953
▁biased	-10.8956
▁indirectly	-10.8958
▁continuously	-10.8959
▁deduction	-10.8959
▁timeline	-10.8961
▁ravi	-10.8963
▁eld	-10.897
▁450	-10.8975
gala	-10.8979
▁hardship	-10.898
▁hyper	-10.8984
▁dash	-10.8984
ique	-10.8988
gging	-10.8993
artial	-10.9008
▁smth	-10.901
▁shell	-10.9016
▁depu	-10.903
▁jee	-10.9048
▁standing	-10.9056
ode	-10.9069
rift	-10.9072
▁craft	-10.9084
learn	-10.9084
▁fianc	-10.9087
ground	-10.9087
soft	-10.9104
▁bath	-10.9104
ggle	-10.9105
▁independently	-10.9112
▁sci	-10.912
▁colla	-10.9136
▁140	-10.9142
▁fck	-10.9144
sub	-10.9149
illa	-10.9174
▁instant	-10.9178
▁jealous	-10.9189
▁luxur	-10.9189
▁manual	-10.9197
▁lgbt	-10.9215
▁aesthetic	-10.9216
▁anxious	-10.9216
▁attorney	-10.9216
▁comparatively	-10.9216
▁dismiss	-10.9216
▁nuclear	-10.9216
▁phrase	-10.9216
▁rajapakshe	-10.9216
▁reservation	-10.9216
▁survival	-10.9216
▁technique	-10.9216
▁tuesday	-10.9216
▁vulnerable	-10.9216
▁wikipedia	-10.9216
▁substance	-10.9216
▁gamble	-10.9216
▁theft	-10.9216
▁animation	-10.9216
▁bitcoin	-10.9216
▁snake	-10.9216
▁eager	-10.9216
▁pdf	-10.9216
▁invoic	-10.9216
▁plaza	-10.9216
▁lyric	-10.9216
▁optimistic	-10.9216
▁diverse	-10.9216
▁women	-10.9216
▁herb	-10.9216
▁knee	-10.9217
▁running	-10.9217
▁inefficient	-10.9217
▁england	-10.9217
▁telecom	-10.9217
▁swap	-10.9217
▁magically	-10.9218
▁hoard	-10.9219
▁instruction	-10.9219
▁mouse	-10.9221
▁alarm	-10.9225
▁bump	-10.9225
▁unknown	-10.9226
▁grass	-10.9226
▁starve	-10.9228
▁deem	-10.9229
▁resale	-10.923
▁few	-10.9233
▁pave	-10.9233
▁representation	-10.9235
▁junk	-10.9237
▁specialise	-10.924
▁usdt	-10.9243
roll	-10.9245
▁presentation	-10.9245
▁trainee	-10.9249
▁bash	-10.9252
▁workload	-10.9255
▁yell	-10.9255
▁mega	-10.9264
▁pleasant	-10.927
▁limitation	-10.9273
▁mood	-10.9276
▁meetup	-10.9277
▁cough	-10.9277
raction	-10.9294
▁preach	-10.9297
▁shoulder	-10.9302
▁trim	-10.9309
▁sheer	-10.9312
▁fla	-10.9314
▁sincere	-10.9319
vin	-10.934
250	-10.9343
uni	-10.9353
▁permanently	-10.9355
▁deb	-10.9366
▁usb	-10.9367
▁nomin	-10.9374
▁bun	-10.9379
drive	-10.9391
national	-10.9397
▁vid	-10.9398
known	-10.94
night	-10.941
part	-10.9411
▁44	-10.9412
station	-10.9437
▁pala	-10.9437
▁shin	-10.9444
road	-10.9452
▁imagin	-10.9458
▁bored	-10.9459
99	-10.947
▁pig	-10.9474
liance	-10.9492
▁feminis	-10.9496
residential	-10.9505
▁arrogant	-10.951
▁calculator	-10.951
▁comprehensi	-10.951
▁condemn	-10.951
▁distribution	-10.951
▁fiscal	-10.951
▁flavour	-10.951
▁fonseka	-10.951
▁github	-10.951
▁integrity	-10.951
▁judgment	-10.951
▁philosoph	-10.951
▁residency	-10.951
▁spectrum	-10.951
▁tropical	-10.951
▁bargain	-10.951
▁fronx	-10.951
▁hefty	-10.951
▁dancing	-10.951
▁scandal	-10.951
▁dentist	-10.951
▁whale	-10.951
interrupt	-10.951
▁halal	-10.951
▁angle	-10.951
▁controller	-10.951
▁unprofessional	-10.9511
▁automate	-10.9511
spiral	-10.9511
▁versa	-10.9511
▁overcharge	-10.9511
▁deploy	-10.9512
▁salut	-10.9512
awala	-10.9513
▁karma	-10.9513
▁atto	-10.9513
▁manipulation	-10.9514
▁2028	-10.9517
▁classroom	-10.9517
▁filth	-10.9518
▁municipal	-10.9522
▁outta	-10.9523
▁grave	-10.9526
▁2012	-10.9531
▁withhold	-10.9531
▁creepy	-10.9533
▁grama	-10.9533
▁reset	-10.9534
▁surface	-10.9535
▁snorkeling	-10.9539
▁boomer	-10.954
▁settlement	-10.9541
▁tick	-10.9542
▁160	-10.9543
inda	-10.9544
▁clan	-10.9547
▁idiotic	-10.9563
▁honk	-10.9564
dom	-10.9568
▁sem	-10.9584
rise	-10.9587
▁naive	-10.959
▁cargo	-10.9594
▁simp	-10.961
lar	-10.9636
eather	-10.9637
▁vijaya	-10.9653
▁sony	-10.9654
▁erp	-10.9659
▁68	-10.9662
▁exporter	-10.9682
hold	-10.9695
well	-10.9697
▁editing	-10.97
▁spit	-10.9703
▁slot	-10.9707
around	-10.9708
wind	-10.9709
keep	-10.9711
01	-10.9711
▁89	-10.9717
▁500000	-10.9717
anker	-10.973
cat	-10.9741
▁46	-10.9745
gro	-10.9753
▁dili	-10.9757
▁overwhelm	-10.9758
▁increas	-10.9768
▁outsider	-10.9795
55	-10.9803
▁worse	-10.9804
▁massively	-10.9808
▁excess	-10.981
▁yahapalana	-10.9811
▁absorb	-10.9813
▁bambalapitiya	-10.9813
▁colonize	-10.9813
▁communism	-10.9813
▁confusing	-10.9813
▁grandfather	-10.9813
▁implication	-10.9813
▁intellectual	-10.9813
▁jungle	-10.9813
▁kangaroo	-10.9813
▁melbourne	-10.9813
▁neglect	-10.9813
▁polonnaruwa	-10.9813
▁squeez	-10.9813
▁stadium	-10.9813
▁straightforward	-10.9813
▁territory	-10.9813
▁unbiased	-10.9813
▁unexpected	-10.9813
▁volatile	-10.9813
▁wednesday	-10.9813
▁prestig	-10.9813
▁aspir	-10.9813
▁assassinat	-10.9813
▁rival	-10.9813
▁jesus	-10.9813
▁ofcourse	-10.9813
▁twist	-10.9813
▁ebay	-10.9813
▁metropoli	-10.9813
▁repeatedly	-10.9813
▁automobile	-10.9813
allocation	-10.9813
▁crony	-10.9813
▁terminal	-10.9813
▁roi	-10.9814
ified	-10.9814
▁odel	-10.9814
▁honour	-10.9814
▁database	-10.9816
▁bookingcom	-10.9816
▁juice	-10.9816
▁colonialism	-10.9817
▁wireless	-10.9817
▁liquidity	-10.9817
▁giant	-10.9818
▁wound	-10.9818
▁intentionally	-10.9818
▁motion	-10.9819
▁000	-10.9819
▁barber	-10.982
▁ballot	-10.982
virus	-10.982
▁convo	-10.9821
▁2013	-10.9822
▁chess	-10.9822
oid	-10.9823
▁lact	-10.9823
▁entertain	-10.9823
▁historic	-10.9824
▁huh	-10.9825
▁problematic	-10.9826
▁acceptance	-10.9834
▁irony	-10.9836
master	-10.9837
alam	-10.9838
▁linu	-10.9846
▁headline	-10.9848
▁quo	-10.9849
▁prayer	-10.9852
▁sane	-10.9854
▁subjective	-10.9865
▁endure	-10.9867
▁soil	-10.9868
▁meantime	-10.9874
▁curly	-10.9896
▁illegally	-10.9898
32	-10.99
▁correction	-10.9906
▁sens	-10.9914
yana	-10.9927
▁fortunate	-10.9932
ratne	-10.9934
▁pear	-10.9937
▁historically	-10.9938
▁eh	-10.9946
oil	-10.9965
▁notification	-10.9992
check	-11.001
world	-11.0012
srilanka	-11.0014
▁71	-11.0025
74	-11.0029
▁cure	-11.0044
rich	-11.0088
▁snorkel	-11.0095
▁2005	-11.0095
▁fil	-11.0095
high	-11.0097
now	-11.0097
▁cro	-11.0098
▁slim	-11.0116
▁accommodat	-11.0118
▁inherit	-11.0124
▁metro	-11.0124
▁accomplish	-11.0125
▁academia	-11.0125
▁contradict	-11.0125
▁culprit	-11.0125
▁enlighten	-11.0125
▁facilitate	-11.0125
▁grandmother	-11.0125
▁humble	-11.0125
▁hurdle	-11.0125
▁immigrate	-11.0125
▁inevitable	-11.0125
▁junction	-11.0125
▁outstanding	-11.0125
▁panadura	-11.0125
▁prabhakar	-11.0125
▁rebuild	-11.0125
▁resolution	-11.0125
▁societal	-11.0125
▁sweep	-11.0125
▁theoretical	-11.0125
▁thursday	-11.0125
▁unemployment	-11.0125
▁unofficial	-11.0125
▁atheist	-11.0125
▁outfit	-11.0125
▁apparel	-11.0125
▁creativity	-11.0125
▁swrd	-11.0125
▁authoritarian	-11.0125
▁simplytek	-11.0125
▁cardinal	-11.0126
escent	-11.0126
▁basketball	-11.0126
▁quiz	-11.0126
▁tune	-11.0126
▁silly	-11.0127
▁tiger	-11.0127
▁unrest	-11.0127
▁kudo	-11.0129
▁jean	-11.0131
▁depth	-11.0133
▁jewellery	-11.0135
▁frontend	-11.0136
▁bayya	-11.0136
▁fitting	-11.0136
▁better	-11.0138
▁restore	-11.014
▁demon	-11.0142
▁amid	-11.0143
▁arise	-11.0147
▁bless	-11.0152
acity	-11.0154
eem	-11.0161
▁fever	-11.0169
▁winter	-11.0171
▁beware	-11.0176
▁nepo	-11.0194
pot	-11.0197
▁mud	-11.0202
dec	-11.0206
▁flower	-11.0209
ctor	-11.0212
tax	-11.0223
▁expir	-11.0225
▁ahh	-11.0229
▁washing	-11.023
▁apit	-11.0242
prosecute	-11.0245
▁casually	-11.0267
bro	-11.0275
thiya	-11.0287
▁addon	-11.0308
unge	-11.0309
▁loyal	-11.0313
▁loser	-11.0323
born	-11.0328
hhh	-11.0329
hz	-11.0334
course	-11.0334
market	-11.0341
85	-11.0352
call	-11.0382
itha	-11.0387
▁uda	-11.0397
▁photograph	-11.0401
▁recording	-11.0411
▁fur	-11.0412
▁rapid	-11.0413
▁lonel	-11.0421
think	-11.0426
▁fantas	-11.0447
▁lasantha	-11.0448
▁overcrowd	-11.0448
facepalme	-11.0448
▁accumulate	-11.0448
▁advertising	-11.0448
▁challenging	-11.0448
▁coalition	-11.0448
▁disgrace	-11.0448
▁distinct	-11.0448
▁injection	-11.0448
▁knife	-11.0448
▁kottawa	-11.0448
▁overlook	-11.0448
▁peanut	-11.0448
▁recycle	-11.0448
▁skyrocket	-11.0448
▁television	-11.0448
▁unacceptable	-11.0448
▁unethical	-11.0448
▁automation	-11.0448
▁baggage	-11.0448
▁bootlick	-11.0448
▁explicit	-11.0448
▁instability	-11.0448
▁meditation	-11.0448
▁rumour	-11.0448
grimacing	-11.0448
▁dunno	-11.0448
▁seylan	-11.0448
▁fortune	-11.0448
▁allegedly	-11.0448
▁parallel	-11.0448
▁plumb	-11.0448
▁attest	-11.0448
▁tinder	-11.0448
▁psych	-11.0448
▁collateral	-11.0448
▁roast	-11.0448
▁fedex	-11.0449
▁bakery	-11.0449
▁signature	-11.045
▁1200	-11.045
▁excessive	-11.0451
▁refresh	-11.0451
▁intel	-11.0452
▁vanish	-11.0455
▁tee	-11.0455
▁superiority	-11.0455
▁maid	-11.0456
▁meth	-11.0458
▁devalue	-11.0461
▁coworker	-11.0463
▁crew	-11.0463
eutic	-11.0465
asuma	-11.0473
▁geopolitical	-11.0474
giri	-11.0479
▁genre	-11.0482
▁caa	-11.0489
▁360	-11.0492
▁igp	-11.0502
▁container	-11.0504
udge	-11.0506
tric	-11.0507
▁pink	-11.0511
fact	-11.0524
arm	-11.0548
▁evaluate	-11.0561
▁ov	-11.0565
▁hilt	-11.0565
ensive	-11.0566
▁editor	-11.0581
loyalty	-11.0584
rome	-11.0599
class	-11.0604
ature	-11.0616
ruwa	-11.0617
▁coll	-11.0628
style	-11.0643
evil	-11.0651
▁strictly	-11.0653
▁proto	-11.0657
▁pearl	-11.0666
service	-11.0669
▁arab	-11.0675
position	-11.0678
ummy	-11.069
▁univers	-11.0717
▁hygien	-11.0734
▁fulfil	-11.0748
▁dedicate	-11.0761
▁journal	-11.0761
▁kw	-11.0762
▁weigh	-11.0766
singhe	-11.0769
atter	-11.0773
▁intent	-11.0774
▁accomodat	-11.0781
▁advisable	-11.0781
▁bureau	-11.0781
▁ethernet	-11.0781
▁fridge	-11.0781
▁monarch	-11.0781
▁palestine	-11.0781
▁pronunciation	-11.0781
▁robotic	-11.0781
▁satisfy	-11.0781
▁sigirya	-11.0781
▁subtitle	-11.0781
▁xiaomi	-11.0781
▁awkward	-11.0781
▁chronic	-11.0781
▁souvenir	-11.0781
▁fiction	-11.0781
▁resonate	-11.0781
▁hectic	-11.0781
▁genetic	-11.0781
▁gossip	-11.0781
▁psychological	-11.0781
▁backlash	-11.0781
▁sysco	-11.0781
▁crib	-11.0781
diamond	-11.0781
▁timing	-11.0781
▁indie	-11.0782
tumble	-11.0782
▁turk	-11.0782
▁taboo	-11.0782
▁query	-11.0783
▁populis	-11.0783
▁yahapalanaya	-11.0783
▁winking	-11.0784
▁generator	-11.0785
▁assess	-11.0785
fuck	-11.0785
▁delusional	-11.0786
▁stake	-11.0786
udu	-11.0788
▁diplomatic	-11.0788
▁groom	-11.0789
▁olevel	-11.079
pala	-11.079
▁brave	-11.0791
▁wso	-11.0792
▁allergy	-11.0792
▁harbo	-11.0793
▁renewable	-11.0796
▁sexuality	-11.0797
▁coup	-11.0799
▁hail	-11.0799
▁reviv	-11.0799
▁3040	-11.08
▁summary	-11.0803
▁02	-11.0805
▁commander	-11.0806
▁pee	-11.0808
tx	-11.0814
▁malaysian	-11.0824
leg	-11.0826
lateral	-11.0829
▁1520	-11.083
beat	-11.0831
▁bury	-11.0832
▁nye	-11.0834
▁exclusively	-11.0834
93	-11.0835
▁troll	-11.0841
▁relaxed	-11.0845
▁jerom	-11.0846
mah	-11.0853
▁msg	-11.088
▁vip	-11.0884
▁rust	-11.089
▁kandyan	-11.0896
▁tab	-11.0897
duwa	-11.0913
▁bone	-11.0918
▁edition	-11.0918
▁shocking	-11.0934
lish	-11.0934
▁np	-11.0944
▁tint	-11.0949
amro	-11.0954
▁albe	-11.0964
uti	-11.0972
3000	-11.0978
▁30000	-11.0985
sport	-11.099
ood	-11.0998
charge	-11.1012
migration	-11.1013
screen	-11.1014
system	-11.1014
after	-11.1022
aza	-11.1024
▁stabili	-11.1039
▁reap	-11.1047
party	-11.1049
raj	-11.1054
▁siri	-11.1061
▁trader	-11.1065
bank	-11.1079
▁fisher	-11.1084
wiss	-11.1098
▁creep	-11.1099
▁iron	-11.1109
doe	-11.1113
▁extract	-11.112
▁practi	-11.1126
battaramulla	-11.1126
▁algorithm	-11.1126
▁apologize	-11.1126
▁ashamed	-11.1126
▁emission	-11.1126
▁furthermore	-11.1126
▁irrespective	-11.1126
▁netherland	-11.1126
▁patience	-11.1126
▁postgraduate	-11.1126
▁tsunami	-11.1126
▁wisdom	-11.1126
▁frimi	-11.1126
▁hurry	-11.1126
▁suppress	-11.1126
▁clarity	-11.1126
▁reckless	-11.1126
▁stagna	-11.1126
▁someday	-11.1126
▁flour	-11.1126
▁spiritual	-11.1126
▁breed	-11.1126
▁chap	-11.1126
closure	-11.1127
▁thankfully	-11.1127
▁replica	-11.1127
▁paddy	-11.1127
▁accredit	-11.1127
▁journalism	-11.1128
▁puppet	-11.1128
▁adhere	-11.1128
▁crab	-11.1129
▁infection	-11.113
▁forgot	-11.113
▁wander	-11.113
▁imho	-11.113
▁waterfall	-11.1131
▁toast	-11.1131
▁restart	-11.1131
▁bald	-11.1131
▁curve	-11.1131
▁saint	-11.1132
▁ironic	-11.1132
▁prolly	-11.1133
▁cryptocurrency	-11.1134
▁worsen	-11.1137
▁rail	-11.1137
▁2011	-11.1144
wash	-11.1145
▁pleasure	-11.1152
▁cliq	-11.1156
▁shipment	-11.1164
▁aunty	-11.117
▁stupidity	-11.1173
tip	-11.1185
▁legalize	-11.1189
▁loo	-11.121
▁bru	-11.1211
peak	-11.1217
▁hopeless	-11.1217
iest	-11.1217
▁tricky	-11.1223
utter	-11.1223
heshe	-11.123
▁nc	-11.1246
cbt	-11.1248
▁cert	-11.126
▁endless	-11.1268
raze	-11.1282
▁alien	-11.1283
▁showcas	-11.1298
▁gel	-11.13
06	-11.1302
▁concentrate	-11.1305
▁reel	-11.1307
▁demo	-11.1315
▁modi	-11.1322
▁fke	-11.1324
ette	-11.1325
▁fc	-11.1335
rah	-11.1337
achchi	-11.1339
government	-11.1371
▁interactiv	-11.1374
pool	-11.138
fire	-11.1381
▁eve	-11.1382
▁lal	-11.14
▁financ	-11.1403
▁involved	-11.1415
▁mild	-11.1418
▁57	-11.1422
2019	-11.143
▁now	-11.1435
▁agricultur	-11.1444
▁til	-11.1445
▁overhea	-11.1447
▁suc	-11.1466
▁congrat	-11.1471
▁sovereign	-11.1482
▁drastic	-11.1482
nounce	-11.1482
▁interfere	-11.1483
▁maithri	-11.1483
▁blockchain	-11.1483
▁caution	-11.1483
▁concrete	-11.1483
▁exciting	-11.1483
▁injustice	-11.1483
▁invasion	-11.1483
▁kollupiti	-11.1483
▁lebanon	-11.1483
▁leopard	-11.1483
▁mortgage	-11.1483
▁overstay	-11.1483
▁privatize	-11.1483
▁pyramid	-11.1483
▁rehabilitat	-11.1483
▁stereotype	-11.1483
▁taiwan	-11.1483
▁unreliable	-11.1483
▁corona	-11.1483
▁marxist	-11.1483
▁reception	-11.1483
▁aviation	-11.1483
▁bypass	-11.1483
▁packaging	-11.1483
▁ambass	-11.1483
▁precise	-11.1483
▁spill	-11.1483
▁wellawatte	-11.1483
▁spicy	-11.1483
▁distant	-11.1483
▁flexibility	-11.1483
▁queen	-11.1483
▁blend	-11.1483
▁desert	-11.1483
▁grain	-11.1483
▁ancestr	-11.1483
▁wicke	-11.1484
▁adequate	-11.1484
▁preparation	-11.1484
▁ironical	-11.1484
▁thrill	-11.1484
▁nasty	-11.1484
▁helico	-11.1484
▁brake	-11.1485
▁resistance	-11.1485
▁evade	-11.1486
▁pawn	-11.1486
▁constructive	-11.1487
▁hiking	-11.1489
▁had	-11.149
▁caption	-11.149
▁productivity	-11.149
▁polish	-11.1492
▁musc	-11.1492
▁macro	-11.1493
▁seperate	-11.1494
▁announcement	-11.1496
▁winner	-11.1496
▁classmate	-11.1497
▁nerd	-11.1499
▁5060	-11.1499
▁nawala	-11.1501
▁gpt	-11.1506
▁thoroughly	-11.1509
▁bowler	-11.1511
maker	-11.1515
▁39	-11.1524
▁tale	-11.1526
▁implementation	-11.1532
helmet	-11.1538
▁typ	-11.1556
▁comedy	-11.1572
▁1020	-11.1576
cold	-11.1577
curtin	-11.1579
▁consulting	-11.1581
▁urgently	-11.1586
about	-11.1587
ought	-11.1608
▁comeback	-11.1615
compatible	-11.1628
udi	-11.1648
▁fad	-11.1666
nsible	-11.1682
▁fdi	-11.1695
word	-11.1696
▁accessor	-11.17
ndra	-11.1712
▁yh	-11.1714
nous	-11.1718
bble	-11.1739
religious	-11.1741
field	-11.1741
south	-11.1746
home	-11.175
money	-11.1751
islamic	-11.1778
atta	-11.1784
nike	-11.1787
▁melt	-11.1829
mind	-11.1836
▁coworke	-11.1837
▁socio	-11.1839
▁construct	-11.1843
▁administrat	-11.1846
▁champion	-11.1853
▁analyze	-11.1853
▁anniversary	-11.1853
▁batticaloa	-11.1853
▁cycling	-11.1853
▁dermatologist	-11.1853
▁disregard	-11.1853
▁inspiration	-11.1853
▁insurrection	-11.1853
▁precaution	-11.1853
▁scuba	-11.1853
▁sirimavo	-11.1853
▁subsequent	-11.1853
▁unavailable	-11.1853
▁yamaha	-11.1853
▁cruel	-11.1854
▁prefect	-11.1854
▁salarie	-11.1854
▁hometown	-11.1854
▁twent	-11.1854
▁unaware	-11.1854
▁lorry	-11.1854
▁kerala	-11.1854
▁mediocr	-11.1854
▁disabled	-11.1854
▁verbal	-11.1854
▁repeal	-11.1854
▁shark	-11.1854
▁funeral	-11.1854
▁lmk	-11.1854
▁sirasa	-11.1854
▁harvest	-11.1855
▁domino	-11.1855
▁ditch	-11.1855
▁cease	-11.1855
▁bride	-11.1856
▁tenure	-11.1856
▁enact	-11.1857
▁jun	-11.1858
▁traction	-11.1858
▁whine	-11.1858
▁calori	-11.1858
▁instructor	-11.1858
▁oppression	-11.1859
dictate	-11.186
▁electrician	-11.1861
lakuru	-11.1862
city	-11.1864
▁motherland	-11.1866
▁clock	-11.1867
▁snap	-11.1868
▁rubber	-11.187
▁qua	-11.187
▁rack	-11.1871
▁specie	-11.1871
▁dire	-11.1872
▁3500	-11.1873
▁amend	-11.1877
▁bali	-11.1882
▁nelu	-11.1883
▁lost	-11.1884
berry	-11.1885
▁joe	-11.1886
▁jealousy	-11.1889
data	-11.189
▁acne	-11.1891
▁steer	-11.1901
▁seven	-11.1912
▁retailer	-11.1924
▁200000	-11.1934
▁lite	-11.1934
ggie	-11.194
▁slab	-11.194
▁06	-11.1942
awn	-11.1943
▁fluently	-11.1944
▁kindness	-11.1949
▁murderer	-11.1957
▁yk	-11.1965
▁medal	-11.2005
▁boi	-11.2008
▁plat	-11.2031
▁elevate	-11.2084
05	-11.2085
akin	-11.2114
wear	-11.2129
▁tht	-11.2135
water	-11.2148
▁8000	-11.2148
▁40000	-11.2152
▁12000	-11.2165
▁bia	-11.2181
▁continuous	-11.2198
▁cis	-11.2209
hitha	-11.2218
▁summ	-11.2222
▁25000	-11.2223
▁migra	-11.2228
▁brazil	-11.2238
▁clergy	-11.2238
▁confusion	-11.2238
▁credential	-11.2238
▁discontinue	-11.2238
▁execution	-11.2238
▁incorporate	-11.2238
▁judiciary	-11.2238
▁kalutara	-11.2238
▁participation	-11.2238
▁perpetrator	-11.2238
▁satellite	-11.2238
▁sightseeing	-11.2238
▁structural	-11.2238
▁surname	-11.2238
▁underestimate	-11.2238
▁vegetarian	-11.2238
▁venezuela	-11.2238
▁proportion	-11.2238
▁shield	-11.2238
▁underrated	-11.2238
▁bleach	-11.2238
▁tragic	-11.2238
▁upskill	-11.2238
▁predator	-11.2238
▁abusive	-11.2238
▁combat	-11.2238
▁globe	-11.2238
▁indige	-11.2238
▁ireland	-11.2238
▁vocal	-11.2238
▁shortterm	-11.2238
▁avg	-11.2238
▁harmony	-11.2238
▁overthinke	-11.2238
▁hbb	-11.2238
▁recieve	-11.2239
▁biological	-11.2239
▁preferred	-11.2239
▁token	-11.2239
▁allege	-11.2239
▁scalp	-11.2239
▁queer	-11.2239
kantha	-11.224
▁1948	-11.224
▁kalu	-11.2241
byob	-11.2241
▁acre	-11.2241
▁paradise	-11.2241
▁circuit	-11.2241
ozy	-11.2242
▁millennial	-11.2242
▁redeem	-11.2242
▁nuance	-11.2243
▁faci	-11.2245
▁collaborate	-11.2247
alla	-11.2247
▁installation	-11.2247
▁atti	-11.2248
▁trilli	-11.2248
▁eff	-11.225
▁neat	-11.2252
▁drill	-11.2255
▁300000	-11.2256
▁impressed	-11.2257
▁gbp	-11.2259
▁middleclass	-11.2262
▁brokerage	-11.2263
ploy	-11.2268
▁motivated	-11.2269
▁810	-11.2271
still	-11.2273
▁soc	-11.2276
▁marin	-11.228
theless	-11.2283
▁eka	-11.2287
witch	-11.2294
▁rejection	-11.2297
▁lc	-11.2302
suriya	-11.2303
▁mindful	-11.2308
▁odi	-11.2314
▁elector	-11.2321
▁artificially	-11.2324
▁bore	-11.2334
▁crossed	-11.2336
▁tent	-11.234
▁poke	-11.2343
mount	-11.2353
▁homeless	-11.2356
cultivate	-11.2361
50000	-11.237
▁ipo	-11.2372
▁pose	-11.2396
▁env	-11.2403
▁aust	-11.2409
cumb	-11.2419
▁musical	-11.2423
▁cozy	-11.2424
monger	-11.2433
▁prosecut	-11.2487
stream	-11.2523
▁terminat	-11.2523
connect	-11.2524
effective	-11.2526
job	-11.2526
covid	-11.2527
▁malli	-11.2529
print	-11.253
match	-11.2535
48	-11.2562
▁subtl	-11.2572
▁indirect	-11.2598
▁approximate	-11.2598
▁commi	-11.2601
▁geopolitic	-11.2606
▁aug	-11.2617
▁complicate	-11.2618
▁found	-11.2623
▁southwest	-11.2627
▁pupp	-11.2637
▁chennai	-11.2638
▁consensus	-11.2638
▁cunning	-11.2638
▁disguise	-11.2638
▁identification	-11.2638
▁intervention	-11.2638
▁paragraph	-11.2638
▁prevalent	-11.2638
▁privatization	-11.2638
▁recession	-11.2638
▁revenge	-11.2638
▁revolv	-11.2638
▁sanction	-11.2638
▁stigma	-11.2638
▁unhappy	-11.2638
▁unpredictable	-11.2638
conventional	-11.2638
▁accelerat	-11.2638
▁bounce	-11.2638
▁console	-11.2638
▁inappropriate	-11.2638
▁technological	-11.2638
exclamation	-11.2638
▁heaven	-11.2638
▁imperial	-11.2638
▁minimize	-11.2638
▁retreat	-11.2638
▁igcse	-11.2638
▁foresee	-11.2638
▁pidur	-11.2638
▁ancestor	-11.2638
▁honey	-11.2638
▁downhill	-11.2639
▁scholar	-11.2639
▁remand	-11.2639
▁secular	-11.2639
▁ousl	-11.2639
▁keheli	-11.2639
▁misunderstand	-11.2639
▁slmc	-11.2639
watte	-11.264
▁wellbee	-11.264
▁cpu	-11.2642
▁drown	-11.2642
▁modify	-11.2643
▁pinnaw	-11.2644
▁yaris	-11.2644
▁moir	-11.2644
▁foolish	-11.2647
▁slavery	-11.2647
▁dodge	-11.2647
rmv	-11.2648
▁relieved	-11.2649
▁christianity	-11.2649
▁undergo	-11.265
▁showroom	-11.265
▁shani	-11.265
▁2006	-11.2652
▁hopper	-11.2658
▁playlist	-11.2658
estic	-11.266
▁massage	-11.2664
▁comic	-11.2665
▁fence	-11.2667
await	-11.2668
▁reign	-11.2674
▁idp	-11.2674
uch	-11.2675
▁relic	-11.2677
▁blessing	-11.2678
▁bait	-11.2682
▁cbk	-11.2691
▁overpriced	-11.2695
▁bol	-11.27
▁mrp	-11.2733
▁generalize	-11.2737
▁15000	-11.2742
▁lip	-11.2754
▁gathering	-11.2777
▁tablet	-11.279
agala	-11.2829
chem	-11.2832
▁meh	-11.289
▁indo	-11.2918
force	-11.292
business	-11.2943
lift	-11.2946
tamil	-11.2948
▁vici	-11.2965
ovo	-11.2965
▁backward	-11.2967
grade	-11.2992
▁fav	-11.3006
▁dial	-11.3014
▁sigh	-11.3022
▁aiml	-11.3029
▁dirt	-11.303
▁disast	-11.3034
rust	-11.3042
lancer	-11.3051
▁acqui	-11.3052
▁federal	-11.3053
▁arbitrar	-11.3055
▁asylum	-11.3055
▁concession	-11.3055
▁evident	-11.3055
▁futsal	-11.3055
▁inherent	-11.3055
▁intervene	-11.3055
▁knuckle	-11.3055
▁magistrate	-11.3055
▁paranoid	-11.3055
▁repercussion	-11.3055
▁subsidize	-11.3055
▁uncommon	-11.3055
▁assurance	-11.3055
▁azure	-11.3055
▁dodgy	-11.3055
▁remedy	-11.3055
▁shangri	-11.3055
▁username	-11.3055
▁bundle	-11.3055
▁enrage	-11.3055
▁cleanliness	-11.3055
▁stitch	-11.3055
▁arguabl	-11.3055
▁nanu	-11.3055
▁metric	-11.3055
▁betray	-11.3055
▁fried	-11.3055
▁turm	-11.3055
▁caretake	-11.3055
▁newbie	-11.3056
▁durability	-11.3056
▁georg	-11.3056
▁intercity	-11.3056
▁chamber	-11.3056
▁heartbreak	-11.3056
▁goddam	-11.3056
▁homosexuality	-11.3056
▁accessibility	-11.3056
▁crown	-11.3057
▁spring	-11.3058
▁ambition	-11.3059
retake	-11.306
tube	-11.3061
▁counselor	-11.3061
▁moderation	-11.3062
▁machan	-11.3063
▁iraj	-11.3064
▁charm	-11.3064
▁baiya	-11.3065
▁1980	-11.3065
▁bamba	-11.3067
▁freeload	-11.3068
▁authenticity	-11.3069
▁unclear	-11.3074
▁rebel	-11.3075
▁whatnot	-11.3076
▁sensor	-11.3077
▁saas	-11.3079
▁patch	-11.308
▁sword	-11.309
▁spark	-11.309
pex	-11.309
▁trc	-11.3091
▁retro	-11.3097
▁dharma	-11.31
▁lame	-11.311
▁embarrassing	-11.3111
▁manually	-11.3115
▁lil	-11.3122
▁wheeler	-11.313
▁ceil	-11.3134
▁170	-11.3138
▁jb	-11.3146
kill	-11.315
▁enjoyable	-11.32
why	-11.3208
nominate	-11.3211
▁moderat	-11.3221
gate	-11.3224
indu	-11.3228
bound	-11.3237
cover	-11.324
▁redo	-11.3252
▁chop	-11.3261
46	-11.328
shoot	-11.3288
▁thumb	-11.336
dua	-11.3377
would	-11.3378
scale	-11.3378
travel	-11.3379
especially	-11.3382
food	-11.3384
habi	-11.3397
2024	-11.3404
tuna	-11.3419
ioc	-11.3435
also	-11.344
▁stee	-11.3461
▁karuna	-11.3471
serve	-11.3481
▁88	-11.3484
▁equip	-11.3486
▁constitu	-11.3488
▁christ	-11.3489
▁anarchy	-11.349
▁athlete	-11.349
▁comprehend	-11.349
▁cylinder	-11.349
▁judicial	-11.349
▁kotthu	-11.349
▁pilgrim	-11.349
▁recondition	-11.349
▁stomach	-11.349
▁tunnel	-11.349
▁ukrainian	-11.349
▁widespread	-11.349
▁zimbabwe	-11.349
▁senanayake	-11.349
▁1983	-11.349
▁annex	-11.349
▁belarus	-11.349
▁cooperati	-11.349
▁dishearten	-11.349
shadow	-11.349
▁kadaw	-11.349
▁prince	-11.349
▁prophet	-11.349
▁unusable	-11.349
▁brace	-11.349
▁brick	-11.349
▁york	-11.349
▁children	-11.349
ranjan	-11.349
▁geek	-11.349
▁immatur	-11.349
▁nuwaraeliya	-11.3491
▁fintech	-11.3491
▁optimiz	-11.3491
▁lottery	-11.3491
▁legacy	-11.3491
tention	-11.3491
▁speculation	-11.3491
▁sovereignty	-11.3491
▁onboard	-11.3492
▁256	-11.3492
▁maj	-11.3492
▁gemini	-11.3493
▁revel	-11.3493
▁sanath	-11.3493
▁diplomacy	-11.3494
▁compile	-11.3495
▁motherboard	-11.3495
▁iesl	-11.3496
▁overrate	-11.3496
▁recur	-11.3499
▁coca	-11.35
▁1970	-11.35
▁viewpoint	-11.3501
▁trademark	-11.3504
▁aboard	-11.3505
▁raize	-11.351
▁exploitation	-11.3513
▁cott	-11.3513
▁fond	-11.3518
▁likeminde	-11.3519
source	-11.3519
▁sail	-11.3522
centr	-11.353
▁mech	-11.3549
consistency	-11.355
bfe	-11.3551
▁150000	-11.3553
change	-11.3554
cement	-11.3557
▁lick	-11.3575
▁58	-11.3582
▁baseline	-11.3588
450	-11.3596
▁billionair	-11.3629
step	-11.3636
uuu	-11.3636
73	-11.3637
▁wag	-11.3639
▁jet	-11.3645
oem	-11.3665
liya	-11.3667
▁1800	-11.3672
▁chan	-11.3673
▁crapp	-11.3679
stock	-11.3681
big	-11.3689
▁complian	-11.3698
▁hera	-11.3702
wave	-11.3702
kwh	-11.3716
▁imma	-11.3727
jaya	-11.3735
achi	-11.3757
▁neg	-11.3763
▁rub	-11.3776
▁cultivat	-11.3801
uka	-11.3811
▁ohh	-11.3812
where	-11.3814
drop	-11.3816
liant	-11.3821
break	-11.3831
club	-11.3832
science	-11.3832
week	-11.3833
perform	-11.3834
trip	-11.3835
▁750	-11.3835
watch	-11.3837
media	-11.3842
ranil	-11.3845
custom	-11.3855
zone	-11.3858
npp	-11.3866
story	-11.3869
▁apparent	-11.3904
▁coffe	-11.3922
▁summar	-11.3922
▁noon	-11.3932
▁liber	-11.3935
evolution	-11.394
funde	-11.3944
889	-11.3944
▁spirit	-11.3944
▁mechatronic	-11.3944
▁reccomend	-11.3944
▁affiliation	-11.3944
▁argentin	-11.3944
▁aswesuma	-11.3944
▁ayubowan	-11.3944
▁benchmark	-11.3944
▁continent	-11.3944
▁cosmetic	-11.3944
▁demotivate	-11.3944
▁descend	-11.3944
▁emigrate	-11.3944
▁fiasco	-11.3944
▁fluctuate	-11.3944
▁geographical	-11.3944
▁hierarchy	-11.3944
▁imprison	-11.3944
▁intimidate	-11.3944
▁jayawardene	-11.3944
▁kapruka	-11.3944
▁leisure	-11.3944
▁opportunist	-11.3944
▁pepper	-11.3944
▁rescue	-11.3944
▁suspension	-11.3944
▁treasure	-11.3944
▁unbearable	-11.3944
▁virgin	-11.3944
▁counsellor	-11.3944
▁hypothetical	-11.3944
▁memorable	-11.3944
▁slasscom	-11.3944
▁uprising	-11.3944
▁astrolog	-11.3944
▁sleeve	-11.3944
▁cherry	-11.3944
▁colony	-11.3944
▁compassion	-11.3944
▁kotte	-11.3944
▁shove	-11.3944
▁warehouse	-11.3944
▁boast	-11.3944
▁grace	-11.3944
corolla	-11.3944
▁depart	-11.3944
▁undermine	-11.3944
▁shore	-11.3944
▁bbc	-11.3945
▁remit	-11.3945
▁ncpi	-11.3945
▁outrageous	-11.3945
▁washroom	-11.3945
▁tobac	-11.3945
▁flair	-11.3946
▁conservation	-11.3946
▁generous	-11.3946
▁empower	-11.3947
▁outward	-11.3947
▁disrespectful	-11.3947
▁exhibition	-11.3948
▁haput	-11.3948
▁countrie	-11.3949
▁sept	-11.395
▁musk	-11.395
▁pedo	-11.395
▁dramatic	-11.3951
▁vital	-11.3951
partment	-11.3952
▁deport	-11.3954
▁variation	-11.3954
02	-11.3955
▁inward	-11.3956
▁dns	-11.3956
▁adjustment	-11.3959
▁outline	-11.3961
▁repost	-11.3964
▁banana	-11.3966
▁damm	-11.3969
▁plc	-11.3969
▁5050	-11.397
▁validate	-11.3971
▁ayurveda	-11.3975
▁tes	-11.3976
▁genz	-11.3979
xpress	-11.398
▁fleet	-11.3984
▁seren	-11.3988
▁snow	-11.399
▁itch	-11.3999
hill	-11.4002
▁roti	-11.4013
ugues	-11.4018
▁erase	-11.4089
▁stab	-11.4097
▁geo	-11.4105
120	-11.4116
▁victor	-11.4139
athuranga	-11.416
tract	-11.4163
▁lev	-11.4179
▁memorize	-11.4181
▁victoria	-11.4195
▁laksh	-11.4199
▁abu	-11.4208
▁obst	-11.4211
ombi	-11.4249
▁kol	-11.4285
▁coordinat	-11.4292
4000	-11.4297
monkey	-11.4307
chair	-11.4317
pick	-11.432
▁referr	-11.4329
type	-11.4339
range	-11.4348
nayake	-11.4352
track	-11.4363
▁literar	-11.4382
▁promis	-11.4382
▁hav	-11.4388
good	-11.4395
▁nasa	-11.4397
▁compute	-11.4403
▁chai	-11.441
▁teenage	-11.4411
▁rubb	-11.4412
▁responsib	-11.4415
▁phy	-11.4418
▁uncertain	-11.4419
▁aptitude	-11.442
▁asleep	-11.442
▁assimilat	-11.442
▁bandwidth	-11.442
▁blunder	-11.442
▁conclude	-11.442
▁dismantle	-11.442
▁dolphin	-11.442
▁dynast	-11.442
▁exorbitant	-11.442
▁expansion	-11.442
▁fragrance	-11.442
▁franchise	-11.442
▁frizz	-11.442
▁inefficiency	-11.442
▁jayawardena	-11.442
▁overhaul	-11.442
▁participant	-11.442
▁ravana	-11.442
▁registrar	-11.442
▁sabotage	-11.442
▁selfstudy	-11.442
▁substitut	-11.442
▁sympathy	-11.442
▁technician	-11.442
▁teledrama	-11.442
▁unlucky	-11.442
▁unregistere	-11.442
▁admire	-11.442
▁bandaranayak	-11.442
▁sneez	-11.442
▁courage	-11.442
▁buffer	-11.442
▁daytoday	-11.442
▁sambol	-11.442
▁gifgiphy	-11.442
▁vertical	-11.442
▁leap	-11.442
▁ruppe	-11.442
▁essence	-11.442
▁hyperinflation	-11.442
▁conscious	-11.442
▁convey	-11.442
▁hedge	-11.442
▁qatar	-11.442
▁depict	-11.4421
▁proficiency	-11.4421
▁mortal	-11.4421
▁explod	-11.4421
▁gulf	-11.4421
▁hinder	-11.4421
▁disorder	-11.4422
▁probability	-11.4422
▁outstation	-11.4422
▁wimal	-11.4423
▁leech	-11.4425
▁homophobic	-11.4426
▁reconsider	-11.4426
▁legislation	-11.4427
▁pinch	-11.4428
▁lump	-11.4428
▁hahaha	-11.4431
zza	-11.4431
▁broke	-11.4436
▁shameless	-11.4437
▁harin	-11.4437
▁roadside	-11.4439
▁paperwork	-11.444
▁haj	-11.4442
▁feminist	-11.4443
render	-11.4445
▁backfire	-11.4445
▁coke	-11.4449
▁lav	-11.4451
▁coat	-11.4452
▁yard	-11.4453
asinghe	-11.4462
▁validation	-11.4464
▁duck	-11.4471
▁nano	-11.4477
hinge	-11.4491
chandra	-11.4516
▁overse	-11.4523
flag	-11.4526
▁bake	-11.453
▁geni	-11.4537
itude	-11.4546
▁coordinate	-11.455
67	-11.4569
▁classical	-11.4572
▁supr	-11.4581
▁fif	-11.4609
▁pest	-11.4687
▁jana	-11.4688
▁roo	-11.4717
assis	-11.4723
avit	-11.4725
oud	-11.4731
▁civiliz	-11.4744
▁ken	-11.4752
▁integrat	-11.4782
sustainable	-11.4808
dialog	-11.4808
sinhala	-11.4808
sexual	-11.4808
first	-11.4808
wanted	-11.4809
girl	-11.4811
social	-11.4813
button	-11.4814
galle	-11.4842
▁cloth	-11.4848
990	-11.4855
uj	-11.4874
dont	-11.4884
credit	-11.4885
▁introduc	-11.4885
▁polo	-11.4904
▁nois	-11.4911
▁counsel	-11.4912
▁1950	-11.4914
ological	-11.4917
▁chick	-11.4918
builde	-11.4919
▁oppress	-11.492
elecommunication	-11.492
▁anecdot	-11.492
▁bhutan	-11.492
▁burgher	-11.492
▁censor	-11.492
▁chaotic	-11.492
▁contemporar	-11.492
▁fluctuation	-11.492
▁forensic	-11.492
▁huawei	-11.492
▁hypocrite	-11.492
▁intimate	-11.492
▁kingsbury	-11.492
▁loudspeaker	-11.492
▁provision	-11.492
▁recipient	-11.492
▁refurbish	-11.492
▁rhetoric	-11.492
▁sanctuary	-11.492
▁sandwich	-11.492
▁secretariat	-11.492
▁subsidiary	-11.492
▁switzerland	-11.492
▁vocabulary	-11.492
photocopy	-11.492
▁dengue	-11.492
▁plague	-11.492
▁throat	-11.492
▁tweet	-11.492
▁untouch	-11.492
▁physician	-11.492
▁rainbow	-11.492
▁katunayak	-11.492
▁kerner	-11.492
▁deflation	-11.492
▁illusion	-11.492
▁iraq	-11.492
▁cancellation	-11.492
▁noob	-11.492
▁slogan	-11.492
▁revise	-11.4921
▁spew	-11.4921
▁fertil	-11.4921
▁proxy	-11.4921
▁borella	-11.4921
▁perahera	-11.4921
▁oversize	-11.4921
▁payhere	-11.4921
▁ayya	-11.4921
▁telephone	-11.4921
▁counselling	-11.4921
▁seafood	-11.4921
▁monast	-11.4922
▁imei	-11.4922
▁awake	-11.4922
▁illitera	-11.4922
▁collaboration	-11.4922
▁contrar	-11.4923
▁northeast	-11.4925
▁litre	-11.4926
▁prostitution	-11.4926
▁betterment	-11.4926
▁archive	-11.4926
▁guardian	-11.4926
▁unbelievable	-11.4927
▁1111	-11.4928
▁hoop	-11.4928
▁disappointment	-11.4928
▁fella	-11.4929
▁calend	-11.493
▁captain	-11.4931
traged	-11.4935
▁diff	-11.4936
▁decorat	-11.4938
▁airpo	-11.494
▁greeting	-11.494
▁reload	-11.4942
▁tide	-11.4946
▁privatise	-11.4947
▁ragama	-11.4947
▁harv	-11.4948
▁minus	-11.495
▁coven	-11.4951
▁musician	-11.4952
▁kade	-11.4953
plant	-11.4954
▁cabin	-11.4956
▁irl	-11.4961
▁handling	-11.497
iji	-11.4975
▁shein	-11.4976
▁bidd	-11.498
▁itak	-11.4989
▁sob	-11.499
▁esc	-11.5026
▁creat	-11.5032
▁amen	-11.5033
▁bow	-11.5053
▁merge	-11.506
▁rajap	-11.5062
▁maz	-11.5062
aksha	-11.5064
uous	-11.5076
nanayak	-11.508
▁downgrad	-11.5101
▁kuru	-11.5125
▁elevat	-11.5126
▁jetw	-11.52
proxim	-11.5204
compass	-11.5259
▁therm	-11.5284
▁neo	-11.5288
worthy	-11.5329
wheel	-11.5334
mobile	-11.5334
cultural	-11.5334
political	-11.5334
finance	-11.5335
little	-11.5335
productive	-11.5336
enture	-11.5341
easy	-11.5352
tense	-11.5372
root	-11.5389
▁mov	-11.5401
jector	-11.5404
▁investigat	-11.5407
india	-11.5428
terior	-11.5442
▁eligib	-11.5443
▁templ	-11.5445
mmunity	-11.5446
▁outrage	-11.5446
phobia	-11.5446
savvy	-11.5447
▁afghanistan	-11.5447
▁apologise	-11.5447
▁athletic	-11.5447
▁bluetooth	-11.5447
▁cambodia	-11.5447
▁commodity	-11.5447
▁cooperate	-11.5447
▁inhumane	-11.5447
▁kuluna	-11.5447
▁landslide	-11.5447
▁lmfao	-11.5447
▁masculin	-11.5447
▁nonexistent	-11.5447
▁nostalgi	-11.5447
▁overthrow	-11.5447
▁predominant	-11.5447
▁psychopath	-11.5447
▁quantitative	-11.5447
▁rainforest	-11.5447
▁renegotiat	-11.5447
▁resilient	-11.5447
▁rhythm	-11.5447
▁separatis	-11.5447
▁simultaneously	-11.5447
▁surgical	-11.5447
▁sympathize	-11.5447
▁toronto	-11.5447
▁vacuum	-11.5447
▁vocation	-11.5447
▁colonise	-11.5447
▁evasion	-11.5447
▁hijack	-11.5447
▁humiliat	-11.5447
▁justification	-11.5447
▁nvq	-11.5447
▁amateur	-11.5447
▁parliamentarian	-11.5447
▁sanskr	-11.5447
▁squad	-11.5447
▁pivot	-11.5447
▁attribute	-11.5447
▁dairy	-11.5447
▁php	-11.5447
▁ubereat	-11.5447
▁moistur	-11.5447
▁explosi	-11.5447
▁forcefully	-11.5447
▁sinop	-11.5447
▁vecno	-11.5447
▁album	-11.5447
▁nicotin	-11.5447
▁chaba	-11.5447
▁fingerprint	-11.5447
voke	-11.5447
emma	-11.5448
▁malayali	-11.5448
▁oblivious	-11.5449
▁crumb	-11.5449
▁denial	-11.545
▁humidity	-11.545
▁patriotism	-11.545
▁decency	-11.545
▁benz	-11.5451
▁triang	-11.5451
▁statue	-11.5451
▁asf	-11.5451
▁experi	-11.5452
▁insecurity	-11.5453
▁possession	-11.5454
▁defect	-11.5454
rgency	-11.5455
▁sinhalatamil	-11.5455
▁coupon	-11.5457
▁hardworke	-11.5461
ulous	-11.5462
▁4050	-11.5464
▁tonight	-11.5464
▁forbid	-11.5472
▁divi	-11.5472
2022	-11.5473
ossil	-11.5473
▁weaken	-11.5477
▁cutting	-11.5485
▁kei	-11.5486
▁cess	-11.5491
▁populate	-11.5495
▁2004	-11.5501
▁pour	-11.5505
▁ppp	-11.5509
critic	-11.5513
▁chant	-11.5515
▁nine	-11.5516
▁insecur	-11.5519
btu	-11.5551
▁deriv	-11.5563
▁memo	-11.5594
▁verit	-11.5641
▁turbo	-11.5645
▁ceyl	-11.5674
iye	-11.5734
yyyy	-11.574
aud	-11.5767
▁intens	-11.5783
▁evaluat	-11.5808
▁prad	-11.5872
▁tru	-11.5882
▁octa	-11.5882
educate	-11.589
season	-11.589
culture	-11.589
profit	-11.589
current	-11.5891
waste	-11.5891
foot	-11.5894
limit	-11.5894
group	-11.5896
hurt	-11.5904
▁graph	-11.5904
ography	-11.5906
tician	-11.5914
iii	-11.5928
termination	-11.595
▁thorough	-11.5962
▁privatis	-11.5973
▁minne	-11.5978
▁atp	-11.5994
▁legislat	-11.5995
▁possess	-11.5995
▁humid	-11.5999
▁controvers	-11.6001
itarian	-11.6002
▁reimburse	-11.6002
frequency	-11.6002
shrugge	-11.6002
▁accompan	-11.6002
▁celebrity	-11.6002
▁commemorat	-11.6002
▁compliment	-11.6002
▁declaration	-11.6002
▁delicious	-11.6002
▁egypt	-11.6002
▁fascinating	-11.6002
▁furnish	-11.6002
▁gullible	-11.6002
▁habarana	-11.6002
▁impractical	-11.6002
▁invalid	-11.6002
▁invitation	-11.6002
▁lesbian	-11.6002
▁noodle	-11.6002
▁peratugami	-11.6002
▁piliyandala	-11.6002
▁piracy	-11.6002
▁rabbit	-11.6002
▁rupavahini	-11.6002
▁scandinavia	-11.6002
▁shrink	-11.6002
▁suicidal	-11.6002
▁sweden	-11.6002
▁translator	-11.6002
▁transmission	-11.6002
▁unauthori	-11.6002
▁upcountry	-11.6002
▁vigilant	-11.6002
▁virtusa	-11.6002
▁bloom	-11.6002
▁gesture	-11.6002
▁molecul	-11.6002
▁occurrence	-11.6002
▁prevail	-11.6002
▁axio	-11.6002
▁durdan	-11.6002
▁monument	-11.6002
▁premio	-11.6002
▁situate	-11.6002
▁tbill	-11.6002
▁calcey	-11.6002
▁actress	-11.6002
▁soap	-11.6002
▁insert	-11.6002
▁blur	-11.6002
because	-11.6002
▁embed	-11.6002
▁worm	-11.6002
▁prick	-11.6002
▁utilis	-11.6002
▁corri	-11.6003
▁orthodonti	-11.6003
▁nausea	-11.6003
▁carbon	-11.6003
▁kidnap	-11.6003
▁furious	-11.6003
▁pork	-11.6003
▁sedan	-11.6004
▁fixture	-11.6004
▁telco	-11.6004
▁trek	-11.6005
▁obligate	-11.6005
▁satisfaction	-11.6006
▁spanish	-11.6006
▁unhealth	-11.6007
▁confidential	-11.6007
▁curtain	-11.6007
▁smash	-11.6008
▁ryt	-11.6008
▁squat	-11.6008
▁diligen	-11.6008
▁barrel	-11.6008
▁stunt	-11.6009
▁prioritise	-11.6011
▁lamp	-11.6013
▁overwork	-11.6013
▁steep	-11.6014
▁pound	-11.6014
▁firework	-11.6014
▁extraction	-11.6015
▁meas	-11.6015
constru	-11.6016
▁inspection	-11.6018
▁rapist	-11.6019
▁mofo	-11.6022
▁detector	-11.6023
▁seik	-11.6023
▁systematic	-11.6024
▁factual	-11.6025
naval	-11.6034
▁ets	-11.6037
▁amara	-11.6037
▁rajarat	-11.6045
▁manipulat	-11.6055
▁simplif	-11.6056
▁hora	-11.6056
▁flame	-11.606
▁atl	-11.607
deniya	-11.6081
kumar	-11.6085
inking	-11.6109
pora	-11.6111
▁kata	-11.6129
eliya	-11.6166
550	-11.6179
▁reinvest	-11.619
▁cmc	-11.6243
jude	-11.6247
esco	-11.6256
liza	-11.6306
uniya	-11.6369
▁wheat	-11.6381
rsion	-11.6456
▁continu	-11.6458
▁hama	-11.6458
pleasant	-11.6477
sense	-11.6478
staff	-11.6478
muslim	-11.6478
english	-11.6479
maybe	-11.6479
create	-11.6482
▁valu	-11.6516
jab	-11.6531
▁upgrad	-11.6552
▁warrant	-11.6564
▁plea	-11.6569
▁nawal	-11.6579
▁suspicio	-11.6588
▁misunderst	-11.6588
▁pohottu	-11.6589
▁configur	-11.659
vomiting	-11.659
▁abeysingh	-11.659
▁alphabet	-11.659
▁ambulance	-11.659
▁asbestos	-11.659
▁breeze	-11.659
▁bureaucrat	-11.659
▁hashtag	-11.659
▁indulge	-11.659
▁innovex	-11.659
▁intermediate	-11.659
▁mahindananda	-11.659
▁maithree	-11.659
▁misogyn	-11.659
▁narcissist	-11.659
▁nuisance	-11.659
▁pseudo	-11.659
▁sacred	-11.659
▁sapphire	-11.659
▁sarcastic	-11.659
▁significance	-11.659
▁tarrif	-11.659
▁terrify	-11.659
▁tertiary	-11.659
▁umbrella	-11.659
▁vancouver	-11.659
▁blackmail	-11.659
▁elitist	-11.659
▁parliment	-11.659
▁threewheeler	-11.659
▁tolerance	-11.659
▁trouser	-11.659
▁confine	-11.659
▁glaze	-11.659
▁potato	-11.659
▁toddler	-11.659
▁spider	-11.659
▁obstruct	-11.659
▁zionist	-11.659
▁aerospace	-11.659
kbps	-11.659
▁deceive	-11.6591
▁greek	-11.6591
▁puthano	-11.6591
▁grassroot	-11.6591
▁retaliat	-11.6591
▁pricy	-11.6591
▁motive	-11.6591
▁cpc	-11.6591
▁pradesh	-11.6591
▁astro	-11.6591
▁mourn	-11.6591
solicit	-11.6591
▁vibran	-11.6591
▁knw	-11.6591
bhaya	-11.6591
▁wolf	-11.6592
▁bleed	-11.6592
▁vedda	-11.6592
▁minimis	-11.6592
▁pillow	-11.6592
▁breast	-11.6592
▁griev	-11.6593
amantha	-11.6593
▁uphold	-11.6593
▁inexperience	-11.6593
▁sabarag	-11.6594
▁spike	-11.6594
▁correlat	-11.6594
▁renovation	-11.6594
▁echo	-11.6595
▁abide	-11.6595
▁pollute	-11.6597
▁itenar	-11.6598
▁coward	-11.6599
▁islandwide	-11.66
▁fascist	-11.66
▁digest	-11.6602
▁ffs	-11.6602
▁platin	-11.6603
▁kamal	-11.6604
▁deaf	-11.6606
▁infant	-11.6606
luxe	-11.6606
▁parasit	-11.6606
built	-11.6607
▁shithole	-11.6608
▁potter	-11.6608
▁nude	-11.6612
thesis	-11.6612
▁chose	-11.6624
fringe	-11.6651
ctb	-11.666
inability	-11.6686
okla	-11.6766
hearteye	-11.6769
early	-11.6781
▁patt	-11.6811
moto	-11.6826
350	-11.684
▁ryz	-11.6854
nadu	-11.6891
▁shre	-11.6914
fortunately	-11.6963
glue	-11.697
▁ananda	-11.697
▁turb	-11.6985
graphic	-11.6997
trade	-11.7068
rking	-11.7073
▁arun	-11.709
corrupt	-11.7102
jvp	-11.7103
cloud	-11.7104
buy	-11.7105
essential	-11.7107
order	-11.7109
wood	-11.7112
radar	-11.7174
▁gaz	-11.7178
▁rememb	-11.7195
▁instruct	-11.72
ibility	-11.7206
▁oblig	-11.7208
▁corpora	-11.7209
▁miris	-11.7214
wickrama	-11.7215
▁indep	-11.7215
▁ethno	-11.7215
▁stimula	-11.7215
discriminatory	-11.7215
▁ambuluwa	-11.7215
▁antenna	-11.7215
▁autonomy	-11.7215
▁bilingual	-11.7215
▁complication	-11.7215
▁consolidat	-11.7215
▁crawl	-11.7215
▁destruction	-11.7215
▁discretion	-11.7215
▁ergonomic	-11.7215
▁imbalance	-11.7215
▁inconsistent	-11.7215
▁influential	-11.7215
▁intolerant	-11.7215
▁irritate	-11.7215
▁justifiabl	-11.7215
▁kataragama	-11.7215
▁maradana	-11.7215
▁mumbai	-11.7215
▁prejudice	-11.7215
▁responsive	-11.7215
▁saviour	-11.7215
▁transcript	-11.7215
oriente	-11.7215
▁embark	-11.7215
▁equation	-11.7215
▁extraordinar	-11.7215
▁jeppa	-11.7215
▁kaduwela	-11.7215
▁rebrand	-11.7215
▁spontaneous	-11.7215
▁trivial	-11.7215
▁vishwa	-11.7215
amuwa	-11.7215
▁coexist	-11.7215
▁savior	-11.7215
▁freight	-11.7215
▁marvel	-11.7215
▁nordic	-11.7215
▁sauce	-11.7215
▁udemy	-11.7215
▁mitigat	-11.7215
▁reckon	-11.7216
▁vessel	-11.7216
▁coincidence	-11.7216
▁backbone	-11.7216
▁deteriorat	-11.7216
▁geography	-11.7216
▁wickramasingh	-11.7216
▁frick	-11.7216
▁dashboard	-11.7216
▁anticorrupt	-11.7217
▁tyre	-11.7217
▁insure	-11.7217
▁blanket	-11.7217
▁hidden	-11.7217
▁spectac	-11.7217
▁utopia	-11.7217
▁candle	-11.7217
▁sustainability	-11.7218
▁baffle	-11.7218
▁inheritance	-11.7218
▁awhile	-11.7218
▁reef	-11.7218
▁nilad	-11.7219
▁aero	-11.7219
▁vesak	-11.722
▁guysss	-11.722
▁homie	-11.7221
▁shud	-11.7221
▁mastercard	-11.7222
▁simulat	-11.7222
▁dispar	-11.7223
▁8090	-11.7223
▁wiki	-11.7224
▁purse	-11.7225
gamuwa	-11.7226
▁hangover	-11.7228
▁afterma	-11.7229
▁lpl	-11.723
▁instalment	-11.723
▁oust	-11.7232
▁kiri	-11.7233
odys	-11.7234
adasa	-11.724
curate	-11.7251
▁woke	-11.7252
▁bye	-11.7254
hallow	-11.7263
▁nominat	-11.729
▁sanga	-11.7308
skinne	-11.7317
▁circu	-11.733
kaduwa	-11.735
▁dilsh	-11.7363
eval	-11.737
fps	-11.7374
cell	-11.7393
pushpi	-11.7418
gbps	-11.7426
characteristic	-11.7477
▁chathura	-11.757
▁competenc	-11.7612
reach	-11.772
ratna	-11.7739
cross	-11.7767
familiar	-11.777
left	-11.777
blue	-11.777
account	-11.777
family	-11.777
street	-11.777
support	-11.777
hotel	-11.777
space	-11.7771
focus	-11.7771
interest	-11.7771
minute	-11.7775
▁popula	-11.7806
arrow	-11.785
▁unknow	-11.7873
▁democrat	-11.7873
▁prostitut	-11.7874
▁oblivio	-11.7879
▁blank	-11.788
angoda	-11.7882
▁acquaint	-11.7882
cricinfo	-11.7882
sunglasse	-11.7882
voltage	-11.7882
▁bollywood	-11.7882
▁contemplat	-11.7882
▁dessert	-11.7882
▁educator	-11.7882
▁html	-11.7882
▁isolation	-11.7882
▁maldivian	-11.7882
▁megathread	-11.7882
▁negligible	-11.7882
▁neoliberal	-11.7882
▁oxford	-11.7882
▁pregnancy	-11.7882
▁ratmalana	-11.7882
▁redirect	-11.7882
▁revision	-11.7882
▁separation	-11.7882
▁unmarrie	-11.7882
▁valorant	-11.7882
▁wasantha	-11.7882
▁infamous	-11.7882
▁messenger	-11.7882
▁mysterious	-11.7882
▁pickleball	-11.7882
▁rebellion	-11.7882
ponzi	-11.7882
▁proactive	-11.7882
▁refrigerat	-11.7882
▁sophisticat	-11.7882
▁suffice	-11.7882
▁unlawful	-11.7882
▁wannabe	-11.7882
▁whistle	-11.7882
▁latency	-11.7882
▁rogue	-11.7882
▁david	-11.7882
▁detach	-11.7882
▁cuba	-11.7882
▁outlier	-11.7882
▁axia	-11.7882
▁bbq	-11.7882
▁milestone	-11.7882
▁euthan	-11.7882
▁crisp	-11.7882
▁warrior	-11.7882
▁strive	-11.7882
▁ninewell	-11.7882
▁spoon	-11.7882
▁tusk	-11.7882
▁fusion	-11.7882
▁heap	-11.7882
cule	-11.7883
▁jerk	-11.7883
▁kyc	-11.7883
▁surcharge	-11.7883
▁festivit	-11.7883
▁purple	-11.7883
▁lightning	-11.7883
▁reelect	-11.7884
▁championship	-11.7884
▁cerave	-11.7884
▁nonetheless	-11.7884
▁procurement	-11.7885
▁firearm	-11.7885
aaaa	-11.7886
▁dataset	-11.7887
▁ccpi	-11.7887
▁corro	-11.7887
▁electorate	-11.7887
▁photoshop	-11.7888
▁nhs	-11.7888
▁bharat	-11.7888
bulb	-11.7889
▁dealership	-11.7889
▁marginaliz	-11.7889
▁preschool	-11.7889
product	-11.789
▁vivo	-11.7891
▁thero	-11.7891
wellawatta	-11.7892
▁again	-11.7893
▁garne	-11.7899
exico	-11.7902
▁appeti	-11.7909
▁consula	-11.791
ldl	-11.7916
▁milita	-11.7925
▁gamin	-11.7926
▁categoriz	-11.7945
favorable	-11.7959
apu	-11.7961
▁wasi	-11.8013
govlk	-11.806
▁meddl	-11.8113
▁excu	-11.8264
azine	-11.8285
ikka	-11.8317
peek	-11.8317
burg	-11.8412
▁rotat	-11.8473
▁debat	-11.8478
conduct	-11.8483
constitutional	-11.8483
glass	-11.8484
approve	-11.8484
when	-11.8484
nuwara	-11.8485
▁choos	-11.8508
roach	-11.8512
▁delusion	-11.8586
▁avail	-11.859
▁infect	-11.8595
▁famili	-11.8595
▁ridicul	-11.8596
▁oxygen	-11.8596
▁rambuk	-11.8596
▁rotaract	-11.8596
▁soviet	-11.8596
▁tarnish	-11.8596
▁1972	-11.8596
▁abnormal	-11.8596
▁analyse	-11.8596
▁avurud	-11.8596
▁biometric	-11.8596
▁brigade	-11.8596
▁bungalow	-11.8596
▁burglar	-11.8596
▁census	-11.8596
▁columbo	-11.8596
▁deactivate	-11.8596
▁dehiwela	-11.8596
▁desperation	-11.8596
▁dinemore	-11.8596
▁duplicat	-11.8596
▁extravagant	-11.8596
▁funniest	-11.8596
▁gorgeous	-11.8596
▁hormone	-11.8596
▁influx	-11.8596
▁infuriate	-11.8596
▁irresponsible	-11.8596
▁jazeera	-11.8596
▁negativity	-11.8596
▁nephew	-11.8596
▁nutshell	-11.8596
▁pragmatic	-11.8596
▁puzzle	-11.8596
▁stockbroker	-11.8596
▁stunning	-11.8596
▁submission	-11.8596
▁surveillance	-11.8596
▁unregulate	-11.8596
▁jkcg	-11.8596
▁unfold	-11.8596
▁untill	-11.8596
▁companion	-11.8596
▁flix	-11.8596
▁greece	-11.8596
▁lagoon	-11.8596
▁satire	-11.8596
▁peotv	-11.8596
▁rifle	-11.8596
▁jazz	-11.8596
▁annum	-11.8596
▁redundan	-11.8596
▁menace	-11.8596
▁nishan	-11.8597
▁maligawa	-11.8597
inflict	-11.8597
▁maithripala	-11.8597
▁multiply	-11.8597
▁racing	-11.8597
▁mohame	-11.8597
▁murali	-11.8597
▁arjun	-11.8597
▁consultancy	-11.8598
▁proficien	-11.8598
▁dhal	-11.8598
▁devote	-11.8598
▁aqui	-11.8599
▁downward	-11.8599
▁rayha	-11.8599
▁federalism	-11.8599
▁tyran	-11.86
▁incite	-11.86
▁discourse	-11.86
▁biotech	-11.8601
▁disturbance	-11.8601
▁ginger	-11.8602
▁incline	-11.8603
▁divert	-11.8603
▁peko	-11.8604
nintend	-11.8604
▁barbari	-11.8607
▁skim	-11.8609
downsize	-11.8611
▁hairstyl	-11.8626
tipping	-11.8641
850	-11.8671
hygienic	-11.87
idden	-11.8739
▁arabia	-11.8785
frame	-11.8816
▁concentrat	-11.8971
▁vijay	-11.8994
pain	-11.9005
▁refra	-11.9019
▁originat	-11.9057
lapse	-11.9228
public	-11.9242
health	-11.9247
tongue	-11.9252
information	-11.9253
ethnic	-11.9253
specific	-11.9253
private	-11.9254
advice	-11.9254
demand	-11.9254
scope	-11.9254
software	-11.9254
passport	-11.9255
control	-11.9255
please	-11.926
capita	-11.9263
▁generat	-11.9278
section	-11.9286
deepa	-11.9317
animat	-11.932
▁greet	-11.9335
▁relieve	-11.9345
issamaharama	-11.9366
ordshire	-11.9366
packfacepalm	-11.9366
▁abysmal	-11.9366
▁alumnus	-11.9366
▁atrocious	-11.9366
▁bamboo	-11.9366
▁bangkok	-11.9366
▁bizarre	-11.9366
▁butcher	-11.9366
▁charisma	-11.9366
▁constraint	-11.9366
▁curtail	-11.9366
▁etiquette	-11.9366
▁finasterid	-11.9366
▁fragile	-11.9366
▁halloween	-11.9366
▁hollywood	-11.9366
▁hypocritical	-11.9366
▁inconvenient	-11.9366
▁indefinite	-11.9366
▁instinct	-11.9366
▁laundry	-11.9366
▁mudalali	-11.9366
▁multiplayer	-11.9366
▁myanmar	-11.9366
▁negligence	-11.9366
▁nurture	-11.9366
▁parakramabahu	-11.9366
▁pedestal	-11.9366
▁pretentious	-11.9366
▁rajitha	-11.9366
▁recycling	-11.9366
▁repetitive	-11.9366
▁splurg	-11.9366
▁stubborn	-11.9366
▁swedish	-11.9366
▁transgender	-11.9366
▁unaffordable	-11.9366
▁upbring	-11.9366
▁vitiligo	-11.9366
▁uganda	-11.9366
disproportionate	-11.9366
▁anthare	-11.9366
▁bangalore	-11.9366
▁bumble	-11.9366
▁empathetic	-11.9366
▁visibility	-11.9366
▁spineless	-11.9366
▁wolver	-11.9366
▁philip	-11.9366
▁casio	-11.9366
▁festive	-11.9366
▁renowne	-11.9366
▁weerasinghe	-11.9366
▁britain	-11.9366
▁malinga	-11.9366
▁decease	-11.9366
▁tribal	-11.9366
▁inequality	-11.9366
▁oversight	-11.9366
▁intact	-11.9366
▁dominant	-11.9366
▁thalawa	-11.9366
▁towel	-11.9366
▁gamage	-11.9366
▁sadden	-11.9366
▁amaze	-11.9366
▁texa	-11.9366
▁kando	-11.9366
▁humor	-11.9366
▁excellenc	-11.9366
rahera	-11.9367
▁jdm	-11.9367
▁goodbye	-11.9367
▁deplet	-11.9368
▁obey	-11.9368
▁macau	-11.9368
▁uphill	-11.9368
kovil	-11.9368
▁optimis	-11.9368
▁seettu	-11.9372
▁archeolog	-11.9376
▁applau	-11.9378
▁juris	-11.9381
axis	-11.9401
▁kalpit	-11.9448
either	-11.9474
cruiser	-11.9492
sufficient	-11.9518
▁dudl	-11.9623
660	-11.9652
eksha	-11.982
▁sensitiv	-11.9943
booth	-11.9986
through	-12.0067
symbol	-12.0086
academic	-12.0087
computer	-12.0087
wealth	-12.0087
engineer	-12.0087
crime	-12.0087
white	-12.0087
education	-12.0087
student	-12.0087
general	-12.0087
korea	-12.0094
▁criti	-12.0108
western	-12.011
▁mahind	-12.0155
1080	-12.0157
▁jeweller	-12.0172
▁fascis	-12.0185
▁ambitio	-12.019
▁homophobi	-12.019
▁allerg	-12.0193
▁psychiatri	-12.0193
structive	-12.0197
0000000000000000	-12.0199
narahenpita	-12.0199
▁distress	-12.0199
▁reciproca	-12.0199
▁swallow	-12.0199
▁terribly	-12.0199
▁thunder	-12.0199
▁undervalue	-12.0199
▁analogy	-12.0199
▁anticipat	-12.0199
▁bacteria	-12.0199
▁conglomerate	-12.0199
▁correspond	-12.0199
▁custody	-12.0199
▁deodorant	-12.0199
▁devastate	-12.0199
▁donkey	-12.0199
▁exploration	-12.0199
▁flirt	-12.0199
▁gammanpil	-12.0199
▁hatchback	-12.0199
▁headquarter	-12.0199
▁hyundai	-12.0199
▁inevitably	-12.0199
▁joseph	-12.0199
▁kilometer	-12.0199
▁kotelaw	-12.0199
▁nonresident	-12.0199
▁outweigh	-12.0199
▁physiotherap	-12.0199
▁porsche	-12.0199
▁relocation	-12.0199
▁resentment	-12.0199
▁sarasavi	-12.0199
▁scheduling	-12.0199
▁smuggle	-12.0199
▁speculate	-12.0199
▁subcontinent	-12.0199
▁supremac	-12.0199
▁swarnawahini	-12.0199
▁sympathise	-12.0199
▁wholeheartedly	-12.0199
▁ymmv	-12.0199
▁archaeolog	-12.0199
▁booze	-12.0199
▁glassdoor	-12.0199
▁impeach	-12.0199
▁niladari	-12.0199
▁radius	-12.0199
▁ruthless	-12.0199
sqft	-12.0199
▁sigriya	-12.0199
▁traumatize	-12.0199
▁mystery	-12.0199
▁sphere	-12.0199
▁payslip	-12.0199
▁violin	-12.0199
▁baiyy	-12.0199
▁avenge	-12.0199
▁intrest	-12.0199
▁mintpay	-12.0199
▁frugal	-12.0199
▁matale	-12.0199
▁alpha	-12.0199
