<unk>	0
<s>	0
</s>	0
▁sri	-4.60822
▁like	-4.73139
▁s	-4.83953
▁good	-4.89913
▁lanka	-4.91515
▁	-4.92018
▁people	-4.92458
▁know	-5.09891
▁t	-5.17883
▁think	-5.28798
▁time	-5.31902
▁m	-5.33835
▁work	-5.36082
ly	-5.37409
▁go	-5.3774
▁need	-5.39444
▁country	-5.44337
e	-5.45225
▁want	-5.47745
▁year	-5.48561
▁get	-5.5002
▁look	-5.57617
ing	-5.63004
▁thing	-5.69267
▁pay	-5.74792
▁day	-5.75386
▁try	-5.7681
s	-5.77904
y	-5.8024
▁come	-5.82102
▁place	-5.8831
▁colombo	-5.89482
▁find	-5.89529
▁government	-5.93561
▁way	-5.95153
▁lankan	-5.95377
▁help	-5.97224
▁money	-5.98228
▁thank	-5.98439
▁say	-6.00349
▁buy	-6.01007
▁sl	-6.01434
▁well	-6.0175
▁job	-6.03871
▁experience	-6.05247
▁start	-6.07725
▁guy	-6.08595
er	-6.08613
▁month	-6.13209
▁high	-6.14876
▁right	-6.18523
▁company	-6.18773
▁price	-6.1925
▁ask	-6.20963
▁plan	-6.21089
▁new	-6.21261
▁use	-6.21554
▁lot	-6.248
r	-6.27431
▁live	-6.28968
▁don	-6.28972
▁feel	-6.30165
d	-6.3148
▁life	-6.31608
t	-6.31991
▁happen	-6.34634
▁see	-6.34662
▁issue	-6.34934
n	-6.354
▁not	-6.35445
▁post	-6.36426
▁long	-6.38178
▁degree	-6.3856
▁friend	-6.38726
▁bad	-6.41393
▁d	-6.45487
▁car	-6.45741
a	-6.45993
▁etc	-6.4952
▁tax	-6.49762
▁sure	-6.50062
▁ve	-6.50766
▁school	-6.51014
▁local	-6.52496
al	-6.53295
▁let	-6.53426
▁change	-6.54135
▁bank	-6.54656
▁mean	-6.54862
▁university	-6.54955
▁give	-6.5534
▁hear	-6.55725
▁take	-6.56027
▁travel	-6.56534
▁student	-6.57178
▁u	-6.57393
▁cost	-6.5818
ed	-6.59584
▁business	-6.59719
▁tell	-6.59909
▁hi	-6.601
▁end	-6.62828
▁advice	-6.63858
▁option	-6.66915
▁love	-6.67858
▁learn	-6.68621
▁actually	-6.68952
▁family	-6.69948
▁question	-6.70695
▁hard	-6.70847
▁visit	-6.7121
▁check	-6.7434
▁point	-6.74362
▁market	-6.7445
▁study	-6.7452
▁old	-6.75326
▁problem	-6.77001
▁service	-6.77582
▁vote	-6.77641
▁salary	-6.77861
▁account	-6.7814
▁leave	-6.79078
▁hope	-6.79576
▁make	-6.79651
▁idea	-6.80084
▁big	-6.81785
▁power	-6.8191
▁tamil	-6.83853
▁consider	-6.84231
▁talk	-6.84467
▁stay	-6.849
▁man	-6.85136
▁maybe	-6.8527
▁week	-6.85885
▁person	-6.86364
▁understand	-6.86536
▁free	-6.86921
▁vehicle	-6.88933
▁bit	-6.89307
▁online	-6.89321
▁private	-6.89436
▁low	-6.90155
▁party	-6.91102
▁different	-6.91525
▁system	-6.91751
ion	-6.92127
▁appreciate	-6.92221
▁base	-6.92937
▁parent	-6.93408
c	-6.93761
▁great	-6.93956
▁call	-6.94021
▁reason	-6.94903
▁share	-6.94965
▁income	-6.9504
▁world	-6.95239
▁home	-6.95444
m	-6.95869
▁situation	-6.96273
▁area	-6.9641
▁l	-6.96429
▁support	-6.97267
▁run	-6.97972
▁food	-6.98868
▁small	-6.99294
▁card	-6.99581
▁build	-6.99722
▁open	-6.99951
▁yes	-7.00457
▁pretty	-7.00586
▁public	-7.00846
▁recommend	-7.01043
▁offer	-7.01543
▁kind	-7.02725
▁stuff	-7.02779
▁currently	-7.03439
▁uni	-7.03468
▁shit	-7.03843
▁class	-7.04855
▁foreign	-7.05399
▁stop	-7.05463
▁spend	-7.05801
▁able	-7.06154
▁hey	-7.06583
▁level	-7.06645
▁education	-7.07158
▁india	-7.07448
▁case	-7.08057
o	-7.0814
▁sell	-7.08311
▁sinhala	-7.08324
▁current	-7.08725
▁bus	-7.08746
▁apply	-7.08846
▁bring	-7.09308
▁recently	-7.09576
▁state	-7.10234
▁term	-7.10368
▁house	-7.11506
▁real	-7.12194
▁law	-7.12363
▁app	-7.1264
▁have	-7.12928
▁english	-7.13122
▁book	-7.13366
▁number	-7.1403
▁rate	-7.14129
▁far	-7.14338
▁wonder	-7.14835
▁read	-7.14884
▁to	-7.15751
▁g	-7.15789
▁earn	-7.16303
▁probably	-7.17135
▁medium	-7.17306
or	-7.17457
▁advance	-7.17768
▁speak	-7.18021
▁future	-7.18249
▁election	-7.1836
▁ranil	-7.18385
▁abroad	-7.18768
▁phone	-7.19241
▁worth	-7.20069
▁especially	-7.20077
▁invest	-7.20392
▁easy	-7.21057
▁recommendation	-7.21109
▁care	-7.21189
▁mention	-7.21226
▁social	-7.21462
▁course	-7.21536
▁lol	-7.21612
▁win	-7.21981
▁similar	-7.22477
▁face	-7.22509
▁possible	-7.22928
▁kid	-7.22948
▁lkr	-7.2374
▁send	-7.23909
▁hand	-7.24001
▁comment	-7.2412
▁loan	-7.25125
p	-7.25256
▁taxis	-7.26528
▁doctor	-7.27175
▁increase	-7.27281
▁drive	-7.27283
▁npp	-7.27556
▁land	-7.27677
▁play	-7.27927
▁cause	-7.27933
▁follow	-7.28274
b	-7.28326
▁r	-7.28425
▁believe	-7.28982
▁package	-7.29178
▁close	-7.29385
▁expect	-7.29703
▁un	-7.29776
▁watch	-7.29949
▁war	-7.29999
ic	-7.30018
l	-7.30282
▁political	-7.30543
▁will	-7.30833
▁visa	-7.31044
▁economy	-7.31313
▁opinion	-7.3151
▁datum	-7.31511
▁police	-7.31588
▁trip	-7.31625
▁charge	-7.31726
▁lose	-7.32021
▁order	-7.32301
▁cheap	-7.32301
▁wrong	-7.32798
▁matter	-7.33016
h	-7.33714
▁one	-7.33824
▁away	-7.34057
▁ll	-7.34058
▁ago	-7.34083
▁wait	-7.34309
▁mind	-7.34601
▁instead	-7.34915
▁provide	-7.34931
▁remember	-7.3502
▁group	-7.35025
▁quality	-7.35237
▁economic	-7.35277
▁tourist	-7.35356
▁opportunity	-7.35837
▁hour	-7.36047
▁kandy	-7.36146
▁payment	-7.36445
▁fund	-7.37219
▁e	-7.37324
▁import	-7.37533
▁budget	-7.3802
i	-7.38203
▁personal	-7.38387
▁usually	-7.3855
able	-7.38835
▁true	-7.38864
▁yeah	-7.39084
▁little	-7.39502
▁thought	-7.39609
▁process	-7.40037
te	-7.40479
▁industry	-7.40898
▁science	-7.40913
▁al	-7.40986
▁president	-7.40991
▁engineering	-7.41012
▁politician	-7.41016
▁project	-7.41332
▁past	-7.4168
▁add	-7.41758
▁culture	-7.42103
▁compare	-7.42314
▁product	-7.42955
▁south	-7.42984
▁b	-7.4304
▁suggestion	-7.43071
▁choose	-7.4364
▁investment	-7.438
▁save	-7.44587
▁field	-7.44772
▁allow	-7.44856
▁include	-7.4487
▁result	-7.45435
▁deal	-7.45963
▁suggest	-7.46245
▁policy	-7.46573
▁driver	-7.46687
▁girl	-7.47152
▁video	-7.47296
▁research	-7.47377
▁night	-7.47385
▁today	-7.47498
▁brand	-7.48074
▁million	-7.48426
▁shop	-7.48572
▁agree	-7.48733
▁game	-7.49491
▁child	-7.49826
▁create	-7.51278
▁fine	-7.51313
▁notice	-7.51402
▁cut	-7.51592
▁woman	-7.51864
▁hotel	-7.51869
▁interest	-7.52183
▁general	-7.52347
▁example	-7.52593
▁show	-7.53087
▁dialog	-7.5321
▁road	-7.5322
▁depend	-7.5355
▁second	-7.53812
▁exam	-7.53816
▁value	-7.5432
▁couple	-7.55302
▁trust	-7.55329
in	-7.55453
on	-7.5552
▁answer	-7.5555
▁relate	-7.55618
▁available	-7.56432
▁hold	-7.56588
▁international	-7.56853
▁information	-7.57333
▁slt	-7.57641
▁city	-7.58051
▁train	-7.58159
▁stock	-7.58487
▁c	-7.58843
▁guess	-7.58861
▁skill	-7.58991
▁website	-7.5912
▁usd	-7.5933
▁join	-7.59459
ation	-7.5952
▁career	-7.59717
▁o	-7.59753
▁turn	-7.60044
▁chance	-7.6017
▁bro	-7.603
▁srilanka	-7.6032
▁language	-7.60426
▁set	-7.60831
▁soon	-7.61057
▁return	-7.61485
▁meet	-7.61513
▁definitely	-7.61617
▁fact	-7.61847
▁decide	-7.61884
▁type	-7.62163
▁head	-7.6217
▁pass	-7.62449
▁move	-7.62731
▁safe	-7.62738
▁speed	-7.62967
▁write	-7.62978
▁software	-7.63227
▁receive	-7.63497
▁ai	-7.63791
▁expensive	-7.6405
▁early	-7.64369
▁interested	-7.64606
▁focus	-7.64725
▁beach	-7.64726
▁community	-7.65
▁majority	-7.65308
▁honestly	-7.65382
▁internet	-7.65699
▁fix	-7.65976
▁debt	-7.66682
▁story	-7.6695
▁fuck	-7.67056
▁nice	-7.67298
▁program	-7.67493
▁decent	-7.67513
▁manage	-7.67543
▁news	-7.67782
▁hospital	-7.67888
▁f	-7.67972
▁short	-7.68765
▁fee	-7.69277
ity	-7.69383
▁hello	-7.69749
▁grow	-7.69788
it	-7.70201
▁connection	-7.7072
▁p	-7.70866
▁main	-7.70904
▁credit	-7.71316
▁proper	-7.71522
▁middle	-7.71541
▁tip	-7.71541
▁water	-7.71872
▁break	-7.72045
u	-7.72079
▁akd	-7.72279
▁basically	-7.72292
▁doesn	-7.72426
▁total	-7.72435
▁hate	-7.72974
▁rent	-7.73103
▁near	-7.7346
an	-7.73545
▁non	-7.73708
▁age	-7.73723
▁uk	-7.74133
▁decision	-7.74222
▁fuel	-7.74373
▁lead	-7.74752
g	-7.74766
▁report	-7.74829
st	-7.74956
▁corruption	-7.75052
▁contact	-7.75131
▁keep	-7.75158
▁sector	-7.75285
▁galle	-7.75299
▁require	-7.75398
k	-7.75491
▁complete	-7.75759
▁act	-7.75849
▁sound	-7.75896
▁indian	-7.76398
▁in	-7.77023
▁normal	-7.77133
▁health	-7.77294
▁item	-7.77443
▁history	-7.77599
▁young	-7.78072
▁common	-7.7823
▁position	-7.7857
▁financial	-7.78708
▁parliament	-7.78854
▁benefit	-7.78856
▁choice	-7.78856
▁single	-7.78858
▁cover	-7.79164
▁lankans	-7.79545
▁protest	-7.7958
▁eat	-7.79722
▁national	-7.79846
▁wanna	-7.79964
▁date	-7.80275
▁rule	-7.80423
▁politic	-7.80595
▁detail	-7.80771
▁finance	-7.81134
▁australia	-7.81581
▁force	-7.81932
▁teacher	-7.82119
▁personally	-7.82338
▁office	-7.83031
▁purchase	-7.83087
▁source	-7.83218
▁develop	-7.83614
▁didn	-7.83715
▁link	-7.83734
▁line	-7.83855
▁scam	-7.8408
▁cash	-7.84227
le	-7.84299
▁crisis	-7.84381
▁avoid	-7.84393
▁legal	-7.84526
ment	-7.84925
▁subject	-7.85189
▁basic	-7.86054
▁site	-7.86354
▁rs	-7.86895
▁list	-7.8691
▁google	-7.86919
f	-7.8693
▁customer	-7.87096
▁tech	-7.87312
▁knowledge	-7.87435
▁word	-7.87633
ist	-7.88088
▁fall	-7.8818
▁later	-7.88209
▁teach	-7.88257
▁curious	-7.88301
▁waste	-7.88342
▁huge	-7.88488
▁happy	-7.88822
▁engineer	-7.88874
▁reddit	-7.8892
▁edit	-7.89065
▁paper	-7.8917
▁certain	-7.8941
v	-7.89496
▁reduce	-7.897
▁expense	-7.897
▁math	-7.89775
▁bill	-7.89794
▁self	-7.89856
▁transfer	-7.89876
▁internship	-7.89881
▁airport	-7.90055
▁medical	-7.90098
▁pm	-7.90178
▁important	-7.90283
▁security	-7.9041
▁store	-7.90449
▁drop	-7.90946
▁claim	-7.90963
▁accept	-7.91058
▁outside	-7.91649
▁pro	-7.91802
▁govt	-7.92027
▁sub	-7.92161
▁control	-7.92197
▁poor	-7.92236
▁update	-7.92378
en	-7.92515
▁tuk	-7.92626
▁genuine	-7.9347
▁demand	-7.93471
▁lack	-7.93491
▁w	-7.9357
ar	-7.93642
▁late	-7.93651
▁rupee	-7.93653
▁dollar	-7.93837
▁sinhalese	-7.93837
▁view	-7.93892
▁large	-7.93922
▁risk	-7.94272
▁step	-7.94413
▁ella	-7.94639
▁improve	-7.9472
▁enjoy	-7.94882
▁sort	-7.95047
▁employee	-7.95134
▁super	-7.95237
▁reach	-7.9534
▁ls	-7.95496
▁court	-7.95506
▁average	-7.95508
▁graduate	-7.95913
z	-7.96086
▁exactly	-7.9628
▁luck	-7.96527
▁individual	-7.9663
w	-7.96671
▁china	-7.97012
▁specific	-7.97196
▁literally	-7.97241
▁interview	-7.97349
▁fail	-7.97575
▁team	-7.97656
▁clear	-7.98297
▁minister	-7.98347
▁movie	-7.98537
▁sense	-7.98831
▁imf	-7.99317
▁rain	-7.99327
▁plus	-7.9937
▁stand	-7.99499
▁pick	-7.99584
▁major	-7.99653
▁sorry	-7.99699
▁figure	-8.00285
▁master	-8.00534
▁event	-8.00698
▁model	-8.00715
▁laptop	-8.00875
▁official	-8.01
▁religion	-8.01071
▁re	-8.01081
▁mobile	-8.01098
▁afford	-8.01208
▁test	-8.0126
▁hit	-8.0132
▁strong	-8.01596
▁hire	-8.0162
▁light	-8.01828
▁stream	-8.01919
▁wish	-8.02087
▁ur	-8.02239
▁moment	-8.02257
▁n	-8.0231
▁difference	-8.02464
▁affect	-8.026
▁candidate	-8.02663
▁rich	-8.02905
▁clean	-8.03424
▁explain	-8.03469
▁period	-8.03671
▁struggle	-8.03874
▁fast	-8.0388
▁trade	-8.03886
▁rest	-8.03974
▁info	-8.04155
ate	-8.04302
▁fair	-8.04439
▁title	-8.04486
▁difficult	-8.04591
▁human	-8.04646
▁gov	-8.04658
▁miss	-8.04718
▁corrupt	-8.04867
▁standard	-8.04915
▁op	-8.04951
▁professional	-8.05569
▁action	-8.05862
▁lk	-8.05887
ant	-8.06238
▁getting	-8.06238
▁access	-8.06546
▁forget	-8.06561
▁isn	-8.0659
▁handle	-8.06851
▁message	-8.06983
▁kinda	-8.06998
▁actual	-8.07349
re	-8.07374
▁migrate	-8.0739
▁citizen	-8.07587
▁solution	-8.07597
▁weather	-8.07597
▁path	-8.07897
▁entire	-8.07979
▁music	-8.08007
▁range	-8.08027
▁limit	-8.08043
▁note	-8.08124
▁spot	-8.08223
▁management	-8.0829
▁practice	-8.08445
ive	-8.08629
▁select	-8.08739
▁jvp	-8.0887
▁restaurant	-8.09298
us	-8.09399
▁continue	-8.09553
▁covid	-8.09727
▁extra	-8.09869
▁treat	-8.10029
▁extreme	-8.10159
▁walk	-8.1016
▁medicine	-8.10384
▁previous	-8.10562
▁register	-8.1081
▁code	-8.11051
▁gain	-8.11064
▁pre	-8.11179
▁half	-8.11246
▁network	-8.11247
▁concern	-8.11327
▁foreigner	-8.11464
▁exist	-8.11569
▁forward	-8.11684
▁gota	-8.11776
▁k	-8.11847
▁form	-8.11876
▁air	-8.11895
▁currency	-8.12345
▁absolutely	-8.1274
▁society	-8.12788
▁completely	-8.13238
▁insight	-8.13456
ce	-8.13641
▁port	-8.13727
▁room	-8.13861
▁island	-8.13906
▁uber	-8.14171
▁kill	-8.1438
▁prefer	-8.14562
▁custom	-8.14598
ary	-8.14786
▁part	-8.15194
▁accord	-8.15255
▁computer	-8.15293
▁sport	-8.15366
▁ltte	-8.15488
▁de	-8.1549
▁bike	-8.15531
▁development	-8.15541
▁hair	-8.1572
▁role	-8.15726
▁monthly	-8.15795
ize	-8.1597
▁insurance	-8.16404
▁ticket	-8.16406
x	-8.16511
▁stick	-8.1664
th	-8.16643
▁transport	-8.16815
▁search	-8.17097
▁sajith	-8.17098
▁white	-8.1711
▁gb	-8.17293
▁okay	-8.17572
▁tourism	-8.17804
▁inflation	-8.18028
▁ride	-8.18062
▁reliable	-8.18265
▁dude	-8.18276
▁generation	-8.18295
▁nation	-8.18396
▁switch	-8.18545
ra	-8.18686
▁con	-8.18742
▁tv	-8.18977
▁willing	-8.19191
▁cricket	-8.19442
um	-8.19597
▁daily	-8.19682
▁simple	-8.19684
▁north	-8.20158
▁recent	-8.20174
▁unfortunately	-8.2046
▁tea	-8.2052
▁remove	-8.2053
▁helpful	-8.20607
▁saving	-8.20635
▁member	-8.20865
▁assume	-8.20875
▁correct	-8.21033
▁fun	-8.21073
▁fit	-8.21476
▁platform	-8.22086
▁western	-8.22086
▁traffic	-8.2233
▁simply	-8.22361
▁digital	-8.22596
▁leader	-8.22686
is	-8.22779
▁relationship	-8.23067
▁worker	-8.23126
▁directly	-8.23135
▁involve	-8.23519
▁minimum	-8.23558
▁cuz	-8.2381
▁maintain	-8.24061
▁easily	-8.24076
▁blame	-8.24305
▁youtube	-8.24613
▁document	-8.24722
▁sit	-8.25056
▁japan	-8.25556
▁license	-8.25601
▁channel	-8.25809
▁bear	-8.25905
▁connect	-8.26217
▁passport	-8.2632
▁canada	-8.26826
▁ppl	-8.26842
▁wear	-8.26895
▁stupid	-8.27035
▁partner	-8.27077
▁wife	-8.27084
▁attack	-8.27337
▁sign	-8.27527
▁unlimited	-8.27852
▁review	-8.27856
▁eye	-8.27861
▁crime	-8.2787
▁complain	-8.2793
▁reply	-8.27948
ise	-8.27976
▁unit	-8.27976
▁profit	-8.28312
▁location	-8.28629
▁letter	-8.28729
▁remote	-8.2889
▁resource	-8.2889
▁east	-8.28992
▁owner	-8.29033
▁honest	-8.29213
▁till	-8.29324
▁sale	-8.29371
▁marry	-8.29685
▁folk	-8.29939
▁multiple	-8.29941
▁facebook	-8.30237
▁art	-8.30366
▁anymore	-8.30467
▁decade	-8.30471
▁raise	-8.30474
▁condition	-8.3056
▁qualification	-8.30732
▁sliit	-8.30732
▁mother	-8.31061
▁match	-8.31386
▁beautiful	-8.31532
▁finish	-8.31533
▁router	-8.31965
▁hell	-8.32062
▁worry	-8.32069
▁idk	-8.32078
▁likely	-8.3208
▁gold	-8.3214
▁design	-8.32286
▁property	-8.32375
▁physical	-8.32425
▁civil	-8.32609
▁aware	-8.32861
▁email	-8.32883
▁college	-8.33424
▁ok	-8.33621
ur	-8.33722
▁fight	-8.33792
▁btw	-8.33971
▁potential	-8.33972
▁army	-8.34107
▁apartment	-8.3427
▁address	-8.34524
▁certificate	-8.34797
▁mainly	-8.34846
▁se	-8.34971
ry	-8.35041
▁brother	-8.35075
▁z	-8.35127
▁space	-8.35141
▁realize	-8.35172
▁suppose	-8.35352
▁balance	-8.35465
▁regular	-8.35631
na	-8.35785
▁crazy	-8.3591
▁exchange	-8.3591
▁red	-8.36064
▁military	-8.36191
▁enter	-8.36225
▁muslim	-8.36438
▁fake	-8.36756
▁bar	-8.36815
▁overseas	-8.37035
▁ass	-8.3716
▁singapore	-8.37319
line	-8.37362
▁seat	-8.37444
▁tho	-8.37497
▁cool	-8.37613
▁park	-8.37845
▁obviously	-8.38072
▁page	-8.38227
▁request	-8.3846
▁user	-8.38681
ful	-8.39018
▁imo	-8.39063
▁club	-8.39064
▁file	-8.39088
▁wedding	-8.39324
▁push	-8.39326
▁catch	-8.39633
▁fully	-8.39945
▁slow	-8.39995
▁oh	-8.40304
▁be	-8.40357
▁boy	-8.40582
▁ban	-8.40701
▁inside	-8.40791
▁marriage	-8.40793
▁content	-8.41076
▁central	-8.41076
▁lawyer	-8.41079
age	-8.41135
▁educate	-8.41644
▁random	-8.41668
▁ad	-8.42046
▁mess	-8.42079
ie	-8.42143
▁smart	-8.42257
▁block	-8.42303
ya	-8.42352
▁vs	-8.42563
▁properly	-8.42606
▁environment	-8.42716
▁senior	-8.42859
▁sad	-8.42935
ness	-8.43058
▁gym	-8.43161
▁imagine	-8.43195
▁die	-8.4325
▁grade	-8.43748
▁amazing	-8.43763
▁dad	-8.43888
▁method	-8.44066
▁staff	-8.44067
▁alternative	-8.4407
▁unp	-8.44392
▁promise	-8.44398
▁ac	-8.44427
▁x	-8.44428
▁station	-8.44506
▁interesting	-8.44746
▁remain	-8.4498
▁route	-8.45101
▁mark	-8.45392
▁deep	-8.45614
▁officer	-8.45639
▁track	-8.45891
▁buddhist	-8.45904
▁implement	-8.46213
▁activity	-8.46222
▁wise	-8.46233
▁deposit	-8.46524
▁morning	-8.46524
▁street	-8.46543
▁mid	-8.46574
▁requirement	-8.46603
▁dog	-8.46614
▁startup	-8.46727
▁popular	-8.46945
▁reality	-8.47011
▁protect	-8.47049
▁chinese	-8.47148
▁doubt	-8.47148
▁particular	-8.47148
▁release	-8.47148
▁topic	-8.47165
▁finally	-8.47282
▁contract	-8.47386
▁put	-8.47499
▁special	-8.4759
▁illegal	-8.4762
ve	-8.47691
▁dm	-8.47834
▁carry	-8.4796
▁jaffna	-8.48091
▁dream	-8.48091
▁living	-8.48112
▁listen	-8.4816
▁v	-8.48322
▁drink	-8.48691
▁lie	-8.48717
▁repair	-8.48726
▁fill	-8.48743
se	-8.48748
▁goal	-8.4881
man	-8.48847
▁a	-8.48974
▁coast	-8.49044
▁population	-8.49044
▁seek	-8.49121
el	-8.49181
▁religious	-8.49363
▁seriously	-8.49363
▁truly	-8.49364
▁father	-8.49463
▁respect	-8.4963
▁perfect	-8.49684
▁technology	-8.49684
▁manager	-8.4981
▁fucking	-8.49861
▁explore	-8.5001
▁global	-8.50185
▁mom	-8.50233
▁temple	-8.50364
▁black	-8.50638
▁background	-8.50653
▁mental	-8.51118
▁final	-8.51178
il	-8.51276
▁fellow	-8.51302
▁pursue	-8.51302
▁department	-8.51306
▁electricity	-8.51339
▁friendly	-8.51595
▁minute	-8.51632
et	-8.5187
▁cs	-8.5188
▁ex	-8.51932
▁battery	-8.51956
less	-8.52055
▁context	-8.52285
▁pickme	-8.52305
▁j	-8.52479
▁tend	-8.52524
▁welcome	-8.52629
▁suffer	-8.52916
▁mahinda	-8.5296
▁sjb	-8.53279
▁overall	-8.53617
ish	-8.5374
▁clearly	-8.53751
▁fan	-8.5387
▁despi	-8.54262
▁export	-8.54392
▁specially	-8.54459
ul	-8.54651
▁apparently	-8.54654
▁west	-8.54659
▁wage	-8.54669
▁h	-8.54897
ne	-8.54969
▁god	-8.55111
▁score	-8.55142
ty	-8.5518
▁arrive	-8.55296
▁article	-8.55296
▁anybody	-8.55297
▁solid	-8.55299
▁relative	-8.55512
▁guide	-8.55613
▁effort	-8.55636
▁energy	-8.55647
▁specifically	-8.55665
▁impact	-8.55979
▁growth	-8.56046
▁body	-8.56227
▁record	-8.563
▁institution	-8.5632
wa	-8.56596
▁you	-8.57218
id	-8.57394
▁hopefully	-8.57413
▁usa	-8.57434
▁ship	-8.57718
▁comfortable	-8.57728
▁board	-8.5785
▁elect	-8.57874
▁academic	-8.5806
▁prove	-8.58164
▁oil	-8.58196
▁crypto	-8.58403
▁tbh	-8.58418
▁solve	-8.58456
▁fire	-8.58464
▁anti	-8.58924
▁throw	-8.59108
am	-8.59246
▁client	-8.59457
▁safety	-8.59508
▁settle	-8.59781
▁attend	-8.59794
▁supply	-8.5981
up	-8.59811
▁collect	-8.60036
▁original	-8.60089
▁bunch	-8.60168
▁opposition	-8.60169
▁damn	-8.60194
▁hot	-8.60225
▁marketing	-8.60324
▁fly	-8.60328
▁dumb	-8.60516
▁scholarship	-8.60524
▁institute	-8.60882
▁achieve	-8.61202
▁photo	-8.61235
▁death	-8.61268
ch	-8.61273
▁direct	-8.61457
▁union	-8.61505
▁subreddit	-8.61602
▁luxury	-8.6164
▁mistake	-8.61788
▁application	-8.61965
▁nuwara	-8.61985
▁vibe	-8.62001
▁rise	-8.62072
j	-8.62102
▁asia	-8.62241
▁generally	-8.62267
▁pc	-8.62402
▁an	-8.62471
▁com	-8.626
▁web	-8.62714
▁active	-8.62767
▁joke	-8.62873
la	-8.62895
▁significant	-8.62982
▁intern	-8.63001
▁download	-8.6306
▁ps	-8.63072
▁dead	-8.63076
ta	-8.63089
▁cultural	-8.6309
▁arrest	-8.63427
▁eventually	-8.63427
▁picture	-8.6343
▁name	-8.63438
▁campus	-8.63443
ia	-8.63798
▁regardless	-8.63806
▁key	-8.64007
▁target	-8.64167
▁advise	-8.64538
▁straight	-8.64539
▁factor	-8.64824
▁facility	-8.64912
▁drug	-8.64919
▁over	-8.64922
▁positive	-8.64922
▁deliver	-8.64985
▁capital	-8.64988
▁haven	-8.64989
▁copy	-8.65082
ol	-8.65093
▁stable	-8.65123
▁reasonable	-8.6525
▁double	-8.65286
▁brain	-8.65286
un	-8.65387
nt	-8.65421
▁complaint	-8.65549
da	-8.65566
▁female	-8.65662
▁delivery	-8.65967
▁print	-8.661
▁affordable	-8.66158
ese	-8.66273
▁crowd	-8.66418
▁expert	-8.66418
▁atleast	-8.66418
▁employer	-8.66543
▁sim	-8.66562
▁peace	-8.66776
▁foundation	-8.66802
at	-8.67122
▁technical	-8.6718
▁steal	-8.67568
iya	-8.6766
▁tia	-8.6778
▁idiot	-8.67873
▁response	-8.67948
▁mate	-8.68091
▁trading	-8.68334
▁season	-8.6834
▁own	-8.68581
▁necessary	-8.68722
▁foot	-8.68727
▁cook	-8.68765
▁mobitel	-8.69127
▁namal	-8.69502
▁aren	-8.69537
ak	-8.69593
▁europe	-8.69853
▁replace	-8.69858
ana	-8.6986
▁ignore	-8.69893
▁asset	-8.69923
▁loss	-8.69941
ter	-8.70116
ent	-8.70274
▁worried	-8.70287
▁zero	-8.70288
▁entry	-8.70293
▁july	-8.70409
ism	-8.7057
▁cancel	-8.70682
▁anura	-8.70683
▁ground	-8.70781
▁tour	-8.70984
▁quick	-8.71014
ance	-8.71038
▁convert	-8.71079
▁iit	-8.71135
▁rajapaksa	-8.71176
▁traditional	-8.71218
▁discuss	-8.71379
▁survive	-8.71478
▁mirissa	-8.71479
▁billion	-8.7154
▁srilankan	-8.7154
▁eliya	-8.71586
▁mp	-8.71736
▁trouble	-8.71878
▁british	-8.71881
▁pull	-8.71892
ro	-8.71975
ge	-8.72126
▁serve	-8.72126
▁bc	-8.72254
▁incident	-8.72279
▁promote	-8.72296
▁adult	-8.72319
▁electric	-8.72627
▁blood	-8.72682
▁mindset	-8.72697
▁version	-8.727
▁rag	-8.72762
▁mr	-8.7283
▁exact	-8.73038
▁effect	-8.73057
▁legit	-8.73106
▁weekend	-8.73118
▁stress	-8.73133
▁greatly	-8.73434
▁truth	-8.73494
▁milk	-8.73593
▁hr	-8.73645
▁count	-8.73813
▁dr	-8.73892
▁rw	-8.73901
▁initial	-8.73902
▁touch	-8.73902
▁flight	-8.73919
▁broker	-8.73947
▁town	-8.73973
ine	-8.7416
▁sigiriya	-8.74312
▁fear	-8.74324
▁hide	-8.74457
▁elephant	-8.74723
▁heavy	-8.74723
▁holiday	-8.74723
▁bio	-8.74861
as	-8.74956
▁out	-8.75021
▁gas	-8.75049
▁confirm	-8.75086
▁itinerary	-8.75137
▁purpose	-8.75137
▁tuition	-8.75137
▁weird	-8.75137
▁gen	-8.75921
▁plent	-8.75973
▁pressure	-8.75974
▁center	-8.7608
▁modern	-8.76112
▁skin	-8.76299
▁produce	-8.76387
▁racist	-8.76387
▁warranty	-8.76408
ally	-8.76445
▁suck	-8.76585
▁commercial	-8.76807
▁negative	-8.76807
▁reform	-8.76812
ri	-8.76921
▁cse	-8.77092
▁massive	-8.77206
de	-8.77223
▁statement	-8.77436
▁commission	-8.77652
▁ict	-8.7767
▁agent	-8.77713
▁influence	-8.77889
▁na	-8.77894
▁separate	-8.78038
▁yesterday	-8.78078
▁employment	-8.78102
ial	-8.78197
▁voter	-8.78299
▁proof	-8.78515
▁physics	-8.78546
▁discussion	-8.78612
▁ready	-8.78773
▁present	-8.78884
▁deserve	-8.78935
▁moratuwa	-8.78935
▁refuse	-8.78936
▁ahead	-8.78939
▁minority	-8.78953
▁ch	-8.79257
▁faculty	-8.79366
▁patient	-8.79366
▁nature	-8.79371
▁preferably	-8.79381
▁burn	-8.79421
▁ed	-8.79721
▁emergency	-8.79799
▁approach	-8.79803
▁mon	-8.79872
▁po	-8.80015
▁shoe	-8.80236
▁performance	-8.80245
▁healthcare	-8.80247
▁progress	-8.80639
▁spread	-8.80671
▁revenue	-8.80674
▁freedom	-8.80685
▁training	-8.81457
▁district	-8.81549
▁tough	-8.81549
▁piece	-8.81549
▁feed	-8.81715
▁pr	-8.8174
▁km	-8.8174
▁challenge	-8.81811
co	-8.8186
▁inform	-8.81941
ot	-8.81947
▁commit	-8.81981
▁petrol	-8.81992
▁trend	-8.81992
▁feedback	-8.81996
▁duty	-8.81998
li	-8.82248
▁fb	-8.82403
▁bachelor	-8.82436
▁campaign	-8.82436
▁authority	-8.82445
▁lease	-8.82593
▁sleep	-8.82922
▁data	-8.82976
▁barely	-8.83097
im	-8.83261
ous	-8.83306
▁usual	-8.83317
▁transaction	-8.83331
▁baby	-8.83333
▁chill	-8.83407
ma	-8.83583
▁banking	-8.83716
▁electronic	-8.83781
▁firm	-8.83781
▁corporate	-8.83877
▁up	-8.83888
▁mil	-8.84102
▁apart	-8.84198
▁approve	-8.84234
▁reserve	-8.84234
▁attention	-8.84235
▁fiber	-8.84237
▁song	-8.84479
▁secure	-8.8469
▁wifi	-8.84696
▁race	-8.84704
▁status	-8.84739
ka	-8.84756
▁hike	-8.85015
▁advantage	-8.85145
▁dis	-8.85424
▁useful	-8.85464
▁abuse	-8.85611
▁glad	-8.85614
▁green	-8.85638
ian	-8.85781
ural	-8.8595
▁thread	-8.86066
▁surf	-8.86073
▁device	-8.86074
▁image	-8.86074
▁solo	-8.86089
▁cafe	-8.86131
▁lay	-8.86148
▁pure	-8.86191
▁slight	-8.86384
▁size	-8.86411
▁co	-8.86485
▁justice	-8.86527
▁sudden	-8.86527
▁scene	-8.86643
▁prepare	-8.86808
▁discipline	-8.86993
▁negombo	-8.86993
▁responsibility	-8.86993
▁talent	-8.86996
▁begin	-8.87017
▁discount	-8.87461
▁shift	-8.87462
▁infrastructure	-8.88401
▁rid	-8.88485
▁asian	-8.88797
▁hang	-8.88874
▁strike	-8.88876
▁introduce	-8.88913
▁sh	-8.89092
▁ar	-8.89276
▁em	-8.89331
▁august	-8.89351
▁whatsapp	-8.89351
▁conversation	-8.89361
▁ruin	-8.89363
▁vi	-8.89381
▁feeling	-8.89389
▁heart	-8.89488
▁min	-8.8956
▁meal	-8.89853
▁slpp	-8.89913
▁refer	-8.90148
▁valid	-8.90231
▁prevent	-8.90316
▁practical	-8.90326
▁scale	-8.90344
▁rice	-8.9042
▁useless	-8.90604
▁investor	-8.90732
▁style	-8.90794
▁agency	-8.90795
▁prime	-8.90797
▁building	-8.90797
▁pls	-8.91348
▁fresh	-8.91571
▁st	-8.916
▁reject	-8.91666
▁material	-8.91767
▁sex	-8.91769
▁stage	-8.91792
▁ig	-8.92091
os	-8.92113
▁flag	-8.92247
▁december	-8.92257
▁permit	-8.92257
sa	-8.92495
▁cat	-8.92505
▁feature	-8.9275
▁perspective	-8.9275
▁trump	-8.9275
▁ceylon	-8.92756
▁immediately	-8.92924
▁freelance	-8.93115
▁tomorrow	-8.93245
▁vaccine	-8.93245
▁presidential	-8.93322
▁american	-8.93548
▁shipping	-8.9375
▁chat	-8.9379
▁wealth	-8.93973
▁apple	-8.94033
▁shy	-8.94065
▁diploma	-8.94225
▁aliexpress	-8.94242
▁text	-8.94245
▁bond	-8.94247
▁football	-8.94248
▁attempt	-8.94745
▁airline	-8.94798
▁tool	-8.94849
▁october	-8.9525
▁violence	-8.9525
▁would	-8.95251
▁concept	-8.95253
▁unique	-8.95298
▁recover	-8.95458
▁ol	-8.95538
▁understanding	-8.95611
▁male	-8.95747
▁fibre	-8.95757
▁gaming	-8.95762
▁clothe	-8.958
▁region	-8.95978
▁machine	-8.96268
▁responsible	-8.96268
▁side	-8.96382
▁star	-8.96614
▁bribe	-8.96781
▁rank	-8.96975
▁express	-8.9719
▁pet	-8.9727
▁alot	-8.97368
▁bag	-8.9772
▁left	-8.97814
▁delay	-8.97818
▁taste	-8.9782
▁immigration	-8.9783
▁shitty	-8.97953
▁shame	-8.98318
▁animal	-8.98335
▁registration	-8.98335
▁load	-8.98431
ti	-8.98487
▁ideally	-8.98795
▁cou	-8.98815
▁november	-8.98858
▁cinema	-8.98859
▁camera	-8.9886
▁communication	-8.98871
ud	-8.99079
▁inter	-8.99337
▁bottle	-8.99386
▁bet	-8.99905
▁cyber	-8.99914
▁cross	-8.99916
▁operate	-8.99945
▁competition	-9.00446
▁racism	-9.00446
▁democracy	-9.00446
▁byd	-9.00449
▁damage	-9.00451
▁contribute	-9.00484
▁rajapaksha	-9.00666
out	-9.00696
▁i	-9.00918
▁ya	-9.0097
▁phd	-9.00982
▁iphone	-9.00985
▁pa	-9.01415
▁divide	-9.01513
▁evidence	-9.01518
▁fault	-9.01518
▁jump	-9.01524
▁peak	-9.01527
▁essential	-9.01592
▁king	-9.01847
▁cal	-9.0197
▁church	-9.02059
▁mix	-9.02073
▁coffee	-9.02111
▁shortage	-9.02143
▁confused	-9.0215
▁bsc	-9.02154
▁lecture	-9.02413
▁financially	-9.02569
▁branch	-9.02602
▁toxic	-9.02602
▁upper	-9.02612
▁construction	-9.02617
▁developer	-9.02806
book	-9.02912
▁ton	-9.02926
▁appoint	-9.03111
▁pack	-9.03135
▁husband	-9.03148
▁queue	-9.03148
▁indians	-9.0316
▁june	-9.03216
▁additional	-9.03308
▁april	-9.03698
▁monk	-9.03755
sh	-9.03956
▁bs	-9.03959
▁back	-9.0399
▁impossible	-9.0425
▁guarantee	-9.04251
▁organization	-9.04251
▁lately	-9.04547
▁primar	-9.04644
▁mass	-9.04764
▁toyota	-9.04806
▁upgrade	-9.04806
▁false	-9.04806
▁scheme	-9.04807
▁dress	-9.04816
▁restriction	-9.04846
▁hurt	-9.04884
▁january	-9.05365
▁monitor	-9.05365
▁volunteer	-9.05365
▁wide	-9.05662
▁sick	-9.05866
▁rental	-9.05915
▁somewhat	-9.05926
▁distance	-9.05927
▁recognize	-9.05927
▁lmao	-9.05928
▁highway	-9.0613
▁chemistry	-9.06491
▁executive	-9.06491
▁lifestyle	-9.06491
▁obtain	-9.06491
▁regret	-9.06491
▁estate	-9.06492
▁youth	-9.06542
▁treatment	-9.06594
ily	-9.06813
▁anyways	-9.0706
▁door	-9.07117
▁cap	-9.07156
▁maintenance	-9.07631
▁september	-9.07631
▁twice	-9.07631
▁paypal	-9.07634
▁under	-9.07706
to	-9.07719
▁sadly	-9.07949
▁criminal	-9.07959
▁vat	-9.07965
▁climate	-9.08206
▁lady	-9.08206
▁conflict	-9.08208
▁surprised	-9.08331
▁sea	-9.08517
▁pain	-9.08594
▁success	-9.08761
▁submit	-9.08784
▁limited	-9.09161
ha	-9.09224
▁nic	-9.09277
▁farm	-9.09295
▁ideal	-9.09336
▁sister	-9.09372
▁encourage	-9.09429
▁root	-9.09437
▁box	-9.09694
ara	-9.09709
▁was	-9.09723
▁tariff	-9.0995
▁annual	-9.10066
▁withdraw	-9.10391
▁ethnic	-9.10493
▁innocent	-9.10538
▁ministry	-9.10538
▁relevant	-9.10538
▁syllabus	-9.10538
▁dubai	-9.10541
▁map	-9.10544
▁priority	-9.10577
▁absolute	-9.10665
▁press	-9.108
pura	-9.10974
ala	-9.11088
▁rock	-9.11111
▁guidance	-9.1113
ldn	-9.11222
▁natural	-9.11258
▁gift	-9.11267
▁la	-9.11454
lo	-9.11474
▁remind	-9.115
▁bay	-9.11616
▁aspect	-9.11725
▁schedule	-9.11725
▁repeat	-9.11726
▁screen	-9.11832
way	-9.11862
▁cycle	-9.12002
▁coz	-9.12062
ss	-9.12067
▁provider	-9.12234
▁london	-9.12324
me	-9.12562
▁player	-9.12562
▁effective	-9.12564
▁rely	-9.12571
▁fish	-9.12654
ster	-9.12805
▁taxi	-9.12878
▁competitive	-9.12926
▁generate	-9.12936
▁citizenship	-9.12956
▁lesson	-9.12957
▁transportation	-9.13058
▁grand	-9.13069
▁successful	-9.13127
▁fd	-9.13442
▁everyday	-9.13534
▁setup	-9.13619
▁meme	-9.13676
▁signal	-9.13879
▁slowly	-9.13895
▁arm	-9.14041
▁judge	-9.14103
▁ba	-9.14141
▁associate	-9.14142
▁bother	-9.14145
ee	-9.14169
▁counter	-9.14484
▁cv	-9.14484
ama	-9.14596
▁destroy	-9.14756
▁sampath	-9.14756
▁undergraduate	-9.14758
▁european	-9.14824
▁consumer	-9.1485
▁insane	-9.14904
▁son	-9.14956
▁max	-9.15073
est	-9.15124
▁legally	-9.15246
▁bi	-9.15314
▁healthy	-9.15338
▁par	-9.1537
▁migration	-9.15375
▁appointment	-9.15417
▁village	-9.15508
▁independent	-9.15524
▁y	-9.15676
ba	-9.15762
▁refund	-9.15994
▁regulation	-9.15994
▁instagram	-9.15994
▁gender	-9.15996
▁agreement	-9.16202
ho	-9.16339
he	-9.16375
▁motor	-9.16533
▁journey	-9.16619
▁bullshit	-9.1662
▁funny	-9.1662
▁window	-9.16624
▁solar	-9.16629
▁girlfriend	-9.16639
▁march	-9.16658
▁perform	-9.16681
▁quickly	-9.16725
▁peaceful	-9.16817
▁locally	-9.16852
ay	-9.16885
▁adopt	-9.17248
▁section	-9.17262
▁province	-9.174
ke	-9.17637
ang	-9.17702
▁host	-9.17712
▁dinner	-9.17921
▁sir	-9.18302
▁busy	-9.18425
▁bonus	-9.18518
▁cousin	-9.18518
▁labour	-9.18523
▁fort	-9.18547
▁beat	-9.18571
q	-9.18582
bo	-9.18817
▁ability	-9.18919
ut	-9.19038
▁table	-9.19044
▁seller	-9.19105
▁blind	-9.19159
▁external	-9.19159
▁delete	-9.19159
▁gdp	-9.1916
▁hutch	-9.19171
ah	-9.19182
▁usage	-9.19191
ship	-9.19234
▁fairly	-9.19335
▁justify	-9.19804
▁scenario	-9.19804
▁mechanic	-9.19804
▁batch	-9.1984
▁strict	-9.19982
si	-9.19996
▁realise	-9.20008
▁mad	-9.20189
▁engine	-9.20232
▁independence	-9.20453
▁structure	-9.2048
▁cry	-9.20734
▁ne	-9.20896
▁mar	-9.20948
▁aim	-9.20955
▁sp	-9.21101
▁coconut	-9.21107
▁victim	-9.21107
▁pharmacy	-9.21132
▁mentality	-9.21199
ath	-9.21246
▁direction	-9.21288
▁fr	-9.21496
▁passion	-9.21561
▁attitude	-9.21765
▁complex	-9.21765
▁ensure	-9.21765
▁heavily	-9.21765
▁wtf	-9.21765
▁session	-9.21766
▁display	-9.21768
▁ikman	-9.21779
▁supporter	-9.21933
▁era	-9.21965
▁equal	-9.22033
▁freelancer	-9.2207
▁maha	-9.2235
▁sexual	-9.22365
▁represent	-9.22388
▁celebrate	-9.22427
▁garbage	-9.22427
▁reflect	-9.22427
▁hnb	-9.22427
▁skip	-9.22428
▁terrible	-9.2246
▁suit	-9.2248
ard	-9.22511
▁voice	-9.22601
▁cop	-9.22623
▁net	-9.22712
▁ha	-9.2273
vi	-9.22791
▁th	-9.22902
▁af	-9.22965
▁mod	-9.22989
▁commerce	-9.23094
▁blue	-9.23094
▁linkedin	-9.23094
▁aside	-9.23108
▁valuable	-9.23133
▁gr	-9.23179
▁ball	-9.23414
▁lucky	-9.23498
ad	-9.23656
go	-9.23673
▁pop	-9.23711
▁driving	-9.23765
▁samsung	-9.23765
▁strategy	-9.23765
▁ridiculous	-9.23766
▁film	-9.23778
▁yala	-9.23803
▁skilled	-9.23807
▁proud	-9.23809
▁ethnicity	-9.23817
▁lecturer	-9.23999
▁relatively	-9.24011
▁heat	-9.24046
▁sun	-9.24069
▁thinking	-9.24151
▁donate	-9.24355
tion	-9.24383
▁destination	-9.24441
▁forex	-9.24452
▁ceb	-9.24496
▁mo	-9.24585
▁influencer	-9.24742
▁buddhism	-9.25121
▁hassle	-9.25121
▁starlink	-9.25122
▁entirely	-9.25254
▁hav	-9.25284
▁meeting	-9.25603
▁spending	-9.25611
ig	-9.25715
▁prior	-9.25775
▁arrival	-9.25806
▁tuktuk	-9.25806
▁daraz	-9.25806
▁bugger	-9.25809
▁percentage	-9.25819
▁hous	-9.26023
and	-9.26183
▁employ	-9.26216
▁shoot	-9.26244
va	-9.26296
sp	-9.26367
▁ma	-9.26434
▁afraid	-9.26495
▁basis	-9.26502
▁loud	-9.26505
▁kick	-9.2652
ence	-9.26527
▁planning	-9.26568
▁br	-9.26974
▁argue	-9.2719
▁mafia	-9.2719
▁vacation	-9.2719
▁extend	-9.2719
▁profile	-9.27192
▁nearby	-9.27205
▁dark	-9.27228
▁constitution	-9.27353
▁council	-9.27889
▁weight	-9.27934
▁gap	-9.28014
▁easter	-9.2822
▁mac	-9.28247
▁unable	-9.28341
▁accident	-9.28344
▁ev	-9.28547
▁establish	-9.28554
▁approval	-9.28593
▁efficient	-9.28593
▁identify	-9.28593
▁nowadays	-9.28593
▁thousand	-9.28593
▁task	-9.28594
▁famous	-9.28599
▁drama	-9.28602
time	-9.28792
▁en	-9.28813
▁rn	-9.29094
▁resign	-9.29254
▁uncle	-9.29267
▁procedure	-9.29303
▁aragalaya	-9.29303
▁trash	-9.29307
▁index	-9.29308
▁conduct	-9.29312
▁preference	-9.29331
▁last	-9.29357
▁nearly	-9.29374
tic	-9.2949
▁expectation	-9.29674
▁leg	-9.29933
▁measure	-9.30017
▁evening	-9.30018
▁movement	-9.30225
▁obvious	-9.30273
ru	-9.30316
▁scamme	-9.30596
▁relax	-9.30597
ir	-9.30733
▁gather	-9.30737
▁beginner	-9.30746
▁camp	-9.31095
ph	-9.31315
▁hybrid	-9.31461
▁poverty	-9.31461
▁epf	-9.31461
▁birthday	-9.31464
▁theory	-9.31466
▁clothing	-9.31512
▁ice	-9.31552
▁ka	-9.31787
▁rant	-9.31874
▁dec	-9.31926
ization	-9.31933
▁tie	-9.31965
▁wash	-9.32191
▁default	-9.32191
▁series	-9.32191
▁wildlife	-9.32191
▁resort	-9.32193
▁elite	-9.32196
▁operation	-9.32201
▁presidency	-9.32203
▁consultant	-9.32217
▁yo	-9.32256
▁familiar	-9.32272
ga	-9.32561
ory	-9.32678
▁murder	-9.32695
pa	-9.32892
▁upcom	-9.32936
▁terrorist	-9.32938
ap	-9.32983
hi	-9.33025
▁atm	-9.33129
▁malaysia	-9.33488
▁so	-9.3353
ik	-9.33551
▁israel	-9.33559
▁band	-9.33662
▁behavior	-9.33667
▁divorce	-9.33667
▁portfolio	-9.33667
▁soldier	-9.33667
▁cream	-9.33673
▁jail	-9.33688
▁trap	-9.33691
be	-9.34002
▁tutor	-9.34047
op	-9.3435
▁do	-9.34393
▁desperate	-9.34413
▁calculate	-9.34415
▁teaching	-9.34465
▁engage	-9.34552
han	-9.34659
ile	-9.34857
▁careful	-9.34892
▁launch	-9.35165
▁shirt	-9.35168
▁click	-9.35168
▁sunday	-9.3517
over	-9.3517
▁kdu	-9.35179
▁grant	-9.35212
▁color	-9.35216
▁resident	-9.3533
▁significantly	-9.35367
▁production	-9.35851
▁regard	-9.35905
▁survey	-9.35923
▁admit	-9.35923
▁cloud	-9.35931
▁stability	-9.35933
▁ultimate	-9.35938
▁upto	-9.36032
▁doc	-9.36208
▁compete	-9.36355
▁gem	-9.36376
▁concerned	-9.36403
▁pakistan	-9.36654
▁respond	-9.36686
▁anytime	-9.36689
▁premium	-9.3669
▁quit	-9.36718
▁suitable	-9.36757
▁scared	-9.36804
▁cheer	-9.36807
▁unlike	-9.36989
▁dance	-9.37004
▁ill	-9.37063
pe	-9.37141
▁division	-9.37455
▁library	-9.37455
▁certification	-9.37456
▁equipment	-9.37463
▁debate	-9.37466
▁advisor	-9.37527
▁egg	-9.37564
▁shot	-9.37576
▁laugh	-9.3767
ika	-9.37748
▁sc	-9.38023
▁neighbour	-9.3823
▁burden	-9.38231
▁recruit	-9.38231
▁speech	-9.38231
▁oppose	-9.38235
▁chicken	-9.38235
▁coach	-9.38236
▁centre	-9.3826
▁festival	-9.38262
▁can	-9.38385
land	-9.38419
ib	-9.38511
▁typical	-9.38546
▁eg	-9.38635
ass	-9.38637
son	-9.38708
▁argument	-9.39012
▁category	-9.39012
▁cinnamon	-9.39012
▁consequence	-9.39012
▁equity	-9.39012
▁possibly	-9.39012
▁rajapakse	-9.39012
▁sponsor	-9.39012
▁cbsl	-9.39015
▁cup	-9.39155
▁pool	-9.39213
▁dry	-9.39276
tha	-9.3928
▁redditor	-9.39358
em	-9.39524
▁sa	-9.3953
▁logic	-9.39541
▁dev	-9.39548
▁gun	-9.3962
ious	-9.39671
▁factory	-9.39704
▁weak	-9.39772
▁reputation	-9.39799
▁wild	-9.39804
▁specialist	-9.39895
▁per	-9.39955
▁soft	-9.40001
▁round	-9.40011
om	-9.40139
▁speaker	-9.40311
▁tradition	-9.40316
sl	-9.40531
▁birth	-9.4059
▁circle	-9.40593
▁capacity	-9.40595
▁roll	-9.40801
▁fo	-9.40884
▁donation	-9.40935
▁no	-9.41024
▁crap	-9.41318
▁attract	-9.41362
▁amount	-9.41393
▁alcohol	-9.41393
▁floor	-9.41393
▁protein	-9.41393
▁excuse	-9.41395
▁fancy	-9.41428
excel	-9.41457
▁protection	-9.41648
▁multi	-9.42093
▁comfort	-9.4213
▁podcast	-9.42199
▁crash	-9.42204
▁combine	-9.42205
▁labor	-9.42261
ki	-9.4258
hu	-9.42696
▁appear	-9.42997
▁buddy	-9.43013
▁pocket	-9.43016
▁input	-9.43033
▁intention	-9.43034
ably	-9.43239
▁appreciated	-9.43628
di	-9.4378
▁colleague	-9.43832
▁convince	-9.43832
▁identity	-9.43832
▁possibility	-9.43832
▁extent	-9.43832
▁investigation	-9.43847
▁forest	-9.43886
▁privilege	-9.43902
▁pic	-9.43936
▁debi	-9.43942
our	-9.44039
▁bed	-9.44131
off	-9.44186
▁poll	-9.44421
es	-9.4461
▁propaganda	-9.44658
▁haha	-9.44661
▁thailand	-9.44661
▁shut	-9.44671
ite	-9.44672
▁unnecessar	-9.44673
▁lakh	-9.44685
▁eta	-9.44814
▁ni	-9.45092
▁collapse	-9.45492
▁cybersecurity	-9.45492
▁tiktok	-9.45492
▁adapt	-9.45492
▁weligama	-9.45492
▁accurate	-9.45493
▁deny	-9.45496
▁wall	-9.45504
▁align	-9.45514
▁ab	-9.4567
▁annoying	-9.45687
ick	-9.45843
▁socialist	-9.45851
▁permanent	-9.45862
mo	-9.45879
▁jan	-9.45944
ze	-9.4604
ith	-9.46072
▁ali	-9.46096
og	-9.46104
▁ja	-9.46117
▁surprise	-9.4615
▁threat	-9.46297
▁clarify	-9.46332
▁embassy	-9.46332
▁grateful	-9.46332
▁publish	-9.46332
▁trincomalee	-9.46332
▁vendor	-9.46332
▁normally	-9.46334
▁loose	-9.46337
▁boat	-9.46347
▁tired	-9.46392
▁rip	-9.46447
▁arugam	-9.46651
ver	-9.4711
▁quiet	-9.4718
▁safari	-9.4718
▁critical	-9.4718
▁promotion	-9.47181
edication	-9.47199
▁horrible	-9.47209
▁cent	-9.47214
▁bruh	-9.4724
▁mba	-9.4727
▁memory	-9.47308
▁cold	-9.47325
ical	-9.47361
▁constantly	-9.47512
ify	-9.47637
per	-9.47855
▁ram	-9.4794
▁belief	-9.48034
▁buffet	-9.48034
▁draw	-9.48036
▁impose	-9.48038
▁piss	-9.48043
▁earth	-9.48057
▁decline	-9.48061
▁accommodation	-9.48062
ow	-9.48157
▁mall	-9.48207
▁function	-9.48763
▁bat	-9.48861
▁exploit	-9.48864
▁def	-9.48881
▁pizza	-9.48896
▁nsbm	-9.48907
▁stack	-9.4891
▁estimate	-9.48932
▁threaten	-9.48934
che	-9.49007
▁lock	-9.49102
ug	-9.49173
ex	-9.49205
▁portion	-9.49281
▁fat	-9.4943
▁risky	-9.49453
▁deduct	-9.49666
▁retire	-9.49727
▁borrow	-9.49766
▁mandatory	-9.49766
▁screw	-9.49766
▁supermarket	-9.49772
▁administration	-9.49774
▁msc	-9.49785
▁mis	-9.49807
▁gay	-9.4989
▁some	-9.50348
▁eu	-9.50429
▁gif	-9.50516
▁consult	-9.50558
▁opposite	-9.50643
▁passenger	-9.50643
▁biology	-9.5065
▁communicate	-9.50664
▁native	-9.50667
▁holder	-9.50679
▁ird	-9.50733
▁rape	-9.50809
▁maximu	-9.51079
▁rarely	-9.51099
▁am	-9.51163
ting	-9.51164
aya	-9.51199
▁dig	-9.51446
▁bankrupt	-9.5152
ure	-9.51523
▁absurd	-9.51528
▁curriculum	-9.51528
▁perfume	-9.51528
▁graphic	-9.51528
▁drain	-9.51528
▁belong	-9.51531
▁harass	-9.51534
▁beginning	-9.51535
▁asap	-9.51536
▁quote	-9.51545
▁sake	-9.5155
▁nonsense	-9.51553
▁awareness	-9.516
▁cc	-9.51657
▁hnd	-9.51658
▁paint	-9.51874
▁he	-9.52047
▁america	-9.52207
▁learning	-9.52277
▁neighbor	-9.52416
▁fool	-9.5242
▁nugegoda	-9.52421
▁suspect	-9.52421
▁temporary	-9.52421
▁upload	-9.52424
▁dangerous	-9.52427
▁wake	-9.52429
cy	-9.52664
▁germany	-9.52692
▁formal	-9.52719
▁plant	-9.5283
▁rare	-9.52893
▁should	-9.53092
▁programme	-9.53201
▁chocolate	-9.53322
▁comparison	-9.53322
▁plastic	-9.53322
▁odd	-9.53325
▁sugar	-9.53325
▁civilian	-9.5337
▁progressive	-9.53385
▁aus	-9.53388
▁declare	-9.53402
▁noise	-9.53424
no	-9.53507
ai	-9.53747
▁casual	-9.53761
▁shock	-9.53763
ack	-9.53893
▁harm	-9.54007
▁punish	-9.54199
▁awesome	-9.54231
▁daughter	-9.54231
▁fashion	-9.54231
▁negotiate	-9.54231
▁verify	-9.54231
▁everybody	-9.54234
▁bail	-9.54254
▁wow	-9.5429
uwa	-9.54354
▁artist	-9.54387
▁med	-9.54569
▁powerful	-9.54579
▁selection	-9.54657
nd	-9.54678
ash	-9.54681
▁gang	-9.54892
▁predict	-9.55048
▁lo	-9.55049
▁attach	-9.55108
▁downvote	-9.55148
▁initiative	-9.55148
▁welfare	-9.55148
▁reveal	-9.55149
▁crook	-9.55152
▁label	-9.55171
▁wing	-9.55181
▁defend	-9.552
▁workplace	-9.55261
▁previously	-9.55278
▁lane	-9.55318
tu	-9.55662
▁stat	-9.55707
▁nu	-9.56033
▁convenient	-9.56074
▁dambulla	-9.56074
▁household	-9.56074
▁lgbtq	-9.56078
▁rush	-9.56079
▁anuradha	-9.56081
room	-9.561
▁liberal	-9.5611
ber	-9.56181
ton	-9.56263
▁scammer	-9.56344
▁yr	-9.56415
ac	-9.56533
▁organize	-9.56924
▁skull	-9.57009
▁cima	-9.57036
▁leadership	-9.57048
▁sight	-9.57068
▁isp	-9.57087
▁manner	-9.57091
▁ah	-9.57092
▁fitness	-9.57094
▁harsha	-9.57117
▁gig	-9.57182
▁hill	-9.5734
▁vot	-9.57343
▁calm	-9.57837
▁clue	-9.57935
▁unfair	-9.57952
▁entrance	-9.57953
▁etf	-9.57954
▁resolve	-9.57956
▁split	-9.57961
▁agenda	-9.57968
▁reference	-9.5797
do	-9.57975
▁retirement	-9.57995
▁sum	-9.58151
▁fi	-9.58189
▁wi	-9.58508
▁trick	-9.58603
▁nurse	-9.58828
▁enforce	-9.58867
una	-9.58891
▁immigrant	-9.58905
▁premadasa	-9.58905
▁garden	-9.58905
▁flood	-9.58906
▁prison	-9.58907
▁trcsl	-9.58907
▁error	-9.58915
▁chase	-9.5893
▁plantation	-9.58961
▁slave	-9.59009
▁abt	-9.59122
▁sky	-9.5929
▁specialize	-9.5969
▁bo	-9.59849
▁entrepreneur	-9.59866
▁hustle	-9.59866
▁undergrad	-9.59866
▁expose	-9.59869
▁ofc	-9.59888
▁kottu	-9.59915
▁grab	-9.5992
▁van	-9.59938
▁dual	-9.60057
▁ik	-9.60168
mp	-9.60449
▁ro	-9.60606
▁traveler	-9.60726
▁bangladesh	-9.60837
▁chatgpt	-9.60837
▁discrimination	-9.60837
▁genocide	-9.60837
▁inflate	-9.60837
▁vaccinate	-9.60837
▁proceed	-9.60837
▁surround	-9.60838
▁southern	-9.60843
▁witness	-9.60843
▁cmb	-9.60858
▁journalist	-9.60891
ess	-9.6098
▁highlight	-9.61019
▁yea	-9.6127
▁certainly	-9.61469
ew	-9.61773
▁dehiwala	-9.61819
▁tower	-9.6182
▁flash	-9.61821
▁smoke	-9.61824
▁brown	-9.61829
▁curry	-9.61837
▁bare	-9.61922
down	-9.61929
▁zone	-9.61958
▁russian	-9.61982
▁historical	-9.62387
▁surely	-9.62449
▁ra	-9.62539
▁bath	-9.62645
▁secret	-9.62778
▁analytic	-9.62807
▁confidence	-9.62807
▁adhd	-9.62808
▁availability	-9.62808
▁propose	-9.6281
▁tree	-9.62821
▁uae	-9.62822
▁surgery	-9.62826
▁entity	-9.6283
▁earning	-9.6306
▁collection	-9.63085
▁character	-9.6314
▁mini	-9.63199
▁eastern	-9.63209
act	-9.63217
oc	-9.63223
▁pen	-9.63361
▁german	-9.63505
▁arrange	-9.63768
▁advertise	-9.63773
ice	-9.63776
▁dealer	-9.63802
▁climb	-9.63807
▁depreciate	-9.63807
▁grocery	-9.63807
▁pettah	-9.63807
▁boost	-9.63809
▁slip	-9.63811
▁expand	-9.63815
▁spare	-9.63827
▁yep	-9.63836
▁smell	-9.6384
▁tight	-9.63875
▁sustainable	-9.63998
▁mixed	-9.64064
▁chain	-9.64137
▁gpa	-9.64204
▁essentially	-9.64678
paid	-9.64682
▁authentic	-9.64771
▁has	-9.6481
▁ideology	-9.64818
▁recognition	-9.64818
▁unsure	-9.64818
▁regime	-9.6482
▁commute	-9.6482
▁cabinet	-9.64822
▁analysis	-9.64823
▁automatically	-9.64824
▁lab	-9.64853
▁passionate	-9.64865
▁ce	-9.65157
ling	-9.65168
▁im	-9.65209
▁core	-9.65217
▁jr	-9.6541
▁telegra	-9.65487
▁announce	-9.65798
▁frustrating	-9.65838
▁fundamental	-9.65838
▁junior	-9.65838
▁invite	-9.65838
▁icbt	-9.65838
▁urban	-9.65838
▁broadband	-9.65839
▁cake	-9.65848
▁depression	-9.65867
▁failure	-9.65879
▁tooth	-9.65886
▁spam	-9.65922
flow	-9.6593
body	-9.66129
▁pan	-9.66195
▁minded	-9.66206
▁mode	-9.66226
▁funding	-9.66303
▁flow	-9.66309
▁pv	-9.66474
▁bomb	-9.66508
ni	-9.66625
▁additionally	-9.66727
▁internal	-9.66807
necessarily	-9.66851
▁hsbc	-9.66869
▁mbps	-9.66869
▁ultra	-9.66869
▁privacy	-9.66869
▁sweet	-9.66869
▁forever	-9.66873
▁colour	-9.66876
▁lift	-9.66899
▁hack	-9.66899
▁qualified	-9.66954
▁scope	-9.6696
▁accountability	-9.66969
▁grad	-9.67103
▁peradeniy	-9.67165
▁wind	-9.67167
▁ag	-9.67271
▁mu	-9.6738
▁fds	-9.67406
use	-9.67467
▁as	-9.67655
▁tri	-9.67729
ham	-9.67823
▁android	-9.67911
▁remittance	-9.67911
▁outcome	-9.67911
▁islam	-9.67911
▁ntb	-9.67913
▁faith	-9.67916
▁crack	-9.67917
▁nope	-9.67922
▁installment	-9.67932
▁pair	-9.67953
ley	-9.67992
▁cab	-9.67995
ata	-9.68007
ell	-9.68264
▁comp	-9.68276
▁tin	-9.68446
▁ri	-9.68556
ran	-9.68674
▁ml	-9.68719
▁moral	-9.68727
▁russia	-9.68786
▁addition	-9.68801
▁auto	-9.68891
▁margin	-9.68948
▁afaik	-9.68963
▁intelligence	-9.68963
▁scooter	-9.68963
▁intend	-9.68966
▁bridge	-9.68972
▁vision	-9.68986
▁hostel	-9.68998
▁pathway	-9.69019
▁replacement	-9.69069
▁aid	-9.691
▁tiny	-9.6929
iv	-9.69394
▁va	-9.69532
▁typically	-9.69596
▁united	-9.69634
▁pot	-9.69691
▁hero	-9.69789
▁lunch	-9.70027
▁overprice	-9.70027
▁regulate	-9.70027
▁sacrifice	-9.70027
▁minimal	-9.70027
▁hindu	-9.70029
▁lean	-9.70032
▁smile	-9.70038
▁blow	-9.70048
▁wallet	-9.70053
▁elder	-9.70104
▁wave	-9.70485
pay	-9.70614
▁retail	-9.70871
▁res	-9.70889
▁confuse	-9.70921
▁sm	-9.70979
▁cambridge	-9.71102
▁domestic	-9.71102
▁exempt	-9.71102
▁sentence	-9.71103
▁organisation	-9.71103
▁meter	-9.71113
▁entertainment	-9.71117
▁selfish	-9.71223
▁minor	-9.71237
▁advanced	-9.7124
gg	-9.71339
ode	-9.71577
ci	-9.71668
▁soo	-9.71938
▁wheel	-9.71959
▁nah	-9.71969
▁affair	-9.72189
▁circumstance	-9.72189
▁exposure	-9.72189
▁participate	-9.72189
▁clown	-9.7219
▁derana	-9.72191
▁conservative	-9.72191
▁overnight	-9.72191
▁instance	-9.72192
▁guest	-9.72193
▁plain	-9.7222
▁shopping	-9.72235
▁clearance	-9.72284
▁ho	-9.72289
▁capable	-9.72308
▁coverage	-9.72342
▁mail	-9.72451
▁acc	-9.7247
▁ip	-9.72696
▁ind	-9.72794
▁rough	-9.72821
▁unlikely	-9.72853
▁disagree	-9.73248
▁entitle	-9.73248
▁adjust	-9.73248
ab	-9.7325
▁behaviour	-9.73288
▁equivalent	-9.73288
▁hiriketiya	-9.73288
▁tangalle	-9.73288
▁translate	-9.73288
▁pattern	-9.73288
▁pretend	-9.73288
▁ongoing	-9.73288
▁toilet	-9.73289
▁appeal	-9.73297
▁outlet	-9.73299
▁allowance	-9.73451
▁lend	-9.73495
com	-9.73549
mate	-9.73691
▁rot	-9.73698
▁opt	-9.73701
▁related	-9.73795
▁drag	-9.73807
▁micro	-9.7384
▁down	-9.74159
▁director	-9.74356
▁admission	-9.74399
▁rugby	-9.74399
▁softlogic	-9.74399
▁mountain	-9.74399
▁royal	-9.744
▁psychology	-9.744
▁leak	-9.74401
▁charity	-9.74403
▁railway	-9.74403
▁psychiatrist	-9.74406
▁asshole	-9.74408
▁stuck	-9.74409
we	-9.74427
▁membership	-9.74447
▁soul	-9.74451
▁democratic	-9.74475
▁sufficient	-9.74486
▁swimm	-9.74603
▁rating	-9.74661
ger	-9.74791
▁q	-9.74795
▁is	-9.7508
▁vet	-9.75333
▁react	-9.75462
▁habit	-9.75506
▁audience	-9.75523
▁canadian	-9.75523
▁criticize	-9.75523
▁disaster	-9.75523
▁twitter	-9.75523
▁ucsc	-9.75523
▁suburb	-9.75523
▁discover	-9.75527
▁statistic	-9.75529
▁trustworthy	-9.75532
▁alright	-9.7555
▁assignment	-9.75551
▁rude	-9.75554
▁keell	-9.75564
▁evil	-9.75576
cient	-9.7558
▁dear	-9.75705
▁pe	-9.75807
▁guard	-9.75862
▁less	-9.75961
▁cos	-9.76157
▁hype	-9.76188
▁wealthy	-9.76211
▁mum	-9.76215
pl	-9.76372
▁allocate	-9.76659
▁criticism	-9.76659
▁diaspora	-9.76659
▁pixel	-9.76659
▁powder	-9.76659
▁suicide	-9.76659
▁diesel	-9.7666
▁utility	-9.76661
▁boss	-9.76674
▁complicated	-9.76679
▁define	-9.7668
▁secretary	-9.76692
▁excited	-9.767
▁trial	-9.76861
▁salt	-9.76877
all	-9.77104
light	-9.77138
▁ear	-9.77266
tan	-9.77327
▁recovery	-9.77345
ja	-9.77446
▁mathematic	-9.77494
▁pol	-9.77573
▁occasional	-9.7761
▁manufacture	-9.77619
▁designer	-9.77631
the	-9.77639
▁tag	-9.77698
▁mora	-9.77718
▁confident	-9.77793
▁describe	-9.77809
▁worship	-9.77809
▁barrier	-9.77809
▁thief	-9.77809
▁glass	-9.77813
▁fluent	-9.77817
▁cheat	-9.77831
▁panel	-9.77832
▁childhood	-9.77858
▁enable	-9.77915
▁bully	-9.78034
▁improvement	-9.78053
▁col	-9.78143
▁alive	-9.78174
her	-9.78182
▁booking	-9.78254
oo	-9.78359
aga	-9.78594
one	-9.78623
▁profession	-9.78744
ue	-9.78885
mon	-9.78898
▁ahangama	-9.78971
▁eligible	-9.7898
▁audit	-9.79012
▁manipulate	-9.79055
▁coin	-9.79101
▁married	-9.79114
▁ga	-9.79279
ability	-9.79367
▁fe	-9.79374
▁beg	-9.79443
▁expire	-9.79476
▁ran	-9.79567
▁imp	-9.79851
aka	-9.79925
▁contain	-9.79936
ect	-9.80002
ragama	-9.80148
▁pricing	-9.80149
▁temu	-9.80149
▁explanation	-9.80161
ld	-9.80256
pt	-9.80302
awa	-9.80306
▁socialism	-9.8037
▁roughly	-9.8065
▁constant	-9.80873
ng	-9.80879
▁hon	-9.80962
▁chem	-9.80972
tray	-9.8111
ide	-9.81234
▁profess	-9.81242
▁strength	-9.81301
▁percent	-9.81316
▁behave	-9.81338
▁decrease	-9.81338
▁february	-9.81338
▁hobby	-9.81338
▁ignorant	-9.81338
▁succeed	-9.81338
▁narrative	-9.8134
▁burger	-9.8141
▁commitment	-9.81444
▁ring	-9.81578
▁gi	-9.8182
iz	-9.81909
▁lower	-9.81936
▁violent	-9.82543
▁koko	-9.82543
▁storage	-9.82543
▁vpn	-9.82544
▁friday	-9.82544
▁beaut	-9.82544
▁hidden	-9.82546
▁expat	-9.8256
▁accent	-9.82561
▁honda	-9.82566
▁buck	-9.82566
▁textbook	-9.82572
▁shout	-9.82575
educated	-9.82636
▁officially	-9.82979
▁cam	-9.83068
▁smooth	-9.83289
▁warn	-9.83432
▁leas	-9.83472
▁correctly	-9.83678
▁hunt	-9.83707
▁cancer	-9.83764
▁fyi	-9.83764
▁creative	-9.83775
▁finger	-9.83775
▁grid	-9.83798
▁viable	-9.83923
▁govern	-9.83943
▁profitable	-9.84057
ture	-9.84342
▁difficulty	-9.84357
bi	-9.84426
sheet	-9.84735
▁cur	-9.84801
▁consume	-9.84807
que	-9.84987
▁pandemic	-9.84997
▁surprising	-9.84997
▁locate	-9.84997
▁traveller	-9.85003
▁industrial	-9.85013
▁acknowledge	-9.85027
▁peep	-9.85053
▁favour	-9.85063
▁pal	-9.85175
▁rep	-9.85238
▁cr	-9.85273
▁kit	-9.85482
▁globally	-9.85549
▁successfully	-9.85958
▁korea	-9.8607
▁lovely	-9.86118
▁artificial	-9.86247
▁combination	-9.86247
▁encounter	-9.86247
▁john	-9.86247
▁lazy	-9.86247
▁christmas	-9.86248
▁steam	-9.86253
▁shape	-9.86256
▁terrorism	-9.86256
▁desk	-9.86269
▁guilty	-9.86391
▁agriculture	-9.86392
mi	-9.86453
▁plate	-9.86495
▁we	-9.86589
ative	-9.86591
▁dose	-9.86602
▁ethical	-9.86629
▁di	-9.86764
▁on	-9.86811
▁id	-9.87062
▁severe	-9.87129
isation	-9.87234
▁villa	-9.87247
▁thi	-9.87248
ery	-9.87344
▁norm	-9.8742
▁communist	-9.87513
▁compensation	-9.87513
▁recognise	-9.87513
▁vaccination	-9.87513
▁disappear	-9.87513
▁obsess	-9.87513
▁emote	-9.87513
▁battle	-9.87519
▁defense	-9.87527
▁opening	-9.87527
▁meaningful	-9.87536
▁aw	-9.87552
▁otp	-9.87562
▁punishment	-9.87568
top	-9.87575
▁accountable	-9.87607
▁nationalist	-9.8775
istic	-9.87828
▁hole	-9.87993
▁favor	-9.87996
rt	-9.8805
▁lion	-9.88111
▁hun	-9.88744
▁har	-9.88749
▁bentota	-9.88795
▁escape	-9.88795
▁nissan	-9.88795
▁riot	-9.88816
▁fruit	-9.88915
▁dept	-9.88923
▁parking	-9.89136
sha	-9.89324
ome	-9.8955
▁classic	-9.89636
ized	-9.89752
▁rajapaksas	-9.89811
▁server	-9.89839
ner	-9.89976
▁criterion	-9.90094
▁treasury	-9.90094
▁catholic	-9.90096
▁reputabl	-9.90099
▁ease	-9.90143
▁dump	-9.90168
▁venue	-9.90332
▁log	-9.90372
▁surge	-9.90401
▁ego	-9.90454
▁tap	-9.90544
▁economically	-9.90615
▁nov	-9.90629
hood	-9.9064
ute	-9.90774
qu	-9.90789
▁aud	-9.90814
▁rob	-9.90818
▁regional	-9.90885
▁immediate	-9.90944
▁consistent	-9.90948
▁portal	-9.90953
gi	-9.90979
ll	-9.9102
▁clinic	-9.91029
▁boot	-9.91158
▁radio	-9.91222
▁tf	-9.91349
▁occur	-9.91408
▁depreciation	-9.9141
▁excellent	-9.9141
▁italy	-9.9141
▁flexible	-9.91412
▁kelaniya	-9.91413
▁pi	-9.9143
▁assess	-9.91441
▁niche	-9.91447
▁quota	-9.91469
▁edge	-9.91476
▁buddha	-9.9148
▁visible	-9.91518
▁tear	-9.91584
▁disgusting	-9.91584
▁exp	-9.91726
▁el	-9.91789
▁bombing	-9.91873
list	-9.91916
▁ko	-9.91931
soon	-9.92013
▁cus	-9.92036
rate	-9.92153
▁gf	-9.92293
stem	-9.92349
min	-9.92713
▁relation	-9.92733
▁prioritize	-9.92743
▁proposal	-9.92743
▁trigger	-9.92743
▁century	-9.92743
▁licence	-9.92743
▁exceed	-9.92743
▁cringe	-9.92745
▁freak	-9.92746
▁roof	-9.92749
▁repute	-9.92763
▁warm	-9.92865
▁pathetic	-9.92907
▁mouth	-9.92936
▁rec	-9.92952
▁tb	-9.93161
▁accus	-9.93193
tra	-9.93526
▁renew	-9.93884
▁emotion	-9.93932
care	-9.93951
▁unity	-9.93982
▁rom	-9.94036
▁nav	-9.94061
▁french	-9.94094
▁heritage	-9.94094
▁prospect	-9.94094
▁relief	-9.94094
▁subscription	-9.94094
▁translation	-9.94094
▁ocean	-9.94094
▁variety	-9.94094
▁consent	-9.94095
▁tank	-9.94102
▁trail	-9.94106
▁forum	-9.9411
▁keen	-9.94119
▁ownership	-9.94148
side	-9.94164
▁bug	-9.94195
▁ukraine	-9.94263
▁uom	-9.94341
▁payone	-9.94481
ill	-9.94679
▁personality	-9.94688
▁buyer	-9.94752
▁wa	-9.95068
▁off	-9.95117
ull	-9.95223
▁pin	-9.95242
▁indicat	-9.95402
▁pohottu	-9.95464
▁assault	-9.95464
▁convenience	-9.95464
▁discourage	-9.95464
▁semester	-9.95464
▁vietnam	-9.95464
▁presence	-9.95464
▁vacanc	-9.95466
▁gateway	-9.95473
▁utter	-9.95474
▁zoom	-9.95492
▁hall	-9.955
▁realistic	-9.95535
▁cla	-9.958
▁ceo	-9.95817
▁ku	-9.95903
▁din	-9.96017
fa	-9.96081
ible	-9.96095
▁cater	-9.96119
▁ug	-9.96126
▁qu	-9.96179
▁bite	-9.96454
▁meaning	-9.96632
▁ki	-9.96717
ium	-9.96741
▁restrict	-9.96754
▁allegation	-9.96853
▁amazon	-9.96853
▁anxiety	-9.96853
▁behalf	-9.96853
▁incredibly	-9.96853
▁kitchen	-9.96853
▁league	-9.96853
▁supplement	-9.96853
▁eelam	-9.96853
▁restructure	-9.96856
▁programming	-9.96856
▁legitimate	-9.96864
▁bias	-9.96871
end	-9.96871
▁governance	-9.96872
▁competent	-9.96887
▁chip	-9.96902
▁vast	-9.96915
oke	-9.9695
▁owe	-9.96952
▁flat	-9.96963
eren	-9.9697
▁kg	-9.9712
▁lake	-9.97173
work	-9.9729
▁favorit	-9.97306
▁inf	-9.9732
ier	-9.97392
▁diet	-9.97712
▁urgent	-9.97805
▁earner	-9.97837
▁emotional	-9.97946
pi	-9.9798
▁wf	-9.98117
▁colonial	-9.98245
▁border	-9.98262
▁insult	-9.98262
▁principle	-9.98262
▁parcel	-9.98262
▁phase	-9.98262
▁shady	-9.98262
▁tactic	-9.98265
▁intake	-9.98283
▁ndb	-9.98297
▁del	-9.98305
▁ft	-9.98401
▁broad	-9.98408
liness	-9.98417
▁gra	-9.98599
▁frequently	-9.98624
▁friendship	-9.98636
back	-9.98854
point	-9.98919
▁hv	-9.99056
box	-9.9906
ping	-9.99238
▁physically	-9.99302
▁naturally	-9.9938
atara	-9.99399
lu	-9.99434
ris	-9.99551
sumption	-9.99684
▁ayurved	-9.9969
▁ordinary	-9.9969
▁permission	-9.9969
▁prescription	-9.9969
▁republic	-9.9969
▁tattoo	-9.9969
▁unawatuna	-9.9969
▁disease	-9.9969
▁contest	-9.9969
▁atto	-9.99691
▁grind	-9.99691
▁assistance	-9.997
front	-9.99705
▁award	-9.99714
▁da	-9.9973
▁determine	-9.99738
▁differently	-9.99744
asa	-9.9975
▁maldive	-9.99787
▁resignation	-9.99792
▁uoc	-9.99893
▁plane	-9.99904
▁swear	-10
ose	-10.002
▁customs	-10.0024
▁para	-10.0027
▁publicly	-10.0029
ility	-10.0059
ense	-10.0061
activate	-10.0106
▁practically	-10.0109
▁abortion	-10.0114
▁brief	-10.0114
▁exhaust	-10.0114
▁quarter	-10.0114
▁sentiment	-10.0114
▁brutal	-10.0114
▁angry	-10.0114
▁slfp	-10.0114
▁writing	-10.0114
▁filter	-10.0114
▁venture	-10.0115
▁contribution	-10.0115
▁bedroom	-10.0115
▁exclusive	-10.0116
▁pump	-10.0116
▁gear	-10.0117
core	-10.0118
▁backup	-10.0119
▁setting	-10.0123
▁workforce	-10.0128
▁withdrawal	-10.015
▁goon	-10.0152
▁shall	-10.0162
▁reminder	-10.017
pp	-10.0174
▁mentally	-10.0177
▁farmer	-10.018
▁aban	-10.0193
ball	-10.0195
▁internationally	-10.0212
▁che	-10.0216
io	-10.0218
▁thr	-10.0226
▁ju	-10.0228
▁semi	-10.0237
lly	-10.0238
ct	-10.0245
▁superior	-10.0256
▁arch	-10.0257
▁abolish	-10.0261
▁backpack	-10.0261
▁compromise	-10.0261
▁exclude	-10.0261
▁saturday	-10.0261
▁literature	-10.0261
▁abandon	-10.0261
▁corner	-10.0262
▁architecture	-10.0262
▁amendment	-10.0263
▁mature	-10.0263
ob	-10.027
away	-10.0281
ator	-10.0283
▁suv	-10.0298
▁pub	-10.03
▁dive	-10.0303
course	-10.0342
▁mb	-10.0355
cc	-10.0376
▁inc	-10.0388
▁politically	-10.0391
▁fucker	-10.0395
ou	-10.0395
int	-10.0402
▁broke	-10.0408
▁affiliate	-10.041
▁bandaranaike	-10.041
▁component	-10.041
▁hikkaduwa	-10.041
▁mirror	-10.041
▁violation	-10.041
▁resume	-10.041
▁headache	-10.041
▁broadcast	-10.041
▁audio	-10.0411
▁necessity	-10.0412
▁wire	-10.0417
▁dependent	-10.043
▁bud	-10.0432
▁boc	-10.0434
ini	-10.0435
▁du	-10.0441
▁wonderful	-10.0452
▁kindly	-10.0455
ela	-10.0458
▁warning	-10.046
cl	-10.0473
uk	-10.0476
wide	-10.0492
▁the	-10.0524
ivity	-10.0533
mer	-10.0533
ade	-10.0539
ung	-10.0541
▁jaya	-10.0544
▁cha	-10.055
▁origin	-10.0554
▁bubble	-10.0562
▁economist	-10.0562
▁scratch	-10.0562
▁weapon	-10.0562
▁corporation	-10.0562
▁northern	-10.0562
▁racial	-10.0562
▁moron	-10.0563
▁pride	-10.0564
▁revolution	-10.0565
▁cell	-10.0572
▁pfca	-10.0579
▁rally	-10.0589
▁fa	-10.0633
du	-10.0664
▁equally	-10.067
▁srilankans	-10.0682
▁africa	-10.0698
▁enrol	-10.0701
▁drunk	-10.0716
▁shampoo	-10.0716
▁mosque	-10.0716
▁anime	-10.0716
▁midnight	-10.0716
▁mount	-10.0716
▁unemployed	-10.0717
▁extension	-10.0717
▁reward	-10.0718
▁thug	-10.0718
▁wood	-10.0719
▁impression	-10.072
▁spotify	-10.0721
▁wo	-10.0725
▁respectful	-10.0727
▁collective	-10.0729
▁boil	-10.0736
▁manufacturer	-10.0741
▁tha	-10.0744
eek	-10.0753
fi	-10.0762
atha	-10.0763
▁acceptable	-10.077
▁wh	-10.0785
popular	-10.0799
case	-10.0803
loat	-10.082
▁bull	-10.0828
▁bell	-10.0833
ction	-10.0835
▁got	-10.085
▁strange	-10.0853
▁assign	-10.0869
▁uncomfortable	-10.0872
▁nomad	-10.0872
▁courier	-10.0872
▁nibm	-10.0872
▁examination	-10.0872
▁loophole	-10.0872
▁first	-10.0872
▁efficiency	-10.0872
▁wije	-10.0873
▁interior	-10.0873
▁java	-10.0873
▁awful	-10.0875
▁marketplace	-10.0877
▁perk	-10.0881
▁hardware	-10.0882
▁nationalism	-10.0888
▁spec	-10.0892
▁li	-10.0916
▁media	-10.0918
▁ratio	-10.0918
let	-10.0926
▁pill	-10.0927
▁dish	-10.0929
▁interact	-10.0939
dred	-10.0941
ale	-10.0948
ngo	-10.0948
gen	-10.0951
▁serv	-10.096
thi	-10.096
▁badly	-10.0966
▁bot	-10.0967
▁annoy	-10.0993
▁flee	-10.1005
▁rat	-10.1008
▁instal	-10.101
▁civi	-10.1025
▁applicable	-10.1031
▁happiness	-10.1031
▁stretch	-10.1031
▁subsidy	-10.1031
▁deficit	-10.1031
▁volume	-10.1031
▁hatred	-10.1031
▁torture	-10.1031
▁chemical	-10.1032
▁misuse	-10.1032
▁reverse	-10.1032
▁acquire	-10.1032
▁jack	-10.1033
▁dictator	-10.1033
▁analyst	-10.1035
▁bloat	-10.1037
▁capitalism	-10.1038
▁ssd	-10.1042
pet	-10.1045
▁singer	-10.1047
▁teen	-10.1048
▁handout	-10.1052
▁peg	-10.1058
▁chair	-10.1062
▁pray	-10.1062
▁ib	-10.1073
▁observe	-10.1088
▁top	-10.1091
▁qa	-10.1107
▁fry	-10.111
▁kar	-10.1122
ck	-10.1134
▁tier	-10.1141
▁ap	-10.1142
▁dil	-10.1155
▁mf	-10.1159
▁addict	-10.1168
▁sustain	-10.1185
sensitive	-10.1192
▁bracket	-10.1192
▁expenditure	-10.1192
▁narrow	-10.1192
▁module	-10.1192
▁verification	-10.1192
▁defeat	-10.1192
▁feasible	-10.1192
▁capture	-10.1193
▁chaos	-10.1193
▁bread	-10.1195
▁uniform	-10.1197
▁whil	-10.1199
▁stressful	-10.1201
▁pilot	-10.1205
▁investigate	-10.1205
▁separately	-10.1207
▁acca	-10.1216
▁storm	-10.1218
▁euro	-10.1226
esh	-10.1228
▁shed	-10.1251
▁exception	-10.1252
▁joint	-10.1256
▁pant	-10.1259
▁cd	-10.1262
▁supportive	-10.1264
▁str	-10.1269
phone	-10.128
▁ish	-10.1282
▁gu	-10.1283
tc	-10.1294
ular	-10.1309
▁aka	-10.1312
lan	-10.1341
▁transit	-10.1349
▁disrespect	-10.1356
▁supreme	-10.1356
▁tournament	-10.1356
▁silva	-10.1356
▁vezel	-10.1356
▁literacy	-10.1356
▁joy	-10.1356
▁alert	-10.1356
▁downside	-10.1357
▁heck	-10.1357
▁beneficial	-10.1357
▁representative	-10.1357
▁monkey	-10.1358
sman	-10.1359
▁navigate	-10.1361
▁innovation	-10.1363
▁desire	-10.1363
▁incentive	-10.1363
▁transition	-10.1366
oth	-10.1369
▁all	-10.1371
▁achievement	-10.1374
▁fup	-10.1378
▁heal	-10.138
▁plot	-10.138
▁therapy	-10.1381
▁taxation	-10.1383
▁contractor	-10.1397
▁urge	-10.1405
▁gate	-10.1413
▁bang	-10.1416
▁sms	-10.1429
▁scare	-10.1458
▁swim	-10.1493
uth	-10.1494
▁breath	-10.1495
pro	-10.1497
key	-10.1516
▁org	-10.1519
▁netflix	-10.1522
▁principal	-10.1522
▁studio	-10.1522
▁nepal	-10.1523
▁pension	-10.1523
▁airtel	-10.1523
▁litter	-10.1523
▁snack	-10.1523
▁offense	-10.1523
▁monday	-10.1524
▁capability	-10.1524
▁gpu	-10.1524
▁admin	-10.1525
▁apiit	-10.1527
▁jam	-10.1528
▁rocket	-10.153
▁satisfied	-10.1531
▁attractive	-10.1537
▁scary	-10.1546
uck	-10.1551
▁importer	-10.1553
▁script	-10.1558
▁wipe	-10.1559
▁fl	-10.1578
▁strongly	-10.1581
▁os	-10.1595
▁fare	-10.1601
▁eng	-10.1603
▁peo	-10.161
▁cast	-10.1622
ten	-10.1624
ani	-10.1631
▁unfortunate	-10.1646
gam	-10.1652
▁shower	-10.167
▁outdate	-10.1674
▁bla	-10.1675
▁hop	-10.1679
▁fam	-10.1689
▁incompeten	-10.1689
▁gotabaya	-10.1692
▁increment	-10.1692
▁introvert	-10.1692
▁italian	-10.1692
▁manufacturing	-10.1692
▁penalty	-10.1692
▁mutual	-10.1692
▁praise	-10.1692
▁swift	-10.1692
▁screenshot	-10.1692
▁adida	-10.1692
▁kitten	-10.1693
▁lodg	-10.1694
▁assistant	-10.1694
▁alliance	-10.1694
▁esoft	-10.1696
▁mask	-10.1697
▁organic	-10.1698
▁metal	-10.1699
▁adam	-10.1703
▁photography	-10.1708
▁enthusiast	-10.171
gan	-10.172
▁pad	-10.1721
nder	-10.1735
tle	-10.1736
▁hiru	-10.1742
put	-10.1744
▁hospitality	-10.1747
▁yt	-10.1752
▁visitor	-10.1767
▁scan	-10.1776
▁hu	-10.1776
▁cor	-10.1778
par	-10.1784
of	-10.179
nce	-10.1791
▁var	-10.1819
▁fk	-10.1829
▁api	-10.1859
hand	-10.1861
▁cautious	-10.1864
▁curiosity	-10.1864
▁description	-10.1864
▁furniture	-10.1864
▁newspaper	-10.1864
▁outdoor	-10.1864
▁outsourc	-10.1864
▁recipe	-10.1864
▁rumor	-10.1864
▁framework	-10.1865
▁suspicious	-10.1865
▁neighborhood	-10.1865
▁organise	-10.1865
▁comfortably	-10.1866
▁every	-10.1866
ble	-10.1866
▁creator	-10.1868
▁accessible	-10.1868
▁inspire	-10.1871
▁cfa	-10.1871
▁packet	-10.1872
▁founder	-10.1873
ula	-10.1877
ok	-10.1896
ker	-10.1904
▁bout	-10.1905
▁peer	-10.1912
ong	-10.1914
▁sole	-10.1924
▁emotionally	-10.1924
▁environmental	-10.1948
friend	-10.1961
tain	-10.1961
▁worthy	-10.1963
board	-10.1963
su	-10.1966
wise	-10.1991
▁christian	-10.2004
▁touristy	-10.2034
▁orient	-10.2035
▁congratulation	-10.204
▁dislike	-10.204
▁exercise	-10.204
▁fernando	-10.204
▁indonesia	-10.204
▁isolate	-10.204
▁jersey	-10.204
▁lavinia	-10.204
▁miracle	-10.204
▁temperature	-10.204
▁indoor	-10.204
▁silent	-10.204
▁capita	-10.2041
▁wagon	-10.2041
▁drone	-10.2042
▁reside	-10.2043
▁harini	-10.2043
▁thrive	-10.2044
▁aunt	-10.2047
▁dirty	-10.2054
era	-10.2055
▁partial	-10.2056
▁ui	-10.2057
▁exit	-10.2064
▁wht	-10.2083
gr	-10.2087
▁mere	-10.2092
▁bitch	-10.2097
anna	-10.2107
▁fm	-10.2113
net	-10.2116
ency	-10.2151
ave	-10.2152
gh	-10.2162
▁hut	-10.2163
▁provinc	-10.2175
here	-10.2195
▁escalate	-10.2218
▁graduation	-10.2218
▁mainstream	-10.2218
▁monopoly	-10.2218
▁romantic	-10.2218
▁enemy	-10.2218
▁aussie	-10.2218
▁mbbs	-10.2218
▁departure	-10.2219
▁kingdom	-10.2219
▁anonymous	-10.222
talin	-10.222
▁spice	-10.2221
▁slap	-10.2222
▁strengthen	-10.2224
▁onwards	-10.2225
▁nurs	-10.2233
▁reaction	-10.2234
ix	-10.2234
▁investing	-10.2235
▁pickup	-10.2236
▁outdated	-10.2238
▁nadu	-10.2241
▁motorcycl	-10.2244
▁privately	-10.2254
▁documentation	-10.2255
▁mfs	-10.2255
▁lonely	-10.2262
▁panic	-10.2264
▁lifetime	-10.2265
▁ally	-10.2265
atch	-10.2269
▁originally	-10.2276
▁follower	-10.229
▁logical	-10.2292
▁tall	-10.2302
▁largely	-10.2316
▁chandr	-10.2341
▁pla	-10.2354
▁youtuber	-10.2356
▁frequent	-10.2359
itch	-10.2361
▁xd	-10.2364
▁harsh	-10.2382
▁architect	-10.2399
▁aggressive	-10.24
▁association	-10.24
▁gampaha	-10.24
▁guitar	-10.24
▁landscape	-10.24
▁prosecut	-10.24
▁universal	-10.24
▁cruise	-10.24
▁postpone	-10.24
▁rajagir	-10.2401
▁logistic	-10.2401
▁liberty	-10.2401
▁kiss	-10.2402
▁nail	-10.2409
▁respective	-10.2418
▁stranger	-10.2422
nk	-10.2431
▁nz	-10.2433
▁menu	-10.2442
▁solely	-10.245
▁learner	-10.2462
▁sam	-10.2466
▁thin	-10.2472
▁taxable	-10.2479
▁businessman	-10.2481
▁ir	-10.2488
ample	-10.2504
▁cid	-10.2506
▁nut	-10.2507
▁mile	-10.2513
ential	-10.2514
ase	-10.2528
▁certif	-10.2528
od	-10.2541
▁ain	-10.2545
▁boom	-10.2566
▁cooking	-10.2572
▁raja	-10.2577
▁airbnb	-10.2585
▁conference	-10.2585
▁crucial	-10.2585
▁enterprise	-10.2585
▁frustration	-10.2585
▁receipt	-10.2585
▁ielt	-10.2585
▁silver	-10.2585
▁bulk	-10.2585
▁leaf	-10.2585
▁taxpayer	-10.2585
▁duration	-10.2585
▁browse	-10.2585
▁bird	-10.2586
▁nutrition	-10.2586
▁hungry	-10.2587
▁manifesto	-10.2587
▁objective	-10.2588
▁repayment	-10.2588
▁appropriate	-10.2591
▁epis	-10.2596
▁establishment	-10.2596
▁victory	-10.2597
▁interaction	-10.2597
▁governor	-10.2597
▁cave	-10.2598
▁popularity	-10.2613
▁inch	-10.2616
▁meat	-10.2621
press	-10.263
▁integrate	-10.2637
▁spa	-10.2664
tension	-10.2669
▁evs	-10.2669
▁mas	-10.268
▁int	-10.2682
ram	-10.2698
▁wet	-10.27
▁peacefully	-10.2725
▁effectively	-10.2732
▁beer	-10.2733
alon	-10.2735
▁seal	-10.2736
sk	-10.2748
▁conditioner	-10.2748
▁aa	-10.2754
set	-10.2757
uc	-10.2758
▁symbol	-10.2761
▁insta	-10.2765
▁advocate	-10.2774
▁kurunegala	-10.2774
▁luggage	-10.2774
▁restructuring	-10.2774
▁scream	-10.2774
▁overcome	-10.2774
▁scientist	-10.2774
▁execute	-10.2774
▁sweat	-10.2774
▁combank	-10.2775
▁lord	-10.2775
▁prominen	-10.2775
▁haircut	-10.2775
▁zeal	-10.2775
▁bankruptcy	-10.2776
▁theme	-10.2776
▁keyboard	-10.2776
▁realistically	-10.2776
▁japura	-10.2777
code	-10.279
▁franc	-10.2795
▁alto	-10.2795
▁econ	-10.28
table	-10.2801
▁dia	-10.2807
sm	-10.2812
air	-10.2817
▁iran	-10.2823
▁virtual	-10.2834
▁prop	-10.284
▁lap	-10.2877
lk	-10.2893
▁working	-10.2894
▁deed	-10.2895
▁americans	-10.2895
▁scen	-10.29
▁ranking	-10.2909
graph	-10.2915
▁shi	-10.2922
diagnose	-10.2936
▁crush	-10.2966
▁discriminate	-10.2966
▁disrupt	-10.2966
▁motivation	-10.2966
▁prescribe	-10.2966
▁refugee	-10.2966
▁symptom	-10.2966
▁violate	-10.2966
▁evaluat	-10.2966
▁frank	-10.2966
▁turtle	-10.2966
▁offshor	-10.2966
▁poster	-10.2967
▁insist	-10.2967
▁mandate	-10.2967
▁residence	-10.2967
▁perera	-10.2967
▁square	-10.2968
▁upset	-10.2968
▁hook	-10.2969
▁painful	-10.2974
▁frame	-10.2979
▁crop	-10.2979
ware	-10.2983
▁install	-10.2986
▁prediction	-10.2987
▁malay	-10.2988
▁stripe	-10.2997
▁occasion	-10.3
▁economical	-10.3003
▁len	-10.3004
▁lone	-10.301
▁bind	-10.3023
▁ros	-10.3034
cycle	-10.3057
▁esp	-10.3076
▁sec	-10.3084
ring	-10.3112
▁ot	-10.3116
ff	-10.312
▁capitalist	-10.3122
▁cz	-10.3149
▁sen	-10.315
▁detect	-10.3155
▁atroci	-10.3161
▁bastard	-10.3162
▁evolve	-10.3162
▁domain	-10.3162
▁fraud	-10.3162
▁chief	-10.3162
▁preserv	-10.3162
▁sharp	-10.3163
▁sneak	-10.3163
▁ngl	-10.3163
▁scrap	-10.3163
▁dhl	-10.3163
▁mannar	-10.3163
▁brag	-10.3163
▁calculation	-10.3163
▁offend	-10.3163
▁mock	-10.3164
▁devop	-10.3165
▁flaw	-10.3165
▁retain	-10.3166
▁teenager	-10.317
▁blah	-10.317
▁unite	-10.317
▁gradually	-10.3173
▁indicator	-10.3174
mint	-10.318
▁sus	-10.3193
▁involvement	-10.3194
▁prob	-10.3223
▁cu	-10.3225
▁marin	-10.3232
▁qr	-10.3246
▁protester	-10.3249
▁oct	-10.325
▁gener	-10.3255
▁tone	-10.3273
▁carefully	-10.3286
▁fore	-10.3298
▁sur	-10.3303
▁logo	-10.3305
▁lee	-10.3307
▁ge	-10.3311
▁vari	-10.3317
▁trainer	-10.3318
▁memor	-10.3319
▁consideration	-10.3327
▁therap	-10.3339
▁cl	-10.335
▁paste	-10.3358
▁sticker	-10.3361
▁celebration	-10.3362
▁suzu	-10.3362
▁nightmare	-10.3362
▁scientific	-10.3362
▁truck	-10.3363
▁aqua	-10.3363
▁observation	-10.3363
▁shake	-10.3364
▁experiment	-10.3364
▁favourite	-10.3364
▁basil	-10.3364
day	-10.3364
▁belt	-10.3364
▁expressway	-10.3367
▁hangout	-10.3368
▁hub	-10.337
▁bin	-10.3372
▁pov	-10.3379
▁avi	-10.3383
▁terminat	-10.3385
▁african	-10.3386
▁merc	-10.3388
▁dick	-10.34
▁stone	-10.3406
▁bright	-10.3418
▁ugly	-10.3433
▁ci	-10.3439
▁pur	-10.3474
▁deb	-10.3478
▁nil	-10.3478
▁sue	-10.3511
▁masse	-10.3524
unt	-10.353
agama	-10.3533
▁workout	-10.3544
eg	-10.3545
▁parad	-10.3546
house	-10.3552
▁horr	-10.3555
▁keel	-10.3562
▁nomin	-10.3564
▁disturb	-10.3565
▁disconnect	-10.3567
▁breakfast	-10.3567
▁conspiracy	-10.3567
▁cuisine	-10.3567
▁grammar	-10.3567
▁hilarious	-10.3567
▁honeymoon	-10.3567
▁neutral	-10.3567
▁pollution	-10.3567
▁reliability	-10.3567
▁steady	-10.3567
▁temporarily	-10.3567
▁transparency	-10.3567
▁malabe	-10.3567
▁miserable	-10.3567
▁vitz	-10.3567
▁beef	-10.3567
▁committee	-10.3567
▁fantastic	-10.3567
▁plug	-10.3567
▁scroll	-10.3567
▁assumption	-10.3567
▁mentor	-10.3568
▁resell	-10.3568
▁vape	-10.3568
▁coworke	-10.3568
▁operator	-10.3569
▁underpaid	-10.3569
▁horn	-10.357
▁anger	-10.357
▁tailor	-10.357
▁meditat	-10.3573
ax	-10.3574
▁attendance	-10.3576
▁posh	-10.3578
▁plea	-10.3578
▁moon	-10.3583
cha	-10.3588
▁approximately	-10.359
▁ping	-10.359
▁forth	-10.359
▁confirmation	-10.3592
city	-10.3606
ual	-10.3625
iff	-10.3627
ach	-10.3627
ky	-10.3654
▁cad	-10.3679
ingly	-10.368
▁ent	-10.3686
▁disc	-10.3693
craft	-10.3701
bt	-10.3705
ple	-10.3705
▁lak	-10.3733
▁literal	-10.3737
▁stare	-10.3743
▁any	-10.3746
▁pfc	-10.3755
▁cre	-10.3767
amba	-10.3771
▁trauma	-10.3773
▁activist	-10.3775
▁adventure	-10.3775
▁alongside	-10.3775
▁eliminate	-10.3775
▁gazette	-10.3775
▁hambantota	-10.3775
▁ladder	-10.3775
▁magnite	-10.3775
▁mechanism	-10.3775
▁nepotism	-10.3775
▁vague	-10.3775
▁ghost	-10.3775
▁sibling	-10.3775
▁invert	-10.3776
▁liability	-10.3776
▁upside	-10.3777
▁leverage	-10.3779
▁pera	-10.3782
▁ref	-10.3783
▁depressed	-10.3783
▁doom	-10.3784
▁sand	-10.3787
▁honor	-10.3789
▁prize	-10.3789
▁photographer	-10.379
▁vice	-10.3793
▁raw	-10.3796
▁cow	-10.3805
▁whi	-10.3814
▁stabilize	-10.3821
▁gut	-10.3824
▁anc	-10.3831
sim	-10.3832
▁productive	-10.3857
ort	-10.3861
gama	-10.3865
tri	-10.3868
tor	-10.3874
▁creditor	-10.3887
▁psychologi	-10.3887
▁hd	-10.3889
▁cb	-10.389
▁wat	-10.3904
face	-10.3919
▁cope	-10.3936
occupy	-10.3988
▁batalanda	-10.3988
▁boundary	-10.3988
▁clarification	-10.3988
▁fortunate	-10.3988
▁hotspot	-10.3988
▁irrelevant	-10.3988
▁maturity	-10.3988
▁monetary	-10.3988
▁reconciliation	-10.3988
▁whatsoever	-10.3988
▁invade	-10.3988
▁dutch	-10.3988
▁stamp	-10.3988
▁element	-10.3988
▁trinco	-10.3988
▁bpo	-10.3988
▁dental	-10.3988
▁ifs	-10.3988
▁beggar	-10.3989
▁making	-10.3989
▁boring	-10.3989
▁merit	-10.3989
▁button	-10.3992
▁extremist	-10.3994
▁stance	-10.3996
▁brit	-10.4
▁meta	-10.4
▁cite	-10.4008
▁apology	-10.4012
▁golden	-10.4017
by	-10.4024
aw	-10.4032
▁amd	-10.4032
nam	-10.4038
ldr	-10.4041
inland	-10.405
▁rev	-10.4064
▁consistently	-10.4064
▁gal	-10.4101
atta	-10.4158
▁sme	-10.4159
▁constitutional	-10.4179
▁chart	-10.4183
▁ke	-10.4194
▁dip	-10.4203
▁danger	-10.4204
▁boycott	-10.4205
▁demographic	-10.4205
▁instrument	-10.4205
▁landlord	-10.4205
▁liquor	-10.4205
▁mosquito	-10.4205
▁reluctant	-10.4205
▁vegetable	-10.4205
▁cargill	-10.4205
▁routine	-10.4205
▁cartoon	-10.4205
▁torrent	-10.4205
▁cultivat	-10.4205
▁diving	-10.4205
▁migrant	-10.4206
▁porn	-10.4206
oooo	-10.4206
▁overtake	-10.4206
▁appreciation	-10.4206
▁dividend	-10.4208
▁novel	-10.4209
▁appearance	-10.421
▁sink	-10.421
▁premier	-10.4215
▁og	-10.4224
▁yup	-10.4226
▁enroll	-10.4227
▁greedy	-10.4234
▁korean	-10.4236
▁bean	-10.4238
▁importance	-10.424
▁trans	-10.4255
▁dispose	-10.4256
ella	-10.427
▁eco	-10.4272
goda	-10.4273
▁fc	-10.4276
▁reading	-10.4278
ola	-10.4288
gu	-10.4291
▁manageable	-10.4303
▁chi	-10.4308
level	-10.435
ston	-10.4366
rie	-10.4373
▁flu	-10.4398
mas	-10.4417
▁numero	-10.4425
▁anonym	-10.4426
raja	-10.4426
▁wrap	-10.4427
▁ceremony	-10.4427
▁cigarette	-10.4427
▁inconvenience	-10.4427
▁negotiation	-10.4427
▁suspend	-10.4427
▁threshold	-10.4427
▁discord	-10.4427
▁emerge	-10.4427
▁interfere	-10.4427
▁tackle	-10.4427
▁orphanage	-10.4428
▁flex	-10.4428
▁draft	-10.4428
▁yellow	-10.4428
▁timing	-10.4428
▁misinformation	-10.4429
▁amex	-10.4429
▁gentle	-10.4429
▁password	-10.443
▁genius	-10.443
▁differ	-10.443
▁plz	-10.4431
▁quantity	-10.4431
▁accordingly	-10.4432
▁dumbass	-10.4433
▁enforcement	-10.4437
▁consultation	-10.444
fo	-10.4441
▁pace	-10.4442
ggle	-10.4443
▁backwards	-10.4445
▁js	-10.445
▁conductor	-10.4452
▁clip	-10.4453
▁pta	-10.4456
▁ccc	-10.446
▁mm	-10.4475
▁author	-10.4488
▁ward	-10.4492
▁moderate	-10.4514
hara	-10.453
▁iv	-10.4537
▁ds	-10.4551
uff	-10.4594
▁ie	-10.4601
▁streaming	-10.4612
▁bal	-10.4618
▁mislead	-10.4618
▁spin	-10.4622
▁caste	-10.4632
▁charger	-10.4636
uma	-10.4639
▁liquid	-10.465
phil	-10.4652
▁circulat	-10.4655
▁fabric	-10.4655
▁ingredient	-10.4655
▁intelligent	-10.4655
▁lobby	-10.4655
▁sirisena	-10.4655
▁supplier	-10.4655
▁theatre	-10.4655
▁unrelat	-10.4655
▁wickremesinghe	-10.4655
▁shelter	-10.4655
▁dfcc	-10.4655
▁blog	-10.4655
▁gmoa	-10.4655
▁prosper	-10.4655
▁grandparent	-10.4655
▁utiliz	-10.4655
▁gamble	-10.4655
▁preferred	-10.4655
▁recall	-10.4655
▁inquire	-10.4656
▁drastically	-10.4656
▁atheis	-10.4656
▁garage	-10.4656
▁swap	-10.4657
▁kumara	-10.4657
▁stall	-10.4657
▁bailout	-10.4658
▁perch	-10.466
bur	-10.466
▁overtime	-10.466
▁dine	-10.466
▁pitch	-10.4662
▁dam	-10.4668
▁dub	-10.4676
▁nose	-10.4676
dha	-10.4679
▁assist	-10.4681
▁overwhelming	-10.4685
▁thai	-10.4693
pitiya	-10.4696
▁policeman	-10.4704
▁humanity	-10.4706
▁height	-10.4708
sal	-10.4712
▁authorize	-10.4714
▁tele	-10.4736
▁fresher	-10.4763
▁dar	-10.4766
ancy	-10.4767
▁hel	-10.4773
nna	-10.4778
▁exceptional	-10.4801
view	-10.4812
power	-10.4812
pray	-10.4819
▁tile	-10.482
▁bf	-10.4833
▁convers	-10.4838
▁bid	-10.4838
▁scum	-10.4843
▁ec	-10.4862
▁greed	-10.4871
▁pit	-10.4885
▁academy	-10.4887
▁compulsor	-10.4887
▁forgive	-10.4887
▁galaxy	-10.4887
▁happily	-10.4887
▁quarantine	-10.4887
▁transparent	-10.4887
▁unsafe	-10.4887
▁iirc	-10.4887
▁emigrat	-10.4887
▁museum	-10.4887
▁dominat	-10.4887
▁penny	-10.4887
▁transform	-10.4887
▁tution	-10.4887
▁specify	-10.4888
▁bmw	-10.4889
▁thick	-10.4891
▁detain	-10.4891
▁format	-10.4896
▁doable	-10.4906
angala	-10.4908
hana	-10.4909
row	-10.4914
head	-10.4916
▁jk	-10.4918
shop	-10.4921
▁sin	-10.4926
iate	-10.4963
▁blast	-10.4968
▁pointless	-10.4973
▁for	-10.4974
▁ye	-10.4983
hat	-10.4984
▁safely	-10.4999
▁holy	-10.5002
met	-10.5032
ning	-10.5033
▁ru	-10.504
father	-10.5052
▁ethic	-10.5053
guard	-10.5053
▁mc	-10.5062
▁insanely	-10.5067
▁dispos	-10.507
▁grandma	-10.5074
ada	-10.5101
▁full	-10.5104
▁motivate	-10.5107
ren	-10.5109
▁pg	-10.5109
riya	-10.5111
unda	-10.5114
▁innovat	-10.5115
vent	-10.5118
▁israeli	-10.512
▁antibiotic	-10.5125
▁fiverr	-10.5125
▁incredible	-10.5125
▁inquiry	-10.5125
▁length	-10.5125
▁massacre	-10.5125
▁motorbike	-10.5125
▁nanotek	-10.5125
▁python	-10.5125
▁sketch	-10.5125
▁unusual	-10.5125
▁upvote	-10.5125
▁spoil	-10.5125
▁tongue	-10.5125
▁prompt	-10.5125
▁personnel	-10.5125
▁halt	-10.5125
▁distribute	-10.5125
▁mismanagement	-10.5126
▁empath	-10.5126
▁outright	-10.5127
▁dictatorship	-10.5127
▁neck	-10.5127
▁olympic	-10.5127
▁river	-10.5127
▁upwork	-10.5128
▁shade	-10.5128
▁definition	-10.5129
▁bucket	-10.5129
▁loot	-10.5129
▁trace	-10.513
▁roam	-10.513
▁iq	-10.513
▁kong	-10.513
chi	-10.5131
▁sinha	-10.5134
▁creation	-10.5137
▁upwards	-10.5138
▁hong	-10.5138
▁outage	-10.5138
▁judgement	-10.5141
▁butter	-10.5146
▁charter	-10.515
▁rap	-10.5151
dor	-10.5154
▁swing	-10.5157
▁hat	-10.5159
▁instantly	-10.5166
shit	-10.5166
▁tracking	-10.5167
see	-10.5169
▁gl	-10.5179
▁prep	-10.5202
▁sol	-10.5204
▁accidental	-10.5211
▁extract	-10.5213
▁reduct	-10.5214
▁ny	-10.5216
▁imply	-10.522
uge	-10.5234
▁layer	-10.5246
▁unis	-10.526
nawa	-10.5276
▁tra	-10.5287
plus	-10.5302
▁county	-10.5308
▁nik	-10.5308
ook	-10.5314
▁approx	-10.5323
▁mat	-10.533
▁excel	-10.5349
▁terror	-10.5364
▁alternat	-10.5367
▁cult	-10.5367
▁biscuit	-10.5369
▁contrast	-10.5369
▁exaggerate	-10.5369
▁initiate	-10.5369
▁pfizer	-10.5369
▁regulator	-10.5369
▁ritual	-10.5369
▁conquer	-10.5369
▁horse	-10.5369
▁humid	-10.5369
▁gross	-10.5369
▁silence	-10.5369
▁unrealistic	-10.5369
▁knock	-10.5369
▁omg	-10.5369
▁carnage	-10.5369
▁kidney	-10.5369
▁theft	-10.5369
▁pirate	-10.537
▁sunset	-10.537
▁obligation	-10.5371
▁breach	-10.5371
▁cheese	-10.5372
▁nazi	-10.5372
▁lyce	-10.5373
▁asw	-10.5376
▁toll	-10.5384
▁ramp	-10.5389
▁thir	-10.5402
▁israelis	-10.541
▁rem	-10.5424
▁string	-10.5425
▁socially	-10.5429
▁clinical	-10.5441
▁yoga	-10.5443
▁pos	-10.5461
▁freely	-10.5467
▁prepared	-10.5467
pende	-10.5483
▁pipe	-10.5496
hhh	-10.5502
don	-10.5504
kr	-10.5505
▁injure	-10.5505
ima	-10.5513
oka	-10.5517
▁llb	-10.5537
▁io	-10.5538
▁sem	-10.5547
af	-10.5551
▁planet	-10.5561
▁mi	-10.5569
▁pl	-10.5583
rk	-10.5589
▁generational	-10.5591
▁object	-10.5616
▁afternoon	-10.5619
▁altogether	-10.5619
▁applicant	-10.5619
▁atmosphere	-10.5619
▁compensate	-10.5619
▁credible	-10.5619
▁disclose	-10.5619
▁dynamic	-10.5619
▁earbud	-10.5619
▁incorrect	-10.5619
▁perception	-10.5619
▁philippine	-10.5619
▁pregnant	-10.5619
▁qualify	-10.5619
▁throttle	-10.5619
▁confusing	-10.5619
▁dispute	-10.5619
▁theirs	-10.5619
▁enhance	-10.5619
▁petition	-10.5619
▁embra	-10.5619
▁retard	-10.5619
▁inclusiv	-10.5619
▁unstable	-10.5619
▁pdf	-10.5619
▁angel	-10.5619
▁whey	-10.5619
▁priest	-10.562
▁grey	-10.562
▁uncertainty	-10.562
▁lockdown	-10.5621
▁upfront	-10.5622
wella	-10.5622
▁smartphone	-10.5623
▁automatic	-10.5623
▁redmi	-10.5624
▁trait	-10.5624
▁prof	-10.5624
▁curse	-10.5625
▁harmful	-10.5626
▁assure	-10.5626
▁dust	-10.5629
▁diversity	-10.5629
▁existence	-10.563
▁pakistani	-10.563
▁fulfill	-10.5631
▁engagement	-10.5632
▁bold	-10.5637
▁pile	-10.5643
▁documentary	-10.5649
▁utc	-10.5651
ike	-10.5663
▁ruler	-10.5666
▁checkout	-10.5676
▁mah	-10.5683
▁bend	-10.5685
iri	-10.5701
▁kw	-10.5702
pad	-10.5702
▁punch	-10.5713
▁dissolv	-10.5719
▁pu	-10.5729
pola	-10.5741
▁sci	-10.5758
addy	-10.5775
fc	-10.5781
▁bn	-10.5789
ward	-10.5802
mother	-10.5804
right	-10.5808
▁kara	-10.5811
▁disappoint	-10.5819
oid	-10.5827
▁hom	-10.5831
har	-10.585
▁hy	-10.5857
▁tire	-10.5859
▁distract	-10.5866
▁men	-10.5869
▁abs	-10.5872
tag	-10.5872
▁lgbt	-10.5875
▁basket	-10.5875
▁brilliant	-10.5876
▁casino	-10.5876
▁competitor	-10.5876
▁conclusion	-10.5876
▁credibility	-10.5876
▁nightlife	-10.5876
▁orange	-10.5876
▁paycheck	-10.5876
▁prohibit	-10.5876
▁relocate	-10.5876
▁strategic	-10.5876
▁udawalawe	-10.5876
▁yield	-10.5876
▁blatant	-10.5876
▁brush	-10.5876
▁criticise	-10.5876
▁radical	-10.5876
▁rabie	-10.5876
▁theater	-10.5876
▁dignity	-10.5876
▁flip	-10.5876
▁badulla	-10.5876
▁visual	-10.5876
▁hitler	-10.5876
▁curfew	-10.5876
▁lounge	-10.5876
▁premise	-10.5877
▁ltd	-10.5877
▁myth	-10.5877
▁binance	-10.5878
▁kfc	-10.5879
▁mileage	-10.5879
▁incur	-10.588
▁invent	-10.588
▁grave	-10.5881
▁clueless	-10.5881
▁repay	-10.5882
▁accusation	-10.5885
▁advertisement	-10.5886
▁iam	-10.5886
▁partnership	-10.5886
aree	-10.5887
▁subscribe	-10.5888
▁pp	-10.5888
▁smth	-10.5893
▁guideline	-10.5893
▁asu	-10.5898
▁biased	-10.5901
▁av	-10.5902
▁icon	-10.5904
▁gover	-10.5908
alyze	-10.5912
▁disappointing	-10.5914
ign	-10.5924
▁normalize	-10.5924
▁freeze	-10.5927
▁wheeler	-10.593
▁pun	-10.5931
ura	-10.5932
▁passive	-10.5936
▁nationality	-10.5951
▁lag	-10.5971
▁severely	-10.5972
▁devs	-10.598
oma	-10.5985
if	-10.5994
lop	-10.5998
▁mistaken	-10.6004
▁wisely	-10.601
▁dem	-10.6017
▁pearl	-10.6029
▁fishing	-10.6033
▁toy	-10.6044
▁tender	-10.6059
▁comb	-10.6078
▁cod	-10.609
▁dj	-10.6102
▁guilt	-10.6108
▁butt	-10.611
▁inspect	-10.6128
▁brainwash	-10.6139
▁controversial	-10.6139
▁disclaimer	-10.6139
▁diversify	-10.6139
▁elaborate	-10.6139
▁fertilizer	-10.6139
▁flavor	-10.6139
▁judgment	-10.6139
▁lucrative	-10.6139
▁municipal	-10.6139
▁nervous	-10.6139
▁perceive	-10.6139
▁sincere	-10.6139
▁substantial	-10.6139
▁vouch	-10.6139
▁animation	-10.6139
▁comparable	-10.6139
▁poison	-10.6139
▁tolerate	-10.6139
▁atrad	-10.6139
▁cctv	-10.6139
▁plaza	-10.6139
▁spouse	-10.6139
▁viral	-10.6139
▁sunny	-10.6139
▁carrier	-10.6139
▁ruhun	-10.6139
▁saudi	-10.6139
▁tenn	-10.6141
▁backend	-10.6141
▁loop	-10.6141
▁ca	-10.6141
▁karma	-10.6141
▁garment	-10.6141
▁confront	-10.6144
▁havelock	-10.6146
▁specialization	-10.6146
▁herb	-10.6148
▁huh	-10.6149
▁deem	-10.6149
▁lip	-10.6153
▁weekday	-10.6153
▁usaid	-10.6153
▁feb	-10.6154
▁pave	-10.6156
▁hort	-10.6158
▁renewal	-10.6168
▁seize	-10.6171
▁functional	-10.6184
▁workshop	-10.6193
ox	-10.6199
▁spit	-10.6205
▁bitter	-10.6211
▁craft	-10.6234
aire	-10.6239
▁oya	-10.6241
▁correction	-10.625
bon	-10.6251
ford	-10.6259
▁remov	-10.6261
▁lg	-10.6263
▁mission	-10.627
nda	-10.6281
ife	-10.6286
▁comput	-10.6288
van	-10.6289
▁soe	-10.6301
bel	-10.6312
port	-10.6317
ina	-10.6321
▁of	-10.6338
kanda	-10.6342
alla	-10.6365
col	-10.6372
▁embarrass	-10.6372
asiri	-10.6372
gn	-10.6381
▁command	-10.6387
▁devi	-10.6393
fall	-10.6394
▁ut	-10.6399
▁compound	-10.6409
▁aesthetic	-10.6409
▁bambalapitiya	-10.6409
▁chunk	-10.6409
▁concert	-10.6409
▁deliberate	-10.6409
▁hesitant	-10.6409
▁newswire	-10.6409
▁occupation	-10.6409
▁underworld	-10.6409
▁hesitat	-10.6409
▁demonstrat	-10.6409
▁mcdonald	-10.6409
▁eager	-10.6409
▁convict	-10.6409
▁fuss	-10.6409
▁controller	-10.6409
▁surface	-10.6409
▁downfall	-10.641
▁tiger	-10.641
▁overcharge	-10.641
▁aero	-10.641
illa	-10.6411
▁chairman	-10.6413
▁dissanayake	-10.6413
▁stir	-10.6415
▁wedn	-10.6417
▁cunt	-10.6419
▁arrangement	-10.642
inner	-10.6424
▁outsider	-10.6425
▁addiction	-10.6426
▁smh	-10.6428
▁magically	-10.6429
▁kap	-10.6431
round	-10.6437
▁indirectly	-10.6439
rney	-10.6442
▁pleasant	-10.6443
▁sooo	-10.645
▁mood	-10.6454
▁cough	-10.646
▁clan	-10.646
tech	-10.6467
▁hopeful	-10.647
▁slide	-10.647
▁mob	-10.6494
rasp	-10.6504
some	-10.6508
▁apolog	-10.651
▁vf	-10.6513
gala	-10.6514
▁maker	-10.6516
▁row	-10.6528
ologist	-10.6531
east	-10.6535
arath	-10.6542
yana	-10.6543
lle	-10.6553
▁hyper	-10.6553
itis	-10.6582
cade	-10.6592
▁exporter	-10.6598
arine	-10.6608
voice	-10.6613
eat	-10.6615
▁merchan	-10.6628
▁bowl	-10.6634
vt	-10.6638
▁consist	-10.664
▁instant	-10.6643
▁strip	-10.6643
uru	-10.6645
▁disgust	-10.665
ux	-10.6653
▁jealous	-10.6656
▁mill	-10.666
thub	-10.666
singhe	-10.6674
▁explo	-10.6683
▁pat	-10.6683
▁legend	-10.6686
▁entertain	-10.6687
▁extensive	-10.6687
▁hefty	-10.6687
▁hypocrisy	-10.6687
▁ignorance	-10.6687
▁immense	-10.6687
▁inefficient	-10.6687
▁interpret	-10.6687
▁polonnaruwa	-10.6687
▁prefect	-10.6687
▁wilpattu	-10.6687
▁collar	-10.6687
▁essay	-10.6687
▁cinec	-10.6687
▁dentist	-10.6687
▁scandal	-10.6687
▁portray	-10.6687
▁forecast	-10.6687
bar	-10.6687
▁terminal	-10.6687
▁knee	-10.6688
▁aswell	-10.6688
▁rational	-10.6688
▁dilith	-10.6688
▁humble	-10.6688
▁empire	-10.6688
▁offence	-10.6689
▁usb	-10.6689
▁tune	-10.6689
▁mega	-10.6689
▁fianc	-10.669
▁skeptical	-10.6691
▁variant	-10.6691
▁manipulation	-10.6691
▁powercut	-10.6693
▁preach	-10.6693
▁raid	-10.6693
▁probation	-10.6694
▁orientation	-10.6695
▁anxi	-10.67
▁frustrated	-10.6703
▁summer	-10.6703
▁dedicated	-10.6704
▁reg	-10.6705
▁sheer	-10.6709
▁creepy	-10.6713
▁suffering	-10.6713
▁trainee	-10.6715
▁vid	-10.6715
ria	-10.6718
▁presentation	-10.672
▁fut	-10.6723
▁continuously	-10.6723
▁mcq	-10.6726
for	-10.6726
▁rapidly	-10.6729
▁bur	-10.6729
▁subjective	-10.6739
▁pig	-10.674
▁hardship	-10.6741
▁limitation	-10.6755
▁shoulder	-10.6759
▁depu	-10.676
ology	-10.6762
eep	-10.6763
▁span	-10.6766
▁apit	-10.677
tamin	-10.6776
▁pala	-10.6782
▁her	-10.6789
atter	-10.6808
▁injur	-10.6815
liable	-10.6815
try	-10.684
▁permanently	-10.6845
cial	-10.6853
▁rajapakshas	-10.6854
▁outta	-10.6871
▁cute	-10.6882
take	-10.6892
clear	-10.6892
soft	-10.6893
▁timeline	-10.69
▁independently	-10.6902
chain	-10.6906
▁mg	-10.6939
▁luxur	-10.6942
hough	-10.6953
▁historic	-10.6956
residency	-10.6968
▁inherit	-10.6971
artial	-10.6972
▁arrogant	-10.6972
▁bureaucracy	-10.6972
▁communism	-10.6972
▁comparatively	-10.6972
▁congrat	-10.6972
▁jesus	-10.6972
▁jewelry	-10.6972
▁kangaroo	-10.6972
▁lemme	-10.6972
▁neglect	-10.6972
▁outlook	-10.6972
▁phenomenon	-10.6972
▁reservation	-10.6972
▁resolution	-10.6972
▁straightforward	-10.6972
▁thursday	-10.6972
▁unknown	-10.6972
▁wattala	-10.6972
▁wikipedia	-10.6972
▁substance	-10.6972
▁technique	-10.6972
▁tropic	-10.6972
▁tuesday	-10.6972
▁fonse	-10.6972
▁calculator	-10.6973
▁endorse	-10.6973
▁metropoli	-10.6973
▁junction	-10.6973
▁repeatedly	-10.6973
▁optimistic	-10.6973
▁diverse	-10.6973
▁kottawa	-10.6973
eopard	-10.6973
▁straw	-10.6973
▁telecom	-10.6973
▁bargain	-10.6974
▁quiz	-10.6974
▁england	-10.6974
▁sparkle	-10.6975
▁hoard	-10.6975
▁spell	-10.6975
▁juice	-10.6976
▁ravi	-10.6976
▁bullet	-10.6976
akuru	-10.6976
▁odel	-10.6976
▁motion	-10.6977
▁junk	-10.6978
▁flagship	-10.6979
▁grass	-10.6979
roll	-10.6983
▁formula	-10.6986
▁nd	-10.6986
▁recording	-10.6989
▁linu	-10.6993
▁naive	-10.6994
▁intense	-10.6997
▁specialise	-10.6999
▁massively	-10.7004
▁deduction	-10.7008
▁listing	-10.7008
▁boomer	-10.7008
▁ben	-10.702
ddle	-10.7023
▁headline	-10.7023
▁relaxed	-10.7029
▁expression	-10.7029
▁yell	-10.7032
form	-10.7038
▁cargo	-10.7041
ummy	-10.7042
aff	-10.7053
▁sane	-10.7055
▁reap	-10.7074
max	-10.7091
hari	-10.7097
▁sony	-10.7125
rent	-10.7127
▁slim	-10.7133
eliya	-10.7154
▁rig	-10.7171
cam	-10.7172
medical	-10.7193
hap	-10.7197
▁bas	-10.7199
dala	-10.7206
▁grama	-10.7218
▁bun	-10.7219
ification	-10.7226
post	-10.7234
▁manual	-10.7235
app	-10.7248
▁dedicate	-10.7248
▁ambi	-10.7255
▁digit	-10.7259
▁intent	-10.7259
▁yahapalana	-10.7264
▁flavour	-10.7267
▁disadvantage	-10.7267
▁glorify	-10.7267
▁intellectual	-10.7267
▁lasantha	-10.7267
▁nandalal	-10.7267
▁palestine	-10.7267
▁peanut	-10.7267
▁phrase	-10.7267
▁rajapakshe	-10.7267
▁skyrocket	-10.7267
▁theoretical	-10.7267
▁unprofessional	-10.7267
▁worthwhile	-10.7267
▁fronx	-10.7267
▁outfit	-10.7267
▁reckless	-10.7267
▁seylan	-10.7267
▁fedex	-10.7267
▁homophobi	-10.7267
▁colonize	-10.7267
▁notorious	-10.7267
▁ebay	-10.7267
▁hindi	-10.7267
▁authoritarian	-10.7267
▁unrest	-10.7267
▁halal	-10.7267
▁collateral	-10.7267
▁database	-10.7267
▁whale	-10.7267
esday	-10.7268
▁filth	-10.7268
▁marxis	-10.7269
▁impressive	-10.7269
▁beware	-10.727
▁colonialism	-10.727
▁quant	-10.727
▁instruction	-10.7271
▁erp	-10.7272
▁bump	-10.7273
▁incompetence	-10.7274
▁soil	-10.7275
nsible	-10.7276
▁better	-10.7276
▁reset	-10.7278
▁arise	-10.7283
▁notification	-10.7284
▁representation	-10.7289
▁les	-10.7291
▁classroom	-10.7295
▁workload	-10.73
▁demon	-10.7301
▁meetup	-10.7309
▁py	-10.7315
▁meth	-10.7318
▁angle	-10.7324
▁idiotic	-10.7325
▁container	-10.7325
▁meantime	-10.7328
▁roi	-10.7329
▁rage	-10.7334
▁compute	-10.7364
▁intel	-10.7381
▁seed	-10.7384
▁usdt	-10.7387
▁challeng	-10.7389
igh	-10.7398
▁referr	-10.741
▁historically	-10.7411
▁vip	-10.7412
▁vijaya	-10.7414
▁caf	-10.7415
▁til	-10.742
▁casually	-10.7422
kin	-10.7432
▁automat	-10.744
▁lan	-10.7443
▁existent	-10.7446
▁temp	-10.7449
▁had	-10.746
▁tick	-10.746
▁asians	-10.7467
▁ck	-10.7479
holder	-10.7496
iling	-10.7497
hole	-10.7501
lock	-10.7502
play	-10.7505
▁um	-10.7515
▁ahh	-10.7518
▁lotus	-10.7544
▁jew	-10.7544
ique	-10.7558
▁accommodat	-10.756
▁patriot	-10.7568
▁withhold	-10.757
▁accomplish	-10.757
▁battaramull	-10.757
▁comprehensi	-10.757
▁contradict	-10.757
▁culprit	-10.757
▁facilitate	-10.757
▁fiscal	-10.757
▁gambling	-10.757
▁inevitable	-10.757
▁melbourne	-10.757
▁panadura	-10.757
▁spectrum	-10.757
▁television	-10.757
▁territory	-10.757
▁unbiased	-10.757
▁unexpected	-10.757
▁volatile	-10.757
▁vulnerable	-10.757
▁knife	-10.757
▁absorb	-10.757
▁attest	-10.757
▁prestig	-10.757
▁squeez	-10.757
▁hilton	-10.757
▁apparel	-10.757
▁bitcoin	-10.757
▁genetic	-10.757
allocation	-10.757
▁crony	-10.757
▁automobile	-10.757
▁sweep	-10.757
uveni	-10.757
▁nepo	-10.757
▁roast	-10.757
▁unemployment	-10.757
▁hiking	-10.7571
▁convo	-10.7571
▁kudo	-10.7571
▁honour	-10.7572
▁restore	-10.7573
▁wireless	-10.7574
▁mouse	-10.7574
▁intentionally	-10.7576
ifi	-10.7576
▁delusional	-10.7576
▁amid	-10.7576
▁chess	-10.7577
▁harbo	-10.7578
▁maid	-10.7579
▁starve	-10.7583
▁honk	-10.7583
▁metro	-10.7592
▁hail	-10.7595
▁groom	-10.7596
▁irony	-10.7597
▁cro	-10.7598
▁weigh	-10.76
antha	-10.76
▁recycle	-10.7601
▁lact	-10.7602
▁bash	-10.7603
▁gpt	-10.7603
▁acre	-10.7605
▁reel	-10.7606
low	-10.7606
▁loyal	-10.7611
atne	-10.7613
▁trim	-10.7613
▁prayer	-10.7614
▁igp	-10.7615
▁versa	-10.7615
▁winter	-10.763
dom	-10.7642
▁eve	-10.7647
▁alien	-10.765
▁bore	-10.7685
▁cm	-10.7696
▁editor	-10.7708
▁pear	-10.7708
▁automate	-10.771
▁cure	-10.7715
▁sto	-10.7752
▁placement	-10.7781
▁scar	-10.7807
▁nc	-10.7812
▁irr	-10.7822
▁rapid	-10.7838
▁increas	-10.7839
asuma	-10.7842
▁bol	-10.7843
▁counsel	-10.7845
▁impress	-10.7856
▁loser	-10.7857
▁ov	-10.7861
adi	-10.7864
▁immigrat	-10.7872
▁academi	-10.7872
rift	-10.7874
▁plat	-10.7879
▁accumulate	-10.7882
▁bootlick	-10.7882
▁condemn	-10.7882
▁deploy	-10.7882
▁dismiss	-10.7882
▁distribution	-10.7882
▁enlighten	-10.7882
▁hurdle	-10.7882
▁implication	-10.7882
▁integrity	-10.7882
▁outstanding	-10.7882
▁overlook	-10.7882
▁societal	-10.7882
▁stadium	-10.7882
▁survival	-10.7882
▁xiaomi	-10.7882
▁dunno	-10.7882
▁smoking	-10.7882
▁clarity	-10.7882
▁simplytek	-10.7882
▁plumb	-10.7882
▁rival	-10.7882
▁psychological	-10.7882
▁problematic	-10.7882
▁jean	-10.7882
▁scold	-10.7882
▁tinder	-10.7882
▁cardinal	-10.7882
▁basketball	-10.7883
▁fiction	-10.7883
▁bakery	-10.7884
▁robotic	-10.7885
▁excessive	-10.7885
▁silly	-10.7886
▁waterfall	-10.7887
▁alarm	-10.7887
▁barber	-10.789
▁superiority	-10.7892
▁renewable	-10.7897
▁laundering	-10.7899
▁caa	-10.7907
▁settlement	-10.7918
▁eld	-10.7924
▁embarrassing	-10.7924
▁gel	-10.7926
▁rust	-10.7928
ood	-10.7934
▁dash	-10.7941
ramid	-10.7941
▁nv	-10.7941
▁troll	-10.7945
mv	-10.7946
asia	-10.7956
att	-10.796
▁flower	-10.7971
cious	-10.7989
▁sw	-10.7998
▁jee	-10.8005
▁replica	-10.8005
▁diy	-10.8014
▁mayo	-10.8027
awala	-10.8033
▁illegally	-10.804
▁washing	-10.8041
▁tab	-10.8046
ft	-10.8086
▁albe	-10.8098
▁dan	-10.8098
▁virtu	-10.8102
rel	-10.8112
▁pee	-10.8115
▁financ	-10.8123
unge	-10.8124
▁au	-10.8128
store	-10.8129
space	-10.8131
residential	-10.8132
station	-10.814
uv	-10.8143
▁photograph	-10.8154
▁physic	-10.8156
loyalty	-10.8161
▁creep	-10.8175
▁gree	-10.8179
▁journal	-10.8185
▁frustrate	-10.8186
▁fulfil	-10.8189
band	-10.8201
▁fantas	-10.8204
▁overcrowd	-10.8205
▁accomodat	-10.8205
▁accredit	-10.8205
▁ashamed	-10.8205
▁awkward	-10.8205
▁chronic	-10.8205
▁coalition	-10.8205
▁ethernet	-10.8205
▁furthermore	-10.8205
▁hygiene	-10.8205
▁interrupt	-10.8205
▁jungle	-10.8205
▁mortgage	-10.8205
▁subtitle	-10.8205
▁unofficial	-10.8205
▁distinct	-10.8205
▁giphy	-10.8205
▁instability	-10.8205
▁monarch	-10.8205
▁rumour	-10.8205
▁signature	-10.8205
▁wound	-10.8205
▁lyric	-10.8205
▁fortune	-10.8205
▁parallel	-10.8205
▁queen	-10.8205
▁restart	-10.8205
▁frimi	-10.8205
▁twist	-10.8205
▁generator	-10.8205
▁refresh	-10.8206
▁socio	-10.8206
▁fever	-10.8207
tention	-10.8207
▁crib	-10.8207
▁imho	-10.8208
▁injection	-10.8208
▁liquidity	-10.8211
▁crew	-10.8212
▁ecu	-10.8213
▁fitting	-10.8216
▁jewellery	-10.8216
▁worsen	-10.8217
▁impressed	-10.8219
▁devalue	-10.8223
▁rail	-10.8224
▁summary	-10.8228
▁pink	-10.8228
fl	-10.8234
▁quo	-10.8251
▁drinking	-10.8252
▁endure	-10.8255
▁weera	-10.8275
rance	-10.8277
▁meh	-10.8277
▁malaysian	-10.8284
ump	-10.829
▁stake	-10.8299
▁bone	-10.8304
▁gbp	-10.8306
amro	-10.8314
ground	-10.833
▁mild	-10.8341
▁wan	-10.8345
own	-10.8362
▁np	-10.8365
▁aust	-10.8372
duwa	-10.8374
urge	-10.8382
alam	-10.8383
▁edition	-10.8394
mani	-10.8396
▁strictly	-10.8445
school	-10.8462
condition	-10.8465
▁polite	-10.8493
ku	-10.851
▁trader	-10.8517
▁saturate	-10.8519
gment	-10.8525
▁dictat	-10.8531
▁excess	-10.8535
▁understandable	-10.8537
▁advisable	-10.8538
▁concrete	-10.8538
▁explicit	-10.8538
▁gossip	-10.8538
▁irrespective	-10.8538
▁leban	-10.8538
▁packaging	-10.8538
▁prabhakar	-10.8538
▁pronunciation	-10.8538
▁rebuild	-10.8538
▁reception	-10.8538
▁satisfy	-10.8538
▁sigirya	-10.8538
▁stereotype	-10.8538
▁tsunami	-10.8538
▁unacceptable	-10.8538
▁unethical	-10.8538
▁vegetarian	-10.8538
▁baggage	-10.8538
▁bypass	-10.8538
▁cruel	-10.8538
▁hectic	-10.8538
▁resonate	-10.8538
▁assassinat	-10.8538
▁fascis	-10.8538
▁hurry	-10.8538
▁wellawatte	-10.8538
▁allegedly	-10.8538
▁snake	-10.8538
▁durable	-10.8538
▁spiritual	-10.8538
▁creativity	-10.8538
▁adequate	-10.8539
▁fisher	-10.8539
▁fridge	-10.854
▁populis	-10.854
▁yahapalanaya	-10.8541
▁jerom	-10.8541
▁joe	-10.8542
▁shell	-10.8543
▁clock	-10.8544
▁curve	-10.8545
▁doze	-10.8545
▁adhere	-10.8545
▁indie	-10.8545
▁cryptocurrency	-10.8547
▁hs	-10.8547
▁disappointed	-10.8556
acy	-10.8557
▁saturated	-10.8557
▁genre	-10.8564
▁bless	-10.8564
▁commander	-10.8567
▁rack	-10.8567
▁mee	-10.8569
▁she	-10.8571
▁snorkeling	-10.8572
▁reviv	-10.8576
▁muslims	-10.8578
acity	-10.8581
▁glo	-10.8587
▁scuba	-10.8588
▁stupidity	-10.8599
▁nye	-10.8601
suriya	-10.861
▁tee	-10.862
▁lens	-10.8628
▁nor	-10.8631
▁tricky	-10.8648
▁hopeless	-10.8656
▁eh	-10.8656
▁designing	-10.8657
▁mud	-10.8664
read	-10.8691
kia	-10.871
▁hung	-10.8719
fin	-10.8721
▁kan	-10.8739
▁overhea	-10.8748
▁tale	-10.875
igama	-10.876
▁concentrate	-10.8765
▁comm	-10.8766
▁corrupted	-10.8771
hala	-10.88
▁wit	-10.8804
sey	-10.8807
script	-10.8809
▁depress	-10.8828
▁ukrain	-10.8839
harm	-10.8843
▁pri	-10.8845
▁iron	-10.8855
▁closed	-10.8857
▁feminis	-10.8865
▁construct	-10.887
▁drastic	-10.8881
▁ambassador	-10.8883
▁backlash	-10.8883
▁confusion	-10.8883
▁disregard	-10.8883
▁emission	-10.8883
▁flexibility	-10.8883
▁netherlands	-10.8883
▁privatize	-10.8883
▁venezuela	-10.8883
▁wisdom	-10.8883
▁fraction	-10.8883
▁precise	-10.8883
▁bureau	-10.8883
▁lmk	-10.8883
▁stagna	-10.8883
▁biological	-10.8883
▁funeral	-10.8883
▁taboo	-10.8883
▁slmc	-10.8884
▁puls	-10.8884
▁query	-10.8884
▁journalism	-10.8885
▁thrill	-10.8885
▁puppet	-10.8885
▁saint	-10.8885
▁spill	-10.8885
▁blank	-10.8886
▁yaris	-10.8886
▁enact	-10.8886
▁toast	-10.8887
istan	-10.8888
▁caption	-10.8889
▁whine	-10.889
giri	-10.889
▁vanish	-10.889
▁dire	-10.8891
▁comedy	-10.8892
▁brak	-10.8895
▁msg	-10.8896
▁pleasure	-10.89
▁brokerage	-10.8902
▁ironic	-10.8902
wo	-10.8903
▁rave	-10.8904
▁billing	-10.8905
acle	-10.8906
▁snap	-10.8907
▁winner	-10.8909
▁nationalistic	-10.8913
▁thoroughly	-10.8914
▁keral	-10.8919
▁shipment	-10.8923
▁weed	-10.8923
▁ric	-10.8924
▁complian	-10.8926
▁axi	-10.8927
train	-10.893
▁boi	-10.8932
▁tran	-10.8938
▁rejection	-10.8955
vil	-10.8957
▁mindful	-10.8963
▁homeless	-10.8987
▁helm	-10.9001
▁trc	-10.9003
▁sanit	-10.9009
▁bald	-10.9016
▁endless	-10.9027
▁azur	-10.9028
tumble	-10.9042
▁psych	-10.9049
▁notch	-10.9061
▁cvs	-10.9065
few	-10.9073
▁liter	-10.9091
nanda	-10.9112
▁commi	-10.9142
▁bou	-10.9144
▁ii	-10.9147
mark	-10.9153
corporate	-10.9167
pool	-10.9167
system	-10.9167
corn	-10.9168
road	-10.9168
▁tht	-10.917
▁freelanc	-10.9174
▁continuous	-10.9194
▁imagin	-10.9197
ought	-10.92
bum	-10.9205
▁hari	-10.9223
▁ironical	-10.9228
▁festiv	-10.9229
▁snorkel	-10.923
▁fdi	-10.9232
▁maithri	-10.924
▁batticaloa	-10.924
▁dhammik	-10.924
▁overstay	-10.924
▁patience	-10.924
▁precaution	-10.924
▁rehabilitat	-10.924
▁taiwan	-10.924
▁unreliable	-10.924
▁destructi	-10.924
▁ireland	-10.924
▁hometown	-10.924
▁leather	-10.924
▁suppress	-10.924
▁unaware	-10.924
▁desert	-10.924
▁persist	-10.924
▁mediocr	-10.924
▁lorry	-10.924
▁spicy	-10.924
▁motive	-10.924
▁repeal	-10.924
▁auction	-10.924
▁corona	-10.924
▁rubber	-10.9241
▁musc	-10.9241
▁keheli	-10.9241
▁someday	-10.9241
▁preparation	-10.9241
▁resistance	-10.9242
▁crab	-10.9242
▁brave	-10.9242
▁nasty	-10.9242
▁constructive	-10.9243
▁wicke	-10.9244
▁calori	-10.9244
▁pawn	-10.9244
▁infection	-10.9246
▁polish	-10.9246
▁nuance	-10.9247
▁diplomatic	-10.9247
▁paddy	-10.9247
▁oppression	-10.9248
▁ballot	-10.9248
▁macro	-10.9251
▁seperate	-10.9252
▁announcement	-10.9254
closure	-10.9256
▁bali	-10.9258
▁nord	-10.9261
▁ipo	-10.9263
▁bowler	-10.927
▁blessing	-10.9279
▁sat	-10.9283
▁steer	-10.9284
▁thankfully	-10.9287
▁chap	-10.929
▁politely	-10.9291
bag	-10.9302
▁odi	-10.9304
▁christians	-10.9305
ude	-10.9308
▁interviewer	-10.9317
▁bia	-10.9317
▁comeback	-10.9317
▁modi	-10.9322
card	-10.9339
▁coup	-10.9339
uti	-10.9345
▁kindness	-10.935
rope	-10.9353
▁murderer	-10.9355
▁cert	-10.9355
▁fad	-10.9361
▁urgently	-10.9362
▁medal	-10.9393
▁yu	-10.9403
icc	-10.9418
▁fur	-10.9421
▁ox	-10.9425
▁simp	-10.9431
onic	-10.9439
▁tent	-10.9451
iness	-10.9454
giant	-10.9461
wear	-10.9469
▁chan	-10.9472
jp	-10.9493
▁thankful	-10.9519
ift	-10.9552
▁overwhelm	-10.956
▁agricultur	-10.9567
▁ek	-10.9578
wana	-10.9588
▁magic	-10.9592
▁hmm	-10.96
▁kott	-10.96
▁migra	-10.9601
▁llm	-10.9601
▁sovereign	-10.9608
▁horizon	-10.961
▁caution	-10.961
▁exciting	-10.961
▁insurrection	-10.961
▁invasion	-10.961
▁kalutara	-10.961
▁paranoid	-10.961
▁retreat	-10.961
▁unavailable	-10.961
▁yamaha	-10.961
▁advertising	-10.961
▁brazil	-10.961
▁domino	-10.961
▁recieve	-10.961
▁annex	-10.961
▁vlog	-10.961
▁dancing	-10.961
▁redeem	-10.961
▁tenure	-10.961
▁honey	-10.9611
▁token	-10.9611
▁dermatologist	-10.9611
▁helico	-10.9611
▁seven	-10.9611
▁queer	-10.9611
▁melt	-10.9612
▁fold	-10.9613
▁bride	-10.9613
▁evade	-10.9613
▁dms	-10.9613
bble	-10.9613
▁wander	-10.9614
▁anker	-10.9615
▁paradise	-10.9615
▁millennial	-10.9616
▁allergy	-10.962
▁philosophy	-10.962
▁installation	-10.962
▁amend	-10.9621
▁messy	-10.9622
▁nawala	-10.9625
awatta	-10.9629
▁bayya	-10.9629
▁showroom	-10.9633
▁nelu	-10.9633
▁memorize	-10.9635
llite	-10.9635
▁drum	-10.9637
master	-10.9639
▁geopolitical	-10.9644
▁bury	-10.9652
cse	-10.9655
cept	-10.9661
▁val	-10.9671
▁retailer	-10.9692
▁slab	-10.9696
ulu	-10.9714
▁acne	-10.9714
▁fin	-10.9715
▁lev	-10.9718
part	-10.9743
bai	-10.9757
▁yh	-10.9768
▁treaty	-10.977
angle	-10.9791
▁cozy	-10.9806
▁shocking	-10.9806
iesl	-10.9809
rot	-10.9813
▁bait	-10.9824
▁legalize	-10.9825
unu	-10.9825
▁pose	-10.9829
▁dna	-10.9837
dns	-10.9846
▁qua	-10.985
place	-10.9856
▁descen	-10.9868
ause	-10.9874
▁lite	-10.9878
law	-10.9887
▁vol	-10.9896
inda	-10.9906
▁beard	-10.9907
▁purchas	-10.9914
▁annually	-10.9918
▁malli	-10.9919
position	-10.992
graduate	-10.9921
national	-10.9921
wind	-10.9922
verse	-10.9925
path	-10.9926
▁sorta	-10.9942
gf	-10.9956
▁backward	-10.9965
▁dirt	-10.9966
ioc	-10.9978
ovo	-10.9994
▁anniversary	-10.9995
▁aspire	-10.9995
▁chamber	-10.9995
▁chennai	-10.9995
▁circuit	-10.9995
▁clergy	-10.9995
▁credential	-10.9995
▁downhill	-10.9995
▁heaven	-10.9995
▁inappropriate	-10.9995
▁injustice	-10.9995
▁mechatronic	-10.9995
▁participation	-10.9995
▁pharmaceutical	-10.9995
▁recession	-10.9995
▁subsequent	-10.9995
▁surname	-10.9995
▁tshirt	-10.9995
▁unhappy	-10.9995
▁upskill	-10.9995
▁whatnot	-10.9995
▁assurance	-10.9995
▁bleach	-10.9995
▁proportion	-10.9995
▁reopen	-10.9995
▁sirimavo	-10.9995
▁predator	-10.9995
▁shield	-10.9995
▁vocal	-10.9995
▁pidur	-10.9995
▁swrd	-10.9995
▁hbb	-10.9995
▁kollupiti	-10.9995
▁harmony	-10.9995
▁shark	-10.9995
▁verbal	-10.9995
▁qatar	-10.9995
▁minimize	-10.9995
▁dodge	-10.9995
▁underestimate	-10.9995
▁breed	-10.9995
▁traction	-10.9996
▁scalp	-10.9996
▁blend	-10.9996
▁conservation	-10.9996
▁cease	-10.9996
▁inspiration	-10.9997
▁judiciary	-10.9997
▁combat	-10.9998
▁atti	-10.9998
▁stitch	-10.9998
▁cock	-10.9999
▁instructor	-11
▁moir	-11
▁specie	-11.0001
▁avg	-11.0001
▁ambition	-11.0003
▁resist	-11.0004
▁collaborate	-11.0004
akin	-11.0005
▁christianity	-11.0005
▁fried	-11.0006
▁raize	-11.0007
▁motherland	-11.0008
▁eff	-11.0008
▁grain	-11.0009
▁coat	-11.0011
stone	-11.0014
▁playlist	-11.0016
▁idp	-11.0018
▁jealousy	-11.0038
awn	-11.0046
▁elevate	-11.0059
▁amb	-11.006
▁cera	-11.0064
urtin	-11.0067
▁jun	-11.0068
sale	-11.0074
▁clay	-11.0084
arm	-11.0088
obe	-11.0088
wala	-11.0116
logy	-11.0124
▁recur	-11.0125
▁kalu	-11.0132
▁ray	-11.0134
▁burg	-11.0138
edic	-11.0139
▁logi	-11.0145
rcs	-11.0165
witch	-11.0171
▁proto	-11.0174
▁soc	-11.0176
▁skinn	-11.0191
▁interactiv	-11.0202
▁cis	-11.0205
▁shooting	-11.0205
hitha	-11.0214
▁tape	-11.0214
▁statu	-11.0225
lateral	-11.0225
eez	-11.0245
athi	-11.0247
▁reco	-11.0256
▁dial	-11.0257
can	-11.0273
hel	-11.028
ruka	-11.029
▁slot	-11.0291
▁sab	-11.0293
nous	-11.03
▁jet	-11.0306
▁az	-11.0309
venue	-11.0319
screen	-11.0321
turn	-11.0322
cast	-11.0324
fire	-11.0329
ndra	-11.0337
▁kul	-11.0343
▁approximate	-11.0348
▁tablet	-11.0349
▁victoria	-11.035
▁comic	-11.0373
▁tail	-11.0389
▁inferior	-11.039
▁equip	-11.0391
▁pupp	-11.0393
▁federal	-11.0393
▁afghan	-11.0395
▁algorithm	-11.0395
▁consensus	-11.0395
▁cylinder	-11.0395
▁discontinue	-11.0395
▁execution	-11.0395
▁heartbreak	-11.0395
▁intervention	-11.0395
▁kingsbury	-11.0395
▁knuckle	-11.0395
▁perpetrator	-11.0395
▁prevalent	-11.0395
▁revenge	-11.0395
▁revolve	-11.0395
▁zimbabwe	-11.0395
▁abusive	-11.0395
▁frontend	-11.0395
▁stomach	-11.0395
▁durability	-11.0395
▁imperial	-11.0395
▁tragic	-11.0395
▁byob	-11.0395
▁goddam	-11.0395
▁sanction	-11.0395
▁await	-11.0395
▁distant	-11.0395
▁bbc	-11.0395
▁relic	-11.0395
▁presum	-11.0395
▁ousl	-11.0395
▁newbie	-11.0395
▁unpredictable	-11.0396
▁remand	-11.0397
▁diagnosis	-11.0397
▁gimm	-11.0397
▁hopper	-11.0397
▁akka	-11.0397
▁cpu	-11.0399
▁brick	-11.0399
▁modify	-11.04
▁charm	-11.0403
▁foolish	-11.0404
▁revel	-11.0405
▁freeload	-11.0405
▁after	-11.0406
▁drown	-11.0406
▁aug	-11.0406
▁baiya	-11.0407
▁pinnaw	-11.0407
▁electrician	-11.041
▁massage	-11.0412
▁neat	-11.0413
▁drill	-11.0413
berry	-11.0415
pala	-11.0416
nty	-11.0424
▁cycling	-11.0426
▁motivated	-11.0426
▁deter	-11.0428
▁neo	-11.0443
▁curl	-11.0454
ket	-11.0458
▁manually	-11.046
▁poke	-11.0463
▁revis	-11.0463
▁coordinate	-11.0467
▁yk	-11.047
▁mrp	-11.0472
▁lil	-11.0487
▁generalize	-11.0494
▁rub	-11.0534
▁bm	-11.0543
chem	-11.0545
▁fav	-11.0551
▁smoothly	-11.0554
bis	-11.0602
▁kal	-11.0645
▁hash	-11.0657
▁gar	-11.0659
▁balanced	-11.067
itha	-11.0674
▁gram	-11.0674
load	-11.0707
weera	-11.0739
▁creat	-11.0747
▁kol	-11.0754
stop	-11.076
well	-11.0763
▁indirect	-11.0767
sexuality	-11.0801
▁ect	-11.0805
▁lame	-11.0809
▁christ	-11.081
conventional	-11.0812
▁anarchy	-11.0812
▁asylum	-11.0812
▁belarus	-11.0812
▁concession	-11.0812
▁console	-11.0812
▁corolla	-11.0812
▁cosmetic	-11.0812
▁disastrous	-11.0812
▁disguise	-11.0812
▁dodgy	-11.0812
▁ethno	-11.0812
▁hypothetical	-11.0812
▁inherent	-11.0812
▁intervene	-11.0812
▁repercussion	-11.0812
▁stigma	-11.0812
▁structural	-11.0812
▁technological	-11.0812
▁uncommon	-11.0812
▁bundle	-11.0812
▁spiral	-11.0812
▁sysco	-11.0812
▁username	-11.0812
▁boast	-11.0812
▁kadaw	-11.0812
▁brace	-11.0812
▁remedy	-11.0812
▁retro	-11.0812
▁unusable	-11.0812
shadow	-11.0812
▁arguabl	-11.0812
▁overthinke	-11.0812
▁nanu	-11.0812
▁sensor	-11.0812
▁shangri	-11.0812
▁scholar	-11.0812
▁misunderstand	-11.0812
▁secular	-11.0813
▁kotthu	-11.0813
▁migrating	-11.0813
▁paragraph	-11.0813
▁rebel	-11.0813
▁speculation	-11.0813
wiss	-11.0813
▁compatible	-11.0813
▁phy	-11.0813
▁homosexuality	-11.0813
▁dharma	-11.0814
▁gemini	-11.0814
▁spring	-11.0814
▁generous	-11.0815
▁fond	-11.0816
▁reign	-11.0817
▁counsellor	-11.0818
▁foster	-11.0818
athuranga	-11.0819
▁usable	-11.0819
▁remit	-11.0819
▁chop	-11.0821
▁moderation	-11.0822
▁slavery	-11.0823
▁saas	-11.0823
▁disabled	-11.0829
▁activat	-11.083
▁authenticity	-11.0831
▁foresee	-11.0833
▁ela	-11.0835
▁viru	-11.084
▁fence	-11.0841
▁mech	-11.0845
pit	-11.0846
▁bha	-11.0848
▁hardwork	-11.0849
ronto	-11.0853
▁crapp	-11.0855
▁metric	-11.0858
sport	-11.0858
▁undo	-11.0863
▁curricula	-11.0864
consistency	-11.088
▁misleading	-11.088
▁maz	-11.0882
▁sword	-11.0883
▁geo	-11.0884
liance	-11.0892
▁sigh	-11.0894
▁acqui	-11.0895
▁bass	-11.09
▁subtl	-11.0901
retake	-11.0905
▁trilli	-11.0907
ography	-11.0914
oj	-11.0922
▁eur	-11.0934
▁gp	-11.0936
▁enjoyable	-11.0957
chandra	-11.0961
▁baseline	-11.0963
▁bigot	-11.0966
rink	-11.098
▁hol	-11.0981
▁billionair	-11.0985
▁bake	-11.0994
▁ranilist	-11.1005
▁tutoring	-11.1022
▁dat	-11.1034
lm	-11.1039
▁sltb	-11.1044
dua	-11.1051
arian	-11.1058
▁bored	-11.1073
ista	-11.1075
▁demo	-11.1076
▁naval	-11.1082
▁moderat	-11.1083
wei	-11.1091
yyy	-11.112
▁relian	-11.1124
▁siri	-11.1129
amu	-11.1131
▁jobless	-11.1131
▁therm	-11.1138
▁fke	-11.1166
shoot	-11.1173
think	-11.1174
▁dot	-11.1192
▁tint	-11.1193
▁apparent	-11.12
▁ken	-11.1206
▁geopolitic	-11.1207
▁templ	-11.1218
▁coffe	-11.122
▁abo	-11.1237
▁pero	-11.1245
▁depart	-11.1245
▁champion	-11.1245
▁spirit	-11.1246
▁accessibility	-11.1246
▁asleep	-11.1246
▁athlete	-11.1246
▁ayubowan	-11.1246
▁continent	-11.1246
▁cunning	-11.1246
▁dishearten	-11.1246
▁fluctuate	-11.1246
▁frizz	-11.1246
▁imprison	-11.1246
▁intimidate	-11.1246
▁rescue	-11.1246
▁slbfe	-11.1246
▁stabilise	-11.1246
▁sympathy	-11.1246
▁tunnel	-11.1246
▁unbearable	-11.1246
▁ancestor	-11.1246
▁assemble	-11.1246
▁conscious	-11.1246
▁senanayake	-11.1246
▁underrated	-11.1246
▁pilgrim	-11.1246
▁allege	-11.1246
▁buffer	-11.1246
▁sleeve	-11.1246
▁sambol	-11.1246
▁southwest	-11.1246
▁indige	-11.1246
▁benchmark	-11.1247
▁coca	-11.1247
▁fintech	-11.1247
▁vital	-11.1247
▁leap	-11.1247
▁intermedia	-11.1247
▁sharing	-11.1247
▁geographical	-11.1247
▁harvest	-11.1247
▁lottery	-11.1247
▁obst	-11.1248
▁outrageous	-11.1248
▁legacy	-11.1248
lunder	-11.1248
▁onboard	-11.1248
▁aswes	-11.1248
▁nerd	-11.1248
▁pest	-11.1248
▁stab	-11.1248
▁physician	-11.1248
▁forgo	-11.1249
▁pedo	-11.125
▁ranja	-11.125
▁exhibition	-11.1251
▁compile	-11.1251
▁deport	-11.1252
▁dramatic	-11.1252
▁bounce	-11.1253
▁motherboard	-11.1253
▁aboard	-11.1253
▁inward	-11.1254
▁undergo	-11.1254
▁betray	-11.1255
▁cbk	-11.1255
▁vow	-11.1258
▁astrolog	-11.1258
▁adjustment	-11.1262
▁irl	-11.1264
▁bamba	-11.1266
▁cott	-11.1267
▁exploitation	-11.1273
▁unclear	-11.128
▁prophet	-11.1282
▁erase	-11.1284
▁imma	-11.1285
▁jews	-11.1292
▁lick	-11.1297
▁ube	-11.1316
ql	-11.132
▁shani	-11.1326
▁summ	-11.1328
▁emphasis	-11.1336
▁jb	-11.1341
▁haj	-11.1346
▁lore	-11.1349
▁immatur	-11.1362
▁sept	-11.1363
habi	-11.137
▁ink	-11.1374
▁coal	-11.1399
▁advancement	-11.1455
▁defen	-11.146
▁socialize	-11.1468
▁joker	-11.1482
▁hood	-11.1504
▁twe	-11.1523
uuu	-11.1541
fact	-11.1575
▁phi	-11.159
▁vent	-11.1598
storm	-11.1627
weigh	-11.1628
maker	-11.1632
▁esc	-11.1632
▁chilli	-11.1636
suit	-11.164
agon	-11.1644
▁promis	-11.1658
▁amma	-11.1667
raj	-11.1677
▁spark	-11.1698
▁oppress	-11.1699
▁majest	-11.1701
▁arbitrar	-11.1701
▁jayawardene	-11.1701
▁affiliation	-11.1701
▁aptitude	-11.1701
▁calendar	-11.1701
▁chaotic	-11.1701
▁comprehend	-11.1701
▁evident	-11.1701
▁exorbitant	-11.1701
▁fiasco	-11.1701
▁fragrance	-11.1701
▁habarana	-11.1701
▁hierarchy	-11.1701
▁identification	-11.1701
▁justification	-11.1701
▁leisure	-11.1701
▁loudspeaker	-11.1701
▁privatization	-11.1701
▁reccomend	-11.1701
▁referendum	-11.1701
▁sanctuar	-11.1701
▁suspension	-11.1701
▁unlucky	-11.1701
▁unregistere	-11.1701
▁virgin	-11.1701
▁widespread	-11.1701
▁iraq	-11.1701
▁toddler	-11.1701
▁uprising	-11.1701
▁wolf	-11.1701
▁hedge	-11.1701
▁shelf	-11.1701
▁colony	-11.1701
▁compassion	-11.1701
▁thankyou	-11.1701
▁subsidize	-11.1701
▁php	-11.1701
▁sanath	-11.1701
▁prince	-11.1701
▁tobac	-11.1702
▁ncpi	-11.1702
▁telephone	-11.1702
▁snow	-11.1702
▁flair	-11.1702
▁eka	-11.1702
▁probability	-11.1702
▁york	-11.1703
▁musk	-11.1703
▁tweet	-11.1703
▁sovereignty	-11.1703
▁perahera	-11.1704
▁outward	-11.1704
▁mendi	-11.1704
▁pork	-11.1704
▁trademark	-11.1705
▁auntie	-11.1707
▁deaf	-11.1707
▁guardian	-11.1707
▁overrate	-11.1708
andwid	-11.1708
emma	-11.171
▁machan	-11.1711
▁yard	-11.1711
▁grace	-11.1711
▁universe	-11.1712
▁viewpoint	-11.1713
still	-11.1715
▁lump	-11.1716
▁prepay	-11.1716
cement	-11.1719
▁shine	-11.1723
▁itak	-11.1724
▁feminist	-11.1725
▁liber	-11.1728
▁banana	-11.173
▁ppp	-11.173
▁validate	-11.1731
▁bidd	-11.1739
▁disable	-11.1747
rich	-11.175
▁beng	-11.1752
▁sail	-11.1753
heim	-11.1756
▁shore	-11.1764
▁fleet	-11.1782
▁rear	-11.1788
▁cpe	-11.1798
▁lav	-11.1801
▁organizer	-11.1804
▁hp	-11.1805
▁cabra	-11.1822
▁cele	-11.1845
▁chai	-11.1851
▁roti	-11.1857
▁bung	-11.1872
▁gaz	-11.1897
ntage	-11.1904
▁stain	-11.192
hinge	-11.1929
▁cas	-11.193
▁arab	-11.1932
▁internally	-11.1937
▁lib	-11.1947
match	-11.1965
▁deci	-11.1972
▁remark	-11.1984
▁arugamb	-11.1995
▁rein	-11.1999
udu	-11.2001
word	-11.2019
▁laksh	-11.2025
tract	-11.2048
quality	-11.205
force	-11.2061
▁cand	-11.2061
▁squa	-11.2064
umble	-11.2076
tress	-11.2081
poli	-11.2082
ounce	-11.2092
▁cycl	-11.2097
sustainable	-11.2104
▁sep	-11.2106
market	-11.2109
chair	-11.211
▁hela	-11.2123
▁declar	-11.2134
erti	-11.2135
▁vis	-11.2143
astery	-11.2148
▁summar	-11.2151
▁incom	-11.2156
▁worse	-11.216
trust	-11.2166
evolution	-11.217
▁yog	-11.217
▁judicia	-11.2175
▁uncertain	-11.2175
▁opportunist	-11.2177
▁argentin	-11.2177
▁bloom	-11.2177
▁bluetooth	-11.2177
▁buzz	-11.2177
▁controversy	-11.2177
▁demotivate	-11.2177
▁dengue	-11.2177
▁dismantle	-11.2177
▁disorder	-11.2177
▁dolphin	-11.2177
▁franchise	-11.2177
▁landslide	-11.2177
▁photocopy	-11.2177
▁registrar	-11.2177
▁rhetoric	-11.2177
▁rubbish	-11.2177
▁sabotage	-11.2177
▁substitut	-11.2177
▁switzerland	-11.2177
▁technician	-11.2177
▁treasure	-11.2177
▁verdict	-11.2177
▁vocab	-11.2177
▁colonise	-11.2177
▁hijack	-11.2177
▁insert	-11.2177
▁saloon	-11.2177
▁dynast	-11.2177
▁illusion	-11.2177
▁ruppe	-11.2177
▁downsize	-11.2177
▁courage	-11.2177
▁warehouse	-11.2177
▁convey	-11.2177
▁shove	-11.2177
▁mortal	-11.2177
▁moistur	-11.2177
▁proficiency	-11.2178
▁depict	-11.2178
▁backfire	-11.2179
▁sinop	-11.2179
▁outstation	-11.218
▁empower	-11.218
▁defect	-11.218
▁haput	-11.218
ified	-11.2181
▁crown	-11.2182
▁apologise	-11.2182
▁leech	-11.2182
▁repost	-11.2183
elecommunication	-11.2183
▁barrel	-11.2184
▁monger	-11.2184
▁disappointment	-11.2185
▁diplomacy	-11.2185
▁nano	-11.2185
▁shein	-11.2185
▁denial	-11.2188
▁paperwork	-11.219
▁decorat	-11.2191
▁waive	-11.2191
▁entitlement	-11.2195
▁distraction	-11.2196
▁shameless	-11.2196
▁plc	-11.2197
▁roadside	-11.2197
want	-11.2198
▁benz	-11.2198
▁damm	-11.2199
▁victor	-11.2202
▁scenery	-11.2205
▁coke	-11.2207
asinghe	-11.2209
▁despise	-11.2209
cpc	-11.2211
▁harin	-11.2215
▁validation	-11.2229
▁found	-11.2231
▁pour	-11.2232
▁momentum	-11.2245
▁fryer	-11.2248
▁merge	-11.2252
▁converse	-11.2274
▁borel	-11.2278
▁bow	-11.2283
jith	-11.2287
base	-11.2291
▁cliq	-11.2306
▁jetw	-11.233
▁stee	-11.2338
▁volt	-11.2357
ooo	-11.2368
▁superb	-11.2388
▁customize	-11.2428
ander	-11.2436
▁maxim	-11.2439
ether	-11.2447
▁literar	-11.2458
▁koo	-11.2467
duction	-11.2504
thiya	-11.251
ctor	-11.2533
nayake	-11.2535
▁poo	-11.2553
▁polo	-11.256
▁privatise	-11.2563
wave	-11.2563
eau	-11.2566
alaya	-11.2574
pass	-11.2575
▁cloth	-11.2599
print	-11.2605
▁gum	-11.2631
▁recycl	-11.2633
▁nasa	-11.2637
▁hua	-11.2638
▁excite	-11.2659
compass	-11.2664
▁teenage	-11.2665
▁insecur	-11.2672
▁advert	-11.2674
▁ceyl	-11.2675
ollywood	-11.2675
▁premi	-11.2676
▁hazard	-11.2677
▁jayawardena	-11.2677
▁untouch	-11.2677
▁cambodia	-11.2677
▁conclude	-11.2677
▁eradicate	-11.2677
▁expansion	-11.2677
▁facepalm	-11.2677
▁forbid	-11.2677
▁forensic	-11.2677
▁intimate	-11.2677
▁invitation	-11.2677
▁lmfao	-11.2677
▁magistra	-11.2677
▁overhaul	-11.2677
▁participant	-11.2677
▁plague	-11.2677
▁provision	-11.2677
▁recipient	-11.2677
▁reconsider	-11.2677
▁refurbish	-11.2677
▁rhythm	-11.2677
▁sandwich	-11.2677
▁surgical	-11.2677
▁vicinity	-11.2677
▁inefficiency	-11.2677
▁katunayak	-11.2677
▁pepper	-11.2677
▁throat	-11.2677
▁deflation	-11.2677
▁cooperati	-11.2677
▁undermine	-11.2677
▁cancellation	-11.2677
▁gulf	-11.2677
▁litre	-11.2677
piliyan	-11.2677
▁slogan	-11.2677
▁awake	-11.2677
▁proxy	-11.2677
▁forcefully	-11.2677
▁nicotin	-11.2678
▁illitera	-11.2678
▁optimiz	-11.2678
▁contrar	-11.2678
▁georg	-11.2678
▁greeting	-11.2678
▁subsidiary	-11.2679
▁collaboration	-11.268
▁airpo	-11.268
▁imei	-11.268
▁veggi	-11.2681
▁hoop	-11.2681
▁reload	-11.2681
▁obv	-11.2682
▁parliamentarian	-11.2682
▁ryt	-11.2683
▁spew	-11.2683
▁clash	-11.2684
▁prostitution	-11.2684
▁steep	-11.2688
▁amara	-11.2688
▁oversize	-11.2689
▁fella	-11.2689
▁patro	-11.269
▁diff	-11.2696
▁underage	-11.2697
▁kerne	-11.2698
▁node	-11.2704
▁fox	-11.2705
▁kuru	-11.2705
▁mira	-11.271
▁minus	-11.2712
▁musician	-11.2713
▁hypocrite	-11.2713
▁ohh	-11.2717
▁zionis	-11.2717
alinga	-11.2719
▁duck	-11.2728
▁depressing	-11.2731
▁zen	-11.2751
▁verit	-11.2752
enture	-11.2752
rill	-11.2761
▁atl	-11.2767
orous	-11.2769
proxim	-11.2775
ugues	-11.2782
sition	-11.2786
wela	-11.2796
than	-11.2802
▁deriv	-11.2808
▁easi	-11.281
▁geograph	-11.281
rence	-11.2817
nanayak	-11.2826
iva	-11.2829
quisit	-11.2851
mble	-11.2854
▁faci	-11.2871
▁fri	-11.2882
▁medi	-11.2898
▁supr	-11.2903
▁intens	-11.2917
ami	-11.2919
▁admire	-11.2928
▁bent	-11.2936
▁eran	-11.2944
udi	-11.2958
▁yap	-11.2967
▁octa	-11.3001
iyo	-11.3012
▁milo	-11.3024
▁vers	-11.3071
▁hahaha	-11.3112
bian	-11.3113
srilanka	-11.313
science	-11.313
oom	-11.3131
country	-11.3132
mouth	-11.3132
hurt	-11.3134
mail	-11.3145
▁thorough	-11.3156
▁organ	-11.3157
▁investigat	-11.3157
▁introduc	-11.3161
▁complet	-11.3165
hini	-11.3169
▁nois	-11.3179
everage	-11.3199
▁eligib	-11.3199
▁disgrace	-11.3201
▁outrage	-11.3202
itude	-11.3202
▁athletic	-11.3203
▁bhutan	-11.3203
▁commodity	-11.3203
▁contemporar	-11.3203
▁delicious	-11.3203
▁downgrade	-11.3203
▁fluctuation	-11.3203
▁freight	-11.3203
▁furnish	-11.3203
▁humiliat	-11.3203
▁inhumane	-11.3203
▁legislation	-11.3203
▁molecul	-11.3203
▁noodle	-11.3203
▁nostalgi	-11.3203
▁palestinian	-11.3203
▁piracy	-11.3203
▁predominant	-11.3203
▁quantitative	-11.3203
▁rabbit	-11.3203
▁resilient	-11.3203
▁retaliat	-11.3203
▁sabaragamuwa	-11.3203
▁savvy	-11.3203
▁seafood	-11.3203
▁tragedy	-11.3203
▁turmoil	-11.3203
▁unhealth	-11.3203
▁vacuum	-11.3203
▁vigilant	-11.3203
▁vocation	-11.3203
▁amateur	-11.3203
▁attribute	-11.3203
▁evasion	-11.3203
▁onsite	-11.3203
▁ravana	-11.3203
▁sweden	-11.3203
▁essence	-11.3203
▁vecno	-11.3204
▁calcey	-11.3204
▁embed	-11.3204
▁offensive	-11.3204
▁dairy	-11.3204
watte	-11.3204
▁fertil	-11.3204
▁fingerprint	-11.3204
▁bleed	-11.3204
▁trek	-11.3204
▁dashboard	-11.3204
▁kidnap	-11.3204
▁maradan	-11.3205
avan	-11.3205
▁crave	-11.3205
▁shrink	-11.3205
▁wholes	-11.3205
▁wheat	-11.3205
▁oblivious	-11.3206
▁actress	-11.3206
▁obligate	-11.3206
▁decency	-11.3206
▁patriotism	-11.3206
▁bench	-11.3207
▁spanish	-11.3207
▁stunt	-11.3208
▁sedan	-11.3208
▁amen	-11.3208
▁smash	-11.3208
▁insecurity	-11.3208
▁satisfaction	-11.3209
ossil	-11.3209
▁chaba	-11.3209
▁glory	-11.3209
▁soap	-11.321
▁shave	-11.3211
▁firework	-11.3211
▁coupon	-11.3211
▁jose	-11.3211
▁mofo	-11.3212
most	-11.3212
▁rapist	-11.3212
▁possession	-11.3212
▁unbelievable	-11.3213
▁telco	-11.3213
▁heel	-11.3216
▁harv	-11.3218
▁ancestry	-11.3219
▁squad	-11.3225
▁detector	-11.3225
▁kade	-11.3227
▁atp	-11.3227
▁cabin	-11.3228
▁weaken	-11.3229
made	-11.3231
▁divi	-11.3231
▁turbo	-11.3232
▁specialty	-11.3239
▁handling	-11.3244
▁addicted	-11.325
agala	-11.3251
▁ashe	-11.3268
▁conf	-11.3275
▁alter	-11.3294
▁matern	-11.3297
▁liv	-11.3303
▁elector	-11.3323
▁worthless	-11.333
▁programmer	-11.3338
woo	-11.334
▁prad	-11.3346
mah	-11.3357
▁hama	-11.3386
wila	-11.3388
tric	-11.3391
cut	-11.3399
jab	-11.34
polar	-11.3438
▁geni	-11.3439
cuba	-11.3441
mind	-11.346
matic	-11.3498
shanka	-11.3526
eath	-11.3541
▁elon	-11.3561
▁robe	-11.3577
▁rata	-11.3596
▁integrat	-11.3602
▁counsell	-11.3602
▁oppo	-11.3603
▁dock	-11.3605
▁cli	-11.3623
▁abu	-11.3637
▁emphasi	-11.3645
▁continu	-11.3651
▁elevat	-11.3667
economic	-11.3686
company	-11.3686
field	-11.3686
track	-11.3688
▁kel	-11.3697
▁frequen	-11.3741
▁administrati	-11.3754
lude	-11.3758
▁alphabet	-11.3759
▁alumnus	-11.3759
▁asbestos	-11.3759
▁assimilat	-11.3759
▁celebrity	-11.3759
▁commemorat	-11.3759
▁compliment	-11.3759
▁diamond	-11.3759
▁fascinating	-11.3759
▁hyperinflation	-11.3759
▁impractical	-11.3759
▁inexperience	-11.3759
▁invalid	-11.3759
▁misogyn	-11.3759
▁overthrow	-11.3759
▁psychopath	-11.3759
▁reimburse	-11.3759
▁renegotiat	-11.3759
▁rupavahini	-11.3759
▁sacred	-11.3759
▁scrutiny	-11.3759
▁secretariat	-11.3759
▁segregat	-11.3759
▁separatis	-11.3759
▁significance	-11.3759
▁simultaneously	-11.3759
▁sympathize	-11.3759
▁terrify	-11.3759
▁trajectory	-11.3759
▁translator	-11.3759
▁transmission	-11.3759
▁unauthori	-11.3759
▁uphold	-11.3759
▁vancouver	-11.3759
▁breeze	-11.3759
▁egypt	-11.3759
▁jkcg	-11.3759
▁parliment	-11.3759
▁pivot	-11.3759
▁prevail	-11.3759
▁glaze	-11.3759
▁prioritise	-11.3759
▁spider	-11.3759
▁pound	-11.3759
▁blur	-11.3759
▁sauce	-11.3759
▁stafford	-11.3759
▁utilis	-11.3759
▁worm	-11.3759
▁seettu	-11.3759
▁lemon	-11.3759
▁ayya	-11.3759
▁pradesh	-11.3759
▁wholesome	-11.376
▁flour	-11.376
solicit	-11.376
▁orthodonti	-11.376
▁knw	-11.376
▁diligen	-11.376
▁chassi	-11.376
▁furious	-11.376
▁synd	-11.3761
▁curtain	-11.3761
▁blackmail	-11.3761
▁rajarat	-11.3762
▁noob	-11.3762
▁abide	-11.3763
▁tonight	-11.3763
▁oversee	-11.3764
▁wiki	-11.3764
itarian	-11.3765
▁legendary	-11.3765
▁informative	-11.3766
▁confidential	-11.3767
▁corp	-11.3771
▁bandaranayake	-11.3773
▁corri	-11.3779
▁madness	-11.3779
▁asf	-11.378
plant	-11.378
▁inspection	-11.3781
▁alike	-11.3781
▁simplif	-11.3782
▁seik	-11.3784
visa	-11.3784
▁platin	-11.3785
▁descend	-11.3787
lancer	-11.3789
iran	-11.3793
▁rod	-11.3793
▁cess	-11.3797
▁modest	-11.3797
sonic	-11.3797
▁dropout	-11.38
bell	-11.381
nzi	-11.3814
▁classify	-11.3819
▁ucl	-11.3823
▁hora	-11.3824
▁chal	-11.3826
kumar	-11.3842
kara	-11.3842
▁selective	-11.3844
▁ape	-11.3855
demy	-11.3861
▁fac	-11.3873
uka	-11.3876
▁fil	-11.3883
▁privatis	-11.3888
▁cling	-11.3896
▁hostil	-11.3911
munu	-11.3913
rsion	-11.3915
▁mathematical	-11.3916
amantha	-11.3916
▁pana	-11.3935
opple	-11.3964
▁charith	-11.3967
▁leo	-11.4014
uf	-11.408
beth	-11.412
hani	-11.4132
▁stf	-11.4133
luxe	-11.4143
hallow	-11.4157
hats	-11.421
stine	-11.4212
▁accelerate	-11.4261
curricula	-11.4272
pathetic	-11.4272
pleasant	-11.4273
married	-11.4274
conduct	-11.4274
perform	-11.4275
shot	-11.429
zone	-11.4293
▁manipulat	-11.4294
water	-11.4306
▁warrant	-11.4317
▁upward	-11.4319
▁wad	-11.432
▁bim	-11.4321
radar	-11.4327
▁extremis	-11.4329
▁possess	-11.4337
▁definit	-11.4338
terior	-11.4343
▁psychiatr	-11.4343
▁suspicio	-11.4344
verge	-11.4345
hire	-11.4345
▁situat	-11.4345
▁bureaucrat	-11.4347
▁ambulance	-11.4347
▁autonomy	-11.4347
▁awhile	-11.4347
▁configur	-11.4347
▁consolidat	-11.4347
▁durdan	-11.4347
▁gullible	-11.4347
▁inconsistent	-11.4347
▁innovex	-11.4347
▁kaduwela	-11.4347
▁maithree	-11.4347
▁masculin	-11.4347
▁messenger	-11.4347
▁nuisance	-11.4347
▁sapphire	-11.4347
▁teledrama	-11.4347
▁baffle	-11.4347
▁david	-11.4347
▁elitist	-11.4347
▁indulge	-11.4347
▁pronounce	-11.4347
▁pseudo	-11.4347
▁sanskr	-11.4347
▁gesture	-11.4347
▁marvel	-11.4347
▁potato	-11.4347
▁puthano	-11.4347
▁thumb	-11.4347
▁mitigat	-11.4347
▁fetch	-11.4347
▁vessel	-11.4347
▁monument	-11.4347
▁outlier	-11.4347
▁warrior	-11.4347
▁cherry	-11.4347
▁crisp	-11.4347
▁deceive	-11.4347
▁grassroot	-11.4347
▁systematic	-11.4348
▁rtx	-11.4348
▁mineral	-11.4348
▁vedda	-11.4348
▁itenar	-11.4348
▁occurrence	-11.4348
▁griev	-11.4348
▁mourn	-11.4348
▁contaminat	-11.4349
▁herath	-11.4349
▁breast	-11.4349
▁sustainability	-11.4349
▁pillow	-11.435
▁salva	-11.4352
▁homie	-11.4353
▁mastercard	-11.4353
▁coward	-11.4354
▁pollute	-11.4355
▁hehe	-11.4355
▁digest	-11.4355
▁renovation	-11.4355
▁overwork	-11.4355
▁experi	-11.4356
▁unreasonable	-11.4357
▁biden	-11.4357
▁surre	-11.4358
mmunity	-11.4358
▁prick	-11.4358
▁oust	-11.4359
▁populate	-11.4359
▁mmf	-11.4359
▁valor	-11.436
▁hatch	-11.436
▁olevel	-11.4362
▁revision	-11.4363
▁turke	-11.4363
▁nude	-11.4364
▁shithole	-11.4365
▁civilization	-11.4368
▁guru	-11.4368
jitha	-11.4369
▁wax	-11.4371
tube	-11.4379
▁hdi	-11.4381
▁lank	-11.4382
meric	-11.4397
▁turnout	-11.4406
▁garn	-11.4407
tale	-11.4411
hore	-11.4414
▁breakup	-11.4426
▁multip	-11.4433
▁diagnos	-11.4439
▁minne	-11.4452
gain	-11.4459
▁cmc	-11.4467
jude	-11.4467
▁scent	-11.4468
fringe	-11.4469
▁cig	-11.4478
▁cleanse	-11.4482
iji	-11.4486
▁narcissist	-11.4486
tsy	-11.4504
reck	-11.4547
glue	-11.4547
▁ananda	-11.4548
▁concentrat	-11.4555
▁merch	-11.4564
▁classical	-11.4566
uniya	-11.4575
▁cia	-11.4575
▁corro	-11.4603
▁kamal	-11.4696
iii	-11.4718
step	-11.4735
▁modernize	-11.4755
echo	-11.4764
gram	-11.478
▁patt	-11.4801
▁kei	-11.4846
born	-11.4873
bli	-11.4895
direct	-11.4897
link	-11.4898
claim	-11.4902
▁valu	-11.4904
block	-11.4913
▁typ	-11.4914
rust	-11.4921
ddy	-11.4929
▁maldiv	-11.4929
▁hyp	-11.4931
fare	-11.4948
▁sever	-11.4953
▁instruct	-11.4954
▁nawal	-11.4957
inability	-11.4961
bq	-11.4962
▁infect	-11.4965
flict	-11.4971
▁misunderst	-11.4971
▁ambuluwa	-11.4972
▁antenna	-11.4972
▁census	-11.4972
▁crawl	-11.4972
▁discretion	-11.4972
▁embark	-11.4972
▁ergonomic	-11.4972
▁etiquette	-11.4972
▁extraordinar	-11.4972
▁gorgeous	-11.4972
▁horrendous	-11.4972
▁influential	-11.4972
▁jeppa	-11.4972
▁justifiabl	-11.4972
▁kataragama	-11.4972
▁mysterious	-11.4972
▁nephew	-11.4972
▁prejudice	-11.4972
▁ratmalan	-11.4972
▁relieve	-11.4972
▁responsive	-11.4972
▁suicidal	-11.4972
▁tarnish	-11.4972
▁backbone	-11.4972
▁isolation	-11.4972
▁parasite	-11.4972
▁savior	-11.4972
▁trivial	-11.4972
▁vertical	-11.4972
▁vishwa	-11.4972
▁acquaint	-11.4972
▁equation	-11.4972
▁fourth	-11.4972
▁clever	-11.4972
▁companion	-11.4972
▁tarrif	-11.4972
▁vibran	-11.4972
▁reckon	-11.4972
▁spoon	-11.4972
▁courtesy	-11.4972
▁correlat	-11.4972
▁deteriorat	-11.4973
▁reef	-11.4973
▁zip	-11.4973
▁flame	-11.4973
▁refiner	-11.4973
▁vesak	-11.4973
▁championship	-11.4974
▁minimis	-11.4974
bhaya	-11.4974
▁pricy	-11.4974
▁malayali	-11.4974
▁stroke	-11.4974
▁utopia	-11.4974
▁spectac	-11.4974
▁confine	-11.4974
▁wrapper	-11.4975
▁peko	-11.4975
▁globe	-11.4975
gamuwa	-11.4975
▁miris	-11.4975
▁spike	-11.4975
▁firearm	-11.4976
▁clone	-11.4976
▁electorate	-11.4976
▁compose	-11.4976
▁inheritance	-11.4978
▁guysss	-11.4978
▁candle	-11.4978
▁chore	-11.4978
▁mnc	-11.498
▁simulat	-11.4981
▁forie	-11.4982
▁ipad	-11.4982
▁dji	-11.4984
▁hangover	-11.4984
uffle	-11.4987
▁beast	-11.4987
▁infant	-11.4987
▁instalment	-11.4988
▁spotlight	-11.499
▁shud	-11.499
▁skillset	-11.4991
▁factual	-11.4992
▁yew	-11.4993
▁cuck	-11.4994
nadu	-11.4995
▁expiry	-11.4996
▁anthe	-11.4997
▁sonet	-11.5
asty	-11.5005
▁dilsh	-11.501
▁comf	-11.5013
▁oop	-11.5018
tsd	-11.5026
▁bland	-11.5027
▁arse	-11.5029
▁woke	-11.5047
ugoda	-11.5058
eval	-11.506
▁meddl	-11.5084
▁optic	-11.5088
ctb	-11.509
▁kam	-11.5093
▁wri	-11.5102
▁kilo	-11.5104
▁xi	-11.5114
aji	-11.5132
▁tempt	-11.5137
trus	-11.5144
▁amp	-11.5163
aksha	-11.5171
more	-11.5176
kok	-11.5182
ldl	-11.5183
▁heroin	-11.5251
▁incl	-11.5296
▁nin	-11.5328
▁pip	-11.5334
▁practi	-11.5349
inning	-11.5357
licate	-11.5398
characteristic	-11.5412
osis	-11.5421
▁dys	-11.5452
▁chari	-11.5466
tml	-11.5468
▁deni	-11.5475
liya	-11.55
▁wav	-11.5508
▁fif	-11.551
umbr	-11.5526
ooh	-11.5531
worthy	-11.556
charge	-11.5562
constitutional	-11.5565
reach	-11.5565
familiar	-11.5565
metric	-11.5566
productive	-11.557
person	-11.5573
stock	-11.5583
fucker	-11.5588
easy	-11.5592
mmm	-11.5599
▁launder	-11.5602
▁arun	-11.5607
root	-11.561
▁magical	-11.5619
▁delusion	-11.5624
▁servic	-11.5626
odys	-11.5629
▁oblig	-11.5631
▁avail	-11.5632
▁thera	-11.5634
next	-11.5638
phobia	-11.5639
▁rainforest	-11.5639
cricinfo	-11.5639
▁abeysingh	-11.5639
▁belove	-11.5639
▁categoriz	-11.5639
▁circular	-11.5639
▁contemplat	-11.5639
▁discriminatory	-11.5639
▁educator	-11.5639
▁hormone	-11.5639
▁intolerant	-11.5639
▁intrigu	-11.5639
▁irresponsibl	-11.5639
▁negativity	-11.5639
▁negligible	-11.5639
▁ninewell	-11.5639
▁nonetheless	-11.5639
▁obstruct	-11.5639
▁pregnancy	-11.5639
▁pretentious	-11.5639
▁ratnapura	-11.5639
▁rebrand	-11.5639
▁reinvest	-11.5639
▁ryzen	-11.5639
▁soviet	-11.5639
▁spontaneous	-11.5639
▁unknowing	-11.5639
▁unlawful	-11.5639
▁unregulate	-11.5639
▁whistle	-11.5639
▁denominat	-11.5639
▁livelihood	-11.5639
▁pickleball	-11.5639
▁sarcastic	-11.5639
▁sophisticat	-11.5639
▁tolerance	-11.5639
▁proactive	-11.5639
▁rogue	-11.5639
▁satire	-11.5639
▁afterma	-11.5639
▁rainbow	-11.5639
▁detach	-11.5639
▁suffice	-11.5639
▁hairstyl	-11.5639
▁annum	-11.5639
▁amplif	-11.5639
▁revert	-11.5639
▁avurud	-11.5639
▁jerk	-11.5639
▁charle	-11.5639
▁insure	-11.5639
▁surcharge	-11.5639
▁transcript	-11.5639
▁dispers	-11.5639
▁milestone	-11.564
cule	-11.564
▁columbo	-11.564
▁kyc	-11.564
▁misplace	-11.564
▁ffs	-11.564
▁degrade	-11.564
eshwar	-11.5641
▁iraj	-11.5641
exico	-11.5641
▁consultancy	-11.5641
▁rightfully	-11.5641
▁wasantha	-11.5641
▁procurement	-11.5642
▁tweak	-11.5642
▁vicious	-11.5642
▁nilad	-11.5642
▁haunt	-11.5642
▁noble	-11.5642
▁drawback	-11.5643
▁ccpi	-11.5643
▁photoshop	-11.5644
▁dataset	-11.5645
▁resistant	-11.5645
▁dispar	-11.5645
▁irritate	-11.5645
▁blink	-11.5646
▁dehiw	-11.5646
▁dealership	-11.5646
▁purse	-11.5646
amw	-11.5647
▁nhs	-11.5647
▁disability	-11.5648
▁rebellio	-11.5648
▁chick	-11.5648
▁adani	-11.5648
▁idol	-11.5649
▁marginaliz	-11.5649
▁thero	-11.5649
▁bye	-11.5649
▁burst	-11.565
▁nominate	-11.565
▁landmark	-11.5653
▁potter	-11.5653
▁deactivate	-11.5654
▁colum	-11.5655
▁grill	-11.5655
▁podi	-11.5656
▁viva	-11.5657
dney	-11.5658
▁loom	-11.5659
nautica	-11.5659
▁tbf	-11.566
▁hmmm	-11.566
▁appeti	-11.5663
▁hostage	-11.5664
▁disagreement	-11.5664
▁blackout	-11.5666
▁chew	-11.5666
▁promo	-11.5669
▁tusk	-11.5669
▁attachment	-11.5669
▁gamin	-11.5672
▁typo	-11.5679
▁anecdotal	-11.568
▁cush	-11.568
▁wannabe	-11.568
▁milita	-11.5685
▁symbolic	-11.5686
▁provo	-11.5694
loss	-11.5698
▁pras	-11.572
▁grim	-11.5728
▁sooooo	-11.5737
▁tec	-11.5738
lore	-11.5754
esco	-11.5761
tyre	-11.5765
rio	-11.5777
diyal	-11.5795
▁somethin	-11.5802
▁excu	-11.5809
rown	-11.5813
▁hug	-11.5818
deniya	-11.5855
achchi	-11.5855
centr	-11.5863
▁strap	-11.587
count	-11.587
▁priv	-11.5872
shaw	-11.5886
bill	-11.5886
practise	-11.5937
▁err	-11.5962
cheve	-11.5978
▁vijay	-11.5996
unil	-11.6001
▁myr	-11.6059
iye	-11.6067
▁hatt	-11.6082
laughter	-11.6154
roach	-11.6181
avit	-11.6195
fuck	-11.6226
resse	-11.6241
liza	-11.6264
kada	-11.6272
found	-11.6278
▁axia	-11.628
effective	-11.628
club	-11.628
write	-11.6281
baba	-11.6282
moto	-11.6296
▁operat	-11.6303
▁astro	-11.6319
aft	-11.633
▁analys	-11.6333
▁prostitut	-11.6343
▁democrat	-11.6344
▁refra	-11.6348
▁oblivio	-11.635
ighty	-11.6352
▁ridicul	-11.6352
▁crippl	-11.6353
▁rambuk	-11.6353
disproportionate	-11.6353
▁belittle	-11.6353
▁bizarre	-11.6353
▁butcher	-11.6353
▁complication	-11.6353
▁cooperate	-11.6353
▁desperation	-11.6353
▁inconvenient	-11.6353
▁infamous	-11.6353
▁influx	-11.6353
▁jazeera	-11.6353
▁magazine	-11.6353
▁megathread	-11.6353
▁myanmar	-11.6353
▁nutshell	-11.6353
▁opponent	-11.6353
▁oxygen	-11.6353
▁pedestal	-11.6353
▁pragmatic	-11.6353
▁puzzle	-11.6353
▁reconnect	-11.6353
▁rotaract	-11.6353
▁saviour	-11.6353
▁smuggle	-11.6353
▁stockbroker	-11.6353
▁transgender	-11.6353
▁unaffordable	-11.6353
▁unfold	-11.6353
▁bacteria	-11.6353
▁hayley	-11.6353
▁thunder	-11.6353
▁lagoon	-11.6353
▁menace	-11.6353
▁peotv	-11.6353
▁rifle	-11.6353
▁frugal	-11.6353
▁jazz	-11.6353
▁vivo	-11.6353
▁latency	-11.6353
▁tribal	-11.6353
▁untill	-11.6353
▁salarie	-11.6353
▁goodwill	-11.6353
▁bangalor	-11.6353
▁amaze	-11.6353
▁coincidence	-11.6353
▁imbalance	-11.6354
▁jdm	-11.6354
▁excellenc	-11.6354
▁latin	-11.6354
▁proficien	-11.6354
▁arjun	-11.6354
▁duplicat	-11.6354
▁burglar	-11.6354
▁optimis	-11.6354
▁redundan	-11.6354
▁tenant	-11.6354
▁rajitha	-11.6354
▁dutug	-11.6354
▁euthan	-11.6354
▁flix	-11.6355
▁charisma	-11.6355
▁downward	-11.6355
urgency	-11.6355
▁dhal	-11.6355
▁devote	-11.6356
▁maligawa	-11.6356
partment	-11.6356
▁apprais	-11.6357
▁prolong	-11.6357
▁recharge	-11.6357
▁divert	-11.6357
▁itm	-11.6357
▁incite	-11.6357
runch	-11.6357
▁rigid	-11.6358
▁panni	-11.6358
▁becu	-11.6359
▁disturbance	-11.6359
▁tyran	-11.6359
▁airbag	-11.636
nintend	-11.636
▁preschool	-11.636
▁heap	-11.6361
▁scandinavian	-11.6361
▁ginger	-11.6361
▁funnie	-11.6361
▁bharat	-11.6361
▁inferiority	-11.6362
▁nfc	-11.6363
▁grandpa	-11.6365
▁swedis	-11.6365
▁juris	-11.6365
▁greek	-11.6368
▁unlock	-11.637
▁weli	-11.6371
▁isis	-11.6372
rathna	-11.6372
▁arabic	-11.6372
▁soup	-11.6373
▁kpi	-11.6374
▁skim	-11.6376
▁incase	-11.6376
▁hq	-11.6377
▁texa	-11.6384
ulous	-11.6385
▁murali	-11.6386
▁desha	-11.6389
▁coven	-11.6391
▁canna	-11.6401
adasa	-11.6404
epic	-11.6408
▁kno	-11.6414
▁rayha	-11.6419
▁corpora	-11.6429
▁sigri	-11.6449
▁bandara	-11.645
kaduwa	-11.6468
tician	-11.6538
eksha	-11.6545
▁literat	-11.6556
ighten	-11.657
▁prima	-11.659
favorable	-11.6592
long	-11.6613
▁counselo	-11.6637
▁kudu	-11.6645
▁nishan	-11.6695
chester	-11.6696
kirt	-11.6707
ridge	-11.6742
▁singha	-11.6757
▁rotat	-11.6783
competence	-11.6887
aveli	-11.6887
ological	-11.6926
▁begg	-11.6932
litt	-11.6975
▁lamb	-11.698
▁dime	-11.7022
kill	-11.7043
fruit	-11.7049
advisor	-11.7049
dialog	-11.7049
plane	-11.7051
bank	-11.7053
▁snorkell	-11.7065
▁hypocrit	-11.7067
apple	-11.7069
osha	-11.7074
▁originat	-11.7078
▁devalu	-11.7079
▁popula	-11.7092
▁onward	-11.7093
▁renovat	-11.7112
▁nsb	-11.7114
aught	-11.7119
issamaharama	-11.7122
▁anticipat	-11.7122
▁bamboo	-11.7122
▁brigade	-11.7122
▁constraint	-11.7122
▁esteem	-11.7122
▁extravagant	-11.7122
▁finasterid	-11.7122
▁fragile	-11.7122
▁gammanpila	-11.7122
▁halloween	-11.7122
▁infuriate	-11.7122
▁laundry	-11.7122
▁mitsub	-11.7122
▁narahenpit	-11.7122
▁negligence	-11.7122
▁oversight	-11.7122
▁porsche	-11.7122
▁reciproca	-11.7122
▁repetitive	-11.7122
▁stimulat	-11.7122
▁stunning	-11.7122
▁subcontinent	-11.7122
▁submission	-11.7122
▁surveillance	-11.7122
▁visibility	-11.7122
▁vitiligo	-11.7122
▁wickramasinghe	-11.7122
▁wolver	-11.7122
▁ymmv	-11.7122
▁abysmal	-11.7122
▁multiplayer	-11.7122
▁nurture	-11.7122
▁separation	-11.7122
▁stubborn	-11.7122
▁renowne	-11.7122
▁ruthless	-11.7122
▁whitewash	-11.7122
▁bloodshed	-11.7122
▁consulat	-11.7122
▁exploration	-11.7122
▁britain	-11.7122
▁philip	-11.7122
▁spineless	-11.7122
▁flirt	-11.7122
▁uphill	-11.7122
▁decease	-11.7122
▁fanboy	-11.7122
▁towel	-11.7123
▁vandal	-11.7123
▁sadden	-11.7123
▁reassur	-11.7123
▁dinemore	-11.7123
▁maithripala	-11.7123
▁alpha	-11.7123
▁abnormal	-11.7123
erahera	-11.7123
▁hatchback	-11.7123
▁obey	-11.7123
halawath	-11.7123
▁romania	-11.7123
▁casio	-11.7123
▁crumble	-11.7123
▁kovil	-11.7124
▁goodbye	-11.7124
iju	-11.7124
▁empathetic	-11.7124
▁mohame	-11.7125
▁robot	-11.7125
▁guesthouse	-11.7125
▁distress	-11.7125
▁tiring	-11.7125
▁intact	-11.7125
▁hollywood	-11.7126
▁macau	-11.7126
▁federalism	-11.7126
▁coordinator	-11.7126
▁biotech	-11.7127
▁sabry	-11.7128
▁misery	-11.7129
▁shutdown	-11.7129
▁legitima	-11.7129
▁shortcut	-11.713
▁scarce	-11.713
eeri	-11.7132
▁jacket	-11.7133
▁pinch	-11.7134
▁habitat	-11.7135
▁infest	-11.7135
▁lightning	-11.7137
▁aura	-11.7137
▁limb	-11.7137
▁strive	-11.7138
▁stylis	-11.7139
▁incline	-11.7141
▁archeolog	-11.7141
▁jog	-11.7143
▁pharmac	-11.7146
▁santa	-11.7146
▁zoo	-11.7154
▁hampe	-11.7161
▁applie	-11.7163
sekara	-11.7174
▁sinus	-11.7179
atali	-11.718
▁dumin	-11.7183
pora	-11.7191
▁compel	-11.7198
▁numb	-11.7241
▁tais	-11.7242
▁criti	-11.7509
▁taj	-11.7519
▁admir	-11.7544
mich	-11.7565
scope	-11.7569
solve	-11.7573
▁itc	-11.7632
▁expir	-11.7705
▁pond	-11.7729
keeper	-11.7751
liver	-11.7827
▁clos	-11.783
ambal	-11.7845
mobile	-11.7882
privilege	-11.7882
travel	-11.7883
south	-11.7883
tream	-11.7884
service	-11.7884
learn	-11.7885
hena	-11.7893
troop	-11.7898
▁turb	-11.7911
▁gradual	-11.7912
▁terribl	-11.7913
▁mahind	-11.7924
▁jeweller	-11.7925
▁rememb	-11.7933
▁inject	-11.7946
▁explanat	-11.7946
▁misinform	-11.7951
azi	-11.7953
ustralia	-11.7954
equate	-11.7955
▁peripher	-11.7956
▁upbring	-11.7956
▁succumb	-11.7956
▁adaderana	-11.7956
▁assembly	-11.7956
▁circus	-11.7956
▁conglomerate	-11.7956
▁correspond	-11.7956
▁curtail	-11.7956
▁custody	-11.7956
▁deodorant	-11.7956
▁dessert	-11.7956
▁dominant	-11.7956
▁ecommerce	-11.7956
▁frozen	-11.7956
▁glassdoor	-11.7956
▁headquarter	-11.7956
▁ideological	-11.7956
▁impeach	-11.7956
▁indefinite	-11.7956
▁inevitably	-11.7956
▁instinct	-11.7956
▁kilometer	-11.7956
▁kindergarten	-11.7956
▁mahattaya	-11.7956
▁mudalali	-11.7956
▁nigerian	-11.7956
▁niladari	-11.7956
▁payslip	-11.7956
▁peratugam	-11.7956
▁physiotherap	-11.7956
▁registry	-11.7956
▁relocation	-11.7956
▁repatriat	-11.7956
▁repellent	-11.7956
▁sarasavi	-11.7956
▁sarcasm	-11.7956
▁sumanthiran	-11.7956
▁sunshine	-11.7956
▁swallow	-11.7956
▁swarnawahini	-11.7956
▁swipe	-11.7956
▁sympathise	-11.7956
▁wholeheartedly	-11.7956
▁archaeolog	-11.7956
▁maritime	-11.7956
▁mystery	-11.7956
▁overreact	-11.7956
▁radius	-11.7956
▁regress	-11.7956
▁intrest	-11.7956
▁kotelaw	-11.7956
▁optimal	-11.7956
▁violin	-11.7956
▁voluntar	-11.7956
▁baiyy	-11.7956
▁nolim	-11.7956
▁uganda	-11.7956
▁mintpay	-11.7956
▁thesis	-11.7956
▁uncover	-11.7956
▁wastage	-11.7956
▁hmu	-11.7956
▁riyase	-11.7956
▁collage	-11.7956
▁deflect	-11.7956
▁immers	-11.7956
▁lvl	-11.7956
ipend	-11.7956
▁avenge	-11.7956
▁nerve	-11.7956
▁spokes	-11.7956
▁newcomer	-11.7956
▁delegat	-11.7956
▁skew	-11.7957
▁censorship	-11.7957
▁mythology	-11.7957
▁thondama	-11.7957
▁javascript	-11.7957
▁bilingual	-11.7957
▁kumana	-11.7957
▁pelawatt	-11.7957
▁leco	-11.7957
▁crude	-11.7957
▁lurk	-11.7957
▁subaru	-11.7957
▁stink	-11.7957
▁facade	-11.7958
▁kando	-11.7958
▁commence	-11.7958
▁sabha	-11.7958
▁refrigerator	-11.7959
▁displace	-11.7959
▁matale	-11.7959
▁throne	-11.7959
▁overload	-11.796
▁disgraceful	-11.796
cumulati	-11.796
▁sheep	-11.796
▁adverse	-11.7961
▁evict	-11.7961
▁persu	-11.7961
▁sphere	-11.7961
▁vihara	-11.7962
flake	-11.7962
▁glance	-11.7962
▁moose	-11.7962
▁atrocious	-11.7962
lingual	-11.7963
▁lime	-11.7963
▁sunlight	-11.7964
▁blade	-11.7964
▁brew	-11.7965
▁barbari	-11.7965
▁authorise	-11.7967
▁chamar	-11.7968
▁nutri	-11.7971
trophy	-11.7973
hinder	-11.7975
▁glim	-11.7975
▁applau	-11.7978
rudge	-11.7982
▁depo	-11.7989
▁pottu	-11.799
aaaa	-11.8001
▁gatekeep	-11.8017
arachchi	-11.8026
mbiy	-11.8056
▁dalad	-11.807
▁ferr	-11.8087
▁scanne	-11.8106
▁btec	-11.818
uddh	-11.8193
grom	-11.823
▁astra	-11.8316
▁arabi	-11.8344
▁horo	-11.8363
idden	-11.8384
▁mobil	-11.8437
vada	-11.8558
▁bob	-11.8632
▁sanj	-11.8746
drop	-11.8762
sufficient	-11.8791
cultural	-11.8791
group	-11.8793
speed	-11.8793
▁prophe	-11.8795
girl	-11.8798
pilot	-11.8819
▁energ	-11.8841
▁trud	-11.8844
▁chathura	-11.8848
▁millenni	-11.885
quire	-11.8855
▁beneficia	-11.8858
▁compatib	-11.8861
▁schol	-11.8862
▁orthop	-11.8865
▁patriarch	-11.8865
punctual	-11.8865
▁achievable	-11.8865
▁benifit	-11.8865
▁clutch	-11.8865
▁condescend	-11.8865
▁degenerate	-11.8865
▁detrimental	-11.8865
▁devastate	-11.8865
▁dictionary	-11.8865
▁disciplinar	-11.8865
▁distributor	-11.8865
▁duolingo	-11.8865
▁endocrinolog	-11.8865
▁fraudulent	-11.8865
▁gratitude	-11.8865
▁gymnastic	-11.8865
▁henchman	-11.8865
▁illustrat	-11.8865
▁immoral	-11.8865
▁insanity	-11.8865
▁linguistic	-11.8865
▁malicious	-11.8865
▁miraculous	-11.8865
▁misguide	-11.8865
▁neoliberal	-11.8865
▁nescaf	-11.8865
▁obscur	-11.8865
▁orchestrate	-11.8865
▁pessimist	-11.8865
▁reservoir	-11.8865
▁retrieve	-11.8865
▁shenanigan	-11.8865
▁speculate	-11.8865
▁steadily	-11.8865
▁telugu	-11.8865
▁udawalawa	-11.8865
▁undervalue	-11.8865
▁ungrateful	-11.8865
▁unwilling	-11.8865
▁urself	-11.8865
▁booze	-11.8865
▁coexist	-11.8865
▁deplete	-11.8865
▁heinous	-11.8865
▁pledge	-11.8865
▁resentment	-11.8865
▁bodybuild	-11.8865
▁laboratory	-11.8865
▁supremac	-11.8865
▁chetti	-11.8865
▁parakrama	-11.8865
▁xxx	-11.8865
▁dawg	-11.8865
▁jeweler	-11.8865
▁overlap	-11.8865
▁zscore	-11.8865
▁shamble	-11.8865
▁druggie	-11.8865
▁bfca	-11.8865
▁chathuri	-11.8865
▁whopp	-11.8865
▁ferrari	-11.8865
▁bleak	-11.8865
▁dissent	-11.8865
▁shortcoming	-11.8865
▁fusion	-11.8865
▁meritocracy	-11.8865
▁wimal	-11.8865
▁carpent	-11.8865
▁biriyan	-11.8865
▁choco	-11.8865
▁fortress	-11.8865
▁afterward	-11.8865
▁pacifi	-11.8866
▁debacle	-11.8866
▁senarathn	-11.8866
▁disser	-11.8866
▁spacious	-11.8866
▁confess	-11.8866
▁comedian	-11.8866
▁remainder	-11.8866
▁cartel	-11.8867
▁kobb	-11.8867
▁refill	-11.8867
▁grip	-11.8867
koon	-11.8867
donald	-11.8867
vidia	-11.8868
▁futile	-11.8868
▁modification	-11.8868
▁militariz	-11.8868
▁flourish	-11.8868
▁expend	-11.8868
▁magician	-11.8869
▁salad	-11.8869
intuiti	-11.8871
▁ramada	-11.8871
▁manju	-11.8871
▁lethal	-11.8872
▁emulat	-11.8872
▁serum	-11.8873
▁pierc	-11.8873
▁expedi	-11.8875
▁erect	-11.8876
▁exec	-11.8877
▁somth	-11.8877
▁kelani	-11.8884
▁excis	-11.8887
ocracy	-11.8888
▁flora	-11.889
▁pirit	-11.8898
▁gastr	-11.8899
▁glori	-11.8911
▁dodo	-11.8911
dispens	-11.8944
horu	-11.8946
fensive	-11.8954
▁differentiat	-11.9061
scent	-11.9083
jeewa	-11.9134
ocket	-11.9147
galle	-11.9245
henna	-11.926
ihs	-11.9283
booth	-11.941
flush	-11.9545
qualified	-11.9559
▁dupe	-11.962
ebra	-11.968
▁kalpit	-11.9684
ternity	-11.9687
night	-11.978
deepa	-11.9787
wealth	-11.9791
crime	-11.9792
expensive	-11.9792
avoid	-11.9792
culture	-11.9792
micron	-11.9793
drive	-11.9797
▁reinsta	-11.981
▁incentiv	-11.9821
▁desir	-11.9822
▁welcom	-11.9822
▁medicin	-11.9822
▁ancestr	-11.9834
▁complicate	-11.9848
▁skeptic	-11.985
▁satisfact	-11.9855
▁exhibit	-11.9855
▁bloc	-11.9858
▁homosexual	-11.986
▁procure	-11.9861
▁reproduc	-11.9861
▁subsidi	-11.9861
▁postgrad	-11.9864
▁coincide	-11.9864
▁arpico	-11.9865
▁arrogance	-11.9865
▁aspiration	-11.9865
▁asthma	-11.9865
▁balcony	-11.9865
▁beruwala	-11.9865
▁cholesterol	-11.9865
▁collision	-11.9865
▁congestion	-11.9865
▁congress	-11.9865
▁constituent	-11.9865
▁decriminalis	-11.9865
▁demolish	-11.9865
▁determination	-11.9865
▁dissatisfact	-11.9865
▁eparcel	-11.9865
▁epidemi	-11.9865
▁extrovert	-11.9865
▁filipin	-11.9865
▁gotagohome	-11.9865
▁gunawarden	-11.9865
▁hameedia	-11.9865
▁hindsight	-11.9865
▁imbecile	-11.9865
▁instigat	-11.9865
▁intimidation	-11.9865
▁lincoln	-11.9865
▁misconcept	-11.9865
▁nwsd	-11.9865
▁ordinance	-11.9865
▁ostraciz	-11.9865
▁overhype	-11.9865
▁perplexit	-11.9865
▁precedent	-11.9865
▁primitive	-11.9865
▁propagate	-11.9865
▁reschedule	-11.9865
▁samaraweera	-11.9865
▁scapegoat	-11.9865
▁sensitivity	-11.9865
▁supervisor	-11.9865
▁treadmill	-11.9865
▁underdeveloped	-11.9865
▁vulnerabilit	-11.9865
▁wimaladharma	-11.9865
▁apprehen	-11.9865
▁contender	-11.9865
▁extinct	-11.9865
▁gandhi	-11.9865
▁lunatic	-11.9865
▁shitshow	-11.9865
