<unk>	0
<s>	0
</s>	0
s	-4.33738
▁not	-4.38644
▁'	-4.44868
▁get	-4.80913
▁sri	-4.87409
▁	-4.94557
▁like	-4.99769
▁m	-5.00272
_	-5.05008
▁go	-5.07542
▁people	-5.1577
▁lanka	-5.20413
▁would	-5.25293
▁good	-5.2709
▁know	-5.39497
▁one	-5.48414
▁well	-5.51819
▁do	-5.52193
▁time	-5.56745
▁make	-5.6002
▁even	-5.60968
▁think	-5.61059
e	-5.64513
▁work	-5.6452
▁also	-5.65435
▁country	-5.67378
▁need	-5.69449
▁say	-5.70848
▁use	-5.72341
▁I	-5.72657
▁want	-5.74195
▁year	-5.75071
▁see	-5.75145
▁be	-5.75197
ing	-5.79411
ly	-5.80596
▁take	-5.84876
▁s	-5.88106
▁look	-5.91488
▁day	-5.93271
▁ve	-5.93638
▁thing	-5.94258
y	-5.98518
k	-6.02592
▁come	-6.03655
▁try	-6.04594
▁pay	-6.05313
▁give	-6.06892
▁much	-6.08443
d	-6.11907
er	-6.12269
▁really	-6.12566
▁government	-6.17195
▁way	-6.20204
▁find	-6.20373
▁place	-6.21407
▁2	-6.21919
▁colombo	-6.2395
▁help	-6.23966
▁anyone	-6.24347
▁could	-6.2514
▁thank	-6.25181
▁money	-6.25405
▁we	-6.28162
▁job	-6.30529
▁sl	-6.30952
▁around	-6.31413
▁start	-6.31563
▁back	-6.31733
▁still	-6.32023
▁lankan	-6.33095
▁experience	-6.36099
▁guy	-6.38221
▁ask	-6.38596
▁1	-6.39462
▁right	-6.40263
▁many	-6.41487
r	-6.42196
▁feel	-6.42609
▁will	-6.42851
▁3	-6.43272
▁buy	-6.43363
▁something	-6.44461
▁month	-6.45439
▁company	-6.46275
▁can	-6.4642
▁first	-6.48477
▁lot	-6.49351
▁life	-6.51659
▁new	-6.51776
▁live	-6.52845
▁price	-6.53974
▁post	-6.57403
▁high	-6.57732
▁since	-6.57751
▁issue	-6.58808
▁happen	-6.59587
ed	-6.60341
▁friend	-6.62066
t	-6.62868
▁someone	-6.64294
▁keep	-6.67028
▁long	-6.67454
▁bad	-6.68096
l	-6.68254
b	-6.70211
▁call	-6.70286
▁everyone	-6.70689
▁plan	-6.71019
▁re	-6.72096
▁tell	-6.73746
▁school	-6.73996
▁mean	-6.74519
▁let	-6.75022
▁degree	-6.75314
▁local	-6.75904
▁d	-6.76652
▁car	-6.76854
▁please	-6.77853
▁change	-6.78325
▁sure	-6.78626
▁never	-6.79468
▁etc	-6.80382
face	-6.80783
▁without	-6.81885
▁university	-6.82478
▁student	-6.82609
a	-6.82692
▁tax	-6.82925
▁face	-6.83129
▁might	-6.83357
▁4	-6.84686
▁seem	-6.85069
al	-6.8533
▁bank	-6.85496
▁end	-6.86611
n	-6.86757
▁family	-6.87463
▁travel	-6.87733
▁hear	-6.89124
▁love	-6.89288
▁5	-6.89646
▁business	-6.89717
▁cost	-6.90882
▁anything	-6.91365
▁question	-6.91585
▁man	-6.91672
▁u	-6.93063
▁actually	-6.9384
▁advice	-6.94025
▁point	-6.94291
▁always	-6.95208
▁you	-6.95488
▁every	-6.959
c	-6.9623
▁check	-6.96329
▁leave	-6.96636
▁hard	-6.98051
th	-6.98354
▁tamil	-6.98365
▁visit	-6.9857
▁learn	-6.98658
▁problem	-6.99165
▁two	-6.99441
▁power	-6.99473
▁last	-7.00032
▁hi	-7.01007
▁another	-7.01323
▁old	-7.0162
▁al	-7.02674
▁option	-7.03461
▁vote	-7.03488
▁talk	-7.0357
▁understand	-7.03615
▁big	-7.03649
▁study	-7.03975
▁part	-7.04138
with	-7.04415
▁move	-7.04563
▁system	-7.04586
▁stay	-7.05909
▁service	-7.06585
▁market	-7.0683
▁person	-7.07944
▁10	-7.09682
▁party	-7.09907
i	-7.10441
▁next	-7.1072
▁salary	-7.10844
▁idea	-7.1086
▁parent	-7.11107
▁enough	-7.11149
▁may	-7.11439
▁free	-7.12641
ion	-7.1266
▁maybe	-7.13747
▁reason	-7.13848
▁show	-7.13945
▁consider	-7.14351
p	-7.1578
▁different	-7.16284
▁private	-7.16527
▁already	-7.16543
▁public	-7.1713
▁account	-7.1737
▁home	-7.17463
▁vehicle	-7.17848
▁great	-7.18013
▁support	-7.18164
▁week	-7.18358
▁situation	-7.18548
▁share	-7.18549
▁world	-7.18898
▁yes	-7.1969
▁food	-7.20177
in	-7.20349
▁low	-7.20515
m	-7.20994
▁become	-7.21029
▁put	-7.21119
▁bit	-7.21515
▁that	-7.22124
▁state	-7.24345
▁area	-7.2437
▁online	-7.24419
▁run	-7.25069
▁small	-7.2507
▁stop	-7.25995
▁though	-7.26739
▁everything	-7.26795
▁per	-7.27059
▁base	-7.27096
▁shit	-7.27386
▁g	-7.27469
▁appreciate	-7.27659
▁build	-7.27883
▁kind	-7.28164
▁i	-7.28646
▁real	-7.28659
▁foreign	-7.29221
▁case	-7.29742
▁spend	-7.29981
▁hope	-7.30172
▁india	-7.30211
▁least	-7.30283
▁offer	-7.30301
▁education	-7.30946
on	-7.31158
▁card	-7.31224
▁open	-7.32286
▁pretty	-7.32696
▁house	-7.33063
▁due	-7.33179
▁stuff	-7.3335
▁income	-7.33373
▁able	-7.33544
▁nothing	-7.33845
▁6	-7.33939
▁less	-7.3425
▁current	-7.34878
▁else	-7.35116
▁to	-7.35492
▁number	-7.35729
▁class	-7.36158
▁bring	-7.36387
▁read	-7.36751
or	-7.36941
▁bus	-7.36975
▁far	-7.36996
▁either	-7.37305
▁un	-7.38103
▁sinhala	-7.38169
▁ranil	-7.3829
▁uni	-7.38601
▁lol	-7.38822
st	-7.39335
▁currently	-7.39628
te	-7.39701
▁amount	-7.40013
▁social	-7.40882
▁kid	-7.41019
o	-7.41196
▁especially	-7.41206
g	-7.41221
▁recommend	-7.41854
▁level	-7.41896
▁future	-7.41958
▁care	-7.4266
▁english	-7.42805
▁recently	-7.43083
▁however	-7.43398
ic	-7.43944
▁probably	-7.44006
▁apply	-7.44052
▁follow	-7.44886
▁comment	-7.45047
▁believe	-7.45411
▁side	-7.45499
▁name	-7.45919
h	-7.46291
▁medium	-7.46341
▁rate	-7.46419
able	-7.46448
▁law	-7.46469
▁mention	-7.4659
▁app	-7.46832
▁speak	-7.46955
▁election	-7.47048
▁hand	-7.47094
▁abroad	-7.47152
▁hey	-7.47217
▁sell	-7.47286
▁earn	-7.47522
▁loan	-7.47726
▁book	-7.47749
▁doctor	-7.47971
▁drive	-7.48036
▁thought	-7.48766
▁political	-7.49275
▁other	-7.49721
▁term	-7.49749
▁send	-7.50095
▁police	-7.50319
▁increase	-7.50356
▁similar	-7.50467
f	-7.50838
▁course	-7.50879
▁phone	-7.51081
▁cause	-7.51445
▁war	-7.51636
▁close	-7.51699
▁play	-7.51989
▁lankans	-7.51999
▁land	-7.52182
▁whole	-7.52718
▁economic	-7.5274
▁lose	-7.52741
▁economy	-7.52763
le	-7.52804
▁lkr	-7.52932
▁worth	-7.54121
▁group	-7.5465
▁expect	-7.54724
u	-7.54846
▁possible	-7.54983
▁hour	-7.55152
▁wrong	-7.5518
▁matter	-7.55183
▁watch	-7.55813
▁provide	-7.55971
▁easy	-7.56012
▁away	-7.56329
▁wonder	-7.56653
▁npp	-7.56781
▁20	-7.56849
▁advance	-7.5695
▁woman	-7.57311
▁charge	-7.58005
▁mind	-7.58266
▁little	-7.58439
▁100	-7.58549
▁taxis	-7.58738
▁wait	-7.58979
▁opinion	-7.58989
▁kandy	-7.59041
re	-7.59172
▁instead	-7.59201
▁invest	-7.59434
▁include	-7.5984
▁us	-7.59884
▁president	-7.60188
▁tourist	-7.60272
▁yeah	-7.60622
it	-7.6073
▁past	-7.61133
▁trip	-7.61245
▁order	-7.61346
▁full	-7.61599
ation	-7.61857
▁whether	-7.62591
▁opportunity	-7.62876
▁na	-7.6292
▁a	-7.63038
▁girl	-7.63108
▁import	-7.63283
▁politician	-7.63622
▁ago	-7.63749
▁in	-7.63859
▁project	-7.63921
▁cheap	-7.64057
▁remember	-7.64061
▁datum	-7.64429
▁c	-7.64764
▁policy	-7.64802
▁process	-7.65328
▁personal	-7.6557
▁true	-7.65704
▁today	-7.66096
▁create	-7.66108
▁culture	-7.66703
▁add	-7.66782
▁package	-7.66924
▁night	-7.67033
▁game	-7.67123
▁child	-7.67237
▁field	-7.67323
▁fuck	-7.6746
▁recommendation	-7.67828
▁industry	-7.67995
▁allow	-7.683
▁compare	-7.68461
▁ever	-7.68597
▁payment	-7.68891
an	-7.69084
▁within	-7.6925
▁7	-7.69376
▁fund	-7.69378
▁deal	-7.69498
▁usually	-7.69784
▁budget	-7.69867
▁top	-7.69983
▁save	-7.7007
of	-7.70178
▁quality	-7.7061
▁visa	-7.70822
▁almost	-7.71139
▁yet	-7.71231
▁must	-7.71304
▁hold	-7.71572
▁south	-7.71879
▁driver	-7.71901
▁result	-7.72256
▁second	-7.72337
▁train	-7.72345
▁there	-7.72385
▁choose	-7.72418
▁b	-7.72427
▁30	-7.72582
▁quite	-7.7265
▁agree	-7.72784
▁cut	-7.73421
▁hotel	-7.73654
▁15	-7.7424
▁turn	-7.74497
▁example	-7.74547
▁road	-7.74895
▁research	-7.75118
▁general	-7.75828
▁interest	-7.76711
▁value	-7.76815
▁trust	-7.76901
se	-7.77196
▁answer	-7.77299
en	-7.77551
▁science	-7.77658
▁bro	-7.77768
▁notice	-7.78382
▁early	-7.78455
▁fact	-7.7846
▁international	-7.78622
▁video	-7.78665
▁million	-7.7896
▁product	-7.79512
▁depend	-7.79772
▁story	-7.79811
▁near	-7.80354
▁decide	-7.81366
▁brand	-7.81369
▁investment	-7.81502
▁engineering	-7.81507
▁meet	-7.81742
▁pass	-7.82052
▁x	-7.82101
x	-7.82155
▁exam	-7.82437
▁write	-7.82723
w	-7.83041
▁information	-7.83264
▁suggest	-7.83697
joy	-7.83764
▁suggestion	-7.84131
▁career	-7.84473
▁community	-7.84596
▁lead	-7.84654
▁city	-7.84668
▁beach	-7.84777
▁guess	-7.84779
▁national	-7.84924
▁fine	-7.85017
▁focus	-7.85144
▁couple	-7.85239
▁skill	-7.85375
▁set	-7.85527
ment	-7.85749
▁language	-7.85881
▁return	-7.85887
▁short	-7.86416
▁rather	-7.86717
▁shop	-7.87244
▁head	-7.87343
▁receive	-7.8737
▁chance	-7.87471
▁debt	-7.88217
▁usd	-7.88436
▁break	-7.88716
▁join	-7.89003
▁majority	-7.89018
▁8	-7.89392
▁honestly	-7.89517
▁mostly	-7.9003
▁slt	-7.90179
▁hospital	-7.90286
▁grow	-7.90381
▁main	-7.90452
▁definitely	-7.90517
▁r	-7.90756
ar	-7.90805
▁safe	-7.90975
▁history	-7.92076
▁t	-7.92091
▁nice	-7.92158
▁available	-7.92172
▁type	-7.92191
▁fix	-7.92669
tears	-7.92729
▁rs	-7.93167
▁report	-7.93175
▁dialog	-7.93376
▁soon	-7.93557
▁website	-7.93558
▁young	-7.93582
▁expensive	-7.93659
▁proper	-7.9388
▁software	-7.93969
ity	-7.93969
▁12	-7.94113
▁decision	-7.94259
▁what	-7.94744
▁de	-7.95024
nd	-7.95336
▁age	-7.95409
▁force	-7.95595
▁manage	-7.95989
▁basically	-7.95994
▁fall	-7.96337
▁develop	-7.9634
▁program	-7.96605
▁total	-7.96705
▁gr	-7.96752
z	-7.9691
▁f	-7.96915
▁act	-7.97062
▁unless	-7.97153
▁indian	-7.97423
▁sector	-7.97734
▁decent	-7.97746
▁interested	-7.97902
▁news	-7.97977
▁ella	-7.98048
▁corruption	-7.98102
ive	-7.98109
▁stock	-7.98174
▁single	-7.98263
▁financial	-7.98279
▁relate	-7.98421
▁srilanka	-7.98724
smiling	-7.98905
▁fee	-7.98913
▁health	-7.99082
▁water	-7.99363
▁contact	-7.99412
▁galle	-7.99424
▁scam	-7.99524
▁sometimes	-7.99579
▁50	-7.99693
▁speed	-7.99836
▁rule	-8
▁crisis	-8.0006
▁uk	-8.00535
▁connection	-8.0063
▁politic	-8.00663
▁internet	-8.00699
▁protest	-8.00838
v	-8.00943
▁akd	-8.01012
▁they	-8.01265
▁sound	-8.01334
▁ai	-8.01598
▁credit	-8.01731
▁9	-8.02192
▁date	-8.02316
▁choice	-8.02419
▁sinhalese	-8.02646
▁later	-8.02662
na	-8.02985
▁normal	-8.0309
▁eat	-8.03212
▁complete	-8.03269
▁important	-8.03329
▁middle	-8.03759
▁require	-8.0425
▁position	-8.04325
▁regard	-8.04377
▁detail	-8.04511
▁common	-8.04516
▁tip	-8.04605
▁benefit	-8.04622
▁lack	-8.0474
▁office	-8.04795
▁avoid	-8.05069
▁team	-8.05317
▁ll	-8.05551
▁line	-8.05714
▁teacher	-8.0573
ist	-8.05774
▁list	-8.05863
▁happy	-8.06081
▁word	-8.06376
▁often	-8.06534
▁enjoy	-8.06771
▁cover	-8.06779
▁pro	-8.0683
▁planning	-8.07105
▁sub	-8.07182
ra	-8.07485
▁fuel	-8.07806
▁teach	-8.08106
▁rent	-8.08147
▁minister	-8.08255
▁pm	-8.08303
ent	-8.08424
▁source	-8.08857
▁engineer	-8.08939
▁basic	-8.09057
▁control	-8.09064
▁govt	-8.09308
▁parliament	-8.09394
▁edit	-8.0941
▁certain	-8.09582
▁v	-8.09887
▁legal	-8.09993
ate	-8.10374
▁tech	-8.10441
▁literally	-8.10498
1	-8.10825
▁subject	-8.1103
▁late	-8.11065
▁huge	-8.11086
▁personally	-8.11103
▁wan	-8.11208
▁claim	-8.11306
▁reach	-8.11444
▁reduce	-8.11661
▁knowledge	-8.119
up	-8.12098
▁miss	-8.12338
▁bill	-8.12435
▁hello	-8.12496
▁step	-8.12532
▁medical	-8.12867
▁update	-8.12984
▁link	-8.12985
▁china	-8.1335
▁security	-8.13359
▁large	-8.13412
▁reddit	-8.13529
ri	-8.13649
at	-8.13861
▁red	-8.1393
▁google	-8.13958
▁drop	-8.14004
▁25	-8.14152
▁clear	-8.14256
the	-8.14973
▁finance	-8.15002
▁poor	-8.15044
▁stand	-8.15935
▁outside	-8.16012
▁view	-8.16108
▁super	-8.16185
▁waste	-8.16215
▁whatever	-8.16325
ce	-8.16379
▁he	-8.16483
▁customer	-8.166
▁sort	-8.16612
▁non	-8.16747
▁struggle	-8.17064
▁expense	-8.17317
▁fail	-8.17563
▁sense	-8.17598
ize	-8.17747
▁individual	-8.17824
▁exactly	-8.17827
▁human	-8.1783
▁treat	-8.17913
▁rupee	-8.18079
▁religion	-8.18089
um	-8.18148
ne	-8.1825
▁sorry	-8.18334
200	-8.18543
▁improve	-8.18551
▁airport	-8.18594
▁hate	-8.18797
▁p	-8.18889
▁imf	-8.19243
▁continue	-8.19274
▁major	-8.19455
▁court	-8.19491
▁e	-8.1955
▁item	-8.19754
ma	-8.20044
▁towards	-8.20348
▁all	-8.20387
▁hit	-8.20632
▁paper	-8.20657
▁purchase	-8.20792
▁explain	-8.20923
▁trade	-8.20929
▁site	-8.20985
▁period	-8.21054
▁accept	-8.21113
▁ltte	-8.21186
▁self	-8.21338
▁jvp	-8.21347
▁test	-8.21601
▁cash	-8.2173
2	-8.21812
ur	-8.21919
▁dollar	-8.21978
▁demand	-8.21996
▁walk	-8.22247
▁employee	-8.22247
▁pick	-8.2229
▁19	-8.22351
▁action	-8.22354
▁risk	-8.22393
▁rest	-8.22401
▁interview	-8.2251
▁average	-8.22643
▁fast	-8.22656
▁strong	-8.22743
▁transfer	-8.23044
▁win	-8.23099
▁official	-8.2328
▁rich	-8.23484
▁graduate	-8.23581
▁getting	-8.23642
co	-8.2385
▁light	-8.24164
▁master	-8.24263
us	-8.24289
▁completely	-8.24628
▁specific	-8.24717
▁affect	-8.24801
▁concern	-8.24937
▁forget	-8.25074
▁internship	-8.25215
▁professional	-8.25555
▁figure	-8.25622
▁society	-8.25622
3	-8.25802
▁standard	-8.2591
▁k	-8.26015
▁solution	-8.26173
▁via	-8.26463
▁nation	-8.26517
is	-8.26623
▁entire	-8.26705
▁path	-8.26999
▁alone	-8.27312
▁math	-8.27451
▁luck	-8.27464
▁form	-8.27479
▁afford	-8.27648
▁moment	-8.27712
▁model	-8.27907
▁wish	-8.28007
▁leader	-8.28031
▁ol	-8.28044
▁hire	-8.28309
▁event	-8.28309
▁tea	-8.28364
▁clean	-8.28551
▁australia	-8.28602
▁store	-8.28743
▁forward	-8.2912
▁actual	-8.2954
▁curious	-8.29547
hand	-8.29688
▁hop	-8.29782
▁handle	-8.29815
▁together	-8.29833
▁development	-8.30043
▁exist	-8.30134
▁white	-8.30145
▁who	-8.30305
▁have	-8.30434
▁sit	-8.30591
▁citizen	-8.30688
▁island	-8.30696
▁difference	-8.30698
▁across	-8.30699
▁message	-8.30859
▁attack	-8.30987
▁op	-8.31432
▁tuk	-8.31575
▁mother	-8.32061
▁management	-8.32356
am	-8.32472
▁difficult	-8.32641
▁fair	-8.32747
ry	-8.33186
▁extra	-8.33326
▁behind	-8.33335
▁role	-8.33656
▁select	-8.34001
▁note	-8.34097
▁laptop	-8.3423
▁candidate	-8.34379
▁okay	-8.34385
▁plus	-8.34582
ant	-8.34598
▁kinda	-8.34711
j	-8.34729
▁mobile	-8.3488
de	-8.34974
▁n	-8.35036
▁ur	-8.3507
▁corrupt	-8.35085
ch	-8.35271
▁absolutely	-8.35391
▁member	-8.35578
▁accord	-8.35581
▁spot	-8.35914
▁transport	-8.36301
▁air	-8.36477
▁three	-8.36504
▁practice	-8.36657
▁room	-8.3672
▁kill	-8.36824
▁anyway	-8.36885
▁relationship	-8.36965
▁currency	-8.37127
▁blame	-8.37584
▁dude	-8.37613
ha	-8.37722
less	-8.37917
▁cricket	-8.38047
▁info	-8.38106
▁network	-8.38205
▁gota	-8.38222
▁movie	-8.38358
▁half	-8.38508
▁h	-8.38881
▁generation	-8.39082
▁along	-8.39155
▁simply	-8.39172
▁medicine	-8.393
▁ps	-8.39348
rd	-8.39357
▁sajith	-8.39615
▁pre	-8.39767
la	-8.39781
▁previous	-8.39949
▁l	-8.40075
▁limit	-8.40101
▁gain	-8.40109
▁foreigner	-8.40592
▁access	-8.40594
▁design	-8.40831
▁wife	-8.40891
▁daily	-8.40891
▁fun	-8.41206
▁worry	-8.41209
▁brother	-8.41377
▁23	-8.4149
▁fight	-8.41537
▁finally	-8.41607
▁con	-8.41724
▁thinking	-8.41987
lo	-8.42011
▁simple	-8.42187
▁despi	-8.42343
▁reply	-8.42395
ness	-8.42589
age	-8.4296
▁title	-8.42992
▁ticket	-8.43157
▁stick	-8.43429
▁covid	-8.43484
▁directly	-8.43692
▁music	-8.43803
▁hell	-8.4387
▁civil	-8.44008
▁remove	-8.44063
▁insight	-8.44309
▁tourism	-8.4432
▁range	-8.44524
▁bear	-8.44598
et	-8.44619
▁beautiful	-8.44807
il	-8.45098
▁easily	-8.45141
▁involve	-8.45269
▁gb	-8.45341
▁prefer	-8.4546
▁recent	-8.45537
ge	-8.45611
un	-8.45674
▁platform	-8.45811
▁respect	-8.45849
▁port	-8.46118
▁inflation	-8.46148
▁stream	-8.46222
▁search	-8.46317
▁western	-8.46512
▁40	-8.46557
▁document	-8.46586
▁18	-8.46728
▁raise	-8.46841
▁restaurant	-8.46842
▁weather	-8.46996
▁monthly	-8.47034
im	-8.4708
▁stupid	-8.4713
▁address	-8.47166
▁custom	-8.47201
ta	-8.47441
▁insurance	-8.47508
▁unfortunately	-8.47549
▁sign	-8.47596
ise	-8.47599
li	-8.48113
▁explore	-8.48194
▁assume	-8.48195
ia	-8.48257
▁wear	-8.4827
▁migrate	-8.4837
crying	-8.48573
▁muslim	-8.48574
ary	-8.48646
▁willing	-8.48658
▁location	-8.48713
▁register	-8.489
▁north	-8.49059
▁crime	-8.49251
▁ill	-8.49253
inning	-8.49604
▁condition	-8.49713
▁potential	-8.49758
න	-8.49812
▁multiple	-8.49934
ish	-8.49966
▁likely	-8.50182
▁switch	-8.50306
ie	-8.50386
▁2025	-8.50636
▁worker	-8.50704
▁maintain	-8.5082
▁living	-8.5083
▁gov	-8.51037
▁sport	-8.51053
▁army	-8.51286
▁review	-8.51534
▁complain	-8.51559
▁park	-8.51635
▁dad	-8.51729
▁suffer	-8.51879
▁resource	-8.51885
▁decade	-8.51886
id	-8.51981
▁correct	-8.52049
▁push	-8.52061
▁military	-8.52079
▁ban	-8.52198
▁loudly	-8.52343
▁uber	-8.52598
el	-8.52673
▁connect	-8.52696
▁license	-8.52777
man	-8.52816
▁realize	-8.52905
▁father	-8.52959
▁honest	-8.53021
▁w	-8.53141
▁till	-8.53203
▁helpful	-8.53304
▁oh	-8.53326
▁promise	-8.53347
▁bike	-8.53392
ti	-8.53584
▁traffic	-8.53683
▁youtube	-8.53702
▁eye	-8.53756
▁ok	-8.54074
▁passport	-8.5408
▁anymore	-8.5423
▁morning	-8.5423
▁temple	-8.54235
▁minimum	-8.54413
▁computer	-8.54439
▁mom	-8.5446
▁remain	-8.54597
▁canada	-8.54644
20	-8.54745
▁match	-8.54834
and	-8.54877
▁digital	-8.55173
▁hair	-8.55416
do	-8.55509
▁die	-8.55789
▁seat	-8.55816
▁partner	-8.55913
to	-8.55929
▁mess	-8.56123
▁tv	-8.56521
▁letter	-8.56551
▁dm	-8.56995
▁protect	-8.5712
▁saving	-8.57204
ul	-8.57215
▁sad	-8.57341
be	-8.57398
▁staff	-8.57415
▁facebook	-8.57427
ya	-8.57463
▁highly	-8.5752
▁severa	-8.57555
▁singapore	-8.57579
▁cuz	-8.57579
▁cool	-8.57785
▁somewhere	-8.57958
▁ppl	-8.57959
▁serious	-8.58038
▁senior	-8.58148
▁reliable	-8.58161
▁space	-8.58184
▁station	-8.58215
▁channel	-8.58339
▁jaffna	-8.58339
▁enter	-8.58373
▁profit	-8.58677
▁physical	-8.58995
▁suppose	-8.59075
▁owner	-8.59821
▁balance	-8.59969
▁aware	-8.60056
as	-8.60427
▁catch	-8.60471
▁fit	-8.60577
▁manager	-8.60612
▁email	-8.61044
▁idk	-8.61118
▁extremely	-8.61157
▁request	-8.6124
▁officer	-8.61332
▁lie	-8.61438
▁buddhist	-8.61469
▁global	-8.61529
▁11	-8.61544
▁inside	-8.61647
▁truly	-8.61831
nt	-8.61879
ot	-8.62002
▁remote	-8.62029
▁properly	-8.62227
▁rain	-8.62391
▁finish	-8.62429
ve	-8.62483
ism	-8.62596
▁crazy	-8.62823
▁central	-8.62823
▁dream	-8.62823
▁property	-8.62854
▁unit	-8.62896
▁se	-8.62978
4	-8.63083
▁reality	-8.6316
▁environment	-8.63194
▁btw	-8.63223
tone	-8.6332
▁special	-8.63425
▁marry	-8.63434
5	-8.6344
▁obviously	-8.63561
▁fake	-8.63637
▁street	-8.63658
▁folk	-8.63831
▁begin	-8.64046
▁amazing	-8.64229
▁16	-8.64421
▁unlimited	-8.64431
▁activity	-8.64641
he	-8.64645
▁particular	-8.64837
▁mainly	-8.64859
▁content	-8.64871
▁dog	-8.64981
▁lawyer	-8.65043
▁am	-8.65069
▁minute	-8.65085
▁ride	-8.65398
▁otherwise	-8.65461
▁200	-8.65484
▁boy	-8.65588
▁router	-8.65617
▁final	-8.662
▁population	-8.66273
▁fully	-8.66273
▁clearly	-8.66364
▁pr	-8.66402
▁alternative	-8.66482
▁block	-8.66497
▁slow	-8.66507
▁imagine	-8.66528
▁grade	-8.66582
▁bar	-8.66589
▁gold	-8.66668
▁east	-8.66675
▁background	-8.66685
▁listen	-8.66763
▁art	-8.66943
▁qualification	-8.67101
▁educate	-8.67142
▁among	-8.67249
▁sigiriya	-8.67335
▁route	-8.67348
heart	-8.67352
ro	-8.67448
▁arrive	-8.67518
▁exchange	-8.67536
▁ad	-8.67619
▁fire	-8.67887
▁interesting	-8.68047
▁carry	-8.68102
▁certificate	-8.68147
▁marriage	-8.68177
▁topic	-8.6834
▁college	-8.68357
▁context	-8.68357
▁key	-8.68657
▁user	-8.68728
▁black	-8.68781
▁except	-8.6891
▁effort	-8.69204
skin	-8.69224
▁code	-8.69308
▁record	-8.69325
▁z	-8.69414
▁technology	-8.69417
ful	-8.69446
▁mental	-8.69509
▁seriously	-8.6954
sa	-8.69617
▁religious	-8.69687
▁tho	-8.69954
▁god	-8.69998
▁welcome	-8.70058
▁department	-8.70061
me	-8.70494
▁ex	-8.70547
▁file	-8.70564
▁unp	-8.7066
▁overseas	-8.70705
light	-8.70925
▁imo	-8.71213
di	-8.71301
no	-8.71335
▁mine	-8.71336
▁ass	-8.71342
▁cultural	-8.71403
▁13	-8.71536
▁doubt	-8.71805
▁front	-8.71868
▁smart	-8.72005
ter	-8.72295
▁mark	-8.72332
▁chinese	-8.72444
▁goal	-8.7247
▁genuinely	-8.72473
▁vs	-8.7259
▁fill	-8.72706
▁club	-8.72707
▁mid	-8.72827
▁body	-8.72887
▁damn	-8.73126
▁page	-8.73217
sh	-8.73278
▁fly	-8.73307
▁ac	-8.73308
▁growth	-8.73366
▁sliit	-8.73548
▁gym	-8.73549
▁24	-8.73685
▁brain	-8.7378
▁implement	-8.74166
▁fan	-8.74343
▁seek	-8.74365
da	-8.74528
▁incident	-8.74664
ine	-8.74706
▁startup	-8.74782
▁track	-8.74857
▁guide	-8.75102
▁method	-8.75114
▁ha	-8.75224
▁deep	-8.7527
▁sjb	-8.75566
▁apartment	-8.75594
pa	-8.75955
▁institution	-8.7602
▁itinerary	-8.7602
▁straight	-8.7602
▁sale	-8.76157
▁illegal	-8.76173
▁contract	-8.76187
▁rajapaksa	-8.76233
▁fellow	-8.76248
▁po	-8.76287
▁modern	-8.76707
▁electricity	-8.76719
▁60	-8.76927
▁arrest	-8.76934
▁photo	-8.76934
▁eliya	-8.76944
▁apparently	-8.7696
out	-8.77038
▁14	-8.77136
▁popular	-8.77145
▁export	-8.77181
▁elect	-8.77313
▁eventually	-8.77394
▁st	-8.77428
▁relative	-8.77788
▁cs	-8.77864
▁safety	-8.77894
▁truth	-8.78089
▁ch	-8.78216
▁mistake	-8.78217
▁wedding	-8.78321
▁nuwara	-8.78589
▁usa	-8.78667
▁80	-8.78726
▁o	-8.78817
▁j	-8.78876
▁billion	-8.78974
▁anywhere	-8.79022
▁overall	-8.79028
▁hide	-8.79167
▁although	-8.79269
▁2022	-8.7932
▁prove	-8.794
▁attend	-8.79477
▁picture	-8.79492
▁release	-8.79492
▁impact	-8.79494
▁oil	-8.79699
vi	-8.79762
▁article	-8.79964
▁everywhere	-8.79972
▁reform	-8.79988
ty	-8.8011
▁direct	-8.80126
▁heart	-8.80167
▁tend	-8.80174
▁ignore	-8.80201
ol	-8.80211
▁response	-8.80439
▁academic	-8.8047
▁2024	-8.80519
▁active	-8.80542
▁srilankan	-8.80767
▁application	-8.80916
▁deposit	-8.80927
▁elephant	-8.81155
sweat	-8.81159
▁pressure	-8.81161
▁joke	-8.81219
7	-8.81245
ance	-8.81279
▁drink	-8.81331
▁solid	-8.81397
▁mahinda	-8.81406
▁death	-8.81416
wa	-8.81529
▁building	-8.81597
▁battery	-8.81636
▁pursue	-8.81664
▁solve	-8.81889
tu	-8.82333
6	-8.82472
▁subreddit	-8.82602
▁repair	-8.82604
▁it	-8.82838
ian	-8.82864
▁present	-8.83041
▁achieve	-8.83051
▁anti	-8.83062
▁board	-8.83069
▁energy	-8.8309
▁ground	-8.83099
▁asia	-8.83463
▁complaint	-8.83774
▁significant	-8.83797
▁90	-8.83821
▁requirement	-8.83911
tic	-8.83994
▁flight	-8.84111
▁collect	-8.84205
▁west	-8.84241
▁throw	-8.84321
▁pickme	-8.84349
▁rise	-8.84376
▁discuss	-8.84733
▁settle	-8.84775
▁ra	-8.84811
▁double	-8.85063
▁opposition	-8.85065
min	-8.85297
▁challenge	-8.85312
▁comfortable	-8.85336
▁no	-8.85675
▁hopefully	-8.85868
ous	-8.85983
▁stress	-8.86039
ally	-8.8614
▁sleep	-8.86316
▁original	-8.86317
▁dumb	-8.86327
▁purpose	-8.86337
op	-8.86369
▁serve	-8.86409
▁massive	-8.86801
▁mirissa	-8.86842
mo	-8.86845
▁co	-8.86875
▁steal	-8.87077
▁folde	-8.87181
▁union	-8.87221
▁necessary	-8.8733
▁positive	-8.8733
▁generally	-8.87481
▁stable	-8.87659
▁mp	-8.87765
▁target	-8.87841
▁mindset	-8.87842
▁tour	-8.87909
▁500	-8.8791
▁wise	-8.88052
▁random	-8.88052
▁loss	-8.88109
▁progress	-8.88199
▁over	-8.88321
ara	-8.88374
we	-8.88393
50	-8.88421
▁female	-8.88612
▁luxury	-8.88612
▁peace	-8.8911
▁print	-8.89219
30	-8.89346
▁ya	-8.89364
▁promote	-8.89389
▁freedom	-8.89389
▁town	-8.89401
▁nobody	-8.89649
▁british	-8.89652
▁nature	-8.89653
▁mate	-8.89758
▁ship	-8.89855
▁patient	-8.89911
▁reserve	-8.89922
▁fear	-8.90189
▁delivery	-8.9042
▁download	-8.90436
▁refuse	-8.90698
▁deliver	-8.90737
▁specially	-8.90829
▁la	-8.90854
▁traditional	-8.90866
▁drug	-8.91192
▁institute	-8.91226
▁bunch	-8.91236
▁authority	-8.91236
ee	-8.91272
▁inform	-8.91449
▁genuine	-8.91457
▁client	-8.91492
▁capital	-8.91502
▁rag	-8.91638
▁commission	-8.91758
▁specifically	-8.91786
▁count	-8.92024
▁approach	-8.92024
▁atleast	-8.92024
▁wage	-8.92157
▁advise	-8.92292
▁healthcare	-8.92297
▁third	-8.92303
▁rid	-8.92405
est	-8.92532
ga	-8.92556
▁pull	-8.92569
▁300	-8.9258
▁tbh	-8.92583
▁idiot	-8.92711
▁copy	-8.92736
▁cook	-8.9284
▁regardless	-8.92884
▁min	-8.92948
▁mr	-8.93003
▁commit	-8.93104
▁natural	-8.93368
▁supply	-8.93368
tha	-8.93403
▁2019	-8.93406
▁none	-8.93513
▁green	-8.9364
▁influence	-8.93734
▁factor	-8.93861
▁zero	-8.93911
▁intern	-8.93963
▁marketing	-8.93968
▁ready	-8.94018
▁web	-8.9405
▁perfect	-8.94155
ba	-8.94246
▁foundation	-8.94462
▁discussion	-8.94546
▁vi	-8.9461
▁rw	-8.94923
▁adult	-8.95006
▁vibe	-8.95026
▁asset	-8.95032
▁17	-8.95145
▁gen	-8.95221
▁justice	-8.95281
iya	-8.95305
▁prepare	-8.95307
▁eg	-8.95471
8	-8.95492
▁facility	-8.95557
go	-8.95617
▁ka	-8.95763
▁blood	-8.95834
▁racist	-8.95834
floor	-8.95954
▁deserve	-8.96115
▁chill	-8.96139
▁slightly	-8.9619
▁dr	-8.96223
▁beyond	-8.96391
▁pc	-8.96413
▁hike	-8.96614
▁replace	-8.96655
ster	-8.96732
▁conversation	-8.97244
▁rolling	-8.97257
▁campus	-8.97258
▁trouble	-8.97268
▁statement	-8.97731
▁confirm	-8.97746
▁quick	-8.97778
▁voter	-8.97794
▁july	-8.97886
▁coast	-8.98258
com	-8.98337
line	-8.98363
▁scholarship	-8.98363
▁touch	-8.98373
▁minority	-8.98377
▁ruin	-8.98673
▁own	-8.98693
ana	-8.98717
ad	-8.98743
▁barely	-8.98769
▁asian	-8.98784
▁weird	-8.98935
▁hat	-8.99068
▁friendly	-8.99176
ure	-8.99186
▁spread	-8.99222
▁heavy	-8.99507
▁technical	-8.99508
▁abuse	-8.9952
va	-8.99651
▁negative	-8.99795
▁responsibility	-8.99795
▁tuition	-8.99795
▁race	-8.99832
▁21	-8.99871
▁produce	-9.00112
▁perspective	-9.00374
▁version	-9.00374
ru	-9.0054
▁dis	-9.00565
▁plenty	-9.00665
▁anura	-9.00668
▁namal	-9.00684
▁burn	-9.00723
▁star	-9.00983
▁employer	-9.01085
▁1000	-9.01163
▁survive	-9.01249
▁up	-9.01489
▁campaign	-9.01542
▁infrastructure	-9.01542
▁yesterday	-9.01542
▁cancel	-9.01543
▁tough	-9.01557
▁sim	-9.01558
▁status	-9.01558
▁affordable	-9.01661
▁ar	-9.01706
▁revenue	-9.01836
▁exact	-9.01838
▁_	-9.02097
▁season	-9.02178
▁gas	-9.02585
▁europe	-9.02701
▁km	-9.02771
pe	-9.02803
▁rank	-9.02874
▁prime	-9.03021
▁sex	-9.031
▁center	-9.03146
▁0	-9.03306
▁mass	-9.03312
▁ahead	-9.03336
▁score	-9.03426
▁suck	-9.03491
▁meal	-9.03642
▁reasonable	-9.037
▁35	-9.03766
▁effect	-9.03886
▁independent	-9.03919
▁prevent	-9.0392
▁shift	-9.03921
▁agent	-9.03992
▁pure	-9.04124
ever	-9.0417
▁trend	-9.04221
▁attention	-9.04221
eyes	-9.0446
▁commercial	-9.04523
▁somehow	-9.04523
▁rice	-9.04613
10	-9.04641
▁apart	-9.0479
▁strike	-9.04827
▁secure	-9.05133
▁bc	-9.05227
▁emergency	-9.05435
▁violence	-9.05435
om	-9.05461
mi	-9.05718
▁crypto	-9.05732
▁attempt	-9.0574
▁separate	-9.05745
▁legit	-9.05767
▁milk	-9.05768
▁70	-9.05877
▁45	-9.06024
▁anybody	-9.06047
ard	-9.06052
hi	-9.06301
▁ceylon	-9.06351
▁thread	-9.06356
▁em	-9.0639
▁flag	-9.06553
▁regular	-9.06672
▁faculty	-9.06973
▁advantage	-9.06973
▁physics	-9.06974
oo	-9.07164
▁performance	-9.07296
▁immediately	-9.07406
▁150	-9.07532
▁iit	-9.07585
▁japan	-9.07593
over	-9.07651
os	-9.07843
▁rock	-9.07901
▁corporate	-9.07913
▁practical	-9.0792
▁negombo	-9.0794
▁weekend	-9.07961
lk	-9.08054
▁crowd	-9.08084
back	-9.08392
▁ne	-9.08457
▁transaction	-9.08536
▁useless	-9.08568
▁dead	-9.08623
▁2000	-9.08646
▁ro	-9.08731
q	-9.08741
▁entry	-9.08859
▁usual	-9.08893
▁baby	-9.09173
▁image	-9.09177
▁warranty	-9.09192
ni	-9.09199
▁stage	-9.09233
ම	-9.09324
▁scene	-9.09486
▁feedback	-9.09496
▁king	-9.09585
si	-9.09612
▁out	-9.09777
▁delay	-9.09806
▁male	-9.10191
▁going	-9.10396
▁holiday	-9.10443
▁introduce	-9.10443
▁trading	-9.10444
▁skin	-9.10559
▁mon	-9.1059
▁cross	-9.1068
▁electronic	-9.10789
sp	-9.10904
▁sa	-9.1104
▁material	-9.11088
▁convert	-9.11094
av	-9.11252
▁valid	-9.11332
▁august	-9.11411
▁device	-9.11421
▁employment	-9.11437
▁piece	-9.11457
▁treatment	-9.1151
▁fb	-9.11537
▁foot	-9.11724
per	-9.11725
▁discipline	-9.11736
▁district	-9.11736
▁racism	-9.11736
▁responsible	-9.11736
▁talent	-9.1174
▁2023	-9.11755
▁lease	-9.12065
▁duty	-9.1207
▁bond	-9.12088
▁contribute	-9.12134
▁ho	-9.12137
ut	-9.1218
tion	-9.12381
▁damage	-9.12394
▁player	-9.12488
▁mil	-9.12634
▁glad	-9.12717
▁wifi	-9.12719
ක	-9.12799
▁proof	-9.12848
▁former	-9.12901
▁fresh	-9.13159
▁wealth	-9.1319
▁hr	-9.13372
▁hang	-9.13394
▁tuktuk	-9.134
▁presidential	-9.1342
▁region	-9.13421
▁greatly	-9.13509
ah	-9.1355
▁training	-9.13623
▁democracy	-9.13706
▁hence	-9.13734
▁expert	-9.14017
▁firm	-9.14039
▁peak	-9.14164
▁mobitel	-9.14372
ap	-9.14745
▁moratuwa	-9.15042
▁feature	-9.15043
▁slpp	-9.15132
▁feed	-9.15141
▁useful	-9.15298
▁investor	-9.1534
▁ba	-9.1537
▁december	-9.15379
▁permit	-9.15379
but	-9.1538
▁hurt	-9.15382
▁fr	-9.15499
ke	-9.15522
▁american	-9.15526
▁evidence	-9.15716
0000	-9.16023
▁size	-9.16055
▁bachelor	-9.16055
▁unique	-9.16107
▁hot	-9.16242
▁limited	-9.16348
▁toxic	-9.16396
▁surf	-9.16396
▁ethnic	-9.16422
bo	-9.16598
so	-9.16736
▁competition	-9.16737
▁refer	-9.1683
▁shy	-9.16973
▁banking	-9.17051
▁fiber	-9.1708
ling	-9.1713
▁reject	-9.17341
▁fault	-9.17423
▁she	-9.17467
▁recover	-9.17524
▁song	-9.17571
arious	-9.17757
▁husband	-9.17768
▁lmao	-9.17768
▁whatsapp	-9.17768
ho	-9.17799
▁rajapaksha	-9.18114
ting	-9.18162
▁sh	-9.1845
▁lk	-9.18866
▁ක	-9.18903
▁pa	-9.19285
po	-9.19308
▁22	-9.19554
▁era	-9.20255
ath	-9.20321
▁rant	-9.20413
▁cse	-9.20509
ization	-9.20552
▁broker	-9.20567
▁journey	-9.2057
▁agency	-9.20572
ect	-9.20731
medium	-9.20927
▁yala	-9.20957
▁diploma	-9.21255
▁success	-9.21264
▁taste	-9.21325
▁bio	-9.21341
tear	-9.21623
▁aim	-9.21626
▁repeat	-9.21641
▁conflict	-9.21642
▁approve	-9.21684
▁son	-9.217
▁sun	-9.21878
▁an	-9.21933
▁coz	-9.21987
▁text	-9.21995
laughe	-9.22001
▁regret	-9.22001
▁september	-9.22001
▁rural	-9.22001
mbps	-9.22009
▁chat	-9.22107
▁spending	-9.22261
ki	-9.22297
▁machine	-9.22362
▁youth	-9.22496
▁tia	-9.2254
▁april	-9.22725
▁ensure	-9.22725
▁whenev	-9.22729
▁essential	-9.22787
▁scale	-9.22823
▁cafe	-9.22838
ily	-9.22902
▁ab	-9.22907
land	-9.23056
▁pain	-9.23076
▁tomorrow	-9.23088
▁jump	-9.23091
level	-9.23091
▁june	-9.23139
ang	-9.23241
if	-9.23298
lu	-9.23399
▁apple	-9.234
▁establish	-9.23781
▁ministry	-9.23819
▁section	-9.23823
oc	-9.23854
ala	-9.23858
ph	-9.23861
▁solo	-9.23936
▁alot	-9.23981
▁financially	-9.2414
▁petrol	-9.24187
▁estate	-9.24193
▁communication	-9.24222
▁working	-9.24399
▁relax	-9.24419
▁executive	-9.24556
▁submit	-9.24556
▁immigration	-9.24559
▁cv	-9.24724
▁indians	-9.24797
▁beat	-9.24808
ca	-9.24867
▁operate	-9.24927
▁primar	-9.24929
mp	-9.25296
▁animal	-9.25298
▁bag	-9.25525
▁style	-9.2581
▁ko	-9.2587
cy	-9.25999
ile	-9.26038
▁here	-9.26206
mil	-9.26213
▁bs	-9.26287
▁criminal	-9.26312
▁cat	-9.26398
19	-9.26623
han	-9.26676
▁discount	-9.26799
▁impossible	-9.26799
▁somewhat	-9.268
▁developer	-9.26845
day	-9.26958
▁mad	-9.27001
▁concept	-9.27178
▁scheme	-9.27178
▁byd	-9.27182
▁therefor	-9.27217
▁ict	-9.27262
▁additional	-9.27323
▁load	-9.274
ass	-9.27516
▁encourage	-9.27558
▁twice	-9.27558
▁gift	-9.27558
▁lady	-9.27569
ip	-9.27623
▁cop	-9.27676
▁pack	-9.27871
▁shitty	-9.28057
▁arm	-9.28093
ship	-9.28205
▁coconut	-9.28323
▁cycle	-9.28323
▁vaccine	-9.28323
▁iphone	-9.28339
▁tool	-9.28426
▁perform	-9.28426
▁village	-9.28536
ci	-9.28581
▁judge	-9.28672
▁relevant	-9.28708
▁shoe	-9.28709
▁sister	-9.28717
▁bother	-9.28724
▁priority	-9.28737
▁buddhism	-9.29094
▁annual	-9.29094
▁camera	-9.29107
▁structure	-9.29126
▁successful	-9.29198
▁fort	-9.2922
▁lecture	-9.29316
▁monk	-9.29409
▁monitor	-9.29481
▁trump	-9.29481
▁victim	-9.29481
▁organization	-9.29482
▁obtain	-9.29483
mark	-9.29503
▁data	-9.29557
▁freelance	-9.2958
og	-9.29736
▁dress	-9.29881
▁european	-9.29962
▁feeling	-9.30162
▁appoint	-9.30225
▁associate	-9.30261
▁door	-9.30412
▁bay	-9.30413
▁meeting	-9.30423
▁nic	-9.30471
ug	-9.30481
▁mix	-9.30519
▁divide	-9.30617
▁host	-9.30712
▁express	-9.30963
▁voice	-9.31047
▁lifestyle	-9.31077
▁consumer	-9.31124
ama	-9.31186
▁sea	-9.31194
ill	-9.31315
▁airline	-9.31346
ac	-9.31412
▁worried	-9.31442
▁shortage	-9.31535
▁bi	-9.31668
▁ideal	-9.31794
hands	-9.31829
▁aspect	-9.31839
▁church	-9.31839
▁destroy	-9.31839
▁tariff	-9.31839
▁refund	-9.3184
▁sick	-9.31849
▁march	-9.31864
▁fish	-9.31931
fe	-9.31984
▁branch	-9.32237
▁guarantee	-9.32238
▁competitive	-9.32262
▁34	-9.32274
▁26	-9.32342
▁dec	-9.32349
▁peaceful	-9.32361
▁sp	-9.32454
▁ton	-9.32455
▁false	-9.32638
▁bullshit	-9.32638
▁rely	-9.32674
▁four	-9.32696
▁cry	-9.32738
▁meme	-9.32773
▁healthy	-9.32781
▁yo	-9.32956
▁motor	-9.33043
▁under	-9.33057
ka	-9.33144
▁shame	-9.33229
▁november	-9.33442
▁phd	-9.33543
use	-9.3359
bu	-9.33779
▁drama	-9.33862
▁appointment	-9.33887
▁realise	-9.34014
ite	-9.34032
▁agreement	-9.34041
▁distance	-9.34302
▁construction	-9.3431
ab	-9.3439
▁fo	-9.3454
▁br	-9.34556
▁toyota	-9.34662
▁quickly	-9.34688
▁ability	-9.34732
▁clothe	-9.3475
▁lesson	-9.34751
▁mod	-9.35055
▁bottle	-9.35072
▁complex	-9.35072
▁batch	-9.35087
▁october	-9.35106
▁root	-9.35127
▁murder	-9.35263
▁israel	-9.35273
ice	-9.35385
▁represent	-9.35428
▁guidance	-9.35483
▁japanese	-9.35488
▁independence	-9.35535
ash	-9.35547
cc	-9.35602
▁dark	-9.3573
sl	-9.35815
▁argue	-9.35896
▁measure	-9.35896
▁queue	-9.35896
▁regulation	-9.35896
▁preferably	-9.35915
▁ni	-9.35969
▁everyday	-9.36002
ig	-9.36019
▁attitude	-9.36311
▁cinema	-9.36311
▁innocent	-9.36311
▁dinner	-9.36311
▁funny	-9.36322
▁citizenship	-9.36338
▁upgrade	-9.36346
▁pe	-9.36455
cl	-9.36481
▁confused	-9.36484
▁supporter	-9.36572
▁ig	-9.36641
time	-9.36681
▁window	-9.36732
▁pls	-9.36734
▁valuable	-9.36738
▁transportation	-9.36863
▁task	-9.37008
pro	-9.37046
ng	-9.37121
▁perhaps	-9.37146
▁schedule	-9.37146
▁girlfriend	-9.37154
▁ball	-9.37446
▁gun	-9.37456
▁counter	-9.3749
▁aliexpress	-9.37567
▁strategy	-9.37567
▁shoot	-9.37734
▁lately	-9.37791
▁sexual	-9.37961
▁fibre	-9.37988
▁province	-9.37988
▁registration	-9.37988
▁proud	-9.37989
▁upon	-9.38087
▁table	-9.38094
▁absolute	-9.38111
▁busy	-9.38149
▁slowly	-9.38181
▁heavily	-9.38412
▁instagram	-9.38412
▁recognize	-9.38412
▁skip	-9.38414
▁shipping	-9.3842
▁lo	-9.38519
15	-9.38599
▁remind	-9.3862
▁buying	-9.3864
ial	-9.38701
▁ideally	-9.38739
▁passion	-9.3877
ran	-9.38812
▁climate	-9.38838
▁january	-9.38838
▁blind	-9.38838
▁operation	-9.38838
▁gender	-9.38842
▁centre	-9.38879
ct	-9.38899
▁sadly	-9.39094
▁bsc	-9.3917
▁rental	-9.39225
▁chemistry	-9.39265
▁identify	-9.39265
▁terrible	-9.39265
▁kick	-9.39266
▁2015	-9.39317
bi	-9.39693
▁reflect	-9.39694
▁session	-9.39694
▁insane	-9.39822
500	-9.39936
▁conduct	-9.40004
▁bet	-9.4004
▁fucking	-9.40097
▁2020	-9.40117
▁longterm	-9.40125
▁upper	-9.40142
▁restriction	-9.40163
▁direction	-9.40273
▁provider	-9.40297
▁li	-9.40437
▁uncle	-9.40522
▁admit	-9.40558
▁gdp	-9.4056
▁terrorist	-9.40567
▁taxi	-9.40608
off	-9.40655
▁ev	-9.40993
▁trap	-9.41088
▁cal	-9.41117
▁generate	-9.41121
ex	-9.41187
▁should	-9.41269
▁box	-9.41397
▁afraid	-9.4143
▁identity	-9.4143
▁cousin	-9.4143
▁anyways	-9.41654
▁lucky	-9.4177
▁syllabus	-9.41868
▁overnight	-9.41873
▁maintenance	-9.42309
▁accident	-9.42631
▁destination	-9.42751
▁safari	-9.42751
qu	-9.42846
▁highway	-9.42867
▁tie	-9.42892
▁suit	-9.42981
▁weak	-9.43036
▁cyber	-9.43195
▁labour	-9.432
ir	-9.43259
▁net	-9.4328
end	-9.43283
▁weight	-9.43326
▁suddenly	-9.43359
▁vat	-9.4344
ali	-9.43601
▁engage	-9.43611
▁argument	-9.43642
▁behavior	-9.43642
▁london	-9.43642
▁voting	-9.43642
ical	-9.43659
▁screen	-9.43797
io	-9.43852
▁constantly	-9.43852
▁easter	-9.43864
▁legally	-9.43902
▁wtf	-9.44091
▁series	-9.44091
▁ridiculous	-9.44092
▁football	-9.44096
▁linkedin	-9.44541
▁nearby	-9.44573
▁lakh	-9.44649
▁surprise	-9.44773
▁mis	-9.44812
▁inter	-9.4494
▁council	-9.44993
▁haha	-9.45039
▁bo	-9.45187
▁map	-9.4534
▁heat	-9.45344
year	-9.45389
▁garbage	-9.45448
▁respond	-9.45448
▁entirely	-9.45522
sha	-9.45564
work	-9.4558
▁constitution	-9.45724
▁di	-9.45836
▁lay	-9.46141
▁withdraw	-9.46259
▁ie	-9.46309
▁28	-9.46325
▁arugam	-9.46363
▁volunteer	-9.46363
▁excuse	-9.46368
▁fairly	-9.4638
▁laugh	-9.46382
ess	-9.46437
▁wa	-9.46463
▁setup	-9.46515
▁unlike	-9.46552
ence	-9.46816
▁rajapakse	-9.46824
▁scenario	-9.46824
▁extend	-9.46824
▁migration	-9.46826
▁sunday	-9.46837
▁ip	-9.46949
▁cap	-9.47134
▁gap	-9.47152
▁threat	-9.47245
▁justify	-9.47287
▁draw	-9.47288
▁elite	-9.47295
▁stability	-9.47301
▁usage	-9.47476
tt	-9.47506
lt	-9.47595
▁27	-9.47604
▁blue	-9.47838
▁af	-9.47867
▁mar	-9.47949
▁expectation	-9.48092
▁locally	-9.48101
▁prior	-9.4818
▁coffee	-9.4822
▁thousand	-9.4822
▁celebrate	-9.4822
▁adopt	-9.4822
▁critical	-9.4822
▁sampath	-9.4822
▁left	-9.48303
▁relatively	-9.48359
▁strict	-9.48386
▁obvious	-9.48389
ably	-9.48663
▁external	-9.48689
▁launch	-9.48693
▁2021	-9.48713
▁camp	-9.48884
ak	-9.48949
▁signal	-9.49072
▁soldier	-9.49161
▁basis	-9.49171
▁250	-9.49205
▁lecturer	-9.49363
▁surprised	-9.49391
▁so	-9.49448
em	-9.49526
▁gather	-9.49637
▁stuck	-9.4965
fa	-9.49768
▁effective	-9.49863
▁arrival	-9.50111
▁max	-9.50269
▁ma	-9.50275
▁premium	-9.50589
▁presidency	-9.50589
▁mafia	-9.50589
▁ethnicity	-9.5064
▁grant	-9.50701
one	-9.50732
▁evening	-9.50849
wi	-9.50909
▁scamme	-9.50982
▁bottom	-9.5107
▁hutch	-9.51087
▁press	-9.51347
ator	-9.51396
▁approval	-9.51553
▁civilian	-9.51596
▁sc	-9.51695
▁round	-9.51739
▁multi	-9.52032
▁harass	-9.52044
▁investigation	-9.52051
▁film	-9.52056
▁aside	-9.52073
▁ceb	-9.522
▁quiet	-9.5253
▁theory	-9.52531
▁equipment	-9.52533
▁wake	-9.52548
▁drain	-9.52585
▁cup	-9.52722
▁display	-9.5302
▁famous	-9.53024
80	-9.53052
▁efficient	-9.53057
uck	-9.53237
▁employ	-9.53237
gr	-9.53279
▁band	-9.53323
▁production	-9.5348
▁movement	-9.53482
▁paypal	-9.53513
tro	-9.53525
▁mentality	-9.53592
▁ta	-9.5366
▁pet	-9.53731
ja	-9.53738
lin	-9.53809
▁appear	-9.53991
▁percentage	-9.54017
▁color	-9.54049
▁familiar	-9.54088
ew	-9.54222
▁birth	-9.54492
ue	-9.54521
▁dubai	-9.5457
▁cr	-9.54623
▁seller	-9.54732
▁skilled	-9.54745
ff	-9.54943
▁possib	-9.54944
hu	-9.54947
▁vacation	-9.55002
▁gaming	-9.55055
ai	-9.55061
▁400	-9.55258
▁initially	-9.55295
12	-9.55399
▁trincomalee	-9.55504
▁bugger	-9.55507
▁floor	-9.55791
▁freelancer	-9.55894
▁collapse	-9.56009
▁portfolio	-9.56009
▁ultimate	-9.56009
▁click	-9.56009
▁aragalaya	-9.5601
▁tree	-9.56013
▁significantly	-9.56123
▁loud	-9.56217
▁doc	-9.56288
▁united	-9.5645
▁on	-9.56483
▁wild	-9.5652
▁solar	-9.56527
'	-9.56827
pay	-9.57003
▁dambulla	-9.57027
▁oppose	-9.57027
▁consequence	-9.57029
▁dev	-9.57036
▁leadership	-9.57061
not	-9.57262
▁comp	-9.57272
lanka	-9.57277
▁ice	-9.57509
▁shut	-9.57538
▁burden	-9.5754
▁hassle	-9.5754
▁resort	-9.57541
▁defend	-9.57547
▁trash	-9.5755
▁initial	-9.57754
▁engine	-9.57844
▁factory	-9.5804
▁default	-9.58055
▁hundred	-9.58055
▁starlink	-9.58055
▁grateful	-9.58056
▁delete	-9.58056
▁consultant	-9.58074
ery	-9.58103
▁ah	-9.58317
down	-9.58346
▁en	-9.58374
▁nowadays	-9.58574
▁undergraduate	-9.58574
▁category	-9.58589
▁tired	-9.58651
for	-9.58759
▁redditor	-9.58842
▁teaching	-9.58898
que	-9.58929
▁dry	-9.58941
gi	-9.59086
▁cent	-9.59092
▁expose	-9.59095
▁reputation	-9.59095
▁extreme	-9.59317
ver	-9.594
▁hnb	-9.59619
▁lane	-9.59677
▁quit	-9.5972
▁gem	-9.5977
▁ten	-9.60061
▁bribe	-9.6012
▁married	-9.60144
▁speech	-9.60144
▁throughout	-9.60144
▁rip	-9.6021
ple	-9.60223
▁typical	-9.60372
istic	-9.60376
▁cod	-9.60449
▁resign	-9.60625
▁belief	-9.60673
▁suspect	-9.60673
▁bruh	-9.60675
dy	-9.60791
40	-9.60801
▁confuse	-9.60988
▁hill	-9.61018
base	-9.61045
▁administration	-9.61205
▁garden	-9.61205
▁housing	-9.61206
▁daraz	-9.61207
▁organize	-9.61223
▁intention	-9.61226
▁jail	-9.61227
yo	-9.61265
way	-9.61381
▁thi	-9.61426
▁fd	-9.61538
aya	-9.61624
gu	-9.61736
▁capacity	-9.6174
▁poverty	-9.6174
▁skull	-9.6174
▁preference	-9.61765
▁threaten	-9.61789
▁mo	-9.61906
▁ja	-9.6202
▁function	-9.621
ner	-9.62165
▁awesome	-9.62278
▁socialist	-9.62314
thi	-9.62352
▁ම	-9.62372
▁belong	-9.62411
▁egg	-9.62448
▁crap	-9.62603
▁lankas	-9.62763
▁rush	-9.62828
▁forex	-9.62837
▁labor	-9.62866
▁failure	-9.62872
▁awareness	-9.6288
▁internal	-9.62903
▁wow	-9.62911
▁upto	-9.63006
▁wi	-9.63048
▁protection	-9.63052
▁beside	-9.63067
▁procedure	-9.63362
▁wildlife	-9.63365
▁plant	-9.63521
▁pool	-9.63523
▁atm	-9.63635
▁america	-9.63728
lan	-9.63813
▁opposite	-9.63908
▁privilege	-9.63908
▁bonus	-9.63908
▁division	-9.6391
▁deny	-9.63933
▁household	-9.63951
▁suitable	-9.63979
▁highlight	-9.64262
▁careful	-9.6431
▁chatgpt	-9.64458
▁domestic	-9.64458
▁neighbour	-9.64458
▁com	-9.6446
▁smile	-9.64468
▁2018	-9.64489
▁wall	-9.64507
all	-9.64657
▁powerful	-9.64761
book	-9.64767
60	-9.6479
▁dig	-9.64794
son	-9.64812
du	-9.64971
▁neither	-9.6501
▁loose	-9.65011
▁accommodation	-9.65031
▁upcom	-9.65035
▁clothing	-9.65065
▁logic	-9.65255
▁down	-9.65278
▁para	-9.65296
▁malaysia	-9.65461
70	-9.65495
▁convince	-9.65566
▁divorce	-9.65566
▁tiktok	-9.65566
▁anytime	-9.65569
▁quote	-9.65584
▁extent	-9.65597
▁ke	-9.65695
ay	-9.6571
▁tri	-9.65941
▁electric	-9.66012
▁cinnamon	-9.66124
▁borrow	-9.66124
▁memory	-9.66132
▁the	-9.66158
▁index	-9.66429
▁sir	-9.66453
ton	-9.66479
▁influencer	-9.66489
▁log	-9.66561
▁roll	-9.66655
▁propaganda	-9.66686
▁clown	-9.66686
▁daughter	-9.66702
▁chase	-9.66702
▁piss	-9.66709
11	-9.66726
au	-9.66814
▁shot	-9.66821
▁tradition	-9.6689
▁gay	-9.66914
mb	-9.67005
ec	-9.67061
▁horrible	-9.67275
▁circle	-9.6753
▁th	-9.67616
▁pop	-9.67678
0	-9.67715
▁leg	-9.67745
▁bangladesh	-9.67819
▁surgery	-9.67827
▁journalist	-9.67883
pi	-9.67956
▁five	-9.68138
▁rn	-9.68139
▁paint	-9.68363
▁pocket	-9.68391
▁suicide	-9.68391
▁cheer	-9.68394
▁possibility	-9.68396
▁plantation	-9.68444
▁forest	-9.68448
▁cream	-9.68468
▁dance	-9.68697
▁compete	-9.68753
▁ir	-9.68844
ase	-9.68904
▁neighbor	-9.6896
▁calculate	-9.68965
▁driving	-9.68965
▁unfair	-9.68965
▁profile	-9.68969
▁soft	-9.68973
▁input	-9.68998
▁pakistan	-9.69049
▁75	-9.69197
ck	-9.69366
▁comfort	-9.69479
month	-9.69495
▁authentic	-9.69507
▁proceed	-9.69544
▁dangerous	-9.6955
▁chicken	-9.6955
▁onto	-9.69622
▁equal	-9.69787
▁rarely	-9.69821
▁portion	-9.69823
▁democratic	-9.69848
ify	-9.70031
▁programme	-9.70075
▁resident	-9.70115
▁embassy	-9.70125
▁festival	-9.70125
▁samsung	-9.70125
▁sponsor	-9.70125
▁bridge	-9.70131
▁29	-9.70252
ger	-9.70277
▁eu	-9.70408
ada	-9.70436
▁harm	-9.70552
▁opt	-9.70588
▁hu	-9.7062
pm	-9.70655
▁advisor	-9.7071
▁debate	-9.7071
▁ag	-9.70782
dr	-9.70869
▁germany	-9.70895
▁cold	-9.70947
our	-9.71117
▁bomb	-9.71122
▁gang	-9.71247
▁anuradhapura	-9.71298
▁pretend	-9.71298
▁decline	-9.71317
▁nope	-9.71328
▁workplace	-9.71447
▁zone	-9.7147
▁pic	-9.7149
9	-9.715
▁sake	-9.71501
▁vision	-9.7153
ith	-9.71542
▁learning	-9.71774
ow	-9.71824
▁discrimination	-9.7189
▁initiative	-9.7189
▁native	-9.71912
▁poll	-9.71918
▁boat	-9.71928
▁align	-9.71952
▁accountability	-9.71964
▁hybrid	-9.72485
▁tooth	-9.72487
▁sugar	-9.72487
▁cbsl	-9.7249
▁lift	-9.72493
▁curry	-9.72499
▁debit	-9.72505
▁annoying	-9.72598
▁calm	-9.72601
▁fe	-9.72641
ability	-9.72776
▁permanent	-9.7278
▁addition	-9.72965
▁wide	-9.72982
▁secret	-9.73063
▁tutor	-9.73075
▁combine	-9.73084
▁comparison	-9.73084
▁genocide	-9.73084
▁library	-9.73084
▁accurate	-9.73085
▁pharmacy	-9.73085
▁maximum	-9.73089
▁earth	-9.73176
▁def	-9.7329
gg	-9.73342
▁med	-9.73345
tra	-9.73359
▁speaker	-9.73366
hood	-9.73406
▁jr	-9.73528
pt	-9.73625
▁retire	-9.73648
ble	-9.73679
▁wave	-9.73683
▁plastic	-9.73686
▁label	-9.73705
▁shock	-9.73712
▁fancy	-9.73725
▁hero	-9.73781
ib	-9.73835
ji	-9.7384
▁unnecessar	-9.73898
▁adapt	-9.74293
▁invite	-9.74293
▁alcohol	-9.74334
▁ce	-9.7452
▁le	-9.74686
▁arrange	-9.74865
▁climb	-9.74902
▁colleague	-9.74902
▁everybody	-9.74902
▁junior	-9.74902
▁witness	-9.74902
▁crook	-9.74902
▁urban	-9.74918
▁wo	-9.75273
▁educational	-9.75302
▁lock	-9.75325
▁previously	-9.75452
▁passenger	-9.75515
▁weligama	-9.75516
▁fool	-9.75518
▁donate	-9.75519
▁birthday	-9.75527
▁el	-9.75645
▁scar	-9.75672
▁scammer	-9.75762
▁bed	-9.75865
▁fa	-9.76129
▁survey	-9.76133
▁nonsense	-9.76137
▁brown	-9.76141
▁forever	-9.76143
▁communicate	-9.7617
▁confidence	-9.76193
lic	-9.76218
▁moral	-9.76254
tre	-9.76267
▁understanding	-9.764
▁q	-9.76465
▁pi	-9.76475
▁normally	-9.76603
▁maha	-9.76639
▁stat	-9.76641
ade	-9.7667
▁exploit	-9.76704
▁frustrating	-9.76754
▁publish	-9.76754
▁mall	-9.76756
▁thailand	-9.76757
app	-9.76859
point	-9.76963
iv	-9.77114
▁curriculum	-9.77379
▁declare	-9.77379
▁nsbm	-9.77379
▁reveal	-9.77379
▁lunch	-9.77387
▁crash	-9.7739
▁coach	-9.77403
▁imp	-9.77493
▁sustainable	-9.77579
▁warn	-9.77685
ft	-9.77846
▁inc	-9.77865
▁rare	-9.7788
awa	-9.77899
▁bankrupt	-9.77997
▁impose	-9.78008
▁premadasa	-9.78008
▁surround	-9.78008
▁propose	-9.78008
▁tower	-9.78009
▁buddha	-9.7801
▁agenda	-9.78021
▁traveler	-9.78167
lla	-9.78288
▁cor	-9.78297
▁da	-9.78362
tan	-9.78422
▁rat	-9.78501
▁fk	-9.78538
▁enforce	-9.78603
▁verify	-9.78641
▁entrance	-9.78642
by	-9.78647
ual	-9.78679
rate	-9.78687
af	-9.78725
▁farm	-9.7881
▁sm	-9.78824
vo	-9.78975
▁certainly	-9.79002
ward	-9.79159
ave	-9.79243
▁diaspora	-9.79278
▁disagree	-9.79278
▁screw	-9.79278
▁sum	-9.79371
mu	-9.79386
100	-9.794
▁harsha	-9.79404
▁grand	-9.7942
▁formal	-9.79576
▁constant	-9.79618
▁character	-9.79667
▁rape	-9.79763
5000	-9.79784
25	-9.79789
▁risky	-9.79837
▁server	-9.79848
▁media	-9.79856
▁attach	-9.79879
▁punish	-9.7989
▁podcast	-9.79919
▁convenient	-9.79919
▁intelligence	-9.79919
▁welfare	-9.79919
▁cabinet	-9.79924
▁faith	-9.79924
▁upload	-9.79925
▁cloud	-9.80018
▁gig	-9.80049
aga	-9.80084
▁scared	-9.8014
▁ga	-9.8033
▁deduct	-9.80482
නන	-9.80508
▁mandatory	-9.80564
▁narrative	-9.80564
▁promotion	-9.80564
▁sacrifice	-9.80564
▁indeed	-9.80564
▁appeal	-9.80568
▁regime	-9.80577
▁off	-9.80617
rs	-9.80643
ative	-9.80688
▁120	-9.80803
▁australian	-9.8104
▁pol	-9.81164
▁ideology	-9.81213
▁certification	-9.81214
▁odd	-9.81216
▁supermarket	-9.81221
▁blow	-9.81242
▁progressive	-9.813
act	-9.81353
▁lower	-9.81565
▁disc	-9.81674
▁pan	-9.81774
▁consult	-9.81792
▁clue	-9.81844
▁absurd	-9.81867
▁downvote	-9.81867
▁fundamental	-9.81867
▁stack	-9.81881
▁six	-9.81903
▁liberal	-9.81906
▁passionate	-9.81912
▁manner	-9.81994
▁99	-9.82044
▁fat	-9.8224
lkr	-9.82338
▁clarify	-9.82525
▁estimate	-9.82525
▁meanwhile	-9.82525
▁vendor	-9.82526
▁instance	-9.82527
▁favor	-9.82532
▁ram	-9.82796
▁selection	-9.82883
▁van	-9.82912
▁essentially	-9.83073
▁alive	-9.83125
▁criticism	-9.83187
▁error	-9.83187
▁donation	-9.83192
▁buddy	-9.83192
▁chain	-9.83206
▁bail	-9.83225
▁plain	-9.83246
▁core	-9.833
▁historical	-9.83591
ika	-9.8364
mer	-9.83844
▁pizza	-9.83852
▁equity	-9.83854
▁flood	-9.83854
▁temporary	-9.83854
▁nurse	-9.83854
▁colour	-9.8386
▁flash	-9.83861
▁5000	-9.83873
▁kdu	-9.83885
are	-9.83907
▁bully	-9.84002
▁surely	-9.84179
rt	-9.84248
mn	-9.84272
right	-9.84511
▁prison	-9.84525
▁sweet	-9.84525
▁intend	-9.84525
▁reference	-9.8454
▁boss	-9.84551
▁rude	-9.84578
▁id	-9.84713
▁collection	-9.84746
mm	-9.84991
▁aus	-9.85044
od	-9.85184
▁grocery	-9.852
▁medication	-9.85201
▁protein	-9.85201
▁capable	-9.85285
▁mode	-9.85287
▁graphic	-9.85375
▁isp	-9.85385
▁trick	-9.85638
▁director	-9.85684
ll	-9.85696
gen	-9.85732
▁dealer	-9.85732
▁announce	-9.85844
▁tb	-9.85877
▁mathematic	-9.85881
▁tldr	-9.85881
▁describe	-9.85885
▁shopping	-9.85918
▁grab	-9.85941
▁eta	-9.86005
my	-9.86039
▁beginner	-9.86099
air	-9.86155
▁cus	-9.86169
▁casual	-9.86262
▁cla	-9.86282
▁rec	-9.86442
ack	-9.86492
▁affair	-9.86566
▁commerce	-9.86566
▁resolve	-9.86566
▁retail	-9.86566
▁translate	-9.86567
▁elsewhere	-9.8658
▁jan	-9.86603
▁noise	-9.86623
▁du	-9.86784
▁pot	-9.86797
▁additionally	-9.87128
▁predict	-9.87182
▁fashion	-9.87255
▁asap	-9.87257
▁ku	-9.87258
▁crack	-9.87262
▁urgent	-9.87267
▁trail	-9.87273
▁expand	-9.87274
▁yep	-9.87296
▁hack	-9.87299
▁acknowledge	-9.87299
▁wheel	-9.87378
▁artist	-9.87499
▁typically	-9.8765
▁cc	-9.8778
▁rough	-9.87795
ore	-9.87887
che	-9.87902
▁confident	-9.87941
▁edexcel	-9.8795
▁canadian	-9.8795
▁leak	-9.87959
▁hostel	-9.87983
▁accountable	-9.88107
▁improvement	-9.88161
▁tiny	-9.88196
▁rap	-9.88245
▁wash	-9.88404
▁ird	-9.88532
▁adjust	-9.88624
▁kottu	-9.88649
▁adhd	-9.88649
▁split	-9.88654
▁ofc	-9.88658
▁habit	-9.88659
▁installment	-9.88669
▁negotiate	-9.88676
▁yea	-9.88757
▁lean	-9.88813
mon	-9.89008
▁eastern	-9.8904
▁physically	-9.89048
pp	-9.89101
▁attract	-9.8924
ude	-9.89282
▁nowhere	-9.89356
▁southern	-9.89358
▁leaf	-9.8936
▁hindu	-9.89368
▁tight	-9.89382
▁aid	-9.89406
▁pen	-9.89433
▁enable	-9.89435
▁specialist	-9.89466
▁trial	-9.89497
▁mba	-9.89511
▁agriculture	-9.89513
▁hnd	-9.89681
▁lake	-9.89689
▁desperate	-9.8976
ani	-9.89989
▁buffet	-9.90062
▁escape	-9.90062
▁century	-9.90063
▁concerned	-9.90064
▁victory	-9.9011
side	-9.90119
▁col	-9.90142
▁exp	-9.90156
▁minor	-9.90201
▁beg	-9.90215
▁flow	-9.90271
▁anci	-9.9031
▁mixed	-9.90311
list	-9.90521
▁lab	-9.90541
▁regularly	-9.90758
▁wind	-9.9077
▁disappear	-9.90777
▁immigrant	-9.90777
▁outcome	-9.90777
▁royal	-9.90778
▁ikman	-9.90784
▁biology	-9.90785
▁qualified	-9.9079
▁accuse	-9.9079
▁entity	-9.90797
▁wallet	-9.90804
▁depression	-9.90815
▁bare	-9.91161
▁holder	-9.91293
▁at	-9.913
▁angry	-9.91496
▁cybersecurity	-9.91497
▁boost	-9.91498
▁pettah	-9.91501
▁lgbtq	-9.91501
▁tear	-9.91503
▁thus	-9.91545
▁commitment	-9.916
▁behave	-9.91679
ell	-9.91844
▁ran	-9.91998
▁earning	-9.92074
ata	-9.92082
▁pattern	-9.92221
▁recognition	-9.92221
▁smell	-9.92232
what	-9.9226
▁glass	-9.92323
▁socialism	-9.92444
ification	-9.92676
how	-9.92678
▁ali	-9.92845
▁participate	-9.92951
▁regulate	-9.92951
▁asshole	-9.92961
val	-9.92963
▁panel	-9.92973
▁retirement	-9.92998
▁react	-9.93009
▁mechanical	-9.9301
▁ti	-9.9314
▁grad	-9.93179
45	-9.93244
nder	-9.93406
▁nah	-9.93513
▁tin	-9.93563
▁hiriketiya	-9.93686
▁undergrad	-9.93686
▁violent	-9.93686
▁barrier	-9.93686
▁peradeniya	-9.93686
▁minimal	-9.93691
▁guest	-9.93692
▁drone	-9.93707
▁capitalism	-9.93736
▁childhood	-9.93743
har	-9.93837
▁slip	-9.94035
▁emotional	-9.9421
▁analysis	-9.94427
▁behaviour	-9.94427
▁decrease	-9.94427
▁incredibly	-9.94427
▁proposal	-9.94427
▁rugby	-9.94427
▁sky	-9.94465
▁mini	-9.94481
▁advanced	-9.94555
▁msc	-9.94599
▁slave	-9.9461
▁deeply	-9.94675
aka	-9.9469
oke	-9.94925
▁tap	-9.9496
▁russia	-9.95069
▁str	-9.95083
you	-9.9513
▁auto	-9.95172
▁chocolate	-9.95173
▁hustle	-9.95173
▁mountain	-9.95173
▁beauty	-9.95173
▁ongoing	-9.95173
▁revolution	-9.95184
▁36	-9.95186
▁discover	-9.95186
▁governance	-9.95188
▁entertainment	-9.95191
▁gate	-9.95274
ach	-9.95414
▁designer	-9.95444
▁manipulate	-9.95641
▁prop	-9.95686
▁600	-9.95766
▁govern	-9.95818
▁funding	-9.95824
▁conservative	-9.95925
▁equivalent	-9.95925
▁explanation	-9.95925
▁ultra	-9.95925
▁cheat	-9.95926
▁automatically	-9.9593
▁outlet	-9.95935
▁cake	-9.95973
mal	-9.95973
▁nationalist	-9.96069
▁coverage	-9.9607
eye	-9.96073
▁ci	-9.96096
▁par	-9.96203
▁ik	-9.96272
▁severe	-9.96382
ura	-9.96394
▁lion	-9.96441
▁dear	-9.96668
▁encounter	-9.96682
▁unsure	-9.96685
▁battle	-9.96715
▁im	-9.9677
▁guilty	-9.96786
▁selfish	-9.968
ping	-9.96819
▁si	-9.96879
▁abt	-9.96955
fo	-9.97061
▁immediate	-9.97145
necessarily	-9.97178
▁recruit	-9.97227
ea	-9.97245
▁wealthy	-9.97258
▁manufacture	-9.97279
▁wing	-9.97282
unt	-9.97389
▁advertise	-9.97411
▁lend	-9.97428
▁industrial	-9.97446
▁nugegoda	-9.97446
▁twitter	-9.97446
▁thief	-9.97446
▁utility	-9.97448
▁uae	-9.97454
▁statistic	-9.97455
▁cima	-9.97516
▁russian	-9.97552
▁scope	-9.97554
▁dish	-9.9772
zz	-9.97738
▁bite	-9.97744
▁aw	-9.97817
car	-9.97832
▁rating	-9.97845
▁empty	-9.98215
▁privacy	-9.98215
▁criticize	-9.98215
▁sharing	-9.98216
▁admission	-9.98217
▁drag	-9.98254
▁keell	-9.98287
▁electrical	-9.98359
▁dual	-9.9852
▁profession	-9.98628
▁unlikely	-9.98721
own	-9.98862
▁pin	-9.98879
▁audience	-9.9899
▁icbt	-9.9899
▁presence	-9.98991
▁pricing	-9.98991
▁psychology	-9.98992
▁restructure	-9.99001
▁secretary	-9.99017
▁2026	-9.99029
▁accent	-9.99029
▁warm	-9.99046
▁hall	-9.99049
▁owe	-9.99051
▁unity	-9.99102
▁bid	-9.99133
fl	-9.99201
ible	-9.9922
ella	-9.99248
ingly	-9.99349
▁mum	-9.99465
▁recovery	-9.99554
▁booking	-9.99596
goda	-9.99649
ility	-9.99664
▁christian	-9.99739
▁exposure	-9.99771
▁principle	-9.99771
▁succeed	-9.99771
▁creative	-9.99783
▁assignment	-9.99797
▁punishment	-9.99819
▁alright	-9.99878
▁ear	-9.99926
▁evil	-10
▁german	-10.0031
▁va	-10.0032
ung	-10.0036
▁bias	-10.0046
▁worship	-10.0056
▁sentence	-10.0056
▁riot	-10.0056
▁railway	-10.0056
▁shout	-10.0059
▁pathway	-10.006
▁pair	-10.0061
▁colonial	-10.0064
▁realistic	-10.0065
▁cmb	-10.0071
era	-10.0077
chi	-10.009
▁mu	-10.009
▁roughly	-10.009
▁10000	-10.0104
▁95	-10.0109
▁norm	-10.0123
▁sy	-10.0132
board	-10.0132
▁relation	-10.0135
▁breakfast	-10.0135
▁friday	-10.0135
▁heritage	-10.0135
▁perfume	-10.0135
▁shape	-10.0135
▁organisation	-10.0135
▁derana	-10.0135
▁psychiatrist	-10.0136
▁smoke	-10.0136
▁fitness	-10.0144
ela	-10.0149
▁officially	-10.0154
▁meter	-10.0156
▁pv	-10.0161
▁guard	-10.0169
▁personality	-10.0173
▁jaya	-10.0178
net	-10.02
▁korea	-10.0205
par	-10.0214
▁favour	-10.0215
▁allocate	-10.0215
▁excited	-10.0227
▁allowance	-10.0231
ology	-10.0249
▁economically	-10.025
they	-10.026
▁hype	-10.0261
▁soo	-10.0269
▁difficulty	-10.0271
her	-10.0276
▁800	-10.0292
▁anxiety	-10.0296
▁circumstance	-10.0296
▁depreciate	-10.0296
▁hikkaduwa	-10.0296
▁hsbc	-10.0296
▁trigger	-10.0296
▁lazy	-10.0296
▁ge	-10.0298
▁31	-10.0299
▁buck	-10.0301
▁disaster	-10.0302
▁clearance	-10.0306
▁elder	-10.0307
▁replacement	-10.0307
pack	-10.0311
▁reward	-10.0311
▁tag	-10.0315
tri	-10.0325
sit	-10.0327
ula	-10.0335
▁openly	-10.0341
ory	-10.0346
▁mouth	-10.0357
▁tf	-10.0371
▁frustrate	-10.0377
▁nissan	-10.0377
▁occur	-10.0377
▁pandemic	-10.0377
▁commute	-10.0377
▁trcsl	-10.0377
▁shall	-10.0378
▁audit	-10.0381
▁soul	-10.0381
▁surprising	-10.0382
▁arch	-10.0383
▁award	-10.0385
▁salt	-10.0386
port	-10.0388
▁න	-10.0389
rn	-10.0396
▁entrepreneur	-10.0413
▁finger	-10.0417
▁toward	-10.0418
▁pla	-10.0421
▁sudden	-10.0429
▁correctly	-10.0433
▁strength	-10.0455
▁entitle	-10.0455
▁inflate	-10.0459
▁tangalle	-10.0459
▁corner	-10.046
▁favorite	-10.046
▁amendment	-10.046
fi	-10.047
▁rajapaksas	-10.0471
▁reading	-10.0488
ze	-10.0498
▁lovely	-10.0502
▁fi	-10.0508
▁ed	-10.0533
▁trauma	-10.0542
▁analytic	-10.0542
▁communist	-10.0542
▁compensation	-10.0542
▁insult	-10.0542
▁remittance	-10.0542
▁telegram	-10.0542
▁availability	-10.0542
▁brutal	-10.0542
▁fyi	-10.0542
▁define	-10.0544
▁epf	-10.0545
▁visible	-10.0546
▁hunt	-10.0547
▁micro	-10.055
▁cab	-10.0551
▁disgusting	-10.0561
▁mentally	-10.0576
▁classic	-10.0592
aming	-10.0598
▁consume	-10.0609
▁islam	-10.0622
▁scooter	-10.0625
hold	-10.0625
▁fruit	-10.0625
▁percent	-10.0629
▁oct	-10.0634
▁broad	-10.064
nna	-10.064
24	-10.0641
▁rob	-10.0647
▁sometime	-10.0661
▁sight	-10.0664
isation	-10.0665
just	-10.0678
▁contain	-10.0689
kw	-10.0694
ham	-10.0697
▁allegation	-10.0709
▁assault	-10.0709
▁eelam	-10.0709
▁softlogic	-10.0709
▁christmas	-10.0709
▁toilet	-10.0709
▁dutch	-10.071
▁terrorism	-10.071
▁san	-10.0718
box	-10.0733
core	-10.0736
ou	-10.0744
▁globally	-10.0754
pet	-10.0755
hara	-10.0759
▁gpa	-10.076
hr	-10.077
ide	-10.0774
put	-10.0779
uwa	-10.078
uff	-10.0785
▁afaik	-10.0794
▁italy	-10.0794
▁meaningful	-10.0797
▁trans	-10.0798
▁raja	-10.0799
▁how	-10.0826
tch	-10.0833
▁villa	-10.0834
aze	-10.0839
ort	-10.0841
▁32	-10.085
ima	-10.0857
▁successfully	-10.0861
ight	-10.0864
▁combination	-10.0879
▁february	-10.0879
▁vaccinate	-10.0879
▁ntb	-10.088
▁prioritiz	-10.088
▁100000	-10.0889
▁adam	-10.089
ign	-10.0905
▁kit	-10.0936
▁consistent	-10.0937
▁parking	-10.094
▁hole	-10.0949
▁regional	-10.0954
now	-10.0958
14	-10.0958
▁android	-10.0966
▁broadband	-10.0966
▁pixel	-10.0966
▁torture	-10.0966
▁repute	-10.0968
tefree	-10.0972
▁spam	-10.0979
▁monkey	-10.0984
ini	-10.0985
▁appreciated	-10.0989
▁farmer	-10.1004
rie	-10.1005
▁wherea	-10.1018
▁ethical	-10.1018
tain	-10.1029
▁flat	-10.1042
▁fry	-10.105
gala	-10.105
emotes	-10.1052
▁dehiwala	-10.1053
▁depreciation	-10.1053
▁prospect	-10.1053
▁unawatuna	-10.1053
▁charity	-10.1053
▁kingdom	-10.1053
ifemo	-10.1053
▁freak	-10.1053
▁java	-10.1055
▁malay	-10.1057
▁plate	-10.1061
▁chem	-10.1085
▁mac	-10.1092
▁badly	-10.1098
head	-10.111
▁smooth	-10.111
▁africa	-10.1132
▁mbps	-10.1139
▁exhaust	-10.114
▁excellent	-10.114
▁maldive	-10.114
▁principal	-10.114
▁recognise	-10.114
▁sentiment	-10.114
▁consent	-10.114
▁wije	-10.1141
▁vast	-10.1148
▁ru	-10.1158
sm	-10.1159
▁margin	-10.116
▁viable	-10.1162
▁profitable	-10.1167
▁utter	-10.1169
▁uom	-10.117
16	-10.1181
▁strange	-10.1212
▁ph	-10.1217
house	-10.1218
▁pat	-10.1222
▁har	-10.1224
▁exempt	-10.1229
▁locate	-10.1229
▁suburb	-10.1229
▁burger	-10.1229
▁subscription	-10.123
▁chip	-10.1232
▁otp	-10.1234
▁powder	-10.1239
▁2010	-10.1244
▁tank	-10.125
▁del	-10.125
▁pill	-10.1257
ency	-10.1258
▁accounting	-10.1271
▁bombing	-10.1275
▁experienced	-10.1275
itie	-10.1282
cha	-10.1283
▁56	-10.1284
▁spec	-10.1315
▁cambridge	-10.1318
▁ignorant	-10.1318
▁mirror	-10.1318
▁treasury	-10.1318
▁silent	-10.1318
▁uncomfortable	-10.132
yr	-10.132
▁acc	-10.1326
free	-10.1331
▁thug	-10.1332
nn	-10.1362
nce	-10.1368
▁emotion	-10.1396
ban	-10.1399
▁behalf	-10.1408
▁cancer	-10.141
▁pride	-10.141
▁innovation	-10.1413
▁cave	-10.142
▁starting	-10.1423
▁sufficient	-10.1424
▁observe	-10.1426
▁vary	-10.1428
▁65	-10.1432
▁sing	-10.1458
▁ceo	-10.1459
▁related	-10.1469
ker	-10.1482
▁gu	-10.1485
ious	-10.1488
35	-10.1491
18	-10.1495
▁tra	-10.1496
▁embarrass	-10.1499
▁defense	-10.1499
▁chaos	-10.1499
▁contest	-10.1499
▁module	-10.1499
▁pension	-10.1499
▁stem	-10.1503
▁2009	-10.1505
▁setting	-10.151
▁parttime	-10.1518
▁coin	-10.1526
bra	-10.1527
▁opening	-10.1553
▁bla	-10.1567
▁bud	-10.1572
▁restrict	-10.1583
ized	-10.1585
▁practically	-10.1587
▁ft	-10.159
▁bandaranaike	-10.1591
▁neutral	-10.1591
▁professor	-10.1591
▁variety	-10.1591
▁afterwards	-10.1591
▁brief	-10.1591
▁scenic	-10.1591
▁defeat	-10.1591
▁northern	-10.1591
▁phase	-10.1591
▁contribution	-10.1592
▁fluent	-10.1593
▁jack	-10.1594
▁membership	-10.1596
▁rep	-10.1598
▁symbol	-10.1603
▁55	-10.1625
pura	-10.1632
▁warning	-10.1636
▁supportive	-10.1658
ny	-10.1662
▁mora	-10.1674
▁amazon	-10.1683
▁catholic	-10.1683
▁happiness	-10.1683
▁gotabaya	-10.1683
▁traveller	-10.1684
▁textbook	-10.1685
▁chair	-10.1687
thu	-10.1689
▁investigate	-10.1694
▁1500	-10.1696
▁ego	-10.1697
▁waiting	-10.171
▁fds	-10.1729
▁respectful	-10.1745
▁renew	-10.177
▁cos	-10.1777
▁efficiency	-10.1777
▁frustration	-10.1777
▁tournament	-10.1777
▁exceed	-10.1777
▁weapon	-10.1777
▁temu	-10.1777
▁flexible	-10.1777
▁slfp	-10.1778
▁eligible	-10.1778
▁legend	-10.1778
▁dump	-10.1778
▁honda	-10.1779
▁hotline	-10.178
ball	-10.1782
▁transition	-10.1785
▁workforce	-10.1787
▁diss	-10.1789
let	-10.1794
war	-10.1798
art	-10.1799
tin	-10.1801
▁ca	-10.1806
▁bat	-10.1816
▁publicly	-10.182
some	-10.1825
75	-10.1826
rain	-10.1832
▁cater	-10.1834
andor	-10.184
▁clinic	-10.1842
▁addict	-10.1864
▁ring	-10.1865
▁bentota	-10.1871
▁chief	-10.1871
▁hobby	-10.1871
▁relief	-10.1871
▁scratch	-10.1871
▁somebody	-10.1871
▁trustworthy	-10.1871
▁republic	-10.1873
▁competent	-10.1874
▁gf	-10.1876
▁impression	-10.1876
▁sheet	-10.1877
yearold	-10.1883
try	-10.1885
▁roof	-10.1886
ake	-10.1899
▁sen	-10.1909
17	-10.1922
▁interact	-10.1934
▁diet	-10.1948
▁bubble	-10.1966
▁vaccination	-10.1966
▁writing	-10.1966
▁ocean	-10.1966
▁translation	-10.1966
▁cringe	-10.1967
▁shirt	-10.1967
▁steam	-10.1967
▁venture	-10.1967
▁ease	-10.1971
▁boot	-10.1976
▁perfectly	-10.1976
▁rally	-10.1982
▁parliamentary	-10.1984
mouth	-10.1991
wise	-10.2002
▁author	-10.2046
▁therap	-10.2059
▁afternoon	-10.2063
▁disconnect	-10.2063
▁wrap	-10.2063
▁insist	-10.2063
▁activate	-10.2063
▁assistance	-10.2064
▁stray	-10.2064
▁permission	-10.2064
▁expat	-10.2067
▁grid	-10.208
▁pathetic	-10.2086
▁for	-10.2096
▁dependent	-10.2097
▁portal	-10.2123
▁buyer	-10.2125
▁customs	-10.2127
▁origin	-10.2131
▁instal	-10.2132
iate	-10.2137
▁harsh	-10.2144
▁literacy	-10.216
▁mislead	-10.216
▁navigate	-10.216
▁tactic	-10.216
▁architecture	-10.216
▁expire	-10.2161
▁edge	-10.2163
▁quota	-10.2164
row	-10.2164
▁vet	-10.2166
▁keen	-10.2167
cious	-10.2176
tech	-10.2183
▁rainy	-10.2185
like	-10.2194
▁wanted	-10.2197
▁emotionally	-10.2201
▁differently	-10.2209
▁flee	-10.2236
▁politically	-10.2241
ko	-10.2255
▁capture	-10.2258
▁saturday	-10.2258
▁semester	-10.2258
▁vpn	-10.2258
▁peep	-10.2258
▁gear	-10.2262
▁niche	-10.2263
▁came	-10.2293
pre	-10.2297
▁pu	-10.2297
▁earner	-10.2303
soon	-10.2306
▁privately	-10.2307
▁equally	-10.2309
▁my	-10.231
23	-10.233
▁heal	-10.2333
▁ap	-10.2334
▁transit	-10.2354
▁abolish	-10.2357
▁discourage	-10.2357
▁inspire	-10.2357
▁landscape	-10.2357
▁disease	-10.2357
▁storage	-10.2357
▁grind	-10.2357
▁framework	-10.2357
▁midnight	-10.2358
▁complicated	-10.2364
▁swear	-10.2366
▁resignation	-10.2366
▁fulltime	-10.2369
▁collective	-10.237
▁mail	-10.2373
▁wonderful	-10.2405
▁nov	-10.2407
▁fam	-10.2424
▁aka	-10.2427
▁nut	-10.2437
▁capita	-10.2439
lm	-10.2453
▁superior	-10.2453
▁adventure	-10.2457
▁determine	-10.2457
▁supreme	-10.2457
▁deficit	-10.2457
▁reputable	-10.2457
▁committee	-10.2457
▁polite	-10.2458
away	-10.2465
▁achievement	-10.2473
▁thumbs	-10.2499
90	-10.2499
low	-10.2513
▁sustain	-10.2552
▁analyst	-10.2558
▁exclude	-10.2558
▁expenditure	-10.2558
▁vietnam	-10.2558
▁desire	-10.2558
▁matara	-10.2558
▁nepal	-10.2558
▁filter	-10.2558
▁representative	-10.2559
▁bread	-10.2561
▁ownership	-10.2563
▁2016	-10.2564
21	-10.2567
▁cell	-10.2568
▁mere	-10.2578
▁painful	-10.2589
▁peer	-10.2611
▁cast	-10.2612
▁kg	-10.2615
▁sole	-10.2618
▁rot	-10.2623
▁spa	-10.2627
▁association	-10.266
▁criterion	-10.266
▁esoft	-10.266
▁necessity	-10.266
▁bloat	-10.266
▁racial	-10.266
▁hatred	-10.266
▁screenshot	-10.266
▁swim	-10.266
▁kumara	-10.2661
▁moron	-10.2663
▁affiliate	-10.2665
▁admin	-10.2667
▁capitalist	-10.2667
▁appropriate	-10.2667
▁incentive	-10.2667
riya	-10.2667
▁awful	-10.2671
▁3000	-10.2672
▁merc	-10.2679
mate	-10.2679
▁frequently	-10.2683
▁pur	-10.275
cent	-10.2758
▁lak	-10.2761
▁abandon	-10.2763
▁convenience	-10.2763
▁kitchen	-10.2763
▁obsess	-10.2763
▁nibm	-10.2763
▁venue	-10.2763
ential	-10.2763
▁french	-10.2764
ull	-10.2768
▁cur	-10.2769
▁hardware	-10.277
▁nationalism	-10.2783
▁acceptable	-10.2808
▁internationally	-10.2815
▁effectively	-10.2829
iri	-10.2837
▁abortion	-10.2867
▁aggressive	-10.2867
▁component	-10.2867
▁crucial	-10.2867
▁quarter	-10.2867
▁ucsc	-10.2867
▁mosque	-10.2867
▁literature	-10.2867
▁unemployed	-10.2868
▁forum	-10.287
shop	-10.287
▁depressed	-10.2876
▁outdated	-10.2884
▁manufacturer	-10.289
▁friendship	-10.2904
▁bug	-10.2921
fire	-10.2952
▁specialize	-10.2965
cr	-10.2965
▁ayurved	-10.2972
▁compromise	-10.2972
▁disturb	-10.2972
▁silva	-10.2972
▁shady	-10.2972
▁tension	-10.2973
▁feasible	-10.2973
▁pump	-10.2973
ju	-10.2975
▁objective	-10.2975
▁deadline	-10.2977
can	-10.2978
▁pad	-10.2981
▁reverse	-10.2982
gama	-10.299
▁ratio	-10.2992
▁cham	-10.3
uru	-10.3001
▁convers	-10.301
▁mature	-10.301
▁higher	-10.3013
▁pal	-10.3037
▁fold	-10.3038
▁arab	-10.3041
▁sam	-10.3045
ram	-10.3047
▁overprice	-10.3056
▁fin	-10.3058
lock	-10.3071
▁minded	-10.3074
▁dictator	-10.3078
shrugging	-10.3079
▁ahangama	-10.3079
▁enterprise	-10.3079
▁exercise	-10.3079
▁intake	-10.3079
▁legitimate	-10.3079
▁stretch	-10.3079
▁onwards	-10.3079
▁pilot	-10.3079
▁offend	-10.308
▁alert	-10.3081
▁thrive	-10.3082
▁flaw	-10.3085
▁bird	-10.3085
▁broken	-10.3092
▁environmental	-10.3094
▁cho	-10.3095
▁mf	-10.3103
▁strongly	-10.3106
2000	-10.3111
▁scan	-10.3119
bar	-10.3121
▁largely	-10.313
this	-10.314
▁meaning	-10.3171
▁importer	-10.3181
▁fernando	-10.3186
▁league	-10.3186
▁polonnaruwa	-10.3186
▁udawalawe	-10.3186
▁uneducated	-10.3186
▁swimming	-10.3186
▁gateway	-10.3187
▁logistic	-10.3188
▁spice	-10.3189
▁monday	-10.319
65	-10.3192
▁alliance	-10.3192
▁exception	-10.3199
▁cooking	-10.32
any	-10.3201
▁involvement	-10.3211
▁slight	-10.3214
▁dine	-10.3224
▁nu	-10.3224
▁raw	-10.3224
▁reminder	-10.3242
friendly	-10.3268
▁breath	-10.3276
▁aunt	-10.3277
▁licence	-10.3295
▁drunk	-10.3295
▁payoneer	-10.3295
▁vacanc	-10.3295
▁residence	-10.3295
▁meat	-10.3297
▁attractive	-10.33
▁2017	-10.3301
▁wire	-10.3305
▁nadu	-10.3305
▁indicate	-10.3306
▁jam	-10.3308
▁urge	-10.3309
▁golden	-10.3317
▁radio	-10.3321
▁boil	-10.3325
minate	-10.3327
▁goon	-10.3329
▁dia	-10.3333
▁hospitality	-10.3336
▁os	-10.3338
▁teen	-10.334
ring	-10.3361
▁sus	-10.3363
▁yr	-10.3371
even	-10.3377
▁pray	-10.3386
▁bot	-10.339
▁fare	-10.3403
▁introvert	-10.3405
▁isolate	-10.3405
▁mutual	-10.3405
▁romantic	-10.3406
▁comfortably	-10.3406
▁advocate	-10.3409
uk	-10.3419
▁bur	-10.3425
▁solely	-10.3438
flow	-10.3445
56	-10.3448
▁backup	-10.3463
old	-10.3465
org	-10.3469
▁dan	-10.3469
ium	-10.3475
post	-10.3479
▁2500	-10.3484
▁bell	-10.349
▁slap	-10.3497
300	-10.35
▁border	-10.3515
▁consumption	-10.3516
▁economist	-10.3516
▁recipe	-10.3516
▁praise	-10.3516
▁worst	-10.3516
▁frank	-10.3516
▁museum	-10.3516
▁token	-10.3516
▁manifesto	-10.3517
▁capability	-10.3517
▁governor	-10.3525
▁perera	-10.3527
navy	-10.3536
▁1015	-10.3538
col	-10.3541
▁handout	-10.3544
ley	-10.3546
lle	-10.3546
una	-10.3547
▁boc	-10.3552
pr	-10.3552
life	-10.3561
▁taxation	-10.3571
▁mock	-10.3581
▁lap	-10.3583
which	-10.3587
▁enrol	-10.3597
13	-10.3603
▁cable	-10.3609
▁bull	-10.3609
▁john	-10.3628
▁disrupt	-10.3628
▁ordinary	-10.3628
▁fraud	-10.3628
▁narrow	-10.3628
▁parcel	-10.3628
▁satisfied	-10.3628
▁anime	-10.3628
▁diesel	-10.3628
▁corporation	-10.3629
▁mandate	-10.3629
▁liberty	-10.3629
▁euro	-10.3631
▁repayment	-10.3632
▁randomly	-10.3648
▁exit	-10.3655
school	-10.3671
bit	-10.3679
▁flu	-10.369
ically	-10.3702
tor	-10.3704
98	-10.3717
▁audio	-10.3723
facepalming	-10.3742
▁kelaniya	-10.3742
▁servant	-10.3742
▁unpopular	-10.3742
▁enemy	-10.3742
▁taxpayer	-10.3742
▁verification	-10.3742
▁socalle	-10.3742
▁netflix	-10.3742
▁browse	-10.3742
▁hon	-10.3743
▁description	-10.3743
▁koko	-10.3743
▁misuse	-10.3744
800	-10.3747
▁heck	-10.3748
▁consideration	-10.3752
case	-10.3762
▁confirmation	-10.3762
▁2030	-10.3765
iff	-10.3779
zen	-10.3785
hole	-10.3787
vert	-10.3794
▁protestor	-10.3809
▁shower	-10.3834
▁selling	-10.3835
▁americans	-10.3844
▁cautious	-10.3857
▁cuisine	-10.3857
▁wikipedia	-10.3857
▁leasing	-10.3857
▁snack	-10.3857
▁programming	-10.3857
▁plot	-10.3857
▁departure	-10.3858
▁monetar	-10.3858
▁suspicious	-10.3858
▁assistant	-10.3859
▁hungry	-10.3859
▁chemical	-10.3861
▁joint	-10.3867
▁myth	-10.3874
▁whil	-10.3875
▁pub	-10.3884
amba	-10.3901
▁constitutional	-10.3904
ese	-10.3907
▁thin	-10.391
▁farming	-10.3913
▁spar	-10.3923
▁carefully	-10.3926
▁learner	-10.3926
relate	-10.3932
ular	-10.3938
▁organic	-10.3958
form	-10.3959
ire	-10.397
▁separately	-10.3971
▁motorcycl	-10.3973
▁tshirt	-10.3973
▁courier	-10.3973
▁curiosity	-10.3973
▁graduation	-10.3973
▁provincial	-10.3973
▁purchasing	-10.3973
▁receipt	-10.3973
▁transparency	-10.3973
▁whale	-10.3973
▁observation	-10.3974
▁etf	-10.3974
▁accessible	-10.3976
▁lodg	-10.3977
▁headache	-10.3977
▁strengthen	-10.3979
▁marketplace	-10.398
▁interaction	-10.3983
▁panic	-10.3984
▁dividend	-10.3984
▁stressful	-10.3986
▁reaction	-10.3986
▁hub	-10.3998
top	-10.4011
▁magic	-10.4027
▁stone	-10.4032
▁vari	-10.4038
law	-10.4073
600	-10.4082
▁civi	-10.4084
▁assign	-10.4089
▁conclusion	-10.4091
▁supplement	-10.4091
▁resume	-10.4091
▁sibling	-10.4091
▁organise	-10.4092
▁acquire	-10.4093
▁beneficial	-10.4093
▁ally	-10.4094
▁scream	-10.4096
▁uniform	-10.4097
▁airtel	-10.41
▁shed	-10.4106
▁metal	-10.4109
▁247	-10.4113
▁investing	-10.4122
▁fup	-10.4126
▁wipe	-10.4129
▁lifetime	-10.4133
▁enthusiast	-10.4161
▁tone	-10.4167
esh	-10.4193
▁je	-10.4196
▁tha	-10.4197
▁indonesia	-10.421
▁routine	-10.421
▁subsidy	-10.421
▁volume	-10.421
▁latter	-10.421
▁lonely	-10.421
▁examination	-10.421
▁sunset	-10.421
▁prescribe	-10.421
▁apology	-10.421
▁suv	-10.4213
▁protester	-10.4213
ache	-10.4223
ira	-10.4226
▁men	-10.4233
▁logical	-10.4234
▁aud	-10.4238
▁menu	-10.4239
▁uoc	-10.4242
▁documentation	-10.4245
▁nail	-10.4245
kara	-10.4259
▁productive	-10.4282
22	-10.4305
▁boom	-10.4311
26	-10.4324
▁newspaper	-10.433
▁sensitive	-10.433
▁violation	-10.433
▁nightmare	-10.433
▁ukraine	-10.433
▁macbook	-10.4331
89	-10.4331
▁shake	-10.4335
▁lord	-10.4337
▁85	-10.4339
▁33	-10.4339
▁bright	-10.434
▁establishment	-10.4343
▁350	-10.4353
▁bout	-10.4357
▁gal	-10.4366
word	-10.437
▁consistently	-10.4373
▁bitch	-10.4391
▁visitor	-10.4407
▁iran	-10.4415
400	-10.4416
train	-10.4435
▁cm	-10.4437
▁mile	-10.444
▁sand	-10.4446
▁bracket	-10.4452
▁extension	-10.4452
▁monopoly	-10.4452
▁overtake	-10.4452
▁applicable	-10.4452
▁broadcast	-10.4453
▁dictatorship	-10.4453
▁bankruptcy	-10.4454
▁anger	-10.4455
▁jew	-10.4458
▁enforcement	-10.446
▁gradually	-10.4461
▁rocket	-10.4461
ugh	-10.447
arm	-10.4473
▁withdrawal	-10.448
▁deed	-10.4495
▁widely	-10.4514
▁certif	-10.454
▁unfortunate	-10.4546
▁kindly	-10.455
▁bind	-10.4556
▁occasion	-10.4564
fully	-10.4568
▁tier	-10.4574
▁bicycle	-10.4576
▁escalate	-10.4576
▁extremist	-10.4576
▁incompetent	-10.4576
▁nepotism	-10.4576
▁saturate	-10.4576
▁tattoo	-10.4576
▁silence	-10.4576
▁wfh	-10.4576
▁upset	-10.4576
▁loophole	-10.4576
▁making	-10.4576
▁waterfall	-10.4578
▁creator	-10.4579
▁plane	-10.4582
▁pfca	-10.4583
▁sec	-10.4589
▁reside	-10.4595
▁pile	-10.4596
▁stranger	-10.4599
▁respective	-10.4601
▁feb	-10.4602
▁bf	-10.4616
star	-10.4627
▁crowded	-10.463
▁follower	-10.4643
ving	-10.4645
▁pala	-10.465
related	-10.4653
▁cam	-10.4659
have	-10.4672
holding	-10.4692
▁spin	-10.4695
▁flex	-10.47
▁fortunate	-10.4701
▁outdoor	-10.4701
▁swift	-10.4701
▁symptom	-10.4701
▁crush	-10.4701
▁litter	-10.4701
▁mannar	-10.4701
▁numero	-10.4701
▁prescription	-10.4701
▁scold	-10.4702
▁neighborhood	-10.4702
▁defence	-10.4702
▁wagon	-10.4704
▁refugee	-10.4706
▁bribery	-10.4707
▁2014	-10.4708
▁footage	-10.4709
▁fucker	-10.4711
▁equality	-10.4711
▁offense	-10.4715
▁rc	-10.4716
▁xd	-10.4717
▁yup	-10.4718
▁diagnose	-10.472
▁popularity	-10.472
ther	-10.4724
▁unite	-10.4725
▁originally	-10.4727
▁blah	-10.4729
▁wood	-10.4729
▁mask	-10.4735
ock	-10.4739
▁wat	-10.4741
new	-10.4761
▁hv	-10.4772
▁nil	-10.4781
▁wav	-10.4784
▁perk	-10.4792
▁holy	-10.4813
▁preserv	-10.4814
▁object	-10.4824
▁easier	-10.4827
▁lavinia	-10.4827
▁violate	-10.4827
▁eliminate	-10.4827
▁turtle	-10.4827
▁hilarious	-10.4827
▁bathroom	-10.4827
▁misinformation	-10.4827
▁ugc	-10.4828
▁swap	-10.4828
▁ndb	-10.4829
▁merit	-10.483
▁scroll	-10.484
▁dirty	-10.4842
▁documentary	-10.4843
hana	-10.4847
▁pickup	-10.4856
▁gpu	-10.4867
▁thr	-10.4867
▁forth	-10.4871
bag	-10.4871
cap	-10.4872
▁semi	-10.4873
▁700	-10.4874
long	-10.4875
▁more	-10.4875
▁after	-10.4878
load	-10.4886
pu	-10.4887
max	-10.4898
rolling	-10.491
▁worthy	-10.4916
▁cd	-10.4922
▁chart	-10.4936
▁mechanic	-10.4945
▁initiate	-10.4955
▁reconciliation	-10.4955
▁vague	-10.4955
▁wickremesinghe	-10.4955
▁approx	-10.4956
▁overcome	-10.4956
▁rumor	-10.4956
▁discord	-10.4956
▁gmoa	-10.4956
▁scrap	-10.4956
▁downside	-10.4957
▁interior	-10.4957
▁realistically	-10.4958
▁keyboard	-10.4958
▁height	-10.496
▁alongside	-10.496
▁operato	-10.4965
run	-10.4967
▁sms	-10.4969
▁mega	-10.4971
09	-10.4975
▁done	-10.4977
▁importance	-10.4982
▁ssd	-10.4986
van	-10.499
1000	-10.5002
▁israeli	-10.5011
power	-10.5013
▁pun	-10.5014
▁ui	-10.5027
▁backwards	-10.5031
▁50000	-10.5038
ong	-10.5039
pointing	-10.5042
ina	-10.5046
▁trainer	-10.5046
▁artificial	-10.5055
▁streaming	-10.5059
▁insta	-10.507
▁sweat	-10.5084
▁lee	-10.5084
▁gut	-10.5084
▁excel	-10.5085
▁increment	-10.5085
▁motivation	-10.5085
▁scientist	-10.5085
▁steady	-10.5085
▁studio	-10.5085
▁vegetable	-10.5085
▁aussie	-10.5085
▁transform	-10.5086
▁yellow	-10.5086
▁evs	-10.5087
▁dislike	-10.5087
▁qa	-10.509
▁honor	-10.5094
▁bin	-10.5095
▁ob	-10.51
▁qua	-10.5117
wo	-10.5132
▁ping	-10.5138
▁bas	-10.5144
index	-10.5147
▁touristy	-10.5147
88	-10.5151
▁mill	-10.5151
self	-10.5151
▁dam	-10.5162
▁rider	-10.5164
▁ward	-10.5167
▁tall	-10.5169
77	-10.5171
ies	-10.5174
gy	-10.5182
▁danger	-10.5216
▁ceremony	-10.5217
▁congratulation	-10.5217
▁furniture	-10.5217
▁luggage	-10.5217
▁penalty	-10.5217
▁pollution	-10.5217
▁strategic	-10.5217
▁universal	-10.5217
▁virtual	-10.5217
▁ghost	-10.5217
▁duration	-10.5217
▁emerge	-10.5217
▁kiss	-10.5217
▁reduction	-10.5221
▁yt	-10.5226
▁breakdown	-10.5227
▁cult	-10.5231
▁oya	-10.5234
die	-10.5238
▁eng	-10.524
76	-10.5244
▁repay	-10.5245
▁doom	-10.5254
▁newly	-10.5264
▁mfs	-10.5268
▁scary	-10.5277
▁hrs	-10.5279
akka	-10.5297
read	-10.5311
laughing	-10.5318
▁lem	-10.5319
▁cz	-10.533
▁occasional	-10.5331
squint	-10.535
▁chandrika	-10.535
▁conference	-10.535
▁discriminate	-10.535
▁evolve	-10.535
▁qualify	-10.535
▁zoom	-10.535
▁bedroom	-10.5351
▁seal	-10.5351
▁ngl	-10.5351
▁boyfriend	-10.5351
▁assessment	-10.5353
▁dick	-10.5353
▁instruction	-10.5353
▁password	-10.5355
▁therapist	-10.5355
▁ngo	-10.5363
▁disappointed	-10.5364
▁jo	-10.5367
▁any	-10.5368
▁cite	-10.5377
900	-10.539
▁180	-10.5393
iva	-10.5395
ove	-10.5424
▁mas	-10.5432
verse	-10.5447
29	-10.5451
ux	-10.5451
▁frequent	-10.5455
▁ye	-10.5468
code	-10.5475
▁empire	-10.5485
▁grammar	-10.5485
▁draft	-10.5485
▁silver	-10.5485
▁nomad	-10.5485
▁element	-10.5485
▁adida	-10.5485
▁bulk	-10.5486
▁england	-10.5486
▁offsho	-10.5486
▁mentor	-10.5487
▁shi	-10.549
▁spotify	-10.5491
▁pitch	-10.5492
▁backpack	-10.5494
▁approximately	-10.5498
▁mount	-10.5522
▁510	-10.5524
▁su	-10.5525
▁install	-10.5531
▁peo	-10.5535
▁ethic	-10.554
▁poster	-10.5543
craft	-10.555
▁hut	-10.5569
▁paste	-10.5571
▁disappoint	-10.5572
▁ep	-10.5573
▁porn	-10.5583
weera	-10.5585
ven	-10.5599
99	-10.5609
▁sep	-10.5612
liya	-10.5616
▁calculation	-10.5622
▁conspiracy	-10.5622
▁dismiss	-10.5622
▁instrument	-10.5622
▁injure	-10.5622
▁landlord	-10.5622
▁miserable	-10.5622
▁shampoo	-10.5623
▁activist	-10.5624
▁upside	-10.5625
▁impressive	-10.5625
▁unknown	-10.5629
dha	-10.5629
▁packet	-10.5631
▁france	-10.5631
▁crop	-10.5631
▁stance	-10.5632
▁frame	-10.5649
▁vice	-10.5654
▁api	-10.5661
▁contractor	-10.5661
acle	-10.5661
33	-10.5663
▁roam	-10.5663
usd	-10.5673
etc	-10.5696
wala	-10.5708
▁logo	-10.572
04	-10.5727
ket	-10.5728
▁literal	-10.5736
▁outdate	-10.5739
▁lu	-10.5739
▁ju	-10.575
▁distract	-10.5754
▁anonymous	-10.5761
▁batalanda	-10.5761
▁celebration	-10.5761
▁contrast	-10.5761
▁definition	-10.5761
▁dynamic	-10.5761
▁gazette	-10.5761
▁hambantota	-10.5761
▁mechanism	-10.5761
▁sirisena	-10.5761
▁italian	-10.5761
▁miracle	-10.5761
▁prominent	-10.5761
curricula	-10.5761
▁invade	-10.5761
▁blog	-10.5761
▁atrocit	-10.5761
▁domain	-10.5762
▁hook	-10.5762
▁appreciation	-10.5762
▁mainstream	-10.5763
▁indicator	-10.5764
▁pipe	-10.5765
▁worldwide	-10.5765
▁hmm	-10.5767
▁existence	-10.5769
pensive	-10.577
▁expertise	-10.577
▁posh	-10.5771
place	-10.5773
▁hiru	-10.5775
ware	-10.5784
▁cb	-10.5795
▁clinical	-10.5804
▁script	-10.5808
lect	-10.5811
there	-10.5814
▁empath	-10.5819
▁scum	-10.5821
anda	-10.5824
▁alto	-10.5831
▁cid	-10.5837
▁businessman	-10.5841
▁07	-10.5851
singhe	-10.5867
▁peacefully	-10.5869
arine	-10.588
nis	-10.5881
occupy	-10.5902
▁humble	-10.5902
▁boundary	-10.5902
▁postpone	-10.5902
▁raising	-10.5902
▁outsource	-10.5903
▁fantastic	-10.5903
▁negotiation	-10.5903
▁beginning	-10.5907
▁harini	-10.5907
▁teenager	-10.591
▁pace	-10.5915
▁125	-10.5917
▁moon	-10.5921
▁pov	-10.5929
▁nz	-10.5935
▁exceptional	-10.594
▁storm	-10.5948
7000	-10.5951
▁singer	-10.5952
ample	-10.5952
▁thru	-10.5953
hari	-10.5959
▁sht	-10.5968
▁esp	-10.5969
class	-10.5974
tta	-10.5981
▁manageable	-10.5982
drive	-10.5989
▁ent	-10.5999
▁prof	-10.6012
▁format	-10.6016
aaa	-10.6017
▁theme	-10.6019
logist	-10.6045
▁airbnb	-10.6045
▁dissanayake	-10.6045
▁episode	-10.6045
▁ingredient	-10.6045
▁intelligent	-10.6045
▁nursing	-10.6045
▁obligation	-10.6045
▁temperature	-10.6045
▁indoor	-10.6045
pitiya	-10.6045
▁plug	-10.6045
▁stamp	-10.6045
▁ugly	-10.6047
▁favourite	-10.6047
▁novel	-10.6048
▁stall	-10.6049
▁assure	-10.6054
▁sham	-10.6064
▁hort	-10.6064
night	-10.6071
iyan	-10.6072
▁expression	-10.6075
▁hd	-10.608
▁mag	-10.6083
▁amongst	-10.6089
▁dust	-10.6095
▁acca	-10.6096
▁qr	-10.6102
▁button	-10.6103
▁blast	-10.6118
▁stabilize	-10.6118
circle	-10.6118
▁hearing	-10.6123
▁workout	-10.6124
▁20000	-10.6128
used	-10.6166
▁bang	-10.6176
▁youtuber	-10.6179
▁integrity	-10.619
▁manufacturing	-10.619
▁pregnant	-10.619
▁reluctant	-10.619
▁yield	-10.619
▁dispute	-10.619
▁petition	-10.619
▁personnel	-10.619
▁migrating	-10.619
▁devs	-10.619
▁diving	-10.6191
▁embra	-10.6192
▁liability	-10.6192
▁jewel	-10.6192
▁bucket	-10.6194
▁deput	-10.6196
▁attendance	-10.6199
▁demo	-10.6208
▁greedy	-10.6212
oka	-10.6213
oid	-10.6216
other	-10.622
▁backhand	-10.623
▁sin	-10.6232
▁economical	-10.6243
▁desperately	-10.6252
▁imply	-10.6258
keep	-10.6274
▁anc	-10.6284
▁cope	-10.6297
▁dive	-10.6315
▁sme	-10.6321
most	-10.6322
▁keel	-10.6329
▁disrespect	-10.6335
▁applicant	-10.6337
▁deliberate	-10.6337
▁honeymoon	-10.6337
▁incredible	-10.6337
▁ladder	-10.6337
▁length	-10.6337
▁maharagama	-10.6337
▁threshold	-10.6337
▁angel	-10.6338
▁square	-10.6338
▁confront	-10.634
▁basil	-10.634
▁bailout	-10.634
▁accordingly	-10.6343
▁dumbass	-10.6343
▁grandma	-10.6343
▁photography	-10.6353
▁authorize	-10.6357
▁retain	-10.6357
mani	-10.6358
▁pta	-10.6362
▁ot	-10.6363
ike	-10.6375
▁rom	-10.6376
▁900	-10.6378
▁airlines	-10.6385
pola	-10.639
get	-10.6391
▁enroll	-10.6394
▁them	-10.6405
▁ec	-10.6406
▁accountant	-10.6413
finger	-10.6417
▁wht	-10.6417
▁pant	-10.6423
cade	-10.6425
hour	-10.645
▁freely	-10.645
▁inch	-10.6452
▁soe	-10.6452
iness	-10.6453
▁mission	-10.6455
▁78	-10.6456
▁nomin	-10.6457
▁brag	-10.6481
▁gifgiphy	-10.6486
▁substantial	-10.6486
▁whatsoever	-10.6486
▁zealand	-10.6486
▁perceive	-10.6486
▁premier	-10.6486
▁river	-10.6486
▁tolerate	-10.6488
gate	-10.6491
▁caste	-10.6492
▁apiit	-10.6492
▁invert	-10.6494
▁nazi	-10.6494
▁alarm	-10.6497
▁dedicated	-10.6504
make	-10.6504
▁creepy	-10.6505
inda	-10.6507
▁saw	-10.6508
▁overwhelming	-10.6509
▁sink	-10.6514
▁peg	-10.6514
▁hardship	-10.6523
uc	-10.6523
▁handful	-10.6527
▁humanity	-10.6529
▁if	-10.6538
72	-10.6539
▁mistaken	-10.6554
ode	-10.6557
dark	-10.6567
▁creditor	-10.6574
▁dip	-10.6582
▁69	-10.6598
▁belt	-10.6616
▁excite	-10.6616
▁sue	-10.6618
▁depress	-10.6619
▁05	-10.6634
▁assassinat	-10.6638
▁circulat	-10.6638
▁cycling	-10.6638
▁flavor	-10.6638
▁happily	-10.6638
▁launder	-10.6638
▁maturity	-10.6638
▁unusual	-10.6638
▁bastard	-10.6638
▁reliability	-10.6638
▁spoil	-10.6638
▁abans	-10.6638
▁orange	-10.6638
▁drastically	-10.6639
▁experiment	-10.6639
▁smartphone	-10.6639
▁excessive	-10.6641
▁nightlife	-10.6644
▁loot	-10.6644
▁trace	-10.6645
▁creation	-10.6647
▁2008	-10.6648
▁coup	-10.6651
▁prep	-10.6658
▁yell	-10.6662
▁cad	-10.6664
ified	-10.6671
▁4000	-10.6682
▁liqu	-10.6686
▁lag	-10.6689
▁integrate	-10.6694
▁checkout	-10.6701
700	-10.6718
▁complet	-10.6732
▁225	-10.6736
ivity	-10.6744
cut	-10.6746
mbo	-10.6747
▁command	-10.6772
▁bn	-10.6773
▁innovat	-10.6783
▁architect	-10.679
▁lgbt	-10.6791
▁brainwash	-10.6792
▁controversial	-10.6792
▁freelancing	-10.6792
▁ignorance	-10.6792
▁jungle	-10.6792
▁lyceum	-10.6792
▁orphanage	-10.6792
▁prabhakaran	-10.6792
▁rebuild	-10.6792
▁survival	-10.6792
▁temporarily	-10.6792
▁transparent	-10.6792
▁knock	-10.6792
▁newswire	-10.6792
▁ritual	-10.6792
▁prompt	-10.6792
▁bmw	-10.6792
▁utiliz	-10.6792
▁aqua	-10.6792
▁resell	-10.6792
▁pohottuwa	-10.6792
▁women	-10.6792
▁haircut	-10.6794
▁simp	-10.6794
▁outright	-10.6794
▁chairman	-10.6795
▁diverse	-10.6796
▁overtime	-10.6797
▁guideline	-10.68
▁judgement	-10.6807
▁assist	-10.6811
▁130	-10.6819
inton	-10.6823
▁disappointing	-10.6829
▁tur	-10.6831
▁normalize	-10.6831
▁recruiter	-10.6836
▁econ	-10.6838
▁limitation	-10.684
36	-10.6846
▁cow	-10.6847
▁coastal	-10.6849
men	-10.6851
▁passive	-10.6851
01	-10.6861
economic	-10.6876
▁fore	-10.688
that	-10.6884
▁37	-10.6898
press	-10.6903
▁disgust	-10.6911
▁ramp	-10.6914
front	-10.6914
▁pakistani	-10.6925
▁tn	-10.6927
lit	-10.6938
▁terror	-10.6943
27	-10.6947
▁assumption	-10.6948
▁combank	-10.6948
▁gampaha	-10.6948
▁perception	-10.6948
▁restructuring	-10.6948
▁tackle	-10.6948
▁cargill	-10.6948
▁kitten	-10.6948
▁gentle	-10.6948
▁rational	-10.6948
▁mismanagement	-10.6949
▁intel	-10.6951
▁desk	-10.6952
▁reset	-10.6953
▁scientific	-10.6955
▁ish	-10.6959
▁arise	-10.696
gam	-10.6961
▁founder	-10.6963
▁photographer	-10.6963
▁diversity	-10.6963
▁cfa	-10.6964
▁butter	-10.6973
▁african	-10.6975
▁float	-10.6976
▁nine	-10.6976
▁bal	-10.6979
▁fulfill	-10.6993
▁sticker	-10.7001
▁outsider	-10.7011
tract	-10.7013
▁parad	-10.7015
tamin	-10.7025
income	-10.7035
▁aug	-10.7051
▁punch	-10.706
▁agricultur	-10.7071
well	-10.7087
▁ash	-10.7092
▁maps	-10.7096
▁entertain	-10.7106
▁aesthetic	-10.7107
▁condemn	-10.7107
▁disclaimer	-10.7107
▁ecommerce	-10.7107
▁guitar	-10.7107
▁haputale	-10.7107
▁inconvenience	-10.7107
▁kurunegala	-10.7107
▁occupation	-10.7107
▁psychologist	-10.7107
▁rajagiriya	-10.7107
▁throttle	-10.7107
▁blatant	-10.7107
▁enhance	-10.7107
▁leverage	-10.7107
▁motorbike	-10.7107
▁dignity	-10.7107
▁truck	-10.7107
▁parallel	-10.7107
▁twist	-10.7107
▁melting	-10.7107
▁cartoon	-10.7107
▁sharp	-10.7107
calendar	-10.7107
▁vezel	-10.7107
▁stab	-10.7107
▁dining	-10.7108
▁offence	-10.7108
▁karma	-10.7109
▁layoff	-10.711
▁neck	-10.711
▁appearance	-10.7111
▁hung	-10.7112
▁depth	-10.7112
▁42	-10.7112
liance	-10.7118
▁recall	-10.712
▁closed	-10.7126
▁2012	-10.7127
47	-10.7134
▁everytime	-10.7143
▁korean	-10.7146
▁drinking	-10.7149
cat	-10.7156
made	-10.7161
▁tracking	-10.7163
▁string	-10.7174
▁perch	-10.7177
▁bath	-10.7184
vol	-10.7188
▁dim	-10.7201
person	-10.7207
▁actor	-10.7207
spare	-10.7209
shit	-10.7212
▁wet	-10.7214
▁2005	-10.7224
▁speaking	-10.7239
▁greed	-10.7244
▁110	-10.7248
▁liquid	-10.7266
▁prosper	-10.7267
▁biscuit	-10.7268
▁blockchain	-10.7268
▁boycott	-10.7268
▁convict	-10.7268
▁credibility	-10.7268
▁credible	-10.7268
▁elaborate	-10.7268
▁execute	-10.7268
▁fabric	-10.7268
▁grandparent	-10.7268
▁jersey	-10.7268
▁massacre	-10.7268
▁overlook	-10.7268
▁unsafe	-10.7268
▁forgive	-10.7268
▁genius	-10.7268
▁instability	-10.7268
▁essay	-10.7268
▁suzu	-10.7268
▁sneak	-10.7268
▁chunk	-10.7268
▁straw	-10.7268
▁visual	-10.7268
▁mbbs	-10.7268
▁viral	-10.7268
▁giant	-10.7268
▁omg	-10.7268
▁psych	-10.7268
▁olympic	-10.7268
▁surface	-10.7268
▁hesitat	-10.7269
▁boring	-10.727
▁mood	-10.7271
▁detain	-10.7274
▁kong	-10.7276
▁hangout	-10.7276
▁prepay	-10.7276
▁extract	-10.7284
▁safely	-10.7284
ola	-10.7288
kanda	-10.7291
▁overly	-10.7297
▁pit	-10.73
call	-10.7312
▁timeline	-10.7326
▁grass	-10.7332
▁ut	-10.7332
▁kindness	-10.7337
▁ccc	-10.7339
▁layer	-10.7346
late	-10.736
ild	-10.7375
care	-10.7376
▁fresher	-10.7376
ooo	-10.7382
suit	-10.7412
xx	-10.7418
▁sovereign	-10.743
▁altogether	-10.7432
▁atmosphere	-10.7432
▁bureaucracy	-10.7432
▁cigarette	-10.7432
▁clarification	-10.7432
▁compound	-10.7432
▁compulsory	-10.7432
▁fertilizer	-10.7432
▁galaxy	-10.7432
▁nutrition	-10.7432
▁portuguese	-10.7432
▁theatre	-10.7432
▁torrent	-10.7432
▁wisdom	-10.7432
▁breach	-10.7432
▁trinco	-10.7432
▁cctv	-10.7432
▁onsite	-10.7432
▁zscore	-10.7432
▁clip	-10.7432
▁flip	-10.7432
▁unstable	-10.7432
▁invent	-10.7432
▁cashier	-10.7432
▁salut	-10.7432
▁saree	-10.7432
allocation	-10.7433
▁japura	-10.7433
▁ielt	-10.7435
▁halt	-10.7438
▁postal	-10.7438
▁partnership	-10.744
▁comm	-10.7441
▁harbo	-10.7441
ria	-10.7447
▁bless	-10.7448
arath	-10.745
▁this	-10.7454
49	-10.7456
▁continuously	-10.7457
▁38	-10.7457
▁charter	-10.746
▁wisely	-10.7462
wella	-10.7471
▁prize	-10.7475
▁eld	-10.7476
▁accidental	-10.7477
▁seven	-10.7478
▁toll	-10.7485
watta	-10.7488
▁poorly	-10.7505
▁historically	-10.7508
▁nose	-10.751
taking	-10.7516
phone	-10.7518
▁moderate	-10.7519
world	-10.7526
guard	-10.753
▁pointless	-10.7536
▁cre	-10.7552
150	-10.7558
▁01	-10.7562
8000	-10.7565
▁exclusive	-10.7568
tric	-10.7569
▁impress	-10.7574
▁optional	-10.7575
▁differ	-10.7589
▁detect	-10.7592
cast	-10.7593
▁extensive	-10.7598
▁furthermore	-10.7598
▁immense	-10.7598
▁incompetenc	-10.7598
▁inquiry	-10.7598
▁irrelevant	-10.7598
▁lobby	-10.7598
▁magnite	-10.7598
▁nanotek	-10.7598
▁technique	-10.7598
▁tropical	-10.7598
▁unrealistic	-10.7598
▁shelter	-10.7598
▁premise	-10.7598
▁malabe	-10.7599
▁radical	-10.7599
▁gross	-10.7599
▁distribute	-10.7599
▁crony	-10.7599
▁dhl	-10.7599
gamuwa	-10.7599
▁wherever	-10.7599
▁underpaid	-10.7599
▁brush	-10.76
▁lockdown	-10.76
alam	-10.76
▁diver	-10.7603
▁horn	-10.7608
▁medi	-10.7609
▁cunt	-10.7609
▁consultation	-10.7611
▁meta	-10.7613
▁amid	-10.7615
▁paycheck	-10.7615
▁attraction	-10.7618
▁mob	-10.7619
rance	-10.7632
▁fm	-10.7634
▁freeze	-10.7636
▁bury	-10.7637
▁icon	-10.7638
▁67	-10.7639
▁backend	-10.7667
fact	-10.7667
▁shoulder	-10.7683
▁ruler	-10.7686
▁caf	-10.7745
▁motivate	-10.7746
though	-10.7748
999	-10.7753
anna	-10.7766
▁academy	-10.7768
▁accusation	-10.7768
▁arrogant	-10.7768
▁awkward	-10.7768
▁feminism	-10.7768
▁municipal	-10.7768
▁possess	-10.7768
▁cheese	-10.7768
▁iirc	-10.7768
▁beggar	-10.7768
▁federal	-10.7768
▁garage	-10.7768
▁vitz	-10.7768
▁horse	-10.7768
▁demographic	-10.7768
▁terminal	-10.7769
▁inefficient	-10.7769
▁asus	-10.7769
▁migrant	-10.7769
▁uncertainty	-10.7769
uni	-10.7773
▁loop	-10.7773
▁partial	-10.7782
▁pg	-10.7782
▁israelis	-10.7782
▁amd	-10.7782
▁curse	-10.7784
▁prediction	-10.7788
▁illness	-10.779
▁few	-10.7791
▁instantly	-10.7793
▁rapidly	-10.7794
comm	-10.7799
▁fla	-10.7807
conductor	-10.7816
▁illegally	-10.7824
▁bitter	-10.7826
hamas	-10.7827
▁understandable	-10.7839
sex	-10.7841
▁formula	-10.7848
55	-10.7858
▁uda	-10.7865
quality	-10.7866
million	-10.7869
▁kandyan	-10.788
nawa	-10.7899
rous	-10.791
▁historic	-10.794
▁clapping	-10.794
▁animation	-10.794
▁compensate	-10.794
▁fiscal	-10.794
▁github	-10.794
▁glorify	-10.794
▁injury	-10.794
▁inquire	-10.794
▁leopard	-10.794
▁pidurangala	-10.794
▁societal	-10.794
▁suspend	-10.794
▁territory	-10.794
▁bargain	-10.794
▁criticise	-10.794
▁hotspot	-10.794
▁desktop	-10.7941
▁spiritual	-10.7941
▁specify	-10.7942
▁summary	-10.7942
▁unpaid	-10.7947
▁grave	-10.795
▁classmate	-10.7951
▁engagement	-10.7956
▁tile	-10.7956
▁brit	-10.796
▁bold	-10.7963
▁sud	-10.7972
▁tongue	-10.7975
▁iq	-10.7979
▁indie	-10.7979
▁occasionally	-10.7982
wan	-10.7996
▁03	-10.7997
▁functional	-10.7998
mber	-10.8011
32	-10.8013
indu	-10.8015
poli	-10.8025
hrs	-10.8026
▁craft	-10.8032
view	-10.8036
▁clan	-10.8038
gra	-10.8059
▁taxable	-10.8069
▁eh	-10.8078
leftist	-10.8086
▁yahapalana	-10.8114
▁apologize	-10.8116
▁exaggerate	-10.8116
▁merchant	-10.8116
▁opportunitie	-10.8116
▁palestine	-10.8116
▁python	-10.8116
▁quarantine	-10.8116
▁sinharaja	-10.8116
▁squeeze	-10.8116
▁upvote	-10.8116
▁spray	-10.8116
▁demonstrat	-10.8116
▁garment	-10.8116
▁carrier	-10.8116
▁generic	-10.8116
▁captain	-10.8117
▁spell	-10.8118
▁havelock	-10.812
▁devop	-10.8121
▁dept	-10.8121
▁shell	-10.8121
▁manipulation	-10.8121
▁clueless	-10.8122
▁arrangement	-10.8127
54	-10.8128
▁hong	-10.8133
▁pave	-10.8133
▁summer	-10.8138
▁stripe	-10.815
▁bash	-10.8152
▁yrs	-10.8154
▁dili	-10.8154
▁gp	-10.8157
▁conditioner	-10.816
▁kara	-10.816
▁caa	-10.8174
▁pett	-10.8175
▁memo	-10.818
path	-10.8188
▁badm	-10.819
unu	-10.8191
79	-10.8209
jp	-10.8214
▁kal	-10.8224
86	-10.8232
▁insanely	-10.8241
▁annoy	-10.8246
▁kar	-10.8256
▁loyal	-10.8257
▁fed	-10.8257
turn	-10.8259
▁mud	-10.8259
paid	-10.8262
▁exporter	-10.8285
yana	-10.8287
▁cruise	-10.8293
▁anxious	-10.8294
▁brilliant	-10.8294
▁contradict	-10.8294
▁disclose	-10.8294
▁phrase	-10.8294
▁vulnerable	-10.8294
▁diversify	-10.8294
▁lounge	-10.8294
▁poison	-10.8294
▁suppress	-10.8294
▁conquer	-10.8294
▁badulla	-10.8294
▁retard	-10.8294
▁endorse	-10.8295
▁timing	-10.8295
▁goverment	-10.8295
▁vital	-10.8295
▁aswell	-10.8295
▁genetic	-10.8295
▁inclusive	-10.8295
▁honour	-10.8295
▁upfront	-10.8296
▁resistance	-10.8296
▁signature	-10.8296
▁peko	-10.8297
▁expressway	-10.8297
▁tailor	-10.8298
▁middleclass	-10.8298
▁sparkle	-10.8299
izing	-10.8303
▁bend	-10.8305
onic	-10.8309
inland	-10.8317
▁hopeful	-10.8322
▁prayer	-10.833
▁policeman	-10.8351
▁tale	-10.8365
▁nationality	-10.8365
▁loser	-10.8373
▁ww	-10.8389
people	-10.8405
▁where	-10.8407
vision	-10.8412
▁preach	-10.8415
▁sheer	-10.8416
▁endless	-10.8417
ought	-10.8421
▁aust	-10.8424
▁fishing	-10.8433
▁planet	-10.8445
unch	-10.845
▁guilt	-10.8451
▁marin	-10.8463
sale	-10.8466
▁orient	-10.8471
▁abusive	-10.8476
▁attorney	-10.8476
▁audacity	-10.8476
▁fonseka	-10.8476
▁nandalal	-10.8476
▁netherland	-10.8476
▁prohibit	-10.8476
▁ravana	-10.8476
▁shortterm	-10.8476
▁grasp	-10.8476
▁kidney	-10.8476
▁funeral	-10.8476
▁fingerprint	-10.8477
▁hitler	-10.8477
▁downfall	-10.8477
▁pirate	-10.8478
▁swing	-10.8478
▁beef	-10.8479
ensible	-10.848
national	-10.848
▁2027	-10.8482
ratne	-10.8484
▁raid	-10.8491
▁restore	-10.8494
▁len	-10.8496
▁representation	-10.8498
▁pleasant	-10.8505
▁boomer	-10.851
▁slide	-10.8529
▁fianc	-10.853
gb	-10.853
▁iv	-10.8532
nayake	-10.8537
▁chan	-10.8546
▁dj	-10.8554
82	-10.8555
38	-10.8555
tax	-10.8563
round	-10.8565
▁remov	-10.857
pan	-10.8574
tten	-10.858
rift	-10.8591
kandy	-10.8591
roll	-10.8604
state	-10.8606
▁fulfil	-10.8608
▁coll	-10.8616
▁strip	-10.8645
vt	-10.8649
▁surge	-10.8652
▁digit	-10.8654
▁excess	-10.8658
▁alternat	-10.8658
▁spirit	-10.8661
▁enlighten	-10.8661
▁grandfather	-10.8661
▁inferior	-10.8661
▁intellectual	-10.8661
▁judiciary	-10.8661
▁mortgage	-10.8661
▁mosquito	-10.8661
▁outlook	-10.8661
▁resolution	-10.8661
▁congrat	-10.8661
▁computing	-10.8661
▁scandal	-10.8661
▁kfc	-10.8661
▁rival	-10.8661
▁allege	-10.8661
▁dental	-10.8662
▁ltd	-10.8662
▁winking	-10.8662
▁herb	-10.8662
▁penny	-10.8662
▁outfit	-10.8663
▁skincare	-10.8663
▁priest	-10.8663
▁shade	-10.8665
▁mileage	-10.8665
▁terminat	-10.8666
▁combo	-10.8667
▁vanish	-10.8667
▁thero	-10.8668
anne	-10.8671
▁specialization	-10.8671
▁advertisement	-10.8671
▁coworker	-10.8672
▁trait	-10.8672
▁renewal	-10.8682
▁demon	-10.8685
▁bpo	-10.8685
▁som	-10.8698
▁shin	-10.8699
▁butt	-10.8712
▁workload	-10.8713
▁recording	-10.8742
▁washing	-10.8743
▁casually	-10.8744
▁naive	-10.8749
▁89	-10.8752
play	-10.8783
around	-10.8793
cam	-10.88
ancy	-10.8802
fall	-10.8804
hhh	-10.881
game	-10.8813
▁wh	-10.8818
07	-10.8825
▁dedicate	-10.8828
▁tent	-10.8834
sub	-10.8834
▁tender	-10.8836
▁pfc	-10.8839
▁conf	-10.8839
▁bowl	-10.8841
▁spit	-10.8843
නම	-10.8845
▁killing	-10.8845
▁maithri	-10.885
▁accomodat	-10.885
▁competitor	-10.885
▁injustice	-10.885
▁mediocre	-10.885
▁nervous	-10.885
▁patience	-10.885
▁philippine	-10.885
▁prefect	-10.885
▁sirimavo	-10.885
▁unbiased	-10.885
▁plaza	-10.885
▁reckless	-10.885
▁substance	-10.885
▁unprofessional	-10.8851
▁salon	-10.8851
▁incorrect	-10.8851
▁tiger	-10.8852
▁theft	-10.8852
▁stake	-10.8853
▁isb	-10.8857
▁crew	-10.8858
▁2013	-10.8859
▁1990	-10.8862
maker	-10.8866
▁rail	-10.8866
▁nerd	-10.8867
▁huh	-10.8869
▁pleading	-10.887
▁thai	-10.8872
▁seize	-10.8879
uch	-10.8888
▁weekday	-10.8889
loyalty	-10.889
agon	-10.8902
▁severely	-10.8926
live	-10.8928
gging	-10.8932
▁pera	-10.8948
▁fck	-10.8961
worth	-10.8972
▁cure	-10.8973
▁140	-10.8987
▁consist	-10.8991
▁imagin	-10.8996
▁dell	-10.9002
▁batt	-10.9006
59	-10.9006
style	-10.9032
from	-10.9032
▁sincere	-10.9032
dict	-10.9039
▁beforehand	-10.9042
▁bypass	-10.9042
▁curfew	-10.9042
▁deploy	-10.9042
▁distinct	-10.9042
▁grandmother	-10.9042
▁insurrection	-10.9042
▁judgment	-10.9042
▁privatis	-10.9042
▁satisfy	-10.9042
▁straightforward	-10.9042
▁unexpected	-10.9042
▁concert	-10.9042
▁shield	-10.9042
▁sketch	-10.9042
▁calorie	-10.9042
▁wound	-10.9042
▁upwards	-10.9042
▁gossip	-10.9042
▁eager	-10.9042
▁whey	-10.9043
▁problematic	-10.9043
▁psychological	-10.9043
▁authoritarian	-10.9043
▁pdf	-10.9043
▁thick	-10.9045
▁magically	-10.9045
▁delusional	-10.9047
▁groom	-10.9049
▁viewpoint	-10.9051
▁diplomatic	-10.9052
▁maid	-10.9053
▁pearl	-10.9053
▁outage	-10.9056
95	-10.9057
▁addiction	-10.9059
▁reviv	-10.906
▁county	-10.906
▁indirectly	-10.9064
▁snorkeling	-10.9067
▁massively	-10.908
ndra	-10.9085
▁sanit	-10.9085
▁mindful	-10.9089
fit	-10.9095
▁ravi	-10.9111
▁relaxed	-10.9115
nor	-10.9116
▁flower	-10.9117
2025	-10.9118
achchi	-10.9118
▁alien	-10.9119
fin	-10.9125
▁hyper	-10.9127
▁sara	-10.9142
peak	-10.915
▁row	-10.9162
▁scare	-10.917
button	-10.917
after	-10.9173
▁vent	-10.9177
41	-10.9193
aint	-10.9201
▁continuous	-10.9209
▁jealous	-10.9213
ature	-10.9217
uka	-10.9219
▁quo	-10.9225
▁intent	-10.923
▁fantas	-10.9237
▁refresh	-10.9238
▁advertising	-10.9238
▁dispose	-10.9238
▁dissolve	-10.9238
▁hesitant	-10.9238
▁horror	-10.9238
▁hygiene	-10.9238
▁lasantha	-10.9238
▁peanut	-10.9238
▁residency	-10.9238
▁sigirya	-10.9238
▁twenty	-10.9238
▁bootlick	-10.9238
▁clarity	-10.9238
▁jesus	-10.9239
▁fiverr	-10.9239
▁portray	-10.9239
▁repeatedly	-10.9239
▁unrest	-10.9239
▁bump	-10.9239
▁controller	-10.9239
▁fuss	-10.9239
▁manual	-10.924
▁grey	-10.9241
▁vape	-10.9242
▁ikmanlk	-10.9242
▁kudo	-10.9244
▁harmful	-10.9244
▁polish	-10.9244
▁regulatory	-10.9246
▁daddy	-10.9246
▁stir	-10.9247
tention	-10.9249
▁powercut	-10.925
uwan	-10.9266
▁biased	-10.9273
▁spark	-10.9274
▁tele	-10.9284
▁ny	-10.9296
▁yu	-10.9297
shak	-10.9298
▁workshop	-10.9306
▁vid	-10.9312
▁avi	-10.9317
▁generational	-10.932
▁roman	-10.9324
▁idiotic	-10.9326
▁iam	-10.9336
▁medal	-10.9342
▁ib	-10.9349
nda	-10.9353
▁48	-10.9355
colombo	-10.9367
srilanka	-10.9368
pala	-10.9392
ique	-10.9402
▁rapid	-10.9414
▁worse	-10.9428
▁disadvantage	-10.9438
▁explicit	-10.9438
▁hypocrisy	-10.9438
▁implication	-10.9438
▁neglect	-10.9438
▁outstanding	-10.9438
▁ruhuna	-10.9438
▁senanayake	-10.9438
▁thursday	-10.9438
▁tsunami	-10.9438
▁unethical	-10.9438
▁pleasure	-10.9438
▁attest	-10.9438
▁basket	-10.9439
▁plz	-10.9439
▁tution	-10.9439
▁probation	-10.9439
▁queen	-10.9439
▁ogf	-10.9439
▁optimistic	-10.9439
▁robber	-10.9439
▁subscribe	-10.944
▁thrill	-10.944
▁database	-10.9442
▁instructor	-10.9442
▁bullet	-10.9442
▁variant	-10.9442
▁intentionally	-10.9444
▁mcq	-10.9449
▁hostage	-10.945
▁bored	-10.9459
▁temp	-10.9462
▁supposed	-10.9469
▁lotus	-10.947
▁exclusively	-10.9475
▁trainee	-10.9476
▁dub	-10.9477
▁implementation	-10.9483
▁beware	-10.9486
lton	-10.9492
▁incur	-10.9506
▁endure	-10.9513
▁soc	-10.9534
▁hint	-10.9537
▁permanently	-10.9541
agama	-10.9543
▁reap	-10.9544
▁org	-10.9544
room	-10.9564
screen	-10.9571
▁siri	-10.9574
▁edition	-10.958
liable	-10.9587
▁sem	-10.9589
ggie	-10.959
thank	-10.9603
▁ahh	-10.9613
▁creep	-10.9618
▁unam	-10.9623
28	-10.9634
▁oppress	-10.9638
▁patriot	-10.9641
▁inherit	-10.9641
▁interfere	-10.9642
▁casino	-10.9643
▁comparatively	-10.9643
▁disorder	-10.9643
▁distribution	-10.9643
▁epfetf	-10.9643
▁gambling	-10.9643
▁kangaroo	-10.9643
▁lucrative	-10.9643
▁mcdonald	-10.9643
▁microsoft	-10.9643
▁rescue	-10.9643
▁structural	-10.9643
▁supplier	-10.9643
▁venezuela	-10.9643
▁wednesday	-10.9643
▁ashamed	-10.9643
▁confusing	-10.9643
▁legacy	-10.9643
▁proportion	-10.9643
▁vouch	-10.9643
▁dfcc	-10.9643
▁lorry	-10.9643
▁vocal	-10.9643
▁kerala	-10.9643
▁lowkey	-10.9643
▁lyric	-10.9643
tumble	-10.9643
▁knee	-10.9644
▁blend	-10.9644
▁resist	-10.9644
▁1948	-10.9645
▁binance	-10.9645
▁sunny	-10.9645
▁juice	-10.9645
▁crab	-10.9646
▁upwork	-10.9648
▁superiority	-10.965
▁2029	-10.9651
▁worsen	-10.9653
▁winner	-10.9653
▁slim	-10.9657
▁massage	-10.9658
▁smh	-10.9662
▁irony	-10.9663
▁specialise	-10.967
pot	-10.9672
▁settlement	-10.9675
udge	-10.9675
awala	-10.9681
▁presentation	-10.9685
▁gallery	-10.9691
▁some	-10.9717
▁correction	-10.9737
▁diya	-10.9753
▁balanced	-10.9753
entrepreneurship	-10.9759
▁lens	-10.9768
▁fc	-10.9772
print	-10.9782
high	-10.9792
මන	-10.9797
▁increas	-10.9806
▁450	-10.9822
▁sol	-10.9824
▁instant	-10.9824
▁dirt	-10.9828
▁bun	-10.9829
▁160	-10.983
▁corrupted	-10.9832
▁weigh	-10.9834
▁shocking	-10.9844
▁meth	-10.9848
▁absorb	-10.9851
▁accumulate	-10.9851
▁adequate	-10.9851
▁anniversary	-10.9851
▁celebrity	-10.9851
▁communism	-10.9851
▁dilemma	-10.9851
▁exciting	-10.9851
▁facilitate	-10.9851
▁injection	-10.9851
▁overcharge	-10.9851
▁rajapakshe	-10.9851
▁unofficial	-10.9851
▁wilpattu	-10.9851
▁gamble	-10.9851
▁buffer	-10.9851
▁allegedly	-10.9851
▁nonstop	-10.9851
▁boast	-10.9851
▁jkh	-10.9851
▁nanu	-10.9851
▁comprehensive	-10.9851
▁tragic	-10.9851
▁biological	-10.9852
▁colonis	-10.9853
▁quantity	-10.9854
▁span	-10.9856
▁motion	-10.9856
▁yoga	-10.9856
▁puppet	-10.9857
▁mouse	-10.9857
mala	-10.9857
▁surgeon	-10.9858
▁frontend	-10.9859
▁amex	-10.9859
▁relieved	-10.986
▁nude	-10.9863
▁outta	-10.9866
85	-10.9868
▁junk	-10.9869
▁mild	-10.9872
▁30000	-10.9874
▁acne	-10.9879
▁deem	-10.988
▁stupidity	-10.9895
▁meantime	-10.9911
hill	-10.9921
rome	-10.9952
will	-10.9966
▁ric	-10.9969
62	-10.9975
▁pose	-10.9981
script	-10.9984
▁strictly	-10.9988
course	-10.9991
break	-10.9992
▁500000	-10.9996
▁evaluate	-10.9998
tx	-11.001
▁vf	-11.0021
▁ironic	-11.0036
▁depart	-11.0059
▁bru	-11.0059
▁auction	-11.0064
▁battaramulla	-11.0064
▁biomedical	-11.0064
▁coalition	-11.0064
▁disgrace	-11.0064
▁junction	-11.0064
▁paragraph	-11.0064
▁pharmaceutical	-11.0064
▁relocate	-11.0064
▁ritalin	-11.0064
▁widespread	-11.0064
▁interpret	-11.0064
▁fronx	-11.0064
▁hurry	-11.0064
▁wattala	-11.0064
▁sunrise	-11.0064
▁conscious	-11.0064
▁vlog	-11.0064
▁verbal	-11.0064
▁esim	-11.0064
▁queer	-11.0064
▁someday	-11.0065
▁underworld	-11.0065
▁dharma	-11.0065
▁tune	-11.0065
▁silly	-11.0065
▁tick	-11.0066
▁versa	-11.0067
▁hiking	-11.0068
residential	-11.0068
▁headphone	-11.0069
▁charm	-11.0069
▁classroom	-11.007
▁macro	-11.007
▁hoard	-11.0071
▁ecu	-11.0078
▁disabled	-11.0079
▁til	-11.008
▁2011	-11.0084
▁redmi	-11.0085
▁intense	-11.0089
▁motivated	-11.0092
chem	-11.0097
▁thankfully	-11.0098
road	-11.0105
▁57	-11.0109
42	-11.0135
31	-11.0136
▁meetup	-11.0138
▁46	-11.0151
▁hopeless	-11.0158
pende	-11.0179
▁smth	-11.0193
▁tab	-11.0197
position	-11.0197
▁sooo	-11.0202
drop	-11.0215
▁referr	-11.0218
store	-11.0222
▁triple	-11.0226
physic	-11.0251
▁clock	-11.0257
ifie	-11.0262
▁cough	-11.0263
▁accommodat	-11.0273
▁indi	-11.0279
▁automatic	-11.028
▁emphasis	-11.0281
▁emphasize	-11.0281
▁flexibility	-11.0281
▁knife	-11.0281
▁luxuri	-11.0281
▁nuclear	-11.0281
▁overcrowd	-11.0281
▁palestinian	-11.0281
▁paranoid	-11.0281
▁recycle	-11.0281
▁reservation	-11.0281
▁tuesday	-11.0281
▁unacceptable	-11.0281
▁allergy	-11.0281
▁earbud	-11.0281
▁resonate	-11.0281
▁heaven	-11.0281
▁spouse	-11.0281
▁theater	-11.0281
▁jeep	-11.0281
cultivate	-11.0281
▁bitcoin	-11.0281
▁distant	-11.0281
▁creativity	-11.0281
▁television	-11.0281
▁basketball	-11.0281
▁collateral	-11.0281
▁roast	-11.0282
▁secular	-11.0282
▁atheist	-11.0282
▁unemployment	-11.0282
▁running	-11.0282
▁persist	-11.0283
▁proto	-11.0283
▁nuance	-11.0284
▁restart	-11.0287
▁inflow	-11.0291
▁bayya	-11.0293
▁announcement	-11.0294
▁renewable	-11.0295
▁whi	-11.0295
▁2006	-11.0297
▁hopper	-11.0298
▁cbk	-11.0321
▁relic	-11.0324
▁soil	-11.0328
▁aunty	-11.0332
▁subjective	-11.0345
▁77	-11.0348
▁roi	-11.0363
▁cargo	-11.0375
▁nepo	-11.0382
▁44	-11.0388
igama	-11.0408
storm	-11.0432
▁financ	-11.0434
▁bone	-11.0482
▁legislat	-11.0495
▁analyze	-11.0503
▁batticaloa	-11.0503
▁chapter	-11.0503
▁concrete	-11.0503
▁confusion	-11.0503
▁disguise	-11.0503
▁disregard	-11.0503
▁ecosystem	-11.0503
▁feminist	-11.0503
▁inevitable	-11.0503
▁inspiration	-11.0503
▁reception	-11.0503
▁spectrum	-11.0503
▁subsequent	-11.0503
▁theoretical	-11.0503
▁worthwhile	-11.0503
▁comparable	-11.0503
grimacing	-11.0503
▁meditation	-11.0503
▁ofcourse	-11.0503
▁saudi	-11.0503
▁forecast	-11.0504
▁compatib	-11.0504
▁taboo	-11.0504
▁cease	-11.0506
▁statue	-11.0506
▁paradise	-11.0506
▁modify	-11.0507
▁evade	-11.0507
▁assess	-11.0507
▁bookingcom	-11.0507
hz	-11.0508
▁aviation	-11.0509
▁2028	-11.0509
▁filth	-11.0512
▁seperate	-11.0514
▁1980	-11.0516
▁starve	-11.0517
▁resale	-11.0519
▁grain	-11.052
▁3040	-11.0522
▁usaid	-11.0522
▁sexuality	-11.0522
▁acceptance	-11.0529
▁winter	-11.0531
▁fever	-11.0532
▁deduction	-11.0534
▁eka	-11.0539
▁honk	-11.0553
▁odi	-11.0563
▁meh	-11.0566
▁amma	-11.057
▁convo	-11.0595
witch	-11.0595
▁vijaya	-11.06
▁ohh	-11.0606
▁socio	-11.0612
▁fdi	-11.0614
eem	-11.0627
▁ironical	-11.0628
3000	-11.0634
learn	-11.0644
known	-11.065
especially	-11.0659
government	-11.0659
unda	-11.0661
▁68	-11.0662
▁backward	-11.0662
▁valu	-11.0665
▁marginal	-11.068
▁sigh	-11.0699
udu	-11.0709
▁boi	-11.0711
▁liber	-11.0716
▁construct	-11.0719
▁antibiotic	-11.0731
▁arbitrar	-11.0731
▁caution	-11.0731
▁inherent	-11.0731
▁invasion	-11.0731
▁participation	-11.0731
▁pfizer	-11.0731
▁phenomenon	-11.0731
▁pinnawala	-11.0731
▁privatize	-11.0731
▁sabotage	-11.0731
▁smoking	-11.0731
▁automation	-11.0731
▁justification	-11.0731
▁renovat	-11.0731
▁sweep	-11.0731
▁colonize	-11.0731
▁dunno	-11.0731
▁frimi	-11.0731
▁flour	-11.0731
▁unaware	-11.0731
▁hefty	-11.0731
▁virus	-11.0731
▁introduct	-11.0731
▁carnage	-11.0731
▁simplytek	-11.0731
diamond	-11.0731
▁atrad	-11.0731
▁barber	-11.0731
▁betray	-11.0731
▁breed	-11.0731
▁perahera	-11.0731
▁automate	-11.0732
▁telecom	-11.0732
▁journalism	-11.0732
linux	-11.0732
▁trilli	-11.0733
▁populis	-11.0733
▁wander	-11.0734
▁brave	-11.0734
▁generator	-11.0735
utter	-11.0737
▁orientation	-11.0737
▁chess	-11.0738
▁1970	-11.0742
tour	-11.0743
▁squad	-11.0745
▁withhold	-11.0747
grade	-11.0747
heshe	-11.0751
▁spiral	-11.076
▁headline	-11.0762
▁shipment	-11.0765
▁geopolitical	-11.0768
nia	-11.077
▁gpt	-11.0775
▁igp	-11.0775
▁fisher	-11.0781
▁artificially	-11.0784
ummy	-11.0794
▁crossed	-11.0829
adu	-11.0838
▁360	-11.0844
▁71	-11.0851
▁troll	-11.0863
party	-11.0896
▁shooting	-11.0898
tamil	-11.0901
▁sony	-11.0901
▁joker	-11.0908
▁photograph	-11.0916
▁grama	-11.0925
npp	-11.0928
▁found	-11.0945
▁fate	-11.0948
▁popula	-11.095
▁metro	-11.0962
▁afghanistan	-11.0963
▁bambalapitiya	-11.0963
▁concentrate	-11.0963
▁culprit	-11.0963
▁dishearten	-11.0963
▁helicopter	-11.0963
▁immigrate	-11.0963
▁imprison	-11.0963
▁inefficiency	-11.0963
▁invoice	-11.0963
▁oblivio	-11.0963
▁postgraduate	-11.0963
▁sightseeing	-11.0963
▁skyrocket	-11.0963
▁hurdle	-11.0963
▁plague	-11.0963
▁globe	-11.0963
▁loneli	-11.0963
▁precise	-11.0963
▁prince	-11.0963
▁fortune	-11.0963
▁rabie	-11.0963
▁query	-11.0963
▁brace	-11.0963
▁undermine	-11.0963
▁backlash	-11.0963
▁coordinate	-11.0964
ological	-11.0964
▁empower	-11.0965
▁wellbee	-11.0965
▁enact	-11.0966
▁constructive	-11.0967
▁skeptical	-11.0967
▁refine	-11.0967
trust	-11.0968
▁colonialism	-11.0968
▁tenure	-11.0969
▁pause	-11.0969
▁productivity	-11.0969
▁atto	-11.097
▁jewellery	-11.0972
▁ballot	-11.0973
plan	-11.0975
▁fitting	-11.0976
▁banana	-11.0981
▁summ	-11.0982
▁tire	-11.1
▁kia	-11.1002
48	-11.1004
▁dire	-11.1012
50000	-11.1025
▁6000	-11.1029
fir	-11.103
escent	-11.104
▁tablet	-11.1049
▁jet	-11.1054
▁02	-11.1055
▁phi	-11.1066
▁cro	-11.1071
teen	-11.1078
▁sane	-11.1089
▁editor	-11.1091
▁dar	-11.1097
▁lg	-11.11
▁gram	-11.11
iest	-11.1106
check	-11.1109
▁reel	-11.1115
city	-11.1119
prosecute	-11.1135
human	-11.1145
▁snorkel	-11.1171
galle	-11.1178
▁convent	-11.1193
▁uncertain	-11.12
▁horizon	-11.1201
▁calculator	-11.1201
▁conservation	-11.1201
▁incorporate	-11.1201
▁irrespective	-11.1201
▁lebanon	-11.1201
▁prevalent	-11.1201
▁stereotype	-11.1201
▁unpredictable	-11.1201
▁courage	-11.1201
▁marxist	-11.1201
▁tweet	-11.1201
▁fortress	-11.1201
▁evisa	-11.1201
▁pawn	-11.1201
▁hectic	-11.1201
▁cinec	-11.1201
▁ancestor	-11.1201
▁snake	-11.1201
▁asiri	-11.1201
▁notorious	-11.1201
▁angle	-11.1201
▁automobile	-11.1201
▁explod	-11.1202
▁preparation	-11.1202
▁accredit	-11.1203
▁heartbreak	-11.1203
▁fridge	-11.1203
▁sovereignty	-11.1203
▁forgot	-11.1204
▁yahapalanaya	-11.1204
▁crib	-11.1204
▁machan	-11.1206
▁coward	-11.1208
▁undergo	-11.121
▁unbelievable	-11.121
▁interim	-11.1212
▁25000	-11.1212
▁5060	-11.1216
▁snap	-11.1216
▁acre	-11.1218
▁rack	-11.1224
▁bore	-11.1224
watte	-11.1242
▁94	-11.1252
▁specialized	-11.1257
consistency	-11.1262
▁container	-11.1264
plus	-11.1264
hoot	-11.1272
▁fil	-11.1273
amro	-11.1282
rope	-11.1306
born	-11.131
▁yh	-11.1331
▁murderer	-11.1331
▁pink	-11.1342
home	-11.1355
rais	-11.1356
phil	-11.1357
akin	-11.1359
▁000	-11.136
job	-11.1374
▁elevate	-11.1375
▁albe	-11.1381
water	-11.1392
▁lil	-11.1403
▁practi	-11.1444
▁exhibit	-11.1445
facepalme	-11.1445
▁academia	-11.1445
▁algorithm	-11.1445
▁ambassador	-11.1445
▁challenging	-11.1445
▁contrary	-11.1445
▁ethernet	-11.1445
▁habarana	-11.1445
▁keheliya	-11.1445
▁muscle	-11.1445
▁piracy	-11.1445
▁pyramid	-11.1445
▁recession	-11.1445
▁rubbish	-11.1445
▁sacred	-11.1445
▁technological	-11.1445
▁unreliable	-11.1445
▁accomplish	-11.1445
▁console	-11.1445
▁virgin	-11.1445
▁1983	-11.1445
▁salarie	-11.1445
▁seylan	-11.1445
▁hometown	-11.1445
▁quant	-11.1445
▁lpl	-11.1445
▁swrd	-11.1445
▁desert	-11.1445
▁cardinal	-11.1445
▁eff	-11.1446
▁shark	-11.1446
▁telco	-11.1446
▁sysco	-11.1446
▁replica	-11.1446
▁onboard	-11.1447
▁rebel	-11.1448
bound	-11.1448
dictate	-11.1449
▁drown	-11.1449
▁curve	-11.145
▁collar	-11.145
▁liquidity	-11.1451
▁flagship	-11.1453
▁dns	-11.1456
▁tir	-11.146
▁utc	-11.1461
▁annoyed	-11.1464
▁exploitation	-11.1465
▁cabin	-11.1465
▁thoroughly	-11.1466
▁chest	-11.1466
▁inner	-11.1468
rfc	-11.1475
▁bow	-11.1477
▁lost	-11.1485
▁obst	-11.1486
▁blessing	-11.1491
▁quiz	-11.15
74	-11.1512
▁prosecut	-11.1513
▁curly	-11.1516
▁smoothly	-11.1531
▁1020	-11.1554
▁same	-11.1557
▁thala	-11.1561
▁admire	-11.1571
▁trim	-11.1574
▁lev	-11.1585
250	-11.1592
▁iron	-11.1595
cede	-11.1608
ovo	-11.1614
bay	-11.1615
▁eco	-11.1616
ette	-11.162
market	-11.164
▁pand	-11.1658
▁journal	-11.1665
▁absen	-11.1678
▁aswasuma	-11.1695
▁dhammika	-11.1695
▁flavour	-11.1695
▁helakuru	-11.1695
▁melbourne	-11.1695
▁overstay	-11.1695
▁overthinke	-11.1695
▁scrutin	-11.1695
▁separatis	-11.1695
▁upskill	-11.1695
▁monarch	-11.1695
▁username	-11.1695
▁fiction	-11.1695
▁illusion	-11.1695
▁wellawatte	-11.1695
▁colony	-11.1695
▁dancing	-11.1695
▁traction	-11.1695
▁disposable	-11.1695
▁hindi	-11.1695
▁monast	-11.1696
▁odel	-11.1697
▁brake	-11.1697
▁bakery	-11.1698
▁spring	-11.1698
▁ambition	-11.1701
▁caption	-11.1701
illionaire	-11.1701
▁annex	-11.1702
▁better	-11.1703
▁collaborate	-11.1703
▁pinch	-11.1704
conventional	-11.1705
▁homophobic	-11.1705
kwh	-11.1707
▁devalue	-11.1708
▁motherland	-11.1712
▁sail	-11.1714
▁hail	-11.172
▁hinder	-11.1727
▁rust	-11.1731
▁39	-11.1736
lateral	-11.1743
urable	-11.1759
▁tricky	-11.1789
▁homeless	-11.1822
▁showcas	-11.1842
friend	-11.1843
4000	-11.1849
▁bait	-11.1868
▁jul	-11.187
pex	-11.1875
week	-11.1881
food	-11.1881
▁fur	-11.1882
match	-11.1889
▁bake	-11.189
▁fav	-11.1909
▁150000	-11.1932
funde	-11.1937
▁pupp	-11.1946
▁rehabilitat	-11.1951
exclamation	-11.1951
▁concession	-11.1951
▁emigration	-11.1951
▁fraction	-11.1951
▁leisure	-11.1951
▁panadura	-11.1951
▁perpetrator	-11.1951
▁philosophy	-11.1951
▁repercussion	-11.1951
▁satellite	-11.1951
▁scuba	-11.1951
▁stadium	-11.1951
▁stigma	-11.1951
▁threewheeler	-11.1951
▁baggage	-11.1951
▁rumour	-11.1951
▁cruel	-11.1951
▁combat	-11.1952
▁minimize	-11.1952
▁predator	-11.1952
▁revolve	-11.1952
▁apparel	-11.1952
▁gulf	-11.1952
▁dentist	-11.1952
▁plumb	-11.1952
▁arguabl	-11.1952
▁honey	-11.1952
▁06	-11.1952
▁diagnosis	-11.1952
▁chathurang	-11.1952
▁adhere	-11.1953
▁collaboration	-11.1953
▁infection	-11.1957
▁adani	-11.1957
rmv	-11.1961
▁recur	-11.1961
▁paperwork	-11.1967
▁specie	-11.1972
berry	-11.1979
ombi	-11.1996
chef	-11.1998
▁palm	-11.1999
▁sirasa	-11.2004
page	-11.2013
▁interactiv	-11.2021
▁40000	-11.2023
▁lc	-11.2026
▁worthless	-11.2041
▁esc	-11.2065
tell	-11.2078
6000	-11.2079
jaya	-11.208
duwa	-11.2087
tale	-11.2093
religious	-11.2143
scale	-11.2144
write	-11.2144
▁bald	-11.2148
2024	-11.2151
▁apparent	-11.2185
▁counsel	-11.2207
evolution	-11.2211
open	-11.2212
▁champion	-11.2214
▁misogyn	-11.2215
▁administrative	-11.2215
▁anonymize	-11.2215
▁conclude	-11.2215
▁descend	-11.2215
▁indigenous	-11.2215
▁intervention	-11.2215
▁souvenir	-11.2215
▁subsidize	-11.2215
▁subtitle	-11.2215
▁taiwan	-11.2215
▁unhappy	-11.2215
▁volatile	-11.2215
▁revenge	-11.2215
▁surplus	-11.2215
▁bundle	-11.2215
▁rubber	-11.2215
▁chamber	-11.2215
▁kotte	-11.2215
▁subtle	-11.2215
▁repeal	-11.2215
▁bbc	-11.2215
▁metric	-11.2215
▁bleed	-11.2215
▁ditch	-11.2217
▁bride	-11.2218
▁redeem	-11.2219
▁stunt	-11.222
▁spill	-11.2221
▁dodge	-11.2223
▁installation	-11.2224
▁forbid	-11.2226
▁reopen	-11.2227
▁cpu	-11.2228
▁adjustment	-11.223
fade	-11.2234
suriya	-11.2237
▁neat	-11.2242
▁rig	-11.2243
▁commi	-11.2245
▁commander	-11.2253
esy	-11.2261
▁momentum	-11.2268
▁moor	-11.2273
▁sob	-11.2279
▁bol	-11.229
▁manipulat	-11.2307
▁np	-11.2317
bble	-11.2346
▁coal	-11.236
lush	-11.2395
▁legalize	-11.2402
sustainable	-11.2413
field	-11.2414
▁devi	-11.2418
south	-11.2419
▁overhea	-11.2432
▁faci	-11.2435
37	-11.2439
▁mendi	-11.2454
▁indirect	-11.2455
credit	-11.2457
▁vip	-11.2483
▁anarchy	-11.2485
▁athlete	-11.2485
▁bounce	-11.2485
▁chronic	-11.2485
▁cosmetic	-11.2485
▁dynast	-11.2485
▁evident	-11.2485
▁exorbitant	-11.2485
▁goddamn	-11.2485
▁precaution	-11.2485
▁stunning	-11.2485
▁treasure	-11.2485
▁zimbabwe	-11.2485
▁assurance	-11.2485
▁retaliat	-11.2485
▁northeast	-11.2485
▁harmony	-11.2485
▁transcript	-11.2485
▁dodgy	-11.2485
▁metropoli	-11.2485
▁york	-11.2485
▁charith	-11.2486
▁remand	-11.2486
▁mourn	-11.2486
▁prolly	-11.2486
▁rlly	-11.2486
▁emission	-11.2486
▁paddy	-11.2487
▁outflow	-11.2488
▁ebay	-11.2488
▁wireless	-11.2491
▁cryptocurrency	-11.2491
▁amend	-11.2492
▁disappointment	-11.2493
▁showroom	-11.2496
▁jean	-11.2496
▁outline	-11.2496
▁olevel	-11.2496
▁deport	-11.2497
▁redact	-11.2498
▁ppp	-11.2506
▁validate	-11.251
▁810	-11.2519
▁jealousy	-11.252
termination	-11.2527
▁nye	-11.2538
▁joe	-11.2543
▁bali	-11.2543
▁abo	-11.2563
iddle	-11.2572
84	-11.2587
mount	-11.259
▁jerom	-11.2594
▁crapp	-11.2604
ography	-11.2642
▁roti	-11.2646
▁chal	-11.2682
dec	-11.2685
▁msg	-11.2685
▁malli	-11.2689
service	-11.2691
money	-11.2699
first	-11.2699
visit	-11.2699
watch	-11.27
▁83	-11.2708
zone	-11.2715
▁drastic	-11.2761
▁outrage	-11.2761
▁aspire	-11.2763
▁chennai	-11.2763
▁delicious	-11.2763
▁distress	-11.2763
▁homagama	-11.2763
▁identification	-11.2763
▁magistrate	-11.2763
▁robotic	-11.2763
▁stomach	-11.2763
▁tragedy	-11.2763
▁vegetarian	-11.2763
▁wicket	-11.2763
▁bureau	-11.2763
▁counsellor	-11.2763
▁cooperati	-11.2763
▁memorable	-11.2763
▁buzz	-11.2763
▁generous	-11.2763
helmet	-11.2763
▁ayya	-11.2763
▁yaris	-11.2763
▁remit	-11.2763
▁lmk	-11.2764
▁harvest	-11.2764
▁trek	-11.2764
▁misunderstand	-11.2764
ghz	-11.2764
▁tinder	-11.2765
▁provision	-11.2768
▁countrie	-11.2768
▁leap	-11.2768
▁hardworke	-11.2769
▁counselor	-11.2769
serve	-11.2779
▁brokerage	-11.278
▁fence	-11.2786
▁factual	-11.2787
▁musician	-11.2788
critic	-11.2788
▁patch	-11.2799
▁apit	-11.28
▁expir	-11.2801
▁validation	-11.2806
▁manually	-11.2806
▁pour	-11.281
▁onion	-11.2811
▁overpriced	-11.2822
▁creat	-11.2824
▁rejection	-11.283
▁1520	-11.283
9000	-11.2871
▁jaw	-11.2902
▁jana	-11.2924
elecommunication	-11.2928
why	-11.2948
▁dial	-11.2965
perform	-11.298
▁qui	-11.2991
▁accessor	-11.2996
still	-11.2998
▁yap	-11.3003
▁tint	-11.3024
▁env	-11.3028
▁inspect	-11.3034
▁modi	-11.3039
▁equip	-11.3045
▁avenue	-11.3048
▁chaotic	-11.3048
▁closing	-11.3048
▁consensus	-11.3048
▁corolla	-11.3048
▁extremism	-11.3048
▁geographical	-11.3048
▁hypothetical	-11.3048
▁nonexistent	-11.3048
▁operating	-11.3048
▁underestimate	-11.3048
▁8889	-11.3048
▁brazil	-11.3048
▁probability	-11.3048
▁rainbow	-11.3048
▁anthem	-11.3048
▁essence	-11.3048
▁intervene	-11.3048
▁spicy	-11.3049
▁qatar	-11.3049
mmunity	-11.3049
▁pound	-11.3049
▁halal	-11.3049
▁children	-11.3049
▁optimiz	-11.3049
▁kottawa	-11.305
▁domino	-11.305
▁unhealth	-11.3051
▁disrespectful	-11.3052
▁imho	-11.3053
kantha	-11.3054
▁flair	-11.3054
▁whine	-11.3055
▁foolish	-11.3058
▁halfway	-11.3061
▁universe	-11.3062
▁distraction	-11.3065
▁cliq	-11.3066
▁whatnot	-11.3069
▁unclear	-11.3073
▁gel	-11.3077
await	-11.3078
▁kade	-11.3085
▁reign	-11.309
▁modest	-11.3092
▁saint	-11.3094
▁backpacker	-11.3096
▁730	-11.31
▁genre	-11.3102
▁malaysian	-11.3103
▁minne	-11.3108
▁fleet	-11.3114
▁therm	-11.3131
▁cert	-11.3135
pathetic	-11.3152
▁fel	-11.3202
▁rub	-11.3205
step	-11.3212
▁hav	-11.322
▁integrat	-11.3234
▁daw	-11.3235
▁overse	-11.3241
wanted	-11.3272
wide	-11.329
jector	-11.3291
▁noon	-11.3299
story	-11.3308
▁chop	-11.3312
evil	-11.3313
▁complicate	-11.332
▁disast	-11.3321
▁plead	-11.3329
▁acqui	-11.3339
▁interrupt	-11.3343
▁advisable	-11.3343
▁apologise	-11.3343
▁asleep	-11.3343
▁asylum	-11.3343
▁commodity	-11.3343
▁credential	-11.3343
▁cunning	-11.3343
▁demotivate	-11.3343
▁expansion	-11.3343
▁inappropriate	-11.3343
▁insecure	-11.3343
▁kalutara	-11.3343
▁opportunist	-11.3343
▁pearson	-11.3343
▁registrar	-11.3343
▁rhetoric	-11.3343
▁secretariat	-11.3343
▁tertiary	-11.3343
▁elitist	-11.3343
▁underrated	-11.3343
▁configur	-11.3343
▁durability	-11.3343
▁retreat	-11.3343
▁bleach	-11.3343
▁monument	-11.3343
▁swiss	-11.3343
▁ireland	-11.3343
▁sabara	-11.3343
▁pardon	-11.3343
▁appease	-11.3343
▁revise	-11.3343
▁fertil	-11.3343
▁grace	-11.3343
▁telephone	-11.3343
▁preferred	-11.3343
▁geek	-11.3343
▁washroom	-11.3343
▁downgrade	-11.3343
▁sensor	-11.3344
▁nasty	-11.3344
▁lump	-11.3345
▁steer	-11.3347
▁outward	-11.3348
▁compile	-11.3349
▁clash	-11.335
ossil	-11.3352
▁slavery	-11.3353
▁200000	-11.3353
▁oppression	-11.3354
▁christianity	-11.3356
▁rapist	-11.3356
▁wholesome	-11.336
▁wso	-11.3361
▁roadside	-11.3361
▁greeting	-11.3366
▁tee	-11.337
▁drum	-11.3373
▁classify	-11.3376
hitha	-11.3381
▁seren	-11.3394
ozy	-11.3403
▁yk	-11.346
▁kalu	-11.3465
meter	-11.3473
▁pity	-11.3482
curtin	-11.3483
▁liter	-11.3514
▁cloth	-11.3549
stream	-11.3571
cultural	-11.3574
business	-11.3574
travel	-11.3574
limit	-11.3577
▁promis	-11.3599
▁tht	-11.3607
▁coworke	-11.3629
▁southwest	-11.363
69	-11.3641
lancer	-11.3642
▁enraged	-11.3646
▁censor	-11.3646
▁bandwidth	-11.3646
▁clergy	-11.3646
▁cooperate	-11.3646
▁cylinder	-11.3646
▁flirt	-11.3646
▁franchise	-11.3646
▁hierarchy	-11.3646
▁lactose	-11.3646
▁mechatronic	-11.3646
▁overthrow	-11.3646
▁packaging	-11.3646
▁pronunciation	-11.3646
▁reccomend	-11.3646
▁shangri	-11.3646
▁surname	-11.3646
▁terrify	-11.3646
▁unbearable	-11.3646
▁xiaomi	-11.3646
▁parliamentarian	-11.3646
▁uganda	-11.3646
▁southeast	-11.3646
▁verdict	-11.3646
▁herath	-11.3646
▁brick	-11.3646
▁tasty	-11.3646
▁plc	-11.3646
▁avg	-11.3646
▁vibran	-11.3646
▁ousl	-11.3647
▁fedex	-11.3647
▁guesthouse	-11.3647
▁insecurity	-11.3647
▁shove	-11.3648
artial	-11.3648
▁criti	-11.3649
partially	-11.365
▁leech	-11.3652
▁offline	-11.3652
▁karuna	-11.3653
▁electrician	-11.3654
▁chola	-11.3655
▁squat	-11.3655
islamic	-11.3655
▁lamp	-11.3657
anker	-11.3658
▁atti	-11.366
▁harin	-11.3664
▁cement	-11.3666
range	-11.368
▁bowler	-11.3681
▁idp	-11.3683
▁5050	-11.3686
pool	-11.3691
▁jun	-11.3701
rathna	-11.3706
▁yew	-11.3716
▁lame	-11.3721
avan	-11.3732
▁ceil	-11.3733
▁elevat	-11.3733
agala	-11.3736
▁competenc	-11.375
▁merge	-11.3752
intern	-11.376
attle	-11.3768
hinge	-11.3768
▁accelerate	-11.3784
trip	-11.379
kumar	-11.3792
▁wimal	-11.3795
hearteye	-11.38
chandra	-11.3811
rris	-11.3813
▁thumb	-11.3826
▁batsm	-11.3831
habi	-11.384
rich	-11.3843
where	-11.3868
▁elon	-11.3873
▁erase	-11.3875
▁roo	-11.3877
jvp	-11.3887
science	-11.3887
▁60000	-11.3892
media	-11.3899
giri	-11.3899
wear	-11.3903
▁offens	-11.3922
poo	-11.3929
▁warrant	-11.3933
46	-11.3946
▁christ	-11.3957
▁scholar	-11.3957
itarian	-11.3958
▁accompan	-11.3958
▁affiliation	-11.3958
▁burgher	-11.3958
▁controversy	-11.3958
▁dessert	-11.3958
▁dismantle	-11.3958
▁fascist	-11.3958
▁hyperinflation	-11.3958
▁kapruka	-11.3958
▁knuckle	-11.3958
▁kollupitiya	-11.3958
▁participant	-11.3958
▁privatization	-11.3958
▁selfstudy	-11.3958
▁sweden	-11.3958
▁sympathize	-11.3958
▁sympathy	-11.3958
▁vigilant	-11.3958
▁astrolog	-11.3958
▁pivot	-11.3958
▁throat	-11.3958
▁illiterate	-11.3958
▁cleanliness	-11.3958
▁memorize	-11.3958
▁glory	-11.3958
▁insert	-11.3958
▁sambol	-11.3958
▁recieve	-11.3958
▁steel	-11.3958
▁presum	-11.3959
▁immatur	-11.3959
▁scalp	-11.3959
▁downhill	-11.3959
▁chaba	-11.3959
▁seafood	-11.3959
▁spectac	-11.3959
▁homosexuality	-11.396
▁spike	-11.396
▁speculation	-11.3961
▁crown	-11.3961
▁300000	-11.3962
▁uphold	-11.3963
▁ffs	-11.3966
▁sinhalatamil	-11.3967
▁diplomacy	-11.3967
▁motherboard	-11.3968
uuu	-11.3968
▁drill	-11.3969
electoral	-11.3971
▁bamba	-11.3972
▁zip	-11.3972
▁entitlement	-11.3973
▁1960	-11.3973
▁systematic	-11.3974
▁nawala	-11.3984
▁impressed	-11.3984
▁thar	-11.3985
▁fox	-11.3991
2022	-11.3992
▁raize	-11.3994
▁atp	-11.3995
▁disable	-11.3998
alley	-11.4004
▁sept	-11.403
▁liv	-11.4032
▁lip	-11.4035
▁poke	-11.4051
▁evaluat	-11.4055
මක	-11.4156
▁complian	-11.4167
▁paris	-11.4174
▁lite	-11.4194
political	-11.4209
minute	-11.4209
▁2004	-11.4221
▁geopolitic	-11.4228
ranil	-11.4228
child	-11.4235
nike	-11.4239
▁investigat	-11.4242
▁stag	-11.4242
▁soooo	-11.4245
▁approximate	-11.425
▁teenage	-11.427
▁migra	-11.4271
nounce	-11.4276
▁suspicio	-11.4278
▁ambulance	-11.4281
▁aptitude	-11.4281
▁circuit	-11.4281
▁exploration	-11.4281
▁invitation	-11.4281
▁isolation	-11.4281
▁jayawardene	-11.4281
▁sandwich	-11.4281
▁summarize	-11.4281
▁toronto	-11.4281
▁unreasonable	-11.4281
▁dhamma	-11.4281
▁gesture	-11.4281
▁pilgrim	-11.4281
▁prioritise	-11.4281
▁yamaha	-11.4281
▁pepper	-11.4281
▁igcse	-11.4281
▁crippl	-11.4281
▁foresee	-11.4281
▁convey	-11.4281
▁twin	-11.4281
▁proxy	-11.4281
▁fried	-11.4281
▁benchmark	-11.4281
▁intercity	-11.4282
▁submission	-11.4282
▁outrageous	-11.4282
▁kidnap	-11.4283
▁gemini	-11.4283
▁musk	-11.4286
▁billionaire	-11.4286
▁latin	-11.4287
▁overrate	-11.4288
▁1956	-11.4289
▁millennial	-11.4289
▁iesl	-11.4289
▁overwhelmed	-11.4291
▁trc	-11.4291
▁corona	-11.4292
▁maxim	-11.4292
downsize	-11.4294
▁epic	-11.4295
▁vow	-11.4299
▁shameless	-11.43
tube	-11.4301
▁authenticity	-11.4301
▁playlist	-11.4307
▁yard	-11.4313
▁coke	-11.4316
▁830	-11.4329
▁itak	-11.4334
▁nelu	-11.435
laka	-11.4364
▁arun	-11.4371
▁organ	-11.4372
▁comic	-11.4376
plant	-11.4391
▁mobil	-11.442
iye	-11.4427
liant	-11.4438
▁imma	-11.4452
about	-11.4514
source	-11.453
force	-11.453
wood	-11.4544
good	-11.455
pick	-11.4558
▁intens	-11.4578
කක	-11.4591
▁instruct	-11.4599
▁nawal	-11.4603
▁asbestos	-11.4614
▁belarus	-11.4614
▁circus	-11.4614
▁comprehend	-11.4614
▁crocodile	-11.4614
▁dengue	-11.4614
▁dermatologist	-11.4614
▁destruction	-11.4614
▁discontinue	-11.4614
▁execution	-11.4614
▁jayawardena	-11.4614
▁judicial	-11.4614
▁kingsbury	-11.4614
▁lmfao	-11.4614
▁majest	-11.4614
▁narcissist	-11.4614
▁sanctuary	-11.4614
▁technician	-11.4614
▁teledrama	-11.4614
▁tunnel	-11.4614
▁unlucky	-11.4614
▁1996	-11.4614
▁imperial	-11.4614
▁instinct	-11.4614
▁resilient	-11.4614
▁physician	-11.4614
▁norway	-11.4614
▁bandaranayak	-11.4614
▁oversight	-11.4614
▁slogan	-11.4614
▁blur	-11.4614
▁embed	-11.4614
▁surre	-11.4614
▁furious	-11.4614
▁imei	-11.4615
▁borella	-11.4615
▁lottery	-11.4615
▁slmc	-11.4615
▁patriotism	-11.4617
▁satisfaction	-11.4617
▁spanish	-11.4617
▁rajarat	-11.4618
▁betterment	-11.4619
▁moir	-11.462
▁guardian	-11.462
▁wordpress	-11.4621
▁informative	-11.4621
▁lick	-11.4622
▁tail	-11.4623
▁overwork	-11.4624
▁grandpa	-11.4626
▁detector	-11.4627
▁decorat	-11.4631
▁attachment	-11.4635
▁saas	-11.4637
▁fond	-11.4646
▁coat	-11.4657
▁alike	-11.4658
▁devil	-11.4659
retake	-11.4664
inability	-11.4682
flag	-11.469
▁jetw	-11.4691
▁pig	-11.4707
yyy	-11.4745
iii	-11.4751
stock	-11.4756
esco	-11.4808
graphic	-11.4821
▁pond	-11.4822
▁rotat	-11.4828
fare	-11.4834
naval	-11.4842
▁generat	-11.485
nanayak	-11.4873
▁activ	-11.4887
monkey	-11.4887
productive	-11.489
track	-11.4893
▁indicat	-11.4925
▁polo	-11.4929
▁compute	-11.4943
▁pharma	-11.4958
builde	-11.4958
▁bench	-11.4959
▁argentin	-11.4959
▁autonomy	-11.4959
▁ayubowan	-11.4959
▁dolphin	-11.4959
▁fiasco	-11.4959
▁gorgeous	-11.4959
▁inconsistent	-11.4959
▁rainforest	-11.4959
▁resilienc	-11.4959
▁sanction	-11.4959
▁saviour	-11.4959
▁substitut	-11.4959
▁switzerland	-11.4959
▁toddler	-11.4959
▁unavailable	-11.4959
▁underground	-11.4959
▁untouch	-11.4959
▁aftermath	-11.4959
▁assimilat	-11.4959
▁bangalore	-11.4959
▁invalid	-11.4959
▁nuwaraeliya	-11.4959
▁nvq	-11.4959
▁occurrence	-11.4959
▁prevail	-11.4959
▁rabbit	-11.4959
▁savior	-11.4959
▁amateur	-11.4959
▁compassion	-11.4959
▁tesla	-11.4959
▁segment	-11.4959
▁sleeve	-11.4959
▁deflation	-11.4959
▁cancellation	-11.4959
▁wtc	-11.4959
▁attribute	-11.4959
▁mortal	-11.4959
▁album	-11.4959
solicit	-11.4959
▁newbie	-11.496
▁championship	-11.496
▁hidden	-11.496
bhaya	-11.4961
▁benz	-11.4961
▁pronounce	-11.4962
▁overload	-11.4963
▁asf	-11.4963
▁sanath	-11.4963
byob	-11.4964
▁reconsider	-11.4965
▁moderation	-11.4966
▁soap	-11.4967
▁variation	-11.4973
▁kiri	-11.4973
ternity	-11.4974
▁2007	-11.4976
▁bye	-11.4977
▁underage	-11.4978
▁harv	-11.4981
▁ov	-11.4987
▁pest	-11.5022
lunge	-11.5035
39	-11.5046
▁saman	-11.5047
▁tempt	-11.506
tam	-11.5113
nominate	-11.5154
▁hug	-11.5176
vomiting	-11.5178
▁victoria	-11.5199
uct	-11.5203
tongue	-11.5244
muslim	-11.5244
educate	-11.5244
would	-11.5245
club	-11.5245
social	-11.5245
easy	-11.5273
type	-11.5275
▁thorough	-11.5286
when	-11.5294
▁blank	-11.5314
wickrama	-11.5315
shrugge	-11.5316
▁accessibility	-11.5316
▁ambuluwa	-11.5316
▁aswesuma	-11.5316
▁athletic	-11.5316
▁bureaucrat	-11.5316
▁emigrate	-11.5316
▁fluctuate	-11.5316
▁hypocrite	-11.5316
▁irresponsible	-11.5316
▁kadawatha	-11.5316
▁masculin	-11.5316
▁negativity	-11.5316
▁nostalgi	-11.5316
▁pregnancy	-11.5316
▁pseudo	-11.5316
▁recondition	-11.5316
▁refurbish	-11.5316
▁rhythm	-11.5316
▁subcontinent	-11.5316
▁toastmaster	-11.5316
▁turmoil	-11.5316
▁uprising	-11.5316
▁vocabulary	-11.5316
▁caretaker	-11.5316
▁counterpart	-11.5316
▁depict	-11.5316
▁evasion	-11.5316
▁ncpi	-11.5316
▁remedy	-11.5316
▁azure	-11.5316
▁compliment	-11.5316
▁electorate	-11.5316
▁latency	-11.5316
▁david	-11.5316
▁stitch	-11.5316
▁inequality	-11.5316
▁unusable	-11.5316
kbps	-11.5316
▁deceive	-11.5316
▁hbb	-11.5316
▁template	-11.5316
▁wickramasingh	-11.5316
▁sauce	-11.5316
▁tobac	-11.5317
▁unregistere	-11.5317
▁echo	-11.5319
▁wheat	-11.5319
▁stagnat	-11.532
▁decency	-11.532
▁alpha	-11.532
▁confidential	-11.5321
scription	-11.5321
▁oust	-11.5322
▁xpress	-11.5326
▁inspection	-11.5326
▁eight	-11.5328
▁legislation	-11.5329
▁gamin	-11.5338
▁tide	-11.5346
literate	-11.5391
▁wag	-11.5406
▁victor	-11.541
▁ryt	-11.5433
nasinghe	-11.5437
aksha	-11.5445
▁deriv	-11.548
▁correlat	-11.5542
shot	-11.5601
little	-11.5615
wealth	-11.5615
group	-11.5615
dead	-11.5646
halo	-11.5649
ikka	-11.565
anathan	-11.5657
▁obv	-11.5671
▁chai	-11.5681
▁baffle	-11.5686
▁commemorat	-11.5686
▁consolidat	-11.5686
▁constraint	-11.5686
▁huawei	-11.5686
▁influential	-11.5686
▁jkcg	-11.5686
▁loudspeaker	-11.5686
▁meritocracy	-11.5686
▁neoliberal	-11.5686
▁noodle	-11.5686
▁prestigious	-11.5686
▁significance	-11.5686
▁stimulat	-11.5686
▁supervisor	-11.5686
▁undervalue	-11.5686
▁uplift	-11.5686
▁vacuum	-11.5686
▁archaeolog	-11.5686
▁leather	-11.5686
▁overhaul	-11.5686
▁peratugami	-11.5686
▁kotthu	-11.5686
photocopy	-11.5686
▁vocation	-11.5686
▁daytoday	-11.5686
▁iraq	-11.5686
▁annum	-11.5686
▁infant	-11.5686
▁kerner	-11.5686
▁warrior	-11.5686
▁vessel	-11.5686
▁iraj	-11.5686
▁batik	-11.5686
▁denial	-11.5686
▁dominant	-11.5686
▁gamage	-11.5686
▁ubereat	-11.5687
▁deteriorat	-11.5687
▁cpc	-11.5687
built	-11.5687
▁mineral	-11.5687
▁kilo	-11.5687
▁anticorrupt	-11.5687
▁carbon	-11.5687
ranjan	-11.5688
▁curtain	-11.5688
▁griev	-11.5689
▁islandwide	-11.5689
▁humidity	-11.569
▁advert	-11.569
▁shore	-11.5692
▁spew	-11.5694
▁inspector	-11.5695
▁loom	-11.5697
▁forcefully	-11.5697
▁fuk	-11.5702
▁archive	-11.5702
▁chore	-11.5713
▁waive	-11.5718
duction	-11.5748
frame	-11.5811
▁moderat	-11.5898
nfront	-11.5988
mobile	-11.5999
custom	-11.5999
ethnic	-11.5999
lakh	-11.6
blue	-11.6
current	-11.6001
girl	-11.6003
▁greet	-11.6041
▁plea	-11.6055
▁infect	-11.6063
▁corpora	-11.6064
450	-11.6066
▁eligib	-11.6066
▁chick	-11.6067
egory	-11.607
disproportionate	-11.6071
issamaharama	-11.6071
▁abeysinghe	-11.6071
▁assemble	-11.6071
▁bluetooth	-11.6071
▁complication	-11.6071
▁continent	-11.6071
▁deactivate	-11.6071
▁frequency	-11.6071
▁futsal	-11.6071
▁html	-11.6071
▁impractical	-11.6071
▁indulge	-11.6071
▁insurgen	-11.6071
▁intimate	-11.6071
▁landslide	-11.6071
▁maithree	-11.6071
▁mysterious	-11.6071
▁parliment	-11.6071
▁physiotherap	-11.6071
▁piliyandala	-11.6071
▁predominant	-11.6071
▁prostitute	-11.6071
▁prostitution	-11.6071
▁quantitative	-11.6071
▁ratnapura	-11.6071
▁referendum	-11.6071
▁sneez	-11.6071
▁suspension	-11.6071
▁umbrella	-11.6071
▁vicinity	-11.6071
▁anticipat	-11.6071
▁memorial	-11.6071
▁reimburse	-11.6071
▁blackmail	-11.6071
▁rebellion	-11.6071
▁egypt	-11.6071
▁mumbai	-11.6071
mitigate	-11.6071
▁proxim	-11.6071
▁satire	-11.6071
▁situate	-11.6071
▁milestone	-11.6071
▁warehouse	-11.6071
▁bloom	-11.6071
▁dairy	-11.6071
▁hedge	-11.6071
▁incoming	-11.6071
▁traumatize	-11.6071
▁spoon	-11.6071
▁belove	-11.6071
▁tolerance	-11.6071
▁disparit	-11.6072
▁dilsh	-11.6072
▁fintech	-11.6072
▁confess	-11.6072
▁acbt	-11.6072
▁salva	-11.6073
▁minimis	-11.6073
dney	-11.6073
▁insure	-11.6073
flix	-11.6073
▁sedan	-11.6073
▁knw	-11.6073
▁discourse	-11.6073
▁sustainability	-11.6073
▁awake	-11.6074
▁overview	-11.6074
▁pollute	-11.6075
▁crave	-11.6075
▁tutorial	-11.6077
▁inclusi	-11.608
deniya	-11.6081
mboda	-11.6083
▁wiki	-11.6083
▁ragama	-11.6097
▁cott	-11.6103
▁flame	-11.6118
peek	-11.6137
▁lasi	-11.6138
▁dudl	-11.614
▁mech	-11.6157
india	-11.6182
early	-11.622
▁democrat	-11.6309
▁continu	-11.6339
verge	-11.6343
▁literar	-11.6347
wheel	-11.6399
maybe	-11.64
float	-11.64
depend	-11.6457
▁pohottu	-11.6469
rahera	-11.6471
rench	-11.6471
▁contemplat	-11.6471
▁dashcam	-11.6471
▁declaration	-11.6471
▁etiquette	-11.6471
▁fascinating	-11.6471
▁furnish	-11.6471
▁gammanpila	-11.6471
▁grassroot	-11.6471
▁imbalance	-11.6471
▁joseph	-11.6471
▁maldivian	-11.6471
▁obligate	-11.6471
▁pradeshi	-11.6471
▁redirect	-11.6471
▁sarcastic	-11.6471
▁simplify	-11.6471
▁subsidiary	-11.6471
▁surveillance	-11.6471
▁tarnish	-11.6471
▁transgender	-11.6471
▁upcountry	-11.6471
▁visibility	-11.6471
▁wasantha	-11.6471
voltage	-11.6471
▁embark	-11.6471
▁uncommon	-11.6471
▁vintage	-11.6471
▁greece	-11.6471
▁hijack	-11.6471
▁reinforce	-11.6471
savvy	-11.6471
▁marvel	-11.6471
▁malaria	-11.6471
▁outstation	-11.6471
▁pigeon	-11.6471
▁freeloader	-11.6471
▁johnston	-11.6471
▁cherry	-11.6471
▁worm	-11.6471
▁moistur	-11.6471
▁maithripala	-11.6471
▁infinit	-11.6472
▁payhere	-11.6472
▁kusal	-11.6472
▁counselling	-11.6473
▁reelect	-11.6473
▁naked	-11.6473
▁reassur	-11.6473
▁beast	-11.6475
▁ccpi	-11.6475
▁downward	-11.6475
▁borderline	-11.6476
▁abide	-11.6476
▁8090	-11.6477
▁defect	-11.6478
▁haunt	-11.6479
▁skim	-11.6481
▁asw	-11.6487
product	-11.6557
68	-11.6648
▁matt	-11.6681
▁compel	-11.6701
sufficient	-11.6705
▁graph	-11.6746
next	-11.6801
account	-11.6816
experience	-11.6816
dialog	-11.6816
support	-11.6816
street	-11.6816
interest	-11.6817
sense	-11.6818
finance	-11.682
create	-11.6821
▁gradual	-11.6861
▁millenni	-11.6877
uli	-11.6878
▁humid	-11.6884
▁bhutan	-11.6888
▁blunder	-11.6888
▁cambodia	-11.6888
▁devastate	-11.6888
▁forensic	-11.6888
▁fragrance	-11.6888
▁gullible	-11.6888
▁jeppa	-11.6888
▁megathread	-11.6888
▁myanmar	-11.6888
▁negligence	-11.6888
▁obstruct	-11.6888
▁proficiency	-11.6888
▁psychopath	-11.6888
▁repetitive	-11.6888
▁surgical	-11.6888
▁valorant	-11.6888
▁dashboard	-11.6888
▁equation	-11.6888
▁ruthless	-11.6888
▁trivial	-11.6888
▁axio	-11.6888
▁revamp	-11.6888
▁urgency	-11.6888
▁vishwa	-11.6888
▁lagoon	-11.6888
▁potato	-11.6888
▁ptsd	-11.6888
▁slasscom	-11.6888
▁spineless	-11.6888
▁steep	-11.6888
▁amenity	-11.6888
▁cuba	-11.6888
▁vertical	-11.6888
▁sanskr	-11.6888
▁unwilling	-11.6888
▁detach	-11.6888
▁renowne	-11.6888
▁barista	-11.6888
▁shelf	-11.6888
▁noob	-11.6888
▁playstation	-11.6888
▁sync	-11.6888
▁sermon	-11.6888
▁redundan	-11.6888
▁enrich	-11.6889
▁categorize	-11.6889
▁optimis	-11.6889
▁pork	-11.6889
▁utopia	-11.689
▁turke	-11.6891
▁inheritance	-11.6891
▁ananda	-11.6891
angular	-11.6891
kovil	-11.6892
▁ceylonese	-11.6893
▁tolera	-11.6894
▁miris	-11.6897
▁experi	-11.6899
▁militan	-11.69
▁smuggl	-11.6936
aughter	-11.6965
atsu	-11.6993
000000	-11.7108
▁manag	-11.7209
▁overwhelm	-11.7242
familiar	-11.7251
buddhist	-11.7251
majority	-11.7251
space	-11.7252
sinhala	-11.7253
▁rememb	-11.7301
hotel	-11.7304
▁delusion	-11.7312
▁ambitio	-11.7313
▁misunderst	-11.732
▁smirk	-11.7322
packfacepalm	-11.7322
▁assembly	-11.7322
▁bollywood	-11.7322
▁breast	-11.7322
▁concentration	-11.7322
▁contemporar	-11.7322
▁extraordinar	-11.7322
▁fluctuation	-11.7322
▁fragile	-11.7322
▁kataragama	-11.7322
▁lakshman	-11.7322
▁maradana	-11.7322
▁prejudice	-11.7322
▁proficient	-11.7322
▁recipient	-11.7322
▁reconnect	-11.7322
▁recycling	-11.7322
▁refrigerat	-11.7322
▁sarcasm	-11.7322
▁suicidal	-11.7322
▁suprise	-11.7322
▁tweak	-11.7322
▁upbring	-11.7322
▁virtue	-11.7322
▁virtusa	-11.7322
▁wheelchair	-11.7322
▁emirate	-11.7322
▁frizz	-11.7322
▁mazda	-11.7322
▁nonetheless	-11.7322
▁proactive	-11.7322
▁shatter	-11.7322
▁1987	-11.7322
▁airplane	-11.7322
▁avurud	-11.7322
▁mystery	-11.7322
▁britain	-11.7322
▁inhumane	-11.7322
▁nordic	-11.7322
▁terrifi	-11.7322
▁wolf	-11.7322
▁ibkr	-11.7322
▁uncover	-11.7322
▁frugal	-11.7322
▁ruppe	-11.7322
▁sabha	-11.7322
▁glance	-11.7323
▁clever	-11.7323
▁nerve	-11.7323
▁transmission	-11.7323
▁crumbl	-11.7323
▁utilis	-11.7323
▁vecno	-11.7323
▁motive	-11.7323
▁foremost	-11.7323
▁cosplay	-11.7323
provoke	-11.7323
▁excellenc	-11.7323
pushpi	-11.7323
▁vedda	-11.7324
▁blanket	-11.7325
▁compose	-11.7326
▁rigid	-11.7326
▁confine	-11.7326
▁prosperous	-11.7326
▁displace	-11.7326
▁turbo	-11.7326
▁0112	-11.7327
▁juris	-11.7328
▁litre	-11.7329
▁pierc	-11.7331
fringe	-11.7414
80000	-11.7441
harm	-11.7474
requi	-11.7499
▁admir	-11.7545
▁verit	-11.7552
▁ryz	-11.7572
ridge	-11.763
cross	-11.7703
pleasant	-11.7705
cloud	-11.7705
private	-11.7705
english	-11.7705
culture	-11.7706
waste	-11.7708
▁upgrad	-11.7741
▁numb	-11.776
▁ridicul	-11.7776
▁accuracy	-11.7777
▁analogy	-11.7777
▁bilingual	-11.7777
▁bizarre	-11.7777
▁ceremonial	-11.7777
▁custody	-11.7777
▁distinguish	-11.7777
▁explosion	-11.7777
▁horrendous	-11.7777
▁inflict	-11.7777
▁influx	-11.7777
▁intolerant	-11.7777
▁katunayake	-11.7777
▁lesbian	-11.7777
▁linguistic	-11.7777
▁nutshell	-11.7777
▁orthodonti	-11.7777
▁pledge	-11.7777
▁pretentious	-11.7777
▁puzzle	-11.7777
▁sapphire	-11.7777
▁simultaneously	-11.7777
▁surpass	-11.7777
▁tarrif	-11.7777
▁unmarrie	-11.7777
▁coexist	-11.7777
▁inexperienced	-11.7777
▁mahindananda	-11.7777
▁separation	-11.7777
▁unfold	-11.7777
▁whistle	-11.7777
▁wreck	-11.7777
▁anthare	-11.7777
▁saloon	-11.7777
▁premio	-11.7777
▁spider	-11.7777
▁spokes	-11.7777
▁infra	-11.7777
▁unlawful	-11.7777
▁parasite	-11.7777
▁sabry	-11.7777
▁crisp	-11.7777
▁karunaratne	-11.7777
▁covent	-11.7778
▁geography	-11.7778
▁interference	-11.7778
▁consultancy	-11.7778
gampola	-11.7778
▁dhal	-11.7779
▁matale	-11.7779
▁commence	-11.7779
▁candle	-11.7779
▁moving	-11.778
▁throne	-11.778
▁shallow	-11.778
versus	-11.7784
bulb	-11.7787
▁simulat	-11.7787
▁appeti	-11.7799
▁meddl	-11.7805
▁mofo	-11.7806
arriage	-11.7813
kaduwa	-11.7843
sinha	-11.7921
▁abduct	-11.7962
▁excu	-11.8035
990	-11.8136
family	-11.8182
nuwara	-11.8183
europe	-11.8186
western	-11.8207
▁incentiv	-11.8217
▁avail	-11.8247
terior	-11.8248
▁coronavirus	-11.8253
hygienic	-11.8253
unconstitutional	-11.8253
▁abnormal	-11.8253
▁alphabet	-11.8253
▁antenna	-11.8253
▁breeze	-11.8253
▁bungalow	-11.8253
▁cemetery	-11.8253
▁census	-11.8253
▁circular	-11.8253
▁correspond	-11.8253
▁crawl	-11.8253
▁desperation	-11.8253
▁diligence	-11.8253
▁gratitude	-11.8253
▁hypocritical	-11.8253
▁immune	-11.8253
▁infamous	-11.8253
▁infuriate	-11.8253
▁intermediate	-11.8253
▁justifiable	-11.8253
▁nephew	-11.8253
▁pragmatic	-11.8253
▁relatable	-11.8253
▁renegotiate	-11.8253
▁rupavahini	-11.8253
▁scandinavia	-11.8253
▁shrink	-11.8253
▁stagnant	-11.8253
▁succumb	-11.8253
▁unregulate	-11.8253
▁vijitha	-11.8253
▁discretion	-11.8253
▁equate	-11.8253
▁funniest	-11.8253
▁kuluna	-11.8253
▁maritime	-11.8253
▁toffee	-11.8253
▁translator	-11.8253
▁molecul	-11.8253
▁trouser	-11.8253
sunglasse	-11.8253
▁freight	-11.8253
▁poruwa	-11.8253
▁wannabe	-11.8253
▁companion	-11.8253
▁ideological	-11.8253
▁undertake	-11.8253
▁coffin	-11.8253
▁bleak	-11.8253
▁intact	-11.8253
▁calcey	-11.8253
▁homie	-11.8253
▁decepti	-11.8253
▁troop	-11.8253
▁fixture	-11.8253
▁tribal	-11.8253
▁greek	-11.8253
▁coincidence	-11.8253
▁prick	-11.8253
▁thesis	-11.8254
▁salesman	-11.8254
▁newcomer	-11.8254
▁nigeria	-11.8254
▁humor	-11.8254
▁thomas	-11.8254
▁persua	-11.8255
▁devote	-11.8255
▁botanic	-11.8255
▁tusk	-11.8256
▁reef	-11.8256
▁vesak	-11.8258
▁seettu	-11.8259
radar	-11.8262
▁bengal	-11.8262
▁excis	-11.8271
aitm	-11.8271
▁oversize	-11.8284
▁lipto	-11.8331
idden	-11.8357
gression	-11.8374
luxe	-11.8379
characteristic	-11.8446
okla	-11.8451
tipping	-11.8454
eksha	-11.8566
degrad	-11.8583
glass	-11.8682
season	-11.8682
piece	-11.8682
scope	-11.8683
burg	-11.8713
▁bloc	-11.8727
▁relieve	-11.8732
▁homophobi	-11.8734
▁advoca	-11.8736
scribe	-11.8744
▁disposa	-11.8753
▁intrigu	-11.8753
▁bacteria	-11.8753
▁biometric	-11.8753
▁burglar	-11.8753
▁butcher	-11.8753
▁clutch	-11.8753
▁coordinator	-11.8753
▁defensive	-11.8753
▁desirable	-11.8753
▁enormous	-11.8753
▁explosive	-11.8753
▁feudal	-11.8753
▁headquarter	-11.8753
▁hyundai	-11.8753
▁inaugura	-11.8753
▁ineffective	-11.8753
▁jayewardene	-11.8753
▁militariz	-11.8753
▁misconcept	-11.8753
▁nonprofit	-11.8753
▁nuisance	-11.8753
▁oxford	-11.8753
▁rajitha	-11.8753
▁resentment	-11.8753
▁revello	-11.8753
▁sinopharm	-11.8753
▁soviet	-11.8753
▁stubborn	-11.8753
▁swallow	-11.8753
▁unaffordable	-11.8753
▁unauthori	-11.8753
▁undiyal	-11.8753
▁vancouver	-11.8753
▁charisma	-11.8753
▁durdan	-11.8753
▁messenger	-11.8753
oriente	-11.8753
ponzi	-11.8753
▁pioneer	-11.8753
▁menace	-11.8753
▁swipe	-11.8753
▁axia	-11.8753
▁actress	-11.8753
▁iusf	-11.8753
▁maligawa	-11.8753
▁untill	-11.8753
▁reckon	-11.8753
▁clout	-11.8753
▁cabral	-11.8754
▁extort	-11.8754
▁ninewell	-11.8754
▁stink	-11.8754
▁kyc	-11.8754
▁nicotin	-11.8754
▁lurk	-11.8754
aternal	-11.8754
▁adjac	-11.8755
▁nvm	-11.8756
▁sheep	-11.8757
gbps	-11.8797
glue	-11.8807
▁impartial	-11.8842
tense	-11.8901
▁ashok	-11.8964
▁indep	-11.9006
govlk	-11.9106
erbat	-11.9129
▁voluntar	-11.9134
public	-11.9196
reason	-11.9202
corrupt	-11.9206
should	-11.9208
dubai	-11.9208
academic	-11.9208
education	-11.9208
white	-11.9208
staff	-11.9208
passport	-11.9208
demand	-11.9209
▁famili	-11.9279
▁abundant	-11.9279
▁administrator	-11.9279
▁amarasuriya	-11.9279
▁applaud	-11.9279
▁astronom	-11.9279
▁brigade	-11.9279
▁cocktail	-11.9279
▁conglomerate	-11.9279
▁decentralize	-11.9279
▁dedication	-11.9279
▁dehiwela	-11.9279
▁dilmah	-11.9279
▁duplicat	-11.9279
▁educator	-11.9279
▁extravagant	-11.9279
▁gangarama	-11.9279
▁horrific	-11.9279
▁horrify	-11.9279
▁illustrat	-11.9279
▁inconvenient	-11.9279
▁jazeera	-11.9279
▁misguide	-11.9279
▁mudalali	-11.9279
▁nonresident	-11.9279
▁odyssey	-11.9279
▁opponent	-11.9279
▁pedestal	-11.9279
▁persecut	-11.9279
▁pickmeuber	-11.9279
▁pogrom	-11.9279
▁prawn	-11.9279
▁prestige	-11.9279
▁reclaim	-11.9279
▁spontaneous	-11.9279
measurable	-11.9279
▁deprive	-11.9279
▁weerasinghe	-11.9279
▁deplete	-11.9279
▁dilute	-11.9279
▁instigat	-11.9279
▁nauseate	-11.9279
▁proltte	-11.9279
▁unchecked	-11.9279
▁communal	-11.9279
▁nexus	-11.9279
▁roadblock	-11.9279
▁suffice	-11.9279
▁udemy	-11.9279
▁sarong	-11.9279
▁overlap	-11.9279
▁parrot	-11.9279
▁zionist	-11.9279
▁fifth	-11.9279
▁george	-11.9279
▁fusion	-11.928
▁kilometer	-11.928
▁puthano	-11.928
▁robust	-11.928
▁towel	-11.928
▁nishan	-11.928
▁stalin	-11.928
▁backbone	-11.928
▁sadden	-11.928
▁clone	-11.928
triangle	-11.928
▁racing	-11.928
▁1993	-11.928
▁shud	-11.928
eyebrow	-11.928
▁jerk	-11.9281
▁tyre	-11.9281
▁remarkabl	-11.9304
annu	-11.934
▁originat	-11.9373
▁breathtak	-11.9373
cook	-11.9429
graphite	-11.9434
artisan	-11.9489
▁refra	-11.9595
spiral	-11.9763
colonial	-11.9763
democratic	-11.9763
independence	-11.9763
I	-13.3397
