<unk>	0
<s>	0
</s>	0
s	-4.35974
▁not	-4.37408
▁'	-4.42612
▁	-4.49895
▁get	-4.75349
▁sri	-4.83975
▁m	-4.93357
▁like	-4.96725
▁go	-5.0547
_	-5.09135
▁lanka	-5.1547
▁people	-5.15873
▁good	-5.17843
▁would	-5.18894
▁know	-5.33786
▁one	-5.47733
▁well	-5.48255
▁do	-5.512
ly	-5.53015
e	-5.56265
▁think	-5.57089
▁time	-5.58045
▁make	-5.61105
▁also	-5.62394
▁work	-5.62522
▁need	-5.63808
▁even	-5.64077
I	-5.64855
▁use	-5.65025
▁country	-5.67812
▁want	-5.72095
▁be	-5.73475
▁year	-5.74378
▁see	-5.75213
▁say	-5.75746
ing	-5.80628
▁look	-5.81296
▁s	-5.86715
▁take	-5.88109
▁ve	-5.91444
y	-5.91709
▁thing	-5.93235
k	-5.98928
▁pay	-6.00637
▁day	-6.00898
▁try	-6.01021
▁much	-6.04213
▁anyone	-6.06279
▁come	-6.06507
▁give	-6.08769
▁really	-6.09251
▁place	-6.1097
▁find	-6.13148
▁colombo	-6.13807
▁government	-6.17107
▁way	-6.19232
d	-6.19462
er	-6.21182
▁thank	-6.21856
▁help	-6.21907
▁money	-6.22884
▁sl	-6.23954
▁could	-6.24185
▁around	-6.26151
▁job	-6.27336
▁2	-6.27429
▁buy	-6.29992
▁lankan	-6.30507
▁experience	-6.30658
▁guy	-6.32488
▁back	-6.33601
▁still	-6.33933
▁start	-6.34387
▁we	-6.37149
r	-6.37247
▁month	-6.40067
▁will	-6.41341
▁high	-6.41541
▁right	-6.41627
▁something	-6.42334
▁company	-6.43111
▁price	-6.4419
▁many	-6.44951
▁can	-6.45021
▁new	-6.45832
▁ask	-6.45948
▁lot	-6.46966
▁3	-6.49183
▁1	-6.51493
▁live	-6.52069
▁first	-6.52304
▁feel	-6.53397
▁since	-6.56728
▁happen	-6.57639
▁issue	-6.58469
▁someone	-6.59459
t	-6.5976
▁life	-6.59856
▁post	-6.62137
▁degree	-6.62688
▁friend	-6.64226
ed	-6.6592
▁plan	-6.66154
▁long	-6.67612
▁bad	-6.67841
▁sure	-6.68166
▁everyone	-6.68639
▁please	-6.69355
▁keep	-6.69449
a	-6.70117
▁car	-6.70285
▁tax	-6.70762
▁school	-6.74797
▁local	-6.74869
▁etc	-6.74984
▁call	-6.75413
▁let	-6.77009
▁mean	-6.77179
▁university	-6.77632
▁change	-6.78561
▁might	-6.78995
▁bank	-6.79097
▁d	-6.8025
▁travel	-6.80276
▁student	-6.8052
▁hi	-6.80941
▁hear	-6.81289
▁re	-6.8138
▁cost	-6.81767
▁seem	-6.82458
▁without	-6.8247
▁business	-6.83239
b	-6.83848
▁tell	-6.84318
face	-6.8563
▁u	-6.86372
▁never	-6.86406
▁anything	-6.87916
l	-6.88523
▁advice	-6.88638
▁face	-6.89052
al	-6.90209
▁4	-6.9049
▁you	-6.90717
▁end	-6.9083
▁option	-6.91602
▁love	-6.91907
▁actually	-6.92117
c	-6.92473
▁learn	-6.93514
▁question	-6.94432
▁family	-6.94604
▁hard	-6.94978
▁al	-6.96036
▁visit	-6.96222
▁5	-6.96454
▁market	-6.9707
m	-6.97382
▁point	-6.98165
▁check	-6.99163
▁last	-6.99736
n	-7.00302
▁problem	-7.00531
▁study	-7.00707
▁always	-7.01113
▁service	-7.0119
▁every	-7.01447
▁two	-7.01523
▁man	-7.02568
▁vote	-7.02581
▁understand	-7.02982
▁salary	-7.03343
▁move	-7.03528
p	-7.03786
▁old	-7.03856
▁idea	-7.04094
▁big	-7.04641
▁part	-7.04817
▁leave	-7.05383
▁power	-7.054
▁another	-7.06051
▁consider	-7.07488
with	-7.07767
▁tamil	-7.08289
▁person	-7.08311
▁account	-7.08412
▁stay	-7.08471
▁talk	-7.08836
▁maybe	-7.09173
▁enough	-7.09906
▁week	-7.09968
th	-7.1012
▁free	-7.10954
▁next	-7.11118
▁support	-7.11292
▁10	-7.12276
▁private	-7.12605
▁online	-7.13259
▁system	-7.13408
▁vehicle	-7.13659
▁different	-7.14526
▁appreciate	-7.14573
▁party	-7.14898
▁bit	-7.16357
▁may	-7.16398
▁already	-7.16523
▁show	-7.17392
▁low	-7.17739
i	-7.17757
▁great	-7.18109
▁parent	-7.18994
▁reason	-7.19138
▁area	-7.20109
▁situation	-7.20319
▁put	-7.20404
▁per	-7.20563
▁home	-7.20617
▁base	-7.20766
▁world	-7.20767
or	-7.20839
ion	-7.21048
▁share	-7.21665
▁small	-7.22885
▁income	-7.22918
▁that	-7.22963
▁public	-7.23147
▁card	-7.23502
▁food	-7.23555
▁open	-7.23949
▁i	-7.24615
▁pretty	-7.24705
▁become	-7.25591
▁recommend	-7.25628
▁run	-7.25887
▁offer	-7.26134
▁yes	-7.26252
▁currently	-7.26935
▁though	-7.27062
▁shit	-7.27275
▁kind	-7.27374
▁stuff	-7.27614
▁uni	-7.27945
in	-7.2924
▁foreign	-7.29477
▁least	-7.29524
▁to	-7.29583
on	-7.29694
▁hey	-7.30444
▁build	-7.30934
▁india	-7.31187
▁able	-7.31256
▁everything	-7.31707
▁stop	-7.32001
▁current	-7.32275
▁else	-7.32342
▁case	-7.32393
▁recently	-7.32551
▁sinhala	-7.32754
▁state	-7.32872
▁apply	-7.33204
▁class	-7.3333
▁real	-7.33602
▁spend	-7.33639
▁bring	-7.33814
▁bus	-7.34053
▁amount	-7.34182
▁g	-7.34442
▁due	-7.34552
▁nothing	-7.34833
▁hope	-7.35185
▁less	-7.35205
▁app	-7.35409
▁either	-7.36151
▁english	-7.37149
▁far	-7.3751
▁house	-7.37846
▁education	-7.37847
▁wonder	-7.38119
▁number	-7.38137
▁un	-7.38491
▁sell	-7.38735
able	-7.38741
▁advance	-7.38776
▁law	-7.39071
▁earn	-7.40625
▁rate	-7.40759
▁book	-7.41103
ic	-7.41379
▁abroad	-7.41471
▁worth	-7.41547
▁probably	-7.41558
▁ranil	-7.41667
▁future	-7.41732
▁level	-7.41732
▁read	-7.41749
▁social	-7.42704
▁election	-7.43419
▁however	-7.4358
▁recommendation	-7.44165
▁mention	-7.44293
▁6	-7.44348
▁phone	-7.44547
▁especially	-7.44762
▁medium	-7.4493
▁similar	-7.4537
▁lkr	-7.45871
▁speak	-7.45962
▁invest	-7.46137
▁course	-7.46401
▁lol	-7.46483
h	-7.46555
▁term	-7.46678
▁comment	-7.46744
▁kid	-7.46835
▁care	-7.47234
▁possible	-7.47518
▁thought	-7.48101
▁lankans	-7.4819
▁side	-7.48701
st	-7.48903
▁send	-7.48935
▁easy	-7.49259
▁name	-7.49351
▁land	-7.49452
o	-7.49665
▁loan	-7.5038
▁doctor	-7.50957
f	-7.51292
u	-7.51388
▁package	-7.51429
▁increase	-7.51445
te	-7.51575
▁believe	-7.51616
▁other	-7.51662
▁drive	-7.51682
▁cause	-7.51809
▁play	-7.51852
▁follow	-7.52186
▁political	-7.52652
▁datum	-7.52972
▁100	-7.53121
▁whole	-7.53384
▁npp	-7.53391
▁taxis	-7.53628
▁police	-7.53835
▁opinion	-7.54051
▁expect	-7.54304
▁watch	-7.54868
▁hand	-7.54882
▁war	-7.55529
▁economy	-7.5564
▁matter	-7.55662
▁charge	-7.56305
▁whether	-7.56356
▁lose	-7.5646
▁ago	-7.56482
▁close	-7.5649
it	-7.56507
▁order	-7.56665
▁trip	-7.56799
▁wrong	-7.56951
▁cheap	-7.57256
▁visa	-7.5726
▁20	-7.57349
▁away	-7.57961
▁group	-7.57991
▁a	-7.58269
▁instead	-7.58279
g	-7.58506
▁mind	-7.58818
▁remember	-7.59004
▁provide	-7.59038
▁economic	-7.59978
▁tourist	-7.60641
▁fund	-7.60998
▁payment	-7.61063
▁budget	-7.61625
▁full	-7.61662
▁import	-7.617
▁yeah	-7.62058
▁personal	-7.62229
▁true	-7.62379
re	-7.62629
▁quality	-7.62847
▁usually	-7.62898
▁hour	-7.62962
▁process	-7.6335
▁little	-7.63471
▁president	-7.64091
▁politician	-7.64437
▁na	-7.64454
▁project	-7.64554
▁science	-7.64564
▁industry	-7.64647
▁past	-7.64736
▁opportunity	-7.64757
▁compare	-7.65308
▁culture	-7.6555
▁within	-7.6633
▁south	-7.66787
▁wait	-7.66906
▁us	-7.66944
▁there	-7.67147
▁game	-7.67155
▁suggestion	-7.67609
▁product	-7.68016
▁kandy	-7.68063
▁investment	-7.68389
▁include	-7.68444
▁engineering	-7.6854
▁add	-7.68583
▁choose	-7.68687
▁field	-7.6882
▁result	-7.68901
x	-7.68936
▁allow	-7.69356
▁fuck	-7.7002
▁today	-7.70062
▁c	-7.70555
▁quite	-7.70591
▁save	-7.70664
▁top	-7.70747
▁policy	-7.70864
▁deal	-7.70962
▁suggest	-7.71257
▁15	-7.71277
▁woman	-7.71451
▁research	-7.71802
▁driver	-7.71891
▁b	-7.71951
▁brand	-7.72395
▁girl	-7.72414
▁million	-7.72568
▁30	-7.7323
ation	-7.73298
▁agree	-7.73427
▁bro	-7.74067
▁create	-7.741
▁video	-7.74183
▁almost	-7.74189
▁shop	-7.74254
▁cut	-7.74445
le	-7.74558
▁night	-7.74591
▁in	-7.74994
en	-7.75383
▁yet	-7.76279
▁ever	-7.76334
▁hotel	-7.76527
▁example	-7.76629
of	-7.76697
▁exam	-7.76754
▁child	-7.7699
▁notice	-7.77166
▁depend	-7.77221
▁second	-7.77244
▁dialog	-7.77396
▁interest	-7.77921
▁value	-7.78132
▁must	-7.78256
▁trust	-7.78496
▁road	-7.78665
w	-7.7868
▁slt	-7.78921
▁available	-7.79127
▁near	-7.79149
▁general	-7.7961
▁couple	-7.79635
▁fine	-7.79947
▁international	-7.8014
▁rather	-7.80401
▁skill	-7.80665
▁answer	-7.80786
▁7	-7.80913
▁hold	-7.81329
▁usd	-7.8141
▁language	-7.81822
▁turn	-7.82399
▁srilanka	-7.82521
▁guess	-7.82606
▁information	-7.829
▁website	-7.83528
▁city	-7.83569
▁join	-7.83625
an	-7.83657
▁decide	-7.83794
▁stock	-7.84093
▁train	-7.84408
▁set	-7.84478
▁return	-7.84732
▁fact	-7.84829
▁type	-7.84914
▁what	-7.8512
▁chance	-7.85136
▁career	-7.85157
▁soon	-7.854
▁head	-7.85496
▁pass	-7.85508
▁definitely	-7.85539
▁unless	-7.85566
▁receive	-7.86347
▁interested	-7.86624
▁safe	-7.86891
▁speed	-7.87167
▁mostly	-7.87167
▁v	-7.87187
v	-7.87366
▁software	-7.87599
▁write	-7.88133
▁focus	-7.88155
joy	-7.88359
▁internet	-7.88418
▁majority	-7.88448
▁program	-7.88548
▁community	-7.88689
▁meet	-7.88918
▁planning	-7.89108
▁expensive	-7.89109
▁honestly	-7.89456
▁relate	-7.89563
▁early	-7.90026
▁fee	-7.90252
▁beach	-7.90447
▁break	-7.90551
▁story	-7.90696
▁fix	-7.90815
se	-7.91058
▁decent	-7.91092
▁nice	-7.9141
▁manage	-7.91867
▁hello	-7.9205
ment	-7.92578
▁hospital	-7.93518
▁debt	-7.93553
▁8	-7.93707
▁50	-7.93899
ar	-7.94018
▁proper	-7.9404
▁ai	-7.94045
▁water	-7.94343
▁regard	-7.94552
▁news	-7.94568
▁short	-7.94843
▁main	-7.95578
▁grow	-7.95588
▁connection	-7.96105
▁sector	-7.96514
▁total	-7.96529
▁r	-7.9654
ity	-7.96773
▁akd	-7.96816
z	-7.96867
nd	-7.96998
▁tip	-7.97033
▁basically	-7.9713
tears	-7.97325
▁decision	-7.97879
▁credit	-7.98143
▁wan	-7.98274
▁report	-7.9835
▁lead	-7.986
▁x	-7.98889
▁rent	-7.99413
▁age	-7.99607
▁contact	-8.00041
▁sometimes	-8.00088
▁require	-8.00161
▁galle	-8.00234
▁national	-8.00397
▁normal	-8.00409
▁health	-8.0058
▁uk	-8.00811
▁indian	-8.01089
▁parliament	-8.0114
▁item	-8.0114
▁history	-8.01144
▁non	-8.0122
▁common	-8.01306
▁corruption	-8.01359
smiling	-8.01469
▁fuel	-8.01476
▁young	-8.01797
▁rs	-8.01857
▁middle	-8.0209
▁single	-8.02097
ist	-8.02229
▁act	-8.02241
▁position	-8.02464
▁benefit	-8.02731
▁final	-8.0297
▁they	-8.03092
▁financial	-8.03152
▁sound	-8.03248
▁choice	-8.03537
um	-8.03782
▁complete	-8.04168
▁detail	-8.04185
▁cover	-8.04396
▁engineer	-8.04442
▁date	-8.04457
▁protest	-8.04471
▁personally	-8.045
▁politic	-8.04547
▁list	-8.04831
▁rule	-8.04835
▁eat	-8.05024
▁force	-8.05213
▁gr	-8.05518
▁12	-8.05982
▁develop	-8.06252
▁teacher	-8.06349
▁scam	-8.06494
▁ll	-8.06509
▁link	-8.06824
▁finance	-8.06896
▁office	-8.0817
▁avoid	-8.08189
▁subject	-8.08479
na	-8.08488
▁source	-8.08551
1	-8.08607
▁bill	-8.08607
▁line	-8.08746
▁red	-8.09399
▁customer	-8.09519
▁basic	-8.09526
▁legal	-8.09639
▁crisis	-8.10068
▁knowledge	-8.10222
▁google	-8.10222
▁curious	-8.10223
▁f	-8.10699
▁teach	-8.10781
the	-8.11156
▁fall	-8.1117
ize	-8.115
▁huge	-8.11617
▁tech	-8.11722
▁cash	-8.11804
▁word	-8.12023
▁reduce	-8.12142
ary	-8.12396
▁purchase	-8.12495
ri	-8.12497
▁certain	-8.12628
▁previous	-8.12849
▁pro	-8.12849
▁important	-8.12897
▁super	-8.13026
ra	-8.13126
▁security	-8.13226
▁transfer	-8.13383
▁outside	-8.13391
▁expense	-8.1374
▁drop	-8.1379
▁all	-8.14136
▁e	-8.1414
▁de	-8.14229
▁late	-8.14243
▁happy	-8.14279
▁sort	-8.14323
▁interview	-8.1446
▁claim	-8.14464
▁rupee	-8.1464
▁airport	-8.14823
▁paper	-8.14999
▁whatever	-8.1503
▁update	-8.15365
▁store	-8.15444
▁via	-8.15562
▁internship	-8.15567
▁site	-8.15596
▁math	-8.15636
▁later	-8.15757
up	-8.15776
ive	-8.15978
▁control	-8.16121
▁reddit	-8.16205
▁court	-8.16279
ant	-8.16426
▁t	-8.16456
▁genuine	-8.16831
▁medical	-8.16916
▁sinhalese	-8.17028
▁sub	-8.17122
is	-8.17146
▁large	-8.17172
▁govt	-8.17176
▁pm	-8.17293
▁lack	-8.17393
▁waste	-8.17435
▁employee	-8.17577
ate	-8.1773
▁enjoy	-8.17891
hand	-8.18356
▁view	-8.18426
▁edit	-8.18457
▁dollar	-8.18508
▁step	-8.18743
▁improve	-8.19036
▁reach	-8.19302
ce	-8.19333
▁getting	-8.19336
▁he	-8.19918
us	-8.20029
▁risk	-8.20324
▁win	-8.20367
▁exactly	-8.20396
▁individual	-8.20413
▁team	-8.20476
ne	-8.2049
▁average	-8.20595
▁demand	-8.20814
▁ella	-8.20883
▁luck	-8.20906
▁graduate	-8.20979
▁corrupt	-8.21131
▁poor	-8.21583
▁literally	-8.21596
▁hate	-8.21692
ter	-8.21877
▁clear	-8.21925
▁fail	-8.21943
▁moment	-8.22164
▁movie	-8.22165
2	-8.22257
▁minister	-8.22338
▁hire	-8.22342
▁china	-8.2273
▁25	-8.22808
▁accept	-8.22847
▁major	-8.22891
▁master	-8.22997
▁9	-8.23187
▁australia	-8.2324
▁op	-8.23262
▁often	-8.23316
▁ol	-8.23402
▁light	-8.23423
▁strong	-8.23509
▁specific	-8.23545
▁mobile	-8.23555
age	-8.23897
▁sorry	-8.23909
▁self	-8.23937
▁sense	-8.23971
▁plus	-8.24219
▁towards	-8.24274
▁struggle	-8.24306
▁ur	-8.2431
▁figure	-8.24705
▁test	-8.24752
3	-8.24927
▁model	-8.24966
▁candidate	-8.25306
▁official	-8.25309
▁religion	-8.25328
▁difference	-8.25508
▁laptop	-8.25709
▁imf	-8.25723
▁afford	-8.26254
▁standard	-8.26528
▁miss	-8.26548
▁info	-8.2662
▁fair	-8.26741
▁rest	-8.26768
▁hit	-8.26872
ur	-8.26985
▁trade	-8.26992
▁affect	-8.27132
▁pick	-8.27197
▁rich	-8.27209
im	-8.27396
▁difficult	-8.27477
▁treat	-8.27506
▁period	-8.27954
▁clean	-8.28161
▁have	-8.28175
▁wish	-8.28181
▁fast	-8.28381
▁explain	-8.28575
▁across	-8.28785
▁kinda	-8.28917
▁spot	-8.29009
▁select	-8.29126
▁professional	-8.2947
▁human	-8.29587
▁solution	-8.29619
▁hop	-8.29867
▁concern	-8.2991
▁title	-8.3004
▁stand	-8.30589
▁management	-8.30727
▁entire	-8.30914
▁continue	-8.30933
▁path	-8.31072
▁actual	-8.31134
▁handle	-8.31196
▁who	-8.3156
▁alone	-8.31773
▁action	-8.32063
▁weather	-8.32171
▁restaurant	-8.32408
▁practice	-8.32603
▁stream	-8.32791
▁extra	-8.33255
▁range	-8.3331
▁event	-8.33675
▁half	-8.33689
▁network	-8.3369
▁citizen	-8.33699
▁ps	-8.34151
▁music	-8.34231
▁prefer	-8.34327
▁register	-8.34346
▁medicine	-8.34357
▁exist	-8.3436
▁message	-8.34367
ma	-8.34583
▁gov	-8.34754
▁forget	-8.34787
▁gain	-8.35022
▁pre	-8.35283
▁form	-8.35308
▁extreme	-8.35452
▁anyway	-8.35506
▁white	-8.35705
▁access	-8.35798
▁custom	-8.35801
▁walk	-8.35903
el	-8.36047
▁insight	-8.36346
▁jvp	-8.36385
▁limit	-8.36441
de	-8.36585
▁completely	-8.3667
▁forward	-8.36796
▁gota	-8.36847
ent	-8.37011
lo	-8.37287
▁foreigner	-8.37386
▁currency	-8.37475
▁society	-8.37475
▁worry	-8.37702
▁role	-8.37719
▁behind	-8.3793
▁tuk	-8.37936
▁covid	-8.37992
▁n	-8.38435
▁air	-8.38443
▁absolutely	-8.3854
▁migrate	-8.3862
▁con	-8.38631
▁development	-8.38686
▁computer	-8.38886
rd	-8.38891
ry	-8.39112
am	-8.39117
▁hair	-8.39304
▁kill	-8.39368
▁room	-8.39643
▁se	-8.39654
▁accord	-8.39766
▁island	-8.39768
▁together	-8.39771
co	-8.39783
▁k	-8.40162
▁transport	-8.40193
▁port	-8.40243
▁okay	-8.40244
▁bike	-8.4072
▁gb	-8.40797
▁monthly	-8.40843
▁23	-8.41118
▁daily	-8.41177
▁simple	-8.4118
▁sajith	-8.41648
▁nation	-8.41836
▁document	-8.41862
▁reliable	-8.41894
▁sport	-8.42008
▁dude	-8.4215
▁p	-8.42252
▁along	-8.42375
▁search	-8.42382
▁generation	-8.42439
▁tourism	-8.42608
▁recent	-8.42684
▁fun	-8.42703
▁switch	-8.42855
▁helpful	-8.43242
▁ticket	-8.43319
▁rain	-8.43566
▁unfortunately	-8.43619
▁thinking	-8.43762
▁member	-8.44032
▁sit	-8.44132
▁insurance	-8.44285
▁directly	-8.44546
▁leader	-8.44594
▁tv	-8.44609
▁digital	-8.44772
▁somewhere	-8.44772
▁western	-8.45049
▁platform	-8.45262
▁three	-8.45264
▁inflation	-8.45531
▁uber	-8.45539
▁w	-8.45715
▁simply	-8.45786
▁ltte	-8.46001
▁assume	-8.46248
▁remove	-8.46293
▁cricket	-8.46496
▁minimum	-8.46745
ever	-8.46918
▁easily	-8.46994
▁correct	-8.47041
▁tea	-8.47048
▁worker	-8.47207
▁traffic	-8.47244
la	-8.47292
inning	-8.47512
▁saving	-8.47746
▁wear	-8.47876
▁blame	-8.48003
▁willing	-8.48099
▁19	-8.48242
ie	-8.48293
▁stick	-8.48301
▁fit	-8.48415
less	-8.48551
▁18	-8.49004
▁partner	-8.49024
▁ill	-8.49179
▁stupid	-8.49232
▁wife	-8.49269
▁maintain	-8.4929
▁youtube	-8.49357
▁40	-8.49494
▁relationship	-8.49525
▁cuz	-8.4955
▁living	-8.4978
il	-8.4992
nt	-8.50128
▁2025	-8.50345
ch	-8.50487
▁connect	-8.5055
4	-8.50819
▁review	-8.50827
▁l	-8.50953
▁attack	-8.51071
▁north	-8.51337
at	-8.51396
▁sign	-8.51487
▁bear	-8.5149
▁canada	-8.51593
▁ppl	-8.51609
▁hell	-8.51647
▁unit	-8.51708
▁channel	-8.52117
▁complain	-8.52219
▁letter	-8.52275
▁license	-8.5238
▁qualification	-8.5238
▁folk	-8.52386
j	-8.52549
▁balance	-8.5291
▁passport	-8.52953
▁till	-8.52976
▁mother	-8.52985
da	-8.53025
200	-8.53139
▁unlimited	-8.53174
▁crime	-8.53208
▁owner	-8.53296
▁multiple	-8.53441
man	-8.53473
▁reply	-8.53509
▁match	-8.53516
▁involve	-8.53719
▁honest	-8.53847
▁decade	-8.5398
ish	-8.54024
▁note	-8.54137
▁anymore	-8.54242
id	-8.54266
▁design	-8.54272
▁profit	-8.5451
▁location	-8.54511
▁remote	-8.54517
▁facebook	-8.54567
▁raise	-8.54788
▁condition	-8.54848
▁likely	-8.54974
ha	-8.55007
▁resource	-8.55057
▁router	-8.55198
me	-8.55504
▁finish	-8.55598
▁ok	-8.55647
▁beautiful	-8.55866
▁email	-8.55868
▁track	-8.55938
and	-8.56243
▁potential	-8.56414
▁contract	-8.56415
▁h	-8.56529
▁physical	-8.56563
▁property	-8.56716
▁z	-8.56733
▁civil	-8.56807
▁ad	-8.5696
▁mess	-8.57197
▁aware	-8.57229
▁idk	-8.57301
▁art	-8.57404
▁address	-8.57517
▁otherwise	-8.57529
▁military	-8.57795
ise	-8.5795
▁gold	-8.58046
▁certificate	-8.58073
▁space	-8.58123
ness	-8.58153
▁singapore	-8.58352
▁brother	-8.58358
crying	-8.5841
▁fight	-8.5864
▁sale	-8.58821
▁east	-8.58852
▁sliit	-8.58914
▁suppose	-8.59195
▁btw	-8.59195
ta	-8.59397
▁college	-8.59505
▁apartment	-8.59786
▁army	-8.59886
▁tho	-8.59955
▁code	-8.60041
▁ass	-8.60133
▁eye	-8.60378
▁push	-8.60531
▁seat	-8.60538
▁regular	-8.60616
▁exchange	-8.60617
▁realize	-8.60722
ve	-8.60738
▁overseas	-8.60904
▁enter	-8.60933
▁fake	-8.61199
▁mainly	-8.61379
▁crazy	-8.61462
ya	-8.61642
ful	-8.61888
▁cool	-8.6207
▁serious	-8.62533
▁remain	-8.62639
▁central	-8.62641
▁park	-8.62736
▁tend	-8.63054
▁loudly	-8.6309
▁staff	-8.6328
▁catch	-8.63531
▁bar	-8.63562
▁ex	-8.63685
▁obviously	-8.63694
▁slow	-8.63818
▁properly	-8.64021
▁educate	-8.64168
▁random	-8.64406
▁dm	-8.64415
▁content	-8.64431
▁oh	-8.64433
▁page	-8.64452
▁club	-8.64478
et	-8.64679
▁file	-8.64762
▁imo	-8.6477
▁ride	-8.64866
▁special	-8.6514
▁environment	-8.65194
▁request	-8.65302
▁fully	-8.65485
▁sad	-8.65509
▁smart	-8.65599
▁inside	-8.65614
▁severa	-8.65682
un	-8.65734
▁suffer	-8.65903
▁ban	-8.65915
▁lie	-8.66016
▁lawyer	-8.66207
▁user	-8.6621
▁marry	-8.66213
▁imagine	-8.6626
to	-8.66415
▁popular	-8.66786
▁method	-8.66812
▁alternative	-8.66816
▁among	-8.67062
▁dis	-8.672
ism	-8.67342
▁startup	-8.67413
tone	-8.67487
▁muslim	-8.67622
▁amazing	-8.67729
▁senior	-8.67729
▁200	-8.68003
▁vs	-8.68444
▁station	-8.68525
▁marriage	-8.68655
▁black	-8.68656
▁promise	-8.6868
▁die	-8.68824
▁grade	-8.68847
ia	-8.68915
▁boy	-8.68918
▁except	-8.69226
▁wedding	-8.69277
▁protect	-8.69516
▁officer	-8.69905
▁dad	-8.70081
▁listen	-8.70302
▁reality	-8.70356
▁topic	-8.70444
▁requirement	-8.70607
9	-8.70652
light	-8.70665
▁mark	-8.70722
▁illegal	-8.70764
▁global	-8.70768
▁population	-8.7085
▁doubt	-8.7087
▁goal	-8.70922
▁ac	-8.71105
▁particular	-8.71167
▁carry	-8.7134
li	-8.71421
▁anywhere	-8.71486
▁despi	-8.7149
▁activity	-8.7149
▁background	-8.71506
▁buddhist	-8.7152
▁street	-8.71538
ge	-8.71549
20	-8.71614
▁interesting	-8.71716
▁dog	-8.71795
▁chinese	-8.71805
▁department	-8.7181
▁fan	-8.71991
▁deposit	-8.72126
▁morning	-8.72126
▁gym	-8.72127
▁bare	-8.72287
▁repair	-8.72448
▁truly	-8.7247
▁cs	-8.72528
▁16	-8.72567
▁technology	-8.7277
▁temple	-8.728
▁sa	-8.73107
▁jaffna	-8.73117
▁mine	-8.73436
out	-8.73462
▁seriously	-8.73536
▁release	-8.73744
▁respect	-8.74055
▁electricity	-8.74087
▁fill	-8.74092
▁father	-8.74401
▁context	-8.74728
▁dream	-8.74728
▁welcome	-8.75058
▁explore	-8.75058
▁block	-8.75074
▁manager	-8.75164
▁mom	-8.75171
▁route	-8.7521
skin	-8.75311
▁fellow	-8.75389
▁pickme	-8.7542
▁rid	-8.75482
▁mental	-8.75624
▁implement	-8.75676
▁perfect	-8.75721
heart	-8.75857
▁wise	-8.76343
▁battery	-8.76389
▁overall	-8.76394
▁joke	-8.76395
▁everywhere	-8.76395
▁drink	-8.7642
▁pr	-8.765
▁body	-8.77063
▁pursue	-8.77081
▁mid	-8.77147
▁minute	-8.77457
sweat	-8.77631
ol	-8.77842
▁religious	-8.78521
▁24	-8.78687
line	-8.78907
▁hide	-8.78938
▁unp	-8.78939
▁article	-8.79107
▁60	-8.79419
▁ship	-8.79448
▁anybody	-8.7945
▁clearly	-8.79466
▁apparently	-8.7948
▁co	-8.79482
▁record	-8.79491
▁seek	-8.79551
▁impact	-8.79798
▁growth	-8.80033
ine	-8.80079
▁institution	-8.80157
▁front	-8.80346
ty	-8.80467
▁guide	-8.80477
▁specifically	-8.80517
▁am	-8.80576
▁arrive	-8.80842
▁solid	-8.80844
▁building	-8.81138
▁although	-8.81207
▁comfortable	-8.81218
▁specially	-8.81307
▁west	-8.81458
▁hopefully	-8.81594
▁usa	-8.82004
▁fire	-8.82008
▁14	-8.82012
▁prove	-8.8203
▁500	-8.82122
▁80	-8.82142
▁settle	-8.82225
▁effort	-8.82253
▁sjb	-8.82253
▁energy	-8.82263
▁throw	-8.82611
▁bunch	-8.82617
▁damn	-8.82625
▁11	-8.82646
▁export	-8.82767
▁tbh	-8.82986
▁safety	-8.83005
▁board	-8.83231
▁oil	-8.83258
▁generally	-8.8337
sa	-8.8364
5	-8.83657
▁13	-8.83783
▁fly	-8.83814
▁srilankan	-8.83871
▁collect	-8.83942
▁relative	-8.84009
▁original	-8.8403
▁application	-8.84045
▁opposition	-8.84048
▁mahinda	-8.84063
▁begin	-8.84069
▁wage	-8.84203
▁elect	-8.84258
▁po	-8.84326
▁solve	-8.84442
▁rise	-8.84595
vi	-8.84637
▁crypto	-8.84771
▁institute	-8.84771
▁subreddit	-8.84771
▁scholarship	-8.84771
▁death	-8.8479
as	-8.84836
▁supply	-8.85136
▁double	-8.85136
▁achieve	-8.85466
▁picture	-8.85502
▁academic	-8.85549
▁folde	-8.85571
▁union	-8.85788
▁attend	-8.85856
▁download	-8.8587
▁it	-8.8588
▁drug	-8.86064
▁god	-8.86096
▁direct	-8.86275
▁asia	-8.86282
▁vibe	-8.86287
▁intern	-8.863
▁photo	-8.86606
▁client	-8.86609
▁cultural	-8.86686
be	-8.86845
▁active	-8.87048
▁2024	-8.87093
he	-8.87143
com	-8.87187
▁factor	-8.87291
floor	-8.87357
▁300	-8.87433
▁marketing	-8.87502
ot	-8.87624
▁eventually	-8.87728
▁significant	-8.87746
▁90	-8.87759
▁web	-8.87933
▁positive	-8.88104
▁regardless	-8.88157
▁pc	-8.88347
▁coast	-8.8838
▁rolling	-8.88451
▁brain	-8.88481
▁atleast	-8.88482
▁modern	-8.88485
▁rag	-8.88615
▁straight	-8.88863
▁dead	-8.88887
▁luxury	-8.88896
▁advise	-8.89241
▁foundation	-8.89245
▁over	-8.8927
▁stable	-8.89352
▁deep	-8.89394
▁reasonable	-8.8958
▁target	-8.89622
ally	-8.89643
▁capital	-8.89706
▁deliver	-8.89736
▁o	-8.89821
▁mistake	-8.89913
▁nobody	-8.90005
8	-8.90028
▁print	-8.90119
▁delivery	-8.90276
▁dumb	-8.90388
▁facility	-8.9039
▁campus	-8.90412
▁copy	-8.90549
▁complaint	-8.90626
▁key	-8.90848
▁affordable	-8.90894
▁tia	-8.91069
▁anti	-8.91088
▁idiot	-8.91095
ul	-8.91114
▁peace	-8.91146
▁female	-8.91164
di	-8.91378
▁trading	-8.91553
▁asset	-8.91578
▁technical	-8.91943
▁skin	-8.92087
▁ya	-8.92302
▁arrest	-8.92336
▁response	-8.92336
▁namal	-8.92336
▁steal	-8.92337
▁legit	-8.92358
▁2022	-8.92428
▁traditional	-8.92453
30	-8.9265
▁necessary	-8.92729
ee	-8.92844
▁replace	-8.93119
▁loss	-8.93135
ance	-8.93156
▁nuwara	-8.93184
▁employer	-8.93234
▁mate	-8.93509
▁eg	-8.93514
▁promote	-8.93521
▁zero	-8.93522
▁prepare	-8.93523
▁entry	-8.93529
▁mindset	-8.93536
ti	-8.93536
ian	-8.93712
▁dr	-8.93883
▁incident	-8.9392
▁quick	-8.93921
▁pull	-8.9393
▁ground	-8.94085
▁sim	-8.94149
▁milk	-8.94153
▁europe	-8.94249
▁ignore	-8.9432
▁trouble	-8.9432
▁british	-8.94323
▁tour	-8.94339
tain	-8.94598
we	-8.94599
▁version	-8.9474
▁cancel	-8.94748
▁july	-8.94829
mi	-8.9484
▁elephant	-8.95125
▁convert	-8.95131
ala	-8.95348
▁discuss	-8.95455
▁mobitel	-8.9553
▁truth	-8.95535
▁own	-8.95669
est	-8.95708
▁survive	-8.95936
▁anura	-8.9594
▁fear	-8.95957
▁weekend	-8.96004
▁billion	-8.96035
▁score	-8.9604
▁st	-8.9612
▁confirm	-8.963
▁adult	-8.96347
▁eliya	-8.96431
▁slightly	-8.96455
▁rajapaksa	-8.96648
▁serve	-8.96685
▁massive	-8.96789
▁season	-8.96843
▁asian	-8.96879
▁greatly	-8.97072
▁exact	-8.97192
▁foot	-8.97253
▁cook	-8.97282
▁broker	-8.97569
▁flight	-8.9762
▁iit	-8.98293
▁stress	-8.98392
▁physics	-8.98413
▁rank	-8.98555
▁influence	-8.98658
▁rw	-8.98739
▁inform	-8.98795
▁effect	-8.98801
▁blood	-8.98829
▁tuition	-8.98829
▁mirissa	-8.9883
▁reform	-8.98852
▁purpose	-8.98869
▁150	-8.98884
▁heart	-8.98908
▁suck	-8.98968
▁vi	-8.99083
▁bc	-8.99113
▁gas	-8.99173
tu	-8.99226
▁town	-8.99259
▁up	-8.99617
tion	-8.99631
▁itinerary	-8.99671
▁racist	-8.99671
▁weird	-8.99673
▁pressure	-8.99677
▁mp	-8.99758
no	-8.99829
▁0	-8.9991
op	-9.00053
mo	-9.00065
▁commercial	-9.00095
▁holiday	-9.00095
▁natural	-9.00095
▁touch	-9.00102
▁warranty	-9.00114
▁chill	-9.00154
ana	-9.00216
▁1000	-9.00381
pe	-9.00413
▁mr	-9.00473
▁separate	-9.00547
▁discussion	-9.00598
ba	-9.00609
▁statement	-9.00714
ll	-9.00884
▁voter	-9.00901
▁wifi	-9.00952
▁healthcare	-9.0096
▁cse	-9.01184
▁yesterday	-9.01377
▁nature	-9.0138
▁pa	-9.01407
▁ready	-9.01417
▁center	-9.01476
▁none	-9.0166
▁an	-9.01755
▁progress	-9.01779
▁commission	-9.01808
▁plenty	-9.01808
▁sigiriya	-9.01808
▁deserve	-9.01811
▁fb	-9.01845
▁produce	-9.01854
▁agent	-9.01876
va	-9.02174
▁scene	-9.02177
▁approach	-9.02244
▁ahead	-9.02257
▁moratuwa	-9.02268
▁friendly	-9.02522
▁refer	-9.02529
▁count	-9.02566
10	-9.02644
ad	-9.02666
▁transaction	-9.02675
▁green	-9.02676
▁negative	-9.02676
▁feedback	-9.02683
▁minority	-9.02689
ni	-9.02749
▁ar	-9.02909
▁mass	-9.02922
▁star	-9.02976
▁present	-9.03068
▁challenge	-9.03112
▁refuse	-9.03112
▁trend	-9.03113
▁17	-9.03198
▁ob	-9.03202
▁2019	-9.03276
▁out	-9.03414
▁commit	-9.03545
▁district	-9.03551
▁heavy	-9.03551
▁spread	-9.03553
▁ch	-9.03772
lk	-9.0383
▁ha	-9.03885
▁tough	-9.03991
▁piece	-9.03991
▁employment	-9.04013
▁usual	-9.04054
▁song	-9.04117
▁faculty	-9.04434
▁proof	-9.0454
ster	-9.04698
▁baby	-9.04882
▁authority	-9.04888
▁patient	-9.05325
▁sleep	-9.05325
▁third	-9.05334
▁freedom	-9.05337
go	-9.05586
▁preferably	-9.05789
0000	-9.05947
▁km	-9.0597
▁banking	-9.05981
▁la	-9.06065
▁campaign	-9.06223
7	-9.06661
▁fiber	-9.06678
ho	-9.06957
▁justice	-9.07131
▁attention	-9.07131
▁revenue	-9.07183
▁2000	-9.07412
▁com	-9.07431
▁advantage	-9.07587
▁corporate	-9.07591
▁reserve	-9.07598
▁status	-9.07607
▁ict	-9.07615
▁hr	-9.0763
▁training	-9.07704
▁21	-9.07725
▁pure	-9.07734
▁lk	-9.07762
if	-9.07947
▁bachelor	-9.08046
▁emergency	-9.08046
▁secure	-9.08098
▁japan	-9.08502
▁shift	-9.08507
▁firm	-9.08507
▁shoe	-9.08508
▁glad	-9.08513
ro	-9.08518
ara	-9.08521
▁em	-9.08554
iya	-9.08828
▁infrastructure	-9.0897
▁performance	-9.0898
▁race	-9.0899
▁hot	-9.09032
▁burn	-9.09037
▁useful	-9.09071
▁expert	-9.09416
▁beyond	-9.09435
▁bio	-9.09657
eyes	-9.09723
▁35	-9.09772
▁70	-9.10024
sh	-9.10264
▁apart	-9.10346
laughe	-9.10371
▁petrol	-9.10372
▁duty	-9.10378
▁abuse	-9.10396
▁discount	-9.10843
▁sudden	-9.10843
▁lease	-9.10846
do	-9.10847
▁45	-9.10966
▁hike	-9.10975
▁hat	-9.11172
▁rajapaksha	-9.11317
▁rice	-9.11414
pa	-9.11419
▁gen	-9.11505
▁going	-9.11559
▁size	-9.11659
▁thread	-9.11795
▁surf	-9.11814
▁ruin	-9.11815
▁solo	-9.11819
▁mix	-9.12043
▁device	-9.12282
▁introduce	-9.12308
▁talent	-9.12756
▁image	-9.12766
▁meal	-9.1278
mbps	-9.13085
ence	-9.13103
▁investor	-9.13147
▁prevent	-9.13244
▁mil	-9.13405
end	-9.13642
▁practical	-9.13809
▁cafe	-9.13835
▁perspective	-9.14209
▁responsibility	-9.14209
▁approve	-9.14283
▁useless	-9.14401
▁region	-9.1444
▁feed	-9.14508
▁fresh	-9.14552
▁discipline	-9.14699
▁somehow	-9.14699
▁strike	-9.14699
▁prime	-9.147
▁agency	-9.14701
▁presidential	-9.14746
▁ceylon	-9.15199
book	-9.1545
▁flag	-9.15533
▁crowd	-9.15556
▁former	-9.15643
▁tomorrow	-9.15687
▁conversation	-9.157
ous	-9.15789
but	-9.15899
ex	-9.15988
▁cat	-9.16054
q	-9.16105
ir	-9.16152
▁august	-9.16184
▁material	-9.16184
▁whatsapp	-9.16185
▁feature	-9.16185
▁2023	-9.16202
▁hence	-9.16213
tic	-9.1622
▁negombo	-9.16221
▁electronic	-9.16238
▁slpp	-9.16261
▁valid	-9.16611
▁diploma	-9.16668
▁hang	-9.16683
▁attempt	-9.16684
▁permit	-9.16685
▁under	-9.17047
si	-9.17123
▁violence	-9.17187
▁tool	-9.17288
▁immediately	-9.17339
▁limited	-9.17478
▁aliexpress	-9.17692
▁december	-9.17692
▁vaccine	-9.17692
▁american	-9.18033
▁reject	-9.18124
wa	-9.18211
oo	-9.18229
ki	-9.18231
▁ka	-9.18476
▁wealth	-9.18507
▁racism	-9.1871
▁clothe	-9.1878
▁cyber	-9.19222
▁unique	-9.1927
hi	-9.19338
▁scale	-9.19354
mb	-9.19367
▁coz	-9.19577
▁text	-9.19728
▁concept	-9.19738
▁fibre	-9.19738
▁trump	-9.19739
▁ba	-9.19765
▁no	-9.19918
▁recover	-9.20003
▁chat	-9.20012
▁sex	-9.20155
▁animal	-9.20256
▁working	-9.20616
arious	-9.20682
▁express	-9.20701
▁j	-9.2074
▁annual	-9.20777
▁competition	-9.20777
▁democracy	-9.20777
▁machine	-9.20777
▁registration	-9.20777
▁camera	-9.20788
▁stage	-9.20819
▁bag	-9.20864
▁ab	-9.20882
▁november	-9.213
▁responsible	-9.21305
▁male	-9.21361
▁taste	-9.21369
▁alot	-9.21435
▁apple	-9.21586
ug	-9.21586
▁football	-9.21832
▁bond	-9.21853
▁shy	-9.22017
medium	-9.22303
▁cross	-9.22314
▁evidence	-9.22356
▁cinema	-9.22356
▁delay	-9.22359
▁damage	-9.22362
▁contribute	-9.22929
▁cv	-9.22936
▁developer	-9.23002
▁ta	-9.23255
▁worried	-9.23423
▁bottle	-9.23424
▁byd	-9.23426
▁iphone	-9.23452
▁style	-9.23602
▁ideally	-9.23823
▁pls	-9.23833
▁min	-9.23887
▁communication	-9.23964
▁34	-9.23981
▁october	-9.24006
▁immigration	-9.24502
▁jump	-9.24507
tear	-9.24525
▁king	-9.24744
▁ig	-9.2485
per	-9.24887
▁divide	-9.25012
▁branch	-9.25044
▁shipping	-9.25052
▁shitty	-9.25154
▁phd	-9.25179
ship	-9.25211
▁load	-9.25278
▁financially	-9.253
▁pack	-9.25409
▁mon	-9.25582
▁husband	-9.25591
▁host	-9.25623
▁shortage	-9.25688
▁hurt	-9.25701
han	-9.25707
▁data	-9.25788
▁additional	-9.25794
▁sun	-9.2586
▁impossible	-9.2614
▁volunteer	-9.2614
ite	-9.26405
▁ton	-9.26506
over	-9.26509
min	-9.26641
▁false	-9.26693
▁guarantee	-9.26693
▁fault	-9.26694
son	-9.26818
▁bs	-9.26818
▁freelance	-9.27077
▁22	-9.27168
level	-9.27235
▁scheme	-9.27248
▁rural	-9.2725
▁indians	-9.27326
▁treatment	-9.27346
▁bsc	-9.27354
▁essential	-9.27505
▁organization	-9.27807
▁queue	-9.27807
ath	-9.27845
▁sea	-9.27883
▁era	-9.28062
ag	-9.28087
▁appoint	-9.28334
▁tuktuk	-9.28369
▁toxic	-9.28369
▁dress	-9.28379
▁coffee	-9.28416
▁fo	-9.28461
▁lately	-9.28487
▁operate	-9.28523
▁lecture	-9.28784
ial	-9.28817
▁somewhat	-9.28934
▁church	-9.28934
os	-9.28935
▁primar	-9.28937
▁inter	-9.28943
▁mad	-9.29301
▁spending	-9.29357
▁success	-9.29484
▁monitor	-9.29502
hands	-9.29846
▁rental	-9.29873
▁climate	-9.30073
▁conflict	-9.30073
▁lifestyle	-9.30097
▁highway	-9.30235
down	-9.30269
▁max	-9.30412
▁regret	-9.30648
▁tariff	-9.30648
▁april	-9.30648
▁restriction	-9.30678
▁youth	-9.30752
om	-9.30762
▁confused	-9.3079
ily	-9.30822
▁sadly	-9.30838
▁root	-9.3085
ac	-9.31002
ke	-9.31003
▁ideal	-9.31029
▁pain	-9.31057
ama	-9.31058
ard	-9.3108
ical	-9.31216
▁executive	-9.31226
▁recognize	-9.31226
▁submit	-9.31226
▁lady	-9.31227
▁sick	-9.31234
▁mod	-9.31245
▁september	-9.31255
▁cal	-9.31262
▁setup	-9.31352
▁son	-9.31497
▁sp	-9.3159
cc	-9.31664
▁encourage	-9.31807
▁ministry	-9.31807
▁sister	-9.31814
▁estate	-9.31815
▁ethnic	-9.31855
way	-9.32001
ling	-9.32139
▁toyota	-9.32392
▁japanese	-9.32398
▁upgrade	-9.32432
▁june	-9.32464
▁when	-9.32499
time	-9.32696
mp	-9.32712
▁buying	-9.32716
▁remind	-9.32795
ect	-9.32851
▁twice	-9.3298
▁construction	-9.32992
▁bet	-9.33042
▁upper	-9.33108
▁peak	-9.33172
▁cycle	-9.33572
▁relevant	-9.33572
▁maintenance	-9.33602
▁player	-9.33627
▁absolute	-9.3377
▁successful	-9.33844
▁vat	-9.33899
▁guidance	-9.34167
▁withdraw	-9.34665
▁locally	-9.34706
▁box	-9.34742
▁gift	-9.34766
▁chemistry	-9.3481
▁european	-9.34877
ure	-9.34985
▁lesson	-9.35269
▁aspect	-9.35369
▁associate	-9.35369
▁innocent	-9.35369
▁syllabus	-9.35369
▁citizenship	-9.35395
▁nic	-9.35543
▁sc	-9.35652
▁criminal	-9.3593
▁january	-9.35975
▁lmao	-9.35975
▁paypal	-9.35977
▁competitive	-9.36006
▁consumer	-9.36058
▁shame	-9.36284
▁provider	-9.36367
▁dubai	-9.36586
▁rock	-9.36591
▁bother	-9.366
▁distance	-9.3665
▁priority	-9.36779
▁legally	-9.36786
fi	-9.36805
▁monk	-9.36883
▁250	-9.36903
▁bay	-9.36931
▁door	-9.37042
▁repeat	-9.37197
▁destroy	-9.37198
▁schedule	-9.37198
▁undergraduate	-9.37198
iv	-9.37214
▁shoot	-9.37356
▁perform	-9.37357
▁agreement	-9.37384
▁screen	-9.37396
▁yo	-9.37436
▁table	-9.37477
ga	-9.37605
▁effective	-9.37627
mil	-9.37743
tr	-9.37869
▁rely	-9.38055
▁wide	-9.38301
ization	-9.38323
▁ball	-9.38326
▁judge	-9.38402
▁sampath	-9.38436
▁bullshit	-9.38437
ip	-9.38455
bi	-9.38547
▁village	-9.38565
▁insane	-9.38659
sp	-9.38671
▁peaceful	-9.38689
▁signal	-9.38758
▁fr	-9.39047
▁instagram	-9.39062
one	-9.39161
▁independent	-9.39287
▁arm	-9.39508
ah	-9.39532
land	-9.39567
▁quickly	-9.39688
▁london	-9.3969
▁adopt	-9.39691
▁structure	-9.39729
▁meeting	-9.39789
▁migration	-9.39895
▁fd	-9.39956
▁counter	-9.39983
▁dec	-9.40067
ig	-9.40069
▁fort	-9.40161
▁fish	-9.40178
▁journey	-9.40323
▁province	-9.40323
▁gender	-9.40324
▁funny	-9.40333
▁girlfriend	-9.40342
▁dinner	-9.40354
▁appointment	-9.40364
▁march	-9.4038
▁everyday	-9.40409
bo	-9.40595
▁window	-9.40962
▁four	-9.41023
▁transportation	-9.4108
▁mis	-9.41104
▁slowly	-9.41183
ru	-9.41263
▁wa	-9.41405
ash	-9.41486
▁ni	-9.41514
▁fairly	-9.41569
▁usage	-9.41789
ice	-9.41843
▁healthy	-9.42064
▁aim	-9.42232
▁tutor	-9.42246
▁perhaps	-9.42246
ak	-9.42247
▁skip	-9.42247
▁motor	-9.42248
▁therefor	-9.42282
ut	-9.42321
▁direction	-9.42376
ver	-9.42443
▁meme	-9.42458
▁anyways	-9.42741
50	-9.42814
▁coconut	-9.42896
▁regulation	-9.42896
▁scenario	-9.42896
▁victim	-9.42896
▁voice	-9.42896
▁bonus	-9.42896
▁session	-9.42896
▁delete	-9.42896
▁blind	-9.42901
▁surprised	-9.43083
ting	-9.43138
▁strict	-9.43145
▁she	-9.43405
▁complex	-9.43549
▁batch	-9.4357
▁airline	-9.43612
▁pharmacy	-9.43621
▁cop	-9.43639
back	-9.43823
▁feeling	-9.43826
use	-9.43871
▁pet	-9.44158
hu	-9.44171
▁cousin	-9.44207
▁solar	-9.44219
▁hutch	-9.4422
▁taxi	-9.4425
▁ability	-9.44314
▁blue	-9.44315
▁conduct	-9.44422
▁seller	-9.44461
▁400	-9.44624
▁beat	-9.44627
▁heavily	-9.44869
▁display	-9.44874
▁cap	-9.44888
▁section	-9.44968
▁busy	-9.45099
▁def	-9.45116
act	-9.45524
▁external	-9.45536
▁ensure	-9.45536
▁labour	-9.4554
▁independence	-9.45578
▁2015	-9.45588
cl	-9.45871
▁passion	-9.45877
▁fucking	-9.45942
15	-9.46122
▁reflect	-9.46207
▁attitude	-9.46207
▁justify	-9.46207
▁ridiculous	-9.46208
▁film	-9.46228
▁compete	-9.46239
▁mentality	-9.46278
▁generate	-9.46304
day	-9.46365
▁realise	-9.46366
▁dark	-9.46487
▁li	-9.46783
▁represent	-9.46883
▁buddhism	-9.46883
▁garbage	-9.46883
▁hassle	-9.46883
▁starlink	-9.46883
▁gdp	-9.46885
▁bugger	-9.46885
▁band	-9.47103
▁lucky	-9.47156
tha	-9.47208
▁celebrate	-9.47563
▁terrible	-9.47563
▁hnb	-9.47563
▁destination	-9.47567
▁valuable	-9.4757
▁ra	-9.47609
▁suit	-9.47807
▁off	-9.48088
▁entirely	-9.48159
▁heat	-9.48195
▁strategy	-9.48248
▁refund	-9.48249
▁proud	-9.48277
▁aside	-9.48281
▁cl	-9.48426
▁influencer	-9.48528
▁should	-9.48816
▁linkedin	-9.48938
▁kick	-9.48939
▁daraz	-9.4894
▁skilled	-9.48944
▁ie	-9.49005
▁relatively	-9.49007
▁par	-9.49025
▁lecturer	-9.49158
▁index	-9.49349
ably	-9.49349
▁engine	-9.49437
▁relax	-9.49501
▁identify	-9.49632
▁basis	-9.49644
▁percentage	-9.49647
▁constitution	-9.49822
▁freelancer	-9.4986
▁initial	-9.49932
▁ko	-9.49946
500	-9.49987
▁press	-9.50069
▁approval	-9.50331
▁arrival	-9.50331
▁extend	-9.50331
▁samsung	-9.50331
▁voting	-9.50332
▁yala	-9.50375
▁upon	-9.50448
▁ceb	-9.50495
▁cod	-9.50614
▁easter	-9.50618
▁hous	-9.50681
▁wtf	-9.51036
▁donate	-9.51039
▁nearby	-9.51062
▁camp	-9.51178
ile	-9.51209
▁expectation	-9.5135
po	-9.51438
▁26	-9.51481
▁surprise	-9.5154
▁mafia	-9.51745
▁forex	-9.51768
▁prior	-9.51769
▁preference	-9.5178
▁ethnicity	-9.51788
▁ja	-9.51857
▁weight	-9.51881
sl	-9.51883
▁cry	-9.51964
lanka	-9.52063
ay	-9.52178
▁ev	-9.5225
▁electric	-9.52371
▁28	-9.52436
▁council	-9.52459
▁aragalaya	-9.5246
▁trash	-9.52466
ue	-9.5247
▁gap	-9.52517
▁2020	-9.52575
tre	-9.52576
▁upto	-9.52633
▁fe	-9.52776
▁movement	-9.52896
▁pop	-9.52935
ng	-9.53156
▁afraid	-9.53179
▁nowadays	-9.53179
▁presidency	-9.53179
▁thousand	-9.53179
▁vacation	-9.53179
ud	-9.53254
▁beside	-9.53393
▁dig	-9.53577
12	-9.53594
qu	-9.5362
▁accident	-9.53629
▁malaysia	-9.5381
▁rn	-9.53815
▁scamme	-9.53822
▁bribe	-9.5388
▁procedure	-9.53903
▁strength	-9.53903
▁task	-9.53908
▁upcom	-9.53928
▁gaming	-9.53947
▁comp	-9.53977
▁doc	-9.54018
▁net	-9.54109
▁br	-9.54144
▁obvious	-9.54235
▁loud	-9.54246
▁rant	-9.54265
▁employ	-9.5438
▁resign	-9.5459
▁establish	-9.54597
▁desperate	-9.54633
▁soldier	-9.54633
▁measure	-9.54634
▁birthday	-9.5464
▁ro	-9.54665
▁operation	-9.54672
▁profile	-9.54714
▁grant	-9.54761
▁ice	-9.54763
ify	-9.54856
work	-9.5491
▁gun	-9.55225
▁ne	-9.55228
▁27	-9.55229
▁round	-9.55388
ai	-9.55404
og	-9.55584
▁left	-9.55642
ang	-9.55739
▁teaching	-9.55912
▁engage	-9.56083
▁premium	-9.56109
▁famous	-9.56114
▁drama	-9.56116
▁cream	-9.56118
▁clothing	-9.56153
▁tie	-9.56155
▁af	-9.56201
▁familiar	-9.56235
▁sexual	-9.56244
▁bo	-9.56275
0	-9.56557
▁portfolio	-9.56855
▁arugam	-9.56856
▁longterm	-9.56856
sha	-9.57094
▁poll	-9.57109
▁murder	-9.57402
▁argue	-9.57607
▁rajapakse	-9.57607
▁launch	-9.57611
▁stability	-9.57622
▁on	-9.57647
▁significantly	-9.57653
▁gem	-9.57669
▁lay	-9.57885
▁lo	-9.57976
▁mac	-9.57984
▁ultimate	-9.58365
▁hybrid	-9.58365
▁theory	-9.58369
▁elite	-9.58373
▁trap	-9.58415
▁so	-9.58783
ess	-9.5893
▁behavior	-9.59128
▁bottom	-9.59128
▁calculate	-9.59128
▁divorce	-9.59128
▁respond	-9.59128
▁resort	-9.59129
▁wildlife	-9.59131
▁sunday	-9.59139
▁kdu	-9.59149
▁consultant	-9.59186
▁cloud	-9.5924
▁bi	-9.593
▁shut	-9.59339
▁quit	-9.5942
▁atm	-9.59473
▁possibl	-9.59502
▁production	-9.59646
▁uncle	-9.59861
▁jail	-9.5992
▁suitable	-9.59968
19	-9.60373
▁click	-9.60673
▁advisor	-9.60673
▁argument	-9.60673
▁consequence	-9.60673
▁library	-9.60673
▁organize	-9.60673
▁series	-9.60673
pay	-9.60717
▁color	-9.6073
▁cup	-9.60871
yo	-9.60873
ton	-9.61061
▁unlike	-9.61089
▁beginner	-9.61125
▁th	-9.61142
▁burden	-9.61454
▁default	-9.61454
▁festival	-9.61454
▁oppose	-9.61454
▁poverty	-9.61454
▁sponsor	-9.61454
▁survey	-9.61454
▁division	-9.61454
▁admit	-9.61454
▁draw	-9.61454
▁certification	-9.61454
▁chicken	-9.61461
▁terrorist	-9.61463
ca	-9.61469
▁egg	-9.61615
▁pool	-9.61731
▁weak	-9.61756
▁redditor	-9.61773
▁careful	-9.61997
▁tradition	-9.62006
year	-9.62044
▁equity	-9.62241
▁neighbour	-9.62241
▁reputation	-9.62241
▁speech	-9.62241
▁anytime	-9.62245
▁cbsl	-9.62245
▁fancy	-9.62265
▁centre	-9.62286
▁specialist	-9.62328
▁stra	-9.62458
▁sh	-9.62515
▁grand	-9.62651
ika	-9.62771
▁multi	-9.62808
ci	-9.62934
▁cinnamon	-9.63035
▁donation	-9.63038
▁wild	-9.63042
▁efficient	-9.63121
▁pakistan	-9.63245
▁map	-9.63324
▁israel	-9.63503
tan	-9.63774
▁category	-9.63835
▁thailand	-9.63838
▁investigation	-9.63846
▁coach	-9.63854
fe	-9.63981
▁dry	-9.63984
60	-9.64139
▁laugh	-9.64153
▁typical	-9.64244
our	-9.64299
some	-9.64392
▁factory	-9.64452
▁birth	-9.64634
▁convince	-9.64641
▁podcast	-9.64641
▁driving	-9.64641
▁extent	-9.64641
▁attach	-9.64642
▁debit	-9.64656
▁crap	-9.6511
ious	-9.65148
pi	-9.65179
ka	-9.65261
▁threat	-9.65411
▁hundred	-9.65454
▁throughout	-9.65454
▁equipment	-9.65461
▁stuck	-9.65464
▁intention	-9.65466
▁shot	-9.6547
▁mo	-9.65586
▁debate	-9.65601
▁cheer	-9.65627
not	-9.65969
▁logic	-9.66011
▁eu	-9.6607
▁edexcel	-9.66274
▁protein	-9.66274
▁capacity	-9.66276
▁crash	-9.66282
▁lakh	-9.66297
▁ram	-9.66315
▁labor	-9.66331
▁privilege	-9.66344
ran	-9.66346
▁speaker	-9.66455
▁dev	-9.66539
lin	-9.66763
▁pan	-9.66839
app	-9.6687
▁confuse	-9.66896
40	-9.66957
oc	-9.67018
▁appear	-9.67089
so	-9.67099
▁married	-9.67101
▁impos	-9.67116
▁input	-9.67126
▁tired	-9.67163
aya	-9.67237
ze	-9.67343
▁normally	-9.67559
mark	-9.67603
month	-9.67717
▁sir	-9.67826
▁comfort	-9.67864
▁attract	-9.67909
▁clarify	-9.67934
▁identity	-9.67934
▁pocket	-9.67934
▁tiktok	-9.67934
▁vendor	-9.67935
▁programme	-9.67949
▁protection	-9.68133
▁here	-9.68166
▁dance	-9.68189
▁circle	-9.68435
▁combine	-9.68774
▁grateful	-9.68774
▁propaganda	-9.68774
▁trincomalee	-9.68774
▁critical	-9.68775
▁excuse	-9.68779
▁haha	-9.68792
▁resident	-9.68793
ble	-9.68851
▁wall	-9.68858
▁q	-9.68878
▁deny	-9.68917
▁pic	-9.6897
awa	-9.68994
▁unnecessar	-9.6901
ber	-9.69134
▁permanent	-9.69219
▁cold	-9.69261
ck	-9.69352
io	-9.69543
▁buffet	-9.69622
▁commerce	-9.69622
▁buddy	-9.69623
▁boat	-9.69646
▁roll	-9.69671
▁forest	-9.69705
▁mall	-9.69883
80	-9.70015
▁equal	-9.70041
▁bat	-9.70079
mu	-9.70192
'	-9.70219
ery	-9.7039
▁colleague	-9.70476
▁possibility	-9.70476
▁safari	-9.70476
▁publish	-9.70477
▁accurate	-9.70479
▁memory	-9.7048
▁native	-9.70499
▁rip	-9.70538
gi	-9.70709
▁evening	-9.70792
▁risky	-9.70835
▁ali	-9.70924
off	-9.71219
▁internal	-9.71271
▁exploit	-9.71294
▁floor	-9.7133
▁borrow	-9.71338
▁quiet	-9.71338
▁onto	-9.71429
▁eta	-9.7144
▁portion	-9.71616
▁socialist	-9.71663
are	-9.71676
▁soft	-9.71678
▁wi	-9.71847
▁grad	-9.7199
▁deduct	-9.72133
▁retire	-9.72172
▁curriculum	-9.72208
▁mandatory	-9.72208
▁weligama	-9.72208
▁drain	-9.72209
▁cybersecurity	-9.72209
▁piss	-9.72229
▁belong	-9.7234
▁gang	-9.72347
▁msc	-9.72359
▁annoying	-9.72379
▁gay	-9.72459
▁rarely	-9.72591
▁cr	-9.72683
▁cent	-9.72701
▁fat	-9.72719
▁america	-9.72894
▁aus	-9.72898
▁function	-9.72983
▁entitle	-9.73085
▁adapt	-9.73085
▁belief	-9.73085
▁estimate	-9.73085
▁nsbm	-9.73085
▁opposite	-9.73085
▁administration	-9.73103
▁loose	-9.7311
▁align	-9.73151
all	-9.73263
hood	-9.73286
▁farm	-9.73395
▁mode	-9.73559
for	-9.73882
▁bankrupt	-9.73965
▁mathematic	-9.7397
▁collapse	-9.73971
▁dangerous	-9.73974
▁screw	-9.73974
▁pfc	-9.73988
▁hero	-9.74039
▁stat	-9.74178
▁germany	-9.7421
▁constantly	-9.74267
▁jr	-9.74267
70	-9.74428
▁exp	-9.74504
6	-9.7455
ab	-9.74622
▁bruh	-9.74844
▁passenger	-9.74863
▁pizza	-9.74864
▁odd	-9.74865
▁upload	-9.74867
▁fool	-9.74868
▁maximu	-9.74876
▁accommodation	-9.74884
▁horrible	-9.74896
▁leadership	-9.74899
▁hnd	-9.75105
pro	-9.75109
▁powerful	-9.75132
▁ird	-9.75286
▁din	-9.75303
▁mba	-9.75484
ral	-9.75493
▁lock	-9.75532
▁alcohol	-9.75687
▁holder	-9.75738
▁comparison	-9.75764
▁genocide	-9.75764
▁asap	-9.75764
▁harass	-9.75768
▁supermarket	-9.75772
▁quote	-9.7578
▁decline	-9.75786
▁wake	-9.75792
▁communicate	-9.75794
▁promotion	-9.7583
▁artist	-9.75885
25	-9.76075
▁casual	-9.76269
▁le	-9.76318
▁gather	-9.76368
▁down	-9.76369
▁ho	-9.76381
▁rare	-9.76391
hr	-9.76439
▁pi	-9.76548
▁leg	-9.76667
▁disagree	-9.76673
▁awesome	-9.76673
▁perfume	-9.76673
▁temporary	-9.76673
▁verify	-9.76674
▁defend	-9.76688
▁threaten	-9.76721
▁awareness	-9.76735
▁pe	-9.76755
▁noise	-9.76776
mer	-9.76826
▁formal	-9.76854
▁sake	-9.7688
▁plant	-9.77095
▁pal	-9.7741
▁punish	-9.77561
▁neighbor	-9.77584
▁embassy	-9.7759
▁everybody	-9.7759
▁suspect	-9.7759
▁sugar	-9.77593
▁nonsense	-9.77596
▁stack	-9.77607
▁ideology	-9.77612
▁fa	-9.77667
▁ti	-9.77904
▁mar	-9.77968
▁75	-9.78003
▁learning	-9.78147
▁united	-9.78197
ass	-9.78429
▁absurd	-9.78516
▁fashion	-9.78516
▁initiative	-9.78516
▁welfare	-9.78516
▁clown	-9.78522
▁ikman	-9.78522
▁rush	-9.78524
▁agenda	-9.78534
▁2021	-9.78542
▁scammer	-9.78768
▁lane	-9.78771
ative	-9.78887
▁med	-9.79006
du	-9.79134
ory	-9.7925
▁garden	-9.79451
▁crook	-9.79451
▁label	-9.79476
▁cima	-9.79477
▁reference	-9.79478
▁wash	-9.79495
▁progressive	-9.79515
▁earth	-9.79536
▁workplace	-9.7969
tal	-9.79719
int	-9.79727
▁cab	-9.79937
▁initially	-9.79988
▁cla	-9.80038
▁cc	-9.80069
gr	-9.80169
▁harm	-9.80303
▁clue	-9.80383
▁convenient	-9.80394
▁chocolate	-9.80394
▁discrimination	-9.80394
▁plastic	-9.80394
▁tower	-9.80396
▁yea	-9.80405
▁tight	-9.80419
▁manner	-9.80479
▁cus	-9.80668
▁selection	-9.80733
▁bed	-9.80768
▁australian	-9.8084
▁sm	-9.80854
▁en	-9.80919
▁shock	-9.80924
base	-9.80958
▁neithe	-9.81084
▁ah	-9.81262
venue	-9.8127
▁predict	-9.81285
▁da	-9.81294
▁lower	-9.81315
▁chatgpt	-9.81347
▁declare	-9.81347
▁medication	-9.81347
▁unfair	-9.81347
▁reveal	-9.81347
▁entrance	-9.81348
▁biology	-9.81351
▁leaf	-9.81352
▁negotiate	-9.81363
▁bail	-9.81371
▁civilian	-9.81393
▁lgbtq	-9.81399
▁graphic	-9.81541
▁dual	-9.81545
▁five	-9.81738
gg	-9.81751
▁paint	-9.81912
ability	-9.81953
▁600	-9.82057
▁auto	-9.82305
▁premadasa	-9.82308
▁daughter	-9.82308
▁error	-9.82308
▁indeed	-9.82308
▁southern	-9.82312
▁guest	-9.82317
▁chase	-9.82319
▁understanding	-9.82397
▁specialize	-9.82408
lkr	-9.82544
▁media	-9.82558
flow	-9.82604
▁99	-9.82645
pm	-9.82777
▁che	-9.82787
▁hill	-9.8299
▁29	-9.83181
aka	-9.83223
▁anuradhapura	-9.83279
▁nugegoda	-9.83279
▁surround	-9.83279
▁undergrad	-9.83279
▁regime	-9.83287
▁micro	-9.83294
▁sky	-9.83317
▁shopping	-9.8334
▁wow	-9.83381
▁van	-9.8339
▁isp	-9.8344
▁calm	-9.83471
▁abt	-9.83538
▁traveler	-9.83554
lt	-9.83612
rt	-9.83843
▁educational	-9.83852
▁trick	-9.83993
▁tri	-9.84107
▁wing	-9.84123
▁enforce	-9.84224
▁downvote	-9.8426
▁flood	-9.8426
▁hustle	-9.8426
▁kottu	-9.8426
▁resolve	-9.8426
▁nurse	-9.8426
▁invite	-9.8426
▁split	-9.8426
▁habit	-9.8426
▁propose	-9.84263
▁expose	-9.84265
▁chain	-9.84279
▁household	-9.8428
▁liberal	-9.84288
▁gig	-9.84353
▁collection	-9.84463
▁harsha	-9.84813
▁concerned	-9.8487
que	-9.85018
▁sum	-9.8511
▁opt	-9.85149
▁bangladesh	-9.8525
▁immigrant	-9.8525
▁prison	-9.8525
▁witness	-9.8525
▁appeal	-9.85254
▁curry	-9.85265
▁expand	-9.85271
▁retirement	-9.85291
▁tin	-9.85309
▁mini	-9.85358
rate	-9.85501
▁sustainable	-9.85506
ose	-9.85565
▁highlight	-9.85769
▁sometime	-9.85949
▁german	-9.8598
fa	-9.85987
▁gl	-9.86116
▁climb	-9.8625
▁entrepreneur	-9.8625
▁inflate	-9.8625
▁flash	-9.86254
▁tree	-9.86257
▁smile	-9.86261
▁ofc	-9.86267
▁120	-9.86267
▁grab	-9.86287
adband	-9.86298
▁journalist	-9.86305
ja	-9.86351
▁va	-9.86374
▁scared	-9.86448
▁pv	-9.86511
▁mu	-9.86527
▁rat	-9.86854
▁historical	-9.8689
▁gpa	-9.86957
▁tb	-9.87055
▁log	-9.87185
what	-9.87217
▁dambulla	-9.8726
▁proceed	-9.8726
▁skull	-9.8726
▁unsure	-9.87261
▁outlet	-9.87268
▁forever	-9.87278
▁plantation	-9.8731
▁spam	-9.87369
▁cmb	-9.87398
▁electrical	-9.87403
ris	-9.87413
▁zone	-9.87539
gu	-9.87548
▁character	-9.8787
▁col	-9.8789
ff	-9.88141
▁grocery	-9.8828
▁privacy	-9.8828
▁recognition	-9.8828
▁availability	-9.88281
▁trcsl	-9.88282
▁cabinet	-9.88284
▁commute	-9.88285
▁brown	-9.88286
▁colour	-9.88287
▁surgery	-9.88289
▁smell	-9.883
▁nope	-9.88305
▁epf	-9.88307
▁failure	-9.88328
▁certainly	-9.88537
▁el	-9.88645
ini	-9.88652
ack	-9.88913
▁aid	-9.88947
necessarily	-9.89022
▁the	-9.89065
▁soo	-9.89092
▁rob	-9.89126
▁arrange	-9.89277
▁secret	-9.89281
▁analytic	-9.89311
▁android	-9.89311
▁fundamental	-9.89311
▁pettah	-9.89314
▁automatically	-9.89317
▁hindu	-9.89322
▁icbt	-9.89332
▁authentic	-9.8934
▁yep	-9.89369
▁fitness	-9.89388
▁jan	-9.898
▁typically	-9.89824
▁ran	-9.89905
dr	-9.89957
▁dealer	-9.90062
uae	-9.9019
▁addition	-9.90239
▁flow	-9.90265
▁announce	-9.9032
▁participate	-9.90353
▁ultra	-9.90353
▁analysis	-9.90354
▁boost	-9.90355
▁crack	-9.9036
▁mechanical	-9.9041
▁tap	-9.90444
▁slave	-9.90456
▁ce	-9.90571
▁di	-9.90674
▁eastern	-9.9068
che	-9.90694
▁ma	-9.90862
gen	-9.90875
▁earning	-9.90878
11	-9.90946
▁pol	-9.91036
ator	-9.91065
ner	-9.91068
▁essentially	-9.91103
ger	-9.91276
▁depreciate	-9.91405
▁frustrating	-9.91405
▁junior	-9.91405
▁vaccinate	-9.91405
▁dehiwala	-9.91405
▁pattern	-9.91405
▁adhd	-9.91406
▁urban	-9.91418
▁entity	-9.91428
▁2026	-9.91439
▁passionate	-9.91449
ted	-9.91453
▁pix	-9.9146
ible	-9.91518
▁im	-9.91589
▁maha	-9.91677
▁mbps	-9.91739
net	-9.9204
tin	-9.92083
vo	-9.92143
▁wo	-9.92177
▁bomb	-9.92182
▁additionally	-9.92191
▁advertise	-9.92433
▁how	-9.92463
▁bridge	-9.92469
▁intelligence	-9.92469
▁outcome	-9.92469
▁peradeniya	-9.9247
▁vision	-9.92472
▁statistic	-9.92475
▁depression	-9.92499
▁2018	-9.92501
▁cake	-9.9251
▁ga	-9.92622
▁pot	-9.92657
pl	-9.92661
▁thi	-9.92669
▁lift	-9.92755
▁hack	-9.92883
▁fds	-9.92913
▁lab	-9.9302
▁scar	-9.93023
you	-9.93055
▁moral	-9.93335
▁translate	-9.93544
▁intend	-9.93545
▁faith	-9.9355
▁plain	-9.93585
▁pathway	-9.9359
▁pen	-9.93629
▁democratic	-9.93637
▁accountability	-9.93639
▁replacement	-9.93644
▁appreciated	-9.93653
▁scope	-9.93698
▁ik	-9.93831
▁slip	-9.93886
▁acc	-9.94022
cy	-9.94614
▁admission	-9.94631
▁afaik	-9.94631
▁remittance	-9.94631
▁scooter	-9.94631
▁lunch	-9.9464
▁entertainment	-9.94644
▁elsewhere	-9.94647
▁wallet	-9.94656
▁selfish	-9.9474
unt	-9.94745
▁minor	-9.94759
▁unlikely	-9.95191
▁wave	-9.95207
▁bite	-9.95368
▁retail	-9.95525
▁rugby	-9.9573
▁sacrifice	-9.9573
▁pretend	-9.9573
▁sentence	-9.9573
▁sweet	-9.9573
▁minimal	-9.95731
▁tooth	-9.95733
▁smoke	-9.95735
▁overnight	-9.95735
▁qualified	-9.9574
▁installment	-9.95751
▁fk	-9.9577
▁clearance	-9.95806
▁confidence	-9.95837
▁trial	-9.95844
side	-9.96138
▁core	-9.96334
ese	-9.96335
▁fry	-9.96363
point	-9.96536
lic	-9.96555
▁margin	-9.9683
▁criticism	-9.96841
▁exempt	-9.96841
▁hsbc	-9.96841
▁organisation	-9.96841
▁domestic	-9.96842
▁ongoing	-9.96842
▁toilet	-9.96842
▁derana	-9.96842
▁nowhere	-9.96844
▁ntb	-9.96848
▁trustworthy	-9.9685
▁meanwhile	-9.96852
▁meter	-9.96865
▁assignment	-9.96866
▁pair	-9.96885
▁elder	-9.96922
▁related	-9.96951
thi	-9.97006
▁coverage	-9.97023
▁lend	-9.97039
▁tag	-9.97109
istic	-9.97156
24	-9.97251
▁wealthy	-9.97435
▁alive	-9.97478
care	-9.9764
uck	-9.97713
▁hype	-9.97757
mn	-9.97772
▁ear	-9.97776
▁manufacture	-9.97794
▁russia	-9.97873
▁adjust	-9.97942
▁affair	-9.97965
▁audience	-9.97965
▁charity	-9.97965
▁circumstance	-9.97965
▁empty	-9.97965
▁tangalle	-9.97965
▁conservative	-9.97966
▁utility	-9.97967
▁discover	-9.97975
▁hunt	-9.98004
▁victory	-9.98029
▁allowance	-9.98095
▁drag	-9.98126
ali	-9.98162
▁bully	-9.98163
right	-9.98173
▁ku	-9.98218
▁tiny	-9.9828
▁dear	-9.98426
▁guard	-9.98491
▁warn	-9.98968
5000	-9.99033
isation	-9.99084
▁behaviour	-9.99101
▁cambridge	-9.99101
▁hiriketiya	-9.99101
▁mountain	-9.99101
▁barrier	-9.99102
▁suburb	-9.99102
▁pricing	-9.99102
▁telegram	-9.99102
▁instance	-9.99103
▁railway	-9.99104
▁psychiatrist	-9.99109
▁asshole	-9.9911
▁soul	-9.9913
▁blow	-9.99135
▁membership	-9.99147
▁disaster	-9.99156
cient	-9.99216
they	-9.99245
sit	-9.99342
▁nationalist	-9.99416
my	-9.99447
ping	-9.99817
▁director	-9.99821
▁rough	-9.99851
▁consult	-9.99869
▁designer	-9.99965
house	-9.99973
▁ag	-10.0017
ow	-10.0024
▁allocate	-10.0025
▁diaspora	-10.0025
▁equivalent	-10.0025
▁regulate	-10.0025
▁ucsc	-10.0025
▁canadian	-10.0025
▁rude	-10.003
▁hostel	-10.003
▁salt	-10.0033
▁alright	-10.0035
▁worship	-10.0039
▁coin	-10.0048
▁roughly	-10.0065
▁36	-10.0084
tro	-10.0094
▁kit	-10.0104
▁5000	-10.011
▁profession	-10.0113
98	-10.0114
eye	-10.0117
▁95	-10.0119
ight	-10.0128
▁inf	-10.0139
75	-10.0141
▁combination	-10.0141
▁describe	-10.0141
▁exposure	-10.0141
▁powder	-10.0141
▁suicide	-10.0141
▁royal	-10.0141
▁100000	-10.0142
▁six	-10.0145
▁secretary	-10.0145
▁wheel	-10.0145
▁audit	-10.0146
▁rainy	-10.0156
▁glass	-10.016
▁socialism	-10.0164
itie	-10.0198
▁rap	-10.021
ith	-10.0212
list	-10.0225
▁vet	-10.0231
▁recruit	-10.0239
▁confident	-10.0258
▁explanation	-10.0259
▁narrative	-10.0259
▁succeed	-10.0259
▁criticize	-10.0259
▁shirt	-10.0259
▁creative	-10.026
core	-10.0261
▁boss	-10.0262
▁define	-10.0262
▁cheat	-10.0262
▁rec	-10.0272
▁experienced	-10.0273
ponent	-10.0285
▁nu	-10.0286
▁difficulty	-10.0297
100	-10.0297
▁du	-10.0299
▁constant	-10.0338
ela	-10.0345
▁contain	-10.0364
▁cos	-10.0369
▁restructure	-10.0379
▁leak	-10.0379
▁expat	-10.0381
▁keell	-10.0384
▁beg	-10.0385
▁nah	-10.0387
▁favour	-10.0389
mon	-10.0399
▁improvement	-10.0401
▁rating	-10.0415
▁evil	-10.0422
▁recovery	-10.0441
ency	-10.0448
▁smooth	-10.0458
▁manipulate	-10.0485
▁favor	-10.0487
▁officially	-10.0497
▁thief	-10.0499
▁burger	-10.0499
▁shout	-10.0501
ual	-10.0504
▁lean	-10.0504
tra	-10.0507
▁enable	-10.0507
▁commitment	-10.0509
▁react	-10.0511
era	-10.0513
by	-10.0519
▁advanced	-10.055
▁wind	-10.0565
ase	-10.0584
▁expire	-10.0584
ball	-10.0607
ier	-10.0608
45	-10.0615
▁ignorant	-10.062
▁softlogic	-10.062
▁somebody	-10.062
▁storage	-10.062
▁vpn	-10.0621
▁koko	-10.0621
▁eligible	-10.0621
storm	-10.0622
▁textbook	-10.0623
▁accent	-10.0623
▁parking	-10.0625
07	-10.0627
▁capable	-10.0632
wise	-10.0649
fl	-10.0649
▁ph	-10.0655
▁ethical	-10.0657
tt	-10.0673
lan	-10.0681
▁har	-10.0688
iz	-10.0689
▁correctly	-10.0694
▁10000	-10.0711
▁ip	-10.0714
▁chem	-10.0734
▁addict	-10.0738
▁percent	-10.0741
▁decrease	-10.0744
▁disappear	-10.0744
▁friday	-10.0744
▁recognise	-10.0744
▁surprising	-10.0744
▁century	-10.0744
▁steam	-10.0744
▁battle	-10.0744
▁peep	-10.0747
▁buck	-10.0748
▁id	-10.075
▁february	-10.0752
▁sufficient	-10.0761
box	-10.0766
▁viable	-10.0767
▁profitable	-10.0773
▁ed	-10.0776
▁globally	-10.0776
▁govern	-10.0781
▁economically	-10.0788
mm	-10.0792
af	-10.0794
▁finger	-10.0798
▁nav	-10.0836
▁consume	-10.0852
ull	-10.0853
▁christian	-10.0866
▁john	-10.0869
▁professor	-10.0869
▁twitter	-10.0869
▁violent	-10.0869
▁beaut	-10.0869
▁cancer	-10.0871
▁ten	-10.0872
▁ease	-10.0873
rn	-10.0874
90	-10.0878
▁honda	-10.0882
▁agriculture	-10.0882
▁fin	-10.0883
▁para	-10.0892
▁portal	-10.0924
▁booking	-10.093
▁sur	-10.0938
▁tf	-10.0939
▁successfully	-10.0954
▁korea	-10.0995
▁activate	-10.0996
▁compensation	-10.0996
▁encounter	-10.0996
▁locate	-10.0996
▁obsess	-10.0996
▁psychology	-10.0996
▁diesel	-10.0996
▁traveller	-10.0996
▁meaningful	-10.0997
▁jack	-10.0998
▁panel	-10.0999
ley	-10.1008
▁severe	-10.1084
▁funding	-10.1106
▁accountable	-10.1123
▁ahangama	-10.1124
▁escape	-10.1124
▁nissan	-10.1124
▁occur	-10.1124
▁pandemic	-10.1124
▁semester	-10.1124
▁christmas	-10.1124
▁nibm	-10.1124
▁temu	-10.1124
▁italy	-10.1124
▁industrial	-10.1125
▁governance	-10.1125
▁punishment	-10.1129
tch	-10.1131
▁1500	-10.1138
▁2010	-10.1139
▁plate	-10.1143
ign	-10.1145
▁rajapaksas	-10.1157
▁bombing	-10.116
▁lion	-10.1177
wi	-10.1192
▁cable	-10.1201
▁imp	-10.1211
▁accounting	-10.1232
▁indicat	-10.1246
how	-10.1249
▁rape	-10.1253
▁vaccination	-10.1254
▁cringe	-10.1254
▁flexible	-10.1254
▁acknowledge	-10.1257
▁norm	-10.1258
▁otp	-10.126
▁childhood	-10.126
phone	-10.1264
▁disgusting	-10.1268
▁boot	-10.1294
▁cater	-10.131
▁ft	-10.1314
▁lovely	-10.1323
hari	-10.1323
uru	-10.1328
▁priorit	-10.1337
aming	-10.134
▁immediate	-10.1345
▁mora	-10.1364
▁ring	-10.1371
yr	-10.1381
vent	-10.1385
▁treasury	-10.1385
▁shape	-10.1385
▁swim	-10.1385
▁fyi	-10.1385
▁riot	-10.1385
▁relation	-10.1385
▁stem	-10.1386
▁buddha	-10.139
paid	-10.1395
▁guilty	-10.1398
soon	-10.1419
▁mail	-10.1436
▁classic	-10.1461
▁ego	-10.1464
own	-10.1475
▁aud	-10.1475
▁consistent	-10.148
pp	-10.1485
▁villa	-10.1494
▁hobby	-10.1519
▁assault	-10.1519
▁eelam	-10.1519
▁french	-10.1519
▁heritage	-10.1519
▁lazy	-10.1519
▁sharing	-10.1519
▁pathetic	-10.1519
▁bud	-10.1521
▁quota	-10.1522
▁niche	-10.1523
▁warm	-10.1524
▁grid	-10.1535
77	-10.1537
▁starting	-10.1537
▁tear	-10.1588
▁tha	-10.1593
▁san	-10.1594
▁serv	-10.1595
esh	-10.1602
behave	-10.1602
ute	-10.1611
ility	-10.1613
▁unity	-10.1615
14	-10.1619
gh	-10.163
▁tra	-10.1632
▁server	-10.1634
ik	-10.1647
▁prospect	-10.1654
▁criterion	-10.1654
▁depreciation	-10.1654
▁translation	-10.1654
▁trigger	-10.1654
▁rot	-10.1657
▁award	-10.1658
▁ownership	-10.1659
▁buyer	-10.1664
▁uom	-10.1682
ide	-10.1683
▁farmer	-10.1694
▁nov	-10.1695
▁ap	-10.1696
▁sight	-10.1699
▁regional	-10.173
▁ceo	-10.1736
▁gf	-10.1748
cha	-10.175
▁clinic	-10.1755
▁fold	-10.1767
▁emotion	-10.1779
▁bla	-10.178
▁65	-10.1781
▁bentota	-10.1791
▁league	-10.1791
▁ocean	-10.1791
▁principle	-10.1791
▁subscription	-10.1791
▁variety	-10.1791
▁licence	-10.1791
▁insult	-10.1791
▁presence	-10.1791
▁terrorism	-10.1792
▁reputabl	-10.1792
▁visible	-10.1795
try	-10.1795
▁roof	-10.18
▁dump	-10.18
away	-10.1806
iness	-10.1827
▁personality	-10.1836
▁utter	-10.1836
ound	-10.1847
pet	-10.1856
▁dish	-10.1885
ura	-10.189
uk	-10.1891
▁wf	-10.1906
pr	-10.192
▁restrict	-10.1922
▁colonial	-10.1928
▁convenience	-10.193
▁mislead	-10.193
▁proposal	-10.193
▁relief	-10.193
▁tshirt	-10.193
▁exceed	-10.193
▁fruit	-10.193
▁consent	-10.193
▁freak	-10.193
▁gateway	-10.193
▁amendment	-10.1931
▁repute	-10.1933
▁hall	-10.1938
▁broad	-10.194
▁my	-10.1948
▁islam	-10.1962
▁del	-10.1964
▁bias	-10.1966
like	-10.197
▁hon	-10.1981
tc	-10.1986
head	-10.1986
▁payone	-10.1986
▁ir	-10.1986
▁publicly	-10.2002
ani	-10.2028
▁operat	-10.2032
▁mouth	-10.2041
▁renew	-10.2061
▁afterwards	-10.207
▁allegation	-10.207
▁amazon	-10.207
▁behalf	-10.207
▁kitchen	-10.207
▁legitimate	-10.207
▁supplement	-10.207
▁vietnam	-10.207
▁intake	-10.207
▁angry	-10.207
▁vacanc	-10.2071
▁phase	-10.2071
▁contribution	-10.2071
▁republic	-10.2072
▁java	-10.2073
▁realistic	-10.2077
▁complicated	-10.2078
▁owe	-10.2079
▁communist	-10.2079
▁setting	-10.2079
▁vast	-10.208
▁internationally	-10.2087
▁frequently	-10.2101
mouth	-10.2101
▁lake	-10.2108
place	-10.2113
▁investing	-10.2116
▁reminder	-10.2119
▁earner	-10.212
▁pin	-10.212
▁reading	-10.2137
rie	-10.2138
pura	-10.2142
▁where	-10.2164
▁spec	-10.2173
▁urgent	-10.2175
▁emotional	-10.2184
▁56	-10.2195
▁flat	-10.2207
▁cam	-10.2208
▁discourage	-10.2213
▁anxiety	-10.2213
▁catholic	-10.2213
▁incredibly	-10.2213
▁radio	-10.2213
▁sentiment	-10.2213
▁ukraine	-10.2213
▁parcel	-10.2213
▁kelaniya	-10.2214
▁venture	-10.2214
▁sheet	-10.2217
▁thus	-10.2219
▁55	-10.222
▁oct	-10.2223
▁wh	-10.2224
▁fulltime	-10.2225
▁workforce	-10.2226
▁32	-10.2227
▁chip	-10.2235
▁boc	-10.2241
▁thumbs	-10.2256
her	-10.2267
▁physically	-10.2279
▁thr	-10.2282
▁fi	-10.2283
▁hole	-10.2285
ade	-10.231
spare	-10.2312
▁800	-10.2313
▁31	-10.2319
▁wherea	-10.2332
▁accus	-10.2336
▁sta	-10.2347
▁shall	-10.2347
▁superior	-10.2355
▁determine	-10.2358
▁excellent	-10.2358
▁supreme	-10.2358
▁unawatuna	-10.2358
▁disease	-10.2358
▁neutral	-10.2358
▁swimming	-10.2358
▁tactic	-10.2358
▁matara	-10.2358
▁literature	-10.2358
▁brutal	-10.2358
▁assistance	-10.2359
▁etf	-10.2359
▁favorite	-10.2359
▁fucker	-10.2361
▁edge	-10.2361
▁forum	-10.2361
▁dive	-10.2364
▁yr	-10.2367
put	-10.2372
▁ke	-10.2373
▁opening	-10.2379
▁parttime	-10.238
▁politically	-10.2386
▁men	-10.2387
▁mentally	-10.2388
▁mature	-10.2389
▁wonderful	-10.239
hat	-10.2391
ingly	-10.2402
andor	-10.2404
900	-10.2451
▁ju	-10.2462
▁mum	-10.2466
set	-10.2467
▁hv	-10.2475
▁practically	-10.2479
▁overprice	-10.2484
▁strange	-10.2488
▁cur	-10.2489
▁gu	-10.2499
▁abolish	-10.2505
▁mirror	-10.2505
▁prescription	-10.2505
▁saturday	-10.2505
▁shady	-10.2505
▁border	-10.2506
▁filter	-10.2507
▁impression	-10.2509
▁keen	-10.251
ula	-10.2514
▁resignation	-10.2514
friendly	-10.2516
ring	-10.2523
any	-10.2523
▁uoc	-10.2525
riya	-10.2538
▁kindly	-10.2548
▁acceptable	-10.2552
▁diet	-10.2558
let	-10.2567
▁sing	-10.2577
▁scan	-10.2609
▁waiting	-10.2609
▁rom	-10.2623
port	-10.2627
▁slight	-10.2631
ude	-10.2648
friend	-10.2649
▁backup	-10.2652
▁abortion	-10.2654
▁defense	-10.2654
▁exclude	-10.2654
▁exhaust	-10.2654
▁permission	-10.2654
▁quarter	-10.2654
▁shampoo	-10.2654
▁brief	-10.2654
▁zoom	-10.2654
▁contest	-10.2654
▁bedroom	-10.2655
▁racial	-10.2655
▁midnight	-10.2655
▁ndb	-10.2656
▁differently	-10.2656
▁trail	-10.2657
▁gear	-10.2658
ular	-10.2665
▁swear	-10.2666
▁3000	-10.2667
▁hu	-10.2674
▁symbol	-10.2675
▁prop	-10.268
▁tank	-10.2686
▁kg	-10.269
▁wanted	-10.2715
emote	-10.2727
▁aw	-10.2754
low	-10.2768
▁horr	-10.2793
▁bug	-10.2795
▁therap	-10.2803
▁compromise	-10.2806
▁efficiency	-10.2806
▁ordinary	-10.2806
▁scratch	-10.2806
▁resume	-10.2806
shrugging	-10.2806
▁corner	-10.2806
▁adida	-10.2806
▁broadcast	-10.2806
▁corporation	-10.2806
▁architecture	-10.2806
▁moron	-10.2807
▁unemployed	-10.2807
▁pride	-10.2808
▁qa	-10.2809
▁wire	-10.2813
▁ca	-10.282
▁backpack	-10.2823
▁withdrawal	-10.2832
▁ru	-10.2834
▁dependent	-10.2834
▁toward	-10.2837
board	-10.2841
▁friendship	-10.2843
▁minded	-10.2846
▁origin	-10.2851
wide	-10.2853
▁shel	-10.2865
▁equally	-10.2878
▁shed	-10.2892
▁badly	-10.2896
▁customs	-10.2922
nga	-10.2929
ort	-10.2939
▁scen	-10.294
▁analyst	-10.296
▁consumption	-10.296
▁economist	-10.296
▁maldive	-10.296
▁torture	-10.296
▁uncomfortable	-10.296
▁uneducated	-10.296
▁violation	-10.296
▁deficit	-10.296
▁hikkaduwa	-10.296
▁mosque	-10.296
▁nepal	-10.296
▁hatred	-10.296
▁northern	-10.296
▁extension	-10.2961
▁beneficial	-10.2962
ple	-10.2962
▁pump	-10.2963
▁necessity	-10.2963
▁headache	-10.2963
▁malay	-10.2965
▁excited	-10.2972
▁rally	-10.2977
od	-10.2984
▁cell	-10.2991
▁plot	-10.2991
ock	-10.3004
ung	-10.3007
▁higher	-10.3008
▁pub	-10.3025
just	-10.3026
car	-10.305
16	-10.3051
ake	-10.3053
▁ye	-10.3062
▁og	-10.307
23	-10.3091
▁qu	-10.3094
▁bull	-10.3096
▁sec	-10.3098
▁bandaranaike	-10.3116
▁courier	-10.3116
▁happiness	-10.3116
▁stretch	-10.3116
▁onwards	-10.3116
▁module	-10.3116
▁nomad	-10.3116
▁suv	-10.3116
▁kingdom	-10.3117
▁whil	-10.3118
▁misuse	-10.3118
▁alert	-10.3118
▁slfp	-10.312
▁hotline	-10.3121
have	-10.3126
▁reward	-10.3126
▁collective	-10.3129
van	-10.3132
▁manufacturer	-10.314
▁semi	-10.3141
vert	-10.3153
▁russian	-10.3157
▁interact	-10.3159
▁spa	-10.3169
ixed	-10.3183
ong	-10.3191
atha	-10.3206
ny	-10.3208
▁rep	-10.3211
▁comm	-10.3233
ju	-10.3235
oke	-10.3246
▁author	-10.3268
▁africa	-10.327
inate	-10.3272
▁abandon	-10.3275
▁frustrate	-10.3275
▁subsidy	-10.3275
▁writing	-10.3275
▁examination	-10.3275
▁drunk	-10.3275
▁verification	-10.3275
▁anime	-10.3275
▁grind	-10.3275
▁programming	-10.3275
▁wrap	-10.3275
▁feasible	-10.3275
▁interior	-10.3276
▁esoft	-10.3277
▁awful	-10.3277
▁breath	-10.3281
▁hardware	-10.3282
▁marketplace	-10.3285
▁affiliate	-10.3287
▁goon	-10.3288
▁achievement	-10.3291
▁handout	-10.3301
aga	-10.3308
▁os	-10.331
▁fup	-10.3317
▁dil	-10.3327
▁pray	-10.3335
usd	-10.3338
nna	-10.3346
▁aka	-10.3354
▁sole	-10.3358
▁selling	-10.3367
▁cast	-10.3385
law	-10.3396
▁enrol	-10.3401
▁annoy	-10.3404
▁flee	-10.3423
ima	-10.3429
▁assign	-10.3435
▁flex	-10.3436
▁description	-10.3436
▁expenditure	-10.3436
▁applicable	-10.3436
▁chaos	-10.3436
▁narrow	-10.3437
ology	-10.3443
▁desire	-10.3443
▁transition	-10.3443
▁reverse	-10.3445
wan	-10.3445
▁respectful	-10.3445
▁boil	-10.3458
▁warning	-10.348
pack	-10.3483
▁pill	-10.3504
col	-10.3505
▁observe	-10.351
par	-10.3516
▁at	-10.3519
ooo	-10.352
cious	-10.3521
▁perk	-10.3534
▁exception	-10.3534
can	-10.3537
▁ib	-10.3539
300	-10.354
▁sus	-10.3546
▁bot	-10.3552
raja	-10.3553
▁unfortunate	-10.356
▁convers	-10.357
▁wav	-10.3571
get	-10.3573
▁instal	-10.3575
tle	-10.3579
float	-10.3587
▁separately	-10.359
▁dictator	-10.3599
▁bracket	-10.36
▁graduation	-10.36
▁inspire	-10.36
▁unpopular	-10.36
▁volume	-10.36
▁weapon	-10.36
▁worst	-10.36
▁loophole	-10.36
which	-10.36
▁acquire	-10.3602
▁revolution	-10.3602
▁thug	-10.3603
▁innovation	-10.3605
▁heck	-10.3605
▁spotify	-10.3606
▁stressful	-10.3607
▁capitalism	-10.3608
▁outdated	-10.3618
▁attractive	-10.362
▁jaya	-10.3621
nity	-10.3624
▁mf	-10.3624
▁menu	-10.3633
▁monkey	-10.3639
800	-10.364
▁chair	-10.3644
▁emotionally	-10.3648
free	-10.365
▁350	-10.367
▁supportive	-10.3674
▁heal	-10.3678
▁more	-10.3684
▁2500	-10.3694
ave	-10.3705
17	-10.3708
56	-10.3717
nce	-10.3738
▁civi	-10.3752
▁33	-10.3755
04	-10.3764
▁audio	-10.3765
▁easier	-10.3767
▁enthusiast	-10.3767
▁tournament	-10.3767
▁bloat	-10.3767
▁defeat	-10.3767
▁praise	-10.3767
▁silva	-10.3767
▁bubble	-10.3767
▁literacy	-10.3767
▁downside	-10.3768
▁chemical	-10.3768
▁capability	-10.3768
▁representative	-10.3768
▁assistant	-10.3769
▁bread	-10.377
▁strongly	-10.3771
▁for	-10.3771
▁navigate	-10.3772
▁prepay	-10.3772
▁uniform	-10.3772
▁admin	-10.3773
▁bu	-10.3775
▁investigate	-10.3779
▁nationalism	-10.3785
▁nut	-10.3787
▁broken	-10.379
▁mere	-10.3792
▁singer	-10.3799
▁wipe	-10.3803
▁hospitality	-10.3807
relate	-10.3808
▁fare	-10.381
▁crowded	-10.3811
13	-10.3811
35	-10.3812
sensitive	-10.3818
▁script	-10.3837
▁700	-10.3842
▁ml	-10.3871
▁joint	-10.3888
▁fluent	-10.3898
air	-10.3906
▁85	-10.3908
▁importer	-10.392
uff	-10.3929
▁sustain	-10.3931
▁transit	-10.3934
▁flu	-10.3936
▁incentive	-10.3936
▁increment	-10.3936
▁introvert	-10.3936
▁newspaper	-10.3936
▁offense	-10.3936
▁leasing	-10.3936
▁litter	-10.3936
▁organic	-10.3936
▁accessible	-10.394
tefree	-10.3944
▁urge	-10.3949
▁privately	-10.3959
▁mag	-10.396
ies	-10.3964
uwa	-10.3965
▁wood	-10.3968
▁gpu	-10.3977
▁247	-10.3977
war	-10.3989
22	-10.3993
▁acca	-10.3993
▁visitor	-10.3997
▁pl	-10.4004
▁fam	-10.4007
lly	-10.4011
code	-10.4039
agama	-10.4051
▁cooking	-10.4062
▁900	-10.4071
dict	-10.4072
ium	-10.4086
▁capture	-10.4109
▁netflix	-10.4109
▁principal	-10.4109
▁purchasing	-10.4109
▁saturate	-10.4109
▁screenshot	-10.4109
▁pilot	-10.4109
▁mutual	-10.4109
▁satisfied	-10.4109
▁taxpayer	-10.4109
▁snack	-10.4109
▁pension	-10.4109
▁mari	-10.4109
ifemo	-10.411
▁lodg	-10.4111
▁distract	-10.4111
▁indoor	-10.4112
▁thrive	-10.4112
▁2017	-10.4114
▁packet	-10.4115
▁governor	-10.4119
▁metal	-10.4119
▁reaction	-10.4119
▁adam	-10.4124
▁reside	-10.4124
▁2030	-10.4132
▁pickup	-10.4133
▁ssd	-10.4135
▁thru	-10.4136
▁nail	-10.4141
she	-10.4148
▁ent	-10.4153
▁scary	-10.4162
▁environmental	-10.4171
▁bell	-10.418
▁sms	-10.4182
duction	-10.4195
gama	-10.4199
▁ratio	-10.4217
iff	-10.4219
pre	-10.422
ward	-10.4241
▁tall	-10.4257
▁trans	-10.4258
▁pad	-10.4259
▁peo	-10.4267
▁shower	-10.4278
▁fernando	-10.4284
▁landscape	-10.4284
▁temperature	-10.4284
▁exercise	-10.4284
▁indonesia	-10.4284
▁italian	-10.4284
▁recipe	-10.4284
▁studio	-10.4284
▁lavinia	-10.4284
▁rumor	-10.4284
▁vezel	-10.4284
▁browse	-10.4284
▁framework	-10.4285
▁making	-10.4285
▁suspicious	-10.4285
▁logistic	-10.4285
▁neighborhood	-10.4285
▁objective	-10.4286
▁monday	-10.4287
▁creator	-10.4287
▁apiit	-10.4289
▁bribery	-10.429
▁cfa	-10.4292
▁deeply	-10.4293
18	-10.4298
▁teen	-10.4303
▁bout	-10.4311
sman	-10.4313
▁cd	-10.432
▁fore	-10.432
lock	-10.4328
▁after	-10.4345
▁farming	-10.4346
power	-10.435
▁logical	-10.4353
▁streaming	-10.4355
related	-10.4372
ike	-10.4395
lle	-10.4398
ample	-10.4401
▁dia	-10.4417
▁pu	-10.4417
▁curiosity	-10.4463
▁frustration	-10.4463
▁furniture	-10.4463
▁motorcycl	-10.4463
▁outdoor	-10.4463
▁swift	-10.4463
▁tattoo	-10.4463
▁miracle	-10.4463
▁organise	-10.4463
▁airtel	-10.4463
▁anonymous	-10.4463
▁abans	-10.4463
▁migrating	-10.4463
▁wije	-10.4463
▁comfortably	-10.4464
▁polite	-10.4464
mate	-10.4464
▁legend	-10.4465
▁repayment	-10.4465
▁spice	-10.4465
▁duration	-10.4466
▁ec	-10.4468
▁2016	-10.4469
▁yt	-10.4477
▁follower	-10.448
▁mask	-10.4489
▁largely	-10.4491
▁pant	-10.4495
▁exit	-10.4495
▁solely	-10.4508
front	-10.4529
26	-10.453
▁plane	-10.4538
fc	-10.4549
▁ham	-10.455
▁incompeten	-10.4552
▁si	-10.4555
▁bas	-10.4561
▁api	-10.4562
▁came	-10.4566
iva	-10.4566
400	-10.457
▁slap	-10.4579
▁gate	-10.4582
▁outsourc	-10.4582
▁eng	-10.4584
▁economical	-10.4598
▁if	-10.46
case	-10.4608
▁ge	-10.4615
▁mfs	-10.4623
▁ui	-10.4623
▁peg	-10.4625
shop	-10.463
▁mechanic	-10.4634
▁enterprise	-10.4644
▁penalty	-10.4644
▁receipt	-10.4644
▁gotabaya	-10.4644
▁aussie	-10.4644
▁bathroom	-10.4645
▁bankruptcy	-10.4646
tech	-10.4647
▁jam	-10.4647
▁appropriate	-10.4648
▁alliance	-10.465
▁dirty	-10.4656
▁perera	-10.4657
▁panic	-10.4658
▁cave	-10.4662
ram	-10.4662
▁photography	-10.4671
▁cho	-10.4671
ux	-10.4687
▁nadu	-10.4688
ache	-10.4698
▁dose	-10.4701
▁bitch	-10.4701
▁thin	-10.4703
▁hut	-10.4706
▁den	-10.4736
▁qr	-10.4737
top	-10.4772
▁learner	-10.4788
▁artificial	-10.4789
▁frequent	-10.479
this	-10.479
ira	-10.4798
▁outdate	-10.4809
▁sooo	-10.4815
▁cautious	-10.483
▁conference	-10.483
▁crucial	-10.483
▁discriminate	-10.483
▁episode	-10.483
▁isolate	-10.483
▁monopoly	-10.483
▁motivation	-10.483
▁nursing	-10.483
▁prescribe	-10.483
▁rajagiriya	-10.483
▁turtle	-10.483
▁congratulation	-10.483
▁tldr	-10.483
▁mbbs	-10.483
▁socalle	-10.483
▁aggressive	-10.483
▁mandate	-10.483
▁ugc	-10.483
▁latter	-10.4831
▁mainstream	-10.4831
▁ielt	-10.4831
▁prominen	-10.4832
▁dislike	-10.4832
▁refugee	-10.4835
▁ngo	-10.484
65	-10.4843
life	-10.4844
▁lan	-10.4845
▁tier	-10.4852
▁1015	-10.4852
▁expression	-10.4856
▁universal	-10.4856
▁mas	-10.4869
▁lifetime	-10.4873
▁peer	-10.4882
open	-10.4884
acy	-10.4888
▁done	-10.489
▁worthy	-10.4891
rave	-10.4892
view	-10.4894
▁bf	-10.4906
circle	-10.4906
21	-10.4907
index	-10.4909
▁bid	-10.4911
▁muslims	-10.493
▁postal	-10.4938
▁touristy	-10.4938
▁youtuber	-10.4956
lla	-10.4974
▁mob	-10.4977
ador	-10.4991
arine	-10.4996
ump	-10.5005
▁cz	-10.5009
ild	-10.5013
▁maharagama	-10.5018
▁atrocit	-10.5018
▁bastard	-10.5018
▁execute	-10.5018
▁guitar	-10.5018
▁jersey	-10.5018
▁manufacturing	-10.5018
▁enemy	-10.5018
▁postpone	-10.5018
▁silent	-10.5018
hara	-10.5019
▁combank	-10.5019
▁advocate	-10.5019
▁euro	-10.502
▁meat	-10.5021
▁kumara	-10.5021
▁wagon	-10.5021
▁rocket	-10.5025
▁crop	-10.5027
▁interaction	-10.5027
▁depressed	-10.5028
zen	-10.5028
▁honor	-10.5029
▁capita	-10.5032
▁respective	-10.5035
▁originally	-10.504
▁popularity	-10.504
▁documentation	-10.5054
pad	-10.5054
▁poster	-10.5055
▁blah	-10.5056
▁econ	-10.5057
▁integrate	-10.507
▁xd	-10.5083
nda	-10.5085
tension	-10.5099
yearold	-10.5101
▁cre	-10.5102
▁carefully	-10.5116
76	-10.5124
holding	-10.5139
▁pla	-10.5141
▁peacefully	-10.5141
▁effectively	-10.5143
▁wht	-10.515
▁deed	-10.5162
▁seal	-10.5164
▁gi	-10.5173
▁evs	-10.5174
▁mile	-10.5179
art	-10.5191
▁association	-10.5211
▁luggage	-10.5211
▁manifesto	-10.5211
▁provincial	-10.5211
▁scientist	-10.5211
▁kitten	-10.5211
▁frank	-10.5211
▁committee	-10.5211
▁pohottuwa	-10.5211
▁departure	-10.5211
▁monetar	-10.5211
▁experiment	-10.5212
▁bulk	-10.5212
▁upset	-10.5212
▁drone	-10.5215
wo	-10.5215
▁harini	-10.5216
ston	-10.5217
▁establishment	-10.522
▁2009	-10.5221
path	-10.5231
▁chi	-10.5231
gan	-10.5239
▁install	-10.524
▁partial	-10.5248
▁magic	-10.5281
▁37	-10.5294
▁taxable	-10.5299
▁actor	-10.5306
▁forth	-10.5319
▁bind	-10.532
cade	-10.5327
▁meaning	-10.5329
▁certif	-10.5331
posh	-10.5333
▁tn	-10.5338
ata	-10.5355
▁conditioner	-10.5358
▁capitalist	-10.5368
▁bin	-10.5379
▁180	-10.5384
▁chart	-10.5388
▁occasion	-10.5395
bn	-10.5396
▁crush	-10.5407
▁cuisine	-10.5407
▁gradually	-10.5407
▁kurunegala	-10.5407
▁fraud	-10.5407
▁sneak	-10.5407
▁yellow	-10.5407
▁kiss	-10.5407
▁insist	-10.5407
▁observation	-10.5407
ologist	-10.5408
▁hungry	-10.5408
▁keyboard	-10.5408
▁haircut	-10.5409
▁realistically	-10.5409
▁jewel	-10.5409
▁basil	-10.5409
▁painful	-10.5413
▁lord	-10.5413
▁merc	-10.5415
▁expertise	-10.5415
lp	-10.5415
▁founder	-10.5417
▁indicator	-10.5418
bar	-10.5421
▁moon	-10.5425
▁square	-10.543
▁510	-10.5433
▁involvement	-10.5434
▁nz	-10.5438
▁disc	-10.5442
rolling	-10.5444
▁offsho	-10.5447
goda	-10.5448
▁hiru	-10.5454
most	-10.5454
▁mount	-10.5464
amba	-10.5467
▁alto	-10.5471
▁cow	-10.5487
150	-10.5487
even	-10.5489
▁sue	-10.5493
▁dj	-10.5494
▁logo	-10.5522
laughing	-10.5527
▁harsh	-10.5535
▁bur	-10.5538
▁prob	-10.5564
etc	-10.5575
▁boom	-10.5589
▁sand	-10.5595
▁cb	-10.5604
▁airbnb	-10.5607
▁celebration	-10.5607
▁disrupt	-10.5607
▁escalate	-10.5607
▁evolve	-10.5607
▁gampaha	-10.5607
▁nutrition	-10.5607
▁steady	-10.5607
▁violate	-10.5607
▁boundary	-10.5607
▁resell	-10.5607
facepalming	-10.5607
▁chief	-10.5607
▁miserable	-10.5607
▁trauma	-10.5607
▁domain	-10.5607
▁hook	-10.5607
▁ngl	-10.5607
▁residence	-10.5607
▁layoff	-10.5608
▁favourite	-10.5608
▁anger	-10.561
▁bird	-10.5613
▁stone	-10.5614
▁prediction	-10.5623
▁lonely	-10.5624
rew	-10.5624
form	-10.5635
▁prof	-10.5637
▁brag	-10.5647
▁any	-10.5648
▁retain	-10.5663
hana	-10.5667
▁eco	-10.5674
phil	-10.5674
27	-10.5686
▁businessman	-10.569
pointing	-10.5694
bra	-10.5703
plus	-10.5704
self	-10.5706
max	-10.5707
uc	-10.5708
▁pit	-10.571
▁paste	-10.5719
gam	-10.5729
▁wat	-10.5739
bag	-10.5741
press	-10.575
cial	-10.5756
▁ally	-10.5767
▁occasional	-10.5781
old	-10.5785
ham	-10.5785
cam	-10.5797
star	-10.5799
▁temp	-10.58
▁detect	-10.5803
used	-10.5809
▁disturb	-10.5809
▁activist	-10.5811
▁breakfast	-10.5811
▁calculation	-10.5811
▁grammar	-10.5811
▁mosquito	-10.5811
▁opportunitie	-10.5811
▁pollution	-10.5811
▁romantic	-10.5811
▁symptom	-10.5811
▁transparency	-10.5811
▁virtual	-10.5811
▁invade	-10.5811
▁overcome	-10.5811
▁element	-10.5811
▁aqua	-10.5811
▁liberty	-10.5811
▁plug	-10.5812
▁mentor	-10.5812
▁expressway	-10.5814
▁alongside	-10.5815
▁horn	-10.5818
▁teenager	-10.5818
▁2008	-10.582
▁bright	-10.582
▁scroll	-10.583
▁lak	-10.584
▁theme	-10.5841
▁pov	-10.5844
▁cid	-10.5847
▁mistaken	-10.5861
stop	-10.5874
▁sweat	-10.5876
verse	-10.5879
diagnose	-10.5883
pola	-10.5886
▁ping	-10.5887
craft	-10.5906
▁iran	-10.5909
1000	-10.5914
▁trainer	-10.5919
▁ot	-10.5923
▁shi	-10.5953
ware	-10.5967
96	-10.5973
▁vari	-10.5978
▁literal	-10.5987
organ	-10.5989
anna	-10.5989
▁cad	-10.5991
dha	-10.6003
▁insta	-10.6005
6000	-10.6009
▁assumption	-10.6019
▁honeymoon	-10.6019
▁instrument	-10.6019
▁ladder	-10.6019
▁launder	-10.6019
▁scream	-10.6019
▁suzu	-10.6019
▁sharp	-10.6019
▁tailor	-10.6019
▁silver	-10.6019
▁nightmare	-10.6019
▁gazette	-10.6019
▁hilarious	-10.6019
▁vitz	-10.6019
▁mannar	-10.602
▁dutch	-10.602
▁salon	-10.602
▁japura	-10.602
▁underpaid	-10.6021
▁liability	-10.6021
▁truck	-10.6021
▁jew	-10.6021
▁dick	-10.6021
▁ugly	-10.6022
▁clapp	-10.6022
wella	-10.6025
▁hangout	-10.6026
▁flaw	-10.6027
▁attendance	-10.6027
▁2014	-10.6027
▁preserv	-10.6029
▁disappointed	-10.603
there	-10.603
▁hub	-10.6035
7000	-10.6035
▁hd	-10.6036
▁pile	-10.6037
▁approximately	-10.604
▁confirmation	-10.6042
▁raw	-10.6043
▁rig	-10.6044
▁stripe	-10.6048
▁wet	-10.6051
arath	-10.6061
▁67	-10.6067
▁speaking	-10.609
▁competen	-10.6094
▁dip	-10.6098
▁fresher	-10.6107
don	-10.6117
▁productive	-10.6118
▁mock	-10.6122
▁sme	-10.6127
▁americans	-10.6134
▁amd	-10.6146
▁sab	-10.6156
▁consideration	-10.6171
▁ep	-10.6179
▁sham	-10.6187
row	-10.619
ko	-10.6191
lib	-10.6195
▁je	-10.6204
▁aunt	-10.6214
▁keel	-10.6225
occupy	-10.6232
▁bicycle	-10.6232
▁chandrika	-10.6232
▁clarification	-10.6232
▁magnite	-10.6232
▁maturity	-10.6232
▁mechanism	-10.6232
▁reconciliation	-10.6232
▁reliability	-10.6232
▁vague	-10.6232
▁whatsoever	-10.6232
▁zealand	-10.6232
▁horse	-10.6232
▁scrap	-10.6232
▁emerge	-10.6232
▁diving	-10.6232
▁dhl	-10.6232
▁dental	-10.6233
▁disconnect	-10.6233
▁appreciation	-10.6233
▁gentle	-10.6233
▁vape	-10.6235
▁beef	-10.6235
▁devop	-10.6235
▁accordingly	-10.6236
▁enforcement	-10.624
▁stance	-10.624
▁pitch	-10.6241
▁photographer	-10.6245
▁pace	-10.6248
▁125	-10.6253
▁african	-10.6254
▁importance	-10.6259
▁golden	-10.6266
that	-10.6269
weera	-10.6273
▁225	-10.6274
▁lem	-10.6275
long	-10.6291
▁consistently	-10.6297
▁enroll	-10.6297
esim	-10.63
sso	-10.6304
▁hearing	-10.6308
▁belt	-10.632
other	-10.6351
fo	-10.6352
▁fm	-10.6356
▁srilankans	-10.6359
shit	-10.6361
east	-10.6372
tec	-10.6372
oy	-10.6376
▁bang	-10.6376
▁esp	-10.638
▁inver	-10.6405
▁constitutional	-10.6424
ential	-10.6432
oka	-10.6437
uth	-10.6445
▁boycott	-10.6449
▁conspiracy	-10.6449
▁eliminate	-10.6449
▁hambantota	-10.6449
▁irrelevant	-10.6449
▁nepotism	-10.6449
▁qualify	-10.6449
▁reluctant	-10.6449
▁routine	-10.6449
▁landlord	-10.6449
▁overtake	-10.6449
▁premier	-10.6449
▁psychologist	-10.6449
▁prosper	-10.6449
▁misinformation	-10.6449
▁asus	-10.645
▁migrant	-10.645
▁password	-10.6452
▁assessment	-10.6452
▁upside	-10.6452
▁dumbass	-10.6453
▁offend	-10.6453
▁hmm	-10.6454
▁therapist	-10.6454
▁recall	-10.6458
▁overly	-10.6462
▁scientific	-10.6463
▁brit	-10.6464
▁prize	-10.6469
▁roam	-10.6473
▁meta	-10.6476
▁frame	-10.6482
▁liqu	-10.6485
▁inch	-10.6492
▁42	-10.6495
▁dispose	-10.6497
▁gal	-10.6498
tamin	-10.6514
▁20000	-10.6514
▁backwards	-10.6517
▁inc	-10.652
ification	-10.6522
▁ccc	-10.653
▁manageable	-10.6545
▁69	-10.656
▁50000	-10.6563
28	-10.6565
atic	-10.657
▁sink	-10.6574
▁maps	-10.6586
read	-10.6597
▁clo	-10.6599
sale	-10.6599
▁doom	-10.6603
▁cruise	-10.661
▁gut	-10.6626
▁caste	-10.6645
pitiya	-10.6649
▁ayurved	-10.6657
600	-10.666
▁sht	-10.666
▁airlines	-10.6665
▁numero	-10.6667
▁adventure	-10.6671
▁fabric	-10.6671
▁lobby	-10.6671
▁pregnant	-10.6671
▁threshold	-10.6671
▁torrent	-10.6671
▁computing	-10.6671
▁hotspot	-10.6671
▁ghost	-10.6671
▁vegetable	-10.6671
▁discord	-10.6672
▁demographic	-10.6672
▁trinco	-10.6672
▁stabilize	-10.6672
▁apology	-10.6672
▁negotiation	-10.6672
▁stamp	-10.6673
▁authorize	-10.6676
▁kong	-10.6678
▁consultation	-10.668
▁equality	-10.6684
▁bpo	-10.6686
▁merit	-10.6686
though	-10.6689
▁greedy	-10.6697
▁stranger	-10.6698
▁goto	-10.6702
▁inquire	-10.6705
▁handful	-10.6713
▁yu	-10.6717
▁vice	-10.6718
▁prep	-10.6719
▁protester	-10.6727
36	-10.6743
▁iam	-10.6745
▁gp	-10.6749
▁this	-10.6777
economic	-10.6787
yan	-10.6797
86	-10.68
▁pos	-10.6829
▁ethic	-10.683
new	-10.6844
ola	-10.6846
una	-10.6868
▁len	-10.6879
66	-10.6883
▁fu	-10.689
▁liquid	-10.6897
▁emphasi	-10.6899
▁freelancing	-10.6899
▁galaxy	-10.6899
▁ingredient	-10.6899
▁intelligent	-10.6899
▁sirisena	-10.6899
▁supplier	-10.6899
▁suspend	-10.6899
▁tackle	-10.6899
▁theatre	-10.6899
▁unrealistic	-10.6899
▁wickremesinghe	-10.6899
▁nanotek	-10.6899
▁upwards	-10.6899
▁zscore	-10.6899
▁malabe	-10.6899
▁raising	-10.6899
▁river	-10.6899
▁clip	-10.6901
▁appearance	-10.6902
▁ceremony	-10.6903
▁height	-10.6904
▁lyce	-10.6904
▁01	-10.6906
▁france	-10.6906
▁shake	-10.6909
▁ros	-10.6909
▁unite	-10.6911
▁scum	-10.6914
tten	-10.692
▁thai	-10.6923
▁workout	-10.6927
▁yup	-10.6931
▁tongue	-10.6932
▁nose	-10.6947
▁sol	-10.6956
▁coastal	-10.6961
▁gener	-10.6969
▁tone	-10.6969
inland	-10.6985
rasp	-10.6991
▁dam	-10.7008
▁creditor	-10.7012
ach	-10.7013
▁jk	-10.7013
made	-10.7016
school	-10.7017
▁chun	-10.7031
pray	-10.7032
cut	-10.704
jith	-10.7043
▁charger	-10.7062
rel	-10.7066
ancy	-10.7074
▁dispos	-10.708
▁sticker	-10.7085
▁ward	-10.7087
▁israeli	-10.709
ou	-10.7094
▁sud	-10.71
▁embarrass	-10.7101
ivity	-10.7106
▁safely	-10.7114
▁cham	-10.7116
▁130	-10.7122
▁danger	-10.7131
▁batalanda	-10.7131
▁compulsory	-10.7131
▁sibling	-10.7131
▁temporarily	-10.7131
▁transparent	-10.7131
▁unsafe	-10.7131
▁unusual	-10.7131
curricula	-10.7131
▁leverage	-10.7131
▁beggar	-10.7131
▁onsite	-10.7131
▁gmoa	-10.7131
▁lu	-10.7131
▁personnel	-10.7131
▁utiliz	-10.7132
▁transform	-10.7132
▁fantastic	-10.7132
▁penny	-10.7132
▁drastically	-10.7132
▁differ	-10.7132
▁genius	-10.7133
▁halt	-10.7135
▁amex	-10.7139
▁creation	-10.714
▁hong	-10.7145
▁dividend	-10.7147
angala	-10.7149
▁melting	-10.715
▁pta	-10.7151
gram	-10.7151
▁cite	-10.7152
▁dub	-10.7153
▁instantly	-10.7164
▁anc	-10.7171
▁amongst	-10.7176
▁loot	-10.7195
shak	-10.7204
chi	-10.724
▁fishing	-10.7245
▁bean	-10.7249
pensive	-10.7255
colombo	-10.7257
income	-10.7258
guard	-10.7259
▁socially	-10.7263
▁closed	-10.7275
▁exceptional	-10.7283
▁insanely	-10.7284
▁them	-10.7291
iate	-10.7298
▁mill	-10.7306
▁county	-10.7307
▁complet	-10.7313
cast	-10.7315
ban	-10.7339
▁lee	-10.7341
▁greed	-10.7343
▁yrs	-10.7345
▁78	-10.7348
▁tile	-10.7356
▁innovat	-10.7362
▁kara	-10.7367
▁cigarette	-10.7369
▁ecommerce	-10.7369
▁forgive	-10.7369
▁grandparent	-10.7369
▁inconvenience	-10.7369
▁mismanagement	-10.7369
▁motorbike	-10.7369
▁orphanage	-10.7369
▁upvote	-10.7369
▁iirc	-10.7369
▁garage	-10.7369
▁museum	-10.7369
▁carnage	-10.737
▁dfcc	-10.737
▁unstable	-10.737
▁kidney	-10.737
▁desktop	-10.737
▁spoil	-10.737
▁circulat	-10.7371
▁cheese	-10.7371
▁dictatorship	-10.7371
▁empath	-10.7371
▁pirate	-10.7371
▁shade	-10.7371
▁boring	-10.7371
▁novel	-10.7374
▁plz	-10.7374
▁overtime	-10.7375
▁ruler	-10.7381
▁judgement	-10.7384
▁hort	-10.7386
▁detain	-10.7388
▁assist	-10.7394
▁format	-10.7398
cap	-10.74
▁saw	-10.7401
▁everytime	-10.7407
▁humanity	-10.741
▁excel	-10.7429
mint	-10.7436
▁03	-10.7457
ole	-10.7467
puls	-10.7474
▁110	-10.7478
▁diagnos	-10.748
million	-10.7501
▁gover	-10.7528
700	-10.753
boy	-10.7542
▁raja	-10.7544
▁pg	-10.7546
54	-10.7548
kw	-10.7549
▁disappoint	-10.7566
▁iv	-10.7569
▁diy	-10.7581
▁caf	-10.7584
▁pharmac	-10.7586
▁porn	-10.7587
▁drinking	-10.7591
▁som	-10.7594
▁orient	-10.7609
▁alternat	-10.761
▁sinha	-10.7612
▁basket	-10.7613
▁altogether	-10.7613
▁antibiotic	-10.7613
▁atmosphere	-10.7613
▁biscuit	-10.7613
▁cargill	-10.7613
▁contrast	-10.7613
▁credibility	-10.7613
▁diversify	-10.7613
▁earbud	-10.7613
▁extremist	-10.7613
▁massacre	-10.7613
▁python	-10.7613
▁quarantine	-10.7613
▁throttle	-10.7613
▁petition	-10.7613
▁conquer	-10.7613
▁cartoon	-10.7613
▁fiverr	-10.7613
▁bmw	-10.7613
▁tution	-10.7613
squint	-10.7613
▁omg	-10.7614
▁orange	-10.7614
▁specify	-10.7615
▁sunset	-10.7615
▁swing	-10.7615
▁grey	-10.7615
▁cult	-10.7617
▁bailout	-10.7618
▁trace	-10.7621
▁trait	-10.7623
▁dust	-10.7629
▁bold	-10.7632
▁curse	-10.7633
taking	-10.7638
▁charter	-10.7639
▁4000	-10.7642
▁iq	-10.7649
acle	-10.7652
▁toll	-10.7652
ella	-10.7654
▁dur	-10.7663
▁policeman	-10.7664
▁layer	-10.768
2000	-10.7686
▁imply	-10.769
▁bn	-10.7703
▁accidental	-10.7707
▁arch	-10.7723
▁38	-10.7724
▁approx	-10.7727
run	-10.773
kanda	-10.773
▁spin	-10.7742
▁blast	-10.7747
medical	-10.7751
▁cm	-10.7755
play	-10.7756
▁moderate	-10.7771
▁devs	-10.7775
▁llb	-10.7776
hour	-10.7788
82	-10.7788
aire	-10.7796
▁ramp	-10.781
▁pakistani	-10.7813
will	-10.7813
pende	-10.7817
▁injure	-10.7832
▁excite	-10.7843
ddle	-10.7844
▁lag	-10.7849
▁object	-10.786
▁hy	-10.7862
▁academy	-10.7863
▁applicant	-10.7863
▁conclusion	-10.7863
▁credible	-10.7863
▁deliberate	-10.7863
▁dissolve	-10.7863
▁happily	-10.7863
▁incredible	-10.7863
▁initiate	-10.7863
▁knock	-10.7863
▁perception	-10.7863
▁relocate	-10.7863
▁ritual	-10.7863
▁udawalawe	-10.7863
▁dispute	-10.7863
▁draft	-10.7863
▁epfetf	-10.7863
▁strategic	-10.7863
▁flavor	-10.7863
▁wattala	-10.7863
▁prompt	-10.7863
▁inclusiv	-10.7863
▁whey	-10.7864
▁distribute	-10.7864
▁uncertainty	-10.7864
▁incorrect	-10.7864
▁resist	-10.7864
▁brainwash	-10.7864
rous	-10.7865
▁thick	-10.7865
▁lap	-10.7865
▁breach	-10.7865
▁obligation	-10.7865
▁upfront	-10.7865
▁tolerat	-10.7865
▁olympic	-10.7865
train	-10.7865
▁neck	-10.7866
▁outright	-10.7866
▁quantity	-10.7866
▁smartphone	-10.7867
▁kfc	-10.7867
▁bucket	-10.7867
▁asw	-10.7868
▁clueless	-10.7869
▁stall	-10.787
aru	-10.787
▁invent	-10.7872
▁engagement	-10.7876
▁pera	-10.7878
▁paycheck	-10.7883
▁butter	-10.7886
▁ww	-10.7889
▁nazi	-10.7889
▁utc	-10.7893
▁rapidly	-10.7894
▁disappointing	-10.7895
▁dominat	-10.7895
▁holy	-10.7897
▁korean	-10.7898
▁parad	-10.79
▁org	-10.7913
▁wisely	-10.7915
▁passive	-10.7918
▁button	-10.7923
suit	-10.7932
table	-10.7944
wala	-10.7954
state	-10.7964
game	-10.7978
95	-10.7979
store	-10.7998
▁israelis	-10.8014
▁reg	-10.8016
▁grandma	-10.8029
▁devi	-10.8031
29	-10.8034
hole	-10.8035
▁generational	-10.8041
kara	-10.8044
▁cope	-10.8047
▁nil	-10.8057
conductor	-10.8076
999	-10.8076
▁exclusive	-10.8079
▁rc	-10.8089
▁dept	-10.8114
physic	-10.8118
▁disrespect	-10.8118
men	-10.8119
▁afternoon	-10.812
▁compensate	-10.812
▁competitor	-10.812
▁definition	-10.812
▁dynamic	-10.812
▁empire	-10.812
▁gambling	-10.812
▁mcdonald	-10.812
▁pfizer	-10.812
▁philippine	-10.812
▁prohibit	-10.812
▁radical	-10.812
▁regulator	-10.812
▁substantial	-10.812
▁blatant	-10.812
▁convict	-10.812
▁length	-10.812
▁sketch	-10.812
▁perceive	-10.812
▁premise	-10.812
▁rabie	-10.812
▁flip	-10.812
▁aswell	-10.812
▁retard	-10.812
aught	-10.812
▁gross	-10.812
▁angel	-10.812
▁brush	-10.8121
▁dignity	-10.8121
▁priest	-10.8121
▁binance	-10.8122
▁lockdown	-10.8122
▁incur	-10.8123
▁orientation	-10.8124
unch	-10.8125
▁combo	-10.8125
▁harmful	-10.8125
▁specialization	-10.8127
▁accusation	-10.8128
▁assure	-10.8128
▁plead	-10.8129
▁partnership	-10.813
▁straw	-10.8133
▁dedicated	-10.8136
▁fed	-10.8137
from	-10.8139
lore	-10.8145
▁fulfill	-10.8146
ult	-10.8149
▁oya	-10.8151
▁weekday	-10.8152
akka	-10.8153
poli	-10.8162
▁recruiter	-10.8165
▁overwhelming	-10.8166
▁ut	-10.8175
▁tenn	-10.8187
▁clinical	-10.8187
2025	-10.8192
▁severely	-10.8201
▁perch	-10.8209
ulu	-10.8212
mani	-10.8216
▁mission	-10.8216
▁pointless	-10.8217
ria	-10.8242
rance	-10.8252
38	-10.8255
▁planet	-10.826
turn	-10.8265
▁pun	-10.8267
quality	-10.8268
▁merchan	-10.8268
asiri	-10.8271
▁dan	-10.8271
finger	-10.8272
inner	-10.828
person	-10.8284
make	-10.8284
kia	-10.829
thank	-10.8296
▁pp	-10.8314
▁ny	-10.8328
leftist	-10.8328
47	-10.8329
ther	-10.833
post	-10.8343
▁inquir	-10.8344
▁consist	-10.8345
rope	-10.8348
unu	-10.8359
▁motivate	-10.8362
▁depress	-10.8366
att	-10.8375
▁unam	-10.8378
▁automatic	-10.8381
▁casino	-10.8383
▁disclaimer	-10.8383
▁disclose	-10.8383
▁elaborate	-10.8383
▁exaggerate	-10.8383
▁fertilizer	-10.8383
▁hesitant	-10.8383
▁immense	-10.8383
▁lucrative	-10.8383
▁nervous	-10.8383
▁occupation	-10.8383
▁ritalin	-10.8383
▁vouch	-10.8383
▁yield	-10.8383
▁criticise	-10.8383
▁enhance	-10.8383
▁inferior	-10.8383
▁cctv	-10.8383
▁evisa	-10.8383
▁poison	-10.8383
▁theater	-10.8383
▁garment	-10.8383
▁blog	-10.8383
▁hitler	-10.8383
▁controversial	-10.8383
▁downfall	-10.8383
▁daddy	-10.8384
▁ltd	-10.8384
▁embra	-10.8384
▁sunny	-10.8385
▁ikmanlk	-10.8386
▁mileage	-10.8387
▁viral	-10.8387
▁pipe	-10.8388
▁butt	-10.8391
▁advertisement	-10.8392
▁arrangement	-10.8392
▁liter	-10.8395
▁summer	-10.8399
▁renewal	-10.8402
▁myth	-10.8407
watta	-10.8407
▁repay	-10.8419
▁feb	-10.8424
▁atrad	-10.8426
▁freeze	-10.8428
▁48	-10.8433
▁workshop	-10.8436
asia	-10.844
vt	-10.8458
▁05	-10.8471
▁hom	-10.8477
▁backend	-10.848
▁pat	-10.8484
saudi	-10.849
bel	-10.8504
▁incompetenc	-10.8519
▁soe	-10.852
▁pur	-10.8528
▁scare	-10.8535
harm	-10.854
script	-10.8541
dark	-10.8542
▁row	-10.8549
load	-10.8554
holder	-10.8559
▁bowl	-10.858
▁lg	-10.8587
nawa	-10.8591
rill	-10.8599
▁remov	-10.8604
▁russians	-10.8604
live	-10.8608
pass	-10.8616
liable	-10.8625
▁spar	-10.8626
▁guilt	-10.8626
▁nor	-10.8627
▁kar	-10.8628
▁impress	-10.863
uction	-10.8632
fall	-10.8632
room	-10.8637
▁inspect	-10.8646
▁tire	-10.8648
▁terror	-10.8648
▁brilliant	-10.8653
▁curfew	-10.8653
▁extensive	-10.8653
▁glorify	-10.8653
▁horizon	-10.8653
▁newswire	-10.8653
▁wilpattu	-10.8653
▁beforehand	-10.8653
▁comparable	-10.8653
▁interpret	-10.8653
▁spouse	-10.8653
▁silence	-10.8653
▁visual	-10.8653
▁demonstrat	-10.8653
▁lowkey	-10.8653
▁carrier	-10.8654
▁rational	-10.8654
▁lounge	-10.8654
▁saree	-10.8654
▁anonymize	-10.8654
▁compound	-10.8655
▁skeptical	-10.8656
▁icon	-10.8656
▁string	-10.8657
▁confront	-10.8657
▁variant	-10.8657
▁havelock	-10.8657
ratne	-10.8657
▁offence	-10.8658
▁desk	-10.8658
▁upwork	-10.8658
▁beginning	-10.8658
▁flagship	-10.8659
▁2029	-10.8659
▁probation	-10.8659
▁medi	-10.8659
▁nightlife	-10.866
▁2027	-10.866
▁powercut	-10.8664
▁1990	-10.8666
▁mcq	-10.8666
▁outage	-10.867
▁smh	-10.8671
▁ecu	-10.8673
▁poorly	-10.8674
▁diversity	-10.8677
▁functional	-10.8685
ander	-10.8686
▁span	-10.8687
▁injur	-10.8688
▁seize	-10.8691
41	-10.8694
▁pett	-10.8696
▁slide	-10.8701
▁normalize	-10.8706
▁occasionally	-10.8709
▁nationality	-10.8715
▁punch	-10.8731
▁checkout	-10.8732
card	-10.8736
▁ric	-10.8747
▁lens	-10.8764
▁vf	-10.8765
▁bitter	-10.8766
33	-10.8801
asa	-10.8812
jp	-10.8813
people	-10.8819
▁jo	-10.8872
▁tele	-10.8884
▁disgust	-10.8899
▁strip	-10.891
▁command	-10.8915
gala	-10.8921
▁surge	-10.8926
rish	-10.8926
▁patriot	-10.8929
▁bureaucracy	-10.8931
▁concert	-10.8931
▁disadvantage	-10.8931
▁dissanayake	-10.8931
▁hypocrisy	-10.8931
▁ignorance	-10.8931
▁nandalal	-10.8931
▁outlook	-10.8931
▁phenomenon	-10.8931
▁restructuring	-10.8931
▁smoking	-10.8931
▁subscribe	-10.8931
▁essay	-10.8931
▁cinec	-10.8931
▁badulla	-10.8931
▁portray	-10.8931
▁endorse	-10.8931
▁spell	-10.8931
▁hindi	-10.8931
▁notorious	-10.8931
▁forecast	-10.8931
▁ruhun	-10.8931
▁dhamm	-10.8932
▁underworld	-10.8932
▁hesitat	-10.8932
▁worthwhile	-10.8932
▁fuss	-10.8933
▁sparkle	-10.8934
▁impressive	-10.8934
▁quant	-10.8934
▁chairman	-10.8934
▁bullet	-10.8934
▁hung	-10.8935
lf	-10.8936
▁surgeon	-10.8938
▁stir	-10.8939
▁formula	-10.8939
▁raid	-10.894
▁cunt	-10.8943
▁loop	-10.8943
▁guideline	-10.8943
▁existence	-10.8945
▁usaid	-10.8947
▁yoga	-10.8947
▁addiction	-10.8948
▁architect	-10.8951
▁redmi	-10.8953
▁intense	-10.8953
▁hopeful	-10.8954
▁biased	-10.8957
▁indirectly	-10.8959
▁continuously	-10.896
▁deduction	-10.896
▁timeline	-10.8962
▁ravi	-10.8963
▁eld	-10.8971
▁450	-10.8976
▁hardship	-10.8981
gging	-10.8982
▁dash	-10.8984
▁hyper	-10.8986
artial	-10.9008
▁smth	-10.9012
▁shell	-10.9017
ique	-10.9032
▁depu	-10.9033
▁jee	-10.9048
▁standing	-10.9055
rift	-10.9074
▁craft	-10.9085
learn	-10.9085
▁fianc	-10.9088
ground	-10.9089
ggle	-10.9105
soft	-10.9105
▁bath	-10.9106
▁independently	-10.9113
▁sci	-10.9118
▁fck	-10.9136
▁140	-10.9143
cker	-10.9143
▁colla	-10.9146
sub	-10.9151
▁instant	-10.918
▁jealous	-10.9189
▁luxur	-10.919
▁manual	-10.9198
illa	-10.9201
▁lgbt	-10.9216
▁anxious	-10.9217
▁attorney	-10.9217
▁comparatively	-10.9217
▁dismiss	-10.9217
▁nuclear	-10.9217
▁phrase	-10.9217
▁rajapakshe	-10.9217
▁reservation	-10.9217
▁survival	-10.9217
▁technique	-10.9217
▁tuesday	-10.9217
▁vulnerable	-10.9217
▁wikipedia	-10.9217
▁aesthetic	-10.9217
▁substance	-10.9217
▁gamble	-10.9217
▁theft	-10.9217
▁animation	-10.9217
▁bitcoin	-10.9217
▁snake	-10.9217
▁eager	-10.9217
▁pdf	-10.9217
▁plaza	-10.9217
▁invoic	-10.9217
▁lyric	-10.9217
▁optimistic	-10.9217
▁women	-10.9217
▁diverse	-10.9217
▁herb	-10.9217
▁knee	-10.9218
▁running	-10.9218
▁inefficient	-10.9218
▁england	-10.9218
▁telecom	-10.9218
▁swap	-10.9218
▁magically	-10.9219
▁hoard	-10.922
▁instruction	-10.922
▁mouse	-10.9221
▁bump	-10.9226
▁alarm	-10.9226
▁unknown	-10.9227
▁grass	-10.9227
▁starve	-10.9229
▁deem	-10.923
▁resale	-10.9231
▁pave	-10.9234
▁few	-10.9234
▁representation	-10.9236
▁junk	-10.9238
▁fla	-10.9239
▁usdt	-10.9241
▁specialise	-10.9241
▁presentation	-10.9246
roll	-10.9246
▁trainee	-10.925
▁bash	-10.9253
▁workload	-10.9256
▁yell	-10.9256
▁mood	-10.9266
▁pleasant	-10.9271
▁limitation	-10.9274
▁meetup	-10.9277
▁cough	-10.9278
raction	-10.9296
▁preach	-10.9298
uni	-10.93
▁shoulder	-10.9303
ode	-10.9305
▁trim	-10.9309
▁sheer	-10.9312
▁sincere	-10.9322
▁vid	-10.9331
vin	-10.9332
250	-10.9344
▁permanently	-10.9355
▁deb	-10.9367
▁usb	-10.9368
▁nomin	-10.9372
drive	-10.9392
national	-10.9398
known	-10.9402
yana	-10.9411
night	-10.9412
part	-10.9419
station	-10.9419
▁shin	-10.9425
▁pala	-10.9434
road	-10.9453
▁imagin	-10.9459
▁bored	-10.9464
inda	-10.9465
99	-10.9471
liance	-10.9489
▁feminis	-10.9498
residential	-10.9506
▁pig	-10.951
▁comprehensi	-10.9511
▁deploy	-10.9511
▁arrogant	-10.9511
▁calculator	-10.9511
▁condemn	-10.9511
▁distribution	-10.9511
▁fiscal	-10.9511
▁flavour	-10.9511
▁fonseka	-10.9511
▁github	-10.9511
▁integrity	-10.9511
▁judgment	-10.9511
▁philosoph	-10.9511
▁residency	-10.9511
▁spectrum	-10.9511
▁tropical	-10.9511
▁bargain	-10.9511
▁hefty	-10.9511
▁fronx	-10.9511
▁dancing	-10.9511
▁scandal	-10.9511
▁dentist	-10.9511
▁whale	-10.9511
interrupt	-10.9511
▁halal	-10.9511
▁angle	-10.9511
dom	-10.9511
▁controller	-10.9511
▁unprofessional	-10.9512
▁automate	-10.9512
spiral	-10.9512
▁versa	-10.9512
▁overcharge	-10.9512
▁salut	-10.9513
▁bun	-10.9513
▁karma	-10.9513
▁atto	-10.9514
▁manipulation	-10.9515
▁2028	-10.9518
▁classroom	-10.9518
▁filth	-10.9519
▁municipal	-10.9523
▁outta	-10.9525
▁grave	-10.9527
▁2012	-10.9532
▁withhold	-10.9533
cat	-10.9534
▁grama	-10.9534
▁creepy	-10.9534
▁reset	-10.9535
▁surface	-10.9536
▁snorkeling	-10.954
▁tick	-10.954
▁boomer	-10.9541
▁settlement	-10.9542
▁160	-10.9544
▁clan	-10.9549
▁idiotic	-10.9564
▁honk	-10.9566
awala	-10.9567
▁naive	-10.9591
▁cargo	-10.9595
rise	-10.9606
▁simp	-10.9613
eather	-10.9638
▁sem	-10.964
▁vijaya	-10.9649
▁sony	-10.9658
▁68	-10.9663
▁erp	-10.9664
▁exporter	-10.9683
hold	-10.9697
▁editing	-10.9698
well	-10.9699
01	-10.9705
▁spit	-10.9705
around	-10.971
wind	-10.971
▁slot	-10.971
keep	-10.9712
▁500000	-10.9718
▁89	-10.9718
▁44	-10.972
anker	-10.9734
▁46	-10.9746
▁dili	-10.9753
▁overwhelm	-10.976
▁increas	-10.9769
▁outsider	-10.9803
▁roi	-10.9804
▁worse	-10.9805
55	-10.9806
▁massively	-10.9808
▁excess	-10.9811
▁yahapalana	-10.9812
ified	-10.9813
▁absorb	-10.9814
▁bambalapitiya	-10.9814
▁communism	-10.9814
▁confusing	-10.9814
▁grandfather	-10.9814
▁implication	-10.9814
▁intellectual	-10.9814
▁jungle	-10.9814
▁kangaroo	-10.9814
▁melbourne	-10.9814
▁neglect	-10.9814
▁polonnaruwa	-10.9814
▁squeez	-10.9814
▁stadium	-10.9814
▁straightforward	-10.9814
▁territory	-10.9814
▁unbiased	-10.9814
▁unexpected	-10.9814
▁volatile	-10.9814
▁wednesday	-10.9814
▁colonize	-10.9814
▁prestig	-10.9814
▁aspir	-10.9814
▁assassinat	-10.9814
▁rival	-10.9814
▁jesus	-10.9814
▁ofcourse	-10.9814
▁twist	-10.9814
▁ebay	-10.9814
▁metropoli	-10.9814
▁repeatedly	-10.9814
▁automobile	-10.9814
allocation	-10.9814
▁crony	-10.9814
▁terminal	-10.9814
▁odel	-10.9815
▁honour	-10.9815
▁database	-10.9817
▁juice	-10.9817
▁bookingcom	-10.9817
▁colonialism	-10.9818
▁wireless	-10.9818
▁liquidity	-10.9819
▁wound	-10.9819
▁giant	-10.9819
▁intentionally	-10.9819
▁motion	-10.9819
▁000	-10.982
▁barber	-10.9821
▁ballot	-10.9821
virus	-10.9822
▁convo	-10.9822
▁2013	-10.9823
▁lact	-10.9824
▁chess	-10.9824
▁entertain	-10.9824
▁historic	-10.9825
▁huh	-10.9826
oid	-10.9827
▁problematic	-10.9827
▁acceptance	-10.9835
gro	-10.9837
master	-10.9837
▁irony	-10.9838
▁linu	-10.9847
▁quo	-10.9848
▁headline	-10.9849
▁sane	-10.9852
alam	-10.9852
▁prayer	-10.9853
▁subjective	-10.9866
▁soil	-10.9867
▁endure	-10.9867
▁mega	-10.9872
▁meantime	-10.9875
32	-10.9887
oil	-10.9894
▁curly	-10.9897
▁illegally	-10.9897
▁correction	-10.9907
▁fortunate	-10.9935
▁historically	-10.9938
▁pear	-10.9939
▁eh	-10.9947
▁sens	-10.9949
▁notification	-10.9993
check	-11.0009
world	-11.0013
srilanka	-11.0016
▁71	-11.0028
74	-11.0033
▁cure	-11.0039
▁cro	-11.0078
rich	-11.0089
▁snorkel	-11.0096
▁2005	-11.0096
▁fil	-11.0102
now	-11.0111
▁slim	-11.0117
▁accommodat	-11.0119
▁inherit	-11.0125
▁metro	-11.0125
▁accomplish	-11.0126
▁theoretical	-11.0126
▁unofficial	-11.0126
▁academia	-11.0126
▁culprit	-11.0126
▁enlighten	-11.0126
▁facilitate	-11.0126
▁grandmother	-11.0126
▁humble	-11.0126
▁hurdle	-11.0126
▁immigrate	-11.0126
▁inevitable	-11.0126
▁junction	-11.0126
▁outstanding	-11.0126
▁panadura	-11.0126
▁prabhakar	-11.0126
▁rebuild	-11.0126
▁resolution	-11.0126
▁societal	-11.0126
▁sweep	-11.0126
▁thursday	-11.0126
▁contradict	-11.0126
▁atheist	-11.0126
▁outfit	-11.0126
▁apparel	-11.0126
▁creativity	-11.0126
▁swrd	-11.0126
▁authoritarian	-11.0126
▁simplytek	-11.0126
▁cardinal	-11.0127
escent	-11.0127
▁basketball	-11.0127
▁unemployment	-11.0127
▁quiz	-11.0127
▁tune	-11.0127
▁tiger	-11.0128
▁unrest	-11.0128
▁silly	-11.0128
▁kudo	-11.013
▁jean	-11.0132
▁depth	-11.0134
▁jewellery	-11.0136
▁frontend	-11.0137
▁bayya	-11.0137
▁fitting	-11.0137
▁better	-11.0139
▁restore	-11.0141
▁demon	-11.0143
▁amid	-11.0144
acity	-11.0146
▁arise	-11.0148
▁bless	-11.0153
▁fever	-11.017
▁winter	-11.0173
▁beware	-11.0177
lar	-11.018
ctor	-11.019
▁nepo	-11.0195
▁flower	-11.021
pot	-11.0212
▁expir	-11.0227
tax	-11.0229
▁washing	-11.023
▁ahh	-11.0236
▁apit	-11.0246
prosecute	-11.0247
▁casually	-11.0268
bro	-11.0273
thiya	-11.0285
arm	-11.0307
unge	-11.031
▁loyal	-11.0314
born	-11.0321
▁addon	-11.0323
hhh	-11.0328
eem	-11.0334
course	-11.0336
tric	-11.0339
market	-11.0343
85	-11.0354
hz	-11.0356
call	-11.0387
▁photograph	-11.0401
▁uda	-11.0407
▁recording	-11.0411
▁fur	-11.0411
▁rapid	-11.0414
▁lonel	-11.0422
think	-11.0428
high	-11.0445
▁fantas	-11.0448
facepalme	-11.0449
grimacing	-11.0449
▁accumulate	-11.0449
▁advertising	-11.0449
▁challenging	-11.0449
▁coalition	-11.0449
▁disgrace	-11.0449
▁distinct	-11.0449
▁explicit	-11.0449
▁injection	-11.0449
▁knife	-11.0449
▁kottawa	-11.0449
▁lasantha	-11.0449
▁overcrowd	-11.0449
▁overlook	-11.0449
▁peanut	-11.0449
▁recycle	-11.0449
▁skyrocket	-11.0449
▁television	-11.0449
▁unacceptable	-11.0449
▁unethical	-11.0449
▁automation	-11.0449
▁baggage	-11.0449
▁instability	-11.0449
▁rumour	-11.0449
▁bootlick	-11.0449
▁dunno	-11.0449
▁meditation	-11.0449
▁seylan	-11.0449
▁fortune	-11.0449
▁allegedly	-11.0449
▁parallel	-11.0449
▁plumb	-11.0449
▁attest	-11.0449
▁tinder	-11.0449
▁psych	-11.0449
▁collateral	-11.0449
▁roast	-11.0449
▁fedex	-11.045
▁bakery	-11.045
▁signature	-11.0451
▁1200	-11.0452
▁excessive	-11.0452
▁refresh	-11.0452
▁intel	-11.0453
▁vanish	-11.0456
▁superiority	-11.0457
▁meth	-11.0457
▁maid	-11.0457
▁tee	-11.0459
▁devalue	-11.0462
mah	-11.0463
▁crew	-11.0464
▁coworker	-11.0464
eutic	-11.0466
giri	-11.0473
asuma	-11.0474
▁geopolitical	-11.0475
▁genre	-11.0483
▁caa	-11.0491
▁360	-11.0493
▁igp	-11.0503
▁container	-11.0505
▁pink	-11.0513
udge	-11.0541
▁ov	-11.0555
▁hilt	-11.056
fact	-11.0561
▁evaluate	-11.0561
▁kandyan	-11.0567
▁editor	-11.0581
loyalty	-11.0586
▁coll	-11.0591
ensive	-11.0597
rome	-11.06
class	-11.0605
evil	-11.061
ature	-11.0613
ruwa	-11.0615
style	-11.0644
▁proto	-11.0644
▁strictly	-11.0653
▁pearl	-11.0666
service	-11.067
▁arab	-11.0677
position	-11.0679
ummy	-11.0698
▁univers	-11.0717
▁hygien	-11.0737
▁fulfil	-11.0749
atter	-11.0751
▁kw	-11.0759
▁dedicate	-11.0762
▁journal	-11.0762
▁weigh	-11.0767
▁intent	-11.0775
▁accomodat	-11.0782
▁advisable	-11.0782
▁bureau	-11.0782
▁ethernet	-11.0782
▁fridge	-11.0782
▁monarch	-11.0782
▁palestine	-11.0782
▁pronunciation	-11.0782
▁robotic	-11.0782
▁satisfy	-11.0782
▁sigirya	-11.0782
▁subtitle	-11.0782
▁xiaomi	-11.0782
▁awkward	-11.0782
▁chronic	-11.0782
▁souvenir	-11.0782
▁resonate	-11.0782
▁fiction	-11.0782
▁hectic	-11.0782
▁genetic	-11.0782
▁gossip	-11.0782
▁psychological	-11.0782
▁sysco	-11.0782
▁backlash	-11.0782
▁crib	-11.0782
diamond	-11.0782
▁timing	-11.0782
▁indie	-11.0783
tumble	-11.0783
▁turk	-11.0783
▁taboo	-11.0783
▁query	-11.0784
▁populis	-11.0784
▁yahapalanaya	-11.0784
▁winking	-11.0785
▁generator	-11.0786
▁assess	-11.0787
▁delusional	-11.0787
▁stake	-11.0788
▁diplomatic	-11.079
▁groom	-11.079
fuck	-11.0791
▁olevel	-11.0791
▁brave	-11.0792
▁wso	-11.0792
▁allergy	-11.0793
▁harbo	-11.0794
pala	-11.0795
▁renewable	-11.0797
▁pee	-11.0798
▁sexuality	-11.0798
▁hail	-11.0799
▁coup	-11.08
▁reviv	-11.08
▁3040	-11.0801
▁summary	-11.0805
▁02	-11.0806
▁commander	-11.0807
tx	-11.0813
leg	-11.0818
▁malaysian	-11.0826
▁designing	-11.0829
lateral	-11.083
▁1520	-11.0831
beat	-11.0831
▁bury	-11.0834
▁nye	-11.0835
▁exclusively	-11.0835
93	-11.0842
▁troll	-11.0846
▁relaxed	-11.0846
▁jerom	-11.0847
itha	-11.0848
udi	-11.0857
▁msg	-11.0882
▁vip	-11.0885
▁rust	-11.0891
▁tab	-11.0898
amro	-11.0907
▁bone	-11.0918
▁edition	-11.0919
duwa	-11.0924
▁shocking	-11.0935
lish	-11.0935
▁np	-11.0945
▁tint	-11.0949
▁albe	-11.0958
uti	-11.0967
3000	-11.0979
▁30000	-11.0986
sport	-11.0993
udu	-11.1006
▁stabili	-11.1013
charge	-11.1013
migration	-11.1014
screen	-11.1015
system	-11.1015
▁til	-11.1018
after	-11.1023
▁reap	-11.1042
party	-11.1051
ood	-11.1068
▁trader	-11.1073
bank	-11.108
raj	-11.1082
▁fisher	-11.1083
wiss	-11.1097
▁creep	-11.11
▁iron	-11.1111
aza	-11.1111
doe	-11.1113
▁extract	-11.1121
▁practi	-11.1127
battaramulla	-11.1127
▁algorithm	-11.1127
▁apologize	-11.1127
▁ashamed	-11.1127
▁emission	-11.1127
▁furthermore	-11.1127
▁irrespective	-11.1127
▁netherland	-11.1127
▁patience	-11.1127
▁postgraduate	-11.1127
▁tsunami	-11.1127
▁wisdom	-11.1127
▁frimi	-11.1127
▁hurry	-11.1127
▁suppress	-11.1127
▁clarity	-11.1127
▁reckless	-11.1127
▁someday	-11.1127
▁stagna	-11.1127
▁flour	-11.1127
▁spiritual	-11.1127
▁breed	-11.1127
▁chap	-11.1128
closure	-11.1128
▁thankfully	-11.1128
▁paddy	-11.1128
▁replica	-11.1128
▁accredit	-11.1128
▁journalism	-11.1129
▁puppet	-11.1129
▁adhere	-11.1129
▁crab	-11.113
▁forgot	-11.1131
▁infection	-11.1131
▁wander	-11.1131
▁imho	-11.1131
▁waterfall	-11.1132
▁toast	-11.1132
▁restart	-11.1132
▁curve	-11.1132
▁bald	-11.1132
▁saint	-11.1133
▁ironic	-11.1134
▁prolly	-11.1134
▁cryptocurrency	-11.1135
▁rail	-11.1137
▁worsen	-11.1138
▁siri	-11.1138
wash	-11.1139
▁2011	-11.1145
▁pleasure	-11.1153
▁cliq	-11.1157
singhe	-11.1164
▁shipment	-11.1165
▁aunty	-11.1172
▁stupidity	-11.1176
tip	-11.1184
heshe	-11.1186
▁bru	-11.1187
▁legalize	-11.119
▁hopeless	-11.1218
utter	-11.1219
iest	-11.1222
peak	-11.1225
▁tricky	-11.1225
▁nc	-11.1242
cbt	-11.1246
▁cert	-11.1265
▁endless	-11.1269
▁alien	-11.1273
▁showcas	-11.1293
▁gel	-11.13
06	-11.1301
rah	-11.1302
▁loo	-11.1304
▁concentrate	-11.1306
▁reel	-11.1306
▁modi	-11.1308
▁fke	-11.1314
▁demo	-11.1316
▁fc	-11.1317
ette	-11.1318
achchi	-11.1338
government	-11.1372
▁interactiv	-11.1374
▁eve	-11.1382
fire	-11.1382
▁lal	-11.1388
pool	-11.139
▁financ	-11.1405
▁involved	-11.1418
▁mild	-11.1421
▁57	-11.1423
▁overhea	-11.1425
2019	-11.1431
▁now	-11.1441
▁agricultur	-11.1445
▁suc	-11.1468
▁congrat	-11.1472
▁sovereign	-11.1483
▁drastic	-11.1483
nounce	-11.1483
▁interfere	-11.1484
▁maithri	-11.1484
▁blockchain	-11.1484
▁caution	-11.1484
▁concrete	-11.1484
▁exciting	-11.1484
▁injustice	-11.1484
▁invasion	-11.1484
▁kollupiti	-11.1484
▁lebanon	-11.1484
▁leopard	-11.1484
▁mortgage	-11.1484
▁overstay	-11.1484
▁privatize	-11.1484
▁pyramid	-11.1484
▁stereotype	-11.1484
▁taiwan	-11.1484
▁unreliable	-11.1484
▁corona	-11.1484
▁marxist	-11.1484
▁reception	-11.1484
▁aviation	-11.1484
▁bypass	-11.1484
▁packaging	-11.1484
▁rehabilitat	-11.1484
▁precise	-11.1484
▁spill	-11.1484
▁ambass	-11.1484
▁wellawatte	-11.1484
▁spicy	-11.1484
▁distant	-11.1484
▁flexibility	-11.1484
▁ironical	-11.1484
▁queen	-11.1484
▁blend	-11.1484
▁desert	-11.1484
▁grain	-11.1484
▁ancestr	-11.1484
▁wicke	-11.1485
▁adequate	-11.1485
▁preparation	-11.1485
▁thrill	-11.1485
▁nasty	-11.1485
▁helico	-11.1485
▁brake	-11.1486
▁resistance	-11.1486
▁pawn	-11.1486
▁evade	-11.1487
▁constructive	-11.1488
▁hiking	-11.149
▁caption	-11.1491
▁productivity	-11.1491
▁polish	-11.1493
▁musc	-11.1493
▁comedy	-11.1493
▁macro	-11.1494
▁seperate	-11.1495
▁announcement	-11.1497
▁winner	-11.1497
▁classmate	-11.1498
▁nerd	-11.1498
▁5060	-11.1501
▁had	-11.1501
▁nawala	-11.1502
▁gpt	-11.1507
▁thoroughly	-11.151
▁bowler	-11.1512
▁39	-11.1525
maker	-11.1525
▁tale	-11.1526
▁implementation	-11.1533
helmet	-11.1539
▁typ	-11.1561
▁1020	-11.1576
▁kindness	-11.1576
curtin	-11.1578
▁consulting	-11.1581
cold	-11.1582
▁urgently	-11.1587
about	-11.1589
ought	-11.1602
▁comeback	-11.1616
compatible	-11.1625
▁accessor	-11.1641
nsible	-11.1644
raze	-11.1671
▁fdi	-11.1689
word	-11.1698
ndra	-11.1707
▁yh	-11.1721
nous	-11.1733
bble	-11.1739
religious	-11.1742
field	-11.1743
atta	-11.1744
south	-11.1748
home	-11.175
money	-11.1752
▁fad	-11.1769
islamic	-11.1769
nike	-11.1812
▁melt	-11.183
▁coworke	-11.1837
▁socio	-11.1839
▁construct	-11.1844
▁administrat	-11.1847
▁champion	-11.1854
▁analyze	-11.1855
▁anniversary	-11.1855
▁batticaloa	-11.1855
▁cycling	-11.1855
▁dermatologist	-11.1855
▁disregard	-11.1855
▁inspiration	-11.1855
▁insurrection	-11.1855
▁precaution	-11.1855
▁scuba	-11.1855
▁sirimavo	-11.1855
▁subsequent	-11.1855
▁unavailable	-11.1855
▁prefect	-11.1855
▁yamaha	-11.1855
▁cruel	-11.1855
▁hometown	-11.1855
▁salarie	-11.1855
▁twent	-11.1855
▁lorry	-11.1855
▁shark	-11.1855
▁unaware	-11.1855
▁kerala	-11.1855
▁disabled	-11.1855
▁verbal	-11.1855
▁mediocr	-11.1855
▁repeal	-11.1855
▁funeral	-11.1855
▁lmk	-11.1855
▁sirasa	-11.1855
▁harvest	-11.1856
▁domino	-11.1856
▁ditch	-11.1856
▁cease	-11.1856
▁bride	-11.1857
▁tenure	-11.1857
▁enact	-11.1858
▁traction	-11.1859
▁whine	-11.1859
▁calori	-11.1859
▁instructor	-11.1859
▁oppression	-11.186
dictate	-11.1861
▁electrician	-11.1862
▁jun	-11.1862
lakuru	-11.1862
▁motherland	-11.1867
▁clock	-11.1867
▁snap	-11.1869
▁rubber	-11.1871
▁rack	-11.1872
▁specie	-11.1872
▁dire	-11.1873
▁3500	-11.1874
▁amend	-11.1878
▁joe	-11.1882
▁bali	-11.1883
▁nelu	-11.1884
▁lost	-11.1885
berry	-11.1887
mind	-11.1887
▁acne	-11.189
data	-11.189
▁jealousy	-11.189
▁qua	-11.19
▁steer	-11.1903
▁seven	-11.1913
▁retailer	-11.1925
▁lite	-11.1933
▁200000	-11.1935
▁slab	-11.1942
▁06	-11.1943
awn	-11.1944
▁fluently	-11.1944
ggie	-11.1947
▁murderer	-11.1958
▁env	-11.1959
▁yk	-11.1968
▁medal	-11.198
▁boi	-11.2007
ozy	-11.202
▁plat	-11.2043
▁summ	-11.2065
▁elevate	-11.2076
05	-11.2083
akin	-11.212
wear	-11.2132
▁tht	-11.2134
water	-11.2149
▁8000	-11.2149
▁40000	-11.2153
▁12000	-11.2166
▁bia	-11.2182
▁continuous	-11.22
▁soc	-11.2205
▁cis	-11.2209
hitha	-11.2217
▁25000	-11.2224
▁migra	-11.2229
▁brazil	-11.2239
▁clergy	-11.2239
▁confusion	-11.2239
▁credential	-11.2239
▁discontinue	-11.2239
▁execution	-11.2239
▁incorporate	-11.2239
▁judiciary	-11.2239
▁kalutara	-11.2239
▁participation	-11.2239
▁perpetrator	-11.2239
▁satellite	-11.2239
▁sightseeing	-11.2239
▁structural	-11.2239
▁surname	-11.2239
▁underestimate	-11.2239
▁vegetarian	-11.2239
▁venezuela	-11.2239
▁proportion	-11.2239
▁shield	-11.2239
▁underrated	-11.2239
▁upskill	-11.2239
▁indige	-11.2239
▁tragic	-11.2239
▁bleach	-11.2239
▁abusive	-11.2239
▁combat	-11.2239
▁globe	-11.2239
▁ireland	-11.2239
▁predator	-11.2239
▁vocal	-11.2239
▁shortterm	-11.2239
▁avg	-11.2239
▁harmony	-11.2239
▁overthinke	-11.2239
▁hbb	-11.2239
▁recieve	-11.224
▁biological	-11.224
▁preferred	-11.224
▁token	-11.224
▁allege	-11.224
▁scalp	-11.224
▁queer	-11.224
kantha	-11.2241
▁1948	-11.2241
▁kalu	-11.2242
byob	-11.2242
▁paradise	-11.2242
▁circuit	-11.2242
▁acre	-11.2242
▁millennial	-11.2243
▁redeem	-11.2243
▁nuance	-11.2244
▁collaborate	-11.2248
▁installation	-11.2248
▁trilli	-11.2249
▁atti	-11.2249
▁eff	-11.2251
▁neat	-11.2253
▁drill	-11.2256
▁300000	-11.2257
mail	-11.2258
▁impressed	-11.2258
▁gbp	-11.2261
▁middleclass	-11.2263
▁brokerage	-11.2265
still	-11.2265
▁motivated	-11.227
▁810	-11.2272
theless	-11.2286
▁eka	-11.2288
▁lc	-11.2289
witch	-11.2295
▁rejection	-11.2298
suriya	-11.2304
▁mindful	-11.2309
▁odi	-11.2314
▁elector	-11.2321
▁artificially	-11.2325
▁bore	-11.233
▁crossed	-11.2337
▁poke	-11.2342
▁tent	-11.2343
mount	-11.2351
alla	-11.2356
▁homeless	-11.2357
cultivate	-11.2363
▁ipo	-11.2373
50000	-11.2375
▁pose	-11.239
▁marin	-11.2418
cumb	-11.242
▁musical	-11.2424
monger	-11.2434
▁aust	-11.2445
▁prosecut	-11.2486
stream	-11.2524
▁malli	-11.2524
connect	-11.2525
effective	-11.2527
job	-11.2527
▁terminat	-11.2528
covid	-11.2528
print	-11.2531
match	-11.2536
48	-11.2556
▁subtl	-11.2566
▁commi	-11.2592
▁indirect	-11.2599
▁approximate	-11.2599
▁geopolitic	-11.2607
▁aug	-11.2616
▁complicate	-11.2619
▁found	-11.2624
▁southwest	-11.2628
▁pupp	-11.2638
conventional	-11.2639
exclamation	-11.2639
▁chennai	-11.2639
▁consensus	-11.2639
▁cunning	-11.2639
▁disguise	-11.2639
▁identification	-11.2639
▁inappropriate	-11.2639
▁intervention	-11.2639
▁paragraph	-11.2639
▁prevalent	-11.2639
▁privatization	-11.2639
▁recession	-11.2639
▁revenge	-11.2639
▁revolv	-11.2639
▁sanction	-11.2639
▁stigma	-11.2639
▁technological	-11.2639
▁unhappy	-11.2639
▁unpredictable	-11.2639
▁accelerat	-11.2639
▁bounce	-11.2639
▁heaven	-11.2639
▁imperial	-11.2639
▁retreat	-11.2639
▁minimize	-11.2639
▁igcse	-11.2639
▁console	-11.2639
▁foresee	-11.2639
▁ancestor	-11.2639
▁pidur	-11.2639
▁honey	-11.264
▁downhill	-11.264
▁remand	-11.264
▁scholar	-11.264
▁secular	-11.264
▁ousl	-11.264
▁keheli	-11.264
▁misunderstand	-11.264
▁slmc	-11.2641
watte	-11.2641
▁wellbee	-11.2641
▁cpu	-11.2643
▁drown	-11.2643
▁modify	-11.2644
▁pinnaw	-11.2645
▁moir	-11.2645
▁yaris	-11.2645
▁foolish	-11.2648
▁faci	-11.2648
▁dodge	-11.2648
▁slavery	-11.2648
rmv	-11.2648
▁relieved	-11.265
▁christianity	-11.2651
▁showroom	-11.2651
▁shani	-11.2651
▁undergo	-11.2651
▁2006	-11.2653
▁hopper	-11.2659
▁playlist	-11.2659
▁comic	-11.2665
▁massage	-11.2665
▁fence	-11.2668
await	-11.2669
▁idp	-11.2671
▁reign	-11.2675
▁blessing	-11.2679
▁relic	-11.2681
▁bait	-11.2682
▁cbk	-11.2692
▁overpriced	-11.2697
uch	-11.2713
▁mrp	-11.2735
▁generalize	-11.2738
▁15000	-11.2743
estic	-11.276
▁bol	-11.2764
▁smoothly	-11.2777
▁gathering	-11.2778
▁lip	-11.2784
▁tablet	-11.2792
chem	-11.2836
agala	-11.2884
▁meh	-11.2895
▁indo	-11.2914
force	-11.2921
business	-11.2944
lift	-11.2947
tamil	-11.295
▁vici	-11.2958
ovo	-11.2959
▁backward	-11.2968
▁fav	-11.2986
grade	-11.2992
▁dial	-11.3015
▁sigh	-11.3024
▁aiml	-11.3025
▁dirt	-11.3031
▁disast	-11.3036
rust	-11.3043
lancer	-11.3053
▁acqui	-11.3053
▁federal	-11.3054
▁inherent	-11.3056
▁arbitrar	-11.3056
▁asylum	-11.3056
▁concession	-11.3056
▁enrage	-11.3056
▁evident	-11.3056
▁futsal	-11.3056
▁intervene	-11.3056
▁knuckle	-11.3056
▁magistrate	-11.3056
▁paranoid	-11.3056
▁remedy	-11.3056
▁repercussion	-11.3056
▁shangri	-11.3056
▁subsidize	-11.3056
▁uncommon	-11.3056
▁assurance	-11.3056
▁azure	-11.3056
▁dodgy	-11.3056
▁username	-11.3056
▁bundle	-11.3056
▁cleanliness	-11.3056
▁intercity	-11.3056
▁stitch	-11.3056
▁arguabl	-11.3056
▁nanu	-11.3056
▁metric	-11.3056
▁fried	-11.3056
▁betray	-11.3056
▁turm	-11.3056
▁caretake	-11.3057
▁newbie	-11.3057
▁durability	-11.3057
▁chamber	-11.3057
▁heartbreak	-11.3057
▁goddam	-11.3057
▁homosexuality	-11.3057
▁accessibility	-11.3057
▁crown	-11.3058
▁spring	-11.3059
▁ambition	-11.306
retake	-11.3061
tube	-11.3062
▁counselor	-11.3062
▁moderation	-11.3063
▁machan	-11.3064
▁charm	-11.3065
▁iraj	-11.3065
▁baiya	-11.3066
▁1980	-11.3066
▁bamba	-11.3068
▁freeload	-11.3069
▁authenticity	-11.307
▁unclear	-11.3076
▁rebel	-11.3076
▁whatnot	-11.3077
▁sensor	-11.3078
▁saas	-11.308
▁patch	-11.3081
▁trc	-11.309
▁sword	-11.3091
▁spark	-11.3092
pex	-11.3094
▁retro	-11.3098
▁dharma	-11.31
▁lame	-11.3108
▁embarrassing	-11.3112
▁manually	-11.3116
▁lil	-11.3122
▁wheeler	-11.3131
▁ceil	-11.3134
▁170	-11.3139
kill	-11.3144
▁jb	-11.3147
▁enjoyable	-11.3201
nominate	-11.3211
▁moderat	-11.3224
gate	-11.3228
why	-11.3228
indu	-11.3231
bound	-11.3241
▁redo	-11.3252
cover	-11.3253
▁chop	-11.3263
46	-11.3281
shoot	-11.3289
▁thumb	-11.3361
would	-11.3379
scale	-11.3379
travel	-11.338
especially	-11.3383
food	-11.3386
dua	-11.3388
2024	-11.3405
habi	-11.3413
tuna	-11.3421
▁karuna	-11.3438
also	-11.344
ioc	-11.3444
▁stee	-11.3452
serve	-11.3478
▁88	-11.3485
▁equip	-11.3487
▁constitu	-11.3489
▁christ	-11.349
▁anarchy	-11.3491
▁athlete	-11.3491
▁comprehend	-11.3491
▁cylinder	-11.3491
▁judicial	-11.3491
▁kotthu	-11.3491
▁pilgrim	-11.3491
▁recondition	-11.3491
▁stomach	-11.3491
▁tunnel	-11.3491
▁ukrainian	-11.3491
▁widespread	-11.3491
▁zimbabwe	-11.3491
▁belarus	-11.3491
▁senanayake	-11.3491
▁1983	-11.3491
▁annex	-11.3491
▁cooperati	-11.3491
▁dishearten	-11.3491
shadow	-11.3491
▁kadaw	-11.3491
▁prince	-11.3491
▁prophet	-11.3491
▁unusable	-11.3491
▁brace	-11.3491
▁brick	-11.3491
▁york	-11.3491
▁children	-11.3491
ranjan	-11.3491
▁geek	-11.3491
▁immatur	-11.3491
▁georg	-11.3492
▁fintech	-11.3492
▁nuwaraeliya	-11.3492
▁optimiz	-11.3492
▁lottery	-11.3492
▁legacy	-11.3492
tention	-11.3492
▁sovereignty	-11.3493
▁speculation	-11.3493
▁onboard	-11.3493
▁256	-11.3493
▁maj	-11.3494
▁gemini	-11.3494
▁revel	-11.3494
▁sanath	-11.3494
▁diplomacy	-11.3495
▁compile	-11.3496
▁motherboard	-11.3496
▁iesl	-11.3497
▁overrate	-11.3497
▁recur	-11.35
▁coca	-11.3501
▁1970	-11.3501
▁viewpoint	-11.3502
▁trademark	-11.3505
▁aboard	-11.3506
▁raize	-11.3511
▁cott	-11.3513
▁exploitation	-11.3514
▁fond	-11.3519
▁likeminde	-11.3519
▁sail	-11.352
source	-11.352
liya	-11.3526
▁mech	-11.355
consistency	-11.3552
bfe	-11.3552
▁150000	-11.3554
change	-11.3555
cement	-11.3562
▁lick	-11.3572
centr	-11.3579
▁58	-11.3583
▁baseline	-11.3589
450	-11.3596
▁wag	-11.362
▁billionair	-11.363
step	-11.3639
▁jet	-11.3641
uuu	-11.3648
73	-11.3659
▁chan	-11.3661
▁1800	-11.3673
stock	-11.368
▁crapp	-11.3684
big	-11.3695
wave	-11.3703
▁complian	-11.3709
kwh	-11.3714
▁imma	-11.3726
jaya	-11.3731
achi	-11.376
oem	-11.3766
▁rub	-11.3785
▁neg	-11.3793
▁cultivat	-11.3801
▁ohh	-11.3811
where	-11.3815
drop	-11.3818
liant	-11.3818
break	-11.3833
club	-11.3833
science	-11.3833
week	-11.3834
perform	-11.3836
trip	-11.3836
▁750	-11.3836
watch	-11.3838
media	-11.3843
ranil	-11.3845
custom	-11.3856
zone	-11.3859
npp	-11.3868
story	-11.387
▁apparent	-11.3905
▁coffe	-11.3922
▁summar	-11.3923
uka	-11.3932
▁liber	-11.3936
evolution	-11.3941
▁spirit	-11.3945
889	-11.3945
funde	-11.3945
▁noon	-11.3945
▁imprison	-11.3945
▁pepper	-11.3945
▁affiliation	-11.3945
▁argentin	-11.3945
▁aswesuma	-11.3945
▁ayubowan	-11.3945
▁benchmark	-11.3945
▁continent	-11.3945
▁cosmetic	-11.3945
▁demotivate	-11.3945
▁emigrate	-11.3945
▁fiasco	-11.3945
▁fluctuate	-11.3945
▁geographical	-11.3945
▁hierarchy	-11.3945
▁hypothetical	-11.3945
▁intimidate	-11.3945
▁jayawardene	-11.3945
▁kapruka	-11.3945
▁leisure	-11.3945
▁mechatronic	-11.3945
▁opportunist	-11.3945
▁reccomend	-11.3945
▁rescue	-11.3945
▁suspension	-11.3945
▁treasure	-11.3945
▁unbearable	-11.3945
▁virgin	-11.3945
▁counsellor	-11.3945
▁descend	-11.3945
▁memorable	-11.3945
▁slasscom	-11.3945
▁uprising	-11.3945
▁astrolog	-11.3945
▁sleeve	-11.3945
▁cherry	-11.3945
▁compassion	-11.3945
▁kotte	-11.3945
▁shove	-11.3945
▁colony	-11.3945
▁warehouse	-11.3945
▁boast	-11.3945
▁grace	-11.3945
corolla	-11.3945
▁depart	-11.3945
▁undermine	-11.3945
▁shore	-11.3946
▁bbc	-11.3946
▁remit	-11.3946
▁ncpi	-11.3946
▁outrageous	-11.3946
▁washroom	-11.3946
▁tobac	-11.3947
▁flair	-11.3947
▁conservation	-11.3947
▁generous	-11.3947
▁empower	-11.3948
▁outward	-11.3948
▁disrespectful	-11.3948
▁exhibition	-11.3949
▁haput	-11.3949
▁countrie	-11.395
▁sept	-11.3951
▁musk	-11.3951
▁pedo	-11.3951
▁vital	-11.3952
▁dramatic	-11.3952
partment	-11.3953
▁deport	-11.3955
▁variation	-11.3955
02	-11.3956
▁inward	-11.3957
▁dns	-11.3957
▁adjustment	-11.396
▁outline	-11.3962
▁repost	-11.3965
▁banana	-11.3966
▁damm	-11.3969
▁5050	-11.3971
▁validate	-11.3972
▁plc	-11.3973
▁ayurveda	-11.3976
▁tes	-11.3976
▁referr	-11.3976
▁genz	-11.398
xpress	-11.3981
▁fleet	-11.3985
▁seren	-11.3988
▁snow	-11.399
ddy	-11.3993
▁itch	-11.4
▁roti	-11.4014
ugues	-11.402
hill	-11.4068
▁erase	-11.4088
▁geo	-11.4095
120	-11.4117
▁stab	-11.4135
▁victor	-11.4151
▁hera	-11.4167
▁memorize	-11.4181
▁victoria	-11.4185
tract	-11.4193
▁lev	-11.4196
▁laksh	-11.42
▁obst	-11.4213
▁abu	-11.4234
ombi	-11.4248
▁kol	-11.4285
▁coordinat	-11.4295
4000	-11.4298
monkey	-11.4308
chair	-11.4318
pick	-11.4321
type	-11.4339
range	-11.4349
nayake	-11.4354
▁literar	-11.4356
track	-11.436
▁promis	-11.4383
▁hav	-11.4392
asinghe	-11.4395
▁nasa	-11.4395
good	-11.4396
▁compute	-11.4404
▁chai	-11.4412
▁teenage	-11.4412
▁rubb	-11.4413
▁responsib	-11.4417
▁uncertain	-11.442
▁gifgiphy	-11.4421
▁aptitude	-11.4421
▁asleep	-11.4421
▁assimilat	-11.4421
▁bandwidth	-11.4421
▁blunder	-11.4421
▁conclude	-11.4421
▁dismantle	-11.4421
▁dolphin	-11.4421
▁dynast	-11.4421
▁exorbitant	-11.4421
▁expansion	-11.4421
▁fragrance	-11.4421
▁franchise	-11.4421
▁frizz	-11.4421
▁inefficiency	-11.4421
▁jayawardena	-11.4421
▁overhaul	-11.4421
▁participant	-11.4421
▁ravana	-11.4421
▁registrar	-11.4421
▁sabotage	-11.4421
▁selfstudy	-11.4421
▁substitut	-11.4421
▁sympathy	-11.4421
▁technician	-11.4421
▁teledrama	-11.4421
▁unlucky	-11.4421
▁unregistere	-11.4421
▁admire	-11.4421
▁bandaranayak	-11.4421
▁sneez	-11.4421
▁courage	-11.4421
▁buffer	-11.4421
▁daytoday	-11.4421
▁sambol	-11.4421
▁vertical	-11.4421
▁leap	-11.4421
▁ruppe	-11.4421
▁essence	-11.4421
▁hyperinflation	-11.4421
▁conscious	-11.4421
▁convey	-11.4421
▁hedge	-11.4421
▁qatar	-11.4422
▁depict	-11.4422
▁proficiency	-11.4422
▁mortal	-11.4422
▁explod	-11.4422
▁gulf	-11.4422
▁hinder	-11.4422
▁disorder	-11.4423
▁probability	-11.4423
▁outstation	-11.4423
▁wimal	-11.4424
▁leech	-11.4426
▁reconsider	-11.4427
▁homophobic	-11.4427
▁legislation	-11.4428
▁pinch	-11.4429
▁lump	-11.443
zza	-11.4433
▁hahaha	-11.4433
▁broke	-11.4437
▁kerne	-11.4438
▁shameless	-11.4438
▁harin	-11.4439
▁roadside	-11.444
▁paperwork	-11.4441
▁feminist	-11.4444
▁haj	-11.4444
▁lav	-11.4444
▁backfire	-11.4446
render	-11.4446
▁coke	-11.445
▁coat	-11.4453
▁yard	-11.4454
▁validation	-11.4465
▁duck	-11.4474
▁nano	-11.4478
hinge	-11.4486
▁geni	-11.4509
chandra	-11.4518
▁overse	-11.4523
flag	-11.4528
▁bake	-11.4529
▁coordinate	-11.4549
▁pest	-11.4565
▁classical	-11.4572
67	-11.4574
▁supr	-11.4578
itude	-11.4587
▁fif	-11.461
athuranga	-11.462
▁jana	-11.4682
▁roo	-11.4708
assis	-11.4724
▁ken	-11.4733
▁civiliz	-11.4745
▁integrat	-11.4784
avit	-11.4792
sustainable	-11.4809
dialog	-11.4809
sinhala	-11.4809
sexual	-11.4809
first	-11.481
wanted	-11.4811
girl	-11.4812
social	-11.4814
▁cloth	-11.4848
990	-11.4856
credit	-11.4886
▁introduc	-11.4886
dont	-11.4898
▁polo	-11.4904
▁nois	-11.4912
▁counsel	-11.4913
▁1950	-11.4915
ological	-11.4918
▁chick	-11.4919
builde	-11.492
▁oppress	-11.4921
elecommunication	-11.4921
▁anecdot	-11.4921
▁bhutan	-11.4921
▁burgher	-11.4921
▁censor	-11.4921
▁chaotic	-11.4921
▁contemporar	-11.4921
▁fluctuation	-11.4921
▁forensic	-11.4921
▁huawei	-11.4921
▁hypocrite	-11.4921
▁intimate	-11.4921
▁kingsbury	-11.4921
▁loudspeaker	-11.4921
▁provision	-11.4921
▁recipient	-11.4921
▁refurbish	-11.4921
▁rhetoric	-11.4921
▁sanctuary	-11.4921
▁sandwich	-11.4921
▁secretariat	-11.4921
▁subsidiary	-11.4921
▁switzerland	-11.4921
▁vocabulary	-11.4921
photocopy	-11.4921
▁dengue	-11.4921
▁plague	-11.4921
▁throat	-11.4921
▁tweet	-11.4921
▁untouch	-11.4921
▁rainbow	-11.4921
▁katunayak	-11.4921
▁physician	-11.4921
▁deflation	-11.4921
▁illusion	-11.4921
▁iraq	-11.4921
▁cancellation	-11.4921
▁noob	-11.4921
▁slogan	-11.4921
▁revise	-11.4922
▁fertil	-11.4922
▁spew	-11.4922
▁proxy	-11.4922
▁borella	-11.4922
▁perahera	-11.4922
▁oversize	-11.4922
▁ayya	-11.4922
▁payhere	-11.4922
▁telephone	-11.4922
▁counselling	-11.4922
▁seafood	-11.4922
▁monast	-11.4923
▁imei	-11.4923
▁illitera	-11.4923
▁awake	-11.4923
▁collaboration	-11.4923
▁contrar	-11.4924
traged	-11.4924
▁northeast	-11.4926
▁prostitution	-11.4927
▁litre	-11.4927
▁betterment	-11.4927
▁archive	-11.4927
▁guardian	-11.4927
▁unbelievable	-11.4928
▁1111	-11.4929
▁hoop	-11.4929
▁disappointment	-11.4929
▁fella	-11.493
▁calend	-11.4931
▁captain	-11.4932
▁diff	-11.4937
▁decorat	-11.4939
▁privatise	-11.494
▁airpo	-11.4941
▁greeting	-11.4941
▁reload	-11.4943
▁tide	-11.4947
▁ragama	-11.4948
▁harv	-11.4949
▁minus	-11.4951
▁coven	-11.4952
▁musician	-11.4953
oud	-11.4954
plant	-11.4954
▁kade	-11.4956
▁cabin	-11.4957
▁irl	-11.4963
▁handling	-11.4971
▁shein	-11.4976
▁sob	-11.4978
▁bidd	-11.4982
aksha	-11.4986
▁itak	-11.4992
▁esc	-11.5026
▁amen	-11.5032
▁creat	-11.5039
▁merge	-11.5057
▁maz	-11.5061
▁rajap	-11.5069
▁bow	-11.5073
uous	-11.5079
▁downgrad	-11.5102
▁kuru	-11.5116
▁elevat	-11.5139
▁jetw	-11.5203
proxim	-11.5206
galle	-11.5215
iji	-11.5217
compass	-11.526
▁therm	-11.5285
▁neo	-11.5299
worthy	-11.5331
mobile	-11.5335
wheel	-11.5335
cultural	-11.5335
political	-11.5336
finance	-11.5336
little	-11.5336
productive	-11.5337
enture	-11.5339
button	-11.5342
easy	-11.5354
root	-11.539
tense	-11.5392
▁mov	-11.5401
jector	-11.5405
▁investigat	-11.5408
india	-11.5428
terior	-11.5444
▁eligib	-11.5444
mmunity	-11.5447
▁outrage	-11.5447
▁templ	-11.5447
phobia	-11.5448
savvy	-11.5448
▁afghanistan	-11.5448
▁apologise	-11.5448
▁bluetooth	-11.5448
▁cambodia	-11.5448
▁commodity	-11.5448
▁cooperate	-11.5448
▁inhumane	-11.5448
▁kuluna	-11.5448
▁landslide	-11.5448
▁lmfao	-11.5448
▁nonexistent	-11.5448
▁nostalgi	-11.5448
▁overthrow	-11.5448
▁predominant	-11.5448
▁psychopath	-11.5448
▁quantitative	-11.5448
▁rainforest	-11.5448
▁renegotiat	-11.5448
▁resilient	-11.5448
▁rhythm	-11.5448
▁separatis	-11.5448
▁simultaneously	-11.5448
▁surgical	-11.5448
▁sympathize	-11.5448
▁toronto	-11.5448
▁vacuum	-11.5448
▁evasion	-11.5448
▁hijack	-11.5448
▁justification	-11.5448
▁masculin	-11.5448
▁nvq	-11.5448
▁amateur	-11.5448
▁colonise	-11.5448
▁humiliat	-11.5448
▁parliamentarian	-11.5448
▁vocation	-11.5448
▁squad	-11.5448
▁pivot	-11.5448
▁sanskr	-11.5448
▁attribute	-11.5448
▁dairy	-11.5448
▁ubereat	-11.5448
▁explosi	-11.5448
▁moistur	-11.5448
▁forcefully	-11.5448
▁sinop	-11.5448
▁vecno	-11.5448
▁album	-11.5448
▁nicotin	-11.5448
▁fingerprint	-11.5448
▁chaba	-11.5448
emma	-11.5448
voke	-11.5448
▁malayali	-11.5449
▁oblivious	-11.545
▁crumb	-11.545
▁denial	-11.5451
▁patriotism	-11.5451
▁humidity	-11.5451
▁decency	-11.5451
▁benz	-11.5452
▁triang	-11.5452
▁asf	-11.5452
▁statue	-11.5452
▁experi	-11.5453
▁insecurity	-11.5454
▁possession	-11.5455
▁defect	-11.5455
rgency	-11.5456
▁sinhalatamil	-11.5456
▁coupon	-11.5459
▁hardworke	-11.5461
ulous	-11.5463
▁4050	-11.5465
▁tonight	-11.5465
▁forbid	-11.5472
ossil	-11.5474
2022	-11.5474
▁divi	-11.5474
▁weaken	-11.5478
▁cutting	-11.5487
▁php	-11.5487
▁cess	-11.5494
▁populate	-11.5495
▁2004	-11.5502
▁pour	-11.5503
▁insecur	-11.551
▁ppp	-11.5516
▁nine	-11.5516
▁chant	-11.5518
btu	-11.5523
critic	-11.5534
▁deriv	-11.5565
▁memo	-11.5592
▁verit	-11.5646
▁turbo	-11.5649
nanayak	-11.5656
▁ceyl	-11.5686
iye	-11.5749
yyyy	-11.5761
▁intens	-11.5782
alley	-11.5807
▁evaluat	-11.581
▁kei	-11.5861
▁prad	-11.5864
▁tru	-11.5867
educate	-11.5891
season	-11.5891
culture	-11.5891
profit	-11.5891
current	-11.5892
waste	-11.5892
foot	-11.5896
limit	-11.5896
group	-11.5897
hurt	-11.5905
▁graph	-11.5905
ography	-11.5908
iii	-11.591
tician	-11.5923
termination	-11.5951
▁thorough	-11.5963
▁minne	-11.5976
▁privatis	-11.5983
▁legislat	-11.5996
▁possess	-11.5996
▁atp	-11.5996
▁humid	-11.6
▁controvers	-11.6002
itarian	-11.6003
esco	-11.6003
▁reimburse	-11.6003
▁unauthori	-11.6003
frequency	-11.6003
shrugge	-11.6003
▁accompan	-11.6003
▁athletic	-11.6003
▁celebrity	-11.6003
▁compliment	-11.6003
▁declaration	-11.6003
▁delicious	-11.6003
▁egypt	-11.6003
▁fascinating	-11.6003
▁furnish	-11.6003
▁gullible	-11.6003
▁habarana	-11.6003
▁impractical	-11.6003
▁invalid	-11.6003
▁invitation	-11.6003
▁lesbian	-11.6003
▁noodle	-11.6003
▁peratugami	-11.6003
▁piliyandala	-11.6003
▁piracy	-11.6003
▁rabbit	-11.6003
▁rupavahini	-11.6003
▁scandinavia	-11.6003
▁shrink	-11.6003
▁suicidal	-11.6003
▁sweden	-11.6003
▁translator	-11.6003
▁transmission	-11.6003
▁upcountry	-11.6003
▁vigilant	-11.6003
▁virtusa	-11.6003
▁bloom	-11.6003
▁commemorat	-11.6003
▁gesture	-11.6003
▁occurrence	-11.6003
▁prevail	-11.6003
▁axio	-11.6003
▁durdan	-11.6003
▁monument	-11.6003
▁premio	-11.6003
▁molecul	-11.6003
▁situate	-11.6003
▁tbill	-11.6003
▁calcey	-11.6003
▁soap	-11.6003
▁actress	-11.6003
▁insert	-11.6003
▁blur	-11.6003
because	-11.6003
▁worm	-11.6003
▁embed	-11.6003
▁prick	-11.6003
▁utilis	-11.6004
▁corri	-11.6004
▁orthodonti	-11.6004
▁nausea	-11.6004
▁kidnap	-11.6004
▁carbon	-11.6004
▁pork	-11.6004
▁furious	-11.6004
▁sedan	-11.6005
▁fixture	-11.6005
▁telco	-11.6005
▁trek	-11.6006
▁obligate	-11.6006
▁satisfaction	-11.6007
constru	-11.6007
▁spanish	-11.6007
▁unhealth	-11.6008
▁confidential	-11.6008
▁curtain	-11.6008
▁smash	-11.6009
▁squat	-11.6009
▁ryt	-11.6009
▁diligen	-11.6009
▁barrel	-11.6009
▁stunt	-11.601
▁prioritise	-11.6012
▁pound	-11.6013
▁overwork	-11.6014
▁steep	-11.6015
▁firework	-11.6015
▁lamp	-11.6015
▁meas	-11.6016
▁extraction	-11.6016
▁inspection	-11.6019
▁rapist	-11.602
▁mofo	-11.6024
▁seik	-11.6024
▁detector	-11.6024
▁systematic	-11.6025
▁factual	-11.6026
▁ets	-11.6038
▁amara	-11.6039
▁rajarat	-11.6044
▁hora	-11.6053
naval	-11.6057
▁simplif	-11.6058
▁manipulat	-11.6059
▁flame	-11.6061
kumar	-11.6082
deniya	-11.6082
eliya	-11.6099
▁atl	-11.6101
inking	-11.6109
▁kata	-11.6117
pora	-11.6125
550	-11.6181
▁reinvest	-11.6191
▁cmc	-11.6236
jude	-11.6264
liza	-11.6315
uniya	-11.637
▁wheat	-11.638
rsion	-11.6454
▁hama	-11.6455
▁continu	-11.6459
pleasant	-11.6478
sense	-11.6479
staff	-11.6479
muslim	-11.6479
english	-11.648
maybe	-11.648
create	-11.6483
▁valu	-11.6518
▁upgrad	-11.6553
jab	-11.6562
▁warrant	-11.6565
▁plea	-11.657
▁nawal	-11.658
▁suspicio	-11.6589
▁misunderst	-11.6589
▁pohottu	-11.659
vomiting	-11.6591
▁alphabet	-11.6591
▁ambulance	-11.6591
▁asbestos	-11.6591
▁breeze	-11.6591
▁bureaucrat	-11.6591
▁hashtag	-11.6591
▁indulge	-11.6591
▁innovex	-11.6591
▁intermediate	-11.6591
▁mahindananda	-11.6591
▁maithree	-11.6591
▁misogyn	-11.6591
▁narcissist	-11.6591
▁nuisance	-11.6591
▁pseudo	-11.6591
▁sacred	-11.6591
▁sapphire	-11.6591
▁sarcastic	-11.6591
▁significance	-11.6591
▁tarrif	-11.6591
▁terrify	-11.6591
▁tertiary	-11.6591
▁umbrella	-11.6591
▁vancouver	-11.6591
▁elitist	-11.6591
▁parliment	-11.6591
▁threewheeler	-11.6591
▁tolerance	-11.6591
▁trouser	-11.6591
▁confine	-11.6591
▁glaze	-11.6591
▁potato	-11.6591
▁toddler	-11.6591
▁spider	-11.6592
▁zionist	-11.6592
▁obstruct	-11.6592
kbps	-11.6592
▁aerospace	-11.6592
▁deceive	-11.6592
▁greek	-11.6592
▁puthano	-11.6592
▁grassroot	-11.6592
▁retaliat	-11.6592
▁pricy	-11.6592
▁motive	-11.6592
▁pradesh	-11.6592
▁astro	-11.6592
▁cpc	-11.6592
▁mourn	-11.6592
solicit	-11.6592
▁vibran	-11.6592
▁knw	-11.6592
bhaya	-11.6593
▁wolf	-11.6593
▁bleed	-11.6593
▁vedda	-11.6593
▁minimis	-11.6593
▁pillow	-11.6593
▁breast	-11.6593
▁griev	-11.6594
amantha	-11.6594
▁uphold	-11.6594
▁blackmail	-11.6594
▁inexperience	-11.6594
▁sabarag	-11.6595
▁correlat	-11.6595
▁spike	-11.6595
▁renovation	-11.6595
▁echo	-11.6596
▁abide	-11.6596
▁pollute	-11.6598
▁itenar	-11.6599
▁coward	-11.66
▁islandwide	-11.6601
▁fascist	-11.6601
▁ffs	-11.6603
▁digest	-11.6603
▁platin	-11.6604
▁kamal	-11.6605
built	-11.6606
▁infant	-11.6607
luxe	-11.6607
▁deaf	-11.6607
▁parasit	-11.6607
▁shithole	-11.6608
▁potter	-11.661
thesis	-11.6612
▁nude	-11.6614
▁chose	-11.6626
▁incl	-11.6629
fringe	-11.6652
inability	-11.6653
ctb	-11.6659
nadu	-11.6712
▁patt	-11.6746
hearteye	-11.677
okla	-11.6782
early	-11.6784
moto	-11.6785
350	-11.6843
▁ryz	-11.6851
▁hdi	-11.6883
▁shre	-11.6911
fortunately	-11.6961
glue	-11.6969
▁turb	-11.6983
▁ananda	-11.6984
graphic	-11.6997
trade	-11.7027
rking	-11.7078
▁arun	-11.708
corrupt	-11.7103
jvp	-11.7104
buy	-11.7107
essential	-11.7108
order	-11.711
wood	-11.7113
▁gaz	-11.7137
radar	-11.7178
▁rememb	-11.7196
▁instruct	-11.7201
ibility	-11.7207
▁oblig	-11.721
▁corpora	-11.721
▁miris	-11.7215
wickrama	-11.7216
amuwa	-11.7216
▁indep	-11.7216
▁ethno	-11.7216
▁ambuluwa	-11.7216
discriminatory	-11.7216
▁antenna	-11.7216
▁autonomy	-11.7216
▁bilingual	-11.7216
▁complication	-11.7216
▁consolidat	-11.7216
▁crawl	-11.7216
▁destruction	-11.7216
▁discretion	-11.7216
▁extraordinar	-11.7216
▁imbalance	-11.7216
▁inconsistent	-11.7216
▁influential	-11.7216
▁intolerant	-11.7216
▁irritate	-11.7216
▁justifiabl	-11.7216
▁kaduwela	-11.7216
▁kataragama	-11.7216
▁maradana	-11.7216
▁mumbai	-11.7216
▁prejudice	-11.7216
▁responsive	-11.7216
▁saviour	-11.7216
▁spontaneous	-11.7216
▁stimula	-11.7216
▁transcript	-11.7216
oriente	-11.7216
▁coexist	-11.7216
▁embark	-11.7216
▁equation	-11.7216
▁ergonomic	-11.7216
▁jeppa	-11.7216
▁rebrand	-11.7216
▁trivial	-11.7216
▁vishwa	-11.7216
▁savior	-11.7216
▁freight	-11.7216
▁marvel	-11.7216
▁udemy	-11.7216
▁nordic	-11.7216
▁sauce	-11.7216
▁mitigat	-11.7217
▁reckon	-11.7217
▁vessel	-11.7217
▁coincidence	-11.7217
▁backbone	-11.7217
▁deteriorat	-11.7217
▁geography	-11.7217
▁wickramasingh	-11.7217
▁frick	-11.7217
▁dashboard	-11.7217
▁anticorrupt	-11.7218
▁tyre	-11.7218
▁insure	-11.7218
▁hidden	-11.7218
▁blanket	-11.7218
▁spectac	-11.7218
▁utopia	-11.7218
▁candle	-11.7218
▁sustainability	-11.7219
▁baffle	-11.7219
▁inheritance	-11.7219
▁awhile	-11.7219
▁reef	-11.7219
▁nilad	-11.722
▁vesak	-11.7221
▁guysss	-11.7221
▁aero	-11.7221
▁homie	-11.7222
▁mastercard	-11.7223
▁simulat	-11.7223
▁shud	-11.7223
▁dispar	-11.7224
▁8090	-11.7224
▁wiki	-11.7225
▁purse	-11.7227
gamuwa	-11.7227
▁hangover	-11.7229
▁afterma	-11.7229
▁lpl	-11.7231
▁instalment	-11.7231
▁oust	-11.7233
▁kiri	-11.7234
adasa	-11.724
odys	-11.7247
curate	-11.725
▁woke	-11.7253
▁bye	-11.7256
eval	-11.7267
hallow	-11.7272
skinne	-11.7285
▁nominat	-11.7298
▁circu	-11.7335
▁sanga	-11.7342
cell	-11.7344
▁dilsh	-11.7352
kaduwa	-11.7354
fps	-11.7376
pushpi	-11.7415
gbps	-11.7427
characteristic	-11.7478
▁chathura	-11.7609
▁competenc	-11.7614
apu	-11.7635
reach	-11.7722
cross	-11.7768
familiar	-11.7771
left	-11.7771
blue	-11.7771
account	-11.7771
family	-11.7771
street	-11.7771
support	-11.7771
hotel	-11.7771
space	-11.7772
focus	-11.7772
interest	-11.7773
minute	-11.7776
ratna	-11.7806
▁popula	-11.7809
arrow	-11.7849
▁unknow	-11.7874
▁democrat	-11.7875
angoda	-11.7875
▁prostitut	-11.7876
▁oblivio	-11.788
▁blank	-11.7881
cricinfo	-11.7883
ponzi	-11.7883
sunglasse	-11.7883
voltage	-11.7883
▁abeysingh	-11.7883
▁acquaint	-11.7883
▁bollywood	-11.7883
▁contemplat	-11.7883
▁dessert	-11.7883
▁educator	-11.7883
▁html	-11.7883
▁infamous	-11.7883
▁isolation	-11.7883
▁maldivian	-11.7883
▁megathread	-11.7883
▁mysterious	-11.7883
▁negligible	-11.7883
▁neoliberal	-11.7883
▁oxford	-11.7883
▁pregnancy	-11.7883
▁redirect	-11.7883
▁refrigerat	-11.7883
▁revision	-11.7883
▁separation	-11.7883
▁sophisticat	-11.7883
▁unmarrie	-11.7883
▁valorant	-11.7883
▁wasantha	-11.7883
▁messenger	-11.7883
▁pickleball	-11.7883
▁ratmalana	-11.7883
▁rebellion	-11.7883
▁unlawful	-11.7883
▁whistle	-11.7883
▁proactive	-11.7883
▁suffice	-11.7883
▁wannabe	-11.7883
▁david	-11.7883
▁latency	-11.7883
▁rogue	-11.7883
▁cuba	-11.7883
▁detach	-11.7883
▁axia	-11.7883
▁outlier	-11.7883
▁bbq	-11.7883
▁milestone	-11.7883
▁euthan	-11.7883
▁crisp	-11.7883
▁warrior	-11.7883
▁strive	-11.7883
▁ninewell	-11.7883
▁spoon	-11.7883
▁fusion	-11.7883
▁tusk	-11.7883
▁heap	-11.7884
cule	-11.7884
▁jerk	-11.7884
▁festivit	-11.7884
▁surcharge	-11.7884
▁kyc	-11.7884
▁purple	-11.7884
▁lightning	-11.7884
▁reelect	-11.7885
▁championship	-11.7885
▁cerave	-11.7885
▁nonetheless	-11.7885
▁procurement	-11.7886
▁firearm	-11.7887
aaaa	-11.7887
▁dataset	-11.7888
▁corro	-11.7888
▁ccpi	-11.7888
▁electorate	-11.7888
▁photoshop	-11.7889
▁nhs	-11.7889
▁bharat	-11.7889
product	-11.789
bulb	-11.789
▁dealership	-11.789
▁marginaliz	-11.789
▁preschool	-11.789
▁vivo	-11.7892
▁thero	-11.7892
▁idol	-11.7893
wellawatta	-11.7893
▁again	-11.7894
▁garne	-11.7899
exico	-11.7902
▁appeti	-11.791
▁consula	-11.7911
ldl	-11.7924
▁milita	-11.7924
▁gamin	-11.7927
▁categoriz	-11.7946
favorable	-11.7962
▁wasi	-11.8015
govlk	-11.8064
▁meddl	-11.811
▁excu	-11.8269
azine	-11.8288
peek	-11.833
ikka	-11.833
burg	-11.841
▁rotat	-11.846
▁debat	-11.8481
conduct	-11.8484
constitutional	-11.8484
glass	-11.8485
approve	-11.8485
when	-11.8485
nuwara	-11.8486
roach	-11.8508
▁choos	-11.851
▁delusion	-11.8587
▁avail	-11.8591
▁infect	-11.8596
▁famili	-11.8596
▁ridicul	-11.8597
▁avurud	-11.8597
▁rambuk	-11.8597
▁soviet	-11.8597
▁abnormal	-11.8597
▁analyse	-11.8597
▁biometric	-11.8597
▁brigade	-11.8597
▁bungalow	-11.8597
▁burglar	-11.8597
▁census	-11.8597
▁columbo	-11.8597
▁deactivate	-11.8597
▁dehiwela	-11.8597
▁desperation	-11.8597
▁dinemore	-11.8597
▁duplicat	-11.8597
▁extravagant	-11.8597
▁funniest	-11.8597
▁gorgeous	-11.8597
▁hormone	-11.8597
▁influx	-11.8597
▁infuriate	-11.8597
▁irresponsible	-11.8597
▁jazeera	-11.8597
▁negativity	-11.8597
▁nephew	-11.8597
▁nutshell	-11.8597
▁oxygen	-11.8597
▁pragmatic	-11.8597
▁puzzle	-11.8597
▁rotaract	-11.8597
▁stockbroker	-11.8597
▁stunning	-11.8597
▁submission	-11.8597
▁tarnish	-11.8597
▁unregulate	-11.8597
▁1972	-11.8597
▁unfold	-11.8597
▁untill	-11.8597
▁flix	-11.8597
▁greece	-11.8597
▁jkcg	-11.8597
▁satire	-11.8597
▁companion	-11.8597
▁lagoon	-11.8597
▁peotv	-11.8597
▁rifle	-11.8597
▁menace	-11.8597
▁annum	-11.8597
▁jazz	-11.8597
▁redundan	-11.8597
▁nishan	-11.8598
▁maligawa	-11.8598
▁maithripala	-11.8598
inflict	-11.8598
▁multiply	-11.8598
▁mohame	-11.8598
▁racing	-11.8598
▁arjun	-11.8598
▁consultancy	-11.8599
▁proficien	-11.8599
▁dhal	-11.8599
▁devote	-11.8599
▁aqui	-11.86
▁downward	-11.86
▁rayha	-11.86
▁federalism	-11.86
▁incite	-11.8601
▁tyran	-11.8601
▁discourse	-11.8601
▁biotech	-11.8602
▁disturbance	-11.8602
▁ginger	-11.8603
▁divert	-11.8604
▁peko	-11.8605
nintend	-11.8606
▁incline	-11.8606
▁barbari	-11.8608
▁skim	-11.861
downsize	-11.8612
▁hairstyl	-11.8627
tipping	-11.8642
850	-11.8674
hygienic	-11.8697
idden	-11.8747
▁arabia	-11.8784
frame	-11.8818
▁concentrat	-11.8974
▁vijay	-11.9009
▁refra	-11.902
▁originat	-11.9075
pain	-11.91
lapse	-11.9231
public	-11.9243
health	-11.9248
tongue	-11.9253
information	-11.9254
ethnic	-11.9254
specific	-11.9255
private	-11.9255
advice	-11.9255
demand	-11.9255
control	-11.9255
scope	-11.9255
software	-11.9255
cloud	-11.9256
passport	-11.9256
please	-11.9261
capita	-11.9264
▁generat	-11.9281
section	-11.9289
animat	-11.9326
▁greet	-11.9336
deepa	-11.9345
▁relieve	-11.9346
▁indefinite	-11.9367
▁bangalore	-11.9367
disproportionate	-11.9367
issamaharama	-11.9367
packfacepalm	-11.9367
▁abysmal	-11.9367
▁alumnus	-11.9367
▁atrocious	-11.9367
▁bamboo	-11.9367
▁bangkok	-11.9367
▁bizarre	-11.9367
▁butcher	-11.9367
▁charisma	-11.9367
▁constraint	-11.9367
▁curtail	-11.9367
▁etiquette	-11.9367
▁finasterid	-11.9367
▁fragile	-11.9367
▁halloween	-11.9367
▁hypocritical	-11.9367
▁inconvenient	-11.9367
▁instinct	-11.9367
▁laundry	-11.9367
▁mudalali	-11.9367
▁multiplayer	-11.9367
▁myanmar	-11.9367
▁negligence	-11.9367
▁nurture	-11.9367
▁parakramabahu	-11.9367
▁pedestal	-11.9367
▁pretentious	-11.9367
▁rajitha	-11.9367
▁recycling	-11.9367
▁repetitive	-11.9367
▁splurg	-11.9367
▁stubborn	-11.9367
▁surveillance	-11.9367
▁swedish	-11.9367
▁transgender	-11.9367
▁unaffordable	-11.9367
▁vitiligo	-11.9367
▁wolver	-11.9367
ordshire	-11.9367
▁hollywood	-11.9367
▁uganda	-11.9367
▁anthare	-11.9367
▁bumble	-11.9367
▁empathetic	-11.9367
▁upbring	-11.9367
▁visibility	-11.9367
▁spineless	-11.9367
▁festive	-11.9367
▁casio	-11.9367
▁philip	-11.9367
▁renowne	-11.9367
▁britain	-11.9367
▁malinga	-11.9367
▁decease	-11.9367
▁tribal	-11.9367
▁inequality	-11.9367
▁oversight	-11.9367
▁dominant	-11.9367
▁intact	-11.9367
▁thalawa	-11.9367
▁towel	-11.9367
▁gamage	-11.9367
▁sadden	-11.9367
▁amaze	-11.9367
▁murali	-11.9367
▁texa	-11.9367
▁humor	-11.9367
▁kando	-11.9367
▁excellenc	-11.9368
rahera	-11.9368
▁jdm	-11.9368
▁goodbye	-11.9368
▁macau	-11.9369
▁deplet	-11.9369
▁obey	-11.9369
kovil	-11.9369
▁uphill	-11.9369
▁optimis	-11.9369
▁seettu	-11.9373
▁applau	-11.9377
▁archeolog	-11.9377
▁juris	-11.9382
axis	-11.9403
▁kalpit	-11.9448
sufficient	-11.9499
either	-11.9511
▁dudl	-11.9575
cruiser	-11.9588
▁configur	-11.9608
660	-11.9654
eksha	-11.9784
▁sensitiv	-11.9941
booth	-11.9959
through	-12.0069
▁criti	-12.0078
symbol	-12.0087
academic	-12.0088
computer	-12.0088
engineer	-12.0088
wealth	-12.0088
crime	-12.0088
white	-12.0088
education	-12.0088
student	-12.0088
general	-12.0088
korea	-12.0095
western	-12.0111
▁mahind	-12.0157
1080	-12.0165
▁jeweller	-12.0173
▁fascis	-12.0186
▁homophobi	-12.019
▁ambitio	-12.0191
▁allerg	-12.0193
▁psychiatri	-12.0194
structive	-12.0198
0000000000000000	-12.02
▁correspond	-12.02
▁physiotherap	-12.02
▁supremac	-12.02
▁thunder	-12.02
▁undervalue	-12.02
narahenpita	-12.02
▁analogy	-12.02
▁anticipat	-12.02
▁bacteria	-12.02
▁conglomerate	-12.02
▁custody	-12.02
▁deodorant	-12.02
▁devastate	-12.02
▁distress	-12.02
▁donkey	-12.02
▁exploration	-12.02
▁flirt	-12.02
▁gammanpil	-12.02
▁hatchback	-12.02
▁headquarter	-12.02
▁hyundai	-12.02
▁impeach	-12.02
▁inevitably	-12.02
▁joseph	-12.02
▁kilometer	-12.02
▁kotelaw	-12.02
▁nonresident	-12.02
▁outweigh	-12.02
▁porsche	-12.02
▁reciproca	-12.02
▁relocation	-12.02
▁resentment	-12.02
▁sarasavi	-12.02
▁scheduling	-12.02
▁smuggle	-12.02
▁speculate	-12.02
▁subcontinent	-12.02
▁swallow	-12.02
▁swarnawahini	-12.02
▁sympathise	-12.02
▁terribly	-12.02
▁wholeheartedly	-12.02
▁ymmv	-12.02
▁archaeolog	-12.02
▁booze	-12.02
▁glassdoor	-12.02
▁niladari	-12.02
▁radius	-12.02
▁ruthless	-12.02
sqft	-12.02
▁sigriya	-12.02
▁traumatize	-12.02
▁mystery	-12.02
▁sphere	-12.02
▁violin	-12.02
▁payslip	-12.02
▁baiyy	-12.02
▁avenge	-12.02
▁intrest	-12.02
▁weerasinghe	-12.02
▁frugal	-12.02
▁mintpay	-12.02
▁matale	-12.02
▁alpha	-12.02
▁spokes	-12.02
▁chetti	-12.02
▁nerve	-12.02
