<unk>	0
<s>	0
</s>	0
▁sri	-4.60864
▁like	-4.73179
▁s	-4.83932
▁good	-4.90559
▁	-4.91472
▁lanka	-4.9153
▁people	-4.92477
▁know	-5.09921
▁t	-5.17917
▁think	-5.29301
▁time	-5.31882
▁m	-5.34378
▁work	-5.36274
▁go	-5.3758
ly	-5.38708
▁need	-5.39448
▁get	-5.41801
▁country	-5.44326
e	-5.46199
▁want	-5.47763
▁year	-5.4858
▁look	-5.57585
ing	-5.67002
▁thing	-5.69286
▁pay	-5.74813
▁day	-5.75447
▁try	-5.76788
s	-5.76947
y	-5.78972
▁come	-5.81971
▁place	-5.88306
▁colombo	-5.89525
▁find	-5.89551
▁government	-5.9358
▁way	-5.95172
▁help	-5.97244
▁money	-5.98247
▁thank	-5.98459
▁well	-6.0001
▁say	-6.00368
▁buy	-6.00991
▁sl	-6.01834
▁job	-6.0389
▁lankan	-6.04549
▁experience	-6.05266
er	-6.05274
▁start	-6.07747
▁guy	-6.08614
▁month	-6.13234
▁high	-6.15505
▁right	-6.18543
▁company	-6.18793
▁price	-6.19397
▁plan	-6.20254
▁new	-6.20461
▁ask	-6.20983
▁use	-6.21778
▁lot	-6.24852
d	-6.26081
r	-6.27529
t	-6.27677
▁live	-6.28353
▁don	-6.28947
▁feel	-6.30021
▁life	-6.317
▁see	-6.33509
▁happen	-6.34654
▁issue	-6.34916
▁post	-6.36476
▁not	-6.36835
n	-6.37887
▁long	-6.38237
▁degree	-6.3858
▁friend	-6.38712
▁bad	-6.41421
▁car	-6.45733
▁d	-6.46394
a	-6.49002
▁etc	-6.4954
▁tax	-6.49869
▁sure	-6.50087
▁ve	-6.50518
▁school	-6.51033
▁local	-6.52521
al	-6.52704
▁let	-6.53404
▁change	-6.54154
▁bank	-6.5446
▁university	-6.5493
▁mean	-6.54987
▁give	-6.55175
▁hear	-6.55844
▁take	-6.56138
▁travel	-6.56498
ed	-6.56858
▁student	-6.57198
▁cost	-6.58201
▁u	-6.5838
▁business	-6.59739
▁tell	-6.59931
▁hi	-6.60333
▁end	-6.6334
▁advice	-6.63878
▁option	-6.66935
▁love	-6.6783
▁learn	-6.68225
▁actually	-6.6897
▁family	-6.69967
▁question	-6.70715
▁hard	-6.70869
▁visit	-6.71229
▁market	-6.74093
▁check	-6.74358
▁point	-6.74377
▁study	-6.74484
▁old	-6.75404
▁problem	-6.7702
▁service	-6.77541
▁vote	-6.77834
▁salary	-6.77881
▁account	-6.78159
▁make	-6.79853
▁idea	-6.80102
▁big	-6.81807
▁power	-6.81931
▁leave	-6.82476
▁tamil	-6.83812
▁consider	-6.84251
▁talk	-6.84486
▁stay	-6.8492
▁maybe	-6.85289
▁man	-6.8535
▁week	-6.85906
▁person	-6.86382
▁understand	-6.86443
▁free	-6.87012
▁vehicle	-6.88952
▁online	-6.8934
m	-6.89344
ion	-6.89416
▁bit	-6.89461
▁private	-6.89592
▁low	-6.90152
▁party	-6.91123
▁different	-6.91548
▁system	-6.91771
▁base	-6.92956
▁parent	-6.93427
▁call	-6.94039
▁great	-6.94049
▁appreciate	-6.94114
▁reason	-6.94854
▁share	-6.94985
▁income	-6.95059
▁world	-6.95258
▁home	-6.95463
▁situation	-6.96292
▁area	-6.96499
▁l	-6.96848
▁support	-6.97279
▁run	-6.97995
▁food	-6.98887
▁small	-6.99314
▁card	-6.99618
▁build	-6.99684
▁open	-6.99698
▁yes	-7.00475
▁pretty	-7.00678
▁uni	-7.00836
▁public	-7.00872
▁recommend	-7.00991
▁offer	-7.01563
▁kind	-7.02754
▁stuff	-7.02799
▁have	-7.03079
▁currently	-7.03453
▁shit	-7.03861
c	-7.04356
▁class	-7.04885
▁foreign	-7.0541
▁stop	-7.05483
▁spend	-7.05682
▁able	-7.06182
▁hey	-7.06525
▁level	-7.06674
▁education	-7.07178
▁india	-7.07465
▁case	-7.08077
▁sinhala	-7.08265
▁hope	-7.08304
▁sell	-7.08327
▁current	-7.08672
▁bus	-7.08763
o	-7.08964
▁bring	-7.09237
▁apply	-7.09409
▁recently	-7.09593
▁state	-7.10244
▁term	-7.10388
▁house	-7.11447
▁real	-7.12214
▁law	-7.12381
▁english	-7.1306
▁app	-7.13098
▁book	-7.13236
▁number	-7.14049
▁far	-7.1435
▁read	-7.14578
▁wonder	-7.14855
▁to	-7.15638
▁rate	-7.15981
▁g	-7.16206
▁earn	-7.16327
or	-7.16619
▁probably	-7.17154
▁speak	-7.17774
▁advance	-7.17864
▁future	-7.18269
▁election	-7.1838
▁ranil	-7.18402
▁abroad	-7.18788
▁phone	-7.19174
▁worth	-7.20081
▁especially	-7.20096
▁invest	-7.20159
▁easy	-7.20448
▁recommendation	-7.21129
▁mention	-7.21246
▁care	-7.21325
▁medium	-7.21335
▁social	-7.21447
▁course	-7.21556
b	-7.21615
▁lol	-7.21632
▁win	-7.22474
▁similar	-7.22497
▁face	-7.22619
p	-7.2289
▁kid	-7.22955
▁possible	-7.23038
▁hand	-7.23375
▁lkr	-7.2376
▁send	-7.23911
h	-7.24094
▁comment	-7.2414
▁loan	-7.25145
▁drive	-7.2636
▁taxis	-7.26453
l	-7.26788
▁doctor	-7.27194
▁increase	-7.27301
▁npp	-7.27576
▁land	-7.27588
▁play	-7.27939
▁cause	-7.27951
▁follow	-7.28285
▁believe	-7.29001
▁package	-7.29198
▁expect	-7.29723
▁watch	-7.29969
▁war	-7.29994
▁close	-7.30269
ic	-7.30393
▁political	-7.30471
▁will	-7.30866
▁visa	-7.31161
▁economy	-7.31431
▁police	-7.31509
▁opinion	-7.3153
▁trip	-7.3164
▁charge	-7.32042
▁order	-7.3232
▁cheap	-7.32321
▁wrong	-7.32818
▁matter	-7.33135
▁r	-7.33566
▁one	-7.33849
▁away	-7.34077
▁ll	-7.34079
▁ago	-7.34107
▁wait	-7.34431
▁mind	-7.3462
▁provide	-7.34848
i	-7.34904
▁instead	-7.34935
▁remember	-7.3504
▁group	-7.35045
▁quality	-7.35257
▁economic	-7.35295
▁tourist	-7.35372
▁lose	-7.35484
▁opportunity	-7.35753
▁lankans	-7.3579
▁hour	-7.36067
▁kandy	-7.36165
▁payment	-7.36465
▁thought	-7.37098
▁fund	-7.37151
▁datum	-7.37411
▁e	-7.37473
▁import	-7.37544
▁budget	-7.38039
able	-7.38118
▁personal	-7.38414
▁usually	-7.38568
▁true	-7.38778
▁yeah	-7.39104
▁little	-7.39415
▁process	-7.40056
te	-7.40722
▁industry	-7.40918
▁science	-7.40933
▁politician	-7.41034
▁president	-7.41119
▁al	-7.41158
▁project	-7.41352
▁un	-7.41787
▁past	-7.41815
▁add	-7.41896
▁culture	-7.42123
▁compare	-7.42334
▁b	-7.42356
▁south	-7.42894
▁product	-7.42973
▁suggestion	-7.43093
▁investment	-7.43709
▁choose	-7.44105
▁save	-7.44492
▁field	-7.44792
▁allow	-7.44873
▁include	-7.4489
▁result	-7.45454
▁deal	-7.45982
▁suggest	-7.46262
▁policy	-7.46478
▁game	-7.46598
▁driver	-7.46709
▁engineering	-7.46954
▁girl	-7.47172
▁video	-7.47307
▁research	-7.47397
▁night	-7.47405
▁today	-7.47517
▁brand	-7.48093
▁million	-7.48445
▁agree	-7.48752
▁shop	-7.49295
▁child	-7.49846
▁notice	-7.51057
▁create	-7.51298
▁cut	-7.516
▁woman	-7.51883
▁hotel	-7.51888
▁interest	-7.5209
▁general	-7.52313
▁example	-7.52734
▁show	-7.53228
▁dialog	-7.5323
▁road	-7.53239
▁depend	-7.53569
▁second	-7.53832
▁exam	-7.53869
▁value	-7.54464
▁couple	-7.55322
▁trust	-7.55349
▁answer	-7.5557
▁fuck	-7.56123
▁relate	-7.56132
▁o	-7.56434
▁available	-7.56451
▁hold	-7.56473
▁fine	-7.56783
▁international	-7.56878
▁information	-7.57353
▁slt	-7.57769
▁city	-7.58069
▁train	-7.58444
▁stock	-7.58506
▁skill	-7.58877
▁guess	-7.5901
▁website	-7.59139
▁usd	-7.59342
▁join	-7.59471
ation	-7.59673
▁career	-7.59748
▁turn	-7.60062
▁chance	-7.60189
▁bro	-7.60215
▁srilanka	-7.60348
▁language	-7.60446
▁soon	-7.61075
▁set	-7.61227
▁meet	-7.61413
▁return	-7.61504
in	-7.61516
▁c	-7.61564
▁definitely	-7.61643
▁fact	-7.61856
▁decide	-7.61904
▁type	-7.62183
▁head	-7.62189
▁pass	-7.62467
▁write	-7.6272
▁safe	-7.62764
▁move	-7.62885
▁speed	-7.62987
▁receive	-7.63246
▁software	-7.63246
▁expensive	-7.6407
▁ai	-7.64188
▁early	-7.64388
▁focus	-7.64744
▁beach	-7.64746
▁interested	-7.64768
▁community	-7.65157
▁p	-7.65163
▁majority	-7.65327
▁honestly	-7.65398
▁internet	-7.65719
▁fix	-7.65992
it	-7.66741
▁story	-7.66829
▁debt	-7.6684
▁program	-7.67231
▁nice	-7.67352
▁decent	-7.67531
▁news	-7.67823
▁manage	-7.67851
g	-7.67979
le	-7.68001
▁hospital	-7.68049
▁short	-7.68784
ity	-7.69132
▁f	-7.69189
▁fee	-7.69287
on	-7.6942
▁hello	-7.6976
▁grow	-7.69816
▁connection	-7.70741
▁main	-7.70938
an	-7.71053
▁credit	-7.71335
▁tip	-7.71515
▁proper	-7.71549
▁middle	-7.71561
▁water	-7.71892
▁akd	-7.72298
▁basically	-7.72312
▁doesn	-7.72446
▁total	-7.72455
▁rent	-7.73131
▁break	-7.73402
▁near	-7.73483
▁non	-7.73722
▁age	-7.73766
▁uk	-7.73988
▁decision	-7.74241
▁fuel	-7.74392
u	-7.74622
▁w	-7.74764
▁report	-7.74849
▁keep	-7.74877
▁lead	-7.75067
▁corruption	-7.75069
▁contact	-7.75151
▁sector	-7.75305
▁galle	-7.75319
▁require	-7.75417
▁act	-7.75604
▁sound	-7.75915
▁complete	-7.75939
▁in	-7.76116
st	-7.76311
▁normal	-7.77057
▁health	-7.77154
▁item	-7.77462
▁history	-7.77775
▁young	-7.78091
▁common	-7.78247
▁indian	-7.78313
▁position	-7.7859
▁financial	-7.78733
▁parliament	-7.78874
▁choice	-7.78875
▁single	-7.78878
▁cover	-7.79023
▁benefit	-7.79033
▁protest	-7.79591
▁eat	-7.79749
f	-7.7979
▁date	-7.79825
▁wanna	-7.79985
▁engineer	-7.80021
▁national	-7.80024
▁finance	-7.80344
▁rule	-7.80604
▁politic	-7.80616
▁detail	-7.80791
▁force	-7.81952
▁teacher	-7.82143
▁personally	-7.82349
▁office	-7.83049
▁source	-7.83073
▁link	-7.83257
ist	-7.8343
▁scam	-7.83434
▁purchase	-7.8344
▁develop	-7.83625
▁didn	-7.83735
▁line	-7.83877
▁cash	-7.84247
▁crisis	-7.84401
▁avoid	-7.84412
▁legal	-7.84551
ment	-7.84579
▁rs	-7.84846
k	-7.84926
▁subject	-7.85209
▁basic	-7.86074
▁site	-7.86542
▁google	-7.86939
▁list	-7.87118
▁customer	-7.87151
▁tech	-7.87332
en	-7.87378
▁knowledge	-7.87454
▁drop	-7.87645
▁word	-7.87653
▁fall	-7.882
▁curious	-7.88321
▁waste	-7.88367
▁huge	-7.88507
▁later	-7.88789
▁happy	-7.88842
▁reddit	-7.88939
▁edit	-7.89077
▁paper	-7.8919
▁certain	-7.89436
▁reduce	-7.89543
▁expense	-7.89719
▁math	-7.89832
▁teach	-7.89866
▁transfer	-7.89895
▁internship	-7.899
▁bill	-7.90003
▁airport	-7.90074
▁medical	-7.90118
▁self	-7.90229
▁pm	-7.90233
▁security	-7.90249
▁important	-7.90302
▁store	-7.90469
▁claim	-7.90983
▁accept	-7.91077
v	-7.91481
▁outside	-7.91668
▁sub	-7.91988
▁govt	-7.92052
▁pro	-7.92115
▁control	-7.92217
▁poor	-7.92257
▁update	-7.92398
▁tuk	-7.92643
▁late	-7.93081
▁genuine	-7.9349
▁demand	-7.9349
▁lack	-7.93511
▁rupee	-7.93673
▁dollar	-7.93856
▁sinhalese	-7.93856
▁view	-7.93913
▁large	-7.93947
▁risk	-7.94287
▁step	-7.94432
▁ella	-7.9466
▁enjoy	-7.94716
▁improve	-7.9474
▁sort	-7.95074
▁employee	-7.95154
▁ls	-7.95274
▁reach	-7.95359
▁super	-7.95441
▁court	-7.95525
▁average	-7.95527
▁graduate	-7.95745
▁exactly	-7.96297
▁luck	-7.96542
▁individual	-7.9665
z	-7.96813
▁china	-7.96842
▁specific	-7.97216
▁literally	-7.9726
▁interview	-7.9736
▁fail	-7.97594
▁team	-7.97681
▁clear	-7.98322
re	-7.98354
▁minister	-7.98366
▁movie	-7.98557
▁hate	-7.98592
ar	-7.98917
▁trade	-7.98946
▁imf	-7.99337
▁plus	-7.9939
▁stand	-7.99519
▁pick	-7.996
▁major	-7.99673
▁sorry	-7.99719
▁custom	-7.99868
▁hire	-8.00269
▁rain	-8.00321
▁figure	-8.005
▁australia	-8.00525
▁master	-8.00553
▁event	-8.00718
▁model	-8.00734
▁laptop	-8.00894
▁sense	-8.00943
▁official	-8.01026
▁religion	-8.01091
▁mobile	-8.01117
x	-8.01158
▁afford	-8.01227
▁test	-8.01335
▁hit	-8.01587
▁strong	-8.01622
▁light	-8.0185
▁re	-8.01982
▁wish	-8.02111
▁moment	-8.02277
▁ur	-8.02481
▁affect	-8.02482
▁difference	-8.02483
ta	-8.02594
▁candidate	-8.02683
▁rich	-8.02924
▁struggle	-8.03287
▁clean	-8.03437
▁explain	-8.03488
▁period	-8.03691
▁music	-8.03895
▁fast	-8.03899
▁stream	-8.03972
▁info	-8.04159
us	-8.04311
▁rest	-8.04382
▁fair	-8.04464
▁title	-8.04505
▁miss	-8.04542
ate	-8.0466
▁human	-8.04665
▁op	-8.04746
▁n	-8.04784
▁difficult	-8.04812
▁gov	-8.04849
▁standard	-8.04935
ce	-8.05218
▁professional	-8.0559
▁de	-8.05872
▁action	-8.05883
▁lk	-8.06144
▁hop	-8.06382
▁handle	-8.0647
▁access	-8.06565
▁isn	-8.06608
▁kinda	-8.06795
▁k	-8.06869
▁message	-8.07002
▁forget	-8.07208
▁actual	-8.07374
▁citizen	-8.07607
▁weather	-8.07617
▁path	-8.07702
w	-8.07821
▁solution	-8.07828
▁entire	-8.08004
▁spot	-8.08033
▁range	-8.08046
▁note	-8.08089
ant	-8.08259
▁management	-8.0831
▁practice	-8.08465
▁limit	-8.08484
▁select	-8.08757
▁jvp	-8.0889
▁restaurant	-8.09317
▁continue	-8.09583
▁covid	-8.09747
▁treat	-8.10044
▁extreme	-8.10178
▁walk	-8.10179
▁medicine	-8.10404
▁previous	-8.10587
▁register	-8.10829
ive	-8.11009
▁extra	-8.11041
▁gain	-8.11085
▁half	-8.11265
▁network	-8.11267
▁foreigner	-8.11508
▁exist	-8.11591
▁forward	-8.11704
▁concern	-8.11782
▁air	-8.11915
▁gota	-8.12007
▁corrupt	-8.12126
▁form	-8.12137
▁currency	-8.12364
▁absolutely	-8.12757
▁society	-8.12807
▁migrate	-8.13033
▁prefer	-8.13235
▁completely	-8.13248
▁insight	-8.13476
ize	-8.13564
▁port	-8.13736
▁island	-8.13925
▁room	-8.14158
▁uber	-8.14187
▁kill	-8.14399
ary	-8.14797
▁stick	-8.14818
▁sport	-8.15149
▁part	-8.15219
▁accord	-8.15275
▁computer	-8.15291
▁bike	-8.15321
▁ltte	-8.15508
▁development	-8.15561
▁hair	-8.1574
▁role	-8.15746
▁monthly	-8.1577
▁pre	-8.15798
▁insurance	-8.16424
▁ticket	-8.16425
▁transport	-8.16835
▁search	-8.17116
▁sajith	-8.17118
▁white	-8.17127
▁gb	-8.17324
▁okay	-8.17591
▁tourism	-8.17824
▁inflation	-8.18048
um	-8.18273
▁reliable	-8.18285
▁dude	-8.18295
▁generation	-8.18312
▁nation	-8.18413
▁switch	-8.18565
▁con	-8.18826
▁tv	-8.18954
▁willing	-8.19179
ra	-8.19341
▁cricket	-8.19461
▁daily	-8.19701
▁simple	-8.19704
▁north	-8.20177
▁recent	-8.20199
▁unfortunately	-8.20479
▁tea	-8.2053
▁remove	-8.20581
▁helpful	-8.20618
th	-8.20652
▁member	-8.20885
▁saving	-8.20895
▁assume	-8.20895
▁correct	-8.21056
na	-8.21607
▁fit	-8.21976
▁platform	-8.22106
▁western	-8.22106
▁fun	-8.22282
▁traffic	-8.22349
▁simply	-8.2238
▁digital	-8.22616
▁leader	-8.22718
▁relationship	-8.23087
▁directly	-8.23151
▁worker	-8.23287
▁blame	-8.23333
▁involve	-8.23538
▁minimum	-8.23578
▁cuz	-8.23826
▁maintain	-8.24081
▁easily	-8.24088
▁youtube	-8.24632
▁document	-8.24742
is	-8.24784
▁sit	-8.24862
▁license	-8.25362
▁bear	-8.2541
▁japan	-8.25576
▁channel	-8.25828
▁wear	-8.25879
▁connect	-8.26233
▁passport	-8.26339
▁canada	-8.26846
▁ppl	-8.26863
▁stupid	-8.27054
▁partner	-8.27097
▁wife	-8.27104
▁attack	-8.27357
▁sign	-8.27539
▁reply	-8.27704
▁review	-8.27875
▁eye	-8.27881
▁complain	-8.27942
▁unit	-8.28024
▁crime	-8.2813
▁profit	-8.28332
▁muslim	-8.28389
▁balance	-8.2865
▁art	-8.28745
▁letter	-8.28749
▁location	-8.28909
▁remote	-8.28909
▁unlimited	-8.28909
▁east	-8.29004
▁owner	-8.29058
▁resource	-8.2917
▁honest	-8.29239
▁till	-8.2934
▁sale	-8.29413
▁multiple	-8.29959
▁folk	-8.29959
▁facebook	-8.30257
▁anymore	-8.30486
▁decade	-8.30491
▁raise	-8.30493
▁condition	-8.30572
▁qualification	-8.30751
▁sliit	-8.30752
▁mother	-8.31082
▁match	-8.31405
▁beautiful	-8.31551
▁finish	-8.31555
▁likely	-8.31884
▁router	-8.3198
▁worry	-8.32088
▁idk	-8.32097
▁hell	-8.32103
▁design	-8.32311
▁property	-8.32394
▁gold	-8.32437
▁physical	-8.32438
▁civil	-8.3263
▁aware	-8.3288
▁email	-8.32902
▁college	-8.33443
▁fight	-8.33717
▁ok	-8.33893
▁btw	-8.33991
▁potential	-8.33991
▁army	-8.34128
▁address	-8.34268
▁apartment	-8.3429
ry	-8.34423
▁certificate	-8.34817
▁mainly	-8.34854
▁be	-8.34947
▁brother	-8.35094
▁ride	-8.35113
▁space	-8.35161
▁realize	-8.35194
▁suppose	-8.35372
▁z	-8.35462
▁regular	-8.35651
▁crazy	-8.3593
▁exchange	-8.3593
▁military	-8.36211
▁enter	-8.36246
ur	-8.36267
▁bar	-8.36365
▁fake	-8.36775
▁code	-8.36781
▁overseas	-8.37055
line	-8.37084
▁ass	-8.3715
▁se	-8.37171
▁singapore	-8.37338
▁seat	-8.37499
▁tho	-8.37527
▁cool	-8.37633
ya	-8.37996
▁obviously	-8.38089
▁park	-8.38164
▁page	-8.38249
▁request	-8.38479
▁red	-8.38626
▁user	-8.38702
▁educate	-8.38767
ise	-8.39059
▁imo	-8.39084
▁club	-8.39084
▁sad	-8.39093
▁push	-8.39344
▁file	-8.39398
▁catch	-8.39652
▁wedding	-8.39924
▁fully	-8.39965
▁slow	-8.39983
▁oh	-8.40343
▁a	-8.40458
▁ban	-8.40473
▁boy	-8.40588
▁inside	-8.40811
▁marriage	-8.40812
ne	-8.40899
▁ad	-8.4093
▁content	-8.41096
▁central	-8.41098
▁lawyer	-8.41098
age	-8.41498
▁random	-8.41687
▁mess	-8.42087
▁smart	-8.42277
▁block	-8.42323
▁vs	-8.42581
▁properly	-8.42614
▁environment	-8.42729
▁amazing	-8.42879
▁senior	-8.42879
▁export	-8.42882
▁die	-8.42967
▁gym	-8.4318
ful	-8.43227
▁imagine	-8.43236
ness	-8.43373
▁dad	-8.43882
▁method	-8.44086
▁staff	-8.44087
▁alternative	-8.44089
▁grade	-8.44126
▁ac	-8.44258
▁rajapaksa	-8.44397
▁unp	-8.444
▁station	-8.44526
▁interesting	-8.44734
▁remain	-8.45
▁x	-8.4525
▁marry	-8.45319
▁mark	-8.45472
▁officer	-8.45659
▁promise	-8.45663
▁buddhist	-8.45923
▁implement	-8.46233
▁wise	-8.46262
▁deposit	-8.46543
▁morning	-8.46543
▁activity	-8.46552
▁street	-8.46563
▁mid	-8.46579
▁requirement	-8.46623
▁dog	-8.46624
▁startup	-8.46746
▁popular	-8.46965
▁reality	-8.47031
▁protect	-8.47066
▁put	-8.47147
▁doubt	-8.47167
▁particular	-8.47167
▁release	-8.47167
▁topic	-8.47184
▁finally	-8.47298
▁contract	-8.47405
▁special	-8.47443
▁chinese	-8.47481
▁track	-8.47489
▁illegal	-8.47646
▁route	-8.47923
▁carry	-8.47981
▁jaffna	-8.48111
▁dream	-8.48111
▁listen	-8.48183
▁dm	-8.48275
▁srilankan	-8.48389
▁repair	-8.48746
▁fill	-8.48763
▁goal	-8.48856
▁coast	-8.49063
▁population	-8.49064
▁seek	-8.49085
▁drink	-8.49365
▁religious	-8.49383
▁seriously	-8.49383
▁truly	-8.49384
ie	-8.49387
man	-8.4941
▁father	-8.49483
▁v	-8.49484
▁respect	-8.49651
▁perfect	-8.49703
▁technology	-8.49703
el	-8.49818
▁manager	-8.4984
▁lie	-8.5
▁global	-8.5021
▁mom	-8.5031
▁explore	-8.50352
▁temple	-8.50383
il	-8.50609
▁black	-8.50656
▁background	-8.50672
▁cs	-8.50793
▁mental	-8.51144
▁final	-8.51227
▁fellow	-8.51321
▁pursue	-8.51321
▁department	-8.51326
▁electricity	-8.51358
▁com	-8.51384
ve	-8.51644
▁minute	-8.51652
▁ex	-8.51761
▁friendly	-8.51893
am	-8.51908
▁battery	-8.51976
less	-8.52092
▁context	-8.52305
▁welcome	-8.52305
▁pickme	-8.52329
ish	-8.52431
▁tend	-8.52514
▁living	-8.52987
▁sjb	-8.53299
▁mahinda	-8.53311
▁suffer	-8.53617
▁overall	-8.53636
wa	-8.53738
▁clearly	-8.54095
▁despi	-8.54284
▁fan	-8.54375
▁specially	-8.54473
▁west	-8.54665
▁apparently	-8.54673
et	-8.54688
▁record	-8.54965
▁ship	-8.54991
▁score	-8.55161
▁god	-8.55294
▁arrive	-8.55315
▁article	-8.55315
▁anybody	-8.55316
▁solid	-8.55318
ul	-8.55439
▁relative	-8.55537
▁effort	-8.55656
▁energy	-8.55666
▁specifically	-8.55685
▁guide	-8.55974
ty	-8.55993
▁impact	-8.55999
▁wage	-8.5606
▁growth	-8.56063
▁body	-8.56248
▁institution	-8.56339
ri	-8.56465
la	-8.56498
id	-8.56731
▁h	-8.56773
▁you	-8.57247
▁hopefully	-8.57432
▁usa	-8.57449
▁comfortable	-8.57748
▁board	-8.57869
▁elect	-8.57888
▁academic	-8.58079
▁oil	-8.58225
▁crypto	-8.58422
▁tbh	-8.58439
▁solve	-8.58475
▁fire	-8.58484
▁prove	-8.58517
▁rid	-8.58754
se	-8.5883
▁anti	-8.58949
ch	-8.58991
▁throw	-8.59126
▁hide	-8.59229
▁j	-8.59244
▁client	-8.59476
▁safety	-8.59527
▁data	-8.59536
▁an	-8.59598
▁settle	-8.59801
▁attend	-8.59812
▁supply	-8.5983
▁collect	-8.60054
▁original	-8.60115
▁bunch	-8.60188
▁opposition	-8.60189
▁damn	-8.60212
▁hot	-8.60251
▁fly	-8.60319
up	-8.60372
▁dumb	-8.60536
▁scholarship	-8.60544
▁institute	-8.60901
iya	-8.61104
▁achieve	-8.61222
▁photo	-8.61255
▁death	-8.6129
▁rise	-8.61353
▁union	-8.61466
▁direct	-8.61479
▁subreddit	-8.61622
▁vibe	-8.61655
▁luxury	-8.6166
▁application	-8.61984
▁nuwara	-8.62005
▁mistake	-8.62175
▁generally	-8.62269
▁asia	-8.62271
▁ps	-8.624
▁pc	-8.62521
▁web	-8.62714
▁active	-8.62785
▁joke	-8.62892
▁significant	-8.63008
▁intern	-8.63009
▁download	-8.6308
▁cultural	-8.6311
▁dead	-8.63126
▁marketing	-8.63158
▁arrest	-8.63447
▁eventually	-8.63447
▁picture	-8.63449
▁name	-8.6346
▁campus	-8.63463
ent	-8.63824
▁regardless	-8.63826
j	-8.6397
▁key	-8.64027
▁target	-8.64186
▁straight	-8.64558
▁factor	-8.64842
▁facility	-8.64931
▁drug	-8.64938
▁positive	-8.64942
▁deliver	-8.65
▁capital	-8.65006
▁haven	-8.65051
nt	-8.65052
▁copy	-8.6511
▁stable	-8.65128
ance	-8.65151
▁over	-8.65244
▁reasonable	-8.65272
▁advise	-8.65306
▁brain	-8.65312
▁complaint	-8.65579
▁deep	-8.65615
ese	-8.65658
▁double	-8.65682
▁female	-8.65682
▁delivery	-8.6599
▁print	-8.66116
▁affordable	-8.66178
▁crowd	-8.66438
▁atleast	-8.66438
▁expert	-8.66438
▁sim	-8.66514
▁employer	-8.66568
▁peace	-8.66796
▁foundation	-8.66822
▁cook	-8.66868
ia	-8.6701
▁technical	-8.672
ol	-8.67207
▁steal	-8.67588
▁tia	-8.67736
▁idiot	-8.67893
▁response	-8.67967
▁season	-8.6836
▁mate	-8.68505
▁own	-8.68593
▁necessary	-8.68741
▁foot	-8.6875
ter	-8.69096
▁trading	-8.6913
▁namal	-8.6913
▁mobitel	-8.69146
ge	-8.69175
▁ground	-8.69228
▁replace	-8.69485
▁aren	-8.69559
▁europe	-8.69872
▁ignore	-8.69913
▁asset	-8.69942
▁loss	-8.70012
▁worried	-8.70307
▁anura	-8.70307
▁zero	-8.70307
▁entry	-8.70313
▁july	-8.70411
ism	-8.70593
da	-8.70674
▁cancel	-8.70702
▁physics	-8.70702
▁tour	-8.70987
ro	-8.70988
▁quick	-8.7104
▁mp	-8.71098
▁convert	-8.71099
▁iit	-8.71157
▁discuss	-8.71395
▁survive	-8.71497
▁mirissa	-8.71498
▁billion	-8.71567
▁eliya	-8.71609
▁traditional	-8.71638
▁trouble	-8.71897
▁british	-8.71901
▁pull	-8.7191
un	-8.72255
▁incident	-8.72299
▁promote	-8.72315
▁adult	-8.72336
▁na	-8.72396
▁bc	-8.72537
▁electric	-8.72649
▁blood	-8.72695
▁mindset	-8.72716
▁version	-8.7272
▁rag	-8.72878
▁mr	-8.72969
▁serve	-8.72974
▁exact	-8.73064
▁effect	-8.73077
▁legit	-8.73127
▁weekend	-8.73132
▁rank	-8.73135
▁greatly	-8.73415
▁truth	-8.73514
▁stress	-8.7356
▁hr	-8.73673
▁rw	-8.73908
▁initial	-8.73922
▁touch	-8.73922
▁flight	-8.73938
▁broker	-8.73971
▁town	-8.73993
▁milk	-8.7402
▁asian	-8.74119
▁dr	-8.74274
▁heavy	-8.74331
▁sigiriya	-8.74331
▁fear	-8.74344
▁count	-8.74645
▁po	-8.74651
▁elephant	-8.74743
▁holiday	-8.74743
▁bio	-8.74826
▁confirm	-8.75106
▁out	-8.75123
ally	-8.75139
▁purpose	-8.75156
▁itinerary	-8.75156
▁tuition	-8.75156
▁weird	-8.75156
▁gas	-8.75477
▁refer	-8.75607
ine	-8.75659
▁plent	-8.75993
▁pressure	-8.75993
▁center	-8.76104
▁lease	-8.76105
▁gen	-8.76294
▁produce	-8.76406
▁racist	-8.76406
▁reform	-8.76411
▁modern	-8.7642
▁warranty	-8.76427
▁suck	-8.76604
▁commercial	-8.76826
▁negative	-8.76827
▁cse	-8.77105
as	-8.77182
▁skin	-8.77186
▁massive	-8.77237
ial	-8.7736
at	-8.77378
li	-8.77397
▁statement	-8.77457
▁influence	-8.77483
▁commission	-8.77672
▁yesterday	-8.77672
▁ict	-8.77698
▁agent	-8.77733
▁separate	-8.78063
▁employment	-8.78122
▁voter	-8.78326
▁present	-8.78474
▁deserve	-8.78525
▁proof	-8.78535
▁discussion	-8.78634
▁ready	-8.78818
▁mon	-8.78908
▁moratuwa	-8.78954
▁refuse	-8.78955
▁ahead	-8.78958
▁minority	-8.78972
▁faculty	-8.79385
▁patient	-8.79385
▁nature	-8.79391
▁preferably	-8.79401
▁burn	-8.79438
▁emergency	-8.79818
▁approach	-8.79823
▁ed	-8.80026
▁shoe	-8.80256
▁performance	-8.80265
▁healthcare	-8.80266
▁training	-8.80548
▁fucking	-8.80575
▁mass	-8.80585
▁progress	-8.80659
▁freedom	-8.8069
▁spread	-8.80691
▁revenue	-8.80693
▁feed	-8.80888
▁tough	-8.81569
▁piece	-8.81569
▁pr	-8.81782
▁km	-8.81858
▁inform	-8.81961
▁commit	-8.81997
▁district	-8.82011
▁petrol	-8.82011
▁trend	-8.82012
▁feedback	-8.82016
▁duty	-8.82018
▁fb	-8.82404
▁bachelor	-8.82456
▁campaign	-8.82456
▁hike	-8.82767
▁authority	-8.82915
▁sleep	-8.82929
ous	-8.83029
▁barely	-8.83109
▁chill	-8.83166
ana	-8.83172
▁usual	-8.83343
▁rajapaksha	-8.8335
▁transaction	-8.8335
▁baby	-8.83353
▁electronic	-8.83801
▁reserve	-8.83801
▁firm	-8.83801
▁corporate	-8.83897
▁up	-8.8396
▁co	-8.84062
▁mil	-8.84123
▁apart	-8.84217
▁approve	-8.84253
▁attention	-8.84254
▁fiber	-8.84256
▁song	-8.84503
ma	-8.84629
▁wifi	-8.84716
▁race	-8.84726
▁status	-8.84759
▁ch	-8.84797
▁advantage	-8.85165
▁secure	-8.85167
▁glad	-8.85167
▁lay	-8.85259
▁useful	-8.8547
▁abuse	-8.85633
▁green	-8.85659
▁banking	-8.85883
▁challenge	-8.86084
▁thread	-8.86086
▁device	-8.86093
▁surf	-8.86094
▁image	-8.86094
▁solo	-8.86108
▁cafe	-8.8615
▁pure	-8.86205
▁slight	-8.86407
▁justice	-8.86547
▁sudden	-8.86547
me	-8.86603
▁scene	-8.86664
▁star	-8.86801
out	-8.86805
▁discipline	-8.87012
▁negombo	-8.87012
▁responsibility	-8.87012
▁talent	-8.87053
ka	-8.87054
▁ar	-8.87268
▁size	-8.87348
▁hang	-8.87474
▁discount	-8.8748
▁shift	-8.87481
▁begin	-8.87979
▁min	-8.88082
ural	-8.88154
▁vi	-8.88268
▁infrastructure	-8.88421
▁em	-8.88683
▁introduce	-8.88932
▁august	-8.89371
▁whatsapp	-8.89371
▁conversation	-8.89381
▁strike	-8.8985
▁ruin	-8.8986
▁meal	-8.89872
▁slpp	-8.89928
▁hat	-8.89951
▁prepare	-8.90137
▁dis	-8.90292
▁prevent	-8.90336
▁practical	-8.90352
▁scale	-8.90364
▁rice	-8.90431
▁useless	-8.90623
▁feeling	-8.90666
▁valid	-8.90733
▁investor	-8.90757
▁style	-8.90814
▁agency	-8.90815
▁prime	-8.91301
im	-8.91514
▁fresh	-8.91583
▁reject	-8.91683
▁building	-8.91695
▁sex	-8.91771
▁material	-8.91786
de	-8.92054
▁ig	-8.9209
▁flag	-8.92267
▁december	-8.92276
▁permit	-8.92276
▁feature	-8.92769
▁perspective	-8.92769
▁trump	-8.92769
▁ceylon	-8.92775
▁pls	-8.92841
▁sh	-8.92907
▁immediately	-8.92941
▁cat	-8.93023
▁american	-8.93065
▁tomorrow	-8.93264
▁vaccine	-8.93264
▁presidential	-8.93343
co	-8.93583
▁chat	-8.93802
▁st	-8.93939
ha	-8.9396
▁wealth	-8.93989
▁apple	-8.94048
▁shy	-8.94082
▁diploma	-8.94245
▁aliexpress	-8.94262
▁text	-8.94264
▁bond	-8.94266
▁football	-8.94267
▁attempt	-8.94764
▁tool	-8.94867
▁pa	-8.94925
ot	-8.94958
▁heart	-8.95193
▁october	-8.95269
▁violence	-8.95269
▁would	-8.95271
▁concept	-8.95273
▁unique	-8.95318
▁recover	-8.95473
▁male	-8.95537
▁inter	-8.95668
▁ol	-8.95671
▁fibre	-8.95777
▁clothe	-8.9582
▁region	-8.95993
▁machine	-8.96287
▁responsible	-8.96287
▁stage	-8.96313
▁side	-8.96388
▁understanding	-8.96541
▁was	-8.96556
ak	-8.96656
▁left	-8.968
▁bribe	-8.968
▁express	-8.97207
▁pet	-8.9728
▁indians	-8.97314
▁taste	-8.97322
▁alot	-8.9738
▁bag	-8.97817
▁delay	-8.97838
▁shipping	-8.97841
▁immigration	-8.9785
▁shitty	-8.97972
▁cou	-8.98228
▁animal	-8.98354
▁registration	-8.98354
▁camera	-8.98356
▁i	-8.98404
▁load	-8.98451
▁ideally	-8.9881
▁november	-8.98878
▁cinema	-8.98878
▁communication	-8.98891
▁bottle	-8.99405
▁operate	-8.99984
▁bet	-9.00332
sa	-9.00375
▁competition	-9.00465
▁democracy	-9.00465
▁racism	-9.00465
▁byd	-9.00468
▁damage	-9.0047
▁contribute	-9.00504
▁phd	-9.01
▁cross	-9.01002
▁iphone	-9.01004
est	-9.01294
▁divide	-9.01533
▁evidence	-9.01538
▁fault	-9.01538
▁jump	-9.01543
▁peak	-9.01544
▁essential	-9.01618
▁king	-9.01869
▁mix	-9.01946
▁cal	-9.01982
ian	-9.02052
▁church	-9.02078
▁coffee	-9.0213
▁shortage	-9.02162
▁bsc	-9.02165
▁ya	-9.02167
▁ton	-9.02168
▁ba	-9.02441
to	-9.02454
▁financially	-9.02568
▁branch	-9.02622
▁toxic	-9.02622
▁upper	-9.02631
▁construction	-9.02637
▁la	-9.0274
▁developer	-9.02853
book	-9.0292
▁appoint	-9.0313
▁pack	-9.03156
▁husband	-9.03168
▁queue	-9.03168
▁cyber	-9.03168
▁june	-9.03235
▁additional	-9.03334
▁bs	-9.03433
lo	-9.03533
▁april	-9.03718
▁back	-9.04012
▁lecture	-9.04099
ara	-9.04167
▁freelance	-9.04196
▁impossible	-9.0427
▁guarantee	-9.04271
▁organization	-9.04271
ud	-9.04321
▁monk	-9.04324
ala	-9.04533
▁lately	-9.04557
▁primar	-9.04663
▁false	-9.04826
▁scheme	-9.04826
▁upgrade	-9.04827
▁dress	-9.04835
▁restriction	-9.04866
▁hurt	-9.04904
ti	-9.0518
▁january	-9.05384
▁monitor	-9.05384
▁volunteer	-9.05384
▁toyo	-9.05417
▁wide	-9.0572
ho	-9.05724
▁bat	-9.05874
▁sick	-9.05885
▁rental	-9.05938
▁somewhat	-9.05946
▁distance	-9.05946
▁recognize	-9.05946
▁lmao	-9.05946
▁highway	-9.06137
▁chemistry	-9.06511
▁executive	-9.06511
▁lifestyle	-9.06511
▁regret	-9.06511
▁estate	-9.06511
▁obtain	-9.06512
▁youth	-9.0656
▁treatment	-9.06614
▁cap	-9.07108
▁door	-9.07133
ily	-9.07281
▁maintenance	-9.07651
▁september	-9.07651
▁twice	-9.07651
▁paypal	-9.07654
▁criminal	-9.07967
▁vat	-9.07983
▁sadly	-9.07992
▁limited	-9.08033
▁climate	-9.08226
▁lady	-9.08226
▁conflict	-9.08228
▁anyways	-9.08244
▁confused	-9.08337
▁surprised	-9.08356
▁sea	-9.08452
▁pain	-9.08586
▁success	-9.08781
▁submit	-9.08804
ee	-9.08847
▁encourage	-9.08859
ama	-9.09115
▁nic	-9.09293
▁gaming	-9.0939
▁sister	-9.09392
▁root	-9.09492
▁box	-9.09714
▁ideal	-9.09964
▁tariff	-9.0997
▁annual	-9.10091
pura	-9.10342
▁withdraw	-9.1041
▁ethnic	-9.10512
ster	-9.10531
▁map	-9.10544
▁innocent	-9.10558
▁ministry	-9.10558
▁relevant	-9.10558
▁dubai	-9.1056
▁priority	-9.10597
▁fr	-9.10674
▁absolute	-9.10691
▁press	-9.10821
▁cycle	-9.10832
ss	-9.11031
▁rock	-9.11131
▁guidance	-9.1115
▁schedule	-9.1115
ldn	-9.11247
▁natural	-9.11283
▁gift	-9.1129
▁airline	-9.1149
▁remind	-9.11511
▁bay	-9.11679
▁aspect	-9.11745
▁syllabus	-9.11745
▁repeat	-9.11745
bo	-9.11837
▁screen	-9.11852
▁coz	-9.12078
▁provider	-9.12257
▁taxi	-9.12319
▁london	-9.12344
▁effective	-9.12589
▁player	-9.12636
▁fish	-9.12706
om	-9.129
▁competitive	-9.12946
▁lesson	-9.12973
▁citizenship	-9.12975
▁transportation	-9.13077
▁grand	-9.13096
▁successful	-9.13152
▁rely	-9.13162
▁judge	-9.13512
▁everyday	-9.13553
▁setup	-9.13638
▁meme	-9.13674
▁fd	-9.13696
ba	-9.13798
▁signal	-9.139
▁slowly	-9.13902
▁arm	-9.14068
▁associate	-9.14162
▁bother	-9.14164
▁generate	-9.14172
▁insane	-9.14312
▁cv	-9.14455
▁counter	-9.14514
▁son	-9.1452
os	-9.14719
▁destroy	-9.14775
▁sampath	-9.14776
▁undergraduate	-9.14777
▁european	-9.14845
▁consumer	-9.14871
ke	-9.15108
▁max	-9.15112
▁legally	-9.15244
he	-9.15372
ki	-9.15375
▁instagram	-9.15393
▁migration	-9.15394
▁appointment	-9.15437
▁village	-9.15531
▁independent	-9.15549
▁thinking	-9.15606
▁bi	-9.15621
▁mar	-9.15668
▁healthy	-9.15996
▁refund	-9.16014
▁regulation	-9.16014
▁gender	-9.16016
▁agreement	-9.16223
op	-9.16335
▁motor	-9.16546
▁journey	-9.16639
▁bullshit	-9.1664
▁funny	-9.1664
▁window	-9.16644
▁solar	-9.16648
▁march	-9.16658
▁girlfriend	-9.16659
▁perform	-9.167
▁quickly	-9.16735
▁locally	-9.16788
▁peaceful	-9.16842
▁busy	-9.17209
▁adopt	-9.17268
▁section	-9.17272
▁province	-9.17418
way	-9.17545
▁host	-9.17785
▁justify	-9.179
▁dinner	-9.17936
▁mad	-9.18006
▁y	-9.18208
q	-9.18387
▁sir	-9.18465
▁bonus	-9.18538
▁cousin	-9.18538
▁labour	-9.18542
▁fort	-9.18565
▁beat	-9.18592
▁ability	-9.18942
▁cop	-9.18997
▁table	-9.1909
▁blind	-9.19178
▁external	-9.19178
▁gdp	-9.1918
▁hutch	-9.19191
▁seller	-9.19194
▁usage	-9.19211
ship	-9.19326
▁fairly	-9.19336
tion	-9.19364
▁scenario	-9.19824
▁mechanic	-9.19824
▁delete	-9.19824
▁structure	-9.1985
▁batch	-9.19867
▁realise	-9.20006
▁strict	-9.20008
▁under	-9.20133
▁engine	-9.20243
▁independence	-9.20473
and	-9.20699
▁cry	-9.20758
▁aim	-9.21006
▁coconut	-9.21127
▁victim	-9.21127
ut	-9.21175
ard	-9.21187
▁shame	-9.21188
▁mentality	-9.21219
▁af	-9.21248
han	-9.21259
▁direction	-9.21311
▁era	-9.21355
ay	-9.21365
▁mo	-9.21538
▁net	-9.2159
▁passion	-9.21594
▁ab	-9.21765
▁attitude	-9.21784
▁complex	-9.21784
▁ensure	-9.21784
▁heavily	-9.21784
▁wtf	-9.21785
▁session	-9.21785
▁display	-9.21787
▁ikman	-9.21799
▁pharmacy	-9.21865
▁maha	-9.21912
▁voice	-9.21958
▁supporter	-9.22032
▁equal	-9.22058
▁freelancer	-9.22099
▁ball	-9.22216
▁th	-9.22396
▁represent	-9.22408
ir	-9.22411
▁sexual	-9.22413
▁celebrate	-9.22447
▁garbage	-9.22447
▁hnb	-9.22447
▁skip	-9.22447
▁terrible	-9.2248
▁suit	-9.225
▁par	-9.22576
ath	-9.22812
sp	-9.22836
▁mod	-9.22948
▁appreciated	-9.23004
va	-9.23047
tha	-9.23061
▁commerce	-9.23113
▁linkedin	-9.23114
▁aside	-9.23127
▁valuable	-9.23153
ru	-9.2338
▁lucky	-9.23532
▁pop	-9.23766
ization	-9.23768
▁samsung	-9.23785
▁strategy	-9.23785
▁blue	-9.23785
▁ridiculous	-9.23786
▁film	-9.23799
▁proud	-9.23827
▁ethnicity	-9.23837
vi	-9.23868
▁relatively	-9.24018
▁lecturer	-9.24027
hi	-9.24041
▁heat	-9.24045
go	-9.24154
▁destination	-9.2446
▁forex	-9.24474
▁yala	-9.245
▁ceb	-9.24518
▁skilled	-9.24524
▁sun	-9.24723
▁influencer	-9.24763
▁donate	-9.25057
ah	-9.25091
▁buddhism	-9.2514
▁hassle	-9.25141
▁starlink	-9.25142
▁entirely	-9.25254
▁prior	-9.25794
▁arrival	-9.25825
▁tuktuk	-9.25825
▁daraz	-9.25826
▁bugger	-9.25828
▁percentage	-9.25838
▁hous	-9.26026
▁employ	-9.26226
▁meeting	-9.2624
▁sp	-9.26248
▁ma	-9.26256
▁afraid	-9.26515
▁basis	-9.26521
▁loud	-9.26524
▁kick	-9.26539
▁mafia	-9.27209
▁vacation	-9.27209
▁extend	-9.2721
▁profile	-9.27212
▁nearby	-9.27226
▁dark	-9.27227
▁constitution	-9.27363
si	-9.27492
▁spending	-9.27585
▁teaching	-9.27878
▁council	-9.27909
▁weight	-9.27956
▁gap	-9.28017
▁easter	-9.28261
▁accident	-9.28293
▁unable	-9.28311
▁cod	-9.28524
▁establish	-9.28574
▁approval	-9.28613
▁argue	-9.28613
▁efficient	-9.28613
▁identify	-9.28613
▁nowadays	-9.28613
▁thousand	-9.28613
▁task	-9.28614
▁index	-9.28616
▁famous	-9.28619
▁drama	-9.28638
sh	-9.28791
time	-9.28805
▁rn	-9.28982
▁mac	-9.29027
▁relax	-9.29179
▁resign	-9.29273
▁uncle	-9.29288
▁married	-9.29322
▁measure	-9.29322
▁procedure	-9.29322
▁aragalaya	-9.29323
▁trash	-9.29326
▁conduct	-9.29331
▁preference	-9.2935
▁nearly	-9.29365
ga	-9.29365
▁last	-9.29381
▁expectation	-9.29692
▁leg	-9.2993
▁ka	-9.29939
ow	-9.30017
▁evening	-9.30037
▁cloud	-9.30045
▁movement	-9.30246
▁obvious	-9.30298
▁driving	-9.30756
▁beginner	-9.30766
▁ev	-9.30804
ig	-9.30857
▁camp	-9.31048
▁sa	-9.31239
ory	-9.31299
▁poverty	-9.31481
▁epf	-9.31481
▁birthday	-9.31483
▁theory	-9.31485
▁clothing	-9.3153
ence	-9.31596
▁gr	-9.31657
▁tie	-9.31668
▁rant	-9.31889
▁yo	-9.31946
ang	-9.32033
▁ice	-9.32164
▁reflect	-9.3218
▁default	-9.32211
▁hybrid	-9.32211
▁series	-9.32211
▁wildlife	-9.32211
▁resort	-9.32213
▁elite	-9.32215
▁presidency	-9.32223
▁planning	-9.32224
▁operation	-9.32228
▁consultant	-9.32236
▁familiar	-9.32292
mo	-9.32455
son	-9.32547
▁murder	-9.32706
▁shoot	-9.32721
▁en	-9.3275
▁dec	-9.3282
▁band	-9.32907
▁upcom	-9.32957
▁terrorist	-9.32958
▁trap	-9.32971
▁shot	-9.33059
▁ha	-9.33067
▁malaysia	-9.33512
▁scamme	-9.33562
▁israel	-9.33605
▁behavior	-9.33687
▁divorce	-9.33687
▁portfolio	-9.33687
▁soldier	-9.33687
▁cream	-9.33694
▁jail	-9.33707
▁sc	-9.33822
▁atm	-9.33842
di	-9.34141
over	-9.34187
▁desperate	-9.34433
▁calculate	-9.34434
▁engage	-9.34569
▁careful	-9.34909
▁concerned	-9.34917
pa	-9.34918
▁launch	-9.35185
▁shirt	-9.35187
▁click	-9.35188
▁sunday	-9.35189
▁kdu	-9.35198
▁grant	-9.35234
▁color	-9.35234
▁resident	-9.35346
▁significantly	-9.35374
we	-9.3567
em	-9.35753
▁production	-9.35883
▁regard	-9.35925
▁library	-9.35942
▁survey	-9.35942
▁admit	-9.35942
▁stability	-9.35952
▁ultimate	-9.35957
▁upto	-9.36068
▁doc	-9.36236
▁compete	-9.36352
▁tutor	-9.36355
▁gem	-9.36395
▁so	-9.36568
▁respond	-9.36706
▁anytime	-9.36708
▁premium	-9.3671
ad	-9.36732
▁quit	-9.3674
▁suitable	-9.36777
▁cheer	-9.3681
▁laugh	-9.36914
▁unlike	-9.37014
▁pakistan	-9.37047
▁ill	-9.37153
tic	-9.37257
pe	-9.37397
▁division	-9.37475
▁certification	-9.37475
▁equipment	-9.37482
▁advisor	-9.37547
▁egg	-9.37592
▁dance	-9.37813
▁can	-9.38067
▁ne	-9.38215
▁neighbour	-9.3825
▁recruit	-9.3825
▁speech	-9.3825
▁burden	-9.38251
▁oppose	-9.38254
▁coach	-9.38255
▁chicken	-9.38256
▁centre	-9.38281
▁festival	-9.38282
be	-9.38284
use	-9.38458
▁dry	-9.38517
▁typical	-9.38572
▁eg	-9.3878
▁argument	-9.39031
▁category	-9.39031
▁cinnamon	-9.39031
▁consequence	-9.39031
▁possibly	-9.39031
▁sponsor	-9.39031
▁cbsl	-9.39034
▁cup	-9.39141
▁soft	-9.39232
▁pool	-9.39235
▁redditor	-9.39381
▁logic	-9.39535
▁dev	-9.39616
▁gun	-9.39658
ton	-9.39683
▁factory	-9.39733
▁weak	-9.39779
▁rajapakse	-9.39819
▁reputation	-9.39819
▁wild	-9.39824
▁multi	-9.3983
▁equity	-9.39834
ika	-9.39857
ious	-9.39873
ass	-9.39918
▁specialist	-9.39919
▁debate	-9.39959
▁round	-9.40032
▁tradition	-9.40331
▁per	-9.40343
hu	-9.40392
▁speaker	-9.40414
▁birth	-9.40609
▁circle	-9.40612
▁capacity	-9.40615
▁fancy	-9.40647
▁roll	-9.40821
ile	-9.40924
▁donation	-9.40949
▁ni	-9.4108
▁no	-9.41131
▁crap	-9.41336
▁attract	-9.41383
▁amount	-9.41412
▁podcast	-9.41412
▁alcohol	-9.41412
▁floor	-9.41412
▁protein	-9.41412
▁excuse	-9.41415
excel	-9.41472
▁scared	-9.41554
▁protection	-9.41674
ze	-9.41733
tu	-9.41954
▁comfort	-9.42149
▁crash	-9.42224
▁combine	-9.42226
▁labor	-9.42281
▁debi	-9.42338
▁mis	-9.42792
▁appear	-9.43016
▁ali	-9.43027
▁pocket	-9.43036
▁input	-9.43053
▁intention	-9.43054
▁do	-9.43178
▁annoying	-9.43206
ably	-9.43267
ib	-9.43747
▁def	-9.43812
▁colleague	-9.43851
▁identity	-9.43851
▁possibility	-9.43851
▁extent	-9.43852
▁buddy	-9.43852
▁investigation	-9.43867
ite	-9.43901
▁forest	-9.43905
▁pic	-9.43971
off	-9.44117
▁bed	-9.44277
▁poll	-9.44337
▁unnecessar	-9.44523
▁convince	-9.44678
▁propaganda	-9.44678
▁haha	-9.44679
▁thailand	-9.44681
▁shut	-9.4469
▁lakh	-9.44706
sl	-9.45439
▁cybersecurity	-9.45511
▁tiktok	-9.45511
▁trincomalee	-9.45511
▁adapt	-9.45512
▁weligama	-9.45512
▁collapse	-9.45512
▁accurate	-9.45513
▁loose	-9.45516
▁deny	-9.45517
▁wall	-9.45528
▁align	-9.45532
ting	-9.45608
▁eta	-9.45795
per	-9.45813
ick	-9.45881
▁permanent	-9.45887
▁socialist	-9.45888
▁surprise	-9.4616
▁threat	-9.46314
▁normally	-9.46324
▁clarify	-9.46352
▁embassy	-9.46352
▁grateful	-9.46352
▁publish	-9.46352
▁quiet	-9.46352
▁vendor	-9.46352
▁boat	-9.46363
▁tired	-9.46402
▁rip	-9.46527
ith	-9.46557
▁arugam	-9.46659
ran	-9.46856
▁cent	-9.47078
▁critical	-9.47199
our	-9.472
▁promotion	-9.472
edication	-9.47217
▁horrible	-9.47228
▁bruh	-9.47247
▁mba	-9.47254
▁memory	-9.47334
▁cold	-9.47349
ik	-9.47517
▁constantly	-9.47527
ap	-9.47655
▁farm	-9.47828
▁belief	-9.48054
▁buffet	-9.48054
▁pizza	-9.48054
▁safari	-9.48054
▁impose	-9.48056
▁piss	-9.48063
▁draw	-9.48073
▁earth	-9.48075
▁decline	-9.48081
▁accommodation	-9.48082
▁mall	-9.48249
▁lo	-9.48584
▁function	-9.48767
ash	-9.48818
▁exploit	-9.48884
ical	-9.48888
▁nsbm	-9.48927
▁stack	-9.4893
▁estimate	-9.48951
▁threaten	-9.48956
ai	-9.49049
▁lock	-9.49124
▁portion	-9.4931
▁fat	-9.49321
▁risky	-9.49492
▁ram	-9.49548
▁deduct	-9.49682
▁retire	-9.49746
▁africa	-9.49785
▁borrow	-9.49785
▁mandatory	-9.49785
▁screw	-9.49785
▁beginning	-9.49786
▁supermarket	-9.49792
▁administration	-9.49792
▁wake	-9.49794
▁msc	-9.49803
▁gay	-9.499
▁wash	-9.4994
no	-9.50323
▁some	-9.50334
act	-9.50397
▁eu	-9.50407
▁gif	-9.50528
▁consult	-9.50578
▁opposite	-9.50663
▁passenger	-9.50663
▁verify	-9.50663
▁biology	-9.50669
▁communicate	-9.50683
▁native	-9.50686
▁ird	-9.50756
▁holder	-9.50761
▁fo	-9.50774
▁maximu	-9.50802
▁ra	-9.51012
▁rarely	-9.51112
ug	-9.51131
▁din	-9.51449
▁bankrupt	-9.5154
▁absurd	-9.51548
▁curriculum	-9.51548
▁perfume	-9.51548
▁graphic	-9.51548
▁drain	-9.51548
▁belong	-9.5155
▁harass	-9.51553
▁asap	-9.51554
▁quote	-9.51565
▁sake	-9.51569
▁nonsense	-9.51578
▁awareness	-9.51619
▁cc	-9.51643
▁dig	-9.51669
▁hnd	-9.51691
▁ja	-9.5185
▁paint	-9.5193
ure	-9.52024
▁gather	-9.5209
cy	-9.52204
▁america	-9.52229
mp	-9.52315
▁programme	-9.52343
▁neighbor	-9.52435
▁fool	-9.52438
▁nugegoda	-9.5244
▁suspect	-9.5244
▁temporary	-9.5244
▁upload	-9.52444
▁dangerous	-9.52446
▁germany	-9.52716
▁formal	-9.5277
land	-9.5287
▁rare	-9.52919
▁media	-9.5296
▁should	-9.53103
▁br	-9.53146
▁plant	-9.53246
▁am	-9.5329
▁chocolate	-9.53341
▁comparison	-9.53341
▁negotiate	-9.53341
▁plastic	-9.53341
▁leaf	-9.53342
▁sugar	-9.53344
▁odd	-9.53345
▁aus	-9.53347
▁civilian	-9.53382
▁progressive	-9.53403
▁declare	-9.53421
▁noise	-9.53439
▁cab	-9.53543
▁he	-9.5373
▁casual	-9.53786
▁gig	-9.539
ack	-9.53921
▁cur	-9.54048
▁down	-9.54054
▁harm	-9.54098
▁punish	-9.54218
▁awesome	-9.5425
▁daughter	-9.5425
▁fashion	-9.5425
▁margin	-9.5425
▁everybody	-9.54254
▁bail	-9.54275
▁wow	-9.54326
▁artist	-9.54427
▁vot	-9.54548
▁powerful	-9.54584
▁selection	-9.54688
▁gang	-9.54911
ni	-9.54931
▁predict	-9.55065
▁attach	-9.55127
▁initiative	-9.55168
▁welfare	-9.55168
▁reveal	-9.55168
▁crook	-9.5517
▁label	-9.55191
▁defend	-9.5522
▁previously	-9.55272
▁workplace	-9.5528
ex	-9.55295
▁lane	-9.55334
▁wing	-9.55482
▁nu	-9.55767
▁stat	-9.5586
▁convenient	-9.56094
▁dambulla	-9.56094
▁downvote	-9.56094
▁household	-9.56094
▁lgbtq	-9.56097
▁rush	-9.56098
▁anuradha	-9.561
▁liberal	-9.56131
▁scammer	-9.56333
ew	-9.56373
▁yr	-9.56429
▁ah	-9.5685
▁organize	-9.56937
▁harsha	-9.56968
▁reference	-9.57048
▁leadership	-9.57068
▁cima	-9.57076
▁isp	-9.57107
▁fitness	-9.57113
▁manner	-9.57118
▁hill	-9.57382
▁sum	-9.57394
▁calm	-9.57755
▁australian	-9.57854
nd	-9.57953
▁clue	-9.57954
▁hustle	-9.57972
▁unfair	-9.57972
▁skull	-9.57972
una	-9.57973
▁entrance	-9.57973
▁etf	-9.57973
▁split	-9.57975
▁resolve	-9.57976
▁agenda	-9.57989
▁chase	-9.57998
▁jan	-9.57998
▁retirement	-9.58014
che	-9.58116
▁shock	-9.58484
do	-9.58616
▁trick	-9.58618
▁med	-9.58784
▁nurse	-9.58809
▁enforce	-9.58886
▁immigrant	-9.58924
▁premadasa	-9.58924
▁garden	-9.58925
▁flood	-9.58925
▁trcsl	-9.58926
▁prison	-9.58926
▁error	-9.58935
▁plantation	-9.58981
▁slave	-9.59023
ell	-9.59032
gg	-9.59093
▁cla	-9.59121
▁abt	-9.59209
▁sky	-9.59307
▁wi	-9.59443
▁learning	-9.59499
aya	-9.59613
▁fi	-9.59641
▁specialize	-9.598
▁entrepreneur	-9.59886
▁undergrad	-9.59886
▁expose	-9.59889
▁smoke	-9.59892
▁ofc	-9.59908
▁kottu	-9.59933
▁grab	-9.59947
▁van	-9.59983
▁ik	-9.60078
▁dual	-9.6009
▁bangladesh	-9.60857
▁chatgpt	-9.60857
▁discrimination	-9.60857
▁genocide	-9.60857
▁inflate	-9.60857
▁vaccinate	-9.60857
▁proceed	-9.60857
▁surround	-9.60858
▁southern	-9.60862
▁witness	-9.60863
▁ideology	-9.60867
▁cmb	-9.60879
▁journalist	-9.60911
▁traveler	-9.60926
▁highlight	-9.6104
▁yea	-9.61269
▁certainly	-9.61455
▁dehiwala	-9.61839
▁tower	-9.6184
▁flash	-9.61841
▁brown	-9.61848
▁curry	-9.61863
down	-9.61965
▁zone	-9.61978
▁im	-9.62171
▁surely	-9.62334
▁historical	-9.62413
▁confuse	-9.62637
▁secret	-9.62798
▁analytic	-9.62827
▁confidence	-9.62827
▁adhd	-9.62827
▁availability	-9.62828
▁propose	-9.62829
▁uae	-9.62841
▁tree	-9.62841
▁surgery	-9.62846
▁earning	-9.6291
▁collection	-9.63112
▁character	-9.63164
▁mini	-9.63213
▁eastern	-9.63231
og	-9.63252
com	-9.63409
oc	-9.63476
▁german	-9.6352
▁pen	-9.63649
▁tight	-9.63742
▁res	-9.63756
▁arrange	-9.63787
▁advertise	-9.63798
▁climb	-9.63827
▁grocery	-9.63827
▁pettah	-9.63827
▁boost	-9.63828
▁regime	-9.63829
▁slip	-9.63831
▁expand	-9.63835
▁entity	-9.6385
▁yep	-9.63856
▁smell	-9.63861
▁dealer	-9.63896
▁has	-9.63902
▁bare	-9.63952
▁sustainable	-9.64019
▁mixed	-9.64091
▁chain	-9.64163
▁gpa	-9.64202
ess	-9.64553
▁essentially	-9.64686
ac	-9.64705
▁authentic	-9.64791
▁depreciate	-9.64837
▁recognition	-9.64837
▁commute	-9.64837
▁unsure	-9.64837
▁cabinet	-9.64841
▁analysis	-9.64842
▁automatically	-9.64844
▁lab	-9.64875
▁passionate	-9.64885
▁va	-9.64922
flow	-9.6512
▁core	-9.65185
▁jr	-9.65394
▁bomb	-9.65511
▁di	-9.65686
▁announce	-9.65821
▁frustrating	-9.65858
▁fundamental	-9.65858
▁junior	-9.65858
▁invite	-9.65858
▁icbt	-9.65858
▁urban	-9.65858
▁broadband	-9.65859
▁cake	-9.65866
▁depression	-9.65878
▁failure	-9.65898
▁shopping	-9.65931
▁spam	-9.65942
body	-9.66145
▁mode	-9.66234
▁minded	-9.66266
▁flow	-9.66319
▁grad	-9.66344
▁pv	-9.66389
ley	-9.66424
▁pan	-9.66514
▁additionally	-9.66735
▁internal	-9.66836
▁beg	-9.66863
▁hsbc	-9.66888
▁mbps	-9.66889
▁ultra	-9.66889
▁sweet	-9.66889
▁forever	-9.66893
▁colour	-9.66895
▁lift	-9.66913
▁hack	-9.66918
▁qualified	-9.66963
▁scope	-9.6698
▁accountability	-9.66989
necessarily	-9.67082
iz	-9.67144
▁peradeniy	-9.67194
▁comp	-9.67215
▁funding	-9.67221
▁wind	-9.67276
▁fds	-9.67429
▁android	-9.6793
▁remittance	-9.6793
▁outcome	-9.6793
▁islam	-9.6793
▁privacy	-9.6793
▁ntb	-9.67932
▁faith	-9.67935
▁crack	-9.67937
▁nope	-9.67942
▁installment	-9.67951
▁pair	-9.67976
▁tin	-9.68041
▁ce	-9.68078
▁ag	-9.68499
▁russia	-9.6881
▁ml	-9.68812
▁addition	-9.68819
▁moral	-9.68873
▁auto	-9.68913
▁afaik	-9.68983
▁intelligence	-9.68983
▁scooter	-9.68983
▁intend	-9.68983
▁bridge	-9.68991
▁vision	-9.69007
▁hostel	-9.69017
▁pathway	-9.69035
▁replacement	-9.69089
▁aid	-9.69111
▁tiny	-9.69316
tin	-9.69384
▁related	-9.69539
▁typically	-9.69607
ca	-9.69696
▁hero	-9.69812
▁pot	-9.70024
▁regulate	-9.70047
▁blow	-9.70047
▁minimal	-9.70047
ber	-9.70048
▁lunch	-9.70049
▁hindu	-9.70052
▁lean	-9.70052
▁smile	-9.70056
▁wallet	-9.70072
▁ri	-9.70077
▁advanced	-9.70297
pay	-9.70416
▁wave	-9.70496
▁tri	-9.70843
▁retail	-9.70882
ld	-9.7103
▁exempt	-9.71122
▁cambridge	-9.71122
▁domestic	-9.71122
▁sacrifice	-9.71122
▁organisation	-9.71123
▁meter	-9.71132
▁entertainment	-9.71137
▁selfish	-9.71243
▁minor	-9.7126
ci	-9.71416
▁ro	-9.71671
▁wheel	-9.7197
mi	-9.71988
ect	-9.72092
▁nah	-9.72145
▁affair	-9.72209
▁circumstance	-9.72209
▁exposure	-9.72209
▁participate	-9.72209
▁sentence	-9.72209
▁clown	-9.7221
▁derana	-9.7221
▁conservative	-9.7221
▁overnight	-9.72211
▁instance	-9.72211
▁guest	-9.72212
▁plain	-9.72237
▁clearance	-9.72309
▁capable	-9.72328
▁coverage	-9.72362
▁cus	-9.72413
▁mail	-9.72493
ger	-9.72512
ode	-9.72558
▁pe	-9.72619
▁acc	-9.72799
▁soo	-9.72832
▁ip	-9.72837
▁rough	-9.72847
▁unlikely	-9.72864
▁united	-9.72931
mate	-9.73096
▁ho	-9.73161
▁disagree	-9.73267
▁adjust	-9.73268
▁entitle	-9.73268
▁behaviour	-9.73308
▁equivalent	-9.73308
▁hiriketiya	-9.73308
▁ongoing	-9.73308
▁tangalle	-9.73308
▁translate	-9.73308
▁pattern	-9.73308
▁toilet	-9.73308
behave	-9.7331
▁appeal	-9.73316
▁outlet	-9.7332
▁pretend	-9.73326
hroom	-9.73332
▁tooth	-9.73366
▁allowance	-9.73481
▁lend	-9.73506
▁opt	-9.73778
▁telegra	-9.73787
▁micro	-9.73806
▁drag	-9.73892
▁fe	-9.74265
▁director	-9.74377
▁admission	-9.74419
▁rugby	-9.74419
▁softlogic	-9.74419
▁mountain	-9.74419
▁royal	-9.74419
▁psychology	-9.7442
▁leak	-9.7442
▁charity	-9.74422
▁railway	-9.74422
▁psychiatrist	-9.74426
▁asshole	-9.74427
▁membership	-9.74466
▁soul	-9.74471
▁democratic	-9.74495
▁sufficient	-9.74506
ue	-9.74694
▁q	-9.74771
iv	-9.74864
pl	-9.75054
oo	-9.75166
ja	-9.75209
▁react	-9.75484
▁habit	-9.75527
▁audience	-9.75542
▁canadian	-9.75542
▁disaster	-9.75542
▁twitter	-9.75542
▁ucsc	-9.75542
▁suburb	-9.75543
▁pricing	-9.75543
▁discover	-9.75547
▁statistic	-9.75549
▁trustworthy	-9.75551
▁alright	-9.7557
▁assignment	-9.75571
▁rude	-9.75572
▁excited	-9.75583
▁keell	-9.75585
▁evil	-9.75596
▁vet	-9.75597
cient	-9.75601
▁elder	-9.7564
▁bo	-9.75706
▁spare	-9.75715
▁dear	-9.75731
▁rating	-9.75877
▁guard	-9.75885
▁less	-9.75992
light	-9.75992
ling	-9.76054
▁cos	-9.76135
▁wealthy	-9.7624
▁mum	-9.76252
▁is	-9.76297
▁manufacture	-9.76489
▁ga	-9.76513
▁hype	-9.76678
▁allocate	-9.76679
▁criticism	-9.76679
▁criticize	-9.76679
▁diaspora	-9.76679
▁pixel	-9.76679
▁powder	-9.76679
▁suicide	-9.76679
▁diesel	-9.76679
▁utility	-9.76681
▁boss	-9.76692
▁complicated	-9.767
▁secretary	-9.76712
▁salt	-9.76879
▁trial	-9.76883
mon	-9.77146
▁ear	-9.77255
▁mora	-9.77288
tan	-9.77359
▁recovery	-9.77374
▁mathematic	-9.77509
ral	-9.77531
ab	-9.7764
▁occasional	-9.77652
▁designer	-9.77687
ct	-9.77693
paid	-9.77726
▁tag	-9.77738
▁confident	-9.77812
▁worship	-9.77828
▁barrier	-9.77828
▁describe	-9.7783
▁glass	-9.77832
▁fluent	-9.77837
▁cheat	-9.77848
▁define	-9.7785
▁panel	-9.77851
▁childhood	-9.77877
▁enable	-9.77931
▁bully	-9.78056
▁improvement	-9.78074
▁alive	-9.78185
the	-9.78259
▁profession	-9.78762
ner	-9.78802
▁ahangama	-9.78991
▁thief	-9.78991
ng	-9.78994
▁eligible	-9.79001
▁audit	-9.79033
▁coin	-9.79115
ability	-9.79338
▁ran	-9.79475
▁manipulate	-9.79534
one	-9.79695
▁pol	-9.79737
▁contain	-9.79949
▁on	-9.79958
▁ring	-9.79975
▁profess	-9.80068
▁christian	-9.80125
▁cha	-9.80149
▁hobby	-9.80167
▁temu	-9.80169
ragama	-9.80172
▁explanation	-9.80181
gi	-9.80191
▁expire	-9.80346
▁socialism	-9.80389
▁booking	-9.80427
all	-9.80488
▁roughly	-9.80663
▁constant	-9.80898
▁chem	-9.80954
▁col	-9.8097
▁hon	-9.80987
aka	-9.81019
tray	-9.81185
▁strength	-9.81319
▁percent	-9.81336
▁decrease	-9.81358
▁february	-9.81358
▁ignorant	-9.81358
▁succeed	-9.81358
▁narrative	-9.8136
▁burger	-9.81361
ll	-9.81423
storm	-9.81434
▁commitment	-9.81464
▁as	-9.81804
▁pi	-9.81822
▁lower	-9.82113
aga	-9.82156
▁kit	-9.82179
que	-9.82198
▁rat	-9.82255
▁friday	-9.82563
▁violent	-9.82563
▁koko	-9.82563
▁storage	-9.82563
▁vpn	-9.82563
▁beaut	-9.82564
▁expat	-9.82578
▁accent	-9.82582
▁buck	-9.82586
▁textbook	-9.82592
▁shout	-9.82599
▁officially	-9.82961
▁scar	-9.83153
▁difficulty	-9.8317
▁smooth	-9.83315
▁cr	-9.8342
▁boot	-9.83426
▁consume	-9.83592
▁correctly	-9.83667
▁cancer	-9.83783
▁fyi	-9.83784
▁stuck	-9.83793
▁creative	-9.83794
▁finger	-9.83798
▁honda	-9.83804
▁grid	-9.83816
▁govern	-9.8393
▁viable	-9.83945
ized	-9.84027
uwa	-9.84038
▁profitable	-9.84078
ture	-9.84619
pt	-9.84623
▁ko	-9.84699
sheet	-9.84764
▁rap	-9.8486
▁addict	-9.84916
▁hunt	-9.84969
▁pandemic	-9.85017
▁surprising	-9.85017
▁traveller	-9.85024
▁industrial	-9.85032
▁acknowledge	-9.85046
▁peep	-9.85061
▁favour	-9.85083
oke	-9.85141
▁mu	-9.85183
▁globally	-9.85546
ice	-9.85586
▁warn	-9.85909
▁id	-9.85914
▁successfully	-9.85965
▁lovely	-9.86
▁korea	-9.86094
▁artificial	-9.86267
▁combination	-9.86267
▁encounter	-9.86267
▁john	-9.86267
▁locate	-9.86267
▁lazy	-9.86267
▁steam	-9.86273
▁shape	-9.86273
▁terrorism	-9.86275
▁desk	-9.8629
▁swimm	-9.86358
▁guilty	-9.86413
ative	-9.86611
▁ethical	-9.86659
▁gra	-9.87042
▁gi	-9.87055
▁severe	-9.87071
▁villa	-9.87259
isation	-9.87285
▁norm	-9.87442
▁communist	-9.87533
▁compensation	-9.87533
▁recognise	-9.87533
▁vaccination	-9.87533
▁disappear	-9.87533
▁obsess	-9.87533
▁emote	-9.87533
▁defense	-9.87539
▁battle	-9.87542
▁meaningful	-9.87556
▁sm	-9.87562
▁otp	-9.87574
▁punishment	-9.87588
▁accountable	-9.87633
▁agriculture	-9.87678
▁disgusting	-9.87681
▁aw	-9.87728
sha	-9.87736
▁thi	-9.87749
▁nationalist	-9.87784
▁parking	-9.87801
istic	-9.87887
▁hole	-9.88016
ible	-9.88029
▁favor	-9.88092
▁serv	-9.88168
▁lion	-9.88168
▁fk	-9.88275
rt	-9.88388
▁hun	-9.88508
▁har	-9.88515
▁bentota	-9.88815
▁escape	-9.88815
▁nissan	-9.88815
▁treasury	-9.88815
▁christmas	-9.88816
▁riot	-9.88833
▁fruit	-9.88935
▁dept	-9.88942
▁tap	-9.8902
esh	-9.89211
▁rep	-9.8963
▁classic	-9.89649
▁ego	-9.89838
ale	-9.89854
▁server	-9.89919
▁criterion	-9.90113
▁catholic	-9.90115
▁reputabl	-9.90119
▁edge	-9.90169
▁dump	-9.90191
▁venue	-9.90353
eren	-9.90391
▁wa	-9.90428
▁log	-9.90443
▁surge	-9.90457
top	-9.90466
▁plate	-9.90484
▁economically	-9.90633
hood	-9.90656
▁nov	-9.9067
▁aud	-9.90842
▁regional	-9.90917
▁fin	-9.90926
▁immediate	-9.9097
▁consistent	-9.90974
▁portal	-9.90978
▁radio	-9.9101
▁clinic	-9.91042
ver	-9.91355
ris	-9.91364
▁broke	-9.91396
▁occur	-9.91428
▁depreciation	-9.91429
▁excellent	-9.91429
▁italy	-9.9143
▁flexible	-9.91432
▁kelaniya	-9.91433
ute	-9.91451
▁assess	-9.9146
▁niche	-9.91466
▁ease	-9.91476
▁quota	-9.91493
▁buddha	-9.91502
▁visible	-9.91538
▁tf	-9.91658
▁warm	-9.91888
ery	-9.91932
▁exp	-9.91951
list	-9.92006
soon	-9.92028
▁gf	-9.92353
▁accus	-9.92458
stem	-9.92471
▁qu	-9.92473
▁opening	-9.92531
▁privilege	-9.92569
ata	-9.92612
ide	-9.92632
▁du	-9.9266
▁nav	-9.92725
▁relation	-9.92753
▁prioritize	-9.92763
▁proposal	-9.92763
▁trigger	-9.92763
▁century	-9.92763
▁licence	-9.92763
▁exceed	-9.92763
▁cringe	-9.92764
▁freak	-9.92766
▁roof	-9.92777
▁repute	-9.92788
awa	-9.92812
▁outdated	-9.92865
▁pathetic	-9.92927
▁tear	-9.92942
▁mouth	-9.92957
▁inc	-9.93175
▁rom	-9.93203
▁bombing	-9.93219
▁rape	-9.93242
▁cam	-9.93412
▁meaning	-9.93465
▁tb	-9.93553
▁bite	-9.93617
▁renew	-9.93903
▁emotion	-9.9395
▁unity	-9.93959
▁pin	-9.94043
care	-9.9411
▁french	-9.94114
▁heritage	-9.94114
▁prospect	-9.94114
▁relief	-9.94114
▁subscription	-9.94114
▁translation	-9.94114
▁ukraine	-9.94114
▁uneducate	-9.94114
▁variety	-9.94114
▁ocean	-9.94114
▁consent	-9.94114
▁tank	-9.94121
▁utter	-9.94124
▁trail	-9.94127
▁keen	-9.94139
▁ownership	-9.94167
side	-9.94176
▁bug	-9.94213
▁imp	-9.9425
▁uom	-9.94425
▁payone	-9.94496
▁personality	-9.94709
lly	-9.94807
▁rec	-9.9487
fa	-9.94874
▁off	-9.95143
▁ku	-9.95183
▁buyer	-9.95203
▁indicat	-9.95427
ify	-9.95452
▁assault	-9.95484
▁convenience	-9.95484
▁discourage	-9.95484
▁semester	-9.95484
▁vietnam	-9.95484
▁pohottu	-9.95484
▁presence	-9.95484
▁vacanc	-9.95485
▁gateway	-9.95493
▁forum	-9.95501
▁ug	-9.95508
▁zoom	-9.95511
▁hall	-9.95519
▁realistic	-9.95554
▁ceo	-9.95663
ill	-9.95793
▁sms	-9.95995
lu	-9.96074
ou	-9.96141
▁cater	-9.96157
▁restrict	-9.96771
▁da	-9.96835
▁allegation	-9.96873
▁amazon	-9.96873
▁anxiety	-9.96873
▁behalf	-9.96873
▁incredibly	-9.96873
▁kitchen	-9.96873
▁league	-9.96873
▁supplement	-9.96873
▁eelam	-9.96873
▁legitimate	-9.96884
▁bias	-9.96886
▁governance	-9.96893
▁competent	-9.96907
▁chip	-9.96931
▁vast	-9.96937
▁setting	-9.96963
▁flat	-9.96976
▁owe	-9.97008
▁wo	-9.97126
▁kg	-9.97168
▁lake	-9.97185
work	-9.97304
▁favorit	-9.97334
▁diet	-9.97786
▁urgent	-9.97831
▁rot	-9.9786
▁emotional	-9.97972
▁earner	-9.97999
cl	-9.98211
▁colonial	-9.98264
asa	-9.98277
▁border	-9.98281
▁insult	-9.98281
▁phase	-9.98281
▁principle	-9.98281
▁unawatuna	-9.98281
▁parcel	-9.98281
▁shady	-9.98281
▁tactic	-9.98284
▁intake	-9.98302
▁wf	-9.98302
▁pal	-9.98308
▁ndb	-9.98318
▁ft	-9.98372
▁sight	-9.98379
▁broad	-9.9843
liness	-9.98444
▁frequently	-9.98639
▁friendship	-9.98655
▁para	-9.98843
▁scan	-9.98866
ome	-9.9898
▁hv	-9.99003
back	-9.99069
box	-9.99089
▁physically	-9.99283
her	-9.99344
▁naturally	-9.99385
▁swim	-9.99613
▁differently	-9.99635
▁del	-9.99672
sumption	-9.99704
▁ayurved	-9.9971
▁ordinary	-9.9971
▁permission	-9.9971
▁prescription	-9.9971
▁republic	-9.9971
▁tattoo	-9.9971
▁disease	-9.9971
▁contest	-9.9971
▁atto	-9.9972
▁assistance	-9.99721
front	-9.99733
▁award	-9.99736
▁gear	-9.99738
▁determine	-9.99758
atara	-9.99793
▁maldive	-9.99806
▁resignation	-9.99812
▁uoc	-9.9991
let	-9.99913
▁shall	-9.99984
▁publicly	-10.0018
activate	-10.0056
ility	-10.0067
▁goon	-10.009
▁practically	-10.0109
▁abortion	-10.0116
▁bedroom	-10.0116
▁brief	-10.0116
▁quarter	-10.0116
▁sentiment	-10.0116
▁brutal	-10.0116
▁angry	-10.0116
▁slfp	-10.0116
▁restructure	-10.0116
▁programming	-10.0116
▁venture	-10.0117
▁contribution	-10.0117
▁exclusive	-10.0118
▁pump	-10.0118
core	-10.0119
▁backup	-10.0121
ium	-10.0129
▁workforce	-10.013
bi	-10.0135
▁swear	-10.0147
▁withdrawal	-10.0153
▁farmer	-10.0157
▁warning	-10.0157
ini	-10.0173
▁reminder	-10.0174
▁mentally	-10.0176
ball	-10.0202
▁internationally	-10.0207
ck	-10.0212
▁arch	-10.0254
▁superior	-10.0258
▁abandon	-10.0263
▁abolish	-10.0263
▁backpack	-10.0263
▁compromise	-10.0263
▁exclude	-10.0263
▁saturday	-10.0263
▁literature	-10.0263
▁pub	-10.0263
▁filter	-10.0263
▁corner	-10.0264
▁architecture	-10.0264
▁amendment	-10.0265
▁mature	-10.0265
▁wire	-10.0267
ela	-10.0267
▁bud	-10.027
away	-10.0285
ier	-10.03
tra	-10.0301
▁suv	-10.0301
▁semi	-10.033
▁jaya	-10.0338
course	-10.0343
qu	-10.0369
▁politically	-10.0385
oth	-10.0391
io	-10.0405
▁affiliate	-10.0412
▁component	-10.0412
▁hikkaduwa	-10.0412
▁mirror	-10.0412
▁violation	-10.0412
▁writing	-10.0412
▁headache	-10.0412
▁resume	-10.0412
▁broadcast	-10.0412
▁audio	-10.0413
▁necessity	-10.0414
▁fucker	-10.0426
▁dependent	-10.0433
▁boc	-10.0433
▁kindly	-10.0445
▁wonderful	-10.0452
▁el	-10.0481
wide	-10.0494
ivity	-10.0534
ung	-10.054
▁leas	-10.0543
▁bandaranaike	-10.0564
▁bubble	-10.0564
▁economist	-10.0564
▁scratch	-10.0564
▁weapon	-10.0564
▁grind	-10.0564
▁corporation	-10.0564
▁northern	-10.0564
▁racial	-10.0564
▁wije	-10.0564
▁unemployed	-10.0564
▁moron	-10.0566
▁pride	-10.0566
▁revolution	-10.0567
▁cell	-10.0575
▁pfca	-10.0575
▁rally	-10.0591
▁origin	-10.0605
atha	-10.0615
ose	-10.0627
▁working	-10.0645
▁tha	-10.0662
▁equally	-10.067
▁shampoo	-10.0718
▁drunk	-10.0718
▁mosque	-10.0718
▁midnight	-10.0718
▁mount	-10.0718
▁extension	-10.0719
▁reward	-10.072
▁thug	-10.072
▁spotify	-10.0721
▁wood	-10.0722
ping	-10.0722
▁impression	-10.0727
▁respectful	-10.0728
▁collective	-10.0731
▁boil	-10.0734
▁spec	-10.0736
era	-10.0743
▁manufacturer	-10.0743
uc	-10.0759
▁acceptable	-10.0772
fi	-10.0777
pp	-10.0779
▁author	-10.0782
▁thr	-10.0793
popular	-10.08
min	-10.0804
case	-10.0805
uk	-10.0812
tain	-10.0829
▁ind	-10.0829
▁bull	-10.0833
▁bell	-10.0853
▁strange	-10.0855
loat	-10.0858
gen	-10.0869
▁assign	-10.0871
▁onwards	-10.0874
▁subsidy	-10.0874
▁uncomfortable	-10.0874
▁courier	-10.0874
▁nomad	-10.0874
▁nibm	-10.0874
▁examination	-10.0874
▁anime	-10.0874
▁hatred	-10.0874
▁loophole	-10.0874
▁first	-10.0874
▁efficiency	-10.0874
▁interior	-10.0875
▁java	-10.0875
▁awful	-10.0877
▁marketplace	-10.0879
▁perk	-10.0882
▁hardware	-10.0883
▁nationalism	-10.089
▁kar	-10.0894
tri	-10.0896
cc	-10.0897
▁dose	-10.09
▁dish	-10.0905
▁bot	-10.0911
▁pill	-10.0934
ull	-10.0935
▁wh	-10.0937
dred	-10.0944
▁badly	-10.0945
nce	-10.0951
▁interact	-10.0954
▁corrupted	-10.0976
▁flee	-10.1006
▁instal	-10.1009
▁enrol	-10.1012
▁impress	-10.102
▁mf	-10.1025
▁civi	-10.1027
▁applicable	-10.1033
▁happiness	-10.1033
▁stretch	-10.1033
▁deficit	-10.1033
▁volume	-10.1033
▁torture	-10.1033
▁chemical	-10.1034
▁reverse	-10.1034
▁acquire	-10.1034
▁jack	-10.1035
▁dictator	-10.1035
▁analyst	-10.1037
▁bloat	-10.1039
▁ratio	-10.1039
▁capitalism	-10.104
▁ssd	-10.1045
thi	-10.1048
▁singer	-10.1049
▁teen	-10.105
▁handout	-10.1058
▁ap	-10.1063
▁pray	-10.1063
▁chair	-10.1064
▁the	-10.1067
▁ib	-10.1071
▁peg	-10.1075
▁observe	-10.1098
▁dive	-10.1099
▁top	-10.1104
▁qa	-10.1106
tc	-10.1112
▁fry	-10.112
level	-10.1121
pet	-10.1154
▁dil	-10.1181
▁tier	-10.1187
▁sustain	-10.1187
▁russian	-10.1189
ator	-10.1189
▁bracket	-10.1194
▁expenditure	-10.1194
▁narrow	-10.1194
▁satisfied	-10.1194
▁verification	-10.1194
▁module	-10.1194
▁abans	-10.1194
sensitive	-10.1194
▁defeat	-10.1194
▁feasible	-10.1194
▁capture	-10.1195
▁chaos	-10.1195
▁uniform	-10.1199
▁whil	-10.1202
▁stressful	-10.1203
▁pilot	-10.1207
▁investigate	-10.1207
▁separately	-10.1207
▁acca	-10.122
▁euro	-10.1225
▁exception	-10.1252
▁shed	-10.1254
lan	-10.1261
▁supportive	-10.1264
▁joint	-10.1267
▁misus	-10.1268
▁cd	-10.127
point	-10.128
phone	-10.128
▁ish	-10.1283
▁pant	-10.1283
ular	-10.1294
▁aka	-10.1316
tle	-10.132
▁rob	-10.1322
ade	-10.1345
▁transit	-10.1352
sman	-10.1355
▁disrespect	-10.1358
▁studio	-10.1358
▁supreme	-10.1358
▁tournament	-10.1358
▁silva	-10.1358
▁literacy	-10.1358
▁joy	-10.1358
▁alert	-10.1358
▁heck	-10.1359
▁downside	-10.1359
▁beneficial	-10.1359
▁representative	-10.1359
put	-10.1359
▁monkey	-10.136
▁navigate	-10.1362
▁desire	-10.1365
▁incentive	-10.1365
▁innovation	-10.1365
▁transition	-10.1368
▁achievement	-10.1376
▁fup	-10.1379
▁heal	-10.1381
▁therapy	-10.1383
▁taxation	-10.1384
▁plot	-10.1388
▁contractor	-10.1399
pi	-10.1402
▁urge	-10.1412
▁bang	-10.1413
ham	-10.1414
pro	-10.1417
▁gate	-10.1427
▁annoy	-10.1489
▁str	-10.1497
uth	-10.1502
▁os	-10.1513
▁shower	-10.1514
▁org	-10.1521
▁netflix	-10.1524
▁offense	-10.1524
▁principal	-10.1524
▁saturate	-10.1524
▁vezel	-10.1524
▁pension	-10.1524
▁airtel	-10.1525
▁litter	-10.1525
▁snack	-10.1525
▁monday	-10.1526
▁capability	-10.1526
▁admin	-10.1527
▁apiit	-10.1529
▁rocket	-10.1532
key	-10.1532
▁attractive	-10.1539
ani	-10.155
▁jam	-10.1554
▁script	-10.156
▁wipe	-10.1561
▁deeply	-10.1562
▁at	-10.1563
▁ju	-10.1564
▁gpu	-10.1567
▁importer	-10.1569
▁strongly	-10.1578
▁peo	-10.1594
▁fare	-10.1596
▁eng	-10.1598
▁cast	-10.1619
▁unfortunate	-10.1648
▁fl	-10.1655
▁incompeten	-10.1691
▁gotabaya	-10.1694
▁increment	-10.1694
▁introvert	-10.1694
▁italian	-10.1694
▁penalty	-10.1694
▁mutual	-10.1694
▁praise	-10.1694
▁kitten	-10.1694
▁nepal	-10.1694
▁swift	-10.1694
▁adida	-10.1694
▁screenshot	-10.1694
▁lodg	-10.1696
▁alliance	-10.1696
▁assistant	-10.1696
▁esoft	-10.1698
▁mask	-10.1699
uck	-10.1701
▁metal	-10.1702
▁adam	-10.1706
▁enthusiast	-10.1711
du	-10.1713
▁photography	-10.1715
gan	-10.1725
nder	-10.1735
▁hiru	-10.1745
▁hospitality	-10.1749
end	-10.175
▁all	-10.1754
▁yt	-10.1755
of	-10.1759
▁visitor	-10.1771
▁var	-10.1778
eek	-10.1812
▁api	-10.1836
▁mb	-10.1846
hand	-10.1851
▁cautious	-10.1866
▁curiosity	-10.1866
▁description	-10.1866
▁fernando	-10.1866
▁furniture	-10.1866
▁manufacturing	-10.1866
▁newspaper	-10.1866
▁outdoor	-10.1866
▁recipe	-10.1866
▁rumor	-10.1866
▁framework	-10.1867
▁suspicious	-10.1867
▁neighborhood	-10.1867
▁comfortably	-10.1868
▁every	-10.1868
▁organise	-10.1869
▁creator	-10.187
▁accessible	-10.1871
▁organic	-10.1873
▁cfa	-10.1873
ong	-10.1873
▁packet	-10.1874
▁founder	-10.1875
rate	-10.1886
▁pad	-10.1902
▁them	-10.1903
▁peer	-10.1916
▁bout	-10.1918
▁scary	-10.1918
▁emotionally	-10.1925
▁sole	-10.1928
▁inf	-10.1931
▁environmental	-10.1954
▁sec	-10.1955
friend	-10.1962
board	-10.1964
▁worthy	-10.1973
den	-10.1974
▁hut	-10.1976
▁cor	-10.1984
wise	-10.199
▁overprice	-10.2022
here	-10.2027
ker	-10.2034
▁orient	-10.2037
ever	-10.2042
▁congratulation	-10.2042
▁dislike	-10.2042
▁exercise	-10.2042
▁indonesia	-10.2042
▁isolate	-10.2042
▁jersey	-10.2042
▁lavinia	-10.2042
▁miracle	-10.2042
▁temperature	-10.2042
▁silent	-10.2042
▁capita	-10.2043
▁touristy	-10.2043
▁wagon	-10.2043
▁drone	-10.2044
▁reside	-10.2045
▁indoor	-10.2045
▁bread	-10.2045
▁harini	-10.2045
▁thrive	-10.2045
su	-10.2049
▁dirty	-10.2056
▁partial	-10.2058
▁ui	-10.2063
▁exit	-10.2067
od	-10.208
▁mere	-10.2098
▁bitch	-10.21
▁wht	-10.2102
sm	-10.2112
▁fm	-10.2136
ula	-10.214
ency	-10.2149
▁provinc	-10.2178
lk	-10.2185
con	-10.2204
▁li	-10.2212
gh	-10.2214
▁escalate	-10.222
▁graduation	-10.222
▁mainstream	-10.222
▁monopoly	-10.222
▁restructuring	-10.222
▁romantic	-10.222
▁enemy	-10.222
▁kingdom	-10.222
▁aussie	-10.222
▁postpone	-10.222
▁departure	-10.2221
▁anonymous	-10.2222
▁spice	-10.2222
talin	-10.2222
▁strengthen	-10.2226
▁jew	-10.2227
▁ngo	-10.2229
net	-10.2234
▁reaction	-10.2237
▁privately	-10.2238
▁pickup	-10.2238
▁nurs	-10.2242
▁nadu	-10.2243
▁che	-10.2248
▁motorcycl	-10.2248
▁inspire	-10.2251
▁documentation	-10.2257
▁slap	-10.2258
▁lonely	-10.2263
▁lifetime	-10.2267
▁panic	-10.2268
▁originally	-10.2275
▁fam	-10.2276
▁logical	-10.23
▁tall	-10.2302
▁follower	-10.2308
▁largely	-10.2312
itch	-10.2342
▁chandr	-10.2349
ax	-10.2355
▁pla	-10.2358
▁youtuber	-10.2358
▁frequent	-10.2362
▁xd	-10.2366
atch	-10.2378
▁investing	-10.2392
▁trans	-10.2399
▁architect	-10.2401
▁aggressive	-10.2402
▁association	-10.2402
▁cruise	-10.2402
▁gampaha	-10.2402
▁guitar	-10.2402
▁landscape	-10.2402
▁prosecut	-10.2402
▁universal	-10.2402
▁browse	-10.2402
▁kiss	-10.2402
▁rajagir	-10.2402
▁logistic	-10.2403
▁bla	-10.2406
▁depressed	-10.2407
▁cave	-10.2411
▁nail	-10.2411
▁harsh	-10.2417
gam	-10.2419
▁respective	-10.2419
▁stranger	-10.2424
▁menu	-10.2431
▁nz	-10.2434
anna	-10.2435
▁mfs	-10.2441
▁ally	-10.2444
▁fa	-10.2445
▁solely	-10.2451
ave	-10.2453
▁thin	-10.2471
▁farming	-10.2478
▁taxable	-10.2482
▁businessman	-10.2482
▁learner	-10.2498
▁cid	-10.2501
app	-10.2506
uff	-10.2507
ample	-10.2508
▁mile	-10.2509
▁nut	-10.2509
ential	-10.2518
▁streaming	-10.2533
▁deed	-10.2533
▁ain	-10.2543
▁boom	-10.2568
▁raja	-10.2569
▁airbnb	-10.2587
▁crucial	-10.2587
▁enterprise	-10.2587
▁frustration	-10.2587
▁receipt	-10.2587
▁silver	-10.2587
▁ielt	-10.2587
▁bulk	-10.2587
▁taxpayer	-10.2587
▁duration	-10.2587
▁nutrition	-10.2588
▁bird	-10.2588
▁prescribe	-10.2588
▁prominen	-10.2588
▁liberty	-10.2588
▁manifesto	-10.2589
▁hungry	-10.2589
▁objective	-10.259
▁unite	-10.259
▁repayment	-10.259
▁appropriate	-10.2593
alon	-10.2594
▁epis	-10.2596
▁establishment	-10.2598
▁victory	-10.2599
▁governor	-10.2599
▁interaction	-10.2599
▁popularity	-10.2615
▁inch	-10.262
ble	-10.2627
▁meat	-10.263
press	-10.2636
▁prop	-10.2639
uction	-10.2644
▁evs	-10.267
tension	-10.2672
sk	-10.268
▁ir	-10.2691
▁peacefully	-10.2726
▁effectively	-10.2732
▁seal	-10.2736
▁mas	-10.2741
set	-10.2748
▁beer	-10.2749
▁conditioner	-10.2756
▁integrate	-10.2756
▁symbol	-10.2763
▁insta	-10.2767
▁advocate	-10.2776
▁conference	-10.2776
▁luggage	-10.2776
▁scream	-10.2776
▁overcome	-10.2776
▁scientist	-10.2776
▁execute	-10.2776
▁sweat	-10.2776
▁combank	-10.2777
▁lord	-10.2777
▁haircut	-10.2777
▁zeal	-10.2777
▁bankruptcy	-10.2778
▁keyboard	-10.2778
▁realistically	-10.2778
▁japura	-10.2778
oooo	-10.2791
▁alto	-10.2799
▁wet	-10.2804
▁econ	-10.2808
▁iran	-10.2824
▁virtual	-10.2837
▁indi	-10.2892
▁gener	-10.2894
code	-10.2894
▁scen	-10.2901
mint	-10.2909
▁franc	-10.2916
▁memor	-10.2923
air	-10.2936
▁aa	-10.294
▁crush	-10.2968
▁discriminate	-10.2968
▁kurunegala	-10.2968
▁motivation	-10.2968
▁symptom	-10.2968
▁violate	-10.2968
▁disrupt	-10.2968
▁evaluat	-10.2968
▁frank	-10.2968
▁turtle	-10.2968
▁offshor	-10.2968
▁insist	-10.2969
▁mandate	-10.2969
▁residence	-10.2969
▁boring	-10.2969
▁perera	-10.297
▁upset	-10.297
▁square	-10.297
▁hook	-10.297
▁refugee	-10.2975
▁crop	-10.2976
▁painful	-10.2976
▁frame	-10.2981
▁prediction	-10.299
▁install	-10.2992
▁malay	-10.2994
▁stripe	-10.2998
▁occasion	-10.2998
▁plane	-10.3002
▁economical	-10.3008
▁poster	-10.3012
graph	-10.3013
▁ros	-10.3015
▁lone	-10.3019
cha	-10.3034
cycle	-10.3057
▁esp	-10.3058
▁ge	-10.3063
▁bind	-10.3071
gr	-10.3076
▁gu	-10.3082
▁americans	-10.3093
▁capitalist	-10.3125
▁cz	-10.3149
▁exhaust	-10.315
▁paste	-10.3151
▁bin	-10.3156
▁detect	-10.3156
▁atroci	-10.3163
▁bastard	-10.3164
▁evolve	-10.3164
▁domain	-10.3164
▁fraud	-10.3164
▁chief	-10.3164
▁preserv	-10.3164
▁sharp	-10.3164
▁scrap	-10.3164
▁sneak	-10.3165
▁ngl	-10.3165
▁dhl	-10.3165
▁mannar	-10.3165
▁calculation	-10.3165
▁offend	-10.3165
▁overtake	-10.3166
▁mock	-10.3166
▁flaw	-10.3167
▁devop	-10.3167
▁retain	-10.3169
▁hub	-10.3171
▁teenager	-10.3172
▁blah	-10.3172
▁gradually	-10.3175
▁certif	-10.3175
▁indicator	-10.3176
▁diagnose	-10.3177
▁involvement	-10.3196
▁len	-10.3201
▁brag	-10.3204
▁prob	-10.3219
▁marin	-10.3227
▁sus	-10.323
▁lap	-10.3244
▁qr	-10.3252
▁protester	-10.3262
▁oct	-10.3269
mark	-10.3279
▁carefully	-10.3287
▁tone	-10.3287
▁sur	-10.3292
▁chi	-10.3298
▁dia	-10.3308
▁vari	-10.3308
gu	-10.3309
▁logo	-10.3314
▁lee	-10.3315
ort	-10.332
▁consideration	-10.3329
▁fore	-10.3332
▁trainer	-10.3332
▁therap	-10.3336
by	-10.3343
▁mi	-10.3344
▁cooking	-10.3346
ingly	-10.3347
cu	-10.3349
▁celebration	-10.3364
▁scientific	-10.3364
▁suzu	-10.3364
▁truck	-10.3365
▁aqua	-10.3365
▁migrating	-10.3365
▁fantastic	-10.3365
▁making	-10.3365
▁observation	-10.3365
▁shake	-10.3365
▁experiment	-10.3366
▁favourite	-10.3366
▁basil	-10.3366
▁belt	-10.3368
▁expressway	-10.3369
▁hangout	-10.3371
▁sticker	-10.3374
▁avi	-10.3377
▁pov	-10.3382
▁terminat	-10.3384
▁dick	-10.3401
▁bright	-10.3408
▁stone	-10.3409
ek	-10.3426
▁ugly	-10.3435
▁ent	-10.3439
agama	-10.3445
ase	-10.3445
ware	-10.345
ual	-10.3474
▁spa	-10.3487
▁pur	-10.349
▁nil	-10.35
▁freelanc	-10.3502
▁parad	-10.3505
▁sue	-10.3517
▁cre	-10.3519
city	-10.3524
▁mislead	-10.3533
▁disc	-10.3541
house	-10.3554
▁keel	-10.3563
▁nomin	-10.3566
▁disturb	-10.3567
▁trauma	-10.3568
▁breakfast	-10.3569
▁conspiracy	-10.3569
▁cuisine	-10.3569
▁disconnect	-10.3569
▁grammar	-10.3569
▁hilarious	-10.3569
▁honeymoon	-10.3569
▁neutral	-10.3569
▁pollution	-10.3569
▁reliability	-10.3569
▁steady	-10.3569
▁temporarily	-10.3569
▁transparency	-10.3569
▁nightmare	-10.3569
▁malabe	-10.3569
▁miserable	-10.3569
▁vitz	-10.3569
▁beef	-10.3569
▁committee	-10.3569
▁plug	-10.3569
▁scroll	-10.3569
▁assumption	-10.3569
▁mentor	-10.357
▁resell	-10.357
▁underpaid	-10.357
▁coworke	-10.357
▁horn	-10.3572
▁tailor	-10.3572
▁anger	-10.3573
▁workout	-10.3573
▁meditat	-10.3575
▁attendance	-10.3579
▁whi	-10.3579
▁posh	-10.3579
▁plea	-10.3582
▁moon	-10.3584
▁ham	-10.3591
▁approximately	-10.3592
▁confirmation	-10.3594
▁forth	-10.3594
▁sand	-10.3607
wi	-10.3609
ky	-10.363
▁ru	-10.3636
ram	-10.3644
unt	-10.3666
▁cad	-10.3681
▁hu	-10.3685
day	-10.3689
craft	-10.3702
ple	-10.3704
▁ben	-10.371
▁literal	-10.374
tor	-10.3747
▁aunt	-10.3749
▁pera	-10.3759
▁pfc	-10.3766
mas	-10.3773
▁activist	-10.3777
▁adventure	-10.3777
▁alongside	-10.3777
▁eliminate	-10.3777
▁gazette	-10.3777
▁hambantota	-10.3777
▁ladder	-10.3777
▁magnite	-10.3777
▁mechanism	-10.3777
▁nepotism	-10.3777
▁vague	-10.3777
▁ghost	-10.3777
▁sibling	-10.3777
▁invert	-10.3777
▁liability	-10.3778
▁upside	-10.3779
▁leverage	-10.3781
▁doom	-10.3789
▁honor	-10.3791
▁photographer	-10.3792
▁anc	-10.3792
sim	-10.3795
▁raw	-10.3797
▁vice	-10.3798
phil	-10.3804
▁enroll	-10.3805
▁cow	-10.3807
▁prize	-10.3817
▁gut	-10.3823
▁stabilize	-10.3824
ff	-10.3832
▁productive	-10.3858
table	-10.3859
▁prepared	-10.3862
kk	-10.3874
▁cb	-10.388
▁psychologi	-10.3884
▁creditor	-10.389
▁hd	-10.3895
amba	-10.3915
face	-10.3921
nna	-10.3936
nk	-10.3963
▁lak	-10.3972
▁rev	-10.3981
▁wat	-10.3987
occupy	-10.399
▁batalanda	-10.399
▁boundary	-10.399
▁clarification	-10.399
▁fortunate	-10.399
▁hotspot	-10.399
▁irrelevant	-10.399
▁maturity	-10.399
▁monetary	-10.399
▁reconciliation	-10.399
▁whatsoever	-10.399
▁beggar	-10.399
▁invade	-10.399
▁dutch	-10.399
▁trinco	-10.399
▁element	-10.399
▁stamp	-10.399
▁dental	-10.399
▁gamble	-10.399
▁diving	-10.399
▁bpo	-10.399
▁merit	-10.3991
▁button	-10.3993
▁sink	-10.3994
▁extremist	-10.3996
▁stance	-10.3998
▁brit	-10.3999
▁extract	-10.4
▁meta	-10.4003
▁ping	-10.4006
▁cite	-10.4009
▁tracking	-10.4013
▁greedy	-10.4018
▁golden	-10.4021
ised	-10.403
▁amd	-10.4036
▁privileged	-10.4039
goda	-10.4041
ldr	-10.4047
▁consistently	-10.4065
▁og	-10.4073
▁gal	-10.4103
hara	-10.4146
ella	-10.4154
inland	-10.4159
ston	-10.4176
▁dip	-10.4184
▁chart	-10.4184
▁constitutional	-10.4184
hat	-10.4206
▁danger	-10.4206
▁boycott	-10.4207
▁demographic	-10.4207
▁instrument	-10.4207
▁landlord	-10.4207
▁liquor	-10.4207
▁mosquito	-10.4207
▁reluctant	-10.4207
▁vegetable	-10.4207
▁cargill	-10.4207
▁routine	-10.4207
▁cartoon	-10.4207
▁torrent	-10.4207
▁migrant	-10.4208
▁porn	-10.4208
▁appreciation	-10.4208
▁vape	-10.4209
▁dividend	-10.421
▁novel	-10.421
▁appearance	-10.4212
▁ds	-10.4217
▁premier	-10.4217
▁sme	-10.4219
▁yup	-10.4227
▁apology	-10.4233
▁korean	-10.4237
ola	-10.424
▁bean	-10.4243
▁importance	-10.4244
▁eco	-10.4264
uma	-10.4279
hana	-10.4284
▁spin	-10.43
▁sam	-10.43
▁manageable	-10.4305
iff	-10.4315
▁authorize	-10.4329
bie	-10.4335
▁numero	-10.4403
raja	-10.442
▁anonym	-10.4428
▁wrap	-10.4429
▁ceremony	-10.4429
▁cigarette	-10.4429
▁inconvenience	-10.4429
▁negotiation	-10.4429
▁suspend	-10.4429
▁threshold	-10.4429
▁discord	-10.4429
▁emerge	-10.4429
▁interfere	-10.4429
▁tackle	-10.4429
▁orphanage	-10.4429
▁flex	-10.443
▁draft	-10.443
▁yellow	-10.443
▁misinformation	-10.4431
▁genius	-10.4431
▁amex	-10.4431
▁gentle	-10.4431
▁password	-10.4432
▁plz	-10.4433
▁quantity	-10.4433
▁differ	-10.4433
▁accordingly	-10.4434
▁dumbass	-10.4435
▁enforcement	-10.4439
▁consultation	-10.4442
▁mbbs	-10.4443
▁pace	-10.4445
▁backwards	-10.4447
▁nose	-10.4449
▁dispose	-10.4451
▁conductor	-10.4454
▁ccc	-10.4458
▁clip	-10.446
▁pta	-10.4485
▁flu	-10.4486
pitiya	-10.4496
▁for	-10.4502
▁shi	-10.451
▁iv	-10.4514
gama	-10.4531
eat	-10.4552
▁outsource	-10.4564
▁ie	-10.4567
▁fc	-10.4575
▁ke	-10.4577
▁moderate	-10.4579
ward	-10.4583
▁mm	-10.4591
dha	-10.4604
▁caste	-10.4635
▁charger	-10.4638
bur	-10.4649
▁liquid	-10.4652
▁circulat	-10.4656
▁fabric	-10.4656
▁ingredient	-10.4656
▁intelligent	-10.4656
▁lobby	-10.4656
▁sirisena	-10.4656
▁supplier	-10.4656
▁theatre	-10.4656
▁wickremesinghe	-10.4656
▁shelter	-10.4656
▁dfcc	-10.4657
▁unrelat	-10.4657
▁gmoa	-10.4657
▁museum	-10.4657
▁grandparent	-10.4657
▁prosper	-10.4657
▁blog	-10.4657
▁utiliz	-10.4657
▁recall	-10.4657
▁drastically	-10.4658
▁garage	-10.4658
▁atheis	-10.4658
▁swap	-10.4659
▁stall	-10.4659
▁kumara	-10.4659
▁bailout	-10.466
▁perch	-10.4662
▁overtime	-10.4662
▁pitch	-10.4664
▁dub	-10.4668
ring	-10.4675
▁assist	-10.4685
riya	-10.4694
▁thai	-10.4695
▁inquire	-10.4698
▁dam	-10.4705
▁height	-10.4705
▁humanity	-10.4708
▁tra	-10.4744
ada	-10.4764
▁fresher	-10.4769
ancy	-10.4771
▁bid	-10.4777
▁bf	-10.4797
▁intr	-10.4804
▁exceptional	-10.4806
view	-10.4813
power	-10.4814
▁tile	-10.4819
pray	-10.482
▁ci	-10.4826
▁convers	-10.484
▁scum	-10.4843
nda	-10.485
aff	-10.4856
dor	-10.4856
▁dispos	-10.4867
▁format	-10.4869
▁greed	-10.4872
unda	-10.4873
af	-10.4888
▁academy	-10.4889
▁challenging	-10.4889
▁compulsor	-10.4889
▁forgive	-10.4889
▁galaxy	-10.4889
▁happily	-10.4889
▁quarantine	-10.4889
▁transparent	-10.4889
▁unsafe	-10.4889
▁confusing	-10.4889
▁emigrat	-10.4889
▁iirc	-10.4889
▁hidden	-10.4889
▁transform	-10.4889
▁penny	-10.4889
▁tution	-10.4889
▁timing	-10.489
▁bmw	-10.4891
▁shade	-10.4891
▁thick	-10.4893
▁trace	-10.4894
▁detain	-10.4894
angala	-10.4905
▁doable	-10.4907
▁jk	-10.4916
▁je	-10.4921
▁overwhelming	-10.4922
▁cl	-10.4935
par	-10.4936
shop	-10.4937
▁policeman	-10.4939
▁hel	-10.4945
head	-10.4946
▁ot	-10.4955
▁pit	-10.4961
▁blast	-10.4963
▁pointless	-10.4975
row	-10.4978
bt	-10.4981
▁safely	-10.499
▁ward	-10.4998
▁holy	-10.5003
▁sin	-10.5015
tag	-10.5018
▁tele	-10.5026
nawa	-10.5039
▁mat	-10.5039
▁ec	-10.5051
father	-10.5053
guard	-10.5054
▁ethic	-10.5057
iate	-10.5059
met	-10.5068
▁insanely	-10.5068
▁grandma	-10.5074
▁gl	-10.5081
▁full	-10.5104
▁dominat	-10.5111
kr	-10.5111
▁israeli	-10.5113
▁innovat	-10.5117
vent	-10.5121
▁pg	-10.5125
▁antibiotic	-10.5127
▁definition	-10.5127
▁fiverr	-10.5127
▁incredible	-10.5127
▁length	-10.5127
▁massacre	-10.5127
▁motorbike	-10.5127
▁nanotek	-10.5127
▁python	-10.5127
▁unusual	-10.5127
▁upvote	-10.5127
▁spoil	-10.5127
▁sketch	-10.5127
▁tongue	-10.5127
▁prompt	-10.5127
▁personnel	-10.5127
▁halt	-10.5127
▁distribute	-10.5127
▁mismanagement	-10.5128
▁specify	-10.5128
▁empath	-10.5128
▁river	-10.5128
▁neck	-10.5129
▁outright	-10.5129
▁dictatorship	-10.5129
▁upwork	-10.513
▁bucket	-10.5131
▁roam	-10.5132
▁iq	-10.5132
▁kong	-10.5133
▁sinha	-10.5133
▁loot	-10.5137
▁creation	-10.5139
▁upwards	-10.514
▁outage	-10.514
▁hong	-10.514
shit	-10.5141
▁judgement	-10.5143
▁butter	-10.5149
▁charter	-10.5153
▁swing	-10.5158
▁prep	-10.5158
▁instantly	-10.5167
▁reading	-10.517
aw	-10.5173
▁freeze	-10.5175
▁bath	-10.5187
▁cope	-10.5206
▁imply	-10.5209
▁ny	-10.5215
▁accidental	-10.5237
▁layer	-10.5254
oka	-10.5263
▁ye	-10.5295
▁sol	-10.5304
plus	-10.5304
▁irr	-10.531
▁county	-10.531
▁inquir	-10.5328
▁mc	-10.5329
pende	-10.5338
▁approx	-10.5339
▁dar	-10.5347
▁pl	-10.535
▁terror	-10.5365
▁nik	-10.5367
▁cult	-10.5369
▁alternat	-10.5369
▁biscuit	-10.5371
▁contrast	-10.5371
▁exaggerate	-10.5371
▁initiate	-10.5371
▁pfizer	-10.5371
▁qualify	-10.5371
▁regulator	-10.5371
▁theirs	-10.5371
▁ritual	-10.5371
▁conquer	-10.5371
▁gross	-10.5371
▁horse	-10.5371
▁humid	-10.5371
▁silence	-10.5371
▁unrealistic	-10.5371
▁knock	-10.5371
▁kidney	-10.5371
▁omg	-10.5371
▁carnage	-10.5371
▁theft	-10.5371
▁pirate	-10.5372
▁obligation	-10.5372
▁sunset	-10.5372
▁olympic	-10.5373
▁breach	-10.5373
▁cheese	-10.5374
▁nazi	-10.5374
▁lyce	-10.5376
▁asw	-10.5377
▁toll	-10.5388
▁ramp	-10.5392
▁js	-10.5395
ook	-10.5399
bel	-10.5399
ach	-10.5409
▁israelis	-10.5412
▁socially	-10.5415
▁operato	-10.5418
pola	-10.5422
▁thir	-10.5423
▁string	-10.5423
▁breath	-10.5424
▁yoga	-10.5428
▁excel	-10.5431
▁clinical	-10.5444
▁freely	-10.5444
igh	-10.5456
▁pakistani	-10.5509
▁kara	-10.5516
hhh	-10.5525
if	-10.5543
▁colla	-10.5544
▁llb	-10.5549
▁planet	-10.5554
ike	-10.5555
don	-10.5565
▁generational	-10.5595
▁pharmac	-10.5597
▁outdate	-10.5602
▁bur	-10.5603
▁injure	-10.5607
▁object	-10.5618
▁afternoon	-10.5621
▁altogether	-10.5621
▁applicant	-10.5621
▁atmosphere	-10.5621
▁compensate	-10.5621
▁credible	-10.5621
▁dynamic	-10.5621
▁earbud	-10.5621
▁inclusiv	-10.5621
▁incorrect	-10.5621
▁perception	-10.5621
▁pregnant	-10.5621
▁dispute	-10.5621
▁computing	-10.5621
▁embra	-10.5621
▁enhance	-10.5621
▁petition	-10.5621
▁retard	-10.5621
▁unstable	-10.5621
▁pdf	-10.5621
▁whey	-10.5621
▁angel	-10.5621
▁grey	-10.5622
▁priest	-10.5622
▁uncertainty	-10.5622
▁lockdown	-10.5623
wella	-10.5623
▁upfront	-10.5624
▁smartphone	-10.5624
▁automatic	-10.5625
▁trait	-10.5627
▁redmi	-10.5627
▁harmful	-10.5627
▁assure	-10.5628
▁prof	-10.5629
▁existence	-10.5631
▁curse	-10.5631
▁diversity	-10.5631
▁dust	-10.5632
▁engagement	-10.5634
fo	-10.564
▁bold	-10.5644
▁sci	-10.5646
▁pile	-10.5647
ima	-10.5649
▁sem	-10.5649
▁documentary	-10.5651
▁utc	-10.5653
▁disappointing	-10.5656
addy	-10.5663
▁ruler	-10.5668
▁russians	-10.5671
▁checkout	-10.5686
▁horr	-10.5692
▁punch	-10.5697
▁pp	-10.5714
▁dissolv	-10.5717
▁pos	-10.5717
▁kw	-10.5718
▁asu	-10.5739
fc	-10.5751
gn	-10.5774
▁bn	-10.5782
right	-10.5806
mother	-10.5806
▁pun	-10.5832
▁av	-10.5833
▁any	-10.585
pad	-10.5853
▁hom	-10.5855
▁motivate	-10.5858
▁deb	-10.5865
▁distract	-10.5868
ren	-10.587
▁lgbt	-10.5877
▁basket	-10.5877
rk	-10.5877
▁brilliant	-10.5877
▁casino	-10.5877
▁competitor	-10.5877
▁conclusion	-10.5877
▁credibility	-10.5877
▁disclose	-10.5877
▁nightlife	-10.5877
▁orange	-10.5877
▁paycheck	-10.5877
▁philippine	-10.5877
▁prohibit	-10.5877
▁relocate	-10.5877
▁strategic	-10.5877
▁udawalawe	-10.5877
▁yield	-10.5877
▁blatant	-10.5877
▁brush	-10.5877
▁criticise	-10.5877
▁radical	-10.5877
▁theater	-10.5877
▁dignity	-10.5877
▁flip	-10.5877
▁visual	-10.5878
▁badulla	-10.5878
▁hitler	-10.5878
▁curfew	-10.5878
▁lounge	-10.5878
▁rabie	-10.5878
▁hy	-10.5878
▁premise	-10.5878
▁ltd	-10.5879
▁myth	-10.5879
▁gover	-10.5879
▁binance	-10.588
▁kfc	-10.5881
▁mileage	-10.5881
▁incur	-10.5882
▁invent	-10.5882
▁clueless	-10.5883
▁repay	-10.5884
▁fulfill	-10.5887
▁accusation	-10.5887
▁advertisement	-10.5888
▁partnership	-10.5888
▁iam	-10.5889
▁subscribe	-10.5891
▁smth	-10.5892
aree	-10.5893
▁mah	-10.5894
▁guideline	-10.5895
▁biased	-10.5904
▁icon	-10.5905
alyze	-10.5916
▁merc	-10.5929
▁wheeler	-10.5934
▁passive	-10.5936
▁nationality	-10.5953
▁ref	-10.5963
▁severely	-10.5973
▁devs	-10.5983
▁dj	-10.5987
ura	-10.5999
▁wisely	-10.6007
asiri	-10.6025
▁fishing	-10.6028
▁pearl	-10.603
oma	-10.6032
▁pipe	-10.6035
oid	-10.604
bon	-10.6051
▁tender	-10.6067
▁disappoint	-10.6085
▁normalize	-10.6097
▁guilt	-10.611
▁butt	-10.6112
▁inspect	-10.613
▁brainwash	-10.6141
▁controversial	-10.6141
▁disclaimer	-10.6141
▁diversify	-10.6141
▁elaborate	-10.6141
▁fertilizer	-10.6141
▁flavor	-10.6141
▁judgment	-10.6141
▁lucrative	-10.6141
▁municipal	-10.6141
▁nervous	-10.6141
▁perceive	-10.6141
▁sincere	-10.6141
▁substantial	-10.6141
▁vouch	-10.6141
▁animation	-10.6141
▁comparable	-10.6141
▁poison	-10.6141
▁tolerate	-10.6141
▁plaza	-10.6141
▁cctv	-10.6141
▁spouse	-10.6141
▁atrad	-10.6141
▁sunny	-10.6141
▁closed	-10.6141
▁carrier	-10.6141
▁preferred	-10.6141
▁saudi	-10.6141
▁ruhun	-10.6141
▁backend	-10.6143
▁karma	-10.6143
▁garment	-10.6144
▁tenn	-10.6144
▁loop	-10.6144
▁viral	-10.6144
▁confront	-10.6146
▁throttle	-10.6147
▁havelock	-10.6148
▁specialization	-10.6149
▁huh	-10.615
▁herb	-10.6151
▁suffering	-10.6152
▁deem	-10.6153
▁lip	-10.6153
▁weekday	-10.6155
▁usaid	-10.6155
▁dedicated	-10.6157
▁feb	-10.6158
▁pave	-10.6158
▁creepy	-10.6164
▁hort	-10.6164
▁renewal	-10.617
▁seize	-10.6173
ron	-10.6174
▁lag	-10.6174
▁functional	-10.6187
▁workshop	-10.6194
▁spit	-10.6197
▁hyper	-10.6199
kanda	-10.6212
▁bitter	-10.6213
▁bend	-10.6217
▁remov	-10.6226
▁apolog	-10.6227
▁men	-10.6232
▁craft	-10.6236
▁oya	-10.6241
▁correction	-10.6255
bar	-10.6262
▁mission	-10.6276
▁lg	-10.6277
▁lens	-10.6287
illa	-10.629
▁soe	-10.6292
ford	-10.6293
▁ut	-10.6297
▁toy	-10.6314
col	-10.6316
▁reduct	-10.633
ife	-10.6333
van	-10.6336
aire	-10.6375
▁sham	-10.6385
fall	-10.6385
▁command	-10.6387
eliya	-10.6395
▁kap	-10.6404
▁explo	-10.6407
▁aesthetic	-10.6411
▁bambalapitiya	-10.6411
▁chunk	-10.6411
▁compound	-10.6411
▁convict	-10.6411
▁deliberate	-10.6411
▁hesitant	-10.6411
▁hesitat	-10.6411
▁newswire	-10.6411
▁occupation	-10.6411
▁polonnaruwa	-10.6411
▁underworld	-10.6411
▁concert	-10.6411
▁demonstrat	-10.6411
▁mcdonald	-10.6411
▁eager	-10.6411
▁fuss	-10.6411
▁controller	-10.6411
▁surface	-10.6411
▁tiger	-10.6412
▁downfall	-10.6412
▁wedn	-10.6412
▁chairman	-10.6414
▁dissanayake	-10.6415
▁stir	-10.6417
▁cunt	-10.6418
rney	-10.6419
▁arrangement	-10.6422
▁outsider	-10.6428
kia	-10.6428
▁smh	-10.6429
▁magically	-10.6431
alla	-10.6432
▁addiction	-10.6434
▁indirectly	-10.6441
▁overpriced	-10.6441
▁hopeful	-10.6443
▁pleasant	-10.6445
round	-10.6446
▁devi	-10.6447
▁mood	-10.6454
▁sooo	-10.6455
▁cough	-10.6456
▁of	-10.6467
▁slide	-10.647
▁clan	-10.6476
some	-10.6487
tech	-10.6488
▁maker	-10.6519
▁vf	-10.6521
east	-10.6529
▁eld	-10.6529
▁row	-10.6531
▁mistaken	-10.6542
arath	-10.6547
▁mob	-10.6554
▁abs	-10.6561
▁pig	-10.6578
▁merchan	-10.658
cade	-10.6597
ria	-10.6604
gala	-10.6607
voice	-10.6615
▁bowl	-10.6625
liable	-10.6631
▁consist	-10.6643
▁instant	-10.6645
arine	-10.6649
▁embarrass	-10.6654
▁jealous	-10.6657
▁pala	-10.6659
thub	-10.6664
▁mill	-10.6686
▁legend	-10.6687
yana	-10.6688
▁extensive	-10.6689
▁hefty	-10.6689
▁hypocrisy	-10.6689
▁ignorance	-10.6689
▁immense	-10.6689
▁inefficient	-10.6689
▁interpret	-10.6689
▁prefect	-10.6689
▁wilpattu	-10.6689
▁essay	-10.6689
▁sightsee	-10.6689
▁cinec	-10.6689
▁dentist	-10.6689
▁scandal	-10.6689
▁portray	-10.6689
▁forecast	-10.6689
▁entertain	-10.6689
▁terminal	-10.6689
▁overcharge	-10.6689
▁aero	-10.669
▁mega	-10.669
▁aswell	-10.669
▁knee	-10.669
▁rational	-10.669
▁dilith	-10.669
▁empire	-10.669
▁humble	-10.669
▁offence	-10.669
▁usb	-10.6691
▁skeptical	-10.6693
▁variant	-10.6693
▁manipulation	-10.6694
▁powercut	-10.6694
▁preach	-10.6694
▁raid	-10.6696
▁probation	-10.6696
▁orientation	-10.6697
▁strip	-10.6698
vt	-10.6701
▁fianc	-10.6704
▁summer	-10.6704
▁injur	-10.6704
▁anxi	-10.6704
▁frustrated	-10.6705
▁comb	-10.6712
▁sheer	-10.6713
▁trainee	-10.6718
kin	-10.6722
▁presentation	-10.6722
▁mcq	-10.6724
▁continuously	-10.6725
ruwa	-10.6726
▁fut	-10.6728
▁rapidly	-10.673
rasp	-10.6731
try	-10.6739
▁subjective	-10.6739
▁glo	-10.6742
▁hardship	-10.6743
▁limitation	-10.6756
▁span	-10.676
ology	-10.6762
▁shoulder	-10.6763
▁depu	-10.6774
▁vid	-10.6782
▁apit	-10.6803
hari	-10.684
▁pat	-10.6844
▁permanently	-10.6845
▁cute	-10.6853
ologist	-10.6862
▁her	-10.6865
ign	-10.6868
▁outta	-10.6877
▁plat	-10.6878
▁reg	-10.6879
soft	-10.6894
clear	-10.6894
▁independently	-10.6901
▁timeline	-10.6903
chain	-10.6908
▁luxur	-10.6944
hough	-10.695
▁historic	-10.6958
residency	-10.697
▁inherit	-10.6973
artial	-10.6974
▁arrogant	-10.6974
▁bureaucracy	-10.6974
▁communism	-10.6974
▁comparatively	-10.6974
▁congrat	-10.6974
▁jewelry	-10.6974
▁kangaroo	-10.6974
▁neglect	-10.6974
▁outlook	-10.6974
▁phenomenon	-10.6974
▁rajapakshe	-10.6974
▁reservation	-10.6974
▁resolution	-10.6974
▁straightforward	-10.6974
▁thursday	-10.6974
▁unknown	-10.6974
▁wikipedia	-10.6974
▁jesus	-10.6974
▁lemme	-10.6974
▁substance	-10.6974
▁technique	-10.6974
▁wattala	-10.6974
▁fonse	-10.6974
▁tuesday	-10.6974
▁tropic	-10.6974
▁calculator	-10.6974
▁endorse	-10.6974
▁metropoli	-10.6975
▁repeatedly	-10.6975
▁optimistic	-10.6975
▁diverse	-10.6975
▁straw	-10.6975
eopard	-10.6975
▁telecom	-10.6975
▁kottawa	-10.6975
▁bargain	-10.6976
▁england	-10.6976
▁quiz	-10.6976
▁juice	-10.6977
▁hoard	-10.6977
▁sparkle	-10.6977
▁spell	-10.6978
akuru	-10.6978
▁bullet	-10.6978
▁odel	-10.6979
▁motion	-10.6979
▁flagship	-10.698
▁grass	-10.6981
▁junction	-10.6982
▁junk	-10.6985
▁formula	-10.6987
▁linu	-10.699
▁phrase	-10.6991
▁naive	-10.6996
▁intense	-10.6998
▁nd	-10.7001
▁massively	-10.7002
▁ravi	-10.7006
roll	-10.7008
▁deduction	-10.7009
▁boomer	-10.7012
hap	-10.7019
uru	-10.7019
post	-10.702
▁headline	-10.7025
▁expression	-10.7032
▁yell	-10.7036
for	-10.7038
rie	-10.704
▁cargo	-10.7043
form	-10.7047
ummy	-10.7048
▁sane	-10.7064
asia	-10.7119
▁slim	-10.7123
▁sony	-10.7129
ux	-10.7131
lle	-10.7136
▁recycle	-10.7168
medical	-10.7195
ddle	-10.7199
ox	-10.7217
▁grama	-10.7225
ification	-10.7231
▁sens	-10.7233
▁manual	-10.7238
▁rig	-10.7243
▁intent	-10.7258
▁shin	-10.7258
▁digit	-10.726
▁yahapalana	-10.7266
▁theoretical	-10.7268
▁disadvantage	-10.7268
▁flavour	-10.7268
▁glorify	-10.7268
▁intellectual	-10.7268
▁lasantha	-10.7268
▁nandalal	-10.7268
▁palestine	-10.7268
▁peanut	-10.7268
▁skyrocket	-10.7268
▁unprofessional	-10.7268
▁withhold	-10.7268
▁worthwhile	-10.7268
▁fronx	-10.7269
▁reckless	-10.7269
▁classroom	-10.7269
▁outfit	-10.7269
▁seylan	-10.7269
▁fedex	-10.7269
▁homophobi	-10.7269
▁notorious	-10.7269
▁unrest	-10.7269
▁ebay	-10.7269
▁hindi	-10.7269
esday	-10.7269
▁authoritarian	-10.7269
▁halal	-10.7269
▁collateral	-10.7269
▁whale	-10.727
▁database	-10.727
▁filth	-10.727
▁ambi	-10.727
▁tune	-10.7271
▁marxis	-10.7272
▁colonialism	-10.7272
▁beware	-10.7272
▁quant	-10.7272
▁intel	-10.7273
▁instruction	-10.7273
▁impressive	-10.7274
▁erp	-10.7275
▁bump	-10.7275
▁incompetence	-10.7276
▁soil	-10.7277
▁bas	-10.7277
▁mg	-10.7277
▁prepay	-10.7278
▁better	-10.7278
▁listing	-10.7279
▁reset	-10.728
▁arise	-10.7284
▁reap	-10.7284
▁notification	-10.7286
▁demon	-10.7289
▁representation	-10.7291
▁rem	-10.7296
urge	-10.7298
▁workload	-10.7302
atter	-10.7308
▁meetup	-10.7311
▁roi	-10.7312
▁meth	-10.7317
▁bun	-10.7322
max	-10.7324
▁idiotic	-10.7327
▁angle	-10.7327
▁container	-10.7329
▁meantime	-10.733
▁cro	-10.7333
▁counsel	-10.7335
▁py	-10.735
▁los	-10.7355
rent	-10.7361
▁automat	-10.7404
▁usdt	-10.7406
chi	-10.7407
▁vijaya	-10.7408
▁historically	-10.7411
▁vip	-10.7419
▁had	-10.7419
atta	-10.742
▁casually	-10.7422
▁til	-10.7423
▁caf	-10.7426
▁specialise	-10.7431
▁temp	-10.7434
▁existent	-10.7448
▁tick	-10.7462
▁jee	-10.7491
lock	-10.7493
holder	-10.7498
dala	-10.7503
play	-10.7507
▁ahh	-10.7526
▁disgust	-10.7536
hole	-10.7536
lop	-10.7547
▁lotus	-10.7559
▁accommodat	-10.7561
take	-10.7566
▁patriot	-10.757
▁accomplish	-10.7572
▁battaramull	-10.7572
▁comprehensi	-10.7572
▁culprit	-10.7572
▁facilitate	-10.7572
▁fiscal	-10.7572
▁inevitable	-10.7572
▁melbourne	-10.7572
▁panadura	-10.7572
▁spectrum	-10.7572
▁television	-10.7572
▁territory	-10.7572
▁unexpected	-10.7572
▁volatile	-10.7572
▁vulnerable	-10.7572
▁contradict	-10.7572
▁knife	-10.7572
▁prestig	-10.7572
▁absorb	-10.7572
▁squeez	-10.7572
▁bitcoin	-10.7572
▁apparel	-10.7572
▁genetic	-10.7572
▁hilton	-10.7572
allocation	-10.7572
▁crony	-10.7572
▁attest	-10.7572
▁sweep	-10.7572
▁automobile	-10.7572
▁nepo	-10.7572
▁roast	-10.7572
uveni	-10.7572
▁unemployment	-10.7572
rift	-10.7572
▁groom	-10.7572
▁convo	-10.7573
▁kudo	-10.7573
▁honour	-10.7574
▁restore	-10.7575
▁wireless	-10.7576
▁mouse	-10.7577
▁intentionally	-10.7578
▁chess	-10.7578
▁grave	-10.7578
▁amid	-10.7578
▁delusional	-10.7578
▁harbo	-10.758
▁um	-10.7581
▁maid	-10.7582
▁fitting	-10.7582
▁honk	-10.7584
▁starve	-10.7585
▁metro	-10.759
ique	-10.7591
▁irony	-10.7599
▁drinking	-10.76
▁weigh	-10.7601
▁reel	-10.7604
▁gpt	-10.7605
▁bash	-10.7607
▁lact	-10.7609
▁acre	-10.7609
▁embarrassing	-10.761
▁notify	-10.761
▁versa	-10.7611
▁loyal	-10.7617
▁igp	-10.7617
▁prayer	-10.7618
▁trim	-10.762
▁winter	-10.7632
▁hail	-10.7633
▁relaxed	-10.7634
▁alien	-10.7648
▁les	-10.7649
ifi	-10.7651
▁if	-10.7664
▁ck	-10.7687
uge	-10.7705
iling	-10.7705
▁editor	-10.7711
▁pear	-10.7711
tamin	-10.7716
▁automate	-10.7752
▁placement	-10.7786
ump	-10.7786
▁cure	-10.78
▁dan	-10.7823
▁bol	-10.7833
▁cm	-10.7838
asuma	-10.7839
▁increas	-10.7841
▁rapid	-10.7842
▁ov	-10.7859
▁dedicate	-10.7865
▁loser	-10.7866
▁fulfil	-10.7873
▁immigrat	-10.7874
▁academi	-10.7875
▁io	-10.7882
▁accumulate	-10.7884
▁condemn	-10.7884
▁deploy	-10.7884
▁dismiss	-10.7884
▁distribution	-10.7884
▁enlighten	-10.7884
▁hurdle	-10.7884
▁implication	-10.7884
▁integrity	-10.7884
▁outstanding	-10.7884
▁overlook	-10.7884
▁societal	-10.7884
▁stadium	-10.7884
▁survival	-10.7884
▁unbiased	-10.7884
▁xiaomi	-10.7884
▁bootlick	-10.7884
▁dunno	-10.7884
▁fiction	-10.7884
▁clarity	-10.7884
▁simplytek	-10.7884
▁colonize	-10.7884
▁plumb	-10.7884
▁rival	-10.7884
▁psychological	-10.7884
▁problematic	-10.7884
▁scold	-10.7884
▁tinder	-10.7884
▁cardinal	-10.7884
▁basketball	-10.7885
▁bakery	-10.7886
▁robotic	-10.7887
▁excessive	-10.7887
▁silly	-10.7888
▁alarm	-10.7889
▁waterfall	-10.7889
▁jean	-10.789
port	-10.7891
▁barber	-10.7891
▁superiority	-10.7894
▁bored	-10.7897
▁renewable	-10.7899
▁sw	-10.7899
uv	-10.7903
▁caa	-10.7905
▁settlement	-10.792
mv	-10.7922
ft	-10.793
▁rust	-10.7931
ramid	-10.7932
▁eve	-10.7936
▁nv	-10.794
▁spar	-10.7941
▁dash	-10.7944
▁troll	-10.7947
cam	-10.7961
▁nc	-10.7967
▁flower	-10.7974
cious	-10.7991
▁replica	-10.8002
▁uda	-10.8003
▁sto	-10.8015
▁mayo	-10.8028
▁shocking	-10.8031
▁illegally	-10.8036
▁tab	-10.8042
▁diy	-10.8058
▁albe	-10.809
▁pee	-10.8092
▁virtu	-10.8102
unge	-10.8118
store	-10.8131
space	-10.8133
residential	-10.8136
▁bra	-10.8136
▁lan	-10.8143
▁ca	-10.8154
▁photograph	-10.8155
▁au	-10.8158
alam	-10.8158
loyalty	-10.8159
▁she	-10.8163
▁scare	-10.8169
itis	-10.8172
▁journal	-10.8187
▁frustrate	-10.8187
▁tire	-10.8189
station	-10.8191
▁cert	-10.8191
ood	-10.8204
▁fantas	-10.8206
tention	-10.8207
▁accomodat	-10.8207
▁accredit	-10.8207
▁awkward	-10.8207
▁chronic	-10.8207
▁coalition	-10.8207
▁distinct	-10.8207
▁ethernet	-10.8207
▁furthermore	-10.8207
▁giphy	-10.8207
▁hygiene	-10.8207
▁interrupt	-10.8207
▁jungle	-10.8207
▁monarch	-10.8207
▁mortgage	-10.8207
▁overcrowd	-10.8207
▁packaging	-10.8207
▁subtitle	-10.8207
▁unofficial	-10.8207
▁instability	-10.8207
▁rumour	-10.8207
▁signature	-10.8207
▁frimi	-10.8207
▁wound	-10.8207
▁lyric	-10.8207
▁fortune	-10.8207
▁parallel	-10.8207
▁sysco	-10.8207
▁restart	-10.8207
▁queen	-10.8207
▁twist	-10.8207
▁generator	-10.8207
▁refresh	-10.8208
▁socio	-10.8208
▁crib	-10.8209
band	-10.821
▁imho	-10.821
▁injection	-10.821
▁worsen	-10.8213
▁liquidity	-10.8213
▁crew	-10.8213
▁fever	-10.8216
▁recording	-10.8217
▁jewellery	-10.8218
▁devalue	-10.8224
▁ecu	-10.8225
▁summary	-10.823
▁pink	-10.823
▁bless	-10.8233
▁rail	-10.8237
▁snorkeling	-10.8237
mani	-10.8253
own	-10.8255
▁aunty	-10.8255
▁endure	-10.8257
▁quo	-10.8258
train	-10.8265
▁cultivat	-10.8267
awala	-10.8272
▁tee	-10.828
▁meh	-10.8283
▁malaysian	-10.8284
▁stake	-10.8295
▁bone	-10.8302
▁gbp	-10.831
cial	-10.831
ground	-10.8322
▁washing	-10.8339
fin	-10.8347
▁gel	-10.8349
▁mild	-10.835
▁np	-10.8366
igama	-10.8373
▁airlines	-10.8383
▁aust	-10.8387
▁edition	-10.8402
▁wan	-10.8414
▁strictly	-10.8444
wo	-10.8445
rance	-10.8454
school	-10.8463
condition	-10.8466
▁imagin	-10.8476
read	-10.8484
wala	-10.8492
inner	-10.8493
▁polite	-10.8496
▁concentrate	-10.8505
▁wit	-10.8505
giri	-10.8506
▁gree	-10.8512
sey	-10.8528
▁fisher	-10.853
▁hs	-10.853
▁billing	-10.8532
▁dictat	-10.8533
▁commi	-10.8533
▁trader	-10.8536
▁excess	-10.8537
▁advisable	-10.854
▁ashamed	-10.854
▁assassinat	-10.854
▁concrete	-10.854
▁explicit	-10.854
▁gambling	-10.854
▁gossip	-10.854
▁irrespective	-10.854
▁leban	-10.854
▁prabhakar	-10.854
▁pronunciation	-10.854
▁rebuild	-10.854
▁reception	-10.854
▁sigirya	-10.854
▁smoking	-10.854
▁tsunami	-10.854
▁unacceptable	-10.854
▁underrated	-10.854
▁unethical	-10.854
▁vegetarian	-10.854
▁baggage	-10.854
▁hectic	-10.854
▁hurry	-10.854
▁resonate	-10.854
▁cruel	-10.854
▁fascis	-10.854
▁wellawatte	-10.854
▁allegedly	-10.854
▁snake	-10.854
▁durable	-10.854
▁spiritual	-10.854
▁understandable	-10.854
▁creativity	-10.854
▁adequate	-10.8541
▁fridge	-10.8542
▁populis	-10.8542
▁jerom	-10.8543
▁yahapalanaya	-10.8543
▁joe	-10.8543
▁clock	-10.8546
▁shell	-10.8546
▁adhere	-10.8546
▁doze	-10.8547
amro	-10.8547
▁cryptocurrency	-10.8549
▁curve	-10.8549
eutic	-10.855
▁disappointed	-10.8558
▁mee	-10.8561
bble	-10.8563
▁genre	-10.8567
▁rack	-10.8568
▁commander	-10.857
acy	-10.8581
acity	-10.8581
▁reviv	-10.8586
▁scuba	-10.8591
▁stupidity	-10.8602
▁nye	-10.8602
suriya	-10.8616
▁hopeless	-10.8628
▁nor	-10.8635
▁designing	-10.8641
▁tricky	-10.8651
fuck	-10.8694
▁bm	-10.8694
▁complian	-10.8699
▁tale	-10.8703
duwa	-10.8711
▁overhea	-10.8725
harm	-10.8734
▁eh	-10.881
script	-10.881
▁boi	-10.8834
▁creep	-10.8854
▁iron	-10.8857
vil	-10.8863
▁feminis	-10.8866
istan	-10.8866
▁construct	-10.8872
▁drastic	-10.8883
▁ambassador	-10.8885
▁backlash	-10.8885
▁confusion	-10.8885
▁disregard	-10.8885
▁emission	-10.8885
▁flexibility	-10.8885
▁fraction	-10.8885
▁stereotype	-10.8885
▁venezuela	-10.8885
▁wisdom	-10.8885
▁bypass	-10.8885
▁precise	-10.8885
▁vlog	-10.8885
▁saint	-10.8885
▁bureau	-10.8885
▁lmk	-10.8885
▁biological	-10.8885
▁stagna	-10.8885
▁funeral	-10.8885
▁taboo	-10.8885
▁puls	-10.8886
▁slmc	-10.8886
▁query	-10.8886
▁journalism	-10.8887
▁thrill	-10.8887
▁weed	-10.8887
▁puppet	-10.8887
▁blank	-10.8887
▁spill	-10.8887
▁enact	-10.8889
▁toast	-10.8889
▁caption	-10.8891
▁paddy	-10.8892
▁vanish	-10.8892
▁bald	-10.8894
▁comedy	-10.8895
▁ironic	-10.8896
▁dire	-10.8897
▁msg	-10.8899
▁pleasure	-10.8902
▁brokerage	-10.8904
▁motivated	-10.8911
acle	-10.8912
▁winner	-10.8913
singhe	-10.8915
▁nationalistic	-10.8915
▁thoroughly	-10.8915
oom	-10.8916
▁snap	-10.8917
▁shipment	-10.8926
▁keral	-10.8928
▁rejection	-10.8959
▁mindful	-10.8962
ku	-10.897
▁homeless	-10.8989
oot	-10.9
▁trc	-10.901
▁sanit	-10.9012
▁endless	-10.9029
▁hari	-10.903
▁helm	-10.903
▁azur	-10.9031
ified	-10.9043
▁ric	-10.9045
▁bou	-10.9052
▁shooting	-10.9053
▁ob	-10.9057
▁psych	-10.906
▁notch	-10.9062
▁cvs	-10.9068
▁fad	-10.9076
tumble	-10.9081
bum	-10.9086
▁liter	-10.9091
gment	-10.91
▁fdi	-10.9114
corn	-10.9118
▁dos	-10.9138
iness	-10.9147
▁purchas	-10.916
nanda	-10.9163
corporate	-10.9168
pool	-10.9168
system	-10.9168
road	-10.9169
▁ii	-10.9174
▁tht	-10.9175
▁brak	-10.9179
▁overwhelm	-10.9192
▁continuous	-10.9196
▁ipo	-10.9206
unu	-10.9213
nsible	-10.9217
▁stare	-10.9219
▁descen	-10.9221
▁festiv	-10.9231
▁ironical	-10.9239
▁maithri	-10.9242
▁batticaloa	-10.9242
▁cunning	-10.9242
▁dhammik	-10.9242
▁overstay	-10.9242
▁patience	-10.9242
▁precaution	-10.9242
▁rehabilitat	-10.9242
▁satisfy	-10.9242
▁taiwan	-10.9242
▁ukrainian	-10.9242
▁unreliable	-10.9242
▁ireland	-10.9242
▁privatize	-10.9242
▁destructi	-10.9242
▁hometown	-10.9242
▁leather	-10.9242
▁suppress	-10.9242
▁unaware	-10.9242
▁desert	-10.9242
▁persist	-10.9242
▁mediocr	-10.9242
▁lorry	-10.9242
▁spicy	-10.9242
▁repeal	-10.9242
▁corona	-10.9242
▁rubber	-10.9242
▁hiking	-10.9243
▁musc	-10.9243
▁someday	-10.9243
▁keheli	-10.9243
▁preparation	-10.9243
▁resistance	-10.9244
▁crab	-10.9244
▁nasty	-10.9244
▁constructive	-10.9245
▁yaris	-10.9245
▁dms	-10.9246
▁wicke	-10.9246
▁calori	-10.9246
▁brave	-10.9246
▁pawn	-10.9247
▁infection	-10.9248
▁polish	-10.9248
▁diplomatic	-10.9248
▁nuance	-10.9249
▁ballot	-10.9249
▁oppression	-10.925
▁bali	-10.9253
▁seperate	-10.9254
▁announcement	-10.9256
closure	-10.9259
▁nord	-10.9264
few	-10.9267
▁bowler	-10.9273
▁steer	-10.9284
▁thankfully	-10.9289
▁politely	-10.9292
▁chap	-10.9299
▁macro	-10.9303
▁odi	-10.9312
▁bia	-10.9313
▁qua	-10.9315
▁modi	-10.9315
▁comeback	-10.9319
▁yu	-10.9323
ein	-10.9325
rope	-10.9329
▁interviewer	-10.9336
▁coup	-10.9343
▁kindness	-10.9352
▁murderer	-10.9361
▁urgently	-10.9362
ude	-10.9364
giant	-10.9368
▁medal	-10.9388
▁skinn	-10.9411
ulu	-10.9418
▁fur	-10.9418
▁ox	-10.9435
▁simp	-10.944
bag	-10.9449
jp	-10.945
▁tent	-10.9456
▁snorkel	-10.9469
wear	-10.9474
▁gar	-10.9498
▁thankful	-10.9509
ped	-10.9525
card	-10.9544
▁agricultur	-10.9569
rel	-10.958
icc	-10.9585
▁magic	-10.9594
▁compute	-10.9595
▁hmm	-10.9601
▁migra	-10.9603
▁kott	-10.9603
▁sovereign	-10.961
▁horizon	-10.9612
▁brazil	-10.9612
▁caution	-10.9612
▁exciting	-10.9612
▁insurrection	-10.9612
▁invasion	-10.9612
▁kalutara	-10.9612
▁paranoid	-10.9612
▁retreat	-10.9612
▁unavailable	-10.9612
▁yamaha	-10.9612
▁advertising	-10.9612
▁annex	-10.9612
▁recieve	-10.9612
▁showroom	-10.9612
sanction	-10.9612
▁dancing	-10.9612
▁redeem	-10.9612
▁tenure	-10.9612
▁fried	-10.9613
▁breed	-10.9613
▁token	-10.9613
▁honey	-10.9613
▁dermatologist	-10.9613
▁helico	-10.9613
▁queer	-10.9613
▁seven	-10.9613
▁melt	-10.9614
▁bride	-10.9614
▁evade	-10.9615
▁fold	-10.9615
▁anker	-10.9616
▁paradise	-10.9617
▁wander	-10.9617
▁millennial	-10.9618
▁whine	-10.9621
obe	-10.9621
▁installation	-10.9622
▁allergy	-10.9622
▁philosophy	-10.9622
▁amend	-10.9624
▁nawala	-10.9627
▁llm	-10.9629
▁messy	-10.963
▁bayya	-10.9631
▁nelu	-10.9633
cse	-10.9634
llite	-10.9636
master	-10.9644
▁geopolitical	-10.9646
▁yh	-10.9651
▁blessing	-10.9653
▁bury	-10.966
▁domino	-10.966
cept	-10.9661
▁retailer	-10.9697
▁slab	-10.9697
▁acne	-10.9717
▁pri	-10.9717
▁val	-10.9726
▁gathering	-10.9761
▁treaty	-10.9779
▁tutoring	-10.9787
iesl	-10.9799
angle	-10.9808
▁cozy	-10.981
▁legalize	-10.9829
▁pose	-10.9831
ioc	-10.9831
bai	-10.9835
dns	-10.9838
▁bait	-10.984
place	-10.9858
wei	-10.9867
▁dna	-10.9868
▁hung	-10.9874
verse	-10.9876
path	-10.9884
▁vol	-10.9891
thala	-10.9891
▁lite	-10.9902
▁financ	-10.9914
▁annually	-10.9916
▁malli	-10.9921
position	-10.9921
graduate	-10.9922
national	-10.9923
wind	-10.9925
▁beard	-10.9925
▁sorta	-10.9936
▁ela	-10.9936
keep	-10.9945
▁backward	-10.9967
ought	-10.9967
▁dirt	-10.9968
ovo	-10.9996
▁christ	-10.9996
▁anniversary	-10.9997
▁chamber	-10.9997
▁chennai	-10.9997
▁circuit	-10.9997
▁clergy	-10.9997
▁credential	-10.9997
▁downhill	-10.9997
▁heaven	-10.9997
▁inappropriate	-10.9997
▁injustice	-10.9997
▁mechatronic	-10.9997
▁netherlands	-10.9997
▁participation	-10.9997
▁recession	-10.9997
▁revolve	-10.9997
▁subsequent	-10.9997
▁surname	-10.9997
▁tshirt	-10.9997
▁unhappy	-10.9997
▁upskill	-10.9997
▁whatnot	-10.9997
▁assurance	-10.9997
▁proportion	-10.9997
▁reopen	-10.9997
▁sirimavo	-10.9997
▁bleach	-10.9997
▁predator	-10.9997
▁shield	-10.9997
▁vocal	-10.9997
▁shark	-10.9997
▁kollupiti	-10.9997
▁swrd	-10.9997
▁hbb	-10.9997
▁harmony	-10.9997
▁pidur	-10.9997
▁traction	-10.9997
▁minimize	-10.9997
▁verbal	-10.9997
▁qatar	-10.9997
▁dodge	-10.9997
▁underestimate	-10.9997
▁scalp	-10.9998
▁conservation	-10.9998
▁blend	-10.9998
▁cease	-10.9998
akin	-10.9999
▁judiciary	-10.9999
▁inspiration	-10.9999
▁combat	-10.9999
▁stitch	-11
▁atti	-11.0001
▁cock	-11.0001
▁instructor	-11.0002
▁specie	-11.0002
▁moir	-11.0003
▁avg	-11.0004
▁ambition	-11.0005
▁collaborate	-11.0006
▁resist	-11.0007
▁motherland	-11.0008
▁eff	-11.0009
▁grain	-11.0011
▁coat	-11.0012
▁christianity	-11.0012
stone	-11.0015
▁playlist	-11.0018
▁idp	-11.002
awn	-11.0023
▁amb	-11.0023
▁jun	-11.0024
▁drum	-11.0024
▁logi	-11.0031
▁jealousy	-11.0041
stop	-11.0048
▁squa	-11.0054
▁jet	-11.006
part	-11.0072
gf	-11.0076
▁rage	-11.009
▁eka	-11.0093
logy	-11.0127
▁recur	-11.0129
▁ray	-11.0144
rcs	-11.0146
▁cis	-11.0147
yak	-11.0156
▁interactiv	-11.0173
▁statu	-11.023
ndra	-11.023
hitha	-11.0238
lateral	-11.0243
▁lev	-11.0256
▁dial	-11.0258
witch	-11.0261
onic	-11.0267
▁proto	-11.0269
arm	-11.027
▁slot	-11.0273
▁eth	-11.0286
ruka	-11.0299
▁victoria	-11.0304
▁az	-11.0311
wana	-11.0317
venue	-11.0321
screen	-11.0323
weera	-11.0324
turn	-11.0328
▁tablet	-11.0328
fire	-11.0331
▁promis	-11.0333
amu	-11.0338
▁approximate	-11.0351
▁kan	-11.0356
▁kul	-11.0367
pala	-11.0387
▁tail	-11.0391
▁sab	-11.0391
▁inferior	-11.0392
▁equip	-11.0393
▁pupp	-11.0394
▁federal	-11.0395
edic	-11.0396
▁afghan	-11.0397
▁algorithm	-11.0397
▁byob	-11.0397
▁consensus	-11.0397
▁cylinder	-11.0397
▁diagnosis	-11.0397
▁discontinue	-11.0397
▁execution	-11.0397
▁heartbreak	-11.0397
▁intervention	-11.0397
▁kingsbury	-11.0397
▁knuckle	-11.0397
▁perpetrator	-11.0397
▁prevalent	-11.0397
▁revenge	-11.0397
▁zimbabwe	-11.0397
▁abusive	-11.0397
▁frontend	-11.0397
▁imperial	-11.0397
▁stomach	-11.0397
▁durability	-11.0397
▁tragic	-11.0397
▁goddam	-11.0397
▁await	-11.0397
▁bbc	-11.0397
▁distant	-11.0397
▁relic	-11.0397
▁presum	-11.0397
▁ousl	-11.0397
▁unpredictable	-11.0398
▁remand	-11.0398
▁aspire	-11.0399
▁akka	-11.0399
▁forgo	-11.0399
▁modify	-11.04
▁brick	-11.04
▁cpu	-11.0402
cast	-11.0403
▁comic	-11.0404
athuranga	-11.0404
▁elevate	-11.0404
▁charm	-11.0404
▁foolish	-11.0406
▁aug	-11.0407
▁freeload	-11.0407
▁after	-11.0407
▁revel	-11.0407
▁pinnaw	-11.0408
▁drown	-11.0408
▁electrician	-11.0409
▁baiya	-11.0411
▁raize	-11.0411
▁hopper	-11.0413
▁neat	-11.0413
▁drill	-11.0415
berry	-11.0416
oj	-11.0418
▁massage	-11.0418
eez	-11.0425
▁deter	-11.0433
▁mud	-11.0437
kantha	-11.0455
uti	-11.046
▁manually	-11.0461
▁neo	-11.0465
▁yk	-11.0469
▁mrp	-11.0475
▁poke	-11.0476
▁lil	-11.0483
▁soc	-11.0524
▁fav	-11.0527
pse	-11.0539
▁kalu	-11.0541
▁smoothly	-11.0554
lm	-11.0561
▁bake	-11.0577
▁rub	-11.0586
chem	-11.0628
hel	-11.0633
▁tape	-11.0665
▁hash	-11.0669
sale	-11.0676
▁gram	-11.068
▁generalize	-11.0702
load	-11.0708
▁creat	-11.0749
▁coordinate	-11.0752
▁lame	-11.0763
▁kal	-11.0767
well	-11.077
▁indirect	-11.077
eep	-11.0778
▁launder	-11.0778
sexuality	-11.0786
▁geo	-11.0786
▁dot	-11.0793
▁phy	-11.0812
conventional	-11.0814
▁anarchy	-11.0814
▁asylum	-11.0814
▁belarus	-11.0814
▁concession	-11.0814
▁corolla	-11.0814
▁cosmetic	-11.0814
▁disastrous	-11.0814
▁dodgy	-11.0814
▁hypothetical	-11.0814
▁inherent	-11.0814
▁intervene	-11.0814
▁repercussion	-11.0814
▁stigma	-11.0814
▁structural	-11.0814
▁technological	-11.0814
▁uncommon	-11.0814
▁bundle	-11.0814
▁username	-11.0814
▁spiral	-11.0814
▁boast	-11.0814
▁remedy	-11.0814
▁kadaw	-11.0814
▁unusable	-11.0814
shadow	-11.0814
▁arguabl	-11.0814
▁overthinke	-11.0814
▁retro	-11.0814
▁nanu	-11.0814
▁shangri	-11.0814
▁scholar	-11.0814
▁disguise	-11.0814
▁misunderstand	-11.0814
▁ethno	-11.0814
▁kotthu	-11.0815
▁lottery	-11.0815
▁secular	-11.0815
▁paragraph	-11.0815
▁speculation	-11.0815
▁rebel	-11.0815
▁homosexuality	-11.0815
▁compatible	-11.0816
▁gimm	-11.0816
▁spring	-11.0816
▁gemini	-11.0816
▁dharma	-11.0816
▁generous	-11.0817
▁fond	-11.0817
wiss	-11.0818
▁demo	-11.0818
▁brace	-11.0818
▁reign	-11.0819
▁foster	-11.0819
▁counsellor	-11.0819
▁remit	-11.082
▁usable	-11.0821
still	-11.0824
▁moderation	-11.0824
▁chop	-11.0825
▁slavery	-11.0825
athi	-11.0825
▁saas	-11.0825
▁sat	-11.0828
▁gp	-11.0829
▁ect	-11.0832
▁kol	-11.0833
▁authenticity	-11.0833
▁foresee	-11.0835
▁rave	-11.0839
▁sensor	-11.0841
▁fence	-11.0842
▁memorize	-11.0845
▁mech	-11.0845
▁hardwork	-11.0851
ronto	-11.0856
rink	-11.0857
ket	-11.0858
▁crapp	-11.0859
▁metric	-11.086
sport	-11.0861
▁curricula	-11.0867
pit	-11.0871
▁undo	-11.0873
consistency	-11.0881
▁sword	-11.0885
▁maz	-11.0885
▁acqui	-11.0898
inda	-11.0899
▁bass	-11.0904
▁relian	-11.0905
▁sigh	-11.092
▁trilli	-11.0925
▁subtl	-11.0931
nous	-11.0933
▁siri	-11.0936
▁eur	-11.0948
chandra	-11.095
▁bigot	-11.0953
▁enjoyable	-11.096
▁moderat	-11.0962
▁baseline	-11.0965
▁activat	-11.0985
▁billionair	-11.0986
▁ranilist	-11.1016
▁viru	-11.1059
▁sltb	-11.106
▁bha	-11.1062
▁naval	-11.1074
arian	-11.108
▁ken	-11.1088
▁therm	-11.1098
umble	-11.111
law	-11.1113
yyy	-11.1124
▁curl	-11.1127
▁jobless	-11.1133
bis	-11.1144
▁tint	-11.1149
grade	-11.1171
shoot	-11.1176
think	-11.1176
▁pero	-11.1187
▁apparent	-11.1203
▁unwa	-11.1205
▁geopolitic	-11.1208
▁templ	-11.1222
▁coffe	-11.1222
awatta	-11.1245
▁champion	-11.1247
▁depart	-11.1247
▁spirit	-11.1248
▁pilgrim	-11.1248
▁accessibility	-11.1248
▁allege	-11.1248
▁asleep	-11.1248
▁athlete	-11.1248
▁ayubowan	-11.1248
▁console	-11.1248
▁fluctuate	-11.1248
▁frizz	-11.1248
▁intermedia	-11.1248
▁slbfe	-11.1248
▁stabilise	-11.1248
▁sympathy	-11.1248
▁tunnel	-11.1248
▁unbearable	-11.1248
▁ancestor	-11.1248
▁assemble	-11.1248
▁conscious	-11.1248
▁continent	-11.1248
▁dishearten	-11.1248
▁imprison	-11.1248
▁physician	-11.1248
▁rescue	-11.1248
▁senanayake	-11.1248
▁buffer	-11.1248
▁sleeve	-11.1248
▁sambol	-11.1248
▁sharing	-11.1249
▁aswes	-11.1249
▁benchmark	-11.1249
▁vital	-11.1249
▁leap	-11.1249
▁bounce	-11.1249
▁geographical	-11.1249
▁fintech	-11.1249
▁harvest	-11.1249
▁outrageous	-11.125
▁legacy	-11.125
lunder	-11.125
▁onboard	-11.125
▁stab	-11.125
▁nerd	-11.125
▁pedo	-11.1252
▁ranja	-11.1252
▁compile	-11.1252
▁exhibition	-11.1253
▁deport	-11.1253
▁dramatic	-11.1254
▁aboard	-11.1254
▁coca	-11.1255
▁motherboard	-11.1255
▁undergo	-11.1256
▁cbk	-11.1257
▁inward	-11.1257
▁betray	-11.1258
▁vow	-11.1261
▁indige	-11.1262
▁bamba	-11.1263
▁astrolog	-11.1263
ific	-11.1264
▁adjustment	-11.1264
▁pest	-11.1265
▁irl	-11.1266
▁revise	-11.1267
▁disabled	-11.1268
▁exploitation	-11.1275
▁defen	-11.1276
▁cott	-11.1277
▁unclear	-11.1279
▁obst	-11.128
▁cycling	-11.1281
▁prophet	-11.1282
▁laundering	-11.1285
▁erase	-11.1286
▁disable	-11.1288
▁imma	-11.129
▁weera	-11.1291
▁liber	-11.1294
▁lick	-11.1299
dua	-11.1308
▁ube	-11.1312
nty	-11.1329
▁shani	-11.133
retake	-11.133
▁emphasis	-11.1333
▁hol	-11.1342
▁jb	-11.1342
▁haj	-11.1346
meric	-11.1347
▁lore	-11.1354
habi	-11.1357
▁sept	-11.1364
▁immatur	-11.1364
▁ink	-11.1368
fact	-11.1399
uuu	-11.1405
▁indo	-11.143
▁coal	-11.1444
▁chilli	-11.1447
ql	-11.1447
▁advancement	-11.1457
▁joker	-11.1485
▁hood	-11.1508
edia	-11.1509
▁mali	-11.1509
ift	-11.1557
ether	-11.1568
▁operat	-11.1578
nted	-11.1578
agon	-11.1592
▁vent	-11.1606
▁appli	-11.1625
weigh	-11.163
suit	-11.1641
maker	-11.1647
▁socialize	-11.1668
▁amma	-11.1671
▁esc	-11.1674
▁oppress	-11.1701
▁jayawardene	-11.1703
▁reccomend	-11.1703
▁affiliation	-11.1703
▁aptitude	-11.1703
▁arbitrar	-11.1703
▁calendar	-11.1703
▁chaotic	-11.1703
▁comprehend	-11.1703
▁demotivate	-11.1703
▁evident	-11.1703
▁exorbitant	-11.1703
▁fiasco	-11.1703
▁fragrance	-11.1703
▁habarana	-11.1703
▁hierarchy	-11.1703
▁identification	-11.1703
▁justification	-11.1703
▁leisure	-11.1703
▁loudspeaker	-11.1703
▁privatization	-11.1703
▁referendum	-11.1703
▁sanctuar	-11.1703
▁suspension	-11.1703
▁unlucky	-11.1703
▁virgin	-11.1703
▁widespread	-11.1703
▁iraq	-11.1703
▁majest	-11.1703
▁toddler	-11.1703
▁uprising	-11.1703
▁wolf	-11.1703
▁hedge	-11.1703
▁shelf	-11.1703
▁colony	-11.1703
▁warehouse	-11.1703
▁compassion	-11.1703
▁tweet	-11.1703
▁southwest	-11.1703
▁php	-11.1703
▁thankyou	-11.1703
▁subsidize	-11.1703
▁sanath	-11.1703
▁tobac	-11.1703
▁prince	-11.1703
▁ncpi	-11.1704
▁telephone	-11.1704
▁flair	-11.1704
▁snow	-11.1704
▁probability	-11.1704
▁spark	-11.1705
▁musk	-11.1705
▁york	-11.1705
▁sovereignty	-11.1705
▁perahera	-11.1706
▁pork	-11.1706
▁outward	-11.1706
▁overrate	-11.1708
▁guardian	-11.1708
cement	-11.1708
▁deaf	-11.171
▁diplomacy	-11.171
▁mendi	-11.1712
emma	-11.1712
▁machan	-11.1712
▁yard	-11.1712
▁viewpoint	-11.1713
▁universe	-11.1714
▁grace	-11.1715
itha	-11.1716
andwid	-11.1716
▁lump	-11.1718
▁vis	-11.1725
▁itak	-11.1725
▁hay	-11.1726
▁intimidate	-11.1728
▁banana	-11.1728
▁feminist	-11.1728
▁bung	-11.173
▁cele	-11.1731
▁ppp	-11.1732
▁validate	-11.1733
▁depressing	-11.1735
▁summ	-11.1737
▁bidd	-11.1744
heim	-11.1753
rich	-11.1758
▁shore	-11.1766
▁sail	-11.1779
▁cpe	-11.1784
▁rear	-11.1785
▁fleet	-11.1788
▁organizer	-11.1807
▁hp	-11.1807
▁roti	-11.183
▁lav	-11.1837
▁slice	-11.1839
ntage	-11.1862
▁chai	-11.1865
hinge	-11.1875
▁gaz	-11.1909
▁nasa	-11.1912
▁deci	-11.1931
match	-11.1931
▁cas	-11.1936
▁internally	-11.1937
▁arab	-11.1943
▁stain	-11.1945
▁dat	-11.1947
poli	-11.1951
▁bent	-11.1985
▁remark	-11.2
▁neg	-11.2002
▁arugamb	-11.2003
▁laksh	-11.2003
word	-11.202
tract	-11.204
quality	-11.2051
force	-11.2063
▁cand	-11.207
tress	-11.2084
▁cycl	-11.2101
▁sep	-11.2102
sustainable	-11.2105
market	-11.2112
chair	-11.2112
▁rein	-11.2121
erti	-11.2129
▁hela	-11.213
▁declar	-11.2136
astery	-11.2151
asinghe	-11.2152
▁summar	-11.2152
▁incom	-11.2162
trust	-11.2172
evolution	-11.2172
▁judicia	-11.2177
▁uncertain	-11.2177
▁vocab	-11.2179
▁opportunist	-11.2179
▁argentin	-11.2179
▁bluetooth	-11.2179
▁buzz	-11.2179
▁controversy	-11.2179
▁dengue	-11.2179
▁dismantle	-11.2179
▁disorder	-11.2179
▁dolphin	-11.2179
▁franchise	-11.2179
▁insert	-11.2179
▁landslide	-11.2179
▁photocopy	-11.2179
▁registrar	-11.2179
▁rhetoric	-11.2179
▁rubbish	-11.2179
▁sabotage	-11.2179
▁substitut	-11.2179
▁switzerland	-11.2179
▁technician	-11.2179
▁treasure	-11.2179
▁verdict	-11.2179
▁hijack	-11.2179
▁inefficiency	-11.2179
▁saloon	-11.2179
▁bloom	-11.2179
▁dynast	-11.2179
▁illusion	-11.2179
▁ruppe	-11.2179
▁colonise	-11.2179
▁courage	-11.2179
▁downsize	-11.2179
▁convey	-11.2179
▁shove	-11.2179
▁mortal	-11.2179
▁moistur	-11.2179
▁depict	-11.2179
▁proficiency	-11.218
▁georg	-11.218
▁backfire	-11.2181
▁tiring	-11.2181
▁outstation	-11.2182
▁sinop	-11.2182
▁empower	-11.2182
▁haput	-11.2182
▁defect	-11.2183
▁tes	-11.2183
▁apologise	-11.2183
▁crown	-11.2183
▁leech	-11.2184
▁chick	-11.2184
▁repost	-11.2185
elecommunication	-11.2185
▁barrel	-11.2186
▁disappointment	-11.2186
▁monger	-11.2186
▁nano	-11.2188
▁shein	-11.2189
▁denial	-11.219
▁paperwork	-11.2192
▁decorat	-11.2193
▁waive	-11.2193
▁shameless	-11.2194
▁entitlement	-11.2197
▁plc	-11.2197
▁distraction	-11.2199
▁roadside	-11.2199
▁damm	-11.2203
udu	-11.2205
▁scenery	-11.2207
cpc	-11.2208
▁benz	-11.2208
▁despise	-11.2209
▁coke	-11.2211
nayake	-11.2213
▁harin	-11.2216
▁yog	-11.223
▁validation	-11.2231
▁found	-11.2231
▁pour	-11.2235
▁momentum	-11.2248
▁redo	-11.225
▁fryer	-11.2253
▁merge	-11.2256
raj	-11.2256
base	-11.226
▁victor	-11.2262
▁converse	-11.2275
jith	-11.2284
▁conf	-11.2289
▁cliq	-11.2291
▁borel	-11.2304
▁bow	-11.2306
▁volt	-11.2366
▁ifs	-11.2382
▁jetw	-11.2391
▁superb	-11.2395
ander	-11.2406
alaya	-11.2412
▁stee	-11.2422
▁literar	-11.2444
wela	-11.2469
▁koo	-11.2479
eau	-11.2503
pass	-11.2549
thiya	-11.2561
ctor	-11.2587
▁cloth	-11.2603
mble	-11.2605
print	-11.2606
▁maxim	-11.261
▁hua	-11.2611
▁polo	-11.2612
avan	-11.2626
▁depress	-11.2628
▁gum	-11.2635
▁complet	-11.2641
▁hav	-11.2649
alinga	-11.2652
▁reco	-11.2664
▁teenage	-11.2667
▁mbb	-11.2671
▁advert	-11.2674
▁insecur	-11.2674
▁premi	-11.2676
ollywood	-11.2677
▁customize	-11.2677
▁ceyl	-11.2678
▁magistra	-11.2679
▁cambodia	-11.2679
▁conclude	-11.2679
▁expansion	-11.2679
▁facepalm	-11.2679
▁forbid	-11.2679
▁forensic	-11.2679
▁hazard	-11.2679
▁intimate	-11.2679
▁invitation	-11.2679
▁jayawardena	-11.2679
▁lmfao	-11.2679
▁overhaul	-11.2679
▁participant	-11.2679
▁plague	-11.2679
▁provision	-11.2679
▁rainforest	-11.2679
▁recipient	-11.2679
▁reconsider	-11.2679
▁refurbish	-11.2679
▁rhythm	-11.2679
▁sandwich	-11.2679
▁surgical	-11.2679
▁unregistered	-11.2679
▁untouch	-11.2679
▁vicinity	-11.2679
▁deflation	-11.2679
▁katunayak	-11.2679
▁pepper	-11.2679
▁throat	-11.2679
▁undermine	-11.2679
piliyan	-11.2679
▁cooperati	-11.2679
compass	-11.2679
▁cancellation	-11.2679
▁gulf	-11.2679
▁litre	-11.2679
▁slogan	-11.2679
▁proxy	-11.2679
▁forcefully	-11.2679
▁awake	-11.268
▁nicotin	-11.268
▁optimiz	-11.268
▁contrar	-11.268
▁subsidiary	-11.268
▁greeting	-11.268
eath	-11.2682
▁collaboration	-11.2682
▁imei	-11.2682
▁airpo	-11.2682
▁illitera	-11.2683
▁reload	-11.2683
▁veggi	-11.2683
▁hoop	-11.2684
▁parliamentarian	-11.2684
▁ryt	-11.2685
▁shave	-11.2685
▁spew	-11.2685
▁prostitution	-11.2686
▁clash	-11.2686
▁steep	-11.2689
▁amara	-11.2691
▁fella	-11.2691
▁diff	-11.2694
▁underage	-11.2697
▁node	-11.2704
▁ohh	-11.2705
▁kuru	-11.2707
▁hypocrite	-11.2707
▁fox	-11.2707
▁mira	-11.2714
▁minus	-11.2716
▁zionis	-11.272
▁duck	-11.273
proxim	-11.2748
▁verit	-11.2756
▁zen	-11.2758
enture	-11.2763
▁poo	-11.2764
most	-11.2767
orous	-11.2773
ugues	-11.2782
▁geograph	-11.2788
sition	-11.279
▁highland	-11.2805
▁patro	-11.2808
▁obv	-11.2808
▁deriv	-11.2813
rence	-11.2826
▁hearted	-11.2831
iyo	-11.2844
quisit	-11.2849
▁faci	-11.2901
▁lib	-11.2901
▁supr	-11.2911
rill	-11.2917
▁intens	-11.2918
▁admire	-11.2935
▁eran	-11.2955
▁octa	-11.2962
ography	-11.2965
shanka	-11.2968
▁medi	-11.2992
▁milo	-11.2998
▁privatis	-11.3002
▁breathe	-11.3005
liance	-11.3044
▁yap	-11.3052
▁horrif	-11.3055
bian	-11.3093
woo	-11.3095
▁geni	-11.3097
▁hahaha	-11.3101
▁vers	-11.3115
agala	-11.3119
srilanka	-11.3132
science	-11.3132
country	-11.3134
mouth	-11.3134
hurt	-11.3136
▁bore	-11.3142
mail	-11.3147
cuba	-11.315
▁organ	-11.3156
▁thorough	-11.3159
▁investigat	-11.3159
▁introduc	-11.3163
▁fac	-11.3176
▁nois	-11.3181
▁excite	-11.3186
▁elevat	-11.3195
▁eligib	-11.3201
▁disgrace	-11.3203
▁outrage	-11.3204
itude	-11.3204
watte	-11.3205
▁molecul	-11.3205
▁athletic	-11.3205
▁bhutan	-11.3205
▁burgher	-11.3205
▁commodity	-11.3205
▁contemporar	-11.3205
▁delicious	-11.3205
▁eradicate	-11.3205
▁fascinating	-11.3205
▁fluctuation	-11.3205
▁freight	-11.3205
▁humiliat	-11.3205
▁inhumane	-11.3205
▁legislation	-11.3205
▁noodle	-11.3205
▁nostalgi	-11.3205
▁palestinian	-11.3205
▁piracy	-11.3205
▁predominant	-11.3205
▁quantitative	-11.3205
▁rabbit	-11.3205
▁resilient	-11.3205
▁retaliat	-11.3205
▁sabaragamuwa	-11.3205
▁savvy	-11.3205
▁seafood	-11.3205
▁terrify	-11.3205
▁tragedy	-11.3205
▁turmoil	-11.3205
▁unhealth	-11.3205
▁vacuum	-11.3205
▁vigilant	-11.3205
▁amateur	-11.3205
▁evasion	-11.3205
▁furnish	-11.3205
▁onsite	-11.3205
▁ravana	-11.3205
▁vocation	-11.3205
▁essence	-11.3205
▁sweden	-11.3205
▁kerner	-11.3205
▁vecno	-11.3205
▁calcey	-11.3205
▁axio	-11.3206
▁offensive	-11.3206
▁attribute	-11.3206
▁dairy	-11.3206
▁fertil	-11.3206
▁fingerprint	-11.3206
▁dashboard	-11.3206
everage	-11.3206
▁ffs	-11.3207
▁maradan	-11.3207
▁kidnap	-11.3207
▁crave	-11.3207
▁wholes	-11.3207
▁oblivious	-11.3208
▁wheat	-11.3208
▁actress	-11.3208
▁decency	-11.3208
▁patriotism	-11.3208
▁spanish	-11.3209
▁stunt	-11.3209
▁smash	-11.3209
car	-11.3209
▁amen	-11.321
▁sedan	-11.321
▁bench	-11.321
▁insecurity	-11.321
ossil	-11.3211
▁satisfaction	-11.3211
▁soap	-11.3211
▁glory	-11.3212
▁chaba	-11.3212
▁coupon	-11.3212
▁mofo	-11.3212
▁firework	-11.3213
▁possession	-11.3215
▁unbelievable	-11.3215
▁telco	-11.3215
▁heel	-11.3218
▁harv	-11.322
▁ancestry	-11.3222
▁rapist	-11.3223
▁trek	-11.3226
▁kade	-11.3227
▁detector	-11.3227
made	-11.323
▁divi	-11.323
▁squad	-11.3232
▁cabin	-11.3233
▁weaken	-11.3233
▁turbo	-11.3234
wave	-11.3234
▁specialty	-11.324
▁funni	-11.3243
▁integrat	-11.3262
▁cli	-11.3274
▁liv	-11.3279
▁chant	-11.3283
▁matern	-11.3293
▁fil	-11.3293
▁alter	-11.3297
▁misleading	-11.3299
▁programmer	-11.3324
▁rod	-11.3325
▁elector	-11.3331
▁worthless	-11.3332
▁cera	-11.3343
▁chan	-11.3354
ios	-11.3356
▁prad	-11.3359
▁recycl	-11.34
jab	-11.3409
▁privatise	-11.3413
▁robe	-11.3415
kara	-11.3445
▁atl	-11.3445
mind	-11.3461
lana	-11.3477
matic	-11.3494
▁obligate	-11.3499
hini	-11.3509
▁rott	-11.3519
▁elon	-11.3547
polar	-11.3553
▁rata	-11.3568
uka	-11.3576
▁dock	-11.3586
▁fog	-11.3587
udi	-11.36
▁continu	-11.3624
▁emphasi	-11.3654
pen	-11.3662
▁ape	-11.3664
lude	-11.3673
uf	-11.3682
▁wad	-11.3685
company	-11.3687
economic	-11.3687
field	-11.3687
track	-11.3689
▁atp	-11.3695
iva	-11.3699
mah	-11.3727
hire	-11.3741
▁astro	-11.3742
▁frequen	-11.3742
▁administrati	-11.3756
▁segregat	-11.3761
▁alphabet	-11.3761
▁alumnus	-11.3761
▁asbestos	-11.3761
▁assimilat	-11.3761
▁breeze	-11.3761
▁celebrity	-11.3761
▁commemorat	-11.3761
▁compliment	-11.3761
▁diamond	-11.3761
▁hyperinflation	-11.3761
▁impractical	-11.3761
▁inexperience	-11.3761
▁overthrow	-11.3761
▁psychopath	-11.3761
▁reimburse	-11.3761
▁renegotiat	-11.3761
▁rupavahini	-11.3761
▁sacred	-11.3761
▁scrutiny	-11.3761
▁secretariat	-11.3761
▁separatis	-11.3761
▁significance	-11.3761
▁simultaneously	-11.3761
▁sympathize	-11.3761
▁trajectory	-11.3761
▁translator	-11.3761
▁transmission	-11.3761
▁unauthori	-11.3761
▁uphold	-11.3761
▁vancouver	-11.3761
▁egypt	-11.3761
▁invalid	-11.3761
▁jkcg	-11.3761
▁misogyn	-11.3761
▁parliment	-11.3761
▁pivot	-11.3761
▁prevail	-11.3761
▁prioritise	-11.3761
▁spider	-11.3761
▁pound	-11.3761
▁blur	-11.3761
▁embed	-11.3761
▁oversee	-11.3761
▁stafford	-11.3761
▁utilis	-11.3761
▁sauce	-11.3761
▁seettu	-11.3761
▁worm	-11.3761
▁lemon	-11.3761
▁ayya	-11.3761
▁wholesome	-11.3761
▁flour	-11.3761
▁pradesh	-11.3762
solicit	-11.3762
▁bleed	-11.3762
▁noob	-11.3762
▁orthodonti	-11.3762
▁knw	-11.3762
▁diligen	-11.3762
▁furious	-11.3762
▁pricy	-11.3762
▁synd	-11.3763
▁shrink	-11.3763
▁herath	-11.3763
▁blackmail	-11.3763
▁curtain	-11.3764
sonic	-11.3765
▁abide	-11.3765
▁tonight	-11.3765
itarian	-11.3767
▁legendary	-11.3767
▁wiki	-11.3768
▁informative	-11.3768
amantha	-11.3769
▁confidential	-11.3769
▁platin	-11.3773
▁bandaranayake	-11.3775
▁corri	-11.3779
visa	-11.378
plant	-11.378
▁asf	-11.378
▁madness	-11.3781
▁seik	-11.3782
▁inspection	-11.3783
▁alike	-11.3784
assis	-11.379
lancer	-11.3792
▁descend	-11.3794
▁cess	-11.3796
▁classify	-11.3798
▁modest	-11.38
▁exhausted	-11.3803
▁simplif	-11.3808
▁rajarat	-11.381
▁hora	-11.3817
demy	-11.3823
nzi	-11.3824
▁ucl	-11.3828
▁selective	-11.3844
kumar	-11.3855
▁hostil	-11.3864
bell	-11.3875
▁cling	-11.3878
▁mathematical	-11.392
rsion	-11.3923
▁kel	-11.3936
▁leo	-11.3944
opple	-11.3964
▁pana	-11.3979
munu	-11.3993
▁charith	-11.401
▁corp	-11.4014
cut	-11.4024
iran	-11.4038
gain	-11.404
wila	-11.404
▁pip	-11.4052
▁manipulat	-11.4066
hani	-11.4075
iii	-11.4109
▁stf	-11.4112
▁oppo	-11.4118
luxe	-11.4137
beth	-11.416
▁counsell	-11.4195
verge	-11.4215
hallow	-11.4241
curricula	-11.4274
pathetic	-11.4274
pleasant	-11.4274
conduct	-11.4275
perform	-11.4277
achi	-11.428
▁valu	-11.428
shot	-11.4287
zone	-11.4294
water	-11.4308
▁warrant	-11.4319
▁upward	-11.4322
▁roo	-11.4322
▁bim	-11.4325
▁extremis	-11.433
▁possess	-11.4339
aji	-11.434
terior	-11.4345
▁psychiatr	-11.4345
▁suspicio	-11.4346
▁situat	-11.4347
▁bureaucrat	-11.4349
agnostic	-11.4349
▁abeysingh	-11.4349
▁ambulance	-11.4349
▁autonomy	-11.4349
▁awhile	-11.4349
▁configur	-11.4349
▁consolidat	-11.4349
▁durdan	-11.4349
▁gullible	-11.4349
▁inconsistent	-11.4349
▁innovex	-11.4349
▁irritate	-11.4349
▁kaduwela	-11.4349
▁maithree	-11.4349
▁messenger	-11.4349
▁nuisance	-11.4349
▁pseudo	-11.4349
▁relieve	-11.4349
▁sapphire	-11.4349
▁teledrama	-11.4349
▁baffle	-11.4349
▁david	-11.4349
▁elitist	-11.4349
▁indulge	-11.4349
▁revision	-11.4349
▁gesture	-11.4349
▁sanskr	-11.4349
▁thumb	-11.4349
▁marvel	-11.4349
▁masculin	-11.4349
▁mitigat	-11.4349
▁potato	-11.4349
▁monument	-11.4349
▁vessel	-11.4349
▁fetch	-11.4349
▁outlier	-11.4349
▁puthano	-11.4349
▁cherry	-11.4349
▁crisp	-11.4349
▁warrior	-11.4349
▁deceive	-11.4349
▁itenar	-11.4349
▁grassroot	-11.4349
▁systematic	-11.4349
▁rtx	-11.435
▁vedda	-11.435
▁mineral	-11.435
▁occurrence	-11.435
▁mourn	-11.435
▁flame	-11.435
▁griev	-11.435
▁contaminat	-11.4351
▁breast	-11.4351
▁sustainability	-11.4351
▁inning	-11.4352
physic	-11.4352
▁pronounce	-11.4353
▁pillow	-11.4353
▁salva	-11.4354
▁homie	-11.4354
▁mastercard	-11.4355
▁coward	-11.4356
▁hehe	-11.4356
▁pollute	-11.4357
▁overwork	-11.4357
▁renovation	-11.4357
▁kamal	-11.4357
▁digest	-11.4358
▁unreasonable	-11.4359
▁experi	-11.4359
▁prick	-11.436
▁populate	-11.436
▁surre	-11.436
▁oust	-11.4361
mmunity	-11.4362
▁valor	-11.4362
▁mmf	-11.4362
▁kata	-11.4363
▁biden	-11.4364
▁turke	-11.4365
▁nude	-11.4365
▁shithole	-11.4367
▁guru	-11.4369
jitha	-11.437
▁minne	-11.437
▁civilization	-11.4372
tube	-11.4378
▁wax	-11.4379
▁lank	-11.4382
▁hdi	-11.4385
jude	-11.4385
▁hatch	-11.4387
▁handling	-11.439
hore	-11.4399
▁turnout	-11.4417
▁breakup	-11.4427
▁scent	-11.4429
▁abu	-11.4436
▁accelerate	-11.4447
▁cmc	-11.447
▁cig	-11.447
fringe	-11.4472
▁narcissist	-11.4476
▁cleanse	-11.4506
tsy	-11.4508
reck	-11.4545
▁jana	-11.4555
▁cia	-11.4559
glue	-11.456
stine	-11.456
▁classical	-11.457
▁corro	-11.4585
uniya	-11.4588
ami	-11.4631
hats	-11.4633
▁merch	-11.4658
▁patt	-11.4667
▁hama	-11.4681
▁typ	-11.4686
radar	-11.4703
step	-11.4718
gram	-11.4771
echo	-11.4795
▁ananda	-11.4805
cultivate	-11.4856
link	-11.4899
direct	-11.4899
claim	-11.4904
rust	-11.4907
▁amp	-11.4908
▁kei	-11.4912
iji	-11.4915
block	-11.4916
nadu	-11.4927
▁maldiv	-11.4931
fare	-11.4952
▁modernize	-11.4955
▁instruct	-11.4956
▁crumb	-11.4958
▁nawal	-11.4959
▁infect	-11.4966
bq	-11.4968
nounce	-11.4969
flict	-11.4972
▁misunderst	-11.4973
▁mysterious	-11.4974
▁acquaint	-11.4974
▁ambuluwa	-11.4974
▁antenna	-11.4974
▁census	-11.4974
▁crawl	-11.4974
▁discretion	-11.4974
▁embark	-11.4974
▁etiquette	-11.4974
▁extraordinar	-11.4974
▁gorgeous	-11.4974
▁horrendous	-11.4974
▁influential	-11.4974
▁joseph	-11.4974
▁justifiabl	-11.4974
▁nephew	-11.4974
▁prejudice	-11.4974
▁responsive	-11.4974
▁suicidal	-11.4974
▁tarnish	-11.4974
▁unmarrie	-11.4974
▁backbone	-11.4974
▁courtesy	-11.4974
▁equation	-11.4974
▁ergonomic	-11.4974
▁isolation	-11.4974
▁jeppa	-11.4974
▁parasite	-11.4974
▁robbery	-11.4974
▁savior	-11.4974
▁trivial	-11.4974
▁vertical	-11.4974
▁vishwa	-11.4974
▁fourth	-11.4974
▁tarrif	-11.4974
▁companion	-11.4974
▁oversized	-11.4974
▁reckon	-11.4974
▁spoon	-11.4974
▁vibran	-11.4974
▁ratmalan	-11.4974
▁correlat	-11.4974
▁motive	-11.4974
▁liking	-11.4974
▁deteriorat	-11.4975
▁kilo	-11.4975
▁malayali	-11.4975
▁kataragama	-11.4975
▁reef	-11.4975
▁refiner	-11.4975
▁vesak	-11.4975
▁zip	-11.4975
▁miris	-11.4975
▁clever	-11.4975
▁championship	-11.4976
▁minimis	-11.4976
▁spectac	-11.4976
gamuwa	-11.4976
▁utopia	-11.4976
▁stroke	-11.4976
▁confine	-11.4976
bhaya	-11.4976
▁wrapper	-11.4977
▁globe	-11.4977
▁peko	-11.4977
▁spike	-11.4977
▁clone	-11.4977
▁firearm	-11.4977
▁electorate	-11.4978
▁compose	-11.4978
▁guysss	-11.4979
▁inheritance	-11.498
▁chore	-11.498
▁degrade	-11.498
▁candle	-11.4981
▁mnc	-11.4981
▁dji	-11.4982
▁simulat	-11.4982
▁forie	-11.4983
▁ipad	-11.4983
make	-11.4986
▁infant	-11.4986
▁hangover	-11.4987
▁beast	-11.4989
inability	-11.4989
▁instalment	-11.4991
▁shud	-11.4991
▁spotlight	-11.4992
▁skillset	-11.4993
▁yew	-11.4994
▁cuck	-11.4994
▁factual	-11.4994
▁anthe	-11.4998
▁expiry	-11.5
▁sonet	-11.5001
asty	-11.5006
▁dilsh	-11.5013
▁bland	-11.5022
▁comf	-11.5024
tsd	-11.503
▁concentrat	-11.5043
▁arse	-11.5053
eval	-11.5059
▁xi	-11.5078
ugoda	-11.5078
mmm	-11.5082
▁optic	-11.5102
ctb	-11.5109
▁tempt	-11.5171
▁sanga	-11.5176
▁priv	-11.5187
▁cim	-11.5204
aksha	-11.5224
next	-11.5225
▁heroin	-11.5246
▁chari	-11.5279
kok	-11.5294
amw	-11.5345
licate	-11.5409
characteristic	-11.541
osis	-11.5413
watta	-11.5453
▁nin	-11.5486
▁glaze	-11.5501
tml	-11.5503
▁wav	-11.5507
▁hyp	-11.5519
▁fif	-11.5524
ooh	-11.5527
umbr	-11.5531
▁deni	-11.5554
worthy	-11.5561
charge	-11.5562
sense	-11.5563
metric	-11.5566
reach	-11.5566
constitutional	-11.5566
familiar	-11.5567
productive	-11.5571
person	-11.5575
stock	-11.5585
▁magical	-11.5622
▁delusion	-11.5626
odys	-11.5631
▁avail	-11.5634
▁practi	-11.5637
phobia	-11.5641
▁sophisticat	-11.5641
cricinfo	-11.5641
▁circular	-11.5641
▁contemplat	-11.5641
▁denominat	-11.5641
▁discriminatory	-11.5641
▁educator	-11.5641
▁hormone	-11.5641
▁intolerant	-11.5641
▁irresponsibl	-11.5641
▁negativity	-11.5641
▁negligible	-11.5641
▁ninewell	-11.5641
▁nonetheless	-11.5641
▁obstruct	-11.5641
▁pregnancy	-11.5641
▁pretentious	-11.5641
▁rebrand	-11.5641
▁reinvest	-11.5641
▁ryzen	-11.5641
▁soviet	-11.5641
▁spontaneous	-11.5641
▁unknowing	-11.5641
▁unlawful	-11.5641
▁unregulate	-11.5641
▁pickleball	-11.5641
▁proactive	-11.5641
▁ratnapura	-11.5641
▁rogue	-11.5641
▁sarcastic	-11.5641
▁tolerance	-11.5641
▁transcript	-11.5641
▁belove	-11.5641
▁livelihood	-11.5641
▁satire	-11.5641
▁wasantha	-11.5641
▁whistle	-11.5641
▁intrigu	-11.5641
▁menace	-11.5641
▁rainbow	-11.5641
▁suffice	-11.5641
▁detach	-11.5641
▁axia	-11.5641
▁hairstyl	-11.5641
▁tweak	-11.5641
▁annum	-11.5641
▁avurud	-11.5641
▁revert	-11.5641
▁charle	-11.5641
▁insure	-11.5641
▁surcharge	-11.5641
▁dispers	-11.5641
▁milestone	-11.5642
▁afterma	-11.5642
▁jerk	-11.5642
▁kyc	-11.5642
▁columbo	-11.5642
▁misplace	-11.5642
root	-11.5643
▁iraj	-11.5643
exico	-11.5643
▁rightfully	-11.5643
▁consultancy	-11.5643
eshwar	-11.5643
▁procurement	-11.5644
▁wimal	-11.5644
▁nilad	-11.5644
▁haunt	-11.5644
▁vicious	-11.5644
▁noble	-11.5644
▁ccpi	-11.5644
▁drawback	-11.5645
▁dispar	-11.5645
▁photoshop	-11.5646
▁resistant	-11.5647
▁blink	-11.5648
▁purse	-11.5648
▁dataset	-11.5648
▁dealership	-11.5648
▁thero	-11.5649
▁dehiw	-11.5649
▁disability	-11.5649
▁nhs	-11.5649
▁typo	-11.565
▁rebellio	-11.5651
▁adani	-11.5651
▁idol	-11.5651
▁bye	-11.5651
▁strap	-11.5652
▁thera	-11.5652
▁nominate	-11.5652
▁soak	-11.5653
▁burst	-11.5653
▁potter	-11.5655
▁colum	-11.5656
loss	-11.5657
▁grill	-11.5657
▁deactivate	-11.5657
▁grim	-11.5657
cule	-11.5658
▁viva	-11.566
▁infra	-11.566
▁podi	-11.5661
nautica	-11.5661
▁hmmm	-11.5664
▁tbf	-11.5664
▁appeti	-11.5664
▁chew	-11.5664
dney	-11.5665
▁landmark	-11.5666
▁hostage	-11.5666
▁disagreement	-11.5666
▁loom	-11.5669
▁tusk	-11.567
▁murali	-11.5671
▁attachment	-11.5671
▁blackout	-11.5672
▁promo	-11.5673
▁wannabe	-11.5679
▁arun	-11.5682
▁anecdotal	-11.5682
▁milita	-11.5687
▁symbolic	-11.5687
▁cush	-11.5689
▁gamin	-11.569
esco	-11.5692
▁provo	-11.5698
▁pras	-11.5706
▁categoriz	-11.5714
rio	-11.5724
pian	-11.5736
▁tec	-11.5747
lore	-11.5758
▁meddl	-11.5761
▁somethin	-11.5783
diyal	-11.5796
▁hug	-11.5803
▁excu	-11.5804
centr	-11.5808
achchi	-11.5814
tyre	-11.5818
count	-11.582
deniya	-11.5825
unil	-11.5866
shaw	-11.5868
bill	-11.5886
born	-11.5887
▁chest	-11.5976
▁err	-11.5989
▁vijay	-11.6017
iye	-11.6067
rown	-11.6075
▁myr	-11.608
roach	-11.6103
laughter	-11.6161
▁refra	-11.6199
▁garne	-11.6245
moto	-11.6258
kada	-11.626
resse	-11.6267
liza	-11.627
found	-11.628
effective	-11.6281
club	-11.6281
write	-11.6282
▁rotat	-11.6294
▁analys	-11.6334
▁prostitut	-11.6345
▁democrat	-11.6346
▁oblivio	-11.6352
▁ridicul	-11.6354
ighty	-11.6355
▁rambuk	-11.6355
disproportionate	-11.6355
▁belittle	-11.6355
▁bizarre	-11.6355
▁brigade	-11.6355
▁burglar	-11.6355
▁butcher	-11.6355
▁complication	-11.6355
▁cooperate	-11.6355
▁crippl	-11.6355
▁desperation	-11.6355
▁imbalance	-11.6355
▁inconvenient	-11.6355
▁infamous	-11.6355
▁influx	-11.6355
▁jazeera	-11.6355
▁magazine	-11.6355
▁megathread	-11.6355
▁nutshell	-11.6355
▁opponent	-11.6355
▁oxygen	-11.6355
▁pedestal	-11.6355
▁pragmatic	-11.6355
▁puzzle	-11.6355
▁reconnect	-11.6355
▁rotaract	-11.6355
▁saviour	-11.6355
▁stockbroker	-11.6355
▁stunning	-11.6355
▁thunder	-11.6355
▁transgender	-11.6355
▁unaffordable	-11.6355
▁unfold	-11.6355
▁bacteria	-11.6355
▁lagoon	-11.6355
▁rifle	-11.6355
▁peotv	-11.6355
▁flix	-11.6355
▁jazz	-11.6355
▁frugal	-11.6355
▁vivo	-11.6355
▁latency	-11.6355
▁euthan	-11.6355
▁tribal	-11.6355
▁untill	-11.6355
▁goodwill	-11.6355
▁salarie	-11.6355
▁bangalor	-11.6355
▁coincidence	-11.6355
▁multiply	-11.6355
▁proficien	-11.6356
▁excellenc	-11.6356
▁jdm	-11.6356
▁smuggle	-11.6356
▁arjun	-11.6356
▁duplicat	-11.6356
▁optimis	-11.6356
▁redundan	-11.6356
▁tenant	-11.6356
▁rajitha	-11.6356
▁dutug	-11.6356
nny	-11.6357
urgency	-11.6357
▁charisma	-11.6357
nintend	-11.6357
▁dhal	-11.6357
▁devote	-11.6357
▁downward	-11.6358
partment	-11.6358
▁apprais	-11.6358
runch	-11.6359
▁divert	-11.6359
▁prolong	-11.6359
▁recharge	-11.6359
▁practise	-11.6359
▁itm	-11.636
▁incite	-11.636
▁rigid	-11.636
baba	-11.6361
▁bogg	-11.6361
▁panni	-11.6361
▁airbag	-11.6361
▁heap	-11.6361
▁disturbance	-11.6362
▁preschool	-11.6362
▁weli	-11.6362
▁scandinavian	-11.6362
▁ginger	-11.6363
▁inferiority	-11.6364
▁tyran	-11.6364
▁latin	-11.6365
▁nfc	-11.6365
▁singha	-11.6366
▁grandpa	-11.6366
▁juris	-11.6366
▁swedis	-11.6367
▁greek	-11.6368
▁unlock	-11.637
▁becu	-11.6372
▁maligawa	-11.6372
▁isis	-11.6373
▁soup	-11.6374
▁kpi	-11.6375
▁incase	-11.6378
▁hq	-11.6379
▁shameful	-11.6381
▁texa	-11.6384
▁skim	-11.6385
▁reflective	-11.6387
ulous	-11.6387
▁sooooo	-11.639
▁desha	-11.6393
▁coven	-11.6394
▁bharat	-11.6398
▁canna	-11.6405
adasa	-11.6406
▁kno	-11.6407
epic	-11.6409
▁arabic	-11.6421
▁rayha	-11.6429
▁corpora	-11.643
▁sigri	-11.6446
▁bandara	-11.6456
avit	-11.6462
kaduwa	-11.6468
tician	-11.6479
kirt	-11.6492
eksha	-11.6524
favorable	-11.6543
▁literat	-11.6546
▁prima	-11.6591
▁kudu	-11.6639
aft	-11.6644
long	-11.6645
rathna	-11.6653
▁outsourc	-11.6659
▁nishan	-11.6702
ighten	-11.6757
▁originat	-11.6829
aveli	-11.6835
ridge	-11.6853
competence	-11.6925
osha	-11.6932
ological	-11.6933
▁underli	-11.6969
▁expir	-11.698
litt	-11.6995
▁clos	-11.7
▁debat	-11.7002
▁dime	-11.7047
fruit	-11.705
advisor	-11.705
dialog	-11.7051
plane	-11.7053
bank	-11.7054
kill	-11.7056
nanayak	-11.708
▁hypocrit	-11.7081
▁intimidat	-11.7081
▁devalu	-11.7081
▁dudl	-11.7094
▁popula	-11.7094
▁pali	-11.7103
▁renovat	-11.7114
▁nsb	-11.7115
aught	-11.7121
▁robot	-11.7124
▁mitsub	-11.7124
issamaharama	-11.7124
▁abysmal	-11.7124
▁anticipat	-11.7124
▁bamboo	-11.7124
▁constraint	-11.7124
▁dinemore	-11.7124
▁esteem	-11.7124
▁extravagant	-11.7124
▁finasterid	-11.7124
▁fragile	-11.7124
▁gammanpila	-11.7124
▁halloween	-11.7124
▁infuriate	-11.7124
▁laundry	-11.7124
▁myanmar	-11.7124
▁narahenpit	-11.7124
▁negligence	-11.7124
▁oversight	-11.7124
▁philip	-11.7124
▁porsche	-11.7124
▁reciproca	-11.7124
▁repetitive	-11.7124
▁stimulat	-11.7124
▁stubborn	-11.7124
▁subcontinent	-11.7124
▁submission	-11.7124
▁surveillance	-11.7124
▁sympathise	-11.7124
▁visibility	-11.7124
▁vitiligo	-11.7124
▁wickramasinghe	-11.7124
▁ymmv	-11.7124
▁multiplayer	-11.7124
▁nurture	-11.7124
▁ruthless	-11.7124
▁separation	-11.7124
▁renowne	-11.7124
▁whitewash	-11.7124
▁consulat	-11.7124
▁exploration	-11.7124
▁wolver	-11.7124
▁spineless	-11.7124
▁britain	-11.7124
▁flirt	-11.7124
▁uphill	-11.7124
▁alpha	-11.7124
▁decease	-11.7124
▁fanboy	-11.7124
▁intact	-11.7124
▁towel	-11.7125
▁vandal	-11.7125
▁reassur	-11.7125
▁amaze	-11.7125
▁dense	-11.7125
▁maithripala	-11.7125
halawath	-11.7125
▁mohame	-11.7125
▁hatchback	-11.7125
▁romania	-11.7125
▁abnormal	-11.7125
▁casio	-11.7125
▁obey	-11.7125
iju	-11.7126
▁kovil	-11.7126
▁goodbye	-11.7126
▁empathetic	-11.7126
▁distress	-11.7127
▁guesthouse	-11.7127
▁lightning	-11.7127
▁macau	-11.7127
▁hollywood	-11.7128
▁federalism	-11.7128
▁coordinator	-11.7128
▁biotech	-11.7129
▁sabry	-11.713
▁misery	-11.7131
▁legitima	-11.7131
▁shutdown	-11.7131
▁shortcut	-11.7131
▁jacket	-11.7135
▁infest	-11.7135
▁habitat	-11.7135
▁pinch	-11.7136
▁stink	-11.7137
▁bloodshe	-11.7138
▁incline	-11.7139
▁aura	-11.7139
▁strive	-11.7139
▁limb	-11.7139
▁stylis	-11.714
▁counselo	-11.7141
▁archeolog	-11.7143
▁jog	-11.7144
▁santa	-11.7149
▁zoo	-11.716
pora	-11.7167
sekara	-11.7176
▁dumin	-11.7185
atali	-11.7188
erahera	-11.7192
▁sinus	-11.7195
▁compel	-11.721
ratna	-11.7217
eeri	-11.7218
▁numb	-11.7239
▁tais	-11.7242
▁must	-11.7263
hena	-11.7315
▁snorkell	-11.7358
▁easi	-11.7434
▁criti	-11.7474
▁admir	-11.7539
▁taj	-11.7551
scope	-11.7561
solve	-11.7585
▁itc	-11.7603
▁pond	-11.7742
ambal	-11.7743
liver	-11.7819
chester	-11.7862
privileged	-11.7883
mobile	-11.7883
travel	-11.7884
south	-11.7885
service	-11.7886
learn	-11.7886
hinder	-11.7886
tream	-11.7887
dead	-11.79
▁domin	-11.7909
troop	-11.7913
▁turb	-11.7914
▁gradual	-11.7914
▁terribl	-11.7915
▁jeweller	-11.7927
▁mahind	-11.7927
▁rememb	-11.7934
▁worse	-11.7941
▁inject	-11.7947
▁explanat	-11.7947
▁misinform	-11.7953
ustralia	-11.7955
equate	-11.7957
▁correspond	-11.7958
▁adaderana	-11.7958
▁assembly	-11.7958
▁circus	-11.7958
▁conglomerate	-11.7958
▁custody	-11.7958
▁deflect	-11.7958
▁deodorant	-11.7958
▁dessert	-11.7958
▁ecommerce	-11.7958
▁glassdoor	-11.7958
▁headquarter	-11.7958
▁henchman	-11.7958
▁indefinite	-11.7958
▁inevitably	-11.7958
▁instinct	-11.7958
▁kilometer	-11.7958
▁kindergarten	-11.7958
▁mahattaya	-11.7958
▁mudalali	-11.7958
▁niladari	-11.7958
▁payslip	-11.7958
▁peratugam	-11.7958
▁physiotherap	-11.7958
▁radius	-11.7958
▁registry	-11.7958
▁relocation	-11.7958
▁repatriat	-11.7958
▁repellent	-11.7958
▁sarasavi	-11.7958
▁sarcasm	-11.7958
▁succumb	-11.7958
▁sumanthiran	-11.7958
▁sunshine	-11.7958
▁swallow	-11.7958
▁swarnawahini	-11.7958
▁upbring	-11.7958
▁wholeheartedly	-11.7958
▁archaeolog	-11.7958
▁curtail	-11.7958
▁impeach	-11.7958
▁maritime	-11.7958
▁mystery	-11.7958
▁overreact	-11.7958
▁peripher	-11.7958
▁regress	-11.7958
▁commence	-11.7958
▁optimal	-11.7958
▁violin	-11.7958
▁immers	-11.7958
▁swipe	-11.7958
▁kotelaw	-11.7958
▁mintpay	-11.7958
▁motif	-11.7958
▁nolim	-11.7958
▁uganda	-11.7958
▁voluntar	-11.7958
▁baiyy	-11.7958
▁delegat	-11.7958
▁uncover	-11.7958
▁wastage	-11.7958
▁hmu	-11.7958
▁riyase	-11.7958
▁ideological	-11.7958
▁lvl	-11.7958
▁avenge	-11.7958
▁spokes	-11.7958
▁nerve	-11.7958
▁newcomer	-11.7958
▁skew	-11.7958
▁censorship	-11.7958
▁mythology	-11.7958
▁gatekeep	-11.7959
▁thondama	-11.7959
▁javascript	-11.7959
▁bilingual	-11.7959
▁tense	-11.7959
▁kumana	-11.7959
▁lurk	-11.7959
▁leco	-11.7959
▁pelawatt	-11.7959
▁crude	-11.7959
▁subaru	-11.7959
▁facade	-11.796
▁kando	-11.796
▁matale	-11.796
▁evict	-11.7961
▁sabha	-11.7961
▁sheep	-11.7961
▁refrigerator	-11.7961
▁dominant	-11.7961
▁displace	-11.7961
▁throne	-11.7961
▁disgraceful	-11.7961
▁overload	-11.7961
▁manju	-11.7962
cumulati	-11.7962
flake	-11.7963
▁adverse	-11.7963
▁sphere	-11.7963
▁glim	-11.7963
▁persu	-11.7963
▁vihara	-11.7963
▁moose	-11.7964
▁glance	-11.7964
lingual	-11.7964
▁atrocious	-11.7964
▁blade	-11.7965
▁brew	-11.7965
▁sunlight	-11.7965
▁lime	-11.7966
▁barbari	-11.7967
ipend	-11.797
▁chamar	-11.7972
▁nutri	-11.7975
▁applau	-11.7977
rudge	-11.7984
▁pottu	-11.7986
▁depo	-11.7992
amine	-11.7998
aaaa	-11.7999
arachchi	-11.803
indu	-11.8042
mbiy	-11.8048
▁dalad	-11.8074
▁ferr	-11.8094
▁btec	-11.8135
▁bob	-11.8182
cheve	-11.8184
▁collage	-11.8251
▁arabi	-11.8266
grom	-11.8266
▁astra	-11.8276
uddh	-11.8294
azi	-11.8369
▁horo	-11.8392
▁mobil	-11.84
mosa	-11.8481
vada	-11.8508
hush	-11.8633
▁inspir	-11.8701
▁chos	-11.8742
▁hampe	-11.8744
▁sanj	-11.8751
drop	-11.8765
sufficient	-11.8793
cultural	-11.8793
group	-11.8794
speed	-11.8795
▁prophe	-11.88
girl	-11.8801
pilot	-11.8818
▁definite	-11.8821
▁anyway	-11.884
▁energ	-11.8842
▁trud	-11.8845
▁chathura	-11.885
▁millenni	-11.8852
▁beneficia	-11.886
▁compatib	-11.8862
▁schol	-11.8864
▁aspi	-11.8867
▁pessimist	-11.8867
▁orthop	-11.8867
▁unwilling	-11.8867
▁achievable	-11.8867
▁benifit	-11.8867
▁clutch	-11.8867
▁condescend	-11.8867
▁degenerate	-11.8867
▁detrimental	-11.8867
▁devastate	-11.8867
▁disciplinar	-11.8867
▁distributor	-11.8867
▁duolingo	-11.8867
▁endocrinolog	-11.8867
▁fraudulent	-11.8867
▁gratitude	-11.8867
▁gymnastic	-11.8867
▁illustrat	-11.8867
▁imbecile	-11.8867
▁immoral	-11.8867
▁insanity	-11.8867
▁linguistic	-11.8867
▁miraculous	-11.8867
▁misguide	-11.8867
▁neoliberal	-11.8867
▁nescaf	-11.8867
▁nigerian	-11.8867
▁obscur	-11.8867
▁orchestrate	-11.8867
▁patriarch	-11.8867
▁reservoir	-11.8867
▁shenanigan	-11.8867
▁speculate	-11.8867
▁steadily	-11.8867
▁telugu	-11.8867
▁undervalue	-11.8867
▁ungrateful	-11.8867
▁urself	-11.8867
punctual	-11.8867
▁booze	-11.8867
▁coexist	-11.8867
▁deplete	-11.8867
▁heinous	-11.8867
▁parakrama	-11.8867
▁pledge	-11.8867
▁resentment	-11.8867
▁bodybuild	-11.8867
▁dictionary	-11.8867
▁laboratory	-11.8867
▁supremac	-11.8867
▁chetti	-11.8867
▁retrieve	-11.8867
▁dawg	-11.8867
▁xxx	-11.8867
▁overlap	-11.8867
▁zscore	-11.8867
▁jeweler	-11.8867
▁thesis	-11.8867
▁chathuri	-11.8867
▁druggie	-11.8867
▁bleak	-11.8867
▁ferrari	-11.8867
▁dissent	-11.8867
▁shortcoming	-11.8867
▁appease	-11.8867
▁fusion	-11.8867
▁mercede	-11.8867
▁meritocracy	-11.8867
▁malicious	-11.8867
▁biriyan	-11.8867
▁senarathn	-11.8867
▁fortress	-11.8867
▁afterward	-11.8867
▁debacle	-11.8867
▁disser	-11.8868
▁choco	-11.8868
▁spacious	-11.8868
koon	-11.8868
▁comedian	-11.8868
▁confess	-11.8868
▁shamble	-11.8868
▁remainder	-11.8868
▁refill	-11.8868
▁kobb	-11.8868
▁erect	-11.8869
buil	-11.8869
▁cartel	-11.8869
▁grip	-11.8869
▁carpent	-11.8869
▁bfca	-11.8869
▁pacifi	-11.887
▁expend	-11.887
▁futile	-11.887
vidia	-11.887
▁magician	-11.887
▁modification	-11.887
▁flourish	-11.887
▁militariz	-11.887
▁salad	-11.8871
▁ramada	-11.8873
dispens	-11.8873
▁emulat	-11.8874
▁lethal	-11.8874
▁serum	-11.8875
uggle	-11.8875
▁pierc	-11.8877
▁expedi	-11.8878
▁exec	-11.888
▁somth	-11.8881
▁kelani	-11.8883
▁excis	-11.8886
ocracy	-11.8887
▁pirit	-11.8895
▁flora	-11.8895
▁gastr	-11.8903
▁dodo	-11.891
donald	-11.8916
▁glori	-11.8921
fensive	-11.8945
horu	-11.907
▁differentiat	-11.9108
iterat	-11.9123
ocket	-11.9144
jeewa	-11.9156
henna	-11.9283
galle	-11.9291
▁whopp	-11.9292
ihs	-11.931
flush	-11.9434
guise	-11.9472
critic	-11.9501
▁kalpit	-11.9567
qualified	-11.957
ternity	-11.9701
deepa	-11.9746
night	-11.9781
wealth	-11.9793
expensive	-11.9793
avoid	-11.9793
culture	-11.9793
drive	-11.9798
▁reinsta	-11.9803
▁incentiv	-11.9824
▁desir	-11.9824
▁medicin	-11.9824
▁ancestr	-11.9836
▁complicate	-11.9849
▁skeptic	-11.9852
micron	-11.9852
▁satisfact	-11.9856
▁exhibit	-11.9856
▁reproduc	-11.986
▁bloc	-11.9861
▁homosexual	-11.9862
▁procure	-11.9863
▁postgrad	-11.9866
▁coincide	-11.9866
▁extinct	-11.9867
▁unreal	-11.9867
▁apprehen	-11.9867
▁arpico	-11.9867
▁arrogance	-11.9867
▁asthma	-11.9867
▁balcony	-11.9867
▁beruwala	-11.9867
▁cholesterol	-11.9867
▁collision	-11.9867
▁congestion	-11.9867
▁congress	-11.9867
▁constituent	-11.9867
▁convincing	-11.9867
▁decriminalis	-11.9867
▁demolish	-11.9867
▁determination	-11.9867
▁diabete	-11.9867
▁dissatisfact	-11.9867
▁eparcel	-11.9867
▁epidemi	-11.9867
▁extrovert	-11.9867
▁filipin	-11.9867
▁gotagohome	-11.9867
▁gunawarden	-11.9867
▁hindsight	-11.9867
▁instigat	-11.9867
▁lincoln	-11.9867
▁misconcept	-11.9867
▁nwsd	-11.9867
▁oblige	-11.9867
▁ordinance	-11.9867
▁ostraciz	-11.9867
▁overhype	-11.9867
▁perplexit	-11.9867
▁precedent	-11.9867
▁primitive	-11.9867
▁propagate	-11.9867
▁samaraweera	-11.9867
▁scapegoat	-11.9867
▁sensitivity	-11.9867
▁supervisor	-11.9867
▁treadmill	-11.9867
▁udawalawa	-11.9867
▁underdeveloped	-11.9867
▁uplift	-11.9867
▁vulnerabilit	-11.9867
▁wimaladharma	-11.9867
▁aspiration	-11.9867
▁contender	-11.9867
▁gandhi	-11.9867
▁lunatic	-11.9867
▁shitshow	-11.9867
bolical	-11.9867
issawella	-11.9867
▁commend	-11.9867
▁vomit	-11.9867
▁coffin	-11.9867
▁complement	-11.9867
▁entail	-11.9867
▁revamp	-11.9867
▁blunt	-11.9867
▁dementia	-11.9867
▁tommor	-11.9867
▁fetish	-11.9867
