<unk>	0
<s>	0
</s>	0
_	-3.6649
▁not	-3.8846
s	-4.62863
▁get	-4.76341
▁	-4.76587
▁sri	-4.80331
▁like	-4.95784
▁go	-5.04279
▁would	-5.05067
▁people	-5.08346
▁lanka	-5.10988
ly	-5.33908
▁good	-5.35066
▁one	-5.45704
▁time	-5.48964
▁know	-5.49148
▁also	-5.57214
▁work	-5.57947
▁make	-5.61531
▁country	-5.64183
▁think	-5.65407
▁need	-5.66126
▁year	-5.67337
▁even	-5.70587
▁want	-5.71
▁use	-5.7125
ing	-5.72338
▁say	-5.73776
▁well	-5.77856
e	-5.78853
y	-5.79905
▁look	-5.84253
▁take	-5.86383
▁day	-5.87509
▁'	-5.87701
▁thing	-5.88571
▁see	-5.96228
▁u	-5.96468
a	-5.9836
d	-6.00014
ed	-6.0072
▁pay	-6.0264
▁come	-6.03912
▁try	-6.06823
▁much	-6.07213
▁way	-6.0722
▁anyone	-6.08324
O	-6.0902
M	-6.09195
▁E	-6.10169
▁give	-6.1038
▁place	-6.11782
▁colombo	-6.12327
er	-6.13355
▁government	-6.1433
▁help	-6.16266
▁find	-6.18132
▁really	-6.18181
▁could	-6.18941
▁job	-6.20524
▁money	-6.2074
▁k	-6.20815
▁around	-6.22647
t	-6.22725
▁start	-6.23707
▁sl	-6.2438
▁experience	-6.2514
▁lankan	-6.29642
▁back	-6.29858
▁still	-6.30361
▁month	-6.32175
▁guy	-6.35868
▁right	-6.36682
▁company	-6.38602
▁high	-6.39108
▁many	-6.39557
▁tax	-6.40992
▁something	-6.4118
▁buy	-6.41276
▁best	-6.41409
▁lot	-6.41806
▁new	-6.42139
▁ask	-6.42706
▁first	-6.44895
▁price	-6.46374
▁life	-6.48743
▁since	-6.49947
▁plan	-6.50591
al	-6.52388
▁live	-6.52419
▁issue	-6.53263
▁feel	-6.55974
▁degree	-6.57384
r	-6.58517
▁someone	-6.58523
▁post	-6.62795
▁everyone	-6.63251
▁etc	-6.64229
▁school	-6.65422
▁friend	-6.66173
▁long	-6.66293
▁local	-6.66402
▁keep	-6.66442
▁car	-6.67223
▁happen	-6.67494
▁please	-6.68968
▁call	-6.71356
▁university	-6.71619
▁bad	-6.73435
▁travel	-6.73513
▁might	-6.74641
▁student	-6.75698
have	-6.75946
▁advice	-6.76852
POS	-6.76981
▁without	-6.77196
▁business	-6.77324
▁change	-6.77535
▁bank	-6.77931
▁thanks	-6.78051
▁hi	-6.79249
▁cost	-6.80145
NEG	-6.80262
▁let	-6.80424
▁never	-6.81527
▁end	-6.81541
▁family	-6.82012
▁tell	-6.82766
▁do	-6.83894
▁question	-6.86037
▁anything	-6.86321
▁love	-6.86512
▁seem	-6.86952
▁b	-6.8767
▁old	-6.87857
▁learn	-6.90121
▁study	-6.90171
▁visit	-6.90389
▁option	-6.90982
m	-6.91775
▁actually	-6.92099
▁every	-6.9236
▁kind	-6.93214
▁market	-6.93243
▁hard	-6.94172
▁part	-6.94388
▁point	-6.94558
▁two	-6.94943
▁mean	-6.95009
n	-6.95021
▁tamil	-6.9593
▁l	-6.96196
▁problem	-6.96395
▁last	-6.96726
▁leave	-6.97616
▁power	-6.9786
▁service	-6.98462
▁stay	-6.99115
▁always	-6.99196
▁move	-6.99259
ion	-7.00108
▁salary	-7.00177
▁another	-7.00448
know	-7.0063
▁big	-7.00942
▁idea	-7.01141
▁person	-7.02171
▁check	-7.02752
▁free	-7.03716
▁account	-7.03975
▁system	-7.04332
▁parent	-7.04529
be	-7.06275
▁week	-7.06544
▁consider	-7.07581
▁next	-7.07617
▁private	-7.08008
▁un	-7.08035
▁party	-7.08191
▁may	-7.08317
▁though	-7.08494
▁different	-7.08724
▁vehicle	-7.08727
▁talk	-7.09592
▁situation	-7.09737
▁base	-7.10014
▁maybe	-7.10364
▁home	-7.11053
▁appreciate	-7.11057
▁sure	-7.11157
▁online	-7.11241
▁share	-7.11692
or	-7.12182
ver	-7.12639
▁vote	-7.13312
▁reason	-7.13565
▁already	-7.13583
▁low	-7.13642
▁food	-7.1552
▁area	-7.16022
▁small	-7.16023
▁show	-7.16564
▁bit	-7.16877
▁income	-7.17116
▁world	-7.17236
▁enough	-7.17275
i	-7.17381
▁hear	-7.1784
▁understand	-7.18608
▁education	-7.18729
▁public	-7.19038
▁c	-7.19042
▁open	-7.19366
▁become	-7.19781
▁thank	-7.20012
▁per	-7.20124
▁level	-7.20243
▁support	-7.20642
▁currently	-7.21297
▁put	-7.21323
▁offer	-7.21679
▁great	-7.22077
▁run	-7.22262
▁foreign	-7.22374
▁card	-7.22856
▁build	-7.22897
▁sinhala	-7.25068
▁least	-7.2535
▁state	-7.25435
▁class	-7.25562
▁term	-7.25619
▁case	-7.25996
▁everything	-7.26273
▁current	-7.26413
▁due	-7.26856
▁stuff	-7.27251
▁real	-7.27428
▁house	-7.27602
▁recently	-7.27838
▁face	-7.28138
▁pretty	-7.28394
c	-7.28407
▁book	-7.28502
▁india	-7.28533
l	-7.28542
▁english	-7.2861
able	-7.28786
▁either	-7.28899
▁else	-7.29263
▁especially	-7.29334
the	-7.29519
▁advance	-7.2952
▁less	-7.29525
▁hey	-7.29598
▁able	-7.29617
▁social	-7.29617
▁bus	-7.30218
▁stop	-7.30344
▁medium	-7.30684
in	-7.30849
▁th	-7.30891
▁lkr	-7.31141
▁amount	-7.31467
▁howe	-7.32448
▁r	-7.32456
▁course	-7.32544
▁g	-7.33577
▁number	-7.33793
▁nothing	-7.33872
▁p	-7.34633
▁future	-7.3486
▁yes	-7.3489
▁shit	-7.34964
▁hope	-7.34996
▁recommend	-7.35398
▁abroad	-7.35631
▁data	-7.36173
ic	-7.36361
▁far	-7.36491
on	-7.36614
▁lankans	-7.3676
▁man	-7.36951
▁bring	-7.37182
▁kid	-7.37779
▁earn	-7.38024
▁law	-7.38053
▁similar	-7.38614
▁rate	-7.40167
▁possible	-7.40427
▁drive	-7.40576
▁uni	-7.40607
▁land	-7.41456
ation	-7.41617
▁side	-7.41713
▁loan	-7.41944
▁read	-7.41944
▁probably	-7.42433
▁phone	-7.42543
▁sell	-7.42747
▁wonder	-7.42748
▁apply	-7.4359
▁spend	-7.43719
▁recommendation	-7.44001
even	-7.44602
▁others	-7.44695
▁trip	-7.44736
▁invest	-7.45288
▁doctor	-7.46059
▁hand	-7.46839
▁ranil	-7.46855
▁mention	-7.46916
▁war	-7.47041
▁election	-7.47206
an	-7.48024
▁name	-7.48495
▁speak	-7.48703
▁increase	-7.48765
▁whether	-7.48845
▁e	-7.48935
▁follow	-7.48939
it	-7.49182
▁political	-7.49257
▁hour	-7.49471
▁whole	-7.49655
b	-7.49727
▁opinion	-7.50089
▁police	-7.50252
▁play	-7.50383
h	-7.50588
▁instead	-7.50717
▁thought	-7.50794
▁full	-7.5105
▁economy	-7.52258
▁kandy	-7.52393
▁group	-7.52449
▁opportunity	-7.52541
▁tourist	-7.52808
▁package	-7.52904
▁send	-7.53004
▁interest	-7.53166
▁engineering	-7.53269
▁away	-7.53523
p	-7.5353
▁personal	-7.53649
face	-7.53723
▁close	-7.54215
▁lose	-7.54288
▁field	-7.54303
want	-7.54317
▁npp	-7.5448
▁little	-7.54663
▁skill	-7.55133
to	-7.55229
▁believe	-7.55306
▁provide	-7.55871
▁culture	-7.56087
▁worth	-7.56151
▁comment	-7.56199
▁visa	-7.56363
▁wrong	-7.56379
▁watch	-7.56392
▁past	-7.56441
▁process	-7.56942
▁order	-7.57333
▁game	-7.57474
▁charge	-7.57885
▁project	-7.58003
▁v	-7.58035
▁ago	-7.58238
▁south	-7.58478
▁girl	-7.58482
▁industry	-7.58575
f	-7.58818
▁fund	-7.59043
▁quality	-7.59063
▁payment	-7.59222
o	-7.59256
▁night	-7.59946
▁wait	-7.6008
▁woman	-7.60344
▁budget	-7.60444
▁science	-7.60949
▁expect	-7.60988
▁train	-7.6111
▁easy	-7.61434
▁within	-7.61559
▁import	-7.61667
▁care	-7.61887
▁al	-7.62332
▁driver	-7.62619
▁top	-7.6365
▁policy	-7.63769
▁politician	-7.63974
▁suggestion	-7.64164
▁include	-7.64207
▁product	-7.64885
▁almost	-7.64905
▁fuck	-7.65094
▁saw	-7.65223
▁research	-7.65422
▁usually	-7.65467
▁x	-7.6549
▁cheap	-7.65536
▁compare	-7.65537
▁child	-7.65733
▁today	-7.6605
▁save	-7.66248
▁add	-7.66402
▁economic	-7.66627
▁deal	-7.66659
▁quite	-7.66866
▁value	-7.67022
te	-7.67171
▁example	-7.67214
▁hotel	-7.67215
▁result	-7.67216
▁general	-7.67394
▁create	-7.67475
▁remember	-7.67584
k	-7.67923
▁million	-7.68175
▁app	-7.68551
▁president	-7.68591
▁suggest	-7.69059
▁investment	-7.6918
▁choose	-7.69261
▁notice	-7.69327
▁usd	-7.70023
▁career	-7.70245
▁mind	-7.7046
think	-7.70912
▁shop	-7.71064
▁brand	-7.71438
▁matter	-7.71736
le	-7.7202
▁language	-7.72214
▁f	-7.72339
▁indian	-7.72706
▁second	-7.72773
▁video	-7.73448
▁road	-7.73701
▁beach	-7.73902
▁cut	-7.73908
▁near	-7.74127
▁must	-7.74708
▁international	-7.75134
▁true	-7.75217
▁couple	-7.75619
sure	-7.75872
g	-7.75947
▁fact	-7.76066
▁hold	-7.76423
▁turn	-7.76615
▁information	-7.76915
▁ever	-7.77227
▁answer	-7.77282
▁city	-7.77482
▁yet	-7.7766
▁write	-7.77976
▁community	-7.78071
▁decide	-7.79037
▁focus	-7.79405
re	-7.79451
▁program	-7.79485
▁rather	-7.79628
▁set	-7.79677
▁software	-7.79741
▁return	-7.79984
▁soon	-7.80002
▁chance	-7.8047
▁meet	-7.80661
▁story	-7.80833
▁re	-7.81363
▁honestly	-7.81506
▁fine	-7.81536
▁short	-7.81539
▁mostly	-7.81684
▁slt	-7.82386
▁trust	-7.82875
▁fee	-7.83213
▁type	-7.83427
▁join	-7.83868
▁main	-7.84021
▁exam	-7.84785
▁allow	-7.84959
▁head	-7.84978
▁in	-7.85159
▁dialog	-7.85196
▁manage	-7.85276
▁stock	-7.85562
u	-7.85775
▁yeah	-7.86077
▁galle	-7.86216
▁agree	-7.86643
▁basically	-7.86855
▁guess	-7.87101
▁website	-7.8736
▁decision	-7.8749
▁definitely	-7.87496
▁middle	-7.8762
▁young	-7.87751
▁lead	-7.87796
▁tip	-7.87858
▁decent	-7.87886
en	-7.8799
get	-7.88094
▁majority	-7.88171
▁expensive	-7.88298
▁national	-7.88306
▁a	-7.88796
▁proper	-7.88853
▁unless	-7.89105
ity	-7.89664
▁debt	-7.89874
▁complete	-7.90114
▁hello	-7.90161
▁hospital	-7.9022
▁financial	-7.90331
▁age	-7.90468
▁st	-7.90742
▁health	-7.91015
▁grow	-7.91243
▁safe	-7.91251
▁connection	-7.91383
▁honest	-7.91529
▁ai	-7.91639
▁uk	-7.91728
▁sector	-7.91737
▁speed	-7.91737
▁non	-7.91785
▁srilanka	-7.92053
▁regard	-7.92125
▁contact	-7.92155
▁internet	-7.92288
▁break	-7.92327
▁sometimes	-7.92543
▁nice	-7.92865
▁rent	-7.93094
▁news	-7.93452
▁history	-7.93654
▁receive	-7.93867
▁final	-7.94102
▁credit	-7.94265
▁depend	-7.94495
▁water	-7.94636
▁report	-7.9519
▁available	-7.95585
▁act	-7.95832
▁date	-7.95937
▁ella	-7.96232
▁position	-7.96347
▁benefit	-7.97027
▁single	-7.97033
▁total	-7.97457
▁normal	-7.97723
▁corruption	-7.97957
v	-7.98201
▁develop	-7.98255
▁choice	-7.98322
▁d	-7.98338
▁avoid	-7.98483
▁interested	-7.98799
▁early	-7.98829
▁teacher	-7.98958
▁important	-7.99086
▁n	-7.99485
▁parliament	-7.99781
ar	-7.99805
▁common	-7.99954
▁require	-7.9996
▁fuel	-8.00223
▁line	-8.01018
▁lack	-8.01126
▁edit	-8.0126
▁fix	-8.01354
▁expense	-8.0141
ment	-8.01462
▁finance	-8.01607
▁tech	-8.01615
▁control	-8.01727
▁crisis	-8.0216
▁akd	-8.02312
▁office	-8.02625
▁rule	-8.02627
▁legal	-8.0264
x	-8.02689
▁force	-8.02888
▁subject	-8.0319
▁certain	-8.03194
▁detail	-8.03221
▁purchase	-8.03414
▁personally	-8.03462
▁huge	-8.03679
▁later	-8.03705
▁pm	-8.03781
▁knowledge	-8.03829
ri	-8.04047
▁basic	-8.04128
do	-8.04418
▁cover	-8.04916
▁late	-8.05019
w	-8.05439
▁pro	-8.05639
really	-8.06138
ist	-8.06184
▁sinhalese	-8.0632
▁heard	-8.06521
▁official	-8.06645
▁sound	-8.06783
▁word	-8.06815
▁bill	-8.07007
▁source	-8.07255
▁often	-8.07571
▁step	-8.0762
▁team	-8.07963
▁item	-8.08049
ce	-8.08104
▁customer	-8.08239
▁large	-8.08366
▁risk	-8.0841
▁claim	-8.08569
▁teach	-8.08668
▁medical	-8.08736
▁outside	-8.08873
▁govt	-8.09005
▁internship	-8.09016
▁airport	-8.09337
▁genuine	-8.09496
▁protest	-8.09685
▁security	-8.0982
▁engineer	-8.10045
▁whatever	-8.10146
▁reduce	-8.10322
▁link	-8.10636
▁poor	-8.10836
▁list	-8.1095
▁self	-8.10991
▁bro	-8.1125
▁transfer	-8.11307
▁previous	-8.11623
▁politics	-8.11624
▁scam	-8.11625
▁sort	-8.11791
▁major	-8.12584
ive	-8.12617
▁graduate	-8.12835
▁cash	-8.13237
▁google	-8.13292
▁drop	-8.13331
is	-8.136
um	-8.13842
▁view	-8.14037
▁towards	-8.14111
▁demand	-8.14136
▁clear	-8.14232
just	-8.14284
▁minister	-8.14308
▁reach	-8.14369
▁waste	-8.14373
▁court	-8.14476
▁literally	-8.14516
▁interview	-8.14576
▁happy	-8.14678
▁concern	-8.1474
▁rupee	-8.14817
▁struggle	-8.14817
▁dollar	-8.14988
▁employee	-8.1499
▁super	-8.15381
▁religion	-8.15675
▁master	-8.15717
▁specific	-8.15852
ary	-8.15899
▁de	-8.1591
▁path	-8.15945
▁reddit	-8.16019
▁tuk	-8.16087
▁individual	-8.16193
▁curious	-8.16196
▁sub	-8.16724
▁paper	-8.1687
▁fail	-8.16885
▁h	-8.17014
se	-8.17146
▁model	-8.17436
▁light	-8.17447
▁strong	-8.17457
▁improve	-8.17583
▁via	-8.17622
▁win	-8.1779
▁sense	-8.17815
▁stream	-8.17941
▁australia	-8.1802
▁limit	-8.18033
▁treat	-8.18107
▁plus	-8.18387
▁store	-8.18686
▁professional	-8.18709
▁period	-8.18824
▁site	-8.19486
▁along	-8.19546
▁figure	-8.19737
▁update	-8.19754
▁accept	-8.19759
▁se	-8.19875
▁stand	-8.19969
▁hop	-8.2014
at	-8.20418
ra	-8.20463
▁eat	-8.20887
▁custom	-8.21129
▁handle	-8.21156
▁test	-8.21269
▁pick	-8.21327
▁society	-8.21345
▁men	-8.21488
▁event	-8.21666
▁difference	-8.21894
with	-8.21938
▁across	-8.22078
▁afford	-8.22236
▁luck	-8.22389
▁miss	-8.22577
▁action	-8.22758
▁standard	-8.22822
▁moment	-8.22997
▁hire	-8.23068
▁pass	-8.23173
▁difficult	-8.23254
▁rest	-8.23273
▁hit	-8.23286
▁hate	-8.23499
▁living	-8.236
▁development	-8.23786
▁mobile	-8.2397
▁t	-8.24147
▁music	-8.24307
▁migrate	-8.2435
▁laptop	-8.24682
as	-8.24818
ant	-8.24866
▁continue	-8.25002
▁s	-8.2503
▁forward	-8.25059
▁human	-8.25062
▁sorry	-8.25251
▁walk	-8.25465
▁movie	-8.25629
▁china	-8.25631
▁clean	-8.25789
ry	-8.25989
▁solution	-8.2601
▁management	-8.26251
▁relate	-8.26339
▁insight	-8.26395
▁form	-8.26533
▁extra	-8.26574
▁spot	-8.26583
▁math	-8.26674
▁imf	-8.26786
go	-8.26821
▁actual	-8.26881
▁corrupt	-8.26907
▁ltte	-8.26987
▁rich	-8.27045
▁sit	-8.27174
▁network	-8.27219
st	-8.27269
▁half	-8.27356
▁completely	-8.27473
▁entire	-8.27651
smiling	-8.27725
▁citizen	-8.27928
▁candidate	-8.27939
▁rain	-8.28054
▁three	-8.2833
▁practice	-8.28525
▁weather	-8.28526
▁trade	-8.2897
▁affect	-8.29002
▁jvp	-8.29114
▁message	-8.2916
▁island	-8.29311
▁role	-8.29323
z	-8.29443
us	-8.29652
▁wish	-8.29746
▁select	-8.29984
up	-8.30213
▁w	-8.3023
▁co	-8.30388
▁covid	-8.30503
▁behind	-8.30903
▁access	-8.31625
▁info	-8.31646
es	-8.31649
▁condition	-8.31709
▁restaurant	-8.31709
▁together	-8.32114
▁gain	-8.32329
▁transport	-8.32461
▁explain	-8.32554
▁member	-8.32919
▁accord	-8.32928
▁range	-8.33145
▁park	-8.33178
▁currency	-8.3334
ter	-8.33441
▁gov	-8.33538
▁absolutely	-8.33719
▁medicine	-8.33755
▁fall	-8.33913
th	-8.33937
▁partner	-8.34186
▁generation	-8.34382
▁prefer	-8.34478
▁air	-8.34522
▁alone	-8.34664
il	-8.347
▁document	-8.34728
▁white	-8.34791
▁daily	-8.34792
▁ticket	-8.35001
▁room	-8.35005
▁fair	-8.35229
▁foreigner	-8.35252
▁monthly	-8.35302
▁computer	-8.35438
▁relationship	-8.3584
▁design	-8.36043
like	-8.36053
▁op	-8.36234
▁hair	-8.36263
ate	-8.36379
▁nation	-8.36404
▁leader	-8.366
▁lk	-8.36834
▁recent	-8.3685
▁simply	-8.36917
▁pre	-8.37021
▁western	-8.3711
▁mother	-8.37185
ever	-8.37277
▁bike	-8.37542
▁tourism	-8.37552
▁planning	-8.37611
▁tea	-8.37646
▁uber	-8.37971
▁title	-8.38184
▁kill	-8.3846
▁gb	-8.39086
▁platform	-8.39268
▁okay	-8.39272
▁simple	-8.39277
▁stick	-8.39542
▁traffic	-8.39705
▁fast	-8.39733
▁switch	-8.40367
▁insurance	-8.40586
▁con	-8.40891
im	-8.40912
▁fun	-8.41028
▁north	-8.41029
▁worker	-8.41349
▁exactly	-8.41434
▁anyway	-8.41612
▁wife	-8.41728
▁gota	-8.41749
▁reliable	-8.4177
▁attack	-8.4192
▁potential	-8.41921
▁willing	-8.41998
▁license	-8.42397
▁mental	-8.42568
▁z	-8.4291
▁easily	-8.43046
▁search	-8.43046
▁sport	-8.43052
▁exist	-8.43151
▁maintain	-8.43507
▁register	-8.4356
ta	-8.4366
▁directly	-8.43664
▁somewhere	-8.43728
▁raise	-8.43967
▁note	-8.43996
▁channel	-8.44185
▁assume	-8.44185
that	-8.44348
▁tv	-8.44432
▁helpful	-8.44575
▁balance	-8.44647
▁muslim	-8.44665
ise	-8.44822
ize	-8.44884
▁inflation	-8.45105
▁resource	-8.45105
▁cricket	-8.45106
na	-8.45126
▁unfortunately	-8.45409
▁sajith	-8.46035
▁canada	-8.46268
hands	-8.46314
▁youtube	-8.46368
ent	-8.46441
▁east	-8.46655
ur	-8.46904
▁civil	-8.46951
▁beautiful	-8.47208
ne	-8.47656
▁saving	-8.47684
ism	-8.47701
▁red	-8.47782
▁sever	-8.47799
▁location	-8.4792
▁owner	-8.48055
▁wear	-8.48077
▁correct	-8.48082
▁port	-8.48118
▁digital	-8.48157
▁connect	-8.48336
▁remove	-8.48603
▁qualification	-8.48635
▁minimum	-8.48875
▁boy	-8.48977
▁profit	-8.49061
▁stupid	-8.49078
▁explore	-8.49115
▁unit	-8.49354
▁email	-8.4936
ch	-8.49881
▁letter	-8.49972
▁finish	-8.50086
▁review	-8.50331
▁crime	-8.50348
▁passport	-8.50575
▁dude	-8.5058
▁remote	-8.50581
▁com	-8.50653
▁mainly	-8.50772
▁nd	-8.51003
▁as	-8.51058
▁multiple	-8.51061
▁property	-8.51088
▁obviously	-8.51243
▁dad	-8.51405
▁cuz	-8.51559
▁fit	-8.51616
▁fel	-8.52026
▁track	-8.52093
▁physical	-8.5217
▁blame	-8.5237
▁singapore	-8.52543
▁contract	-8.52557
▁serious	-8.52592
▁space	-8.52622
work	-8.52789
▁japan	-8.52792
age	-8.52815
▁brother	-8.53043
▁folk	-8.53043
▁decade	-8.53047
▁extremely	-8.53202
▁sale	-8.53253
▁complain	-8.53375
ance	-8.53409
▁address	-8.53576
▁station	-8.53672
▁deep	-8.538
less	-8.53947
▁related	-8.54032
▁till	-8.54236
el	-8.54387
▁seat	-8.54549
▁unlimited	-8.54556
▁sliit	-8.54556
▁temple	-8.54561
▁respect	-8.54794
ness	-8.5488
▁military	-8.55321
▁senior	-8.55321
▁environment	-8.55435
▁id	-8.55564
▁hell	-8.55592
▁sign	-8.55693
▁despi	-8.55767
▁remain	-8.55834
▁mom	-8.56418
▁match	-8.5674
▁begin	-8.56884
▁staff	-8.56956
la	-8.56977
going	-8.57116
▁college	-8.5713
▁marriage	-8.5713
▁content	-8.5713
▁ship	-8.5714
▁push	-8.57168
▁special	-8.57379
▁likely	-8.57409
▁grade	-8.57425
▁router	-8.57528
j	-8.57827
▁ex	-8.57842
father	-8.57877
▁minute	-8.57915
▁exchange	-8.5792
▁facebook	-8.57937
▁ride	-8.58043
▁background	-8.58194
▁enter	-8.58216
ge	-8.5827
▁mil	-8.58282
▁buddhist	-8.58442
▁regular	-8.58442
▁realize	-8.58613
▁art	-8.58628
▁involve	-8.58687
▁overseas	-8.58707
▁activity	-8.58716
▁anymore	-8.58735
▁route	-8.58833
▁gym	-8.58973
▁fight	-8.59005
▁seek	-8.59077
▁manager	-8.59152
▁educate	-8.59266
▁dog	-8.59297
▁code	-8.59364
▁mess	-8.59489
▁morning	-8.59504
▁cause	-8.59518
▁slow	-8.59896
▁properly	-8.59991
▁certificate	-8.6004
▁eye	-8.60093
▁tend	-8.60145
▁export	-8.60313
▁otherwise	-8.60578
▁record	-8.60578
▁lawyer	-8.6058
▁jaffna	-8.60849
▁ok	-8.60907
▁reply	-8.61022
▁mid	-8.6103
iya	-8.61081
▁club	-8.6112
ul	-8.61128
▁apartment	-8.61141
un	-8.61243
▁user	-8.61263
▁among	-8.61364
▁aware	-8.61529
ha	-8.61723
▁method	-8.61937
▁request	-8.61937
▁central	-8.61939
▁worry	-8.61964
▁topic	-8.62157
▁j	-8.62183
▁forget	-8.62206
▁suffer	-8.62211
▁truly	-8.62211
▁random	-8.62212
▁inside	-8.62227
▁bear	-8.62619
▁front	-8.62912
ol	-8.62974
▁smart	-8.63037
▁context	-8.63037
▁promise	-8.63315
▁department	-8.63318
▁suppose	-8.6334
▁coast	-8.63593
▁army	-8.63759
▁alternative	-8.63874
▁particular	-8.64183
▁sad	-8.64208
▁protect	-8.64364
▁technology	-8.6443
▁fellow	-8.64435
need	-8.64484
▁except	-8.64619
▁block	-8.64728
▁file	-8.64764
am	-8.6478
▁implement	-8.64993
▁crazy	-8.65275
▁doubt	-8.65291
▁ls	-8.65407
▁ban	-8.65607
▁hr	-8.65683
est	-8.65703
▁pursue	-8.65843
▁page	-8.6598
▁bare	-8.66021
▁goal	-8.66143
out	-8.66336
ya	-8.66389
▁seriously	-8.66393
▁cultural	-8.66452
▁bar	-8.66659
▁fake	-8.66716
▁religious	-8.66723
▁overall	-8.67001
▁fully	-8.67049
▁population	-8.67276
▁sigiriya	-8.67564
▁marry	-8.67603
▁reality	-8.67716
▁arrive	-8.68145
▁folded	-8.68163
▁drink	-8.68491
▁repair	-8.68729
▁academic	-8.6875
▁growth	-8.68781
see	-8.68827
▁fill	-8.68834
▁friendly	-8.68853
li	-8.68901
ro	-8.68982
▁itinerary	-8.69022
▁pickme	-8.69038
▁die	-8.69126
▁building	-8.69257
▁institution	-8.69316
▁cool	-8.69418
▁sjb	-8.69611
▁street	-8.69611
▁imagine	-8.69677
▁dm	-8.69735
▁dream	-8.69907
▁requirement	-8.70271
▁gold	-8.70481
▁welcome	-8.70502
ma	-8.70558
▁body	-8.70779
▁effort	-8.708
ish	-8.70819
man	-8.70911
▁global	-8.70916
▁min	-8.7097
▁safety	-8.71133
▁electricity	-8.71429
▁rs	-8.71542
▁popular	-8.71575
▁officer	-8.71676
▁mark	-8.71734
ful	-8.71752
▁clearly	-8.71952
▁mine	-8.72024
▁wise	-8.72036
▁unp	-8.72177
ve	-8.72835
▁spending	-8.72889
▁eventually	-8.72915
▁essential	-8.72915
▁solid	-8.72916
et	-8.732
▁rd	-8.73221
▁deposit	-8.73228
▁chinese	-8.73527
▁apps	-8.73551
▁fan	-8.7361
ous	-8.73705
▁relative	-8.73971
▁application	-8.74144
▁although	-8.74151
▁anywhere	-8.74453
▁guide	-8.74752
da	-8.74762
▁nuwara	-8.74763
▁mistake	-8.74871
▁everywhere	-8.75081
▁dr	-8.75095
▁carry	-8.75337
▁client	-8.75388
▁specifically	-8.75415
▁west	-8.7543
▁key	-8.75586
wa	-8.75658
▁eliya	-8.75709
▁usa	-8.75761
▁friends	-8.75761
▁perfect	-8.758
▁startup	-8.76327
ara	-8.76548
▁ad	-8.76617
▁black	-8.76671
▁comfortable	-8.76713
▁challenge	-8.76735
▁significant	-8.76852
▁dis	-8.76853
care	-8.76918
▁listen	-8.7712
▁straight	-8.77307
▁board	-8.77509
▁incident	-8.77604
▁energy	-8.77615
▁flight	-8.7764
▁anti	-8.77716
▁tour	-8.7782
▁pressure	-8.77928
▁fly	-8.78103
▁over	-8.78131
▁direct	-8.7816
▁mp	-8.78237
▁release	-8.78269
▁wage	-8.78356
▁impact	-8.7857
▁confirm	-8.786
▁asia	-8.78606
▁generally	-8.78738
▁factor	-8.78815
▁article	-8.78891
so	-8.78997
os	-8.79359
ll	-8.79378
▁specially	-8.79489
▁catch	-8.79567
▁apparently	-8.79579
▁an	-8.79769
tone	-8.79858
▁score	-8.79883
▁physic	-8.80008
lo	-8.80287
mean	-8.80348
▁illegal	-8.80432
▁oil	-8.80443
▁battery	-8.80525
▁expert	-8.80526
▁foundation	-8.80551
▁attend	-8.80555
▁under	-8.80578
nt	-8.80669
▁elect	-8.80827
▁cook	-8.80878
▁mr	-8.8114
▁settle	-8.81165
▁town	-8.81194
ies	-8.8137
▁institute	-8.81519
▁traditional	-8.81648
pay	-8.81812
▁luxury	-8.81852
▁mirissa	-8.81852
all	-8.81979
▁delivery	-8.82128
▁female	-8.82187
▁lease	-8.82187
▁lie	-8.82333
▁pr	-8.82401
▁facility	-8.82523
▁picture	-8.82523
▁rise	-8.82633
▁mbps	-8.8286
▁campus	-8.82874
▁oh	-8.8301
ty	-8.83267
▁commission	-8.83537
▁refuse	-8.83545
▁supply	-8.83575
▁union	-8.83651
▁active	-8.83741
▁elephant	-8.83876
▁km	-8.83931
▁double	-8.84217
▁hopefully	-8.84313
▁employer	-8.8435
ally	-8.84356
mind	-8.8456
▁crowd	-8.8456
▁american	-8.8463
▁sim	-8.84671
▁solve	-8.84673
▁capital	-8.84888
▁achieve	-8.84892
▁scholarship	-8.84904
▁fear	-8.84912
▁opposition	-8.8525
▁nature	-8.85253
▁positive	-8.85256
▁death	-8.85266
give	-8.85293
▁print	-8.8533
▁ground	-8.85353
▁stable	-8.85501
▁ac	-8.85602
▁regardless	-8.85644
▁technical	-8.85941
▁third	-8.85941
▁advise	-8.85942
▁modern	-8.86038
▁target	-8.86291
he	-8.86531
▁mon	-8.86586
▁adult	-8.86639
▁bunch	-8.86641
▁mindset	-8.86655
▁mahinda	-8.86657
▁pas	-8.86817
▁god	-8.8699
▁approach	-8.86993
▁inform	-8.87039
▁july	-8.87075
▁pc	-8.87261
▁subreddit	-8.87342
▁initial	-8.87342
▁intern	-8.87392
▁discussion	-8.87413
▁europe	-8.87642
▁purpose	-8.87696
▁response	-8.87696
▁loss	-8.87775
▁fire	-8.87845
▁billion	-8.87907
▁quick	-8.87925
▁promote	-8.88052
▁own	-8.88084
for	-8.88107
▁po	-8.8829
ia	-8.88366
▁who	-8.88399
▁web	-8.88421
co	-8.88422
▁greatly	-8.88446
▁affordable	-8.88539
▁complaint	-8.88686
▁british	-8.88767
▁copy	-8.8902
▁collect	-8.89036
▁original	-8.89069
▁present	-8.89087
▁conversation	-8.89132
▁cc	-8.89262
▁gen	-8.8937
▁progress	-8.89478
▁asian	-8.89605
▁reasonable	-8.8988
▁rid	-8.90078
▁reform	-8.9021
▁vibe	-8.9026
let	-8.9037
▁influence	-8.90425
▁photo	-8.90563
▁ignore	-8.90569
▁season	-8.90573
▁asset	-8.90583
▁natural	-8.90608
▁hike	-8.9062
▁joke	-8.90795
▁buying	-8.9088
▁truth	-8.90935
de	-8.90971
▁necessary	-8.91043
▁deliver	-8.91062
skin	-8.91154
make	-8.91234
▁drug	-8.9131
▁throw	-8.91619
▁trouble	-8.91667
▁anybody	-8.91668
▁authority	-8.91677
▁arrest	-8.92036
▁zero	-8.92037
▁massive	-8.92318
▁peace	-8.92385
ana	-8.92467
▁milk	-8.92521
▁o	-8.92614
▁atleast	-8.92778
▁negative	-8.92778
▁cancel	-8.92779
▁wed	-8.92787
▁freedom	-8.92792
▁gas	-8.92893
▁patient	-8.93152
▁healthcare	-8.93195
▁weekend	-8.93226
▁replace	-8.935
▁dumb	-8.93523
▁better	-8.9358
ese	-8.93888
▁tuition	-8.93903
over	-8.94058
▁sa	-8.94151
▁tough	-8.94279
▁download	-8.94282
▁feedback	-8.94285
▁entry	-8.9429
▁chill	-8.94404
▁race	-8.94675
▁employment	-8.94679
▁brain	-8.9468
▁tia	-8.94832
▁beyond	-8.95039
▁negombo	-8.95039
▁trend	-8.95043
understand	-8.9532
ex	-8.95397
▁stress	-8.95481
▁damn	-8.95844
▁none	-8.95938
▁skin	-8.95984
you	-8.96102
▁electric	-8.96117
▁august	-8.96188
▁heavy	-8.96188
▁nobody	-8.9619
ba	-8.96635
light	-8.96638
▁responsibility	-8.96962
▁version	-8.96974
▁minority	-8.96977
▁usual	-8.97261
▁effect	-8.97321
▁performance	-8.97365
▁produce	-8.97366
take	-8.9757
▁diploma	-8.97731
▁bachelor	-8.97741
▁reserve	-8.98134
▁plent	-8.98137
▁status	-8.98292
▁statement	-8.9832
▁scene	-8.98654
▁slightly	-8.98666
▁separate	-8.98835
▁holiday	-8.98922
ka	-8.99205
▁spread	-8.99322
▁commit	-8.99336
▁i	-8.99357
▁iit	-8.99414
gency	-8.99465
▁weird	-8.99718
▁secure	-8.99768
▁agent	-8.99774
▁longer	-8.99949
▁ya	-9.00073
▁emergency	-9.00118
▁racist	-9.00118
▁shift	-9.00119
▁ahead	-9.00128
▁pull	-9.0014
▁surf	-9.00165
▁cross	-9.00178
▁survive	-9.00189
▁anura	-9.00517
▁proof	-9.00533
▁serve	-9.00681
▁attention	-9.00922
▁moratuwa	-9.00922
▁justice	-9.00923
▁sudden	-9.00923
▁typical	-9.00923
▁sleep	-9.00949
▁sh	-9.01006
▁idiot	-9.01241
▁divide	-9.01372
▁mass	-9.01499
been	-9.01597
▁freelance	-9.01611
▁revenue	-9.01734
▁firm	-9.01734
▁duty	-9.0174
▁warranty	-9.01757
▁star	-9.01769
ical	-9.01781
▁flag	-9.01785
say	-9.01811
line	-9.01941
▁exact	-9.02082
▁yesterday	-9.02142
▁piece	-9.02142
▁prevent	-9.02143
sh	-9.02462
▁december	-9.02552
▁infrastructure	-9.02552
▁perspective	-9.02552
find	-9.02591
▁convert	-9.02593
▁corporate	-9.02656
▁attempt	-9.02963
▁practical	-9.02972
▁meal	-9.03009
▁fiber	-9.03377
id	-9.03645
▁apart	-9.03769
▁advantage	-9.03792
▁campaign	-9.03792
▁transaction	-9.03792
▁ict	-9.03811
▁mobitel	-9.03829
▁center	-9.03926
▁blood	-9.04208
▁suck	-9.04221
▁commercial	-9.04224
▁size	-9.04383
▁male	-9.0441
use	-9.04861
▁srilankan	-9.04867
ala	-9.04873
ie	-9.04989
▁faculty	-9.05047
▁talent	-9.05049
▁region	-9.05228
▁marketing	-9.0524
▁fresh	-9.05282
▁sex	-9.05353
▁discipline	-9.05469
▁trading	-9.05469
▁material	-9.05894
▁device	-9.059
▁cat	-9.05924
▁stage	-9.05984
▁touch	-9.06037
▁prepare	-9.06067
▁foot	-9.063
▁yo	-9.06324
▁solo	-9.06338
▁ready	-9.06342
▁hence	-9.06343
▁voter	-9.06421
▁district	-9.06745
▁image	-9.06754
▁song	-9.06796
end	-9.06799
▁style	-9.07175
▁somehow	-9.07176
▁delay	-9.07177
▁ruin	-9.07188
▁na	-9.07233
▁communication	-9.07313
▁rice	-9.07314
▁fish	-9.07618
▁confuse	-9.07789
▁pure	-9.07874
arious	-9.07958
▁namal	-9.08039
▁scale	-9.08096
▁immediately	-9.08226
ir	-9.0827
▁airline	-9.08499
hand	-9.085
▁count	-9.08631
▁abuse	-9.08752
▁bio	-9.08847
▁feature	-9.0891
▁legit	-9.08938
▁baby	-9.09353
▁broker	-9.0936
▁introduce	-9.09417
and	-9.09458
ine	-9.09543
▁violence	-9.10232
▁ceylon	-9.1024
▁june	-9.10274
▁useless	-9.10367
▁ha	-9.10421
▁rank	-9.10445
▁october	-9.10676
▁refer	-9.10731
▁whatsapp	-9.11122
▁wifi	-9.11124
▁approve	-9.11178
ship	-9.11194
▁hot	-9.11219
▁mate	-9.1128
▁green	-9.11335
▁cv	-9.11477
▁rag	-9.11549
▁immigration	-9.11571
▁preferably	-9.11587
▁cycle	-9.11613
▁useful	-9.11723
▁shoe	-9.12056
▁wealth	-9.12227
▁bite	-9.12331
eyes	-9.12406
op	-9.12406
▁investor	-9.12453
▁prime	-9.12474
▁slpp	-9.12539
▁cafe	-9.12608
ti	-9.12786
▁april	-9.12928
▁guidance	-9.12928
▁concept	-9.12951
▁thread	-9.12951
▁presidential	-9.12975
▁pe	-9.12993
▁petrol	-9.13385
▁ar	-9.13573
▁rw	-9.13708
▁ch	-9.13767
▁steal	-9.13904
▁discuss	-9.14106
▁cse	-9.1428
▁racism	-9.14305
▁tool	-9.14306
▁deserve	-9.14386
▁dead	-9.1478
▁fb	-9.15092
▁september	-9.15233
ak	-9.15331
▁gr	-9.15589
pura	-9.15606
▁machine	-9.157
▁mis	-9.157
▁upper	-9.15705
▁former	-9.15759
▁treatment	-9.15788
▁unique	-9.15791
▁feeling	-9.15906
▁shy	-9.1605
em	-9.16066
▁reject	-9.16081
▁tomorrow	-9.16169
▁bsc	-9.16647
▁surprise	-9.16864
tic	-9.16914
▁husband	-9.17115
▁strike	-9.17115
▁permit	-9.17116
▁rural	-9.17116
▁damage	-9.17123
▁peak	-9.17126
▁ton	-9.17189
hi	-9.17311
▁financially	-9.17399
▁burn	-9.1744
uwa	-9.17449
▁ethnic	-9.17554
▁competition	-9.17591
▁rock	-9.17597
▁responsible	-9.17627
▁son	-9.17718
▁sun	-9.17733
▁king	-9.17769
tha	-9.1806
▁hang	-9.18087
▁taxi	-9.18264
▁conflict	-9.1855
▁evidence	-9.1855
▁toxic	-9.1855
▁additional	-9.18643
▁valid	-9.18949
▁january	-9.19034
▁journey	-9.19034
▁tried	-9.19139
land	-9.19335
▁ideally	-9.19448
mi	-9.19461
▁rajapaksa	-9.19513
▁democracy	-9.19519
▁estate	-9.19526
▁bond	-9.19526
▁november	-9.20007
▁animal	-9.20007
▁independent	-9.20009
too	-9.20051
▁recover	-9.20222
▁mo	-9.20279
ily	-9.20312
▁ev	-9.20393
▁alot	-9.20543
▁when	-9.20628
▁chat	-9.20689
▁somewhat	-9.20993
try	-9.21151
▁operate	-9.21283
▁grand	-9.21322
▁aspect	-9.21485
▁vaccine	-9.21485
▁dark	-9.21494
only	-9.21512
if	-9.21527
▁phd	-9.21569
▁wide	-9.21723
▁developer	-9.21731
▁clothes	-9.22246
no	-9.22258
▁load	-9.22262
▁amaze	-9.22482
▁church	-9.22482
▁twice	-9.22482
▁camera	-9.22482
▁registration	-9.22485
▁dress	-9.22493
▁competitive	-9.22502
▁ensure	-9.2251
▁european	-9.22563
▁prove	-9.22612
▁pack	-9.22645
▁discount	-9.2299
▁lately	-9.2304
▁success	-9.23468
▁cyber	-9.2349
▁iphone	-9.23492
▁bag	-9.23541
▁contribute	-9.23691
▁maintenance	-9.23997
▁organization	-9.23997
▁primar	-9.24
▁bay	-9.24008
▁gift	-9.24059
▁shortage	-9.2408
▁shitty	-9.24098
▁mad	-9.24144
▁transportation	-9.24149
▁player	-9.24207
▁chemistry	-9.24508
▁lifestyle	-9.24508
▁monitor	-9.24508
▁yala	-9.24536
▁schedule	-9.24563
matter	-9.24679
▁lecture	-9.24875
▁obtain	-9.25022
▁sister	-9.25026
▁byd	-9.2503
▁sea	-9.25221
▁hat	-9.25322
▁therefor	-9.25536
▁jump	-9.25541
married	-9.25542
ization	-9.25592
ath	-9.25605
▁pain	-9.25607
▁village	-9.25671
▁door	-9.25933
▁annoy	-9.26054
▁fault	-9.26057
▁perform	-9.26112
▁everyday	-9.26136
▁thinking	-9.26144
▁scar	-9.26269
paid	-9.26451
▁climate	-9.26575
▁glad	-9.26584
▁arm	-9.26709
my	-9.26842
▁relax	-9.26847
pe	-9.2686
▁host	-9.27003
▁be	-9.27071
▁ministry	-9.27098
▁construction	-9.27114
▁rental	-9.27136
▁monk	-9.27168
▁youth	-9.27629
▁broad	-9.27675
▁hide	-9.27792
bo	-9.27895
▁banking	-9.27916
▁taste	-9.27921
me	-9.28139
▁aliexpress	-9.28154
▁regulation	-9.28154
▁scheme	-9.28154
▁distance	-9.28154
▁pls	-9.28164
▁repeat	-9.28203
▁ability	-9.28205
▁upgrade	-9.28234
▁lay	-9.28247
seem	-9.28579
▁attitude	-9.28686
▁queue	-9.28686
▁structure	-9.28686
▁bottle	-9.28687
being	-9.2872
▁consumer	-9.28758
enough	-9.28901
▁inter	-9.28961
▁cr	-9.2921
▁branch	-9.2922
▁fibre	-9.2922
▁volunteer	-9.2922
▁cinema	-9.2922
ad	-9.29223
▁section	-9.29231
▁effective	-9.29404
mo	-9.29555
ot	-9.29569
▁cal	-9.29608
▁buddhism	-9.29758
▁table	-9.29769
▁appear	-9.2984
▁successful	-9.29908
nd	-9.29945
▁quickly	-9.2995
▁anyways	-9.29964
▁passion	-9.30004
▁rant	-9.30122
▁express	-9.30206
▁bet	-9.30216
▁syllabus	-9.30299
▁session	-9.30299
▁motor	-9.30299
▁trump	-9.303
▁mu	-9.30387
ting	-9.30584
▁box	-9.30605
▁aim	-9.30796
▁false	-9.30842
ian	-9.30863
▁apple	-9.31067
▁provider	-9.31096
▁appoint	-9.31358
▁bribe	-9.31389
▁sick	-9.31406
▁girlfriend	-9.31412
▁lady	-9.31441
▁annual	-9.31449
▁dec	-9.31473
▁tariff	-9.31938
▁funny	-9.31939
▁migration	-9.3195
▁march	-9.31956
▁relevant	-9.31964
▁restriction	-9.31979
▁submit	-9.31979
▁root	-9.32028
▁impossible	-9.32032
▁unis	-9.32215
ug	-9.3232
▁farm	-9.32426
▁football	-9.32494
▁regret	-9.32588
▁so	-9.32652
▁feed	-9.32677
▁counter	-9.32767
▁nic	-9.32782
▁map	-9.3279
ni	-9.32797
ence	-9.32891
▁toyota	-9.33046
▁citizenship	-9.33078
▁mix	-9.33371
▁net	-9.33462
▁refund	-9.33605
▁fairly	-9.33772
▁ps	-9.33933
▁cap	-9.33969
▁sadly	-9.34011
▁he	-9.34117
▁executive	-9.34166
▁generate	-9.3418
▁priority	-9.34203
▁down	-9.34207
▁highway	-9.34327
▁direction	-9.34328
▁hurt	-9.34328
▁complex	-9.34731
▁dubai	-9.34733
▁malaysia	-9.34736
▁weight	-9.34786
▁peaceful	-9.3484
▁setup	-9.34849
▁ideal	-9.34992
look	-9.35016
▁skip	-9.35303
▁establish	-9.35308
▁beat	-9.35375
▁absolute	-9.3539
▁training	-9.35459
▁locally	-9.35531
▁criminal	-9.35607
▁pan	-9.35678
▁slowly	-9.35755
ang	-9.35842
▁prior	-9.35857
▁associate	-9.35928
cl	-9.35981
ster	-9.36176
▁meeting	-9.36272
▁coconut	-9.36446
▁instagram	-9.36446
▁scenario	-9.36446
▁voice	-9.36446
▁london	-9.36446
▁four	-9.36469
▁ab	-9.36632
ika	-9.36635
we	-9.36776
▁coz	-9.36788
ip	-9.37015
▁garbage	-9.37024
▁bullshit	-9.37025
▁vi	-9.37032
▁strict	-9.37118
▁recognize	-9.37126
▁emotional	-9.37156
ng	-9.37194
▁fort	-9.37564
▁la	-9.37587
▁external	-9.37605
▁frustrate	-9.37605
▁gender	-9.37606
▁undergraduate	-9.37608
▁destination	-9.37611
▁solar	-9.37613
▁am	-9.37716
▁shot	-9.37729
▁suit	-9.37773
ized	-9.37908
▁remind	-9.38043
▁heavily	-9.3819
▁innocent	-9.3819
▁dinner	-9.38201
▁coffee	-9.3822
rid	-9.38241
▁agreement	-9.38341
▁sc	-9.38355
▁text	-9.38768
▁destroy	-9.38778
▁earlier	-9.38778
▁upon	-9.38827
▁busy	-9.38851
▁era	-9.38929
ho	-9.38982
medium	-9.39108
con	-9.39242
▁victim	-9.3937
▁measure	-9.3937
▁argue	-9.39373
▁valuable	-9.39434
▁legally	-9.39487
▁gap	-9.39666
▁employ	-9.39694
▁interesting	-9.39697
way	-9.39818
▁out	-9.39905
▁rely	-9.39953
▁council	-9.39965
▁mat	-9.40042
▁mar	-9.40042
per	-9.40112
▁screen	-9.40158
▁accident	-9.40172
▁sexual	-9.40213
▁shame	-9.40261
▁adopt	-9.40564
▁labour	-9.40568
▁task	-9.40583
▁nearby	-9.40595
▁usage	-9.40606
▁ethnicity	-9.40611
▁ig	-9.40646
▁guarantee	-9.40682
▁relatively	-9.40901
▁pet	-9.40945
▁lesson	-9.4109
▁perhaps	-9.41166
▁strategy	-9.41166
▁lakh	-9.41175
ass	-9.41328
▁max	-9.41389
▁signal	-9.41513
▁sp	-9.41593
▁dig	-9.4173
▁permanent	-9.41772
▁province	-9.41772
▁ridiculous	-9.41772
hu	-9.41774
▁wedding	-9.41774
▁paypal	-9.41775
▁proud	-9.41798
▁appointment	-9.41809
va	-9.41812
▁cop	-9.4183
▁cod	-9.41897
tr	-9.41976
ga	-9.42054
ers	-9.42057
▁mod	-9.42253
cy	-9.42354
▁arugam	-9.42382
▁tuktuk	-9.42382
▁cousin	-9.42382
▁shock	-9.42388
ial	-9.42699
▁easter	-9.42723
much	-9.42775
tion	-9.42816
▁maha	-9.42878
laughing	-9.42941
▁identify	-9.42996
▁gather	-9.42996
▁stuck	-9.43014
▁insane	-9.43126
▁gem	-9.43212
floor	-9.43375
▁independence	-9.43613
▁identity	-9.43613
▁aside	-9.43659
▁commerce	-9.4369
▁hous	-9.43803
▁rolling	-9.44108
▁production	-9.44169
▁par	-9.44193
▁judge	-9.44208
▁equipment	-9.44239
▁loud	-9.44257
▁stability	-9.44265
▁kick	-9.44337
▁ma	-9.44365
▁murder	-9.44639
▁withdraw	-9.44711
▁desperate	-9.44859
▁efficient	-9.44859
▁sampath	-9.4486
▁vacation	-9.44861
▁consultant	-9.44881
▁operation	-9.44903
▁dance	-9.4496
▁significantly	-9.45183
▁expectation	-9.45241
▁unlike	-9.45256
▁film	-9.45385
▁arrival	-9.45488
▁bonus	-9.45488
▁represent	-9.45556
▁yr	-9.45575
▁lecturer	-9.45667
▁supporter	-9.4569
▁engine	-9.45909
▁seller	-9.45946
po	-9.45951
ut	-9.46116
▁safari	-9.46121
▁series	-9.46121
▁gdp	-9.46122
▁hutch	-9.46131
day	-9.4617
▁afraid	-9.46179
▁m	-9.46218
▁vat	-9.46222
▁mentality	-9.46226
▁round	-9.46278
▁band	-9.46282
▁constitution	-9.46344
time	-9.46503
▁ba	-9.46519
feel	-9.46543
▁engage	-9.46732
▁hassle	-9.46758
▁realise	-9.46777
▁terrible	-9.46779
▁wash	-9.46885
▁ball	-9.47243
▁portfolio	-9.47399
▁extend	-9.47399
▁blind	-9.47399
▁wildlife	-9.474
▁sunday	-9.4741
▁br	-9.47439
▁batch	-9.47441
▁obvious	-9.47563
▁heat	-9.47738
▁lucky	-9.47813
▁press	-9.47879
▁uncle	-9.48012
▁bottom	-9.48044
▁thousand	-9.48044
▁linkedin	-9.48045
ard	-9.48048
▁conduct	-9.48105
▁wh	-9.48167
▁blue	-9.4817
ably	-9.48325
ash	-9.48345
▁medic	-9.48417
▁soo	-9.48536
▁admit	-9.48693
▁critical	-9.48694
▁percentage	-9.48705
▁fd	-9.48714
pa	-9.48753
▁tie	-9.4888
q	-9.49024
▁approval	-9.49347
▁trash	-9.49358
▁color	-9.49376
one	-9.49458
pi	-9.49639
▁cs	-9.49665
▁weligama	-9.50005
▁beside	-9.50014
dy	-9.50109
▁dev	-9.50248
ib	-9.50257
▁gun	-9.50261
▁constantly	-9.50342
lu	-9.50392
ted	-9.5045
▁behavior	-9.50667
▁nowadays	-9.50667
▁theory	-9.50668
▁hidden	-9.5067
▁famous	-9.50674
▁atm	-9.50674
▁investigation	-9.50681
▁understanding	-9.50683
come	-9.50725
▁camp	-9.50784
anka	-9.50859
sp	-9.51044
▁quit	-9.51052
▁tire	-9.51112
▁attract	-9.51304
▁soldier	-9.51334
▁survey	-9.51334
▁resort	-9.51334
▁bugger	-9.51336
▁display	-9.51341
▁terrorist	-9.51342
▁preference	-9.51361
oc	-9.5175
ling	-9.51787
back	-9.51981
▁amazing	-9.52005
▁argument	-9.52005
▁possibly	-9.52005
▁delete	-9.52007
ify	-9.5209
ite	-9.52101
▁economics	-9.52176
▁cent	-9.52216
▁compete	-9.52217
act	-9.52369
▁movement	-9.52421
ac	-9.52522
▁af	-9.52585
▁grateful	-9.52681
▁drama	-9.52685
▁rajapaksas	-9.5269
▁sir	-9.52723
▁celebrate	-9.52742
▁appreciated	-9.52784
▁exp	-9.52787
▁resident	-9.53071
▁tutor	-9.53353
▁ill	-9.53355
▁mafia	-9.53361
▁possibility	-9.53361
▁birthday	-9.53368
▁drain	-9.53375
▁trap	-9.53402
▁ta	-9.53422
▁healthy	-9.53529
▁can	-9.53689
▁procedure	-9.54046
▁reputation	-9.54046
▁speech	-9.54046
▁donate	-9.54047
▁shoot	-9.54047
▁profile	-9.54048
▁elite	-9.54053
▁centre	-9.541
▁freelancer	-9.54332
▁threat	-9.54699
▁internal	-9.54707
▁accommodation	-9.54735
▁combine	-9.54736
▁stra	-9.54745
▁upcom	-9.54931
▁pop	-9.54956
▁index	-9.55044
ton	-9.55105
▁fr	-9.5539
▁capacity	-9.5543
▁premium	-9.5543
▁samsung	-9.5543
▁poverty	-9.5543
▁wtf	-9.55431
▁calculate	-9.55434
side	-9.55672
▁pa	-9.55699
▁embassy	-9.56129
▁launch	-9.56129
▁default	-9.5613
▁ikman	-9.56142
▁grant	-9.56169
▁circle	-9.56345
▁draw	-9.56417
▁mixed	-9.56441
▁lower	-9.56468
▁tradition	-9.56559
▁birth	-9.56826
▁dambulla	-9.56833
▁burden	-9.56835
▁excuse	-9.56849
▁presidency	-9.56851
▁input	-9.56856
band	-9.56967
ap	-9.56993
sustainable	-9.57049
▁med	-9.57143
▁bo	-9.57275
▁excite	-9.57292
▁soft	-9.57494
▁quiet	-9.57543
▁throughout	-9.57543
▁aragalaya	-9.57543
▁ultimate	-9.57555
▁cheer	-9.57582
▁ice	-9.57588
▁electronics	-9.57624
aughter	-9.57626
▁protection	-9.57776
worth	-9.57812
▁fo	-9.57945
▁ram	-9.57989
▁ca	-9.58025
▁israel	-9.58239
▁consequence	-9.58257
▁divorce	-9.58257
▁festival	-9.58257
▁debate	-9.58268
▁epf	-9.58274
▁lo	-9.58281
▁meme	-9.58376
▁ceb	-9.58472
▁cup	-9.58582
hav	-9.58672
working	-9.58677
▁window	-9.58715
ama	-9.58716
happen	-9.58845
▁cinnamon	-9.58976
▁colleague	-9.58976
▁daraz	-9.58976
▁lmao	-9.58976
▁hnb	-9.58977
▁extent	-9.59004
▁intention	-9.59005
▁authentic	-9.59017
▁worried	-9.59036
▁lane	-9.59089
ec	-9.59181
▁bomb	-9.59403
▁hundred	-9.59701
▁oppose	-9.59701
▁trincomalee	-9.59701
▁elder	-9.59702
▁doc	-9.59714
▁hyb	-9.59746
▁wild	-9.59754
▁floor	-9.59982
▁overnight	-9.60431
▁thailand	-9.60434
▁beginner	-9.60446
▁warn	-9.60563
▁limited	-9.60728
▁eg	-9.60766
▁ro	-9.60788
▁bother	-9.60793
aya	-9.61018
help	-9.61052
▁deduct	-9.61074
▁click	-9.61166
▁vendor	-9.61166
▁category	-9.61167
▁anuradha	-9.61171
▁household	-9.61201
ow	-9.61207
▁suspect	-9.61208
▁labor	-9.61227
▁dry	-9.61281
allow	-9.61375
▁portion	-9.61454
ph	-9.61565
▁def	-9.61708
▁ce	-9.6181
▁resign	-9.61849
▁division	-9.61907
▁cloud	-9.61958
▁mall	-9.61971
▁kdu	-9.62012
ess	-9.6224
ig	-9.62325
▁swim	-9.62412
ure	-9.62569
▁crap	-9.62601
▁belief	-9.62653
▁tiktok	-9.62653
▁cream	-9.62653
▁certification	-9.62654
▁forex	-9.62669
▁native	-9.62691
▁traveler	-9.62794
▁extreme	-9.62928
▁le	-9.62936
▁careful	-9.63045
di	-9.63153
▁comfort	-9.63329
▁korea	-9.63414
▁shut	-9.6342
▁jail	-9.63428
ee	-9.63432
▁administration	-9.63435
▁forest	-9.6345
▁memory	-9.63532
▁used	-9.63602
▁pool	-9.63621
▁pot	-9.63913
king	-9.64072
▁consult	-9.64076
▁factory	-9.64145
▁estimate	-9.64163
▁anytime	-9.64165
▁ml	-9.64382
▁highlight	-9.64493
gg	-9.64721
▁guys	-9.64728
▁neighbor	-9.64921
▁starlink	-9.64926
▁urban	-9.64926
▁wing	-9.64983
▁privilege	-9.65035
▁van	-9.65076
▁mba	-9.65085
mon	-9.65116
▁eta	-9.65139
▁suitable	-9.65145
▁upto	-9.65197
▁plant	-9.65285
▁speaker	-9.65326
sl	-9.65334
▁cloth	-9.65359
▁ran	-9.65608
▁q	-9.6566
▁arrange	-9.65662
▁alcohol	-9.65695
▁shirt	-9.65698
▁unfair	-9.65724
▁civilian	-9.65735
▁fancy	-9.6574
▁awareness	-9.65751
▁america	-9.66312
▁addition	-9.66331
expect	-9.66395
▁organize	-9.66399
▁el	-9.6642
ability	-9.66464
▁equity	-9.66471
▁cbsl	-9.66473
▁redditors	-9.66474
▁piss	-9.6648
▁leadership	-9.66511
ler	-9.66534
ier	-9.66545
▁pharmacy	-9.66566
▁onto	-9.66729
▁jan	-9.66732
▁hill	-9.66774
▁risky	-9.67165
good	-9.67185
worry	-9.6719
▁advisor	-9.67252
▁edexcel	-9.67252
▁welfare	-9.67252
▁collapse	-9.67252
▁basis	-9.67266
▁manner	-9.67302
▁plantation	-9.67317
▁leg	-9.6733
▁communicate	-9.67359
▁ne	-9.6741
ab	-9.67445
▁rap	-9.67496
▁no	-9.67539
▁gig	-9.67577
▁rarely	-9.67691
▁gam	-9.67734
ery	-9.67786
ran	-9.67804
▁cu	-9.67808
▁formal	-9.67809
ru	-9.67985
▁supermarket	-9.68044
▁coach	-9.6805
▁additionally	-9.68053
down	-9.68071
▁threaten	-9.68083
▁workplace	-9.68165
▁cold	-9.68178
▁sole	-9.68233
▁ho	-9.68331
▁found	-9.68344
▁logic	-9.68649
▁harm	-9.68762
▁laugh	-9.68823
▁confidence	-9.68833
▁neighbour	-9.68833
▁fat	-9.68837
▁harass	-9.68838
▁depends	-9.68842
▁specialist	-9.68929
ik	-9.69056
▁bias	-9.69079
▁unnecessar	-9.69171
▁powerful	-9.69189
▁mn	-9.6924
▁convenient	-9.69633
▁curriculum	-9.69633
▁cybersecurity	-9.69633
▁garden	-9.69633
▁justify	-9.69633
▁decline	-9.69651
▁horrible	-9.69654
▁passionate	-9.69666
▁sake	-9.69676
▁journalist	-9.69813
▁sm	-9.70069
▁ass	-9.70082
gala	-9.70199
▁exams	-9.70202
▁entirely	-9.70322
▁programme	-9.70341
▁wall	-9.70352
▁function	-9.7039
▁tol	-9.7043
▁disgust	-9.70439
▁junior	-9.70439
▁library	-9.70439
▁neither	-9.70439
▁outdated	-9.70439
▁graphic	-9.70449
▁rush	-9.70562
vote	-9.70629
any	-9.70634
▁artist	-9.7066
▁tree	-9.70683
▁germany	-9.70694
▁familiar	-9.7073
ci	-9.70733
▁weak	-9.71201
▁comparison	-9.71252
▁opposite	-9.71252
▁loose	-9.71253
▁donation	-9.71254
▁nonsense	-9.71257
▁quote	-9.71279
▁bridge	-9.71307
ai	-9.71418
▁respond	-9.71467
▁pakistan	-9.71526
han	-9.71639
▁nurse	-9.71981
▁bi	-9.72047
▁ups	-9.72065
▁ideology	-9.72072
▁promotion	-9.72072
▁proceed	-9.72072
▁pizza	-9.72073
▁pocket	-9.72082
▁label	-9.7209
▁boat	-9.72102
▁msc	-9.72111
▁accurate	-9.72154
▁equal	-9.72377
▁debi	-9.72405
▁historical	-9.72458
▁opt	-9.72481
▁ti	-9.72826
▁roll	-9.72852
book	-9.72853
▁discrimination	-9.72898
▁africa	-9.72899
▁convince	-9.72906
▁S	-9.72924
▁liberal	-9.72936
▁accountability	-9.72992
▁hnd	-9.72997
▁up	-9.73
▁ird	-9.73043
▁zone	-9.73067
▁bed	-9.73548
▁dive	-9.73657
▁absurd	-9.73732
▁undergrad	-9.73732
▁fashion	-9.73732
▁adapt	-9.73732
▁surround	-9.73732
▁clarify	-9.73733
▁scammed	-9.73733
▁crook	-9.73736
▁dangerous	-9.73738
▁poll	-9.7374
▁reflect	-9.73744
ud	-9.73798
they	-9.73897
▁socialist	-9.74044
▁happens	-9.74076
▁fi	-9.74111
▁maximu	-9.74158
▁australian	-9.74193
ative	-9.74384
ah	-9.74509
▁propaganda	-9.74572
▁witness	-9.74572
▁entrance	-9.74573
▁biology	-9.74576
▁eu	-9.74589
▁curry	-9.74592
▁stack	-9.74599
▁character	-9.74895
ragama	-9.75004
▁bat	-9.75175
very	-9.75219
our	-9.75264
mark	-9.75333
▁exploit	-9.75358
▁left	-9.75393
▁borrow	-9.7542
▁climb	-9.7542
▁psychology	-9.7542
▁retail	-9.75434
▁reference	-9.75436
▁en	-9.75437
hicken	-9.75442
▁earth	-9.75442
▁failure	-9.75452
▁lean	-9.75484
▁noise	-9.75495
▁sum	-9.75524
▁attach	-9.7624
▁bangladesh	-9.76274
▁premadasa	-9.76274
▁publish	-9.76275
▁odd	-9.76276
▁expose	-9.76276
▁chase	-9.76304
▁rude	-9.76324
▁mechanical	-9.76355
▁egg	-9.76408
▁grad	-9.76411
▁align	-9.76509
about	-9.76566
▁casual	-9.7665
▁five	-9.76714
▁rare	-9.76753
▁hiriketiya	-9.77136
▁mandatory	-9.77136
▁smoke	-9.77139
▁plastic	-9.77145
▁nsbm	-9.77147
▁crash	-9.77149
ral	-9.77205
▁negotiate	-9.77263
▁holder	-9.77303
▁defend	-9.77353
▁calm	-9.77376
cu	-9.77497
▁si	-9.77558
▁unsure	-9.77772
qu	-9.77805
▁burg	-9.77949
▁punish	-9.77978
▁multi	-9.78001
▁chatgpt	-9.78006
▁genocide	-9.78006
▁grocery	-9.78006
▁southern	-9.7801
her	-9.78023
▁temporary	-9.78146
ake	-9.78176
ith	-9.78201
▁chain	-9.78336
tear	-9.78574
▁paint	-9.78593
but	-9.78743
▁gay	-9.78747
▁rajapaksha	-9.78782
▁electronic	-9.78783
▁entitle	-9.78883
▁initiative	-9.78883
▁passenger	-9.78883
▁screw	-9.78883
▁protein	-9.78883
▁etf	-9.78885
▁designer	-9.78906
ke	-9.79036
there	-9.79072
awa	-9.79131
▁normally	-9.79201
▁nu	-9.79265
rt	-9.79716
▁enforce	-9.79737
▁hustle	-9.79768
▁habit	-9.79768
▁minimal	-9.79768
▁split	-9.79779
▁grab	-9.79781
▁scammer	-9.79798
easy	-9.79809
▁dealer	-9.79819
fall	-9.80075
by	-9.80119
▁some	-9.80149
new	-9.80233
▁lock	-9.8027
son	-9.8027
▁pic	-9.80327
▁experienced	-9.80395
▁flow	-9.8048
▁ko	-9.80522
▁fundamental	-9.80661
▁recognition	-9.80661
▁ongoing	-9.80663
▁immigrant	-9.80663
▁brown	-9.80667
▁elsewhere	-9.80672
▁analysis	-9.80686
tu	-9.80689
▁fitness	-9.80732
▁democratic	-9.80772
▁peradeniy	-9.80782
▁deny	-9.8085
some	-9.80954
▁pv	-9.81059
▁trick	-9.81261
▁retire	-9.81529
▁gang	-9.8153
▁clue	-9.8156
because	-9.81562
▁suicide	-9.81562
▁clown	-9.81562
▁moral	-9.81563
▁lift	-9.81566
▁resolve	-9.81576
▁retirement	-9.81595
▁ita	-9.81601
ue	-9.81609
▁evil	-9.81623
ile	-9.81635
▁depression	-9.81652
forget	-9.81712
▁rip	-9.81865
this	-9.81999
▁ra	-9.82044
▁mode	-9.82089
▁secret	-9.82442
▁tight	-9.82471
▁adhd	-9.82471
▁colour	-9.82474
▁flash	-9.82476
▁fool	-9.82477
▁surgery	-9.82491
▁forever	-9.82517
ask	-9.82521
▁faith	-9.82565
▁ali	-9.82793
▁bos	-9.82796
▁ka	-9.82812
▁vet	-9.82814
pl	-9.82871
▁rough	-9.82905
▁confused	-9.83002
▁ni	-9.83046
▁wheel	-9.83177
▁intelligen	-9.8319
▁specialize	-9.83195
▁depress	-9.83317
▁buffet	-9.83388
▁canadian	-9.83388
▁diaspora	-9.83388
▁flood	-9.83388
▁lgbtq	-9.83392
▁tower	-9.83407
▁entity	-9.83408
▁wake	-9.8342
▁wave	-9.83449
▁progressive	-9.83464
soft	-9.83473
▁everybody	-9.83484
▁minor	-9.83602
mer	-9.84255
▁sponsor	-9.84303
▁meanwhile	-9.84314
▁sacrifice	-9.84314
▁impose	-9.84315
▁vision	-9.84316
▁statistic	-9.84317
▁agenda	-9.84327
▁panel	-9.84345
ought	-9.84358
▁cima	-9.84379
▁wi	-9.84442
what	-9.84469
▁certainly	-9.84471
▁nationalist	-9.8451
▁hero	-9.84614
▁selection	-9.84745
▁harsha	-9.84794
▁director	-9.84902
▁rep	-9.85128
▁qualify	-9.85249
▁invite	-9.85249
▁lunch	-9.85249
▁propose	-9.85249
▁tangalle	-9.85249
▁boost	-9.8525
▁icbt	-9.85252
▁upload	-9.85253
▁buddy	-9.85254
▁hindu	-9.85255
▁guest	-9.85255
▁expand	-9.85264
▁bail	-9.85272
cient	-9.85325
▁ip	-9.85326
▁reveal	-9.85334
▁tin	-9.85408
ini	-9.8541
cut	-9.85569
▁constant	-9.8571
▁declare	-9.85773
▁hype	-9.86019
▁manufacture	-9.86053
▁telegra	-9.86104
▁advertise	-9.86159
▁commute	-9.86192
▁error	-9.86192
▁nugegoda	-9.86192
▁mountain	-9.86192
▁sugar	-9.86193
▁narrative	-9.86194
▁trcsl	-9.86194
▁regime	-9.86194
▁appeal	-9.86196
▁outcome	-9.86204
▁discover	-9.86206
▁wallet	-9.86212
everyone	-9.86288
body	-9.86546
▁mathematic	-9.86642
ring	-9.86667
▁mf	-9.86721
ki	-9.86886
▁core	-9.86986
tra	-9.87004
▁russia	-9.87047
▁ja	-9.87103
▁barrier	-9.87145
▁cmb	-9.87145
▁leak	-9.87159
▁kottu	-9.87181
right	-9.87203
▁ik	-9.87209
▁mum	-9.87282
▁improvement	-9.87326
▁dual	-9.87339
▁hu	-9.87341
▁blow	-9.87367
buy	-9.87407
necessarily	-9.87448
▁vs	-9.87666
▁german	-9.87803
rs	-9.87864
▁mini	-9.87926
▁occasional	-9.87948
clude	-9.88012
▁auto	-9.88052
hood	-9.88056
▁awesome	-9.88106
▁pattern	-9.88106
▁cambridge	-9.88106
▁verify	-9.88107
▁dehiwala	-9.88108
▁instance	-9.88109
▁creative	-9.88113
▁installment	-9.88126
▁hostel	-9.88141
▁six	-9.88143
▁wo	-9.8824
ew	-9.88315
▁sy	-9.88502
▁kw	-9.88512
fully	-9.88911
▁domestic	-9.89077
▁exposure	-9.89077
▁admission	-9.89081
▁after	-9.89112
▁pathway	-9.89124
▁childhood	-9.89125
▁capable	-9.89197
ze	-9.89216
▁ear	-9.89333
▁beg	-9.89347
done	-9.89417
▁funding	-9.89426
▁influencers	-9.89533
▁da	-9.89788
show	-9.89827
▁bankrupt	-9.90049
▁privacy	-9.90057
▁scooter	-9.90057
▁utility	-9.90058
▁availability	-9.90058
▁railway	-9.9006
▁affair	-9.90061
▁inflate	-9.90062
▁plain	-9.90087
▁uae	-9.90098
▁automatically	-9.90119
▁rajapakshas	-9.90171
▁clearance	-9.90172
▁scope	-9.90183
bi	-9.90184
always	-9.90193
nia	-9.90201
▁fell	-9.90245
▁accountable	-9.90271
▁collection	-9.9031
▁higher	-9.90345
▁pen	-9.90518
▁drag	-9.90644
fp	-9.90963
▁predict	-9.9097
▁margin	-9.91047
▁describe	-9.91047
▁participate	-9.91047
▁rugby	-9.91047
▁toilet	-9.91047
▁entertainment	-9.9106
▁spent	-9.91081
▁depreciate	-9.91095
istic	-9.91157
believe	-9.91239
▁sky	-9.91258
▁united	-9.91337
▁va	-9.91361
▁tiny	-9.91372
▁ci	-9.9138
▁eastern	-9.91415
▁concerned	-9.91498
▁res	-9.91645
▁lab	-9.91701
▁govern	-9.91966
▁audience	-9.92048
▁february	-9.92048
▁friday	-9.92048
▁proposal	-9.92048
▁beaut	-9.92049
▁nowhere	-9.92049
▁conservative	-9.92049
ible	-9.92075
▁confident	-9.92096
▁accent	-9.92191
ade	-9.92203
▁dear	-9.92232
doing	-9.92328
▁mail	-9.92335
▁acknowledge	-9.92384
itch	-9.92404
com	-9.925
▁aid	-9.92706
▁incredibl	-9.92745
ice	-9.92945
▁announce	-9.93024
▁combination	-9.93058
▁equivalent	-9.93058
▁perfume	-9.93058
▁pettah	-9.93058
▁remittance	-9.93058
▁driving	-9.93058
▁complicate	-9.93058
▁exempt	-9.93066
▁selfish	-9.93159
▁russian	-9.93161
▁trial	-9.93206
▁allowance	-9.93215
▁ten	-9.93237
▁regulate	-9.93238
▁warm	-9.93266
change	-9.93446
had	-9.93811
log	-9.93831
point	-9.93896
▁consume	-9.93939
ner	-9.94028
▁prospect	-9.94078
▁violent	-9.94078
▁leaf	-9.94078
▁ultra	-9.94078
▁buddha	-9.9408
▁translate	-9.94081
▁smell	-9.9409
▁shape	-9.94099
▁adjust	-9.9414
available	-9.94165
▁meter	-9.94175
▁du	-9.94334
▁roughly	-9.94619
▁jr	-9.94661
iv	-9.94688
▁recovery	-9.94716
▁severe	-9.94737
▁tuks	-9.94751
ft	-9.94785
▁ag	-9.94914
▁pol	-9.94953
gen	-9.94993
▁gpa	-9.95006
▁tr	-9.95029
io	-9.95078
▁organisation	-9.95109
▁criticism	-9.95109
▁sweet	-9.95109
▁indeed	-9.95109
▁century	-9.95112
▁disappear	-9.95112
▁outlet	-9.95134
▁herita	-9.9515
▁pair	-9.95155
▁replacement	-9.95201
▁glass	-9.95235
ory	-9.95242
▁tb	-9.95355
▁micro	-9.95371
▁rating	-9.95411
set	-9.95425
▁cab	-9.95532
live	-9.95758
▁wealthy	-9.95806
▁worse	-9.9597
▁circumstance	-9.96151
▁suburb	-9.96151
thi	-9.96159
▁assignment	-9.96174
▁shout	-9.96198
que	-9.96283
▁slip	-9.96478
▁guard	-9.96568
▁wind	-9.96913
▁unlikely	-9.96958
▁au	-9.9701
from	-9.97198
▁chocolate	-9.97203
▁encounter	-9.97203
▁hobby	-9.97203
▁criticize	-9.97203
▁assess	-9.97212
▁hunt	-9.97223
▁punishment	-9.97243
▁sometime	-9.97294
something	-9.97412
▁manipulate	-9.97472
ble	-9.97547
▁difficulty	-9.97872
shipping	-9.97975
▁sam	-9.98051
▁del	-9.98061
▁indi	-9.98072
▁scen	-9.9824
▁behaviour	-9.98267
▁prison	-9.98267
▁presence	-9.98267
▁cabinet	-9.98272
▁psychiatrist	-9.98273
▁charity	-9.98279
▁percent	-9.98283
▁broken	-9.98285
▁battle	-9.98292
▁secretary	-9.98301
▁earnings	-9.9831
▁realistic	-9.98327
▁hon	-9.98328
▁pretend	-9.98364
▁agriculture	-9.98399
▁industrial	-9.98455
▁ri	-9.98806
▁ah	-9.9884
una	-9.98905
ponent	-9.9892
▁globally	-9.98923
▁photograph	-9.99135
▁wa	-9.99145
▁trans	-9.99185
▁christian	-9.99308
▁relation	-9.99332
▁android	-9.99342
▁decrease	-9.99342
▁hikkaduwa	-9.99342
▁overprice	-9.99342
▁assault	-9.99343
▁soul	-9.99377
▁fruit	-9.99432
▁commitment	-9.99433
▁enable	-9.99437
▁slave	-9.99443
▁guilty	-9.99469
▁viable	-9.99497
▁chem	-9.9969
▁thus	-9.99717
▁applies	-9.99841
om	-9.9986
vo	-10.0007
seen	-10.0036
▁analys	-10.004
▁compensation	-10.0043
▁empty	-10.0043
▁asshole	-10.0043
▁reward	-10.0045
▁alright	-10.0049
▁activate	-10.005
▁define	-10.0053
▁cake	-10.0056
▁audit	-10.0056
recommend	-10.0067
support	-10.0067
▁alive	-10.0082
ential	-10.009
ual	-10.0092
lin	-10.0094
▁contribut	-10.0118
ff	-10.0133
ger	-10.0145
of	-10.0146
▁strength	-10.0149
▁physically	-10.0152
▁behalf	-10.0153
▁escape	-10.0153
▁softlogic	-10.0153
▁ucsc	-10.0153
▁venue	-10.0153
▁cheat	-10.0154
▁repute	-10.0154
▁im	-10.0154
▁bruh	-10.0155
ator	-10.0159
▁favour	-10.0163
▁sw	-10.017
▁din	-10.0185
▁di	-10.0186
▁coin	-10.019
▁hole	-10.0192
▁rape	-10.0198
▁spare	-10.0201
▁rec	-10.0204
isation	-10.0211
▁smooth	-10.0215
▁immediate	-10.0216
▁server	-10.0219
▁entrepreneur	-10.0245
ja	-10.0249
▁buck	-10.0254
▁ish	-10.0257
▁ahangama	-10.0264
▁anxiety	-10.0264
▁unawatuna	-10.0264
▁royal	-10.0264
▁taught	-10.0264
▁sentence	-10.0265
▁governance	-10.0266
▁meaningful	-10.0266
▁drone	-10.0267
▁disaster	-10.027
getting	-10.027
▁react	-10.027
▁ste	-10.0278
▁fluent	-10.028
▁sufficient	-10.0283
▁unity	-10.0287
keep	-10.0291
▁cur	-10.0313
▁imp	-10.0319
▁mouth	-10.0319
▁aunt	-10.0329
ay	-10.034
▁profession	-10.0345
▁got	-10.0346
nce	-10.0348
▁clinic	-10.0351
▁islam	-10.0362
▁architectur	-10.0368
▁disagree	-10.0374
▁hsbc	-10.0376
▁powder	-10.0376
▁succeed	-10.0376
▁derana	-10.0376
▁variety	-10.0377
▁bc	-10.0378
▁honda	-10.0378
▁visible	-10.0379
▁membership	-10.0382
▁worship	-10.0388
▁tri	-10.0389
▁grid	-10.0392
▁behave	-10.0401
▁intend	-10.0406
stop	-10.0413
tte	-10.0416
▁mm	-10.0434
▁regional	-10.0441
▁fry	-10.0452
▁speaking	-10.0458
▁classic	-10.0462
▁hall	-10.0489
▁occur	-10.049
▁pandemic	-10.049
▁trustworthy	-10.0491
▁easier	-10.0492
▁border	-10.0492
▁correctly	-10.0493
▁expat	-10.0494
▁dil	-10.0495
▁otp	-10.0497
▁resignation	-10.0499
▁toward	-10.0507
▁analytics	-10.0509
▁comp	-10.0512
▁born	-10.0512
▁lake	-10.052
▁proven	-10.0524
▁gate	-10.0529
▁personality	-10.0536
▁closer	-10.0551
ack	-10.0551
▁pi	-10.0555
run	-10.0559
▁cater	-10.056
▁ap	-10.0565
▁recruit	-10.0581
▁contain	-10.0585
▁colonial	-10.0603
▁allocate	-10.0605
▁depreciation	-10.0605
▁recognise	-10.0605
▁temu	-10.0605
▁locate	-10.0605
ide	-10.0611
▁victory	-10.0612
▁spec	-10.0617
▁buyer	-10.062
▁contra	-10.0622
▁traveller	-10.0623
▁bully	-10.0628
▁economically	-10.0651
▁ft	-10.0666
▁em	-10.0669
▁villa	-10.0693
▁lion	-10.0701
▁norm	-10.0709
▁rat	-10.0714
▁afterwards	-10.0721
▁efficiency	-10.0721
▁flexible	-10.0721
▁terrorism	-10.0722
▁finger	-10.0722
▁dirt	-10.0723
▁accuse	-10.0723
▁ownership	-10.0727
red	-10.0728
▁spam	-10.0732
nc	-10.0744
▁dish	-10.0748
att	-10.0761
▁fds	-10.0784
app	-10.0787
ham	-10.0787
▁ga	-10.08
uff	-10.082
uck	-10.0833
▁learnt	-10.0837
▁faster	-10.0838
▁insult	-10.0839
▁semester	-10.0839
▁surge	-10.0839
▁twitter	-10.0839
▁licence	-10.0839
▁prioritize	-10.0839
▁lazy	-10.0839
▁diesel	-10.0839
▁nissan	-10.0839
▁riot	-10.084
▁niche	-10.0842
▁transition	-10.0846
ency	-10.0852
▁lovely	-10.0858
▁belong	-10.0859
dis	-10.0859
agree	-10.0871
▁making	-10.0875
sey	-10.088
▁voting	-10.0884
▁sing	-10.0892
▁salt	-10.0892
▁favor	-10.0893
own	-10.0945
▁jer	-10.0948
▁artificial	-10.0958
▁dedicate	-10.0958
▁sentiment	-10.0958
▁phase	-10.0958
▁consent	-10.0958
▁cancer	-10.0958
▁permission	-10.096
▁shall	-10.0963
ten	-10.0979
friend	-10.0987
▁bore	-10.0991
educate	-10.0993
ped	-10.1
▁urgent	-10.1031
og	-10.1038
▁mal	-10.1039
ale	-10.1055
▁vaccinate	-10.1061
▁renew	-10.1062
ping	-10.1063
▁successfully	-10.1067
▁afaik	-10.1078
▁french	-10.1078
▁ignorant	-10.1078
▁john	-10.1078
▁nepal	-10.1078
▁expire	-10.1078
▁explanation	-10.108
▁workforce	-10.1094
▁tag	-10.1102
▁mora	-10.111
ated	-10.1114
tain	-10.1114
▁sight	-10.1114
▁ring	-10.1121
gc	-10.1129
▁yea	-10.1144
▁gf	-10.1158
ect	-10.1171
mp	-10.1172
button	-10.1173
here	-10.1177
▁observe	-10.1187
▁allegation	-10.12
▁exhaust	-10.12
▁principle	-10.12
▁saturday	-10.12
▁snorkel	-10.12
▁trigger	-10.12
▁keells	-10.12
▁skull	-10.1201
▁republic	-10.1201
▁ease	-10.1201
▁reputabl	-10.1201
▁dump	-10.1203
▁award	-10.1203
▁setting	-10.121
▁fe	-10.1212
▁plate	-10.1225
board	-10.1232
pro	-10.1235
▁lend	-10.125
soon	-10.1263
▁ego	-10.1284
▁emotion	-10.1296
▁radio	-10.1305
▁restrict	-10.1315
put	-10.1315
▁bn	-10.1323
▁catholic	-10.1324
professor	-10.1324
▁atto	-10.1324
▁strip	-10.1324
▁trail	-10.1326
▁nav	-10.1327
▁impression	-10.1328
▁crack	-10.1329
▁dam	-10.1329
▁adam	-10.1331
▁eligible	-10.1341
▁wonderful	-10.1348
▁rajapakse	-10.135
ntb	-10.1356
▁interact	-10.136
▁ethical	-10.1368
▁profitable	-10.1372
away	-10.1393
▁tier	-10.1394
▁badly	-10.1395
▁bin	-10.1401
ung	-10.1403
press	-10.1408
▁addict	-10.1441
▁fk	-10.1445
▁christmas	-10.1449
▁obsess	-10.1449
▁vietnam	-10.1449
▁weapon	-10.1449
▁brutal	-10.1449
▁vpn	-10.1449
▁vacanc	-10.1449
▁assistance	-10.145
▁downvote	-10.145
tan	-10.1451
▁defense	-10.1451
▁revolution	-10.1452
▁sheet	-10.146
▁respectful	-10.146
ility	-10.1468
▁tank	-10.1486
popular	-10.149
port	-10.1521
▁merc	-10.1525
▁portal	-10.1527
▁consistent	-10.1528
▁nut	-10.1542
▁rot	-10.1545
cc	-10.1574
▁bentota	-10.1575
▁communist	-10.1575
▁criterion	-10.1575
▁embarrass	-10.1575
▁literacy	-10.1575
▁relief	-10.1575
▁treasury	-10.1575
▁module	-10.1575
▁thumb	-10.1575
▁pricing	-10.1575
▁corner	-10.1575
▁corporation	-10.1575
▁utter	-10.1576
▁filter	-10.1576
▁hatred	-10.1576
▁contest	-10.1577
▁edge	-10.1578
▁shopping	-10.158
▁my	-10.16
▁fl	-10.1603
bad	-10.1611
yo	-10.1613
▁log	-10.1615
ium	-10.1622
tle	-10.1628
trust	-10.1651
ivity	-10.1653
ious	-10.1657
▁boot	-10.1663
▁diet	-10.1663
ick	-10.1668
goda	-10.1685
▁pad	-10.1689
chi	-10.1702
▁brief	-10.1704
▁determine	-10.1704
▁expenditure	-10.1704
▁thief	-10.1704
▁eelam	-10.1704
▁literature	-10.1704
▁fyi	-10.1704
▁amendment	-10.1705
▁israeli	-10.1707
▁hotline	-10.1707
▁hardware	-10.1711
ca	-10.1711
ude	-10.1711
▁backpack	-10.1713
▁motivate	-10.1714
▁understood	-10.1716
ular	-10.1719
▁flat	-10.172
▁tap	-10.1721
▁manufacturer	-10.1723
▁internationally	-10.1729
▁li	-10.173
▁supportive	-10.1761
stem	-10.1764
▁surprised	-10.1772
▁kg	-10.1796
uth	-10.1798
▁har	-10.1808
▁reading	-10.1831
▁pin	-10.1831
▁abortion	-10.1833
▁convenience	-10.1833
▁disease	-10.1833
▁landscape	-10.1833
▁maldives	-10.1833
▁pixel	-10.1833
▁subscription	-10.1833
▁vaccination	-10.1833
▁tactic	-10.1833
▁venture	-10.1836
▁teenage	-10.1836
rate	-10.1838
▁steam	-10.1839
▁vari	-10.1841
▁capitalism	-10.1841
▁owe	-10.1842
▁nope	-10.1843
allowed	-10.1844
liness	-10.185
▁ku	-10.1853
▁rally	-10.1861
▁mag	-10.1869
exactly	-10.1879
▁mac	-10.1898
ps	-10.1898
sity	-10.1914
▁wherea	-10.1919
ull	-10.1922
▁sustain	-10.1924
▁meant	-10.1942
▁ven	-10.1942
are	-10.195
ple	-10.1955
▁bandaranaike	-10.1965
▁desire	-10.1965
▁mirror	-10.1965
▁restructure	-10.1965
▁sibling	-10.1965
▁unemployed	-10.1965
▁parcel	-10.1965
▁favorite	-10.1966
▁textbook	-10.1966
▁innovation	-10.1967
▁vast	-10.197
▁wow	-10.1973
▁para	-10.1975
▁maths	-10.1977
▁org	-10.1982
▁me	-10.1986
▁rom	-10.1986
▁hospitality	-10.2002
ised	-10.2003
▁frequently	-10.2006
▁operat	-10.2017
▁kit	-10.2024
min	-10.2025
facepalming	-10.2098
▁consumpti	-10.2098
▁supreme	-10.2098
▁deficit	-10.2098
▁translation	-10.2098
▁nibm	-10.2098
▁worst	-10.2098
▁tooth	-10.2098
▁peep	-10.2098
▁cringe	-10.2099
▁koko	-10.2099
▁ols	-10.2103
▁teen	-10.2107
▁quota	-10.2107
▁intake	-10.2112
ilst	-10.2112
▁chip	-10.212
▁jack	-10.2129
▁pathetic	-10.213
▁cave	-10.2134
read	-10.2137
related	-10.2148
▁payone	-10.2149
▁qu	-10.2158
▁farmer	-10.2161
noon	-10.218
ela	-10.219
rent	-10.2217
▁bla	-10.2221
▁abolish	-10.2233
▁frustration	-10.2233
▁incentive	-10.2233
▁midnight	-10.2233
▁principal	-10.2233
▁freak	-10.2234
▁kelaniya	-10.2234
▁kingdom	-10.2234
▁gateway	-10.2234
▁mature	-10.2236
▁awful	-10.2237
▁nov	-10.2248
atha	-10.2255
▁wire	-10.2259
▁mi	-10.2264
fo	-10.2271
▁ceo	-10.2278
▁therap	-10.2282
speak	-10.2285
'	-10.2285
▁navigate	-10.2286
gi	-10.2296
▁equally	-10.2313
▁learning	-10.2327
▁inf	-10.233
▁slight	-10.2334
▁strongly	-10.2336
▁wf	-10.234
sensitive	-10.2341
call	-10.2345
▁aud	-10.235
▁compute	-10.2357
▁bid	-10.2358
▁counsel	-10.237
▁cautious	-10.237
▁courier	-10.237
▁onwards	-10.237
▁kitchen	-10.237
▁ocean	-10.237
▁praise	-10.2371
exist	-10.2371
▁macbook	-10.2371
▁legitimate	-10.2371
▁comfortably	-10.2372
▁capability	-10.2372
▁yep	-10.2373
▁quarter	-10.2373
aga	-10.2385
▁cam	-10.2387
▁fin	-10.2388
▁ed	-10.24
▁uom	-10.2404
count	-10.2419
accept	-10.2424
ock	-10.246
▁hack	-10.2492
▁jam	-10.2494
▁mount	-10.2509
▁compromise	-10.2509
▁introvert	-10.2509
▁examination	-10.2509
▁latter	-10.2509
▁keen	-10.251
▁gamble	-10.2512
▁uncomfortable	-10.2512
▁sn	-10.2513
▁tele	-10.2516
▁teaching	-10.2516
▁oct	-10.2519
▁stressful	-10.252
▁collective	-10.2521
▁disappointed	-10.2525
▁dependent	-10.2529
▁differently	-10.253
▁practically	-10.2533
▁tur	-10.2534
▁pur	-10.2534
graph	-10.2541
▁friendship	-10.255
du	-10.2551
interested	-10.2568
▁ph	-10.257
▁we	-10.2571
core	-10.2577
blah	-10.2577
▁deb	-10.2604
▁jaya	-10.2609
▁author	-10.2613
▁wav	-10.2625
aka	-10.263
▁backup	-10.264
nna	-10.265
▁ayurved	-10.265
▁neutral	-10.265
▁amazon	-10.265
▁mislead	-10.265
▁scratch	-10.265
▁tattoo	-10.265
▁mbbs	-10.265
▁northern	-10.265
▁torture	-10.265
▁snack	-10.2651
▁framework	-10.2652
▁pride	-10.2652
▁involved	-10.2656
▁thug	-10.2667
key	-10.2669
▁bug	-10.2669
▁polite	-10.2673
▁privately	-10.268
▁enthusiast	-10.268
▁pal	-10.2681
▁harder	-10.2682
ign	-10.2684
▁boc	-10.2685
▁chair	-10.2685
▁acc	-10.2691
well	-10.2693
▁reminder	-10.2703
▁sk	-10.2713
tell	-10.2725
▁competen	-10.2743
▁earner	-10.2755
▁origin	-10.2765
▁ms	-10.2771
▁superior	-10.2789
▁bedroom	-10.2793
▁necessity	-10.2793
▁bubble	-10.2793
▁tension	-10.2793
▁forum	-10.2793
▁ordinary	-10.2793
▁narrow	-10.2794
▁chaos	-10.2794
▁java	-10.2795
▁suv	-10.2796
▁dictator	-10.2796
▁shel	-10.2796
▁semi	-10.2802
▁cheaper	-10.2804
pp	-10.2804
▁achievement	-10.2807
how	-10.2809
▁trainer	-10.2818
bur	-10.2821
▁separately	-10.2825
▁meaning	-10.2844
▁melt	-10.2847
asa	-10.2852
▁sal	-10.2854
▁den	-10.2873
ology	-10.2884
▁exception	-10.2887
▁perk	-10.2893
ima	-10.2907
ek	-10.2918
ram	-10.2928
coming	-10.2933
ome	-10.2934
▁crucial	-10.2938
▁happiness	-10.2938
▁abandon	-10.2938
▁yahapalana	-10.2938
▁disrespect	-10.2938
▁broadcast	-10.2938
▁headache	-10.2941
▁fare	-10.2942
▁beam	-10.2943
▁pump	-10.2943
▁investigate	-10.2947
▁racial	-10.2949
used	-10.296
▁importer	-10.2977
▁podcast	-10.2986
▁heal	-10.299
play	-10.3001
▁gl	-10.3019
▁spa	-10.3029
▁tf	-10.3032
par	-10.3051
▁fam	-10.3053
▁og	-10.3059
▁adventure	-10.3085
▁dutch	-10.3085
▁excellent	-10.3085
▁mutual	-10.3085
▁subsidy	-10.3085
▁aggressive	-10.3085
▁neighborhood	-10.3086
▁zoom	-10.3086
▁repayment	-10.3087
▁deadline	-10.3089
▁pilot	-10.3098
▁incompeten	-10.3099
▁iran	-10.31
east	-10.3104
hold	-10.3106
▁harsh	-10.3111
▁perch	-10.3129
eat	-10.313
sman	-10.313
▁vary	-10.3134
▁discus	-10.3137
▁marin	-10.3139
▁uoc	-10.3144
▁eats	-10.3146
▁politically	-10.3151
talk	-10.3151
ria	-10.3184
▁tra	-10.321
uk	-10.3216
▁strange	-10.322
▁selling	-10.3228
▁assign	-10.3232
▁transit	-10.3233
shrugging	-10.3234
▁exclusive	-10.3234
▁bathroom	-10.3234
▁description	-10.3234
▁exercise	-10.3234
▁extension	-10.3234
▁graduation	-10.3234
▁organic	-10.3234
▁prescription	-10.3234
▁tournament	-10.3234
▁udawalaw	-10.3234
▁volume	-10.3234
▁defeat	-10.3235
▁monetar	-10.3235
▁assistant	-10.3236
▁ratio	-10.3236
▁jewel	-10.3236
▁thrive	-10.3237
▁cell	-10.3238
▁chose	-10.3241
▁interaction	-10.3245
▁pub	-10.3247
▁len	-10.3285
▁publicly	-10.3288
mate	-10.3298
▁raja	-10.33
ancy	-10.3308
▁kindly	-10.3312
▁joint	-10.332
ldr	-10.3324
▁fixed	-10.3335
emote	-10.3376
▁league	-10.3386
▁routine	-10.3386
▁silent	-10.3386
▁supplement	-10.3386
▁abans	-10.3386
▁screenshot	-10.3386
▁airtel	-10.3387
▁keyboard	-10.3388
▁swear	-10.3388
▁gear	-10.3388
▁lodg	-10.3389
▁plot	-10.3389
▁affiliate	-10.3393
▁establishment	-10.3395
▁invert	-10.3396
▁bread	-10.3398
▁stranger	-10.34
▁forth	-10.3401
▁nadu	-10.3407
▁attractive	-10.3408
▁monkey	-10.3409
▁aka	-10.341
▁nationalism	-10.341
▁gotten	-10.3413
▁ir	-10.3418
▁franc	-10.3422
▁lifetime	-10.3423
paha	-10.3429
▁documentation	-10.343
▁touristy	-10.3431
den	-10.344
ned	-10.3443
ition	-10.3455
aware	-10.3475
many	-10.3476
tv	-10.3477
▁scary	-10.3483
▁visitor	-10.3486
▁unfortunate	-10.3491
▁bull	-10.3528
ept	-10.3535
▁inspire	-10.354
▁prescribe	-10.354
▁receipt	-10.354
▁scientist	-10.354
▁servant	-10.354
▁violation	-10.354
▁pohottu	-10.354
▁resume	-10.354
▁browse	-10.354
▁heck	-10.354
▁output	-10.3541
▁beneficial	-10.3541
▁chemical	-10.3541
▁tear	-10.3541
▁appropriate	-10.3542
▁largely	-10.3542
▁ssd	-10.3542
▁meat	-10.3544
▁lyce	-10.3544
▁fa	-10.3544
▁mere	-10.3546
▁disrupt	-10.3547
▁pace	-10.355
▁gradually	-10.355
▁cha	-10.3552
▁surprising	-10.3562
▁boil	-10.3562
load	-10.3571
met	-10.3574
▁bang	-10.3595
ct	-10.3601
▁bless	-10.3604
consider	-10.3606
front	-10.3608
head	-10.3609
▁unite	-10.362
eg	-10.3645
▁frequent	-10.3654
ck	-10.3664
▁flee	-10.3666
▁bowl	-10.3666
ification	-10.3667
▁mechanic	-10.3681
▁enrol	-10.3685
open	-10.3686
ador	-10.3691
receive	-10.3692
ified	-10.3695
▁association	-10.3696
▁economist	-10.3696
▁enterprise	-10.3696
▁ghost	-10.3696
▁increment	-10.3696
▁motorcycl	-10.3696
▁newspaper	-10.3696
▁fortunate	-10.3696
▁outdoor	-10.3696
▁recipe	-10.3696
▁gotabaya	-10.3696
▁indoor	-10.3696
▁rumor	-10.3696
▁verification	-10.3696
▁detect	-10.3696
▁trauma	-10.3696
▁apology	-10.3696
▁moron	-10.3699
net	-10.3714
▁feasible	-10.3716
hen	-10.3718
▁audio	-10.373
▁nah	-10.3744
▁painful	-10.3745
▁shower	-10.3756
▁acceptable	-10.3756
gu	-10.3757
dict	-10.3759
▁qa	-10.376
▁cz	-10.3765
possible	-10.3766
▁productive	-10.3767
▁scan	-10.3768
fit	-10.377
ball	-10.3799
ound	-10.3807
▁pray	-10.3835
▁pill	-10.3836
▁wet	-10.3837
▁symbol	-10.384
▁lap	-10.3843
▁ref	-10.385
your	-10.3853
▁bracket	-10.3855
▁netflix	-10.3855
▁nomad	-10.3855
▁swift	-10.3855
▁mosque	-10.3855
▁taxpayer	-10.3855
▁shad	-10.3855
▁alliance	-10.3855
▁breakfast	-10.3855
▁hungry	-10.3856
▁motivation	-10.3856
▁admin	-10.3856
▁accessible	-10.3859
▁upset	-10.3859
▁duration	-10.386
▁misuse	-10.3873
▁exceed	-10.3873
off	-10.3875
cha	-10.3876
▁dj	-10.3876
▁install	-10.3877
▁kott	-10.3878
▁partial	-10.3885
▁paste	-10.3893
iff	-10.3901
▁cast	-10.3945
▁harin	-10.3971
▁bas	-10.3974
▁arch	-10.398
▁aus	-10.3985
▁fore	-10.4005
▁slap	-10.4005
▁mc	-10.4007
▁fernando	-10.4016
▁romantic	-10.4016
▁satisfy	-10.4016
▁stretch	-10.4016
▁drunk	-10.4016
▁emerge	-10.4016
▁ukraine	-10.4016
▁committee	-10.4016
▁preserv	-10.4016
▁pension	-10.4016
▁transform	-10.4016
▁departure	-10.4016
▁capture	-10.4017
▁alert	-10.4017
▁observation	-10.4017
▁representative	-10.4017
▁anger	-10.4019
▁wagon	-10.4019
▁strengthen	-10.4022
▁marketplace	-10.4023
▁reaction	-10.4029
▁malay	-10.4034
▁involvement	-10.4036
▁pfca	-10.4039
post	-10.4042
not	-10.4046
pola	-10.4049
▁mile	-10.405
▁ndb	-10.4052
rain	-10.4063
▁bud	-10.4072
▁deed	-10.4084
▁isp	-10.4088
▁prop	-10.4095
true	-10.4095
wise	-10.4102
box	-10.4104
▁environmental	-10.4106
wan	-10.4128
▁carefully	-10.4129
▁ib	-10.4143
▁overwhelm	-10.4147
▁eng	-10.4152
actually	-10.4156
▁peacefully	-10.4158
▁os	-10.4162
▁capitalist	-10.4177
▁ceremony	-10.418
▁honeymoon	-10.418
▁indonesia	-10.418
▁italian	-10.418
▁polonnar	-10.418
▁steady	-10.418
▁chief	-10.418
▁enemy	-10.418
▁bloat	-10.418
▁insist	-10.418
▁prominen	-10.418
▁suspicious	-10.4181
▁spice	-10.4181
▁perera	-10.4182
▁downside	-10.4182
▁roof	-10.4183
▁lavi	-10.4186
ula	-10.4188
▁reside	-10.4188
iz	-10.419
▁offense	-10.4192
▁avi	-10.4202
▁pickup	-10.4203
▁storm	-10.4204
▁urge	-10.4204
▁euro	-10.4205
▁occasion	-10.4207
▁ngo	-10.4211
▁handout	-10.4213
▁sent	-10.4217
▁taxed	-10.4218
▁lonely	-10.4222
ction	-10.4225
▁script	-10.4225
▁stat	-10.4225
▁sec	-10.4227
▁srilankans	-10.4237
▁originally	-10.4239
▁tone	-10.4241
gama	-10.4244
clear	-10.4252
follow	-10.4261
▁cid	-10.4276
▁pp	-10.4277
ali	-10.4283
hara	-10.4329
▁effectively	-10.433
▁raw	-10.4331
▁iron	-10.4346
▁cuisine	-10.4346
▁reliability	-10.4346
▁symptom	-10.4346
▁nightmare	-10.4347
▁organise	-10.4347
▁anime	-10.4347
▁bird	-10.4347
▁offend	-10.4348
▁litter	-10.4348
▁swap	-10.4348
▁crush	-10.4349
▁realistically	-10.4349
▁flaw	-10.4349
▁apiit	-10.4352
▁spotify	-10.4353
▁footage	-10.4354
▁extremist	-10.4355
▁dislike	-10.4359
▁flu	-10.4362
▁respective	-10.4366
▁popularity	-10.4368
▁approximately	-10.4369
▁frame	-10.437
posh	-10.4374
▁stone	-10.4375
▁acca	-10.4379
▁exit	-10.4383
▁kn	-10.4384
▁emb	-10.4386
ave	-10.4398
great	-10.4431
▁youtuber	-10.4443
▁learner	-10.4449
▁orient	-10.451
▁curio	-10.4514
▁outsource	-10.4516
▁restructuring	-10.4516
▁discord	-10.4516
▁mannar	-10.4516
▁indicate	-10.4517
▁acquire	-10.4518
▁objective	-10.4518
▁creator	-10.4519
▁uniform	-10.4519
▁mask	-10.4521
▁mb	-10.4521
▁packet	-10.4522
▁enforcement	-10.4522
▁saturate	-10.4523
▁consideration	-10.4523
▁wood	-10.4536
▁numero	-10.4541
▁goon	-10.4547
▁rider	-10.455
▁fup	-10.4555
▁withdrawal	-10.4556
cious	-10.456
br	-10.4563
▁off	-10.4567
vis	-10.4576
▁su	-10.4579
▁bell	-10.4582
▁hut	-10.4619
ware	-10.4634
lk	-10.4647
▁ui	-10.4648
▁hom	-10.4649
lock	-10.4652
late	-10.4658
▁commenter	-10.4662
▁ob	-10.4669
▁san	-10.4669
car	-10.4675
▁distract	-10.468
▁furniture	-10.4688
▁isolate	-10.4688
▁miracle	-10.4688
▁vegetable	-10.4688
▁studio	-10.4688
▁reverse	-10.4688
▁shampoo	-10.4688
▁loophole	-10.4689
▁disconnect	-10.4689
▁frank	-10.4689
▁diagnose	-10.4689
▁wije	-10.4689
▁japura	-10.469
▁gaze	-10.4691
▁honor	-10.4702
▁pile	-10.4708
▁shake	-10.4722
▁gut	-10.4727
▁forgot	-10.4736
▁logical	-10.4739
ward	-10.4776
course	-10.4777
▁hub	-10.4778
mouth	-10.4779
turn	-10.4783
▁thin	-10.4786
heard	-10.4793
▁where	-10.4801
▁prepared	-10.4806
▁kitte	-10.4811
lan	-10.4823
▁empath	-10.4825
▁sme	-10.4837
▁git	-10.4852
▁insta	-10.4854
uma	-10.4862
▁sticker	-10.4863
▁adidas	-10.4864
▁ielts	-10.4864
▁landlord	-10.4864
▁civic	-10.4864
▁deliberate	-10.4864
▁guitar	-10.4864
▁indicator	-10.4864
▁mainstream	-10.4864
▁ladder	-10.4864
▁turtle	-10.4864
▁bankruptcy	-10.4865
▁mock	-10.4866
crop	-10.4867
▁caput	-10.4867
▁advocate	-10.487
kuru	-10.4874
▁mill	-10.4883
▁cd	-10.4889
▁nz	-10.4894
talking	-10.4904
migrant	-10.491
▁escalate	-10.4912
▁gu	-10.4919
▁peg	-10.492
▁rob	-10.4921
▁dose	-10.4922
▁spin	-10.4923
gr	-10.4924
▁sin	-10.4937
▁worthy	-10.4942
▁wipe	-10.4947
▁dia	-10.4952
remember	-10.4957
nu	-10.4972
▁nil	-10.4982
▁pant	-10.4993
▁memor	-10.5009
▁panic	-10.5014
▁grammar	-10.5042
▁instrument	-10.5042
▁monopoly	-10.5042
▁provincial	-10.5042
▁silva	-10.5042
▁aussie	-10.5042
▁postpone	-10.5042
▁rajagir	-10.5043
▁smartphone	-10.5044
▁infect	-10.5044
▁nail	-10.5053
▁governor	-10.5057
▁metal	-10.5061
▁sweat	-10.5063
▁doom	-10.5064
riya	-10.5074
▁handful	-10.5077
▁importance	-10.5078
ught	-10.5079
▁equality	-10.508
▁singer	-10.5081
ample	-10.5082
▁clinical	-10.5082
▁fed	-10.5084
▁tor	-10.5088
cation	-10.5101
▁ot	-10.5112
▁bitch	-10.5117
▁menu	-10.5118
▁advanced	-10.5121
issa	-10.514
▁gi	-10.5153
▁sur	-10.5154
comp	-10.5156
▁podcasts	-10.5164
▁pat	-10.5175
▁thankful	-10.5182
inland	-10.5192
▁instal	-10.5194
▁api	-10.5209
▁boom	-10.5211
cover	-10.5212
▁airbnb	-10.5224
▁celebration	-10.5224
▁obligation	-10.5224
▁scientific	-10.5224
▁fraud	-10.5224
▁devops	-10.5224
▁stamp	-10.5224
▁merit	-10.5224
▁mandate	-10.5224
▁bulk	-10.5224
▁jew	-10.5225
▁zeal	-10.5226
▁kumara	-10.5226
▁discriminate	-10.5226
▁kiss	-10.5226
▁miserable	-10.523
▁attendance	-10.5235
▁oya	-10.5239
▁bot	-10.524
▁medi	-10.5241
▁sq	-10.5242
iate	-10.5245
▁greedy	-10.5247
▁expression	-10.5256
▁qr	-10.5257
▁photographer	-10.5261
▁sue	-10.5265
pointing	-10.5271
▁sand	-10.5274
cz	-10.5274
▁dur	-10.5277
▁peo	-10.5279
▁overtake	-10.5281
▁breath	-10.5283
▁sat	-10.5289
ove	-10.529
▁consistently	-10.5295
▁bee	-10.5303
house	-10.5318
bay	-10.5323
▁manageable	-10.5324
ook	-10.5333
▁isps	-10.5335
▁magic	-10.5352
inton	-10.5353
▁laks	-10.5357
▁excel	-10.5369
till	-10.5372
▁tu	-10.5399
raj	-10.5405
dynamic	-10.5409
▁atrocit	-10.5409
▁episode	-10.5409
▁reconciliation	-10.5409
▁temperature	-10.5409
▁whatsoever	-10.5409
▁element	-10.5409
▁psychologist	-10.541
▁truck	-10.541
▁caught	-10.541
▁liberty	-10.541
▁calculation	-10.541
▁lord	-10.541
▁experiment	-10.541
▁nightlife	-10.5411
▁appreciation	-10.5411
▁boundary	-10.5412
▁bucket	-10.5412
▁hook	-10.5413
▁legend	-10.5413
▁roam	-10.5414
▁overcome	-10.5414
▁retain	-10.5416
▁nazi	-10.5418
▁ping	-10.542
▁chandr	-10.5423
▁hearing	-10.5424
▁enroll	-10.5426
▁pov	-10.5427
▁nurs	-10.5432
▁flex	-10.5433
▁fm	-10.5437
▁logistics	-10.544
▁plane	-10.5443
▁ally	-10.5464
pu	-10.5468
tak	-10.5472
▁cad	-10.5472
cap	-10.5484
▁follower	-10.5494
▁protestor	-10.5504
sri	-10.5506
▁cow	-10.5508
▁alto	-10.5512
▁fucker	-10.5515
bother	-10.5516
▁thr	-10.5524
ena	-10.5538
low	-10.5545
agama	-10.556
▁bal	-10.556
lose	-10.556
▁gp	-10.5561
▁col	-10.5589
▁conclusion	-10.5598
▁conference	-10.5598
▁evolve	-10.5598
▁manifesto	-10.5598
▁mechanism	-10.5598
▁misinformation	-10.5598
▁museum	-10.5598
▁penalty	-10.5598
▁pregnant	-10.5598
▁tackle	-10.5598
▁ritual	-10.5598
▁vague	-10.5598
▁residence	-10.5599
▁tongue	-10.5599
▁theme	-10.5599
▁layoff	-10.5599
▁whale	-10.5599
▁instruction	-10.5602
uc	-10.5602
van	-10.5603
▁dick	-10.5604
▁depth	-10.5604
▁disturb	-10.5607
hub	-10.5608
▁ju	-10.5609
▁chi	-10.5611
▁dash	-10.5611
▁pitch	-10.5612
▁meditat	-10.5616
▁square	-10.5616
bu	-10.5618
▁universal	-10.5622
▁golden	-10.5623
weera	-10.5624
▁economical	-10.5624
▁stance	-10.5626
▁inch	-10.5633
start	-10.5643
▁gener	-10.565
▁brit	-10.5652
sale	-10.5661
▁tall	-10.5678
▁bombing	-10.5685
ident	-10.5685
▁inc	-10.5686
rack	-10.5692
▁lone	-10.5693
index	-10.5705
require	-10.5705
wala	-10.5715
▁ethic	-10.5721
ok	-10.5739
▁bf	-10.5745
▁poster	-10.5747
▁rajapakses	-10.575
▁ent	-10.5765
▁ge	-10.5776
arian	-10.578
old	-10.5783
▁altogether	-10.579
▁applicant	-10.579
▁credibility	-10.579
▁luggage	-10.579
▁orphanage	-10.579
▁recycle	-10.579
▁scream	-10.579
▁radical	-10.579
▁trinco	-10.579
▁silver	-10.579
▁scrap	-10.579
▁anonymous	-10.5792
▁accordingly	-10.5792
▁ugly	-10.5794
▁myth	-10.5794
▁leftist	-10.5798
▁gif	-10.5799
▁rocket	-10.5801
▁hela	-10.5802
men	-10.5803
▁econ	-10.5821
gam	-10.5821
▁humanity	-10.5829
▁recruiter	-10.583
▁virtual	-10.5833
▁wheeler	-10.5837
parent	-10.586
raja	-10.5863
▁tn	-10.587
▁craft	-10.5873
lie	-10.5878
int	-10.5899
affect	-10.5901
▁wht	-10.5903
long	-10.5907
view	-10.5908
▁exceptional	-10.5924
▁hiru	-10.5929
pala	-10.5931
▁constitutional	-10.5944
tax	-10.595
▁thru	-10.5983
apply	-10.5984
▁nutrition	-10.5986
▁execute	-10.5986
▁maithri	-10.5986
▁mosquito	-10.5986
▁nanotek	-10.5986
▁refugee	-10.5986
▁silence	-10.5986
▁transparency	-10.5986
▁vezel	-10.5986
▁draft	-10.5986
▁hotspot	-10.5986
▁plug	-10.5987
giving	-10.5987
▁yellow	-10.5987
▁scroll	-10.5987
▁activist	-10.5988
▁worldwide	-10.5991
▁safer	-10.5993
real	-10.5993
▁toy	-10.5995
▁bound	-10.5996
▁architect	-10.6
▁moderate	-10.6003
▁cho	-10.6005
found	-10.6006
▁bright	-10.6008
iri	-10.602
got	-10.6027
▁backwards	-10.6045
dha	-10.6047
▁workout	-10.6052
▁stabilize	-10.6065
▁inject	-10.6068
▁backhand	-10.6071
▁warning	-10.6077
▁beer	-10.6091
▁kara	-10.6102
▁ie	-10.6107
hil	-10.6135
ach	-10.6137
▁sooner	-10.6148
▁prof	-10.6163
▁integrate	-10.6168
▁chart	-10.6178
▁liquid	-10.6184
▁danger	-10.6185
icycle	-10.6186
▁compulsor	-10.6186
▁motorbike	-10.6186
▁offshore	-10.6186
▁regulator	-10.6186
▁theatre	-10.6186
▁threshold	-10.6186
▁perceive	-10.6186
▁cfa	-10.6187
▁upfront	-10.6187
▁neck	-10.6187
▁stole	-10.6188
hesitat	-10.6189
▁detain	-10.6191
▁dispos	-10.6194
▁consultation	-10.6203
▁polit	-10.6206
▁applicable	-10.6207
▁yt	-10.6207
▁convers	-10.6214
▁diy	-10.6223
part	-10.6236
▁aa	-10.6247
rave	-10.6257
▁format	-10.6266
▁sus	-10.6272
shit	-10.6275
▁prep	-10.6279
▁hv	-10.6291
wi	-10.6303
craft	-10.6304
complete	-10.6305
▁gpu	-10.631
▁her	-10.6326
▁exc	-10.6331
ko	-10.6337
hr	-10.6339
nity	-10.6348
▁academ	-10.6362
▁caste	-10.6366
▁shade	-10.6366
▁seal	-10.6383
▁lgbt	-10.639
▁assumption	-10.6391
▁bastard	-10.6391
▁bureaucracy	-10.6391
▁conspiracy	-10.6391
▁hambantot	-10.6391
▁inclusiv	-10.6391
▁ingredient	-10.6391
▁mortgage	-10.6391
▁municipal	-10.6391
▁nepotism	-10.6391
▁reluctant	-10.6391
▁substantial	-10.6391
▁yield	-10.6391
▁sneak	-10.6391
▁aqua	-10.6391
▁carrier	-10.6391
▁dismiss	-10.6392
▁favourite	-10.6392
▁humble	-10.6392
▁sharp	-10.6392
▁sunset	-10.6393
▁haircut	-10.6396
▁liability	-10.6396
▁horn	-10.6396
gra	-10.6398
▁skincare	-10.6399
▁liqu	-10.6406
▁inquire	-10.6409
▁temp	-10.6412
▁blog	-10.6412
▁ep	-10.6414
▁fulfill	-10.6415
▁conductor	-10.6417
ache	-10.6418
mother	-10.6425
fire	-10.6427
ump	-10.6428
win	-10.6437
▁sha	-10.6437
ava	-10.6443
plan	-10.646
gn	-10.648
▁ramp	-10.6492
▁unusual	-10.6504
▁shi	-10.6509
match	-10.6522
therapist	-10.6526
city	-10.6534
▁belt	-10.6535
ob	-10.654
▁yu	-10.6558
▁literal	-10.6559
▁mt	-10.6575
▁clothe	-10.658
don	-10.6588
▁pit	-10.6588
▁object	-10.6596
▁anxious	-10.6599
▁biscuit	-10.6599
▁boycott	-10.6599
▁fertilizer	-10.6599
▁kurunegala	-10.6599
▁sirisena	-10.6599
▁strategic	-10.6599
▁suzuki	-10.6599
▁temporarily	-10.6599
▁wickremesinghe	-10.6599
▁approx	-10.6599
▁dominate	-10.6599
▁inherit	-10.6599
▁violate	-10.6599
▁personnel	-10.6599
▁clarification	-10.6599
▁forgive	-10.6601
▁perception	-10.6602
▁assist	-10.6603
▁horr	-10.6603
iness	-10.6605
▁trace	-10.6605
▁malabe	-10.6606
▁hangout	-10.6607
▁arrangement	-10.6608
▁disc	-10.6616
▁extract	-10.6616
▁river	-10.6617
mv	-10.6617
▁prediction	-10.6618
▁charter	-10.6623
gan	-10.6624
▁moon	-10.6626
pad	-10.663
▁passive	-10.6633
ley	-10.6636
▁spoken	-10.6638
▁ii	-10.6642
▁cite	-10.665
▁cb	-10.6652
▁logo	-10.6656
▁anc	-10.6658
shop	-10.666
oka	-10.6661
▁incredible	-10.6664
talin	-10.6681
fin	-10.6681
▁gaming	-10.6688
▁amd	-10.6689
▁bel	-10.6697
yet	-10.6725
guard	-10.6727
▁pakistani	-10.674
▁sep	-10.6742
▁cruise	-10.6743
▁esp	-10.6747
rolling	-10.6749
▁applie	-10.6751
ili	-10.6753
▁grown	-10.6756
▁rab	-10.6763
▁certif	-10.6764
harm	-10.6767
▁pfc	-10.6782
▁inquir	-10.6792
▁porn	-10.6805
▁colon	-10.6806
▁empire	-10.6812
▁hesitant	-10.6812
▁length	-10.6812
▁magnite	-10.6812
▁mismanagement	-10.6812
▁pollution	-10.6812
▁reckless	-10.6812
▁unrealistic	-10.6812
▁invade	-10.6812
▁premier	-10.6812
▁irrelevant	-10.6812
▁eliminate	-10.6812
▁hilarious	-10.6812
▁tailor	-10.6812
▁bmw	-10.6812
▁cartoon	-10.6812
▁halt	-10.6812
▁combank	-10.6812
▁brag	-10.6812
▁drastically	-10.6813
▁clarity	-10.6813
▁quantity	-10.6814
raising	-10.6814
▁novel	-10.6815
▁expressway	-10.6815
▁embra	-10.6816
▁brush	-10.6816
▁waterfall	-10.682
▁engagement	-10.6823
▁hong	-10.6825
▁meta	-10.6827
▁kong	-10.6834
▁vice	-10.6836
▁stall	-10.6837
▁instantly	-10.6851
▁hyper	-10.6853
▁sink	-10.6857
▁functional	-10.6867
▁dip	-10.688
▁limitation	-10.6886
pside	-10.6888
▁grandma	-10.6905
▁layer	-10.6908
ture	-10.6918
loom	-10.6919
▁devs	-10.6919
kara	-10.6921
▁fresher	-10.6923
▁badm	-10.6942
▁wisely	-10.6943
plus	-10.6949
▁accidental	-10.6954
rous	-10.6971
ready	-10.6972
pending	-10.6975
▁lip	-10.6984
▁cope	-10.6987
▁irr	-10.6991
▁pla	-10.7
aree	-10.7007
avi	-10.701
▁influencer	-10.7014
ella	-10.702
▁chunk	-10.7029
▁demographic	-10.7029
▁dissanayake	-10.7029
▁initiate	-10.7029
▁integrity	-10.7029
▁lucrative	-10.7029
▁maturity	-10.7029
▁wikipedia	-10.7029
▁wilpattu	-10.7029
▁height	-10.7029
▁diverse	-10.7029
▁visual	-10.7029
▁vitz	-10.7029
▁gmoa	-10.7029
▁desk	-10.703
▁thero	-10.703
▁uncertainty	-10.703
▁cheese	-10.703
▁congratulation	-10.703
▁negotiation	-10.7031
▁flip	-10.7031
▁opening	-10.7031
▁chairman	-10.7032
▁loot	-10.7032
▁unsafe	-10.7032
▁sightsee	-10.7032
▁unstable	-10.7033
▁creation	-10.7034
▁ifs	-10.7035
▁beef	-10.7035
▁dust	-10.7037
▁creepy	-10.705
▁defen	-10.705
▁amongst	-10.7052
cam	-10.7055
▁fut	-10.7061
▁float	-10.7064
▁upwards	-10.7065
▁bpo	-10.7066
▁policeman	-10.707
▁assure	-10.707
▁parad	-10.7078
made	-10.7083
▁dan	-10.7085
ston	-10.7087
phy	-10.7089
arment	-10.7092
▁nationality	-10.7092
alam	-10.7093
▁protester	-10.7104
▁bitter	-10.7113
▁hd	-10.7123
▁backend	-10.7124
▁bur	-10.7139
scold	-10.7144
ologist	-10.7149
sell	-10.7152
voting	-10.7168
▁sud	-10.717
▁rc	-10.7175
▁bath	-10.7179
▁mission	-10.7186
though	-10.7189
▁disappoint	-10.719
▁sco	-10.719
▁sr	-10.7193
lish	-10.7196
wela	-10.7196
yana	-10.72
fi	-10.7222
aunt	-10.7237
▁tl	-10.7237
▁differ	-10.7239
▁terminat	-10.7239
ged	-10.724
▁dispose	-10.7243
ities	-10.7245
▁alternat	-10.7248
▁anonym	-10.725
▁extensive	-10.7251
▁cigarette	-10.7251
▁distribute	-10.7251
▁flavor	-10.7251
▁galaxy	-10.7251
▁massacre	-10.7251
▁technique	-10.7251
▁dispute	-10.7251
▁bataland	-10.7251
▁demonstrat	-10.7251
▁dhl	-10.7251
▁horse	-10.7251
▁badulla	-10.7251
▁dental	-10.7251
▁havelock	-10.7251
▁dhamm	-10.7251
▁hopeful	-10.7251
▁mentor	-10.7252
▁unknown	-10.7252
▁knock	-10.7252
▁england	-10.7253
▁password	-10.7253
▁vape	-10.7254
▁mileage	-10.7254
▁resell	-10.7256
▁iq	-10.7256
▁lu	-10.7256
▁timeline	-10.7257
▁overtime	-10.7257
▁guideline	-10.726
▁demo	-10.7261
▁judgement	-10.7263
▁preach	-10.7269
▁gal	-10.7269
▁thai	-10.727
pt	-10.7273
▁ward	-10.7278
▁remov	-10.7286
aru	-10.7288
▁continuously	-10.729
▁workload	-10.7306
▁yoga	-10.7322
shan	-10.7325
▁formula	-10.7326
oth	-10.733
▁correction	-10.7339
▁reduct	-10.735
▁lag	-10.7351
▁checked	-10.7356
▁cham	-10.7375
▁mob	-10.7381
▁creditor	-10.7384
▁safely	-10.7384
▁stats	-10.7386
entirely	-10.7393
E	-10.7393
fair	-10.7425
▁more	-10.7429
itis	-10.7435
code	-10.7438
ong	-10.7443
▁outsider	-10.7448
▁fianc	-10.745
bie	-10.7461
holding	-10.7466
▁accusation	-10.7479
▁aesthetic	-10.7479
▁disadvantage	-10.7479
▁launder	-10.7479
▁manufacturing	-10.7479
▁squeez	-10.7479
▁credible	-10.7479
▁horton	-10.7479
▁premise	-10.7479
▁prompt	-10.7479
▁domain	-10.7479
▁ruhun	-10.7479
▁humid	-10.7479
▁penny	-10.7479
▁brainwash	-10.7479
▁outfit	-10.748
▁lockdown	-10.748
▁outright	-10.7481
▁ltd	-10.7481
▁influ	-10.7481
▁basil	-10.7482
▁probation	-10.7484
▁recall	-10.7489
▁sinha	-10.7489
▁scum	-10.7493
▁diagnos	-10.7496
▁thier	-10.75
nami	-10.7502
▁nine	-10.7502
▁weekday	-10.751
liable	-10.7514
▁cert	-10.7533
cent	-10.7539
▁swing	-10.7545
▁blast	-10.7551
▁aug	-10.7582
▁vulnerab	-10.7583
▁doable	-10.7594
▁merchan	-10.7595
rich	-10.7611
fuck	-10.7614
air	-10.7615
miss	-10.7621
▁colla	-10.7632
▁hy	-10.764
▁wrap	-10.7647
nk	-10.7648
▁iv	-10.7662
offer	-10.7684
▁feminis	-10.7691
▁ruler	-10.7694
▁ru	-10.7696
▁administrat	-10.7702
▁arrogant	-10.7711
▁atmosphere	-10.7711
▁definition	-10.7711
▁diversify	-10.7711
▁immense	-10.7711
▁inconvenience	-10.7711
▁lobby	-10.7711
▁nervous	-10.7711
▁python	-10.7711
▁throttle	-10.7711
▁judgment	-10.7711
rney	-10.7711
▁pdf	-10.7711
▁controversial	-10.7712
▁keel	-10.7712
▁fantastic	-10.7712
▁groom	-10.7712
▁summer	-10.7713
▁dictatorship	-10.7713
▁impressive	-10.7714
▁aswell	-10.7715
reparation	-10.7717
▁string	-10.7721
oke	-10.7724
▁understandable	-10.7725
▁representation	-10.7734
▁repay	-10.7738
▁stake	-10.7742
anna	-10.7743
▁indirectly	-10.7743
▁fabric	-10.775
▁acre	-10.7752
▁workshop	-10.7754
wella	-10.7755
asia	-10.7757
▁intelligent	-10.7762
▁bend	-10.7772
▁pg	-10.7778
tail	-10.778
adura	-10.778
▁ros	-10.7794
▁authorize	-10.7809
place	-10.7812
▁gce	-10.7813
▁nik	-10.7826
using	-10.7827
test	-10.7827
▁holy	-10.7844
▁booking	-10.7848
▁xd	-10.7859
familiar	-10.7863
travel	-10.7864
▁tile	-10.787
tech	-10.7879
▁any	-10.7884
▁seize	-10.7888
▁sci	-10.7903
rity	-10.7934
▁vf	-10.7944
▁alevel	-10.7949
▁bambalapitiy	-10.7949
▁beggar	-10.7949
▁concert	-10.7949
▁furthermore	-10.7949
▁injury	-10.7949
▁instability	-10.7949
▁possess	-10.7949
▁quarantine	-10.7949
▁tropical	-10.7949
▁blatant	-10.7949
▁poison	-10.7949
intentionally	-10.7949
▁clip	-10.7949
▁fiverr	-10.7949
▁portray	-10.7949
allocation	-10.7949
▁spiritual	-10.7949
▁ngl	-10.7949
▁scamming	-10.795
▁torrent	-10.795
▁televis	-10.795
▁angel	-10.795
▁transparent	-10.795
▁grey	-10.795
▁goverment	-10.795
▁offence	-10.795
▁tiger	-10.7951
▁petition	-10.7951
▁viral	-10.7952
iling	-10.7952
▁hygien	-10.7952
▁outlook	-10.7953
▁manipulation	-10.7954
ounge	-10.7954
▁surface	-10.7956
▁fc	-10.7957
▁harv	-10.7958
▁feb	-10.796
▁arise	-10.7961
▁dub	-10.7962
▁bold	-10.7963
▁dharma	-10.7965
▁mood	-10.7966
▁diversity	-10.7969
▁curse	-10.797
▁dept	-10.7971
▁bean	-10.7976
▁row	-10.798
▁weigh	-10.7982
gate	-10.7983
▁jk	-10.799
nawa	-10.7991
▁driven	-10.7997
▁nose	-10.7998
▁hardship	-10.8002
igh	-10.801
▁prize	-10.8013
▁abs	-10.8055
max	-10.8076
▁span	-10.8077
stand	-10.8123
reach	-10.8127
learn	-10.813
willing	-10.8132
▁sol	-10.8133
realize	-10.8141
▁sham	-10.8143
▁pharmac	-10.8163
▁greed	-10.8163
fun	-10.8168
▁dine	-10.8181
▁inspect	-10.8184
corn	-10.8192
▁prosecute	-10.8192
▁ambi	-10.8193
▁basket	-10.8193
occupy	-10.8193
▁awkward	-10.8193
▁bargain	-10.8193
▁competitor	-10.8193
▁desktop	-10.8193
▁intellectual	-10.8193
▁occupation	-10.8193
▁criticise	-10.8193
▁substance	-10.8193
▁conquer	-10.8193
▁spray	-10.8193
▁privatis	-10.8193
▁eager	-10.8193
▁suspend	-10.8193
▁sunny	-10.8193
▁basketball	-10.8193
▁queer	-10.8194
▁incorrect	-10.8194
▁utc	-10.8195
▁theft	-10.8196
▁sparkle	-10.8196
▁confront	-10.8197
▁motion	-10.8197
▁clueless	-10.8198
▁exaggerate	-10.8199
▁yell	-10.8199
▁stab	-10.82
▁specialization	-10.8202
▁existence	-10.8203
▁combo	-10.8205
▁iam	-10.8205
▁addiction	-10.8211
▁stir	-10.8214
▁toll	-10.8215
hana	-10.8219
▁ww	-10.8225
dala	-10.8226
rill	-10.8232
▁mg	-10.8232
▁rapidly	-10.8235
▁whe	-10.8235
uru	-10.8238
▁mcq	-10.824
▁qualifi	-10.8244
▁prob	-10.8244
▁normalize	-10.8247
▁nominat	-10.8254
▁pera	-10.8257
atch	-10.828
dom	-10.8285
oom	-10.8289
▁pipe	-10.8293
▁geniu	-10.8295
residential	-10.8295
▁ray	-10.8297
▁mit	-10.8337
invest	-10.8353
break	-10.8357
▁lee	-10.8359
touch	-10.8362
wear	-10.8369
star	-10.8377
move	-10.8378
mani	-10.8381
▁gbp	-10.839
▁agricultur	-10.8412
▁fulfil	-10.8413
jo	-10.8415
▁thick	-10.842
▁command	-10.8423
▁terror	-10.8438
gue	-10.8441
▁cult	-10.8442
▁antibiotic	-10.8443
▁dfcc	-10.8443
▁disclaimer	-10.8443
▁happily	-10.8443
▁inefficient	-10.8443
▁jungle	-10.8443
▁lasantha	-10.8443
▁spectrum	-10.8443
▁unbiased	-10.8443
▁underworld	-10.8443
▁animation	-10.8443
▁philosoph	-10.8443
▁prefect	-10.8443
▁bypass	-10.8443
▁spell	-10.8443
▁tolerate	-10.8443
▁plz	-10.8443
▁coworker	-10.8443
▁kidney	-10.8443
▁optimistic	-10.8443
▁compound	-10.8444
▁spoil	-10.8444
▁dignity	-10.8444
▁tution	-10.8444
satisfied	-10.8444
▁rational	-10.8445
▁survival	-10.8446
▁downfall	-10.8446
▁loop	-10.8447
▁raid	-10.8447
▁automatic	-10.8448
▁tick	-10.8448
▁amex	-10.8449
▁dumbass	-10.8449
▁icon	-10.8451
▁advertisement	-10.8452
▁tenn	-10.8452
▁caf	-10.8452
▁reset	-10.8458
▁intense	-10.8461
▁fac	-10.8475
▁salo	-10.848
metric	-10.8481
▁mas	-10.8484
▁existent	-10.8503
▁punch	-10.8508
duwa	-10.851
▁mega	-10.851
▁excited	-10.8534
▁pointless	-10.8541
▁severely	-10.8565
▁io	-10.857
etty	-10.8578
pack	-10.8586
wo	-10.8588
▁statu	-10.859
loyalty	-10.8596
▁socio	-10.8606
base	-10.8607
▁roi	-10.861
planning	-10.8614
hz	-10.8615
▁dep	-10.8626
▁ranking	-10.8635
holder	-10.8652
vol	-10.8652
▁wr	-10.8669
▁guilt	-10.8669
▁suppl	-10.8669
list	-10.8681
patch	-10.8682
▁historic	-10.8683
path	-10.8684
▁prosper	-10.8698
▁convict	-10.8699
▁accomodation	-10.87
▁apologize	-10.87
▁batticalo	-10.87
▁fiscal	-10.87
▁luxuri	-10.87
▁palestine	-10.87
▁phrase	-10.87
▁reservation	-10.87
▁classroom	-10.87
▁wattala	-10.87
▁spouse	-10.87
▁priest	-10.87
▁gross	-10.87
diamond	-10.87
▁forecast	-10.87
▁llb	-10.87
▁entertain	-10.87
▁terminal	-10.87
comparable	-10.87
▁pirate	-10.8701
▁dissolve	-10.8701
▁crew	-10.8702
▁excessive	-10.8702
▁referral	-10.8703
▁headphone	-10.8703
▁wound	-10.8703
▁binance	-10.8704
▁supposed	-10.8704
▁colonialism	-10.8704
▁variant	-10.8705
▁harmful	-10.8705
▁trait	-10.871
▁breach	-10.8711
kept	-10.8711
▁straw	-10.8711
▁herb	-10.8714
pick	-10.8715
▁pave	-10.8717
▁naive	-10.8718
cas	-10.8718
▁butt	-10.8733
▁deduction	-10.8735
▁presentation	-10.8744
▁env	-10.8744
mention	-10.8752
▁sms	-10.8756
pass	-10.8767
active	-10.8782
▁cp	-10.8791
ians	-10.8793
▁bout	-10.8798
▁tired	-10.88
▁endless	-10.8814
amba	-10.8814
▁charger	-10.8815
▁specialise	-10.8824
mentioned	-10.884
pitiya	-10.8844
▁scared	-10.8853
arath	-10.8855
▁planet	-10.8863
▁depu	-10.8868
charge	-10.8871
▁cargo	-10.8875
screen	-10.8877
solve	-10.8879
inner	-10.8879
free	-10.8882
▁county	-10.8883
▁interi	-10.8891
phone	-10.8892
▁mah	-10.8897
ford	-10.8902
▁insanely	-10.8906
▁instant	-10.8916
▁impress	-10.8926
udu	-10.8927
▁manual	-10.8929
▁incompetenc	-10.8937
▁aws	-10.8939
residency	-10.8957
▁legislat	-10.896
▁fantas	-10.8962
▁invent	-10.8962
▁beforehand	-10.8963
▁ignorance	-10.8963
▁implication	-10.8963
▁inferior	-10.8963
▁newswire	-10.8963
▁olympic	-10.8963
▁participation	-10.8963
▁philippine	-10.8963
▁relocate	-10.8963
▁resolution	-10.8963
▁sigirya	-10.8963
▁subscribe	-10.8963
▁territory	-10.8963
▁ashamed	-10.8963
▁summary	-10.8963
▁hurry	-10.8963
▁plaza	-10.8963
▁shoulder	-10.8963
▁conscious	-10.8963
▁retard	-10.8963
▁cinec	-10.8963
▁attest	-10.8963
▁fonse	-10.8963
▁essay	-10.8963
alone	-10.8964
▁honour	-10.8964
▁complian	-10.8964
▁incur	-10.8966
▁tune	-10.8966
▁maid	-10.8968
▁mouse	-10.8969
▁upwork	-10.897
▁overlook	-10.897
emma	-10.8971
▁wellawatt	-10.8972
▁outage	-10.8972
▁deem	-10.8979
▁knee	-10.8982
▁automati	-10.8983
nda	-10.8988
▁settlement	-10.899
disclose	-10.8992
▁renewal	-10.8995
▁asu	-10.9001
▁div	-10.9002
▁pose	-10.9014
▁freeze	-10.9017
▁ye	-10.9025
▁taxable	-10.9042
oil	-10.9047
than	-10.9052
roll	-10.9069
add	-10.9086
▁kata	-10.9095
▁casually	-10.9114
▁optional	-10.9115
▁abus	-10.9117
check	-10.9123
eek	-10.9125
communication	-10.9147
perfect	-10.9147
reliable	-10.9152
▁valu	-10.9166
ola	-10.9174
▁assassinat	-10.9177
▁evaluate	-10.9184
▁consist	-10.9188
▁albe	-10.9213
▁generational	-10.923
▁excess	-10.9231
▁sab	-10.9231
ollywood	-10.9233
▁allege	-10.9233
▁clapp	-10.9233
▁communism	-10.9233
▁frustrating	-10.9233
▁nandalal	-10.9233
▁outstanding	-10.9233
▁phenomenon	-10.9233
▁societal	-10.9233
▁tuesday	-10.9233
▁vouch	-10.9233
▁calorie	-10.9233
▁theater	-10.9233
▁pfize	-10.9233
▁scandal	-10.9233
▁allegedly	-10.9233
▁wednes	-10.9233
▁junction	-10.9233
▁automobile	-10.9233
▁creativity	-10.9233
▁silly	-10.9233
▁fuss	-10.9234
▁repeatedly	-10.9234
▁esim	-10.9234
▁signature	-10.9234
▁deploy	-10.9234
▁query	-10.9234
▁linu	-10.9235
▁nanu	-10.9235
▁resistance	-10.9235
▁pinnaw	-10.9235
▁aero	-10.9235
▁someday	-10.9235
▁scuba	-10.9236
▁bullet	-10.9236
spend	-10.9237
▁grass	-10.9238
▁polish	-10.9239
▁database	-10.924
amused	-10.9241
▁restore	-10.9243
▁grave	-10.9244
▁mala	-10.9244
▁bump	-10.9248
▁renewable	-10.9249
template	-10.9253
▁few	-10.9253
▁increasing	-10.9253
▁trainee	-10.9254
▁sheer	-10.9254
▁ck	-10.9255
duction	-10.9256
nty	-10.9272
▁meantime	-10.9275
most	-10.9289
▁sincere	-10.9298
▁comprehensi	-10.9331
ank	-10.9335
▁kindness	-10.934
cast	-10.9351
▁som	-10.9355
rome	-10.9365
▁bone	-10.9372
fir	-10.9397
nayake	-10.9414
school	-10.9423
circle	-10.9425
answer	-10.9425
watch	-10.9429
suma	-10.9431
fill	-10.9435
stay	-10.9435
chain	-10.9438
mistaken	-10.9446
hire	-10.9452
▁continuous	-10.9463
mid	-10.9463
▁strictly	-10.9465
necessary	-10.9499
▁cooking	-10.9511
▁theoretical	-10.9511
▁accumulate	-10.9511
▁cargills	-10.9511
▁comparatively	-10.9511
▁fraction	-10.9511
▁inevitable	-10.9511
▁injustice	-10.9511
▁metropoli	-10.9511
▁rehabilitat	-10.9511
▁renovat	-10.9511
▁sketch	-10.9511
▁thursday	-10.9511
▁worthwhile	-10.9511
▁iirc	-10.9511
▁karma	-10.9511
▁distant	-10.9511
▁mediocr	-10.9511
▁kfc	-10.9511
▁inflow	-10.9511
▁overcharge	-10.9512
▁unprofessional	-10.9513
▁hoard	-10.9513
▁haput	-10.9514
▁utilize	-10.9514
▁nerd	-10.9514
▁listing	-10.9515
▁harbo	-10.9517
▁lg	-10.9518
▁diplomatic	-10.9518
▁orientation	-10.9521
▁winner	-10.9522
▁grandfather	-10.9522
▁twe	-10.9524
▁soil	-10.9526
▁login	-10.9526
▁demon	-10.9534
▁ecu	-10.9538
▁vers	-10.9538
▁atheist	-10.9545
▁marti	-10.9545
▁disable	-10.9547
▁trim	-10.955
ahh	-10.9551
▁spar	-10.9553
▁offs	-10.9553
▁mindful	-10.9554
▁grama	-10.9554
▁pleasant	-10.9561
▁bury	-10.9562
▁subjective	-10.9566
▁bash	-10.9572
can	-10.9578
▁journal	-10.9588
▁discre	-10.959
▁lover	-10.9591
▁eh	-10.9596
▁massively	-10.9599
law	-10.9606
▁versa	-10.9635
provide	-10.9645
▁illegally	-10.9646
▁aust	-10.965
▁placement	-10.965
other	-10.9667
▁tan	-10.9678
▁historically	-10.968
hole	-10.969
▁jet	-10.9692
ander	-10.9702
space	-10.9711
▁vijaya	-10.9711
force	-10.9715
inform	-10.9719
blame	-10.9722
thing	-10.9727
des	-10.9728
▁tsu	-10.9734
▁rapid	-10.9752
urge	-10.9753
▁met	-10.9772
▁por	-10.9778
▁cure	-10.9778
▁dim	-10.978
odu	-10.9785
▁outta	-10.9785
▁independently	-10.9795
▁accommodate	-10.9796
▁condemn	-10.9796
▁distinct	-10.9796
▁distribution	-10.9796
▁emigration	-10.9796
▁facilitate	-10.9796
▁invoice	-10.9796
▁mcdonald	-10.9796
▁psychological	-10.9796
▁unemployment	-10.9796
▁unethical	-10.9796
▁enhance	-10.9796
▁fridge	-10.9796
▁homophobi	-10.9796
▁hypocrit	-10.9796
▁parallel	-10.9796
▁rumour	-10.9796
▁biomedic	-10.9796
▁seylan	-10.9796
▁rival	-10.9796
▁grasp	-10.9796
▁vocal	-10.9796
interrupt	-10.9797
▁hindi	-10.9797
▁blend	-10.9797
▁lyric	-10.9797
▁angle	-10.9797
▁problematic	-10.9797
▁depart	-10.9797
▁withhold	-10.9797
▁saudi	-10.9798
▁automate	-10.9798
▁populis	-10.9798
▁beware	-10.9798
▁metro	-10.9798
▁filth	-10.9798
anker	-10.98
▁foster	-10.98
▁bailout	-10.9802
▁liquidity	-10.9802
▁deni	-10.9803
icket	-10.9803
▁showcase	-10.9804
▁pu	-10.9804
▁resist	-10.9804
▁usb	-10.9805
▁announcement	-10.9806
▁hitler	-10.9807
▁bagg	-10.9807
▁dictat	-10.9811
▁telecom	-10.9811
▁kwh	-10.9814
▁smth	-10.9816
icc	-10.9817
▁paycheck	-10.9823
▁charm	-10.9827
nanda	-10.9827
cade	-10.9828
tears	-10.9835
▁winter	-10.9837
▁hari	-10.9839
▁ravi	-10.9845
entrepreneurship	-10.9846
▁interio	-10.9846
▁slide	-10.9858
▁idiotic	-10.9858
▁eka	-10.9866
izing	-10.9871
▁hopeless	-10.9871
▁windows	-10.9904
tree	-10.9905
▁loyal	-10.9914
▁seven	-10.9914
▁om	-10.9919
ovo	-10.9942
▁til	-10.9945
heft	-10.9947
making	-10.9958
▁caa	-10.996
▁clan	-10.9969
rope	-10.9972
▁scare	-10.9973
▁np	-10.9981
▁sony	-10.9986
▁interactiv	-10.9992
wait	-10.9997
▁financ	-11
road	-11.0003
▁pala	-11.0005
▁arab	-11.0017
▁belongs	-11.0041
gment	-11.0045
more	-11.0051
▁sens	-11.0053
nsible	-11.007
▁mild	-11.0077
ury	-11.008
▁kap	-11.0085
▁federal	-11.0088
▁sovereign	-11.0089
▁prestig	-11.0091
▁accredit	-11.0091
▁ambass	-11.0091
▁biological	-11.0091
▁caution	-11.0091
▁compensate	-11.0091
▁concrete	-11.0091
▁curfew	-11.0091
▁emphasis	-11.0091
▁ethernet	-11.0091
▁flexibility	-11.0091
▁judiciary	-11.0091
▁neglect	-11.0091
▁netherlands	-11.0091
▁orange	-11.0091
▁peanut	-11.0091
▁prabhakaran	-11.0091
▁prohibit	-11.0091
▁souvenir	-11.0091
▁suppress	-11.0091
▁vegetarian	-11.0091
▁clause	-11.0091
▁wisdom	-11.0091
▁hectic	-11.0091
▁twist	-11.0091
▁fortune	-11.0091
▁gossip	-11.0091
▁unexpected	-11.0091
▁alarm	-11.0091
▁carnage	-11.0091
▁authoritarian	-11.0091
▁musc	-11.0091
▁conservation	-11.0092
▁specify	-11.0092
▁bakery	-11.0093
▁marxis	-11.0093
▁constructive	-11.0093
▁rebuild	-11.0095
▁crib	-11.0095
▁junk	-11.0095
▁macro	-11.0096
▁superiority	-11.0098
▁cunt	-11.0098
▁thrill	-11.0099
▁usaid	-11.0102
▁vlog	-11.0106
▁cultivate	-11.0109
▁coll	-11.0109
▁businessmen	-11.0109
thiya	-11.011
nish	-11.011
into	-11.0114
▁butter	-11.0123
▁pun	-11.0136
▁endure	-11.0139
▁lit	-11.014
▁container	-11.0147
▁quo	-11.0149
▁overwhelming	-11.0151
▁sf	-11.017
▁flower	-11.0184
▁ec	-11.0188
mbo	-11.019
▁vent	-11.0197
▁accessor	-11.0209
▁siri	-11.021
▁urgently	-11.0212
▁shin	-11.0216
agon	-11.0221
rance	-11.0255
▁gel	-11.0275
▁wel	-11.0276
asiri	-11.0289
ground	-11.0293
vil	-11.0294
tel	-11.0299
▁devi	-11.0302
build	-11.0304
graduate	-11.0307
▁tent	-11.0307
economic	-11.0308
limit	-11.0308
quite	-11.0311
hurt	-11.0311
super	-11.0312
kill	-11.0316
form	-11.032
▁intel	-11.0334
▁vid	-11.0351
▁aw	-11.0351
jp	-11.0365
▁plat	-11.038
▁construct	-11.0383
▁intent	-11.0385
▁spoke	-11.0385
▁sane	-11.0386
▁privatiz	-11.0387
bring	-11.0388
▁advertising	-11.0394
▁algorithm	-11.0394
▁allergy	-11.0394
▁battaramull	-11.0394
▁bootlick	-11.0394
▁brilliant	-11.0394
▁casino	-11.0394
▁earbud	-11.0394
▁explicit	-11.0394
▁helicop	-11.0394
▁immigrate	-11.0394
▁leopard	-11.0394
▁melbourne	-11.0394
▁paranoid	-11.0394
▁patience	-11.0394
▁straightforward	-11.0394
▁terrify	-11.0394
▁coalition	-11.0394
▁counsellor	-11.0394
▁taboo	-11.0394
▁unacceptable	-11.0394
▁dentist	-11.0394
▁toast	-11.0394
▁crony	-11.0394
▁dozen	-11.0394
▁plumb	-11.0394
▁barber	-11.0394
▁pidur	-11.0394
▁notorious	-11.0394
▁funeral	-11.0394
▁contradict	-11.0394
▁fiction	-11.0395
▁salarie	-11.0395
▁snake	-11.0395
▁token	-11.0396
▁quant	-11.0396
▁textile	-11.0396
▁pleasure	-11.0398
▁recur	-11.0399
▁erp	-11.04
▁vanish	-11.0401
▁kand	-11.0408
▁classmate	-11.0409
▁stagna	-11.041
▁ov	-11.0411
▁rail	-11.0415
▁jealousy	-11.0422
▁she	-11.0427
▁interfere	-11.0427
▁paperwork	-11.0429
▁medal	-11.0433
hate	-11.0434
▁bali	-11.0435
▁prayer	-11.0436
▁colonize	-11.044
▁rust	-11.0446
▁weed	-11.0451
▁wat	-11.0457
▁slot	-11.0458
given	-11.046
▁lan	-11.0463
▁bru	-11.0465
last	-11.0469
▁av	-11.048
bus	-11.0483
▁homeless	-11.0495
▁nor	-11.0497
▁tablet	-11.0514
▁fdi	-11.0519
▁reel	-11.052
▁imply	-11.0522
▁apit	-11.0522
▁smoothly	-11.0529
orry	-11.0534
tract	-11.0557
▁meh	-11.0568
▁triple	-11.0572
▁modif	-11.0578
kanda	-11.0605
▁uda	-11.0607
power	-11.0617
▁dial	-11.062
script	-11.062
▁pig	-11.0625
person	-11.0634
stair	-11.0673
tric	-11.0673
▁creep	-11.0676
▁chick	-11.0679
nivers	-11.068
▁clock	-11.0688
▁oppress	-11.0703
▁patriot	-11.0704
▁pupp	-11.0705
▁accomplish	-11.0706
▁interpret	-11.0706
▁analyze	-11.0706
▁aspire	-11.0706
▁culprit	-11.0706
▁flavour	-11.0706
▁hurdle	-11.0706
▁hypocrisy	-11.0706
▁irrespective	-11.0706
▁overcrowd	-11.0706
▁pronunciation	-11.0706
▁stereotype	-11.0706
▁unpredictable	-11.0706
▁volatile	-11.0706
▁bundle	-11.0706
▁collateral	-11.0706
▁jesus	-11.0706
▁knife	-11.0706
▁pawn	-11.0706
▁proportion	-11.0706
▁shield	-11.0706
▁tragic	-11.0706
▁frimi	-11.0706
▁leban	-11.0706
▁apparel	-11.0706
▁seperate	-11.0706
▁backlash	-11.0706
▁corona	-11.0706
▁queen	-11.0706
built	-11.0706
▁secular	-11.0707
▁unrest	-11.0708
▁nye	-11.0708
▁wander	-11.0709
▁champion	-11.0709
▁evade	-11.071
▁skeptical	-11.0712
▁plea	-11.0714
eutic	-11.0718
▁installation	-11.0718
advert	-11.0719
▁dar	-11.0723
▁huh	-11.0724
▁magically	-11.0727
▁of	-11.0732
▁ironic	-11.0732
▁igp	-11.0734
▁honk	-11.074
▁compatib	-11.0741
▁reflection	-11.0741
bar	-11.0746
▁sanit	-11.0748
▁gpt	-11.0751
▁teeth	-11.0759
▁worsen	-11.0761
ulu	-11.0762
▁yup	-11.0763
▁mun	-11.0765
▁bigot	-11.0818
▁interviewer	-11.0839
▁tint	-11.0845
cashier	-11.0853
▁meth	-11.0854
▁loser	-11.0866
crab	-11.0878
▁kia	-11.0901
▁cough	-11.0902
▁kandyan	-11.0907
illa	-11.0934
normal	-11.0942
respond	-11.0943
develop	-11.0943
self	-11.0945
create	-11.0946
fix	-11.0949
intend	-11.0953
▁jobless	-11.0965
▁stare	-11.0967
▁slim	-11.098
▁cycl	-11.0998
▁jealous	-11.0998
▁rubb	-11.101
▁gram	-11.1014
pot	-11.1017
▁reap	-11.102
▁chennai	-11.1029
▁curricular	-11.1029
▁disregard	-11.1029
▁heaven	-11.1029
▁insurrection	-11.1029
▁jewellery	-11.1029
▁rajapakshe	-11.1029
▁skyrocket	-11.1029
▁stadium	-11.1029
▁minimize	-11.1029
▁spiral	-11.1029
▁whatnot	-11.1029
▁resonate	-11.1029
▁bitcoin	-11.1029
▁geopolitical	-11.1029
▁genetic	-11.1029
▁atrad	-11.1029
▁calculator	-11.1029
▁timing	-11.1029
▁quiz	-11.1029
▁guesthouse	-11.103
▁robber	-11.103
▁breed	-11.103
▁wimal	-11.103
▁invasion	-11.103
▁monast	-11.1031
▁tenure	-11.1031
▁tinder	-11.1031
▁chess	-11.1033
▁unofficial	-11.1033
▁wireless	-11.1033
▁unhappy	-11.1035
▁refine	-11.1035
▁restart	-11.1036
rfc	-11.104
▁amid	-11.104
▁dire	-11.1041
▁globe	-11.1044
▁acne	-11.1052
▁alien	-11.1057
▁tab	-11.106
▁chap	-11.1061
▁inr	-11.1063
▁boomer	-11.1068
stumble	-11.1076
▁geo	-11.1077
▁mic	-11.1093
will	-11.1101
luck	-11.1115
ius	-11.1184
▁reco	-11.1186
▁stun	-11.1202
▁coordinate	-11.1203
▁replica	-11.1227
▁edition	-11.1236
oud	-11.1237
▁vip	-11.124
claim	-11.1279
listen	-11.1281
share	-11.1285
▁backward	-11.1298
wana	-11.1322
▁annually	-11.1325
▁opportunit	-11.1332
▁wast	-11.1347
▁psych	-11.1353
▁adequate	-11.1362
▁amma	-11.1362
▁audacity	-11.1362
▁celebrity	-11.1362
▁chronic	-11.1362
▁concession	-11.1362
▁elaborate	-11.1362
▁glorify	-11.1362
▁inappropriate	-11.1362
▁kangaroo	-11.1362
▁pearson	-11.1362
▁structural	-11.1362
▁venezuela	-11.1362
▁illusion	-11.1362
▁fortress	-11.1362
▁revenge	-11.1362
▁bureau	-11.1362
▁nasty	-11.1362
▁lmk	-11.1362
▁kerala	-11.1362
▁endorse	-11.1362
▁halal	-11.1363
▁ousl	-11.1363
▁traction	-11.1363
▁roast	-11.1363
▁legalize	-11.1364
▁retreat	-11.1364
▁paddy	-11.1364
▁shark	-11.1364
▁imho	-11.1365
▁bride	-11.1365
▁consol	-11.1365
▁reception	-11.1365
▁paradise	-11.1366
giant	-11.1366
step	-11.1366
▁jeep	-11.1367
▁atti	-11.1367
▁ballot	-11.1367
▁adhere	-11.1369
▁misunderstand	-11.1371
▁viewpoint	-11.1372
▁relian	-11.1375
▁grain	-11.1375
love	-11.1377
▁feminist	-11.1391
▁ox	-11.1391
▁thoroughly	-11.1394
uch	-11.1395
fact	-11.1399
▁genre	-11.1401
▁veg	-11.1405
▁viru	-11.1405
▁shipment	-11.1406
jith	-11.1411
▁momentum	-11.1415
▁stupidity	-11.1415
▁rejection	-11.1429
card	-11.1436
▁fever	-11.1458
▁ipo	-11.146
rial	-11.1472
▁ire	-11.1478
▁tricky	-11.1478
▁mor	-11.1499
▁borel	-11.1531
▁spit	-11.1538
aza	-11.1539
▁cozy	-11.1549
▁nat	-11.1561
sexuality	-11.1566
inda	-11.1591
oid	-11.1591
▁yama	-11.1599
▁breathe	-11.1606
▁trader	-11.1607
udge	-11.1618
corporate	-11.1621
srilanka	-11.1621
wide	-11.1626
meet	-11.1634
onto	-11.1643
lop	-11.1646
▁imagin	-11.1649
wind	-11.1667
▁colonis	-11.1675
hail	-11.168
▁mud	-11.1683
ruka	-11.17
grow	-11.17
▁cooper	-11.1705
▁drastic	-11.1705
▁malli	-11.1706
▁convent	-11.1707
▁accelerat	-11.1707
▁arbitrar	-11.1707
▁boutique	-11.1707
▁disgrace	-11.1707
▁ecosystem	-11.1707
▁imprison	-11.1707
▁inefficiency	-11.1707
▁inspiration	-11.1707
▁intervention	-11.1707
▁mechatronics	-11.1707
▁subtitle	-11.1707
▁taiwan	-11.1707
▁credential	-11.1707
▁encourag	-11.1707
▁hometown	-11.1707
▁sysco	-11.1707
▁combat	-11.1707
▁harmony	-11.1707
▁brace	-11.1707
▁spicy	-11.1707
fingers	-11.1707
▁honey	-11.1707
▁intermedia	-11.1707
▁cardinal	-11.1707
▁ancestr	-11.1707
▁disguise	-11.1708
▁spark	-11.1708
▁pearl	-11.1708
▁sovereignty	-11.1709
critic	-11.1709
▁overstay	-11.1709
▁innovative	-11.1709
▁compile	-11.1709
▁ect	-11.171
▁spring	-11.171
▁sponsorship	-11.1711
▁memorize	-11.1711
▁await	-11.1712
▁instructor	-11.1713
▁fascinate	-11.1716
▁bayya	-11.1722
▁pink	-11.1723
▁unaware	-11.1726
▁vici	-11.1727
▁cabin	-11.1728
▁amend	-11.1729
▁academi	-11.173
bble	-11.173
▁exploitation	-11.1732
▁brave	-11.1735
tamin	-11.1737
▁physician	-11.1738
▁integrat	-11.1739
▁tale	-11.1741
▁poke	-11.1744
▁disappointing	-11.1759
endar	-11.1762
worthy	-11.1767
chem	-11.1787
▁bake	-11.1797
theless	-11.1802
▁idp	-11.1816
suriya	-11.1822
hopper	-11.1831
▁itak	-11.1837
▁gv	-11.1866
▁preferr	-11.1871
▁eco	-11.1878
▁elevate	-11.1881
▁therm	-11.1883
▁varie	-11.1892
▁maxim	-11.1894
elect	-11.1904
▁editor	-11.1905
cuba	-11.1928
▁trc	-11.1933
earn	-11.1937
▁md	-11.1943
▁slum	-11.1958
▁cooler	-11.1971
▁bun	-11.1973
▁devalue	-11.1974
afford	-11.1975
experience	-11.1975
waste	-11.1984
registered	-11.1992
▁mee	-11.1994
mber	-11.2003
cost	-11.2013
▁approximate	-11.2015
case	-11.2021
pool	-11.2021
▁complet	-11.2026
▁victoria	-11.2041
▁ironical	-11.2051
▁eff	-11.2053
pathetic	-11.206
▁uncertain	-11.2062
▁descen	-11.2063
▁scholar	-11.2063
▁horizon	-11.2064
▁advisable	-11.2064
▁avenue	-11.2064
▁dodgy	-11.2064
▁enlighten	-11.2064
▁exorbitant	-11.2064
▁kalutara	-11.2064
▁perpetrator	-11.2064
▁precaution	-11.2064
▁prevalent	-11.2064
▁ravana	-11.2064
▁recession	-11.2064
▁repercussion	-11.2064
▁sirimavo	-11.2064
▁subsequent	-11.2064
▁technological	-11.2064
▁tshirt	-11.2064
▁washroom	-11.2064
▁xiaomi	-11.2064
▁absorb	-11.2064
▁monarch	-11.2064
▁robotics	-11.2064
▁buffer	-11.2064
▁sweden	-11.2064
▁betray	-11.2064
▁boast	-11.2064
▁verbal	-11.2064
▁annex	-11.2064
▁explosi	-11.2064
▁desert	-11.2064
▁onboard	-11.2064
assurance	-11.2064
▁relic	-11.2064
▁odel	-11.2064
helmet	-11.2064
▁plague	-11.2064
▁serf	-11.2064
▁empower	-11.2064
▁blank	-11.2065
▁upskill	-11.2065
▁scalp	-11.2065
▁generator	-11.2065
▁llm	-11.2065
▁dilith	-11.2066
▁machan	-11.2066
▁blacklist	-11.2066
▁destructi	-11.2067
▁enact	-11.2067
▁juice	-11.2067
▁ffs	-11.2068
▁dramatic	-11.207
▁shortlist	-11.207
▁cliq	-11.207
mmunit	-11.207
▁nuance	-11.2072
▁subtle	-11.2073
pensive	-11.2074
▁fitting	-11.2079
▁massage	-11.2082
▁lump	-11.2083
▁roadside	-11.2087
▁rubber	-11.2088
▁nude	-11.2089
▁circulate	-11.2092
▁fence	-11.2094
▁nord	-11.2095
▁impressed	-11.2098
udi	-11.2111
▁pause	-11.2119
uckle	-11.2136
aki	-11.2146
▁bia	-11.2151
▁neo	-11.218
shadow	-11.2201
▁concentrate	-11.221
master	-11.2211
▁burnt	-11.222
aving	-11.2229
▁bu	-11.2231
include	-11.2248
▁sate	-11.2249
▁greener	-11.2257
aswa	-11.2267
align	-11.2268
kade	-11.2287
▁glo	-11.2292
eather	-11.2301
ganda	-11.2302
▁liter	-11.2305
hari	-11.2306
pse	-11.231
stress	-11.2314
llite	-11.2319
umble	-11.233
position	-11.2338
bel	-11.2342
▁tak	-11.2343
grade	-11.2349
weigh	-11.235
▁lib	-11.2353
print	-11.2357
▁undergo	-11.2373
directly	-11.2375
leave	-11.2377
▁tee	-11.2384
unu	-11.239
inder	-11.2392
▁eve	-11.2394
poo	-11.2395
▁activ	-11.2405
▁jun	-11.2421
▁hung	-11.2421
rink	-11.2426
▁grimacing	-11.2434
against	-11.2434
cosmetic	-11.2434
▁habarana	-11.2434
▁hypothetical	-11.2434
▁inherent	-11.2434
▁keheliya	-11.2434
▁obstacle	-11.2434
▁participant	-11.2434
▁pilgrim	-11.2434
▁promising	-11.2434
▁slbfe	-11.2434
▁subsidize	-11.2434
▁transcript	-11.2434
▁circuit	-11.2434
▁rescue	-11.2434
▁admire	-11.2434
▁cruel	-11.2434
▁kollupiti	-11.2434
▁sweep	-11.2434
▁legacy	-11.2434
▁showroom	-11.2434
▁underrated	-11.2434
▁simplytek	-11.2434
▁redeem	-11.2434
▁jean	-11.2435
▁remit	-11.2435
▁clay	-11.2435
▁fingerprint	-11.2435
▁latin	-11.2435
▁veggi	-11.2435
▁magistra	-11.2435
▁slmc	-11.2435
▁disorder	-11.2435
▁trek	-11.2436
▁confusion	-11.2436
▁puppet	-11.2437
▁pyra	-11.2437
▁salut	-11.2437
▁spanish	-11.2437
▁confidential	-11.2438
▁collaboration	-11.2438
▁shore	-11.2438
▁drown	-11.2439
▁emission	-11.244
▁drill	-11.244
▁motherboard	-11.2442
▁shani	-11.2442
▁ambition	-11.2442
▁woke	-11.2443
▁moir	-11.2443
▁delusional	-11.2444
▁collaborate	-11.2446
empt	-11.2448
▁liber	-11.2448
▁sensor	-11.2452
▁banana	-11.2455
▁injured	-11.2456
▁neat	-11.2457
▁stunt	-11.2457
repeal	-11.246
▁fil	-11.2462
▁saas	-11.2463
closure	-11.2463
▁unavailable	-11.2466
▁mech	-11.2466
▁commander	-11.2467
▁crapp	-11.2469
▁laksh	-11.2469
▁introduc	-11.2478
tention	-11.248
islamic	-11.2481
▁cpu	-11.2483
▁lite	-11.2495
sanction	-11.2496
uti	-11.25
ioc	-11.2501
▁trilli	-11.2502
▁snap	-11.2505
▁minne	-11.2508
▁thrown	-11.2537
▁xx	-11.2555
▁sept	-11.2573
▁lad	-11.2574
enture	-11.2587
▁wil	-11.2588
▁comic	-11.26
▁fav	-11.2603
▁tom	-11.2616
▁relaxed	-11.2617
mine	-11.2621
ject	-11.2652
watta	-11.2671
hard	-11.2674
dating	-11.2675
rift	-11.2681
▁lore	-11.2685
raze	-11.2707
word	-11.2728
suit	-11.273
conduct	-11.2733
stick	-11.2738
chair	-11.2739
copy	-11.2746
▁fad	-11.2747
▁indirect	-11.2773
▁dc	-11.2773
jector	-11.2786
▁lak	-11.2786
▁rath	-11.2794
▁socialize	-11.2796
▁disast	-11.2797
whine	-11.2802
▁fold	-11.2804
rice	-11.2809
ounce	-11.2812
evolution	-11.2812
▁equip	-11.2816
▁spirit	-11.2818
▁affiliation	-11.2819
▁anarchy	-11.2819
▁asbestos	-11.2819
▁consensus	-11.2819
▁emigrate	-11.2819
▁outflow	-11.2819
▁recieve	-11.2819
▁rhetoric	-11.2819
▁sanctuar	-11.2819
▁vocab	-11.2819
▁buzz	-11.2819
▁ethno	-11.2819
▁execution	-11.2819
▁identification	-11.2819
▁spill	-11.2819
▁precise	-11.2819
▁hilton	-11.2819
▁york	-11.2819
▁unusable	-11.2819
▁kudos	-11.2819
▁lacto	-11.2819
▁imei	-11.2819
▁vital	-11.2819
▁paragraph	-11.282
▁auction	-11.282
▁geographical	-11.282
▁refresh	-11.282
▁bleed	-11.2821
▁tweet	-11.2822
uprise	-11.2822
▁upvote	-11.2822
▁generous	-11.2822
▁sword	-11.2822
▁studie	-11.2823
▁foresee	-11.2823
▁glory	-11.2823
▁shove	-11.2823
▁akka	-11.2824
which	-11.2825
▁curve	-11.2825
gulf	-11.2826
▁squat	-11.2828
▁cbk	-11.2828
▁millennial	-11.2828
byob	-11.2829
▁bounce	-11.283
▁oppression	-11.283
▁univers	-11.2831
▁aboard	-11.2832
▁christianity	-11.2833
▁nawala	-11.2833
▁bamba	-11.2835
▁starve	-11.2835
cou	-11.2841
▁specie	-11.2842
▁smh	-11.2847
▁rig	-11.2851
▁headline	-11.2857
▁coup	-11.2857
▁electrician	-11.2859
▁validation	-11.2869
▁bald	-11.2879
▁palm	-11.2881
▁robe	-11.2892
ndra	-11.2902
▁anthe	-11.2919
elle	-11.2922
▁hp	-11.2941
akin	-11.2949
▁eran	-11.2952
▁murderer	-11.2958
▁comeback	-11.2961
game	-11.2972
▁tape	-11.2986
▁peter	-11.299
▁naval	-11.2994
▁coordinat	-11.3007
meric	-11.3037
high	-11.3051
▁modi	-11.3054
cbt	-11.3075
dding	-11.3085
singhe	-11.3089
sight	-11.3132
special	-11.3133
people	-11.3133
social	-11.3133
store	-11.3134
represent	-11.3134
jack	-11.314
giri	-11.3146
edex	-11.3152
▁char	-11.3152
wave	-11.3156
taken	-11.3183
▁sigh	-11.3185
▁conf	-11.3187
eera	-11.3188
▁moderat	-11.319
▁extremis	-11.3199
aint	-11.3202
▁troll	-11.321
▁geograph	-11.3218
▁athlete	-11.3219
▁brazil	-11.3219
▁clergy	-11.3219
▁cunning	-11.3219
▁downhill	-11.3219
▁emphasiz	-11.3219
▁extracurricular	-11.3219
▁intimidate	-11.3219
▁judicial	-11.3219
▁opportunist	-11.3219
▁peratugam	-11.3219
▁rhythm	-11.3219
▁sabaragamuwa	-11.3219
▁sabotage	-11.3219
▁segregat	-11.3219
▁stigma	-11.3219
▁unbearable	-11.3219
▁unbelievable	-11.3219
▁vintage	-11.3219
▁ancestor	-11.3219
▁goddamn	-11.3219
▁intoleran	-11.3219
▁senanayake	-11.3219
▁imperial	-11.3219
▁mortal	-11.3219
▁cease	-11.3219
▁pleading	-11.3219
▁arguabl	-11.3219
▁qatar	-11.3219
▁benz	-11.3219
▁immatur	-11.3219
▁overthinking	-11.3219
▁deaf	-11.3219
▁furious	-11.3219
▁dengue	-11.322
▁discontinue	-11.322
▁programming	-11.322
▁lottery	-11.322
▁durability	-11.322
▁azur	-11.3221
▁homosexuality	-11.3221
▁brick	-11.3222
▁leap	-11.3223
▁constitu	-11.3223
▁dodge	-11.3223
▁joe	-11.3227
▁outline	-11.3228
▁playlist	-11.3228
▁slavery	-11.3229
runch	-11.323
▁geek	-11.323
▁adjustment	-11.3232
▁php	-11.3234
▁miri	-11.3234
▁lost	-11.3235
lush	-11.3236
electoral	-11.3236
▁patro	-11.3238
▁motherland	-11.3239
▁chest	-11.3239
▁hatch	-11.3239
▁kalu	-11.3239
▁amara	-11.324
▁conventional	-11.3246
loss	-11.3256
▁classify	-11.3262
adi	-11.3269
▁sail	-11.327
bir	-11.327
▁remark	-11.328
termination	-11.3284
consistency	-11.3284
▁moor	-11.3288
▁atp	-11.329
▁manually	-11.3295
▁gentle	-11.3295
▁organizer	-11.3298
▁dun	-11.33
▁insur	-11.3303
▁hostil	-11.3303
▁worthless	-11.3305
▁soc	-11.3309
▁slab	-11.333
▁kerne	-11.3335
▁odi	-11.3336
▁sg	-11.3339
vq	-11.3352
asinghe	-11.3358
▁ink	-11.3371
hear	-11.3378
▁joker	-11.3378
rio	-11.338
equi	-11.3387
▁yap	-11.3437
▁fur	-11.3444
▁tho	-11.3456
wiss	-11.3466
▁curl	-11.3497
iesl	-11.3497
qualifi	-11.3526
drop	-11.3526
mission	-11.3546
focus	-11.355
update	-11.3557
country	-11.3558
▁creat	-11.3561
visit	-11.3564
teach	-11.3578
depend	-11.3581
▁apparent	-11.3589
rom	-11.3599
chandra	-11.3619
▁accessibility	-11.3636
▁asylum	-11.3636
▁ayubowan	-11.3636
▁belarus	-11.3636
▁censor	-11.3636
▁dermatologist	-11.3636
▁jayawardene	-11.3636
▁reccomend	-11.3636
▁renegotiat	-11.3636
▁sandwich	-11.3636
▁secretariat	-11.3636
▁stomach	-11.3636
▁surname	-11.3636
▁suspension	-11.3636
▁technician	-11.3636
▁ukrainian	-11.3636
▁unhealth	-11.3636
▁widespread	-11.3636
▁provision	-11.3636
▁rainforest	-11.3636
▁tobac	-11.3636
▁gesture	-11.3636
▁sleeve	-11.3636
▁bleach	-11.3636
▁ncpi	-11.3636
▁predator	-11.3636
▁forbid	-11.3636
▁todd	-11.3636
▁compassion	-11.3636
▁clash	-11.3636
▁domino	-11.3636
▁southwest	-11.3636
▁chef	-11.3636
▁chaotic	-11.3636
▁precede	-11.3636
▁benchmark	-11.3636
▁christ	-11.3636
▁flair	-11.3636
▁revise	-11.3637
▁barrel	-11.3637
▁registrar	-11.3637
▁georg	-11.3637
▁rebel	-11.3637
▁cyl	-11.3637
▁outward	-11.3638
▁crackdown	-11.3638
▁speculation	-11.3638
▁captain	-11.3639
▁crown	-11.3639
thesis	-11.3641
andwid	-11.3642
▁saint	-11.3643
▁foolish	-11.3643
▁pierc	-11.3644
▁ccpi	-11.3645
▁deport	-11.3645
athuranga	-11.3646
▁unregistered	-11.3646
▁yk	-11.3646
▁reign	-11.3648
▁relieved	-11.365
▁crave	-11.3655
cement	-11.3655
▁validate	-11.3656
▁usable	-11.3659
▁hunger	-11.3661
▁nelu	-11.3663
▁descend	-11.3667
▁prepay	-11.3667
▁bait	-11.3676
▁isi	-11.3678
▁ananda	-11.3685
acle	-11.3686
▁btu	-11.3689
▁coat	-11.3697
stable	-11.3707
▁nepo	-11.3715
▁fleet	-11.3721
▁sse	-11.3728
usually	-11.3744
▁torn	-11.3748
▁despise	-11.3751
dns	-11.3756
▁configur	-11.3769
▁swimm	-11.3782
mah	-11.3791
▁indig	-11.3797
▁boi	-11.3801
▁kotta	-11.3819
▁sb	-11.3822
▁bha	-11.3823
▁vec	-11.3828
terior	-11.3859
igama	-11.3869
▁sho	-11.393
lue	-11.3944
▁assemble	-11.3957
inability	-11.3962
mich	-11.3974
practical	-11.3984
guarantee	-11.3984
anything	-11.3986
expensive	-11.3986
illegal	-11.3987
lab	-11.3996
human	-11.3998
▁converse	-11.3999
mail	-11.4011
drive	-11.4029
▁greet	-11.4037
▁investigat	-11.4039
▁intens	-11.404
▁injure	-11.4045
wei	-11.4046
▁eligib	-11.4066
▁acqui	-11.4068
▁bench	-11.407
▁pradesh	-11.407
▁afghanistan	-11.407
▁apologise	-11.407
▁archaeolog	-11.407
▁attribute	-11.407
▁cambodia	-11.407
▁devastate	-11.407
▁dolphin	-11.407
▁expansion	-11.407
▁exploration	-11.407
▁fluctuate	-11.407
▁hierarchy	-11.407
▁invitation	-11.407
▁pivot	-11.407
▁proficiency	-11.407
▁treasure	-11.407
▁tunnel	-11.407
▁username	-11.407
▁vertical	-11.407
▁virgin	-11.407
▁zimbabwe	-11.407
▁fronx	-11.407
▁intervene	-11.407
▁jayawardena	-11.407
▁outstation	-11.407
▁recondition	-11.407
▁retaliat	-11.407
lunder	-11.407
▁corolla	-11.407
▁jetwing	-11.407
▁katunayak	-11.407
▁leisure	-11.407
▁pepper	-11.407
▁vocation	-11.407
▁kadaw	-11.407
▁hbb	-11.407
▁revolve	-11.4071
▁furnish	-11.4071
▁consolidat	-11.4071
▁seafood	-11.4071
▁asleep	-11.4072
▁curtain	-11.4072
▁charith	-11.4072
▁blackmail	-11.4072
▁snow	-11.4072
▁evident	-11.4073
▁yard	-11.4073
▁migrat	-11.4073
▁lamp	-11.4074
▁universiti	-11.4075
▁perahera	-11.4075
▁boring	-11.4076
▁prostitution	-11.4076
▁overrate	-11.4077
▁disappointment	-11.4077
▁coupon	-11.4078
berry	-11.408
▁aswes	-11.408
▁raize	-11.4082
▁squad	-11.4083
▁cutoff	-11.4083
judg	-11.4083
▁shameless	-11.4085
▁simplif	-11.4087
▁justifie	-11.409
▁seren	-11.409
▁mama	-11.4092
▁decorat	-11.4093
▁modest	-11.4103
▁greeting	-11.4104
ception	-11.4107
▁minus	-11.4109
▁unclear	-11.4116
write	-11.4123
▁tes	-11.4125
▁fisherm	-11.4131
▁pour	-11.4132
lace	-11.4144
▁spl	-11.4147
urtin	-11.4147
▁evaluat	-11.4151
▁prox	-11.4156
▁slice	-11.4158
ugues	-11.4165
satisfact	-11.4168
rsion	-11.4172
▁obv	-11.4174
▁programmer	-11.4182
▁maz	-11.4185
state	-11.4187
practi	-11.419
▁continu	-11.4237
round	-11.4244
▁faci	-11.4257
▁redo	-11.4262
▁mathematical	-11.4307
▁chop	-11.4318
witch	-11.437
▁pest	-11.4374
▁arun	-11.4388
hitha	-11.4419
happy	-11.4431
everything	-11.4439
function	-11.444
▁gentlem	-11.4444
join	-11.446
▁lame	-11.4461
▁stag	-11.447
▁grandpa	-11.4475
▁frequen	-11.4505
▁clar	-11.4523
▁controvers	-11.4524
▁predominant	-11.4525
▁frizz	-11.4525
▁geopolitics	-11.4525
▁intimate	-11.4525
▁palestinian	-11.4525
▁pronounce	-11.4525
▁resilient	-11.4525
▁shangri	-11.4525
▁teledrama	-11.4525
piliyan	-11.4525
▁franchise	-11.4525
▁occurrence	-11.4525
▁glaze	-11.4525
▁rooftop	-11.4525
▁throat	-11.4525
▁unlucky	-11.4525
▁wolf	-11.4525
▁essence	-11.4525
▁insert	-11.4525
▁millionaire	-11.4525
▁warehouse	-11.4525
▁bandaranayak	-11.4525
▁dairy	-11.4525
▁prince	-11.4525
▁satisfaction	-11.4525
▁convey	-11.4525
▁workaround	-11.4525
▁retro	-11.4525
▁grace	-11.4525
▁remand	-11.4525
▁sauce	-11.4525
▁wtc	-11.4525
▁yaris	-11.4525
▁rtx	-11.4525
▁depict	-11.4526
vomit	-11.4526
▁euthan	-11.4526
▁rupa	-11.4527
▁patriotism	-11.4528
▁insecurity	-11.4528
▁exhibition	-11.453
▁unreasonable	-11.453
▁stafford	-11.453
▁pinch	-11.4532
▁coward	-11.4533
▁archive	-11.4534
▁ranja	-11.4534
▁privatization	-11.4534
▁inward	-11.4535
▁sedan	-11.4536
▁matern	-11.4536
▁reconsider	-11.4537
▁trademark	-11.4539
▁tide	-11.4543
▁fourth	-11.4545
▁distraction	-11.455
▁ceyl	-11.455
▁kilo	-11.4553
terti	-11.4559
▁disabled	-11.4567
▁cling	-11.4583
▁deriv	-11.4585
▁hora	-11.4589
etco	-11.4594
▁selective	-11.4596
▁hacker	-11.4599
their	-11.4599
tress	-11.4621
▁ont	-11.4626
▁robot	-11.4632
plant	-11.4634
▁eur	-11.4666
tml	-11.4668
ette	-11.4696
▁bow	-11.4698
uncommon	-11.4707
▁declar	-11.4733
▁alli	-11.4746
receiv	-11.4751
big	-11.4769
▁thoughtful	-11.4779
▁comprehen	-11.4829
page	-11.4829
▁lev	-11.4838
alley	-11.489
legal	-11.4896
pleasant	-11.4914
regulate	-11.4915
deserve	-11.4915
recognize	-11.4915
regret	-11.4915
deliver	-11.4915
general	-11.4917
wrong	-11.4918
born	-11.4919
market	-11.4922
drink	-11.4948
otic	-11.4955
▁turm	-11.4958
▁offens	-11.4966
▁tum	-11.4985
▁instruct	-11.4987
onsite	-11.4987
▁innovat	-11.4989
train	-11.4994
habi	-11.4997
▁aftermath	-11.5001
▁aptitude	-11.5001
▁argentin	-11.5001
▁assimilat	-11.5001
▁commodity	-11.5001
▁dessert	-11.5001
▁dismantle	-11.5001
▁dynast	-11.5001
▁etiquette	-11.5001
▁fiasco	-11.5001
▁fluctuation	-11.5001
▁forensic	-11.5001
▁hazard	-11.5001
▁isolation	-11.5001
▁landslide	-11.5001
▁majest	-11.5001
▁misogyn	-11.5001
▁nostalgi	-11.5001
▁piracy	-11.5001
▁proficient	-11.5001
▁protocol	-11.5001
▁remedy	-11.5001
▁sacred	-11.5001
▁savvy	-11.5001
▁scandinavia	-11.5001
▁significance	-11.5001
▁subcontinent	-11.5001
▁subsidiary	-11.5001
▁summarize	-11.5001
▁transgender	-11.5001
▁vigilant	-11.5001
▁visibility	-11.5001
▁amateur	-11.5001
▁axio	-11.5001
▁igcse	-11.5001
▁monument	-11.5001
▁punctu	-11.5001
▁sunrise	-11.5001
▁kbps	-11.5001
▁optimize	-11.5001
▁cancellation	-11.5001
▁accompan	-11.5001
▁cherry	-11.5001
▁justification	-11.5001
▁latency	-11.5001
▁situate	-11.5001
▁swrd	-11.5001
▁grassroot	-11.5001
▁ragging	-11.5001
▁astrolog	-11.5001
▁blur	-11.5001
▁fertil	-11.5001
▁mitigat	-11.5001
▁nicotin	-11.5001
▁bbc	-11.5001
▁servi	-11.5002
▁multinational	-11.5002
▁chamber	-11.5002
▁baffl	-11.5002
▁illiterate	-11.5002
▁valor	-11.5002
▁eight	-11.5002
▁fintech	-11.5002
ozy	-11.5002
▁probability	-11.5002
▁ruling	-11.5003
▁substitut	-11.5004
▁reconnect	-11.5004
▁guardian	-11.5005
▁corro	-11.5006
▁synd	-11.5006
▁merge	-11.5008
▁monger	-11.5008
▁fond	-11.5008
▁noob	-11.5008
▁canva	-11.5008
▁jee	-11.5009
▁fascist	-11.501
▁coca	-11.5011
▁skate	-11.5012
▁nano	-11.5013
itarian	-11.5015
▁baiya	-11.5016
▁lense	-11.5017
▁neela	-11.5017
▁forcefully	-11.5018
▁inspection	-11.502
▁sack	-11.502
▁nasa	-11.5027
▁shell	-11.5028
▁overha	-11.5034
strain	-11.5035
▁amen	-11.5036
▁damm	-11.5045
▁jb	-11.5099
generat	-11.5111
▁cele	-11.5134
▁wrapp	-11.5138
eau	-11.5181
▁sala	-11.5208
prop	-11.5209
▁chai	-11.5212
▁journalis	-11.5248
▁elevat	-11.5252
gotten	-11.5278
▁emi	-11.5307
▁liv	-11.5312
ature	-11.5317
uka	-11.5335
▁factual	-11.5337
▁modernize	-11.536
▁manipulat	-11.5363
▁insecur	-11.5369
properly	-11.5375
▁virtu	-11.5388
effective	-11.5415
cheap	-11.5415
question	-11.5416
living	-11.5416
impossible	-11.5422
blue	-11.5422
shake	-11.5423
suitable	-11.5424
▁simp	-11.5427
blow	-11.5433
already	-11.5451
zone	-11.5451
▁thorough	-11.5452
▁bark	-11.5461
track	-11.5473
▁nois	-11.5489
pushpi	-11.5491
▁noo	-11.5495
compass	-11.5495
▁autonomy	-11.5501
▁awhile	-11.5501
▁bureaucrat	-11.5501
▁cemetery	-11.5501
▁congrats	-11.5501
▁embark	-11.5501
▁gammanpil	-11.5501
▁megathread	-11.5501
▁molecul	-11.5501
▁quantitative	-11.5501
▁recipient	-11.5501
▁refrigerat	-11.5501
▁sanskr	-11.5501
▁sympathy	-11.5501
▁vacuum	-11.5501
▁elitist	-11.5501
▁iraq	-11.5501
▁jkcg	-11.5501
▁loudspeaker	-11.5501
▁rabbit	-11.5501
▁rainbow	-11.5501
▁vessel	-11.5501
▁masculin	-11.5501
▁froze	-11.5501
▁flirt	-11.5501
▁calcey	-11.5501
▁deteriorat	-11.5501
▁griev	-11.5502
discriminatory	-11.5502
▁ayya	-11.5502
▁fried	-11.5502
▁flour	-11.5502
▁plc	-11.5502
▁demotivate	-11.5502
▁systematic	-11.5502
▁diligen	-11.5502
▁rajarat	-11.5502
▁romania	-11.5502
▁hedge	-11.5502
▁ddr	-11.5502
▁prosecut	-11.5502
▁renow	-11.5503
bhaya	-11.5503
▁nuwaraeliy	-11.5503
▁minimis	-11.5503
▁victor	-11.5503
▁distress	-11.5504
▁undermine	-11.5504
▁breast	-11.5504
▁crawl	-11.5505
▁hinder	-11.5505
▁moham	-11.5506
▁spew	-11.5506
▁incase	-11.5507
▁tutorial	-11.5507
▁hoop	-11.5508
▁litre	-11.5509
▁cush	-11.551
▁soak	-11.5511
▁infant	-11.5511
▁proxim	-11.5511
▁lank	-11.5513
▁moderation	-11.5513
▁weakness	-11.5514
ahini	-11.5515
▁stain	-11.5516
▁civilization	-11.5522
amble	-11.5523
▁uphold	-11.5525
▁weaken	-11.5526
▁coke	-11.5533
▁overwork	-11.5534
▁chant	-11.5536
▁mendi	-11.5537
▁hdi	-11.5539
▁lick	-11.5543
▁symbolic	-11.5547
▁irresponsibl	-11.5549
▁hama	-11.5561
▁forc	-11.5588
▁roti	-11.5595
▁dispa	-11.5599
▁yew	-11.56
amine	-11.5626
▁salv	-11.5643
▁dock	-11.5646
▁wad	-11.5647
▁yog	-11.566
▁mel	-11.568
authoriz	-11.5719
▁yh	-11.5746
mesh	-11.5768
eval	-11.5792
munu	-11.5795
▁rub	-11.5825
▁mumb	-11.5829
jab	-11.5843
▁popula	-11.588
▁humiliate	-11.5892
▁pip	-11.592
equality	-11.5941
productive	-11.5941
sufficient	-11.5941
temporary	-11.5941
significant	-11.5942
explain	-11.5942
improve	-11.5942
▁upgrad	-11.5947
float	-11.5949
carry	-11.595
▁freelanc	-11.5974
where	-11.5996
▁warrant	-11.5998
▁rememb	-11.6004
ocket	-11.6026
▁ambulance	-11.6027
▁bhutan	-11.6027
▁bluetooth	-11.6027
▁complication	-11.6027
▁eradicate	-11.6027
▁fragrance	-11.6027
▁inconsistent	-11.6027
▁kingsbury	-11.6027
▁linguistic	-11.6027
▁narcissist	-11.6027
▁packaging	-11.6027
▁pregnancy	-11.6027
▁pseudo	-11.6027
▁repetitive	-11.6027
▁separatist	-11.6027
▁sympathize	-11.6027
▁tarnish	-11.6027
▁tarrif	-11.6027
▁dominant	-11.6027
▁refurbish	-11.6027
▁utilise	-11.6027
▁billionaire	-11.6027
▁evasion	-11.6027
▁marvel	-11.6027
▁tolerance	-11.6027
▁annum	-11.6027
▁freeloader	-11.6028
▁zionist	-11.6028
▁crippl	-11.6028
▁slogan	-11.6028
▁playstation	-11.6028
▁revel	-11.6028
▁sambol	-11.6028
▁avurud	-11.6028
▁evisa	-11.6028
▁prioritise	-11.6028
▁steep	-11.6028
▁vedda	-11.6028
▁worm	-11.6028
▁pricy	-11.6028
▁maradan	-11.6028
▁vibran	-11.6028
▁musk	-11.6028
solicit	-11.6028
▁telephone	-11.6028
▁awake	-11.6029
▁overthrow	-11.6029
▁belitt	-11.6029
▁rigid	-11.6029
▁actress	-11.6029
▁gorge	-11.6029
▁oblivious	-11.603
▁tweak	-11.603
▁misplace	-11.603
▁sustainability	-11.603
▁defect	-11.603
▁sanath	-11.603
▁turbo	-11.6031
▁triang	-11.6032
▁summon	-11.6032
▁lavish	-11.6032
▁decency	-11.6032
▁degrade	-11.6032
ossil	-11.6032
▁wiki	-11.6032
▁discourse	-11.6032
▁overhead	-11.6033
▁soap	-11.6034
▁viva	-11.6035
▁recharge	-11.6036
▁fixture	-11.6036
▁pork	-11.6037
▁instalment	-11.6037
▁tok	-11.6038
▁mira	-11.6039
▁shithole	-11.604
zza	-11.604
▁appeti	-11.604
▁wataw	-11.6043
▁guru	-11.6044
▁heel	-11.6046
▁airpo	-11.6048
▁attachment	-11.6049
▁pound	-11.6049
▁irl	-11.6054
▁firework	-11.6059
esco	-11.6076
▁corpora	-11.6076
▁daw	-11.6098
▁smil	-11.6101
fringe	-11.6103
rong	-11.6108
▁cleanse	-11.6114
▁erase	-11.6123
▁assassin	-11.614
▁clos	-11.616
urst	-11.6268
common	-11.6283
atik	-11.6289
▁oversee	-11.6303
produc	-11.6304
▁literar	-11.6312
cpc	-11.6333
▁mobil	-11.6338
▁tast	-11.6376
idu	-11.6383
▁intro	-11.643
tube	-11.6461
order	-11.6491
cross	-11.6495
appear	-11.6496
spoken	-11.6496
mobile	-11.6497
corrupt	-11.6497
financial	-11.6497
field	-11.6497
service	-11.6497
attend	-11.6502
▁corp	-11.6545
▁delusion	-11.6568
struct	-11.6572
root	-11.6576
discriminat	-11.6576
▁suspicio	-11.658
issamaharama	-11.6583
suicidal	-11.6583
wickrama	-11.6583
▁census	-11.6583
▁compliment	-11.6583
▁delicious	-11.6583
▁maithree	-11.6583
▁parakrama	-11.6583
▁pretentious	-11.6583
▁ratmalan	-11.6583
▁ridicule	-11.6583
▁sapphire	-11.6583
▁saviour	-11.6583
▁scrutiny	-11.6583
▁simultaneously	-11.6583
▁surgical	-11.6583
▁switzerland	-11.6583
▁translator	-11.6583
▁undervalue	-11.6583
▁livelihood	-11.6583
▁tonight	-11.6583
▁ambuluwa	-11.6583
▁david	-11.6583
▁equation	-11.6583
▁deflation	-11.6583
▁electorate	-11.6583
▁spike	-11.6583
▁milestone	-11.6583
▁prophet	-11.6583
▁covent	-11.6583
▁deceive	-11.6583
arachchi	-11.6583
▁dutug	-11.6583
▁downsize	-11.6583
▁arjun	-11.6583
▁virtusa	-11.6583
▁tusk	-11.6583
provoke	-11.6583
▁carbon	-11.6584
▁tyran	-11.6584
▁deactivate	-11.6584
▁llc	-11.6585
ocracy	-11.6585
▁malayali	-11.6585
▁ryz	-11.6585
▁nonetheless	-11.6585
▁oversight	-11.6585
▁pollute	-11.6585
▁compose	-11.6585
▁downward	-11.6586
▁sinop	-11.6586
▁noble	-11.6587
▁abide	-11.6588
▁mastercard	-11.6588
▁broke	-11.6588
▁divert	-11.6589
▁inexperience	-11.6589
▁sabha	-11.659
▁garn	-11.6592
▁infra	-11.6595
fusion	-11.6597
▁repost	-11.6598
▁reload	-11.6598
▁oop	-11.6599
wax	-11.6605
indu	-11.6605
▁cord	-11.6609
▁waive	-11.6618
▁irritate	-11.6634
tician	-11.6649
▁verifi	-11.6649
ppu	-11.665
▁compel	-11.6659
radar	-11.666
ody	-11.667
arine	-11.6673
▁reviv	-11.6686
▁cig	-11.6693
oof	-11.6714
ctb	-11.6715
▁assembl	-11.6731
ishwa	-11.676
▁incom	-11.6782
licate	-11.6833
wash	-11.6908
mart	-11.6915
▁kei	-11.6929
eksha	-11.6944
ombi	-11.7016
direct	-11.7029
▁wag	-11.705
wila	-11.7056
▁analytic	-11.7072
▁upward	-11.7074
▁logistic	-11.7075
official	-11.7077
safe	-11.7081
respect	-11.7084
storm	-11.7084
surprising	-11.7085
privilege	-11.7085
dialog	-11.7086
wife	-11.7086
successful	-11.7086
monkey	-11.7088
personally	-11.7088
frame	-11.7089
please	-11.709
rathna	-11.7091
rush	-11.7091
risk	-11.7098
bank	-11.71
shot	-11.7101
▁coffe	-11.7109
through	-11.7119
▁democrat	-11.7162
▁avail	-11.7164
erahera	-11.7165
▁destin	-11.7167
▁psychiatr	-11.7168
arrow	-11.7171
▁ambitio	-11.7171
▁spontaneous	-11.7171
disproportionate	-11.7171
▁antenna	-11.7171
▁appease	-11.7171
▁cashflow	-11.7171
▁categorize	-11.7171
▁clutch	-11.7171
▁commemorat	-11.7171
▁critiqu	-11.7171
▁detriment	-11.7171
▁distinguish	-11.7171
▁freight	-11.7171
▁gullible	-11.7171
▁hackathon	-11.7171
▁imbalance	-11.7171
▁invalid	-11.7171
▁myanmar	-11.7171
▁negativity	-11.7171
▁ratnapura	-11.7171
▁responsive	-11.7171
▁soviet	-11.7171
▁trivial	-11.7171
▁umbrella	-11.7171
▁upbringing	-11.7171
▁uplift	-11.7171
▁anthare	-11.7171
▁extraordinar	-11.7171
▁noodle	-11.7171
▁orthodonti	-11.7171
▁parliment	-11.7171
▁savior	-11.7171
▁smoking	-11.7171
▁unaffordable	-11.7171
▁whistle	-11.7171
▁appliance	-11.7171
▁inhumane	-11.7171
desirable	-11.7171
▁alphabet	-11.7171
▁mourn	-11.7171
▁practise	-11.7171
▁companion	-11.7171
▁detach	-11.7171
▁thomas	-11.7171
▁commend	-11.7171
▁frugal	-11.7171
▁physiotherap	-11.7171
▁spoon	-11.7171
▁workflow	-11.7171
▁writing	-11.7171
▁commence	-11.7171
▁plung	-11.7171
▁brigad	-11.7171
▁intact	-11.7171
▁album	-11.7171
▁breez	-11.7171
▁adani	-11.7171
▁flame	-11.7171
▁multiply	-11.7171
▁pulse	-11.7171
▁strive	-11.7171
▁nerve	-11.7171
▁meritocracy	-11.7172
▁obstruct	-11.7172
▁moistur	-11.7172
▁esport	-11.7172
zzle	-11.7172
▁impractical	-11.7172
▁crore	-11.7172
▁reef	-11.7172
▁itenar	-11.7172
▁tyre	-11.7172
▁kidnap	-11.7172
▁crumble	-11.7173
▁contaminat	-11.7173
▁championship	-11.7173
▁rotten	-11.7173
▁telco	-11.7174
▁pillow	-11.7174
▁whitewash	-11.7174
▁greek	-11.7174
▁incite	-11.7175
▁photoshop	-11.7175
ploy	-11.7178
▁cmc	-11.7179
▁heap	-11.7179
▁peko	-11.7181
▁void	-11.7181
▁node	-11.7181
▁ryt	-11.7182
▁experi	-11.7182
▁literate	-11.7184
▁shallow	-11.7185
drove	-11.7185
▁platin	-11.7185
▁shein	-11.7186
▁pond	-11.7188
▁toe	-11.7189
▁disagreement	-11.719
▁acid	-11.7193
▁jerk	-11.7195
▁corri	-11.7196
▁bye	-11.7196
lancer	-11.7199
▁ets	-11.7202
retake	-11.7205
▁swedis	-11.7208
ether	-11.7211
▁persu	-11.7212
▁sour	-11.7216
dans	-11.7216
▁originate	-11.7221
▁graphi	-11.7223
ipline	-11.7233
▁eke	-11.7247
▁chee	-11.728
attle	-11.7281
roach	-11.7313
rust	-11.7326
▁populate	-11.7326
▁mawa	-11.7344
▁aram	-11.7379
▁wheat	-11.7407
▁priv	-11.7447
▁jaw	-11.7469
▁gau	-11.7474
assis	-11.7491
characteristic	-11.7553
illion	-11.7626
sphe	-11.7645
▁volt	-11.7672
revive	-11.7689
connect	-11.7705
fluent	-11.7706
sense	-11.7709
constitutional	-11.771
next	-11.771
cultural	-11.771
national	-11.771
unique	-11.771
choose	-11.7711
study	-11.7711
treat	-11.7712
walk	-11.7713
local	-11.7713
feed	-11.7716
life	-11.7728
ranil	-11.773
kart	-11.7732
▁circulat	-11.7747
realise	-11.7748
▁cultivat	-11.7758
believ	-11.7764
▁millenni	-11.7781
▁motiv	-11.7788
convinc	-11.779
▁oblivio	-11.7794
throw	-11.7794
tream	-11.7795
▁quest	-11.7795
▁chaba	-11.7796
▁mysterious	-11.7796
▁stubborn	-11.7796
▁abeysingh	-11.7796
▁accuracy	-11.7796
▁acquaintance	-11.7796
▁anecdotal	-11.7796
▁bilingual	-11.7796
▁circular	-11.7796
▁coincidence	-11.7796
▁conglomerate	-11.7796
▁correlat	-11.7796
▁disciplinar	-11.7796
▁ergonomic	-11.7796
▁greece	-11.7796
▁horrendous	-11.7796
▁hyperinflation	-11.7796
▁indulge	-11.7796
▁inflict	-11.7796
▁infuriate	-11.7796
▁instinct	-11.7796
▁intrigu	-11.7796
▁jeppa	-11.7796
▁justifiabl	-11.7796
▁kilometer	-11.7796
▁maldivian	-11.7796
▁nephew	-11.7796
▁nuisance	-11.7796
▁obscur	-11.7796
▁olevel	-11.7796
▁pragmatic	-11.7796
▁prejudice	-11.7796
▁psychopath	-11.7796
▁revoke	-11.7796
▁sarcastic	-11.7796
▁succumb	-11.7796
▁wasantha	-11.7796
▁column	-11.7796
▁constraint	-11.7796
▁egypt	-11.7796
▁mitsub	-11.7796
▁rebrand	-11.7796
▁supervisor	-11.7796
▁unfold	-11.7796
▁airplane	-11.7796
▁prevail	-11.7796
▁revision	-11.7796
▁wreck	-11.7796
biceps	-11.7796
▁sneez	-11.7796
▁fetch	-11.7796
▁sheep	-11.7796
▁outlier	-11.7796
▁testimon	-11.7796
▁politico	-11.7796
▁puthano	-11.7796
▁utopia	-11.7796
▁analog	-11.7796
▁candle	-11.7796
▁premio	-11.7796
▁newcomer	-11.7797
▁emirate	-11.7797
▁beginning	-11.7797
▁seettu	-11.7797
▁cnn	-11.7797
▁brainstorm	-11.7798
▁inning	-11.7798
▁optimis	-11.7798
▁abnormal	-11.7798
▁rogue	-11.7798
adasa	-11.7798
▁confine	-11.7798
▁discretion	-11.7798
dney	-11.7798
▁kadu	-11.7799
pulsar	-11.7799
▁unknowing	-11.78
▁nilad	-11.78
▁cooperate	-11.78
▁submission	-11.7801
▁redirect	-11.7801
▁federalism	-11.7801
▁leech	-11.7802
▁preschool	-11.7802
▁mofo	-11.7802
▁superpower	-11.7802
▁smash	-11.7803
▁drift	-11.7803
▁disturbance	-11.7803
▁chew	-11.7804
▁timetable	-11.7804
▁prick	-11.7804
▁glim	-11.7805
bulb	-11.7805
▁simulat	-11.7807
▁reinvest	-11.7807
▁rebellio	-11.7808
▁chore	-11.7811
naka	-11.7812
▁oust	-11.7813
▁typo	-11.7819
▁mutt	-11.782
capita	-11.783
aksha	-11.7836
clockwise	-11.7862
▁samba	-11.7876
vamp	-11.7877
▁arabia	-11.791
▁devalu	-11.7958
▁verit	-11.7973
azine	-11.7984
▁vijay	-11.7989
echo	-11.8044
deniya	-11.8058
▁champ	-11.8069
iji	-11.8081
▁shrin	-11.8083
▁rotat	-11.8085
ajj	-11.8089
▁migra	-11.8104
kok	-11.8192
▁concentrat	-11.8192
▁shar	-11.8231
nny	-11.8231
▁cabra	-11.8249
▁dudl	-11.8294
▁purchas	-11.8303
pora	-11.831
feasible	-11.8377
eligible	-11.8377
reflect	-11.8377
commerce	-11.8377
approve	-11.8377
wealth	-11.8377
commit	-11.8377
address	-11.8377
colombo	-11.8377
decide	-11.8377
perform	-11.8378
serious	-11.8378
reply	-11.8379
flag	-11.8382
when	-11.839
fight	-11.8393
scale	-11.8405
nadu	-11.8408
▁excu	-11.8413
wipe	-11.8439
nayaka	-11.8447
hygienic	-11.8454
▁beneficia	-11.8456
▁towe	-11.8457
ustralia	-11.8459
▁prostitut	-11.8459
iterate	-11.8461
surrender	-11.8463
▁bizarre	-11.8463
▁bungalow	-11.8463
▁columbo	-11.8463
▁consulate	-11.8463
▁extravagant	-11.8463
▁hahaha	-11.8463
▁hashtag	-11.8463
▁illustrat	-11.8463
▁immune	-11.8463
▁inconvenient	-11.8463
▁jazeera	-11.8463
▁negligence	-11.8463
▁nutshell	-11.8463
▁ruppee	-11.8463
▁surveill	-11.8463
▁sympathise	-11.8463
▁vijitha	-11.8463
▁denominat	-11.8463
▁resentment	-11.8463
▁rotaract	-11.8463
▁ruthless	-11.8463
▁suffice	-11.8463
▁jazz	-11.8463
▁pacifi	-11.8463
▁maligawa	-11.8463
▁spineless	-11.8463
▁struck	-11.8463
▁parasite	-11.8463
▁ptsd	-11.8463
▁spider	-11.8463
▁adverse	-11.8463
▁bangalor	-11.8463
▁firearm	-11.8463
▁deflect	-11.8463
▁unlawful	-11.8463
▁riyase	-11.8463
▁crisp	-11.8463
▁puzzle	-11.8463
▁jose	-11.8463
▁nigeria	-11.8463
▁prado	-11.8463
▁dissent	-11.8463
▁alpha	-11.8463
▁lurk	-11.8463
▁youu	-11.8464
eshwar	-11.8464
▁surpass	-11.8464
▁legitima	-11.8464
▁mihin	-11.8464
▁kovil	-11.8464
▁revert	-11.8464
▁festivit	-11.8464
▁procurement	-11.8465
▁flourish	-11.8465
balloon	-11.8466
▁burglar	-11.8466
▁memorial	-11.8466
▁typ	-11.8467
▁prosperous	-11.8467
▁incline	-11.8468
▁platter	-11.8469
▁amplif	-11.8469
▁ginger	-11.847
▁legislative	-11.8471
▁sadden	-11.8471
▁bharat	-11.8472
▁laid	-11.8478
▁grip	-11.848
▁kamal	-11.8481
▁jog	-11.8482
nautica	-11.8484
▁militan	-11.8485
▁meddl	-11.8491
halo	-11.8491
▁vesa	-11.8514
▁charle	-11.8546
secure	-11.8554
idden	-11.8569
why	-11.8573
voltage	-11.8618
provid	-11.8621
▁veh	-11.8623
amw	-11.8673
guise	-11.8777
▁limb	-11.8825
▁vulnerabilit	-11.8848
favorable	-11.8858
▁educat	-11.8879
vidia	-11.8931
staffed	-11.8934
▁challeng	-11.8976
emini	-11.9008
scope	-11.9025
comfortable	-11.9083
exceed	-11.9091
glass	-11.9091
particular	-11.9091
suggest	-11.9092
push	-11.9093
control	-11.9094
liza	-11.9096
flex	-11.9097
▁gradual	-11.9133
▁relieve	-11.9152
galle	-11.9166
▁kelani	-11.9175
▁ortho	-11.9177
▁rambukw	-11.9177
▁atrocious	-11.9177
▁ideological	-11.9177
▁infamous	-11.9177
clamation	-11.9177
▁aspiration	-11.9177
▁athletic	-11.9177
▁desperation	-11.9177
▁exacerbate	-11.9177
▁innovex	-11.9177
▁karunaratn	-11.9177
▁kindergarten	-11.9177
▁laundry	-11.9177
▁lesbian	-11.9177
▁messenger	-11.9177
▁misguide	-11.9177
▁orchestrat	-11.9177
▁ponzi	-11.9177
▁relocation	-11.9177
▁shenanigan	-11.9177
▁sophisticate	-11.9177
▁stimulate	-11.9177
▁supremac	-11.9177
▁voluntar	-11.9177
▁weerasinghe	-11.9177
▁wickramasinghe	-11.9177
▁applaud	-11.9177
▁bacteria	-11.9177
▁nurture	-11.9177
▁pickleball	-11.9177
▁separation	-11.9177
▁extort	-11.9177
▁lagoon	-11.9177
▁reckon	-11.9177
▁regain	-11.9177
▁stroke	-11.9177
▁motif	-11.9177
▁rifle	-11.9177
▁tribal	-11.9177
▁bleak	-11.9177
▁backbone	-11.9177
▁duplicat	-11.9177
▁clone	-11.9178
▁orthopedi	-11.9178
▁traumatize	-11.9178
▁pedest	-11.9178
iju	-11.9178
▁jdm	-11.9178
▁dhal	-11.9178
▁confess	-11.9178
▁mistreat	-11.9178
▁lightning	-11.9179
▁peotv	-11.9179
▁gearbox	-11.9179
▁ugh	-11.9179
▁remainder	-11.9179
▁kumana	-11.9179
▁conscience	-11.9179
▁manju	-11.9179
▁numb	-11.918
▁emulat	-11.918
▁horrify	-11.918
▁upali	-11.9181
▁biotech	-11.9181
▁mentorship	-11.9181
▁modification	-11.9181
▁displace	-11.9182
▁vivo	-11.9183
▁juris	-11.9183
▁kyc	-11.9183
▁slipper	-11.9184
measur	-11.9185
▁graf	-11.9186
▁nausea	-11.9186
▁sigri	-11.9189
▁barbari	-11.9189
elimina	-11.9191
▁dansal	-11.9191
▁becu	-11.9191
egory	-11.9192
▁muru	-11.9195
▁dehiw	-11.9203
asina	-11.9219
▁hydro	-11.922
▁desha	-11.9222
ault	-11.9226
▁nalin	-11.9229
atali	-11.9233
ooh	-11.9334
elva	-11.936
▁thera	-11.9537
egian	-11.9615
figure	-11.9616
▁crud	-11.9618
rawn	-11.9625
nanayak	-11.9699
▁nomina	-11.9761
rigor	-11.9808
interfere	-11.9859
supposed	-11.986
wood	-11.986
proven	-11.986
democratic	-11.986
sweat	-11.986
defend	-11.986
schedule	-11.9861
discuss	-11.9861
natural	-11.9861
divide	-11.9861
complain	-11.9861
avoid	-11.9861
compatib	-11.9861
culture	-11.9861
anymore	-11.9862
▁skeptic	-11.9932
▁explanat	-11.9937
▁nsb	-11.9939
▁militariz	-11.9946
ajudeen	-11.9946
▁bamboo	-11.9946
▁booze	-11.9946
▁congestion	-11.9946
▁contender	-11.9946
▁finasterid	-11.9946
▁gratitude	-11.9946
▁indefinite	-11.9946
▁kotelaw	-11.9946
▁mexico	-11.9946
▁negligible	-11.9946
▁negotiable	-11.9946
▁nightclub	-11.9946
▁oxygen	-11.9946
▁paralympic	-11.9946
▁pogrom	-11.9946
▁porsche	-11.9946
▁smuggle	-11.9946
▁steadily	-11.9946
▁tangible	-11.9946
▁uphill	-11.9946
▁uprising	-11.9946
▁volatility	-11.9946
▁communal	-11.9946
▁maritime	-11.9946
▁multiplayer	-11.9946
▁neoliberal	-11.9946
▁reinforce	-11.9946
▁roadblock	-11.9946
▁wannabe	-11.9946
▁chathuri	-11.9946
▁mystery	-11.9946
▁redundan	-11.9946
▁wijewarden	-11.9946
▁correspond	-11.9946
▁deplete	-11.9946
▁seminar	-11.9946
▁bloodshed	-11.9946
▁thondama	-11.9946
▁hairstyl	-11.9947
▁hamper	-11.9947
▁revolt	-11.9947
▁wolver	-11.9947
▁robust	-11.9947
▁biotechnolog	-11.9947
trophy	-11.9947
▁marginalize	-11.9947
▁menace	-11.9947
▁dinemore	-11.9947
▁rajasinghe	-11.9947
▁stink	-11.9947
▁surcharge	-11.9947
▁excellenc	-11.9947
▁clever	-11.9947
▁outperform	-11.9947
▁adjac	-11.9948
▁loku	-11.9948
▁hatchback	-11.9948
▁inventory	-11.9948
▁dilute	-11.9948
▁flick	-11.9949
▁facade	-11.9949
▁nhs	-11.9959
▁nishan	-11.9965
▁dalad	-11.9974
▁usj	-11.9974
▁shanak	-11.9976
▁flora	-11.9991
▁stylis	-12.0006
media	-12.0008
▁energ	-12.0023
▁mingl	-12.0026
vaccinated	-12.0059
▁clou	-12.0075
▁sensitiv	-12.0119
▁lamb	-12.0121
▁sanga	-12.0123
revi	-12.0142
alinga	-12.0197
frog	-12.0275
▁kalpit	-12.0314
epic	-12.0351
ldl	-12.0352
blam	-12.0436
uddh	-12.0498
▁btec	-12.0558
sushi	-12.0571
cumb	-12.0667
correct	-12.069
fast	-12.0691
science	-12.0692
food	-12.0693
applicable	-12.0693
N	-12.38
S	-13.256
G	-13.5978
P	-13.5979
